~o
<STREAMINFO> 1 39
<VECSIZE> 39<NULLD><MFCC_D_A><DIAGC>
~h "a"
<BEGINHMM>
<NUMSTATES> 7
<STATE> 2
<NUMMIXES> 2
<MIXTURE> 1 9.873731e-01
<MEAN> 39
 1.077052e+01 -7.786627e+00 -5.820305e+00 3.353566e+00 4.910403e+00 -5.588722e-01 -8.299052e+00 1.375923e+01 -5.602160e+00 -1.371001e+01 9.180691e+00 1.213094e+00 -1.670010e-01 1.976568e+00 -3.215078e-01 -1.081969e+00 2.544733e-01 7.448156e-01 -1.391402e+00 -1.222221e+00 1.062783e+00 -4.976093e-01 -1.367441e+00 1.088271e+00 2.347188e-01 -5.991811e-01 -2.732414e-01 -4.217895e-02 9.573586e-02 -4.882873e-02 -1.643529e-02 6.552161e-02 4.709928e-02 -3.893621e-02 7.156656e-02 1.024821e-01 -6.764170e-02 4.239575e-02 7.109803e-02
<VARIANCE> 39
 1.858051e+02 4.865175e+01 5.684062e+01 6.266999e+01 8.642419e+01 9.455153e+01 9.471568e+01 1.113482e+02 8.709084e+01 9.002296e+01 7.937631e+01 2.806015e+01 3.082168e+01 3.460111e+00 2.347779e+00 4.179991e+00 4.055381e+00 3.061679e+00 4.474180e+00 4.110700e+00 3.707389e+00 4.053303e+00 4.681199e+00 3.856617e+00 1.682882e+00 2.009080e+00 3.966760e-01 3.530744e-01 6.219853e-01 7.362899e-01 4.350871e-01 6.192670e-01 5.627601e-01 6.008563e-01 7.314889e-01 8.497975e-01 6.510476e-01 2.747645e-01 3.601083e-01
<GCONST> 1.347577e+02
<MIXTURE> 2 1.262575e-02
<MEAN> 39
 1.565603e+01 -1.771277e+01 2.160499e-01 6.298582e+00 2.075942e+00 3.885008e+00 -1.584960e+01 6.687872e+00 -5.078608e+00 -1.833314e+01 9.853655e+00 3.332599e+00 -1.940107e+00 1.176110e+00 8.803341e-01 -2.113991e+00 -1.223646e-01 8.163445e-01 -2.056645e+00 -6.526169e-01 1.015192e+00 -4.376107e-01 -7.442025e-01 1.158418e+00 4.246606e-01 -4.146687e-01 -4.902107e-01 1.811532e-01 2.768142e-01 -6.225554e-03 2.241857e-01 6.662140e-02 2.975847e-01 1.414305e-01 8.094905e-02 4.861354e-01 -7.455279e-02 -9.634794e-02 2.280833e-01
<VARIANCE> 39
 8.318284e+01 1.023899e+02 4.264446e+01 4.143699e+01 8.955341e+01 9.449165e+01 8.485439e+01 1.123586e+02 3.982194e+01 8.318145e+01 7.020651e+01 1.844557e+01 2.660855e+01 1.215902e+00 2.246972e+00 3.577288e+00 1.376846e+00 2.047761e+00 4.336182e+00 2.624539e+00 2.288495e+00 1.400959e+00 2.720669e+00 2.044348e+00 9.547082e-01 1.435127e+00 2.444210e-01 3.242732e-01 4.648942e-01 2.264735e-01 3.412108e-01 4.072390e-01 3.394569e-01 3.435126e-01 2.840469e-01 3.762979e-01 3.699498e-01 1.765082e-01 1.356286e-01
<GCONST> 1.180358e+02
<STATE> 3
<NUMMIXES> 2
<MIXTURE> 1 6.325488e-01
<MEAN> 39
 2.229129e+01 -1.014327e+01 -9.993221e+00 4.803813e+00 5.746948e+00 -1.111673e+01 -1.342459e+01 2.314896e+01 -2.964746e+00 -2.096951e+01 1.221920e+01 3.756791e+00 -3.559115e+00 -5.097084e-02 -1.124311e-01 -1.802171e-01 -1.349476e-01 1.730613e-01 -2.082769e-01 -3.147065e-01 -1.056780e-01 -4.015742e-02 -8.708128e-02 -3.193021e-03 9.146331e-02 1.090981e-01 -7.592037e-02 1.531983e-01 1.556967e-01 4.624074e-02 -1.736172e-04 1.399398e-01 7.643756e-02 -1.366779e-01 -4.586935e-03 9.754035e-02 -1.117660e-01 -5.726965e-02 2.609693e-02
<VARIANCE> 39
 7.734989e+00 1.621007e+01 3.206367e+01 1.461250e+01 4.979355e+01 4.899099e+01 9.054675e+01 6.327979e+01 6.893838e+01 4.362576e+01 8.023836e+01 1.383815e+01 1.805046e+01 5.546795e-01 6.222307e-01 7.826275e-01 5.932820e-01 7.491318e-01 1.111478e+00 1.372800e+00 1.542297e+00 8.811364e-01 9.992722e-01 1.471011e+00 5.291278e-01 5.063722e-01 9.044047e-02 7.565693e-02 1.006393e-01 8.336397e-02 8.209044e-02 1.032782e-01 1.499693e-01 1.748853e-01 8.152600e-02 1.315600e-01 1.658531e-01 8.122770e-02 6.834202e-02
<GCONST> 8.500120e+01
<MIXTURE> 2 3.674459e-01
<MEAN> 39
 1.967137e+01 -1.026605e+01 -6.959644e+00 5.426147e+00 1.280424e+01 -5.695721e+00 -1.971474e+01 1.759871e+01 -9.899143e+00 -2.209119e+01 1.731383e+01 2.608745e+00 -3.036036e+00 2.216721e-01 -1.936920e-01 -6.756964e-01 -4.226058e-01 2.294873e-01 -5.951849e-01 -5.658652e-01 4.310041e-01 4.226044e-02 -2.224107e-01 4.887917e-01 2.705023e-01 1.177564e-01 -1.931317e-01 1.060034e-01 2.589904e-01 8.096568e-02 -1.503375e-01 3.356704e-01 3.856733e-01 -3.081959e-01 1.646220e-01 3.781212e-01 -3.377258e-01 -5.447730e-02 1.222396e-01
<VARIANCE> 39
 3.667134e+01 3.505573e+01 5.398077e+01 3.909761e+01 7.067274e+01 6.102343e+01 7.934485e+01 8.457898e+01 6.736334e+01 5.901746e+01 9.393741e+01 2.488914e+01 2.746593e+01 5.993863e-01 8.226746e-01 1.195461e+00 1.465317e+00 1.118402e+00 1.634415e+00 2.327114e+00 2.655465e+00 1.447531e+00 2.055236e+00 2.494368e+00 1.031473e+00 1.004526e+00 1.550308e-01 1.318192e-01 2.122290e-01 2.227006e-01 2.091762e-01 2.224047e-01 3.812290e-01 5.030148e-01 2.194380e-01 4.021381e-01 4.286269e-01 1.917908e-01 1.655367e-01
<GCONST> 1.089608e+02
<STATE> 4
<NUMMIXES> 2
<MIXTURE> 1 2.305807e-03
<MEAN> 39
 2.202895e+01 -9.891797e+00 -6.789236e+00 5.250053e+00 7.512539e+00 3.401828e+00 -1.185700e+01 5.790171e+00 -4.530380e+00 -1.476012e+01 7.298382e+00 3.508708e+00 -1.657427e+00 7.916412e-01 8.796058e-01 -2.290107e+00 -4.685715e-01 1.603859e+00 -2.107979e+00 -1.074150e+00 1.429107e+00 -3.210770e-01 -1.445955e+00 5.110714e-01 3.589445e-01 -8.910667e-01 -1.004995e+00 -1.653176e-01 8.269803e-01 1.241808e-01 -5.393317e-02 3.927974e-01 3.403966e-01 2.059687e-01 3.825009e-01 3.460090e-01 -6.520259e-02 7.508888e-02 1.596670e-01
<VARIANCE> 39
 9.514158e+00 3.531783e+01 7.908136e+01 5.997337e+01 4.666724e+01 8.061349e+01 4.593166e+01 3.714291e+01 3.371793e+01 4.536155e+01 7.928790e+01 1.262811e+01 1.538465e+01 3.268054e+00 1.474799e+00 4.190865e+00 1.373895e+00 2.186222e+00 5.934350e+00 2.752982e+00 3.703254e+00 3.203685e+00 5.986707e+00 4.629590e+00 5.982358e-01 3.418095e+00 1.500820e-01 6.595248e-01 1.351350e-01 2.545385e-01 4.946167e-02 1.771706e-01 9.879104e-02 5.211500e-01 9.105915e-02 1.845742e-01 1.617599e-01 2.305886e-01 6.553709e-02
<GCONST> 1.085321e+02
<MIXTURE> 2 9.976941e-01
<MEAN> 39
 1.996838e+01 -9.753309e+00 -8.776835e+00 4.493636e+00 1.081281e+01 -7.204094e+00 -1.727058e+01 1.758748e+01 -7.190398e+00 -2.053743e+01 1.369782e+01 3.458930e+00 -2.220853e+00 -1.599127e-02 2.898439e-01 -2.285025e-02 9.792194e-02 1.882818e-01 7.495123e-02 6.683470e-02 -2.329186e-01 1.315662e-01 2.004461e-01 -2.347827e-01 3.194693e-03 8.006586e-02 -3.760765e-02 1.555403e-01 1.394493e-01 1.686559e-01 1.462674e-02 1.830453e-01 1.715485e-01 -1.156581e-01 4.854867e-02 1.044182e-01 -1.934759e-01 -8.772150e-02 -1.604667e-02
<VARIANCE> 39
 4.531625e+01 3.729549e+01 6.333781e+01 3.321294e+01 6.538587e+01 7.563236e+01 7.587650e+01 8.486365e+01 8.602425e+01 5.600897e+01 1.006469e+02 2.300144e+01 2.528411e+01 3.989373e-01 6.637705e-01 1.003548e+00 1.692513e+00 1.098706e+00 1.308891e+00 1.781917e+00 1.833990e+00 1.435191e+00 1.317453e+00 1.833195e+00 7.677794e-01 7.562749e-01 5.444194e-02 8.197723e-02 1.150467e-01 1.346832e-01 1.136801e-01 1.303732e-01 2.017789e-01 2.423018e-01 1.252248e-01 1.672121e-01 2.075243e-01 1.237404e-01 8.852635e-02
<GCONST> 9.818122e+01
<STATE> 5
<NUMMIXES> 2
<MIXTURE> 1 2.085505e-01
<MEAN> 39
 2.153970e+01 -9.558356e+00 -9.875076e+00 6.718320e+00 1.094482e+01 -5.066719e+00 -1.543213e+01 1.204955e+01 -7.033649e+00 -1.898512e+01 1.124083e+01 4.641786e+00 -2.294811e+00 -1.215968e-02 6.356392e-01 -1.714999e-01 1.336493e-01 2.752587e-01 1.608339e-01 3.641939e-01 -2.925201e-01 1.717900e-01 4.036918e-01 -6.599002e-01 -1.449597e-01 2.062384e-01 -1.018259e-01 1.912103e-01 1.366363e-01 9.289587e-02 6.898814e-02 1.046645e-01 7.194778e-02 1.225451e-01 5.470329e-02 3.251476e-02 -9.461399e-02 -1.187104e-01 2.652986e-02
<VARIANCE> 39
 1.380303e+01 2.616674e+01 4.025635e+01 2.608405e+01 4.405002e+01 5.934099e+01 5.699732e+01 5.588586e+01 5.647591e+01 4.949446e+01 7.155203e+01 1.943011e+01 2.386051e+01 8.457998e-01 1.025717e+00 1.130203e+00 1.061986e+00 1.178643e+00 1.459899e+00 2.278825e+00 2.261147e+00 1.212415e+00 1.687360e+00 2.512303e+00 7.492611e-01 8.283155e-01 1.885126e-01 1.300220e-01 1.818104e-01 9.889048e-02 1.257117e-01 1.673945e-01 2.794224e-01 3.151707e-01 1.656213e-01 2.655286e-01 3.130991e-01 1.169468e-01 1.277436e-01
<GCONST> 9.967884e+01
<MIXTURE> 2 7.914505e-01
<MEAN> 39
 1.958460e+01 -8.981539e+00 -7.828784e+00 4.579323e+00 1.096757e+01 -7.132237e+00 -1.742010e+01 1.915119e+01 -6.984189e+00 -2.092490e+01 1.415213e+01 2.604160e+00 -2.799653e+00 -1.662229e-01 6.617715e-01 2.633224e-01 4.798460e-01 2.339804e-01 5.005914e-01 5.127868e-01 -6.831656e-01 2.520356e-01 4.820817e-01 -7.489578e-01 -1.208570e-01 2.833626e-02 -7.969417e-02 1.985755e-01 1.432478e-01 1.902452e-01 -1.937344e-02 2.113424e-01 2.722059e-01 -2.434686e-01 1.073221e-01 2.100516e-01 -3.333576e-01 -6.186939e-02 2.372951e-02
<VARIANCE> 39
 5.457027e+01 4.117196e+01 7.709447e+01 3.325158e+01 7.187770e+01 8.912519e+01 7.937798e+01 8.970123e+01 9.851572e+01 6.208473e+01 1.232717e+02 2.570782e+01 3.092685e+01 6.563056e-01 8.940560e-01 1.165336e+00 2.255894e+00 1.487124e+00 1.618593e+00 2.770200e+00 3.297336e+00 1.630086e+00 2.037947e+00 3.107764e+00 1.082523e+00 9.305063e-01 1.185595e-01 1.040817e-01 1.455765e-01 1.421892e-01 1.543302e-01 1.976938e-01 3.099767e-01 4.033238e-01 2.099568e-01 3.076561e-01 3.661984e-01 1.704918e-01 1.384077e-01
<GCONST> 1.096241e+02
<STATE> 6
<NUMMIXES> 2
<MIXTURE> 1 4.275258e-01
<MEAN> 39
 1.257551e+01 -1.725776e+00 -2.589849e+00 8.087013e+00 1.063090e+01 1.403349e+00 -8.634944e+00 9.720800e+00 -6.293849e+00 -1.380751e+01 6.108081e+00 2.573495e+00 6.010805e-01 -1.345991e+00 1.339014e+00 1.118516e+00 7.313872e-01 2.315659e-02 8.512513e-01 1.079118e+00 -9.722294e-01 3.959138e-01 8.653684e-01 -1.348048e+00 -1.635804e-01 4.210697e-01 -1.413583e-01 -1.017175e-01 3.497067e-02 -3.380077e-02 -5.478794e-02 -8.202399e-02 -8.183593e-02 1.476886e-02 -1.244438e-02 2.246371e-02 6.831162e-02 -2.763259e-02 -2.075374e-02
<VARIANCE> 39
 1.262498e+02 8.566722e+01 1.162047e+02 5.735190e+01 6.516289e+01 1.222555e+02 7.757829e+01 1.174308e+02 8.264436e+01 6.270529e+01 1.062657e+02 3.871704e+01 4.573407e+01 3.459567e+00 2.912178e+00 3.154194e+00 3.382854e+00 2.256399e+00 3.553977e+00 3.498257e+00 3.714751e+00 2.539209e+00 3.428536e+00 3.911050e+00 1.683450e+00 2.058164e+00 2.231668e-01 3.371382e-01 3.850363e-01 2.756289e-01 2.356287e-01 3.761788e-01 4.886435e-01 4.602011e-01 4.340567e-01 4.518657e-01 5.425365e-01 2.422655e-01 2.712133e-01
<GCONST> 1.289544e+02
<MIXTURE> 2 5.724691e-01
<MEAN> 39
 2.018577e+01 -7.073151e+00 -8.294453e+00 6.511361e+00 1.093881e+01 -6.237338e+00 -1.518021e+01 1.631042e+01 -5.369839e+00 -1.687653e+01 1.349670e+01 3.350619e+00 -1.979457e+00 -6.984255e-02 2.770532e-01 1.204751e-01 1.278347e-01 -1.469799e-02 1.587948e-01 2.117885e-01 -2.382197e-01 3.795829e-02 2.111973e-01 -2.409546e-01 -1.113135e-01 -3.662767e-02 -1.453532e-02 3.403963e-02 4.257217e-02 3.408207e-02 3.671061e-02 7.725078e-02 3.855492e-02 -2.731415e-02 -2.815126e-02 -1.901834e-02 -3.954943e-02 -3.480237e-02 -3.860477e-02
<VARIANCE> 39
 3.974869e+01 4.504361e+01 6.870792e+01 4.037518e+01 6.115719e+01 6.912915e+01 8.841507e+01 9.024850e+01 6.658324e+01 7.416837e+01 1.071387e+02 2.160129e+01 2.496723e+01 3.913079e-01 4.849205e-01 7.097518e-01 7.384797e-01 7.828011e-01 1.004147e+00 1.499262e+00 1.691997e+00 9.999503e-01 1.225627e+00 1.662488e+00 7.320727e-01 6.171215e-01 5.301794e-02 6.085157e-02 9.269079e-02 1.038901e-01 1.024907e-01 1.248250e-01 2.057630e-01 2.302821e-01 1.173108e-01 1.737954e-01 2.142474e-01 1.183693e-01 8.869988e-02
<GCONST> 9.442049e+01
<TRANSP> 7
 0.000000e+00 1.000000e+00 0.000000e+00 0.000000e+00 0.000000e+00 0.000000e+00 0.000000e+00
 0.000000e+00 7.774433e-01 2.225567e-01 0.000000e+00 0.000000e+00 0.000000e+00 0.000000e+00
 0.000000e+00 0.000000e+00 7.544399e-01 2.455601e-01 0.000000e+00 0.000000e+00 0.000000e+00
 0.000000e+00 0.000000e+00 0.000000e+00 1.350479e-01 8.649522e-01 0.000000e+00 0.000000e+00
 0.000000e+00 0.000000e+00 0.000000e+00 0.000000e+00 1.700685e-01 8.299315e-01 0.000000e+00
 0.000000e+00 0.000000e+00 0.000000e+00 0.000000e+00 0.000000e+00 8.355104e-01 1.644896e-01
 0.000000e+00 0.000000e+00 0.000000e+00 0.000000e+00 0.000000e+00 0.000000e+00 0.000000e+00
<ENDHMM>
~h "b"
<BEGINHMM>
<NUMSTATES> 5
<STATE> 2
<NUMMIXES> 2
<MIXTURE> 1 5.000000e-01
<MEAN> 39
 9.582817e+00 4.084261e+00 5.818369e+00 1.175665e+01 9.764576e+00 9.964303e-01 -5.072583e+00 1.458918e+01 1.375786e+00 -1.024440e+01 -1.027100e+00 -3.100441e+00 -3.395502e+00 -2.228796e-03 -1.635391e-02 -2.801577e-02 -3.288290e-02 -3.609071e-02 -1.112094e-01 -5.466220e-02 1.988998e-01 1.797490e-01 1.520147e-02 3.166431e-03 3.910109e-04 6.140644e-02 1.003772e-02 -4.282207e-02 -2.361302e-02 -1.459432e-02 -1.273050e-02 -1.860709e-02 -2.093461e-02 3.336224e-04 1.190322e-02 -6.004020e-03 5.652627e-03 9.691821e-03 2.734959e-03
<VARIANCE> 39
 1.358421e+02 2.381749e+02 2.063804e+02 8.990614e+01 7.734948e+01 2.096633e+02 1.312082e+02 7.261643e+01 4.989963e+01 7.615037e+01 5.995863e+01 2.913513e+01 3.279877e+01 1.944949e+00 3.065468e+00 3.010364e+00 1.441382e+00 1.656571e+00 3.808917e+00 2.583707e+00 2.297873e+00 1.367469e+00 2.349650e+00 2.030113e+00 1.089217e+00 1.180068e+00 1.934123e-01 2.069573e-01 2.412992e-01 1.933012e-01 2.294939e-01 3.587698e-01 2.514339e-01 2.998131e-01 1.938499e-01 2.829258e-01 2.493820e-01 1.394342e-01 1.639152e-01
<GCONST> 1.195114e+02
<MIXTURE> 2 5.000000e-01
<MEAN> 39
 9.582817e+00 4.084261e+00 5.818369e+00 1.175665e+01 9.764576e+00 9.964303e-01 -5.072583e+00 1.458918e+01 1.375786e+00 -1.024440e+01 -1.027100e+00 -3.100441e+00 -3.395502e+00 -2.228796e-03 -1.635391e-02 -2.801577e-02 -3.288290e-02 -3.609071e-02 -1.112094e-01 -5.466220e-02 1.988998e-01 1.797490e-01 1.520147e-02 3.166431e-03 3.910109e-04 6.140644e-02 1.003772e-02 -4.282207e-02 -2.361302e-02 -1.459432e-02 -1.273050e-02 -1.860709e-02 -2.093461e-02 3.336224e-04 1.190322e-02 -6.004020e-03 5.652627e-03 9.691821e-03 2.734959e-03
<VARIANCE> 39
 1.358421e+02 2.381749e+02 2.063804e+02 8.990614e+01 7.734948e+01 2.096633e+02 1.312082e+02 7.261643e+01 4.989963e+01 7.615037e+01 5.995863e+01 2.913513e+01 3.279877e+01 1.944949e+00 3.065468e+00 3.010364e+00 1.441382e+00 1.656571e+00 3.808917e+00 2.583707e+00 2.297873e+00 1.367469e+00 2.349650e+00 2.030113e+00 1.089217e+00 1.180068e+00 1.934123e-01 2.069573e-01 2.412992e-01 1.933012e-01 2.294939e-01 3.587698e-01 2.514339e-01 2.998131e-01 1.938499e-01 2.829258e-01 2.493820e-01 1.394342e-01 1.639152e-01
<GCONST> 1.195114e+02
<STATE> 3
<NUMMIXES> 2
<MIXTURE> 1 5.000000e-01
<MEAN> 39
 1.151186e+01 4.744372e-01 2.820265e+00 1.081173e+01 9.286922e+00 -2.093123e+00 -8.186986e+00 1.638619e+01 2.312299e+00 -1.193435e+01 1.799045e-01 -2.106093e+00 -2.746518e+00 7.226784e-02 -1.654742e-01 -1.533243e-01 -5.689741e-02 1.817925e-03 -8.814731e-02 -1.460117e-01 8.534857e-02 5.198960e-02 -6.282449e-02 1.018698e-01 5.536947e-02 5.706012e-02 -8.233242e-03 -1.255449e-02 -3.765744e-03 1.955286e-03 1.515345e-02 2.472374e-02 9.553391e-06 -2.236185e-02 -1.883787e-02 3.643484e-03 1.641516e-02 6.330804e-03 6.547010e-03
<VARIANCE> 39
 1.399235e+02 2.271337e+02 2.073145e+02 9.490556e+01 1.028183e+02 2.485446e+02 1.572839e+02 9.308795e+01 6.008086e+01 9.023781e+01 6.574275e+01 2.548357e+01 3.476696e+01 2.421337e+00 3.271746e+00 3.271565e+00 1.432398e+00 1.679210e+00 4.577229e+00 3.446285e+00 2.603837e+00 1.544930e+00 2.630949e+00 2.332788e+00 1.099296e+00 1.146657e+00 2.241090e-01 2.186695e-01 2.503458e-01 1.830451e-01 2.311975e-01 3.891352e-01 3.238293e-01 3.445157e-01 2.140932e-01 3.144825e-01 2.964260e-01 1.552467e-01 1.724713e-01
<GCONST> 1.233360e+02
<MIXTURE> 2 5.000000e-01
<MEAN> 39
 1.151186e+01 4.744372e-01 2.820265e+00 1.081173e+01 9.286922e+00 -2.093123e+00 -8.186986e+00 1.638619e+01 2.312299e+00 -1.193435e+01 1.799045e-01 -2.106093e+00 -2.746518e+00 7.226784e-02 -1.654742e-01 -1.533243e-01 -5.689741e-02 1.817925e-03 -8.814731e-02 -1.460117e-01 8.534857e-02 5.198960e-02 -6.282449e-02 1.018698e-01 5.536947e-02 5.706012e-02 -8.233242e-03 -1.255449e-02 -3.765744e-03 1.955286e-03 1.515345e-02 2.472374e-02 9.553391e-06 -2.236185e-02 -1.883787e-02 3.643484e-03 1.641516e-02 6.330804e-03 6.547010e-03
<VARIANCE> 39
 1.399235e+02 2.271337e+02 2.073145e+02 9.490556e+01 1.028183e+02 2.485446e+02 1.572839e+02 9.308795e+01 6.008086e+01 9.023781e+01 6.574275e+01 2.548357e+01 3.476696e+01 2.421337e+00 3.271746e+00 3.271565e+00 1.432398e+00 1.679210e+00 4.577229e+00 3.446285e+00 2.603837e+00 1.544930e+00 2.630949e+00 2.332788e+00 1.099296e+00 1.146657e+00 2.241090e-01 2.186695e-01 2.503458e-01 1.830451e-01 2.311975e-01 3.891352e-01 3.238293e-01 3.445157e-01 2.140932e-01 3.144825e-01 2.964260e-01 1.552467e-01 1.724713e-01
<GCONST> 1.233360e+02
<STATE> 4
<NUMMIXES> 2
<MIXTURE> 1 5.000000e-01
<MEAN> 39
 1.253808e+01 -1.812602e+00 5.217272e-01 1.004261e+01 9.448426e+00 -2.991140e+00 -9.970628e+00 1.647642e+01 1.788659e+00 -1.281708e+01 1.856662e+00 -1.369734e+00 -2.304943e+00 -1.560103e-01 -4.029259e-02 -1.850806e-02 2.523910e-02 1.495899e-01 3.173611e-01 1.141941e-01 -1.915606e-01 -1.291800e-01 1.298243e-01 1.546145e-01 5.685598e-02 1.049874e-01 -4.182348e-03 -3.206546e-02 -3.263979e-02 5.888999e-03 6.780492e-03 2.674306e-04 3.302440e-04 -3.302624e-02 -1.095869e-02 4.724292e-03 -2.312125e-03 1.383746e-02 1.604748e-02
<VARIANCE> 39
 1.413260e+02 2.206204e+02 1.927331e+02 1.024017e+02 1.123553e+02 2.190630e+02 1.688633e+02 9.825040e+01 7.088689e+01 8.937685e+01 8.306197e+01 2.616911e+01 3.812206e+01 2.090587e+00 2.693789e+00 2.615379e+00 1.175444e+00 1.308980e+00 3.547721e+00 3.245839e+00 2.517565e+00 1.584947e+00 2.330328e+00 2.439591e+00 1.034115e+00 1.150429e+00 2.013006e-01 2.078893e-01 2.296943e-01 1.447050e-01 1.806992e-01 3.024694e-01 3.450241e-01 3.257748e-01 2.051272e-01 3.082406e-01 3.171462e-01 1.516988e-01 1.560672e-01
<GCONST> 1.213583e+02
<MIXTURE> 2 5.000000e-01
<MEAN> 39
 1.253808e+01 -1.812602e+00 5.217272e-01 1.004261e+01 9.448426e+00 -2.991140e+00 -9.970628e+00 1.647642e+01 1.788659e+00 -1.281708e+01 1.856662e+00 -1.369734e+00 -2.304943e+00 -1.560103e-01 -4.029259e-02 -1.850806e-02 2.523910e-02 1.495899e-01 3.173611e-01 1.141941e-01 -1.915606e-01 -1.291800e-01 1.298243e-01 1.546145e-01 5.685598e-02 1.049874e-01 -4.182348e-03 -3.206546e-02 -3.263979e-02 5.888999e-03 6.780492e-03 2.674306e-04 3.302440e-04 -3.302624e-02 -1.095869e-02 4.724292e-03 -2.312125e-03 1.383746e-02 1.604748e-02
<VARIANCE> 39
 1.413260e+02 2.206204e+02 1.927331e+02 1.024017e+02 1.123553e+02 2.190630e+02 1.688633e+02 9.825040e+01 7.088689e+01 8.937685e+01 8.306197e+01 2.616911e+01 3.812206e+01 2.090587e+00 2.693789e+00 2.615379e+00 1.175444e+00 1.308980e+00 3.547721e+00 3.245839e+00 2.517565e+00 1.584947e+00 2.330328e+00 2.439591e+00 1.034115e+00 1.150429e+00 2.013006e-01 2.078893e-01 2.296943e-01 1.447050e-01 1.806992e-01 3.024694e-01 3.450241e-01 3.257748e-01 2.051272e-01 3.082406e-01 3.171462e-01 1.516988e-01 1.560672e-01
<GCONST> 1.213583e+02
<TRANSP> 5
 0.000000e+00 1.000000e+00 0.000000e+00 0.000000e+00 0.000000e+00
 0.000000e+00 9.016438e-01 9.835617e-02 0.000000e+00 0.000000e+00
 0.000000e+00 0.000000e+00 9.016440e-01 9.835596e-02 0.000000e+00
 0.000000e+00 0.000000e+00 0.000000e+00 9.016441e-01 9.835602e-02
 0.000000e+00 0.000000e+00 0.000000e+00 0.000000e+00 0.000000e+00
<ENDHMM>
~h "c"
<BEGINHMM>
<NUMSTATES> 5
<STATE> 2
<NUMMIXES> 2
<MIXTURE> 1 7.180921e-01
<MEAN> 39
 -1.661873e+01 -1.094885e+01 2.587604e+00 7.560516e+00 1.510963e+00 5.560923e+00 -3.117480e+00 4.026318e+00 -1.718658e-01 -4.330424e+00 -7.307039e-01 3.520768e-01 3.407955e+00 -6.200436e-01 -2.003436e+00 4.620135e-01 -5.303985e-02 -9.870640e-01 -8.288398e-02 -3.843354e-01 -5.473380e-02 3.380978e-01 -1.542790e-01 3.143135e-02 1.861789e-01 2.033611e-02 1.125856e-01 -1.604857e-01 1.933466e-01 -8.205194e-03 -8.236073e-02 4.694354e-03 -9.760825e-02 2.187704e-02 1.379154e-02 -6.061201e-02 8.473670e-02 2.545385e-02 -8.506685e-02
<VARIANCE> 39
 1.174547e+02 2.506058e+02 1.030842e+02 7.026170e+01 6.556611e+01 5.152060e+01 4.643954e+01 3.323042e+01 3.694179e+01 3.578959e+01 3.339993e+01 1.859481e+01 2.152088e+01 3.259597e+00 8.106935e+00 4.795023e+00 3.517630e+00 3.405580e+00 2.654573e+00 2.363028e+00 2.135153e+00 2.153395e+00 2.363327e+00 2.440678e+00 1.583920e+00 2.154236e+00 2.193436e-01 6.601632e-01 4.810951e-01 4.139593e-01 3.916833e-01 4.262336e-01 3.148012e-01 3.393691e-01 3.306447e-01 3.589729e-01 3.669443e-01 2.804773e-01 3.539735e-01
<GCONST> 1.236595e+02
<MIXTURE> 2 2.819062e-01
<MEAN> 39
 -1.516592e+01 -4.323213e+01 2.014304e+01 1.183291e+01 -9.172327e+00 9.429489e+00 -1.350939e+01 2.180293e+00 5.766165e+00 -8.122059e+00 1.816885e+00 2.638249e+00 9.828711e-01 -1.944375e-02 -1.689639e+00 1.409024e+00 5.993694e-03 2.384678e-01 9.105456e-01 -8.742769e-01 -3.235738e-01 -8.842474e-02 4.481568e-01 8.210374e-01 -1.272365e-01 -1.484229e-01 4.536565e-02 5.764159e-01 -5.822275e-01 9.284163e-02 5.411784e-01 9.970678e-02 2.615198e-01 -4.695944e-02 -1.196915e-01 1.937003e-01 -7.937092e-02 -1.949548e-02 2.014913e-01
<VARIANCE> 39
 1.373108e+01 5.058572e+01 5.467404e+01 2.069119e+01 4.395476e+01 2.901561e+01 3.701835e+01 3.589622e+01 3.519410e+01 3.007045e+01 3.443546e+01 1.713525e+01 1.099843e+01 1.629202e+00 6.069782e+00 6.394426e+00 1.136353e+00 3.147498e+00 2.232103e+00 2.250876e+00 1.554204e+00 1.723910e+00 2.010926e+00 1.459132e+00 1.495684e+00 1.147830e+00 3.488064e-01 7.440029e-01 5.811151e-01 2.203773e-01 3.679441e-01 3.701294e-01 3.167833e-01 2.372650e-01 2.978631e-01 3.394497e-01 2.451329e-01 2.965456e-01 1.887454e-01
<GCONST> 1.104086e+02
<STATE> 3
<NUMMIXES> 2
<MIXTURE> 1 6.594951e-01
<MEAN> 39
 -1.379840e+01 -4.004984e+01 1.965422e+01 1.043668e+01 -4.330031e+00 1.298169e+01 -1.036914e+01 3.296125e+00 1.909323e+00 -5.871275e+00 5.592139e+00 3.493833e+00 2.299642e+00 2.035072e+00 1.960198e+00 -5.124645e-01 9.278919e-01 1.432510e+00 9.699318e-01 7.946297e-01 -4.307104e-01 9.036544e-02 1.329221e-01 -5.813539e-03 4.400613e-01 3.354648e-02 5.954732e-01 8.408383e-01 -2.563688e-01 1.479663e-01 8.772194e-02 -2.287786e-01 3.598058e-02 -8.252835e-02 -1.980522e-02 -2.153484e-01 -2.644626e-01 -9.332517e-02 -1.137188e-01
<VARIANCE> 39
 4.016516e+01 1.045728e+02 9.150102e+01 4.225611e+01 6.181093e+01 6.170114e+01 4.597910e+01 4.365967e+01 4.178444e+01 3.015330e+01 3.964181e+01 2.493466e+01 1.388743e+01 3.407396e+00 9.772215e+00 3.621048e+00 1.900520e+00 1.825380e+00 2.089943e+00 2.991235e+00 1.703983e+00 1.867355e+00 1.758355e+00 1.544307e+00 1.554151e+00 1.213545e+00 3.039229e-01 5.587438e-01 5.160214e-01 2.229333e-01 2.328903e-01 5.512888e-01 5.828277e-01 3.442859e-01 3.396699e-01 3.772630e-01 2.766468e-01 3.170299e-01 2.078354e-01
<GCONST> 1.178033e+02
<MIXTURE> 2 3.405031e-01
<MEAN> 39
 -2.669459e+01 -6.307296e+00 -5.147154e+00 -2.914299e+00 -3.571609e+00 8.324709e-01 -3.151839e+00 1.535091e+00 -1.447264e+00 -5.554981e-01 4.732659e-01 -7.724119e-01 5.999897e-01 -3.562421e-04 -4.040104e-02 -1.005605e-02 3.191584e-02 1.608776e-02 -2.106093e-02 -1.411346e-02 -2.739780e-02 -3.914352e-02 -5.688180e-02 -2.937879e-02 -1.021286e-02 -2.436871e-04 2.670395e-02 -2.297834e-02 2.936259e-03 4.740572e-02 4.047736e-02 2.490617e-02 1.599781e-02 2.418422e-02 9.186253e-03 -2.450400e-02 -1.269370e-02 2.624010e-02 5.041765e-02
<VARIANCE> 39
 6.237801e-01 1.365211e+00 1.893036e+00 3.075180e+00 4.113876e+00 4.823486e+00 5.789833e+00 5.681839e+00 7.292935e+00 6.700879e+00 6.172561e+00 6.076591e+00 5.347950e+00 9.231272e-02 2.150339e-01 2.501546e-01 4.903382e-01 6.145215e-01 6.362869e-01 8.123016e-01 8.928752e-01 1.181831e+00 1.164623e+00 8.836594e-01 9.233158e-01 8.669184e-01 2.438286e-02 5.825950e-02 5.980327e-02 1.233231e-01 1.594168e-01 1.533509e-01 1.901335e-01 2.087847e-01 2.685433e-01 2.639247e-01 2.009565e-01 1.853418e-01 1.843304e-01
<GCONST> 5.561269e+01
<STATE> 4
<NUMMIXES> 2
<MIXTURE> 1 9.999155e-01
<MEAN> 39
 5.899186e+00 -2.061423e+01 1.238890e+01 1.659844e+01 5.130185e+00 1.223148e+01 -1.042120e+01 7.633724e-01 8.710594e-01 -1.017363e+01 2.809747e+00 3.351914e+00 1.194916e-01 3.656538e+00 3.302301e+00 -3.498789e+00 3.750694e-01 1.914525e+00 -2.919926e+00 -1.319054e+00 7.979863e-01 -1.058397e+00 -1.962107e+00 -2.763200e-01 -1.354393e-01 -5.273011e-01 -4.849494e-01 -7.777042e-01 -4.285817e-01 -3.174538e-01 7.302329e-03 -6.660662e-01 -3.904613e-01 5.661836e-01 -1.418600e-01 -2.146371e-01 3.128053e-01 3.711478e-02 1.122051e-02
<VARIANCE> 39
 1.302177e+02 1.128315e+02 8.164141e+01 5.252214e+01 6.180495e+01 7.960202e+01 5.659149e+01 3.640988e+01 2.909636e+01 4.303020e+01 3.854850e+01 2.060149e+01 2.316473e+01 4.952713e+00 5.478063e+00 6.398641e+00 1.646261e+00 1.891730e+00 5.735741e+00 3.437877e+00 4.167691e+00 2.100705e+00 3.620242e+00 2.530212e+00 1.151309e+00 1.324428e+00 4.216047e-01 4.801634e-01 7.613552e-01 1.587345e-01 2.145295e-01 7.662327e-01 7.219435e-01 3.537227e-01 2.931927e-01 4.748773e-01 2.904747e-01 1.711769e-01 1.266208e-01
<GCONST> 1.228801e+02
<MIXTURE> 2 8.436802e-05
<MEAN> 39
 -1.582686e+01 -4.315491e+01 2.051523e+01 6.363177e+00 -8.957193e+00 1.140930e+01 -1.415808e+01 6.775761e-01 4.055964e+00 -6.043502e+00 6.918904e+00 1.781706e+00 -2.974830e+00 1.802505e-01 6.470941e-01 -1.290768e+00 -1.370424e-01 9.085239e-02 9.993891e-02 5.568362e-01 -1.603289e+00 2.039619e-02 5.163971e-01 -6.740317e-02 1.938124e-01 -7.131442e-01 -6.605269e-02 -9.270534e-03 -7.550660e-02 -1.368596e-02 5.047734e-02 -1.105106e-01 1.713241e-01 1.386188e-01 6.475218e-03 1.638678e-01 1.347778e-01 2.439934e-01 1.252940e-01
<VARIANCE> 39
 1.036896e+00 1.504958e+01 4.229225e+00 3.766825e+00 4.537720e+00 2.182396e+00 3.819962e-01 2.115799e+00 5.458397e+00 2.881536e-01 1.276463e+01 1.629885e+01 1.799679e-01 7.331882e-02 3.454626e+00 4.257046e-01 4.523766e-01 4.433764e-01 9.659554e-02 3.107672e-01 1.921098e+00 1.863702e-01 2.783462e-02 2.095260e-01 4.109707e-01 3.562388e-02 1.903035e-03 5.736735e-03 7.256220e-03 4.489165e-03 8.443184e-04 6.411267e-03 2.833156e-03 3.496189e-02 9.917283e-03 8.449370e-02 1.823228e-02 9.690676e-02 1.279648e-02
<GCONST> 4.728054e+00
<TRANSP> 5
 0.000000e+00 1.000000e+00 0.000000e+00 0.000000e+00 0.000000e+00
 0.000000e+00 9.472229e-01 5.277713e-02 0.000000e+00 0.000000e+00
 0.000000e+00 0.000000e+00 8.681607e-01 1.318393e-01 0.000000e+00
 0.000000e+00 0.000000e+00 0.000000e+00 7.495214e-01 2.504786e-01
 0.000000e+00 0.000000e+00 0.000000e+00 0.000000e+00 0.000000e+00
<ENDHMM>
~h "d"
<BEGINHMM>
<NUMSTATES> 5
<STATE> 2
<NUMMIXES> 2
<MIXTURE> 1 5.000000e-01
<MEAN> 39
 7.716626e+00 4.972694e+00 7.410985e+00 1.644308e+01 1.440079e+01 6.112504e+00 -3.409322e+00 1.139130e+01 -2.192737e+00 -1.051373e+01 8.147373e-01 -2.711180e+00 -1.846011e+00 1.089171e-01 -4.368386e-01 -1.168026e-01 -8.589880e-02 1.206047e-01 3.588192e-02 -3.868527e-01 -4.178210e-02 -7.468526e-02 -9.305498e-03 4.646395e-01 6.936243e-02 -6.339132e-02 5.288152e-02 -1.261743e-01 -7.730351e-02 -5.872186e-03 1.273393e-03 -7.423324e-02 -8.002874e-02 2.965131e-02 -1.050426e-02 -3.418274e-02 5.587618e-02 5.401633e-04 -2.752199e-02
<VARIANCE> 39
 7.275270e+01 1.636000e+02 9.594968e+01 5.335254e+01 8.713112e+01 1.035736e+02 1.712564e+02 5.438155e+01 4.759575e+01 7.695079e+01 7.930561e+01 2.143509e+01 4.309375e+01 1.767744e+00 4.475410e+00 2.708244e+00 1.664116e+00 2.112252e+00 2.694873e+00 3.810417e+00 2.150362e+00 2.511560e+00 3.445431e+00 2.776106e+00 1.225111e+00 1.493317e+00 1.568445e-01 3.607680e-01 2.848211e-01 2.702118e-01 2.981022e-01 2.472447e-01 3.288222e-01 2.699349e-01 3.793552e-01 4.200184e-01 3.815885e-01 1.820174e-01 2.035900e-01
<GCONST> 1.218950e+02
<MIXTURE> 2 5.000000e-01
<MEAN> 39
 7.716626e+00 4.972694e+00 7.410985e+00 1.644308e+01 1.440079e+01 6.112504e+00 -3.409322e+00 1.139130e+01 -2.192737e+00 -1.051373e+01 8.147373e-01 -2.711180e+00 -1.846011e+00 1.089171e-01 -4.368386e-01 -1.168026e-01 -8.589880e-02 1.206047e-01 3.588192e-02 -3.868527e-01 -4.178210e-02 -7.468526e-02 -9.305498e-03 4.646395e-01 6.936243e-02 -6.339132e-02 5.288152e-02 -1.261743e-01 -7.730351e-02 -5.872186e-03 1.273393e-03 -7.423324e-02 -8.002874e-02 2.965131e-02 -1.050426e-02 -3.418274e-02 5.587618e-02 5.401633e-04 -2.752199e-02
<VARIANCE> 39
 7.275270e+01 1.636000e+02 9.594968e+01 5.335254e+01 8.713112e+01 1.035736e+02 1.712564e+02 5.438155e+01 4.759575e+01 7.695079e+01 7.930561e+01 2.143509e+01 4.309375e+01 1.767744e+00 4.475410e+00 2.708244e+00 1.664116e+00 2.112252e+00 2.694873e+00 3.810417e+00 2.150362e+00 2.511560e+00 3.445431e+00 2.776106e+00 1.225111e+00 1.493317e+00 1.568445e-01 3.607680e-01 2.848211e-01 2.702118e-01 2.981022e-01 2.472447e-01 3.288222e-01 2.699349e-01 3.793552e-01 4.200184e-01 3.815885e-01 1.820174e-01 2.035900e-01
<GCONST> 1.218950e+02
<STATE> 3
<NUMMIXES> 2
<MIXTURE> 1 5.000000e-01
<MEAN> 39
 1.133053e+01 -2.208600e+00 3.258490e+00 1.522973e+01 1.558080e+01 2.035103e+00 -1.090776e+01 1.244589e+01 -3.202643e+00 -1.353182e+01 5.532010e+00 -1.636874e+00 -3.347883e+00 2.623061e-01 -5.736623e-01 -3.043498e-01 -1.703933e-02 1.839092e-01 -3.612625e-01 -6.651054e-01 1.128377e-01 -4.892199e-02 -2.849302e-01 3.306395e-01 6.944835e-02 -1.875825e-01 -6.003401e-03 2.738365e-03 -3.776517e-03 1.396317e-02 -5.749662e-04 -1.217409e-02 1.030675e-02 4.980365e-03 5.583209e-03 -4.623362e-03 -2.338979e-02 -1.490233e-03 4.332846e-03
<VARIANCE> 39
 8.044204e+01 1.693640e+02 1.246074e+02 6.793168e+01 1.503654e+02 1.380299e+02 2.701815e+02 7.508565e+01 6.318704e+01 9.826923e+01 8.222494e+01 2.470864e+01 6.757497e+01 1.601592e+00 3.249148e+00 2.078921e+00 1.618460e+00 2.174553e+00 2.031328e+00 4.417693e+00 2.135144e+00 2.514474e+00 3.439171e+00 2.930708e+00 1.190482e+00 1.493155e+00 1.694437e-01 2.898286e-01 2.504713e-01 2.653536e-01 3.013280e-01 2.264461e-01 3.944524e-01 3.134879e-01 3.730815e-01 4.295443e-01 4.005181e-01 1.854050e-01 2.046356e-01
<GCONST> 1.245449e+02
<MIXTURE> 2 5.000000e-01
<MEAN> 39
 1.133053e+01 -2.208600e+00 3.258490e+00 1.522973e+01 1.558080e+01 2.035103e+00 -1.090776e+01 1.244589e+01 -3.202643e+00 -1.353182e+01 5.532010e+00 -1.636874e+00 -3.347883e+00 2.623061e-01 -5.736623e-01 -3.043498e-01 -1.703933e-02 1.839092e-01 -3.612625e-01 -6.651054e-01 1.128377e-01 -4.892199e-02 -2.849302e-01 3.306395e-01 6.944835e-02 -1.875825e-01 -6.003401e-03 2.738365e-03 -3.776517e-03 1.396317e-02 -5.749662e-04 -1.217409e-02 1.030675e-02 4.980365e-03 5.583209e-03 -4.623362e-03 -2.338979e-02 -1.490233e-03 4.332846e-03
<VARIANCE> 39
 8.044204e+01 1.693640e+02 1.246074e+02 6.793168e+01 1.503654e+02 1.380299e+02 2.701815e+02 7.508565e+01 6.318704e+01 9.826923e+01 8.222494e+01 2.470864e+01 6.757497e+01 1.601592e+00 3.249148e+00 2.078921e+00 1.618460e+00 2.174553e+00 2.031328e+00 4.417693e+00 2.135144e+00 2.514474e+00 3.439171e+00 2.930708e+00 1.190482e+00 1.493155e+00 1.694437e-01 2.898286e-01 2.504713e-01 2.653536e-01 3.013280e-01 2.264461e-01 3.944524e-01 3.134879e-01 3.730815e-01 4.295443e-01 4.005181e-01 1.854050e-01 2.046356e-01
<GCONST> 1.245449e+02
<STATE> 4
<NUMMIXES> 2
<MIXTURE> 1 5.000000e-01
<MEAN> 39
 1.310250e+01 -5.607434e+00 1.093335e+00 1.537561e+01 1.723300e+01 -1.083897e+00 -1.608373e+01 1.322166e+01 -3.202302e+00 -1.583953e+01 7.162136e+00 -1.190382e+00 -5.073907e+00 -1.439758e-02 -2.204591e-01 -9.780557e-02 1.517072e-01 9.873861e-02 -9.150030e-02 -1.168734e-01 1.353469e-02 4.635654e-02 -2.644160e-02 4.455664e-02 2.658419e-02 -7.082842e-02 -8.667834e-03 -7.451552e-03 -1.656314e-02 3.253669e-03 -3.949672e-02 2.157951e-02 6.737086e-02 -3.246940e-02 -1.532916e-02 4.318547e-02 -1.423292e-03 -1.087655e-02 1.375866e-02
<VARIANCE> 39
 8.037907e+01 1.386882e+02 1.245815e+02 9.117935e+01 2.030997e+02 1.435294e+02 2.910168e+02 9.447900e+01 7.904100e+01 1.061748e+02 8.279143e+01 2.298344e+01 8.225209e+01 1.194679e+00 2.575624e+00 1.781574e+00 1.339680e+00 1.789410e+00 1.646367e+00 3.691226e+00 2.269058e+00 1.862053e+00 2.613688e+00 2.474071e+00 1.016022e+00 1.377810e+00 1.466358e-01 2.263316e-01 2.044864e-01 1.979802e-01 2.371761e-01 1.901262e-01 3.560620e-01 3.182762e-01 2.793887e-01 3.465680e-01 3.552470e-01 1.659735e-01 1.823245e-01
<GCONST> 1.210997e+02
<MIXTURE> 2 5.000000e-01
<MEAN> 39
 1.310250e+01 -5.607434e+00 1.093335e+00 1.537561e+01 1.723300e+01 -1.083897e+00 -1.608373e+01 1.322166e+01 -3.202302e+00 -1.583953e+01 7.162136e+00 -1.190382e+00 -5.073907e+00 -1.439758e-02 -2.204591e-01 -9.780557e-02 1.517072e-01 9.873861e-02 -9.150030e-02 -1.168734e-01 1.353469e-02 4.635654e-02 -2.644160e-02 4.455664e-02 2.658419e-02 -7.082842e-02 -8.667834e-03 -7.451552e-03 -1.656314e-02 3.253669e-03 -3.949672e-02 2.157951e-02 6.737086e-02 -3.246940e-02 -1.532916e-02 4.318547e-02 -1.423292e-03 -1.087655e-02 1.375866e-02
<VARIANCE> 39
 8.037907e+01 1.386882e+02 1.245815e+02 9.117935e+01 2.030997e+02 1.435294e+02 2.910168e+02 9.447900e+01 7.904100e+01 1.061748e+02 8.279143e+01 2.298344e+01 8.225209e+01 1.194679e+00 2.575624e+00 1.781574e+00 1.339680e+00 1.789410e+00 1.646367e+00 3.691226e+00 2.269058e+00 1.862053e+00 2.613688e+00 2.474071e+00 1.016022e+00 1.377810e+00 1.466358e-01 2.263316e-01 2.044864e-01 1.979802e-01 2.371761e-01 1.901262e-01 3.560620e-01 3.182762e-01 2.793887e-01 3.465680e-01 3.552470e-01 1.659735e-01 1.823245e-01
<GCONST> 1.210997e+02
<TRANSP> 5
 0.000000e+00 1.000000e+00 0.000000e+00 0.000000e+00 0.000000e+00
 0.000000e+00 9.099446e-01 9.005546e-02 0.000000e+00 0.000000e+00
 0.000000e+00 0.000000e+00 9.099445e-01 9.005548e-02 0.000000e+00
 0.000000e+00 0.000000e+00 0.000000e+00 9.099448e-01 9.005526e-02
 0.000000e+00 0.000000e+00 0.000000e+00 0.000000e+00 0.000000e+00
<ENDHMM>
~h "f"
<BEGINHMM>
<NUMSTATES> 5
<STATE> 2
<NUMMIXES> 2
<MIXTURE> 1 1.000000e+00
<MEAN> 39
 2.175854e+01 -5.674343e+00 -1.333893e+01 7.719630e+00 -1.683728e+00 -2.825269e+01 -1.701362e+01 2.624123e+01 1.770822e+01 -9.303858e+00 -2.620732e+00 2.304012e+00 -1.140156e+00 -2.964457e-01 4.457349e-02 6.192309e-02 -7.596601e-01 -5.190117e-01 1.753227e-01 4.824820e-01 -1.756466e-01 2.038261e-01 3.878112e-01 -1.002675e-01 1.031117e-01 5.516660e-02 6.169516e-01 -3.434826e-02 -2.963895e-01 1.918830e-01 9.947583e-03 -2.106307e-01 -1.995514e-02 5.645689e-01 -3.370103e-01 -5.664593e-01 3.945317e-01 9.985279e-02 -1.551076e-01
<VARIANCE> 39
 2.003784e+01 1.095190e+01 1.084133e+02 5.921356e+00 2.569609e+01 1.882927e+01 9.089050e+00 2.244098e+01 7.929321e+00 1.822610e+01 4.959428e+00 2.520031e+00 7.338346e+00 2.519210e+00 9.951919e-03 2.149187e+00 3.837364e-01 1.350490e+00 1.085049e+00 1.317238e+00 5.102954e+00 3.075170e-01 1.422360e+00 2.956741e+00 1.144550e-01 1.882380e+00 5.702436e-02 3.711481e-02 1.573707e-01 7.312585e-03 3.307829e-01 2.253938e-02 2.182179e-01 1.392345e-01 3.034310e-02 1.745181e-01 9.312004e-03 1.092892e-02 5.387979e-02
<GCONST> 6.298282e+01
<MIXTURE> 2 0.000000e+00
<MEAN> 39
 -1.585175e+01 -1.551351e+00 7.729309e+00 -7.243529e+00 1.722945e+01 -4.595492e+00 8.562895e+00 -3.340965e+00 3.503048e+00 -4.349793e+00 2.257324e+00 -9.441703e-01 1.405435e+00 -2.463601e+00 -8.618322e-01 -7.031665e-01 -4.471729e-01 2.791805e-01 3.659815e-01 -1.137626e-01 -3.731829e-01 -3.769362e-02 -3.910118e-02 3.242532e-01 -1.921992e-02 3.981748e-01 4.077158e-01 -1.006740e-01 -2.800901e-01 -9.457918e-02 -3.625076e-01 -3.459834e-01 -2.940953e-01 2.188951e-02 -1.688870e-01 -1.846896e-01 -1.475902e-01 -2.191112e-03 -1.261082e-01
<VARIANCE> 39
 3.794474e+01 3.006912e+01 3.696891e+01 3.629724e+01 4.906600e+01 3.866109e+01 4.917469e+01 3.866268e+01 3.933981e+01 3.216502e+01 2.111969e+01 2.085070e+01 1.584314e+01 1.946436e+00 1.199190e+00 1.955029e+00 2.033741e+00 2.686450e+00 2.348367e+00 2.500819e+00 2.211571e+00 1.997479e+00 1.933216e+00 1.770481e+00 1.567442e+00 1.408696e+00 2.019766e-01 2.254066e-01 2.903521e-01 2.933460e-01 3.599655e-01 3.714276e-01 4.149454e-01 4.019520e-01 3.977194e-01 3.726283e-01 3.362232e-01 2.893453e-01 2.591272e-01
<GCONST> 1.105595e+02
<STATE> 3
<NUMMIXES> 2
<MIXTURE> 1 1.000000e+00
<MEAN> 39
 1.928623e+01 -5.579989e+00 -1.087401e+01 5.830772e+00 -4.412243e+00 -2.812488e+01 -1.622633e+01 2.376427e+01 1.961063e+01 -6.792370e+00 -5.180127e+00 2.531907e+00 7.921950e-01 5.285428e-01 -2.628929e-01 -1.441199e-01 -2.059397e-01 -6.759572e-01 -1.410392e-01 3.490567e-01 4.165865e-01 -3.585971e-01 -2.658082e-01 4.092858e-01 -3.729898e-02 -1.601076e-01 7.641738e-01 -1.117104e-01 -3.349167e-01 3.879405e-01 1.350084e-01 -1.943067e-01 -1.446552e-01 6.268269e-01 -4.420350e-01 -6.137534e-01 5.404264e-01 -2.847646e-02 -2.254323e-01
<VARIANCE> 39
 4.869629e+00 7.490852e+00 5.545874e+01 2.363507e+01 1.251172e+01 5.365956e+01 3.285352e+01 3.402100e+00 6.022995e+00 2.316830e+00 1.317782e+01 5.471512e+00 4.228145e-01 1.202697e+00 1.836313e-01 9.276719e-01 3.271805e-01 1.374651e+00 1.272020e+00 1.256435e+00 2.513452e+00 3.283782e-01 7.496052e-01 1.901044e+00 1.385509e-01 1.165608e+00 1.800246e-01 3.142514e-02 3.230032e-01 1.585933e-02 3.645063e-01 3.595571e-02 1.424910e-01 3.505737e-01 1.636595e-03 2.107017e-01 1.121543e-01 4.416899e-03 1.529158e-01
<GCONST> 6.091385e+01
<MIXTURE> 2 0.000000e+00
<MEAN> 39
 -2.546515e+01 -5.316592e+00 5.182599e-01 -1.014452e+01 1.336730e+01 -4.508892e+00 4.143860e+00 -4.057298e+00 1.675601e+00 -5.046123e+00 2.272683e+00 -1.283370e+00 2.229477e+00 -1.519309e-01 -3.431510e-01 -2.302347e-01 -2.690792e-01 -1.743130e-01 -7.424696e-02 -3.065879e-02 -5.297905e-02 3.275013e-02 -3.512295e-02 8.244935e-02 3.946884e-02 7.528704e-02 2.312994e-01 2.895865e-02 1.394252e-01 3.060656e-02 6.189735e-02 -5.252600e-03 9.213040e-02 -9.943989e-03 4.179194e-02 1.035141e-04 3.644056e-02 5.465960e-03 1.392528e-02
<VARIANCE> 39
 1.176915e+01 2.009933e+01 2.096771e+01 2.293049e+01 2.208943e+01 2.328727e+01 2.455520e+01 2.513758e+01 2.492216e+01 2.296042e+01 1.801677e+01 1.398869e+01 1.294775e+01 9.981425e-01 6.281391e-01 9.135668e-01 1.018384e+00 1.192862e+00 1.366520e+00 1.546908e+00 1.590251e+00 1.575584e+00 1.404581e+00 1.335052e+00 1.189907e+00 1.009449e+00 1.105499e-01 1.091064e-01 1.587749e-01 1.862282e-01 2.259963e-01 2.640838e-01 2.930050e-01 3.118650e-01 3.037787e-01 2.800012e-01 2.679037e-01 2.386677e-01 2.069542e-01
<GCONST> 9.260374e+01
<STATE> 4
<NUMMIXES> 2
<MIXTURE> 1 1.000000e+00
<MEAN> 39
 2.339068e+01 -6.102118e+00 -1.236374e+01 7.246091e+00 -4.745908e+00 -2.850875e+01 -1.545861e+01 2.640064e+01 1.658636e+01 -9.190693e+00 -1.676370e+00 2.252478e+00 -4.334484e-01 1.186557e+00 -4.051476e-01 -3.127188e-01 1.166315e-01 -4.214915e-01 -2.801194e-01 1.519179e-02 9.306431e-01 -5.268515e-01 -7.455798e-01 7.469384e-01 -1.202578e-01 -1.865431e-01 4.187930e-01 -4.715186e-02 -2.018921e-01 2.785114e-01 1.371868e-01 -9.904602e-02 -1.043949e-01 3.064586e-01 -2.815034e-01 -2.857168e-01 3.093141e-01 -1.084046e-01 -1.525097e-01
<VARIANCE> 39
 4.140503e+00 1.102122e+01 6.029507e+01 2.491862e+01 5.197818e+01 7.937384e+01 3.274567e+01 1.186206e+01 3.902710e+00 6.538374e+00 2.428490e+01 4.934577e+00 2.551104e+00 4.652802e-01 2.372047e-01 5.528371e-01 2.244856e-01 1.925043e+00 7.659597e-01 9.400905e-01 8.886334e-01 4.941722e-01 4.104922e-01 1.133277e+00 2.904687e-01 4.133559e-01 9.098768e-02 1.039892e-03 2.073451e-01 1.756546e-02 1.612035e-01 1.817655e-02 2.531042e-02 1.680276e-01 1.227728e-02 8.496641e-02 1.018379e-01 2.761621e-03 1.218670e-01
<GCONST> 5.506947e+01
<MIXTURE> 2 0.000000e+00
<MEAN> 39
 -1.919306e+01 -9.236015e+00 3.689552e+00 -1.223476e+01 1.489335e+01 -6.318414e+00 7.143879e+00 -6.103525e+00 3.174531e+00 -6.095226e+00 4.311400e+00 -2.684157e-01 3.222131e+00 2.403928e+00 6.682029e-01 1.196788e+00 8.050752e-01 2.333375e-01 1.086554e-01 -3.363338e-03 2.492941e-01 -2.023524e-01 1.609932e-01 -2.533848e-01 3.826904e-02 -4.694991e-01 5.983038e-01 5.120639e-01 1.572707e-01 3.195376e-01 -1.208165e-01 -2.085501e-01 -3.490097e-01 1.940116e-01 -1.673514e-01 -7.740311e-02 -3.054772e-01 -1.087985e-01 -3.564875e-01
<VARIANCE> 39
 3.042087e+01 2.921870e+01 3.283026e+01 3.405130e+01 4.104346e+01 3.583276e+01 4.287782e+01 3.903381e+01 3.163493e+01 3.066770e+01 2.307189e+01 1.659729e+01 1.461290e+01 2.254787e+00 2.112019e+00 1.727328e+00 2.238523e+00 2.263419e+00 2.361685e+00 2.342651e+00 2.605778e+00 2.095444e+00 2.131377e+00 2.099487e+00 1.836933e+00 1.663770e+00 2.622992e-01 2.496722e-01 3.391603e-01 3.445290e-01 4.448123e-01 5.514072e-01 5.425829e-01 4.482497e-01 4.572209e-01 4.257733e-01 3.892074e-01 3.408262e-01 2.868415e-01
<GCONST> 1.128664e+02
<TRANSP> 5
 0.000000e+00 1.000000e+00 0.000000e+00 0.000000e+00 0.000000e+00
 0.000000e+00 8.205883e-04 9.991794e-01 0.000000e+00 0.000000e+00
 0.000000e+00 0.000000e+00 7.680867e-34 1.000000e+00 0.000000e+00
 0.000000e+00 0.000000e+00 0.000000e+00 1.781034e-04 9.998219e-01
 0.000000e+00 0.000000e+00 0.000000e+00 0.000000e+00 0.000000e+00
<ENDHMM>
~h "g"
<BEGINHMM>
<NUMSTATES> 5
<STATE> 2
<NUMMIXES> 2
<MIXTURE> 1 5.000000e-01
<MEAN> 39
 1.080196e+01 1.762131e+00 4.621990e+00 1.675531e+01 1.688128e+01 3.144149e+00 -1.018478e+01 1.079387e+01 -3.926875e+00 -1.479194e+01 3.583468e+00 -2.662147e+00 -7.013440e+00 4.155771e-02 -4.026830e-01 -1.968985e-01 -1.780567e-01 2.851717e-02 -7.796811e-02 -3.112652e-01 1.422765e-01 -1.285416e-01 -1.662730e-01 4.715300e-01 7.942893e-02 -6.660689e-02 3.236366e-02 -4.520940e-02 -4.332537e-02 6.940420e-03 2.494997e-03 -4.867518e-02 -4.652846e-02 -1.291572e-02 -9.411588e-03 -4.442121e-04 3.785821e-02 1.737650e-02 -1.635627e-02
<VARIANCE> 39
 6.837817e+01 1.624676e+02 1.018686e+02 1.259400e+02 1.142238e+02 1.323196e+02 1.789984e+02 8.912146e+01 6.764051e+01 1.119031e+02 1.005478e+02 3.551419e+01 5.858901e+01 1.368368e+00 2.930841e+00 2.660690e+00 3.094132e+00 2.350085e+00 3.157402e+00 3.692417e+00 2.780496e+00 2.054140e+00 2.702724e+00 3.269722e+00 1.506650e+00 1.535179e+00 1.143922e-01 2.656652e-01 2.920373e-01 3.833577e-01 2.645764e-01 3.054301e-01 3.918510e-01 3.666231e-01 2.931445e-01 3.444076e-01 3.917744e-01 1.787024e-01 1.958764e-01
<GCONST> 1.257817e+02
<MIXTURE> 2 5.000000e-01
<MEAN> 39
 1.080196e+01 1.762131e+00 4.621990e+00 1.675531e+01 1.688128e+01 3.144149e+00 -1.018478e+01 1.079387e+01 -3.926875e+00 -1.479194e+01 3.583468e+00 -2.662147e+00 -7.013440e+00 4.155771e-02 -4.026830e-01 -1.968985e-01 -1.780567e-01 2.851717e-02 -7.796811e-02 -3.112652e-01 1.422765e-01 -1.285416e-01 -1.662730e-01 4.715300e-01 7.942893e-02 -6.660689e-02 3.236366e-02 -4.520940e-02 -4.332537e-02 6.940420e-03 2.494997e-03 -4.867518e-02 -4.652846e-02 -1.291572e-02 -9.411588e-03 -4.442121e-04 3.785821e-02 1.737650e-02 -1.635627e-02
<VARIANCE> 39
 6.837817e+01 1.624676e+02 1.018686e+02 1.259400e+02 1.142238e+02 1.323196e+02 1.789984e+02 8.912146e+01 6.764051e+01 1.119031e+02 1.005478e+02 3.551419e+01 5.858901e+01 1.368368e+00 2.930841e+00 2.660690e+00 3.094132e+00 2.350085e+00 3.157402e+00 3.692417e+00 2.780496e+00 2.054140e+00 2.702724e+00 3.269722e+00 1.506650e+00 1.535179e+00 1.143922e-01 2.656652e-01 2.920373e-01 3.833577e-01 2.645764e-01 3.054301e-01 3.918510e-01 3.666231e-01 2.931445e-01 3.444076e-01 3.917744e-01 1.787024e-01 1.958764e-01
<GCONST> 1.257817e+02
<STATE> 3
<NUMMIXES> 2
<MIXTURE> 1 5.000000e-01
<MEAN> 39
 1.226141e+01 2.260180e-01 3.208415e+00 1.533792e+01 1.568655e+01 -8.681691e-02 -1.333043e+01 1.123397e+01 -4.591011e+00 -1.509780e+01 6.803495e+00 -1.657177e+00 -7.360545e+00 1.009856e-02 -1.008854e-01 -6.414492e-02 -1.005691e-01 -5.141738e-02 -1.386166e-01 -1.921958e-01 -3.271394e-02 -7.681043e-02 2.689673e-02 2.707881e-01 1.079593e-01 -1.156967e-02 -1.684196e-02 1.900044e-02 -1.792642e-03 -1.274829e-02 -1.608136e-02 8.600911e-03 3.813409e-02 6.427465e-03 2.484782e-02 2.247008e-02 -3.402504e-02 2.041112e-03 2.059508e-02
<VARIANCE> 39
 6.807219e+01 1.532349e+02 1.071293e+02 1.111715e+02 1.232688e+02 1.577351e+02 1.945284e+02 9.502099e+01 8.174183e+01 1.019905e+02 1.231786e+02 4.078032e+01 5.389962e+01 1.523838e+00 2.806358e+00 2.398522e+00 2.955016e+00 2.439340e+00 3.519100e+00 4.062957e+00 2.787575e+00 2.141547e+00 2.943267e+00 3.361101e+00 1.424415e+00 1.443464e+00 1.132998e-01 2.377405e-01 2.649651e-01 3.914045e-01 2.859347e-01 3.103849e-01 4.007850e-01 3.832236e-01 3.227301e-01 3.768958e-01 3.944105e-01 1.826500e-01 2.024225e-01
<GCONST> 1.268043e+02
<MIXTURE> 2 5.000000e-01
<MEAN> 39
 1.226141e+01 2.260180e-01 3.208415e+00 1.533792e+01 1.568655e+01 -8.681691e-02 -1.333043e+01 1.123397e+01 -4.591011e+00 -1.509780e+01 6.803495e+00 -1.657177e+00 -7.360545e+00 1.009856e-02 -1.008854e-01 -6.414492e-02 -1.005691e-01 -5.141738e-02 -1.386166e-01 -1.921958e-01 -3.271394e-02 -7.681043e-02 2.689673e-02 2.707881e-01 1.079593e-01 -1.156967e-02 -1.684196e-02 1.900044e-02 -1.792642e-03 -1.274829e-02 -1.608136e-02 8.600911e-03 3.813409e-02 6.427465e-03 2.484782e-02 2.247008e-02 -3.402504e-02 2.041112e-03 2.059508e-02
<VARIANCE> 39
 6.807219e+01 1.532349e+02 1.071293e+02 1.111715e+02 1.232688e+02 1.577351e+02 1.945284e+02 9.502099e+01 8.174183e+01 1.019905e+02 1.231786e+02 4.078032e+01 5.389962e+01 1.523838e+00 2.806358e+00 2.398522e+00 2.955016e+00 2.439340e+00 3.519100e+00 4.062957e+00 2.787575e+00 2.141547e+00 2.943267e+00 3.361101e+00 1.424415e+00 1.443464e+00 1.132998e-01 2.377405e-01 2.649651e-01 3.914045e-01 2.859347e-01 3.103849e-01 4.007850e-01 3.832236e-01 3.227301e-01 3.768958e-01 3.944105e-01 1.826500e-01 2.024225e-01
<GCONST> 1.268043e+02
<STATE> 4
<NUMMIXES> 2
<MIXTURE> 1 5.000000e-01
<MEAN> 39
 1.084212e+01 1.661218e+00 4.130568e+00 1.439191e+01 1.482061e+01 4.723228e-01 -1.263176e+01 1.009393e+01 -4.668996e+00 -1.309235e+01 7.294509e+00 -1.271873e+00 -6.663965e+00 -3.109636e-01 4.830661e-02 -5.064747e-02 -3.045954e-01 -1.976695e-01 2.312652e-01 3.230020e-01 1.217912e-02 1.093920e-01 2.339207e-01 -3.151640e-02 4.698634e-02 1.752634e-01 -1.122771e-03 -2.726550e-02 -4.784246e-02 -3.603445e-02 -4.372956e-02 -2.242360e-02 1.767972e-02 2.494258e-02 2.476583e-02 -8.949944e-04 -1.307804e-02 1.770955e-02 2.672996e-02
<VARIANCE> 39
 9.059731e+01 1.655142e+02 1.251942e+02 1.117530e+02 1.178948e+02 1.413769e+02 2.162431e+02 9.492068e+01 7.996497e+01 1.142104e+02 1.368919e+02 4.756335e+01 5.920208e+01 1.410747e+00 2.219095e+00 2.003804e+00 2.439591e+00 2.108250e+00 2.877598e+00 3.274820e+00 2.638314e+00 1.811771e+00 2.575092e+00 2.651298e+00 1.200866e+00 1.194195e+00 1.006040e-01 1.880639e-01 2.313319e-01 3.001380e-01 2.679688e-01 2.803738e-01 3.437021e-01 3.535164e-01 2.688102e-01 3.379117e-01 3.323486e-01 1.688160e-01 1.751492e-01
<GCONST> 1.236818e+02
<MIXTURE> 2 5.000000e-01
<MEAN> 39
 1.084212e+01 1.661218e+00 4.130568e+00 1.439191e+01 1.482061e+01 4.723228e-01 -1.263176e+01 1.009393e+01 -4.668996e+00 -1.309235e+01 7.294509e+00 -1.271873e+00 -6.663965e+00 -3.109636e-01 4.830661e-02 -5.064747e-02 -3.045954e-01 -1.976695e-01 2.312652e-01 3.230020e-01 1.217912e-02 1.093920e-01 2.339207e-01 -3.151640e-02 4.698634e-02 1.752634e-01 -1.122771e-03 -2.726550e-02 -4.784246e-02 -3.603445e-02 -4.372956e-02 -2.242360e-02 1.767972e-02 2.494258e-02 2.476583e-02 -8.949944e-04 -1.307804e-02 1.770955e-02 2.672996e-02
<VARIANCE> 39
 9.059731e+01 1.655142e+02 1.251942e+02 1.117530e+02 1.178948e+02 1.413769e+02 2.162431e+02 9.492068e+01 7.996497e+01 1.142104e+02 1.368919e+02 4.756335e+01 5.920208e+01 1.410747e+00 2.219095e+00 2.003804e+00 2.439591e+00 2.108250e+00 2.877598e+00 3.274820e+00 2.638314e+00 1.811771e+00 2.575092e+00 2.651298e+00 1.200866e+00 1.194195e+00 1.006040e-01 1.880639e-01 2.313319e-01 3.001380e-01 2.679688e-01 2.803738e-01 3.437021e-01 3.535164e-01 2.688102e-01 3.379117e-01 3.323486e-01 1.688160e-01 1.751492e-01
<GCONST> 1.236818e+02
<TRANSP> 5
 0.000000e+00 1.000000e+00 0.000000e+00 0.000000e+00 0.000000e+00
 0.000000e+00 8.759189e-01 1.240811e-01 0.000000e+00 0.000000e+00
 0.000000e+00 0.000000e+00 8.759192e-01 1.240809e-01 0.000000e+00
 0.000000e+00 0.000000e+00 0.000000e+00 8.759191e-01 1.240808e-01
 0.000000e+00 0.000000e+00 0.000000e+00 0.000000e+00 0.000000e+00
<ENDHMM>
~h "h"
<BEGINHMM>
<NUMSTATES> 5
<STATE> 2
<NUMMIXES> 2
<MIXTURE> 1 3.588003e-01
<MEAN> 39
 1.059119e+01 -3.113774e+00 8.630586e-01 1.703059e+01 1.472479e+01 4.192042e+00 -7.476277e+00 9.725193e+00 1.963880e-01 2.044804e+00 1.990324e+01 1.932428e-01 -8.334285e+00 -4.003281e-01 -4.344748e-02 -1.353880e-01 -1.411969e-01 -3.244026e-01 2.431964e-01 7.097727e-01 4.089998e-01 1.014876e+00 1.201061e+00 6.043799e-02 6.876931e-02 1.737260e-01 1.856112e-02 1.686934e-02 -2.334570e-02 -3.663074e-02 -7.779617e-03 -2.964898e-02 -4.617334e-02 -1.498454e-02 -1.949623e-02 -1.025763e-01 -1.132074e-01 1.794974e-02 6.545742e-02
<VARIANCE> 39
 1.963609e+01 2.893826e+01 7.130856e+01 9.983179e+01 5.913816e+01 3.456726e+01 7.870415e+01 4.486933e+01 5.528245e+01 1.029291e+02 6.938794e+01 5.837030e+01 4.435887e+01 1.935133e-01 5.216194e-01 7.479383e-01 1.080327e+00 1.090714e+00 1.076451e+00 1.852275e+00 1.717890e+00 1.723735e+00 1.953431e+00 2.132888e+00 1.158299e+00 1.325036e+00 2.160737e-02 6.186068e-02 8.157072e-02 1.190899e-01 1.291432e-01 1.509031e-01 2.329407e-01 2.138827e-01 2.496245e-01 2.759106e-01 2.699017e-01 1.781354e-01 1.938270e-01
<GCONST> 9.909920e+01
<MIXTURE> 2 6.412015e-01
<MEAN> 39
 -6.414450e+00 -5.253537e+00 -4.913726e+00 8.678348e-01 -1.374203e+00 2.077654e+00 1.028779e+00 1.062843e+01 7.296121e-02 -3.625313e+00 4.270600e+00 2.178277e+00 1.559410e+00 8.426329e-02 -3.582424e-01 -2.730341e-01 -2.922960e-01 -6.666394e-01 -1.465370e-01 5.997787e-01 6.116132e-01 2.854900e-01 1.040754e-01 -1.206933e-02 6.291030e-02 1.073534e-01 2.879583e-02 -2.743073e-02 1.462583e-02 1.730778e-02 -1.740241e-03 -1.035485e-02 -1.470995e-02 -1.373773e-02 -2.708396e-02 6.177984e-03 6.010621e-02 1.775890e-02 -2.773061e-03
<VARIANCE> 39
 3.208687e+02 8.313629e+01 8.351741e+01 1.159672e+02 9.482716e+01 7.226822e+01 6.516489e+01 1.174720e+02 5.340244e+01 5.343821e+01 6.143067e+01 2.728757e+01 2.017035e+01 2.494090e+00 1.488801e+00 1.860972e+00 1.893865e+00 1.936023e+00 2.202249e+00 2.650894e+00 2.915836e+00 2.306068e+00 2.467309e+00 2.089077e+00 1.346144e+00 1.403336e+00 1.125890e-01 1.475157e-01 2.071671e-01 2.352889e-01 2.361625e-01 2.793703e-01 3.198836e-01 3.413489e-01 3.275269e-01 3.126057e-01 2.603011e-01 2.126288e-01 2.147551e-01
<GCONST> 1.176223e+02
<STATE> 3
<NUMMIXES> 2
<MIXTURE> 1 1.373399e-01
<MEAN> 39
 5.868589e+00 -1.547060e+00 6.503943e+00 2.326581e+01 1.775602e+01 3.418050e+00 -9.441986e+00 1.005740e+01 4.412292e+00 3.760263e+00 1.510452e+01 -3.804364e+00 -9.270421e+00 -2.186264e-01 1.052462e-01 1.005926e-01 1.454630e-01 -3.950348e-03 -7.203905e-02 9.974448e-02 1.838875e-01 2.281048e-01 9.743012e-02 -2.089807e-01 -7.911672e-02 -1.226668e-01 1.010547e-01 4.684684e-02 6.231453e-03 1.062991e-03 1.743900e-02 -9.744686e-02 -1.844144e-01 -1.501279e-01 -2.580279e-01 -2.787167e-01 -1.171877e-02 1.126561e-02 -6.355913e-02
<VARIANCE> 39
 2.104523e+01 3.469374e+01 3.553416e+01 4.905698e+01 2.098635e+01 2.774948e+01 3.404301e+01 4.117816e+01 5.470771e+01 5.497874e+01 6.676485e+01 3.227759e+01 3.172394e+01 3.233653e-01 5.244247e-01 9.572702e-01 1.357126e+00 1.110555e+00 9.328791e-01 1.749886e+00 1.670910e+00 1.704739e+00 2.060062e+00 2.216055e+00 1.293597e+00 1.117496e+00 2.714827e-02 5.584859e-02 8.547929e-02 1.383291e-01 1.426879e-01 1.524855e-01 2.138736e-01 2.359127e-01 2.671553e-01 2.915928e-01 2.543357e-01 1.763364e-01 1.988106e-01
<GCONST> 9.548828e+01
<MIXTURE> 2 8.626593e-01
<MEAN> 39
 1.077753e+01 -2.609768e+00 -3.961271e+00 3.596870e+00 -4.336777e+00 1.223758e+00 1.084807e+01 2.420251e+01 5.257944e+00 -4.558515e+00 5.739811e+00 3.827771e+00 2.341788e+00 -6.581745e-02 -2.905713e-02 -3.173152e-02 -1.293115e-01 -4.156318e-01 -1.183016e-01 4.241083e-01 3.043924e-01 5.028800e-02 -1.513943e-02 -1.283856e-01 -1.946351e-02 2.430375e-02 7.456166e-02 7.885109e-02 5.023133e-02 6.678523e-02 1.043697e-01 -8.731489e-02 -2.224253e-01 -1.074973e-01 -9.224435e-02 -7.354490e-02 5.999632e-02 -1.676297e-02 -9.013376e-02
<VARIANCE> 39
 6.751242e+01 8.722410e+01 7.146834e+01 4.718790e+01 9.037473e+01 6.923626e+01 1.023111e+02 1.199407e+02 5.584107e+01 6.825380e+01 6.687033e+01 2.523779e+01 2.537505e+01 6.970454e-01 9.554937e-01 8.168702e-01 8.294691e-01 1.131961e+00 1.370106e+00 1.841343e+00 1.830556e+00 1.307628e+00 1.782954e+00 1.629523e+00 1.079088e+00 1.127283e+00 3.430422e-02 7.660414e-02 9.036011e-02 1.168494e-01 1.451690e-01 1.851516e-01 2.210204e-01 2.420135e-01 1.931967e-01 2.330028e-01 2.040365e-01 1.788589e-01 1.641867e-01
<GCONST> 1.026823e+02
<STATE> 4
<NUMMIXES> 2
<MIXTURE> 1 3.392011e-01
<MEAN> 39
 9.994081e+00 -4.397271e-01 3.476783e+00 1.665651e+01 1.268240e+01 -2.163782e-01 -9.763469e+00 1.414602e+01 2.785332e+00 -1.329351e+00 1.597823e+01 -1.977909e+00 -9.277422e+00 3.723031e-01 1.501768e-01 -2.179951e-01 -2.324874e-01 1.095421e-01 -4.809817e-01 -8.469486e-01 -2.020292e-01 -5.443577e-01 -6.720659e-01 3.492787e-01 2.688865e-01 -2.172858e-01 6.097067e-02 -6.861158e-02 -9.476916e-02 2.525864e-02 6.973534e-02 -2.142164e-02 -6.436726e-02 -5.375350e-02 -7.579337e-02 -9.345558e-02 -1.882640e-02 5.483492e-02 3.359739e-02
<VARIANCE> 39
 2.938268e+01 4.465464e+01 3.493458e+01 8.070511e+01 9.555888e+01 3.744902e+01 1.162264e+02 7.934642e+01 6.882983e+01 1.101589e+02 7.103618e+01 3.131318e+01 4.766075e+01 2.465783e-01 5.132130e-01 7.715569e-01 1.151008e+00 1.108439e+00 1.324616e+00 1.790916e+00 1.773208e+00 1.478876e+00 1.953118e+00 1.614014e+00 1.028348e+00 1.063890e+00 2.326045e-02 7.656291e-02 1.179235e-01 1.595176e-01 1.522041e-01 1.832564e-01 2.585363e-01 2.793710e-01 2.197620e-01 2.701046e-01 2.762491e-01 1.824728e-01 1.904203e-01
<GCONST> 1.016193e+02
<MIXTURE> 2 6.607974e-01
<MEAN> 39
 9.037344e+00 -5.926580e+00 -2.224383e+00 6.736098e+00 -1.988800e+00 -2.879555e+00 1.688777e+00 1.891352e+01 5.229955e-01 -7.745214e+00 6.760612e+00 1.322012e+00 -7.328227e-01 4.898016e-01 3.307861e-01 2.535780e-01 4.117504e-01 3.688381e-01 -1.843784e-01 -3.530926e-01 -1.130650e-01 2.975067e-02 -5.077529e-02 7.892027e-02 -2.907890e-02 -2.063040e-01 3.667090e-02 8.656701e-03 -2.873555e-02 -4.625635e-03 1.030924e-01 -6.052783e-02 -1.780299e-01 -1.676203e-02 1.202491e-02 -2.612766e-02 5.620760e-02 -1.905784e-04 -5.272180e-02
<VARIANCE> 39
 1.251037e+02 1.117142e+02 1.351704e+02 1.948080e+02 2.471708e+02 1.076046e+02 1.625910e+02 1.481166e+02 7.673164e+01 1.019843e+02 8.782541e+01 3.105748e+01 5.055556e+01 1.610472e+00 1.743682e+00 2.471322e+00 2.171350e+00 2.577864e+00 2.713813e+00 3.217423e+00 2.518503e+00 2.210219e+00 2.737076e+00 2.527843e+00 1.295644e+00 1.512521e+00 8.188850e-02 1.839551e-01 2.693685e-01 2.675040e-01 3.030189e-01 3.408617e-01 3.744686e-01 3.597186e-01 3.114789e-01 3.601957e-01 3.025854e-01 2.130576e-01 2.132108e-01
<GCONST> 1.250531e+02
<TRANSP> 5
 0.000000e+00 1.000000e+00 0.000000e+00 0.000000e+00 0.000000e+00
 0.000000e+00 8.120635e-01 1.879365e-01 0.000000e+00 0.000000e+00
 0.000000e+00 0.000000e+00 6.023244e-01 3.976756e-01 0.000000e+00
 0.000000e+00 0.000000e+00 0.000000e+00 8.393984e-01 1.606016e-01
 0.000000e+00 0.000000e+00 0.000000e+00 0.000000e+00 0.000000e+00
<ENDHMM>
~h "i"
<BEGINHMM>
<NUMSTATES> 7
<STATE> 2
<NUMMIXES> 2
<MIXTURE> 1 9.938051e-01
<MEAN> 39
 5.665583e+00 -1.001281e+01 4.502100e+00 2.065855e+01 1.784907e+01 3.023427e+00 -1.508580e+01 6.608689e+00 -7.156064e+00 -1.477536e+01 8.319550e+00 -2.848053e+00 -7.540783e+00 1.533491e+00 -5.697709e-02 3.924195e-01 1.068409e+00 1.761359e+00 -2.490402e-01 -2.011925e+00 7.787824e-02 -4.530502e-01 -1.499297e+00 9.178610e-01 1.308041e-01 -1.564935e+00 -1.715444e-01 -5.366798e-02 -6.641966e-02 -1.588189e-01 -2.600523e-02 -6.036292e-02 -8.629573e-02 3.587410e-02 5.031938e-02 -5.730939e-02 -5.732012e-02 6.234124e-02 -3.535368e-02
<VARIANCE> 39
 1.384510e+02 7.325010e+01 8.055363e+01 1.206019e+02 9.726762e+01 4.762581e+01 1.209039e+02 5.964494e+01 5.458015e+01 8.652110e+01 8.456148e+01 3.951191e+01 6.117398e+01 2.608214e+00 3.413760e+00 3.422287e+00 3.120100e+00 4.049889e+00 2.306515e+00 6.095187e+00 3.598272e+00 3.397799e+00 5.104453e+00 3.723308e+00 1.943406e+00 3.014083e+00 2.604284e-01 4.287873e-01 4.833527e-01 4.387193e-01 4.778051e-01 3.224966e-01 7.044301e-01 5.674769e-01 5.819946e-01 8.189336e-01 5.172128e-01 2.627866e-01 4.036638e-01
<GCONST> 1.337336e+02
<MIXTURE> 2 6.194438e-03
<MEAN> 39
 9.367084e+00 -2.112573e+01 1.724485e+01 2.929237e+01 1.399320e+01 1.207743e+01 -1.741926e+01 -4.560298e+00 -6.929626e-01 -1.201762e+01 2.959869e+00 -2.892756e+00 -1.012104e+01 1.457709e+00 1.605598e+00 -1.894349e+00 8.993401e-01 1.802888e+00 -2.300634e+00 -1.611676e+00 4.603943e-01 -3.759694e-02 -1.383914e+00 -2.801368e-02 -8.038110e-02 -1.421176e+00 -4.311478e-01 1.209998e-02 -1.126464e-01 -4.603384e-01 1.207858e-01 -8.194021e-02 1.733697e-01 5.703995e-01 2.243290e-02 1.951133e-01 2.052519e-01 1.209068e-02 1.318660e-01
<VARIANCE> 39
 3.353592e+01 3.751551e+01 3.981546e+01 5.946041e+01 5.682062e+01 4.095250e+01 4.633416e+01 3.537026e+01 3.598008e+01 4.285319e+01 3.772282e+01 1.762664e+01 3.317612e+01 1.062152e+00 2.596488e+00 4.506321e+00 1.696128e+00 3.004508e+00 4.035887e+00 3.272384e+00 1.667135e+00 1.497533e+00 1.580208e+00 1.937893e+00 1.192107e+00 1.121343e+00 1.454402e-01 6.091751e-01 4.905961e-01 2.422758e-01 2.496282e-01 4.062807e-01 3.412238e-01 3.984801e-01 1.787998e-01 2.753408e-01 3.441460e-01 1.627207e-01 1.657356e-01
<GCONST> 1.116057e+02
<STATE> 3
<NUMMIXES> 2
<MIXTURE> 1 9.041049e-01
<MEAN> 39
 1.360467e+01 -1.095286e+01 5.903034e+00 2.493151e+01 2.905764e+01 6.586542e-01 -2.833634e+01 7.858019e+00 -9.211002e+00 -2.382997e+01 1.284474e+01 -9.553475e-01 -1.634882e+01 3.349952e-02 -2.272155e-01 1.783223e-01 -2.064991e-01 5.833911e-01 -1.172960e-01 -1.093336e+00 2.127328e-01 7.414981e-02 -5.367833e-01 3.196303e-01 -3.415897e-03 -7.194699e-01 -1.515596e-01 9.519062e-02 6.139976e-02 -6.474596e-02 -3.015191e-01 1.343724e-01 4.826725e-01 -7.006285e-02 1.024542e-01 3.564675e-01 -1.811108e-01 -7.014962e-02 2.616385e-01
<VARIANCE> 39
 2.154765e+01 2.665093e+01 5.101168e+01 9.368671e+01 3.492525e+01 2.409177e+01 7.043356e+01 4.457567e+01 5.660616e+01 4.623285e+01 8.870102e+01 2.142032e+01 3.607928e+01 5.281503e-01 7.602358e-01 1.036417e+00 1.308301e+00 1.315165e+00 1.088896e+00 2.817984e+00 1.910002e+00 1.103930e+00 1.982716e+00 1.750032e+00 8.910014e-01 1.407943e+00 9.285686e-02 1.005749e-01 1.320768e-01 1.749074e-01 2.146707e-01 1.423906e-01 3.471011e-01 3.417087e-01 1.861307e-01 3.421922e-01 2.684959e-01 1.346237e-01 1.942066e-01
<GCONST> 1.015244e+02
<MIXTURE> 2 9.589291e-02
<MEAN> 39
 1.569144e+01 -1.461992e+01 7.527450e+00 2.294858e+01 2.303232e+01 3.620256e+00 -2.909341e+01 5.586276e+00 -4.930773e+00 -2.653418e+01 1.211509e+01 7.850516e-01 -2.012144e+01 -1.214852e-01 6.698817e-03 7.545541e-02 -2.881834e-01 5.362136e-02 -9.328228e-02 -3.162326e-01 -4.649654e-02 5.730830e-03 -2.866106e-02 2.272985e-01 -2.791420e-02 -3.325296e-01 -1.265453e-01 1.465295e-01 1.157559e-02 2.749512e-02 -8.116821e-03 6.009825e-02 3.856466e-01 -7.332765e-02 -1.692333e-01 3.038353e-01 -1.066629e-01 -1.024790e-01 2.698448e-01
<VARIANCE> 39
 8.580434e+00 1.200783e+01 3.747422e+01 5.173921e+01 1.632184e+01 2.193216e+01 3.644940e+01 3.504944e+01 5.473627e+01 3.601922e+01 7.695688e+01 1.279564e+01 2.865645e+01 4.041476e-01 7.260375e-01 8.227313e-01 8.498083e-01 7.690644e-01 1.006616e+00 1.496886e+00 1.031178e+00 8.167118e-01 1.208508e+00 1.083913e+00 6.283345e-01 8.952076e-01 6.376057e-02 9.227255e-02 1.179462e-01 9.068990e-02 9.822535e-02 1.462761e-01 2.078407e-01 1.594809e-01 9.634545e-02 2.021938e-01 1.467687e-01 8.083977e-02 1.199618e-01
<GCONST> 8.501963e+01
<STATE> 4
<NUMMIXES> 2
<MIXTURE> 1 9.621925e-01
<MEAN> 39
 1.243753e+01 -1.184616e+01 7.811141e+00 2.685867e+01 2.877443e+01 -1.393318e-02 -2.881989e+01 7.315712e+00 -5.908024e+00 -2.317080e+01 9.609033e+00 -1.083837e+00 -1.616386e+01 -6.532653e-02 1.085738e-01 2.248077e-02 -7.308301e-02 5.723324e-02 1.555251e-01 7.494907e-02 -8.632318e-02 -4.615663e-02 1.432402e-02 -1.314900e-02 -6.535364e-02 -1.165654e-01 -3.470625e-04 5.064130e-02 -1.890735e-02 2.570043e-02 -8.702940e-02 9.916506e-02 1.976629e-01 -4.269885e-02 -6.080849e-03 1.095886e-01 -4.208336e-02 -2.076840e-02 9.262090e-02
<VARIANCE> 39
 2.264435e+01 2.798495e+01 5.407040e+01 9.224567e+01 3.701440e+01 2.367000e+01 6.541864e+01 3.569073e+01 6.679887e+01 4.121432e+01 9.969492e+01 1.851318e+01 3.956370e+01 3.153270e-01 5.768834e-01 6.987345e-01 1.003031e+00 8.156460e-01 8.235723e-01 1.504966e+00 1.157834e+00 8.071305e-01 1.191657e+00 1.101464e+00 6.580518e-01 9.529977e-01 4.248560e-02 6.164154e-02 8.524722e-02 1.047129e-01 1.100805e-01 1.079065e-01 1.979342e-01 1.798280e-01 1.220119e-01 1.727110e-01 1.653600e-01 9.008499e-02 1.212410e-01
<GCONST> 8.937380e+01
<MIXTURE> 2 3.780770e-02
<MEAN> 39
 1.238360e+01 -1.571857e+01 1.459925e+01 3.177016e+01 2.164790e+01 1.855945e+00 -2.893998e+01 2.447569e+00 5.850621e+00 -2.012983e+01 -1.965982e+00 -1.316836e+00 -1.478481e+01 4.374317e-02 3.961857e-02 -2.528174e-01 -1.964453e-01 9.576082e-04 -1.228618e-01 2.293140e-02 -1.195463e-01 -3.439210e-01 1.058140e-01 1.955945e-01 -3.609178e-02 1.880447e-01 -1.265474e-01 1.273246e-01 -3.586627e-02 2.928242e-02 1.443685e-01 -2.391936e-02 1.368658e-01 4.943932e-02 -1.805440e-01 1.012409e-02 9.211163e-02 -2.105283e-02 5.490826e-04
<VARIANCE> 39
 4.520758e+00 1.452085e+01 1.537626e+01 3.709693e+01 1.230432e+01 2.078348e+01 3.139452e+01 1.842088e+01 3.597813e+01 1.697310e+01 2.978561e+01 1.205064e+01 2.693859e+01 4.045323e-01 5.627202e-01 5.888817e-01 9.073911e-01 5.732786e-01 6.768782e-01 8.829763e-01 6.133922e-01 6.935553e-01 6.847364e-01 6.527175e-01 4.870058e-01 6.317061e-01 4.440286e-02 6.297659e-02 5.879685e-02 6.942014e-02 6.202766e-02 1.020065e-01 9.489755e-02 9.840773e-02 1.121995e-01 1.232549e-01 8.863901e-02 7.739299e-02 9.649825e-02
<GCONST> 7.096823e+01
<STATE> 5
<NUMMIXES> 2
<MIXTURE> 1 9.577782e-01
<MEAN> 39
 1.322847e+01 -1.004665e+01 5.648336e+00 2.350358e+01 2.908147e+01 2.123600e+00 -2.756444e+01 7.021092e+00 -1.061351e+01 -2.316009e+01 1.452568e+01 -1.415962e+00 -1.707586e+01 -3.069474e-01 7.984741e-01 1.000533e-01 -3.780762e-02 -6.079948e-01 6.728585e-01 1.458105e+00 -4.806914e-01 2.821504e-01 9.526231e-01 -6.011386e-01 -9.311646e-02 5.510494e-01 -1.116265e-01 1.778530e-01 7.382938e-02 -7.054459e-02 -2.379256e-01 1.126062e-01 3.327745e-01 -7.202613e-02 1.935427e-01 3.044477e-01 -2.653013e-01 6.017057e-03 2.825903e-01
<VARIANCE> 39
 2.190498e+01 3.580342e+01 4.388925e+01 7.475946e+01 4.188448e+01 3.453848e+01 8.242596e+01 4.864580e+01 5.405391e+01 5.256166e+01 8.551474e+01 2.159771e+01 4.137662e+01 6.779494e-01 1.625181e+00 1.077500e+00 1.406644e+00 1.622335e+00 1.337451e+00 3.619456e+00 2.467337e+00 1.681123e+00 3.015631e+00 2.686637e+00 8.978052e-01 1.857861e+00 7.803076e-02 1.507228e-01 1.434499e-01 1.937230e-01 2.048199e-01 1.591558e-01 3.910591e-01 3.714914e-01 2.480205e-01 3.735364e-01 3.295287e-01 1.351067e-01 2.283701e-01
<GCONST> 1.074612e+02
<MIXTURE> 2 4.222241e-02
<MEAN> 39
 1.337330e+01 -1.447915e+01 1.144763e+01 2.752958e+01 2.072243e+01 5.035723e+00 -2.608804e+01 1.872082e-01 -8.349681e-02 -1.904606e+01 3.702579e+00 -9.926447e-01 -1.503353e+01 -1.381907e-01 6.618200e-01 -2.298100e-01 -3.874460e-01 -2.366971e-01 4.198115e-01 1.014455e+00 -1.745709e-01 -4.638314e-01 5.854939e-01 3.101777e-01 7.358930e-02 6.433623e-01 -1.587228e-01 1.810236e-01 8.462746e-02 -9.372653e-02 5.997810e-02 3.625118e-02 2.002198e-01 8.402082e-02 -1.682724e-02 1.975318e-01 -8.845677e-02 -6.338930e-02 1.850794e-01
<VARIANCE> 39
 1.468315e+01 3.288606e+01 3.835096e+01 3.576103e+01 2.629950e+01 4.401498e+01 4.315543e+01 2.835632e+01 4.266426e+01 3.307240e+01 3.850797e+01 1.406804e+01 3.462502e+01 4.382896e-01 1.297573e+00 1.582442e+00 1.347933e+00 1.253860e+00 1.727865e+00 2.058150e+00 1.359092e+00 1.146493e+00 1.911301e+00 1.136704e+00 8.454415e-01 1.650181e+00 6.259862e-02 2.074971e-01 2.159497e-01 1.225491e-01 1.904803e-01 2.666814e-01 2.148330e-01 2.155799e-01 1.722632e-01 2.565486e-01 1.589953e-01 1.196607e-01 2.045460e-01
<GCONST> 9.688033e+01
<STATE> 6
<NUMMIXES> 2
<MIXTURE> 1 4.218121e-01
<MEAN> 39
 2.187868e+00 4.663845e-01 8.576367e+00 1.742009e+01 1.792725e+01 9.333254e+00 -8.493645e+00 4.352424e+00 -4.832523e+00 -8.260763e+00 4.977254e+00 -2.085933e+00 -5.229396e+00 -1.225818e+00 8.223630e-01 5.861039e-01 -7.937647e-01 -1.141726e+00 7.282189e-01 1.608671e+00 -8.156902e-02 8.071886e-01 1.425054e+00 -9.721175e-01 4.403280e-02 1.257615e+00 8.414458e-03 -2.408044e-01 -2.872795e-03 -7.905387e-02 2.344619e-02 -7.780186e-02 -2.780236e-01 1.030937e-02 -1.561484e-01 -2.027873e-01 1.954966e-01 2.785020e-02 -1.263973e-01
<VARIANCE> 39
 1.231455e+02 1.193126e+02 8.926851e+01 9.687176e+01 8.389452e+01 7.333958e+01 9.826387e+01 5.002029e+01 6.157912e+01 8.119861e+01 6.929271e+01 2.249776e+01 5.155986e+01 3.385188e+00 5.825635e+00 3.035651e+00 3.100373e+00 3.318745e+00 2.346205e+00 5.434102e+00 3.326310e+00 3.669870e+00 4.445063e+00 5.306614e+00 1.511468e+00 3.201482e+00 1.953515e-01 3.747836e-01 3.576167e-01 3.428237e-01 3.879720e-01 2.551901e-01 3.912424e-01 3.980656e-01 4.648544e-01 4.642150e-01 4.963863e-01 2.251789e-01 3.221085e-01
<GCONST> 1.298391e+02
<MIXTURE> 2 5.781847e-01
<MEAN> 39
 4.900729e+00 -7.532712e+00 3.086110e+00 1.646178e+01 1.909677e+01 2.861352e+00 -1.829537e+01 4.803993e+00 -6.645622e+00 -1.619450e+01 8.393497e+00 -1.981749e-01 -1.062510e+01 -8.890305e-02 9.570725e-02 2.752297e-02 -1.564512e-01 -1.634326e-01 1.779330e-01 2.268269e-01 6.021932e-03 -4.707254e-03 1.065004e-01 4.772010e-02 -2.902173e-02 2.183471e-02 8.702157e-03 -1.432503e-02 8.881858e-03 3.261431e-02 9.576196e-03 3.963412e-02 2.116150e-02 -8.148674e-03 -1.072663e-02 2.959024e-03 1.413956e-03 -8.487849e-03 2.093957e-02
<VARIANCE> 39
 2.938129e+02 7.841544e+01 7.965188e+01 1.820963e+02 1.676568e+02 3.794188e+01 1.916274e+02 4.604635e+01 5.036313e+01 1.352525e+02 1.003732e+02 2.440256e+01 8.182931e+01 3.640986e-01 4.693342e-01 5.060691e-01 7.185094e-01 7.334267e-01 7.050958e-01 1.298682e+00 1.145177e+00 7.987264e-01 1.121981e+00 1.203422e+00 7.138479e-01 8.154548e-01 4.110391e-02 5.540832e-02 7.258561e-02 7.851891e-02 9.440937e-02 1.111922e-01 1.705389e-01 1.670098e-01 1.168126e-01 1.722173e-01 1.716574e-01 1.124422e-01 1.231024e-01
<GCONST> 9.735997e+01
<TRANSP> 7
 0.000000e+00 1.000000e+00 0.000000e+00 0.000000e+00 0.000000e+00 0.000000e+00 0.000000e+00
 0.000000e+00 7.051774e-01 2.948226e-01 0.000000e+00 0.000000e+00 0.000000e+00 0.000000e+00
 0.000000e+00 0.000000e+00 6.484804e-01 3.515196e-01 0.000000e+00 0.000000e+00 0.000000e+00
 0.000000e+00 0.000000e+00 0.000000e+00 4.693164e-01 5.306836e-01 0.000000e+00 0.000000e+00
 0.000000e+00 0.000000e+00 0.000000e+00 0.000000e+00 6.074668e-01 3.925332e-01 0.000000e+00
 0.000000e+00 0.000000e+00 0.000000e+00 0.000000e+00 0.000000e+00 7.489340e-01 2.510660e-01
 0.000000e+00 0.000000e+00 0.000000e+00 0.000000e+00 0.000000e+00 0.000000e+00 0.000000e+00
<ENDHMM>
~h "j"
<BEGINHMM>
<NUMSTATES> 5
<STATE> 2
<NUMMIXES> 2
<MIXTURE> 1 6.036720e-01
<MEAN> 39
 2.978186e+00 1.780566e+01 1.655762e+01 1.785109e+01 1.453062e+01 1.238356e+01 3.357522e+00 7.496546e+00 -7.284334e-01 -5.152694e+00 -4.093732e+00 -5.265719e+00 -3.577852e+00 -2.201876e-01 -5.995995e-02 1.068371e-01 1.500058e-01 3.529251e-02 1.748379e-01 2.745571e-01 2.355962e-01 2.621227e-01 2.227711e-01 -1.118024e-02 9.212302e-02 1.850861e-01 -1.117378e-01 -2.445364e-01 3.320426e-04 9.501122e-02 -4.685180e-02 -2.252404e-02 -1.205210e-02 3.641727e-02 1.207433e-01 6.740767e-02 1.907706e-02 7.158271e-02 1.328555e-01
<VARIANCE> 39
 2.943604e+01 4.199366e+01 2.836132e+01 1.388833e+01 1.051237e+01 2.148001e+01 2.608317e+01 1.631718e+01 1.824564e+01 2.443683e+01 1.884516e+01 1.139718e+01 9.030110e+00 5.702057e-01 8.832020e-01 9.849496e-01 8.869306e-01 4.813274e-01 5.323445e-01 6.036013e-01 5.504719e-01 7.059392e-01 8.607785e-01 7.814103e-01 6.570428e-01 5.856410e-01 5.417415e-02 1.813678e-01 1.766053e-01 1.570281e-01 7.740460e-02 8.161478e-02 8.631403e-02 8.121930e-02 1.126813e-01 1.169032e-01 1.204672e-01 1.008477e-01 1.102813e-01
<GCONST> 7.575433e+01
<MIXTURE> 2 3.963276e-01
<MEAN> 39
 -3.127291e+00 7.231069e+00 1.154571e+01 1.524935e+01 1.204191e+01 1.008538e+01 6.615787e-01 8.277514e+00 -4.505255e-01 -4.474987e+00 6.384742e-01 -1.766751e+00 -7.782941e-01 8.306774e-01 1.249326e+00 1.263945e+00 8.589224e-01 3.499612e-01 6.953743e-01 5.285921e-01 -1.212069e-01 1.718897e-01 8.717474e-02 -6.758198e-01 -3.716774e-01 -7.364377e-03 -5.331841e-02 -2.816546e-01 4.335582e-03 -1.260370e-02 -1.202848e-01 3.162012e-03 -3.668790e-02 -6.177494e-02 7.876638e-03 -3.966309e-02 -1.771019e-02 1.228574e-02 -4.823391e-03
<VARIANCE> 39
 1.303056e+02 1.508232e+02 9.176864e+01 6.358982e+01 6.006869e+01 4.897995e+01 8.085979e+01 3.956380e+01 4.815824e+01 6.918600e+01 4.496098e+01 1.972866e+01 2.572465e+01 4.279921e+00 5.014864e+00 3.240993e+00 2.508406e+00 2.612664e+00 2.194380e+00 2.813190e+00 1.726100e+00 2.237784e+00 3.230680e+00 1.996822e+00 1.209886e+00 1.695679e+00 2.148096e-01 4.304574e-01 3.797496e-01 3.387365e-01 3.098961e-01 2.378992e-01 2.662292e-01 2.462746e-01 2.605412e-01 3.077708e-01 2.755677e-01 1.674156e-01 2.056492e-01
<GCONST> 1.193707e+02
<STATE> 3
<NUMMIXES> 2
<MIXTURE> 1 2.800155e-01
<MEAN> 39
 -9.026574e-01 7.075733e+00 1.837605e+01 2.347636e+01 1.238121e+01 1.390980e+01 4.938743e+00 8.499672e+00 4.632283e+00 -2.138858e+00 -5.080409e+00 -2.540775e+00 2.731062e+00 -1.468129e+00 -4.760735e+00 1.080452e+00 1.162464e+00 -1.343387e+00 1.141026e+00 -4.908752e-02 1.236728e-01 1.603709e+00 1.709244e-01 4.130942e-01 8.545275e-01 1.036318e+00 -1.496349e-01 -1.116086e+00 1.556946e-01 -2.566445e-01 -3.291245e-01 1.948534e-01 -2.849792e-01 1.605251e-01 3.566058e-02 -4.739751e-01 5.188707e-01 3.519178e-01 -2.985536e-01
<VARIANCE> 39
 1.550468e+01 5.350713e+01 2.043808e+01 2.132727e+01 2.415889e+01 1.656165e+01 1.709300e+01 1.860174e+01 3.674721e+01 2.384214e+01 2.175039e+01 1.591208e+01 1.795895e+01 5.969610e-01 4.844753e+00 3.067515e+00 1.798000e+00 2.022277e+00 2.061362e+00 2.415990e+00 1.450100e+00 1.915863e+00 2.286951e+00 2.531995e+00 1.794479e+00 2.087043e+00 5.509447e-02 3.089108e-01 2.183319e-01 3.929434e-01 2.240173e-01 2.995915e-01 2.318372e-01 2.279802e-01 2.396232e-01 2.620878e-01 3.095996e-01 2.325719e-01 2.848627e-01
<GCONST> 1.020919e+02
<MIXTURE> 2 7.199829e-01
<MEAN> 39
 -9.204820e+00 -2.830256e+01 2.821487e+01 2.187434e+01 7.687587e-01 1.984149e+01 -2.628199e+00 8.971501e+00 9.678904e+00 -7.033511e+00 3.953635e+00 4.727048e+00 2.159345e+00 1.547062e-02 -2.836670e+00 1.300560e+00 -1.975952e-01 -6.349571e-01 6.668687e-01 -1.469955e+00 -7.101837e-01 -2.390202e-01 -7.726815e-01 7.730145e-01 1.812561e-01 -5.748551e-01 4.885386e-01 9.548162e-01 -4.151914e-01 -9.928912e-03 4.719586e-01 -1.739700e-01 -6.729305e-02 -3.674817e-01 -3.440808e-01 4.057647e-02 -3.468699e-01 -2.801442e-01 -7.064620e-02
<VARIANCE> 39
 2.392746e+01 1.459807e+02 9.585837e+01 5.714546e+01 6.171980e+01 4.638599e+01 7.115074e+01 3.616794e+01 7.545873e+01 3.760191e+01 4.458390e+01 3.016416e+01 2.506884e+01 3.214218e+00 1.313525e+01 5.487672e+00 3.386358e+00 6.851379e+00 3.882224e+00 3.644119e+00 3.212348e+00 3.076692e+00 2.402247e+00 2.841107e+00 3.292494e+00 1.305777e+00 2.488183e-01 6.740593e-01 1.195790e+00 6.445432e-01 8.491886e-01 7.387841e-01 5.987998e-01 3.951191e-01 3.778647e-01 4.309638e-01 4.010915e-01 4.645617e-01 2.428972e-01
<GCONST> 1.306783e+02
<STATE> 4
<NUMMIXES> 2
<MIXTURE> 1 2.649633e-02
<MEAN> 39
 -1.041919e+01 -3.208078e+01 3.494064e+01 1.961225e+01 -7.888794e-02 1.776914e+01 -5.140565e+00 1.040844e+01 5.130170e+00 -7.824529e+00 8.258285e+00 2.073745e+00 -1.185764e+00 2.696664e+00 1.926557e+00 -9.374130e-01 3.417681e-01 1.760945e+00 1.265258e-01 -1.270720e+00 -2.381756e+00 -1.318042e+00 -7.224392e-01 -1.539006e+00 -9.502425e-01 -7.947029e-01 8.615074e-01 4.771366e-01 -9.049882e-01 -2.045228e-01 6.276496e-02 -2.553135e-01 -3.997858e-01 -5.647973e-01 -2.531620e-01 -2.947626e-01 -3.511571e-01 1.042473e-02 5.424841e-02
<VARIANCE> 39
 1.187452e+01 5.167371e+01 6.821909e+01 2.374005e+01 2.583051e+01 1.660510e+01 1.993988e+01 2.495224e+01 3.441431e+01 1.938305e+01 1.894975e+01 1.615317e+01 1.384142e+01 2.462084e+00 4.366677e+00 3.092625e+00 1.323580e+00 2.023740e+00 1.910185e+00 1.054268e+00 3.028168e+00 1.391797e+00 1.031196e+00 1.646277e+00 9.359972e-01 8.531749e-01 1.351824e-01 2.758718e-01 5.937018e-01 2.877085e-01 2.696908e-01 2.827201e-01 2.564819e-01 2.318044e-01 2.025289e-01 1.476055e-01 2.029388e-01 2.437657e-01 9.606276e-02
<GCONST> 1.002324e+02
<MIXTURE> 2 9.735032e-01
<MEAN> 39
 7.787064e+00 -2.291092e+01 1.921223e+01 2.322854e+01 1.122691e+01 1.691378e+01 -1.546631e+01 -2.728416e+00 1.098659e+00 -1.477896e+01 -1.415420e-01 4.089410e-01 -3.765863e+00 2.674852e+00 2.086834e+00 -4.101234e+00 -4.889497e-01 2.066421e+00 -2.354075e+00 -1.487103e+00 1.319527e-01 -9.878964e-01 -1.320012e+00 -4.586639e-01 -1.038298e-01 -3.680904e-01 -2.265055e-01 -5.500101e-02 -1.111208e-01 -1.334171e-01 -9.374432e-02 -3.858903e-01 4.152587e-02 7.583742e-01 1.909591e-01 -9.077437e-02 3.015750e-01 1.106715e-01 4.599361e-02
<VARIANCE> 39
 6.074738e+01 4.195224e+01 1.396979e+02 3.666272e+01 4.992986e+01 6.964282e+01 4.753136e+01 3.592669e+01 4.114822e+01 2.953226e+01 3.375709e+01 1.491025e+01 1.821295e+01 1.720546e+00 1.128451e+00 3.331573e+00 1.024921e+00 1.550020e+00 3.654744e+00 1.945807e+00 7.857563e+00 1.543598e+00 1.489951e+00 2.099054e+00 1.430165e+00 7.524895e-01 2.053507e-01 1.771454e-01 6.414789e-01 1.280925e-01 2.130703e-01 3.735439e-01 2.456788e-01 5.351912e-01 2.036177e-01 2.326319e-01 2.203067e-01 1.790852e-01 1.095364e-01
<GCONST> 1.090189e+02
<TRANSP> 5
 0.000000e+00 1.000000e+00 0.000000e+00 0.000000e+00 0.000000e+00
 0.000000e+00 9.072823e-01 9.271768e-02 0.000000e+00 0.000000e+00
 0.000000e+00 0.000000e+00 9.103079e-01 8.969212e-02 0.000000e+00
 0.000000e+00 0.000000e+00 0.000000e+00 8.551445e-01 1.448555e-01
 0.000000e+00 0.000000e+00 0.000000e+00 0.000000e+00 0.000000e+00
<ENDHMM>
~h "k"
<BEGINHMM>
<NUMSTATES> 5
<STATE> 2
<NUMMIXES> 2
<MIXTURE> 1 6.473799e-01
<MEAN> 39
 -2.511481e+01 -5.938723e+00 -4.580391e+00 -1.680433e+00 -2.135661e+00 1.685777e+00 -3.124943e+00 1.718215e+00 -1.940705e+00 -1.182765e+00 1.197619e+00 -6.420732e-02 6.802981e-01 -5.213785e-02 -6.243771e-02 -6.149996e-02 -3.142035e-02 3.384013e-03 7.342488e-03 1.086578e-03 7.088251e-03 1.282334e-02 -5.883053e-03 -2.036017e-02 -4.478320e-04 2.468147e-02 3.491952e-02 -2.880285e-02 -2.216241e-02 1.836787e-02 3.204739e-02 1.043175e-02 -1.420528e-04 2.780861e-02 6.567050e-03 -2.183922e-02 -1.599010e-02 1.516047e-02 4.226144e-02
<VARIANCE> 39
 3.374661e+01 1.769113e+01 1.565434e+01 2.639146e+01 3.009601e+01 1.434672e+01 1.502992e+01 1.345437e+01 1.835401e+01 1.693002e+01 1.239227e+01 1.465742e+01 8.422909e+00 1.589454e-01 2.295311e-01 3.366355e-01 4.727368e-01 6.444869e-01 7.421489e-01 9.083323e-01 9.624548e-01 1.119105e+00 1.082841e+00 9.202040e-01 9.274871e-01 8.253604e-01 3.340042e-02 4.741180e-02 6.461733e-02 9.724633e-02 1.366030e-01 1.558391e-01 1.922852e-01 2.049686e-01 2.238212e-01 2.166740e-01 1.950039e-01 1.804430e-01 1.714532e-01
<GCONST> 7.562515e+01
<MIXTURE> 2 3.526257e-01
<MEAN> 39
 -1.212703e+01 1.639451e+00 3.288554e+00 9.958572e+00 1.023520e+01 7.896525e+00 -2.750756e+00 3.117075e+00 -2.391459e+00 -2.785114e+00 2.055649e+00 3.422992e-01 1.055775e+00 -1.478513e+00 -9.705777e-01 -7.710531e-01 -9.765695e-01 -9.856488e-01 -3.563157e-01 1.897810e-01 4.067751e-02 1.221158e-02 -3.938067e-02 -3.878552e-01 -5.295135e-02 3.657890e-01 1.788577e-01 -3.459960e-01 -2.888944e-01 -6.096360e-02 -2.099749e-02 -1.385770e-01 -1.072455e-01 1.701896e-01 6.236519e-02 -7.916996e-02 7.249309e-02 -2.522301e-02 -2.801343e-02
<VARIANCE> 39
 1.201423e+02 7.664023e+01 5.692437e+01 8.647586e+01 9.256288e+01 4.627842e+01 7.286859e+01 4.525815e+01 5.546768e+01 4.966198e+01 4.444176e+01 3.896012e+01 3.082310e+01 2.560843e+00 2.516575e+00 2.538238e+00 2.291974e+00 2.809120e+00 2.746516e+00 3.355075e+00 2.591422e+00 2.755982e+00 2.524882e+00 1.973381e+00 1.498711e+00 1.665035e+00 1.448302e-01 2.645956e-01 3.199850e-01 2.909103e-01 3.481838e-01 3.567941e-01 3.632532e-01 3.808935e-01 4.032707e-01 3.481706e-01 3.046103e-01 2.475812e-01 2.770684e-01
<GCONST> 1.204095e+02
<STATE> 3
<NUMMIXES> 2
<MIXTURE> 1 6.466559e-01
<MEAN> 39
 -1.567285e+01 -5.758265e+00 -2.880544e+00 4.975706e+00 5.618848e+00 6.183630e+00 -1.556455e+00 5.994371e+00 -4.178911e-01 -2.894793e+00 1.478047e-01 -7.878039e-01 3.201101e+00 6.102533e-01 -2.463564e+00 -2.123745e+00 -1.501706e+00 -1.301635e+00 -9.325071e-01 -5.401396e-01 6.929750e-01 -1.964397e-01 -4.531538e-01 6.606370e-01 -3.680658e-01 -5.954363e-02 6.235547e-01 -4.770327e-02 3.026088e-02 -1.274033e-01 -1.607639e-01 -9.015045e-02 -2.232527e-01 -1.036552e-02 -3.854871e-01 -2.984428e-01 3.348324e-01 -1.816885e-01 -3.128904e-01
<VARIANCE> 39
 5.701860e+01 7.499911e+01 5.399634e+01 5.537585e+01 5.357899e+01 4.427629e+01 4.242557e+01 3.238222e+01 3.324049e+01 2.990977e+01 3.190632e+01 3.112869e+01 2.535201e+01 6.638795e+00 3.871356e+00 3.907556e+00 5.278292e+00 5.466451e+00 5.004742e+00 4.432314e+00 3.681531e+00 4.906203e+00 3.837721e+00 5.148291e+00 3.100814e+00 4.085777e+00 2.767394e-01 3.514547e-01 4.523957e-01 4.076328e-01 4.806377e-01 5.447411e-01 4.747343e-01 4.729468e-01 6.739483e-01 5.496908e-01 5.323394e-01 3.754836e-01 4.975331e-01
<GCONST> 1.294055e+02
<MIXTURE> 2 3.533402e-01
<MEAN> 39
 -9.288265e+00 -1.822848e+01 -1.255991e+01 -3.252640e+00 -5.904050e-01 3.332075e+00 -4.894518e+00 8.278959e+00 -7.490787e+00 -9.942701e+00 5.535740e+00 -4.389329e+00 2.203878e-01 1.948982e+00 -1.237607e+00 1.188815e-02 -1.806406e-01 -5.272033e-01 -5.355000e-02 -3.712338e-01 5.058704e-01 -1.382172e+00 -1.294437e+00 1.239908e+00 -4.694811e-01 -4.162099e-01 2.214907e-02 8.798914e-01 1.150759e+00 1.102533e+00 6.067008e-01 2.240798e-01 2.122665e-01 -5.062048e-03 5.248237e-01 4.003479e-01 -3.497712e-01 1.212482e-01 1.517016e-01
<VARIANCE> 39
 1.082930e+02 8.965462e+01 3.619766e+01 1.058268e+02 7.821201e+01 8.905141e+01 8.054478e+01 7.257952e+01 8.018039e+01 7.124055e+01 7.446911e+01 5.196724e+01 3.870031e+01 2.505614e+00 3.958726e+00 5.985318e+00 6.272842e+00 3.878772e+00 4.096795e+00 3.521043e+00 3.196256e+00 5.905582e+00 4.549101e+00 4.766788e+00 2.082274e+00 2.670458e+00 6.960759e-01 4.095326e-01 3.553843e-01 5.945823e-01 5.600701e-01 9.192644e-01 7.475953e-01 7.385266e-01 1.296309e+00 9.412243e-01 1.151333e+00 4.942110e-01 6.768285e-01
<GCONST> 1.400502e+02
<STATE> 4
<NUMMIXES> 2
<MIXTURE> 1 9.541631e-01
<MEAN> 39
 -6.940998e+00 -1.368802e+01 -3.070556e+00 6.679564e+00 2.396894e+00 1.370806e+00 -6.709732e+00 7.915959e+00 -4.840808e+00 -8.318087e+00 4.608081e+00 -4.176928e+00 2.565824e-01 1.632380e+00 5.007939e-01 1.572320e+00 1.923644e+00 9.404330e-01 -9.247354e-02 -4.871552e-01 2.050710e-01 2.585701e-01 -1.731406e-01 2.467920e-01 -1.104243e-01 -4.112873e-01 1.933403e-01 1.501951e-01 3.437963e-02 1.166473e-01 2.797228e-01 4.919307e-02 -1.453875e-01 -2.067078e-02 1.582548e-02 -7.023728e-02 1.284038e-01 7.298782e-02 -2.255383e-01
<VARIANCE> 39
 1.265236e+02 1.160136e+02 8.440166e+01 1.663881e+02 8.647630e+01 7.113985e+01 6.669719e+01 6.112833e+01 5.867792e+01 5.034388e+01 5.438214e+01 4.368701e+01 3.631620e+01 4.484739e+00 3.515985e+00 5.637653e+00 6.486227e+00 5.206588e+00 4.612694e+00 4.603754e+00 3.568960e+00 4.324265e+00 4.206523e+00 3.531900e+00 2.702455e+00 2.847816e+00 4.239978e-01 3.581643e-01 6.098238e-01 6.674386e-01 5.412948e-01 5.676538e-01 7.037604e-01 5.100009e-01 7.360011e-01 7.088629e-01 6.139718e-01 3.638979e-01 4.581281e-01
<GCONST> 1.378354e+02
<MIXTURE> 2 4.583694e-02
<MEAN> 39
 3.442620e+00 -2.565759e+01 -4.589543e-01 5.976786e+00 8.513813e-01 1.321545e+01 -1.053608e+01 2.222877e+00 -5.817982e+00 -1.358022e+01 8.790076e+00 -4.859463e+00 -4.713317e+00 2.071200e+00 9.704581e-01 1.188790e+00 6.586271e-01 1.016784e+00 9.289603e-01 -5.353017e-01 -3.920603e-01 -7.474778e-01 -1.269907e+00 5.375323e-01 4.554710e-01 -7.724838e-01 -4.802724e-01 7.466279e-01 2.142466e-01 6.467610e-01 6.486868e-01 -6.313947e-01 -3.206553e-02 1.985559e-01 5.200309e-01 4.779399e-01 -4.309868e-01 2.505916e-01 2.847901e-01
<VARIANCE> 39
 4.662391e+01 1.016343e+02 1.413121e+02 2.698073e+02 1.500762e+02 9.656849e+01 8.481376e+01 5.525671e+01 8.012331e+01 3.885703e+01 4.752110e+01 3.650333e+01 3.784041e+01 2.095140e+00 7.513724e+00 3.772276e+00 4.290922e+00 4.071135e+00 4.409424e+00 2.891468e+00 2.082582e+00 3.558464e+00 5.458241e+00 2.320001e+00 1.800776e+00 2.354165e+00 4.164419e-01 8.029969e-01 9.107898e-01 1.163423e+00 8.715323e-01 8.633681e-01 5.913781e-01 4.629741e-01 7.629499e-01 1.170562e+00 5.359018e-01 3.111263e-01 5.614839e-01
<GCONST> 1.382357e+02
<TRANSP> 5
 0.000000e+00 1.000000e+00 0.000000e+00 0.000000e+00 0.000000e+00
 0.000000e+00 8.055794e-01 1.944206e-01 0.000000e+00 0.000000e+00
 0.000000e+00 0.000000e+00 7.705134e-01 2.294866e-01 0.000000e+00
 0.000000e+00 0.000000e+00 0.000000e+00 6.639172e-01 3.360827e-01
 0.000000e+00 0.000000e+00 0.000000e+00 0.000000e+00 0.000000e+00
<ENDHMM>
~h "l"
<BEGINHMM>
<NUMSTATES> 5
<STATE> 2
<NUMMIXES> 2
<MIXTURE> 1 8.954610e-01
<MEAN> 39
 1.259614e+01 -9.506848e+00 5.363585e+00 3.274042e+01 2.670666e+01 -3.099689e+00 -1.640484e+01 1.312756e+01 -7.374776e+00 -2.403912e+01 2.238619e+00 -1.610299e+00 -8.985403e+00 -8.785488e-02 3.863969e-02 1.749593e-01 2.831478e-01 8.423296e-02 -5.176798e-02 6.788104e-02 1.474260e-01 -1.226370e-02 -1.854484e-01 -1.077096e-01 -7.921487e-03 -1.087916e-01 8.930106e-03 2.846493e-03 -4.165512e-02 -9.482478e-02 -5.039660e-03 5.724373e-02 -4.587495e-02 -9.788388e-02 5.434768e-03 1.016316e-01 6.781981e-02 -7.439438e-03 -7.447839e-03
<VARIANCE> 39
 1.652283e+01 3.040926e+01 4.330106e+01 9.336560e+01 7.182762e+01 3.594315e+01 1.890474e+02 7.976607e+01 3.884394e+01 7.869057e+01 1.030823e+02 2.713195e+01 4.699898e+01 4.904781e-01 5.776495e-01 1.023183e+00 2.005210e+00 1.206982e+00 1.324305e+00 2.377670e+00 2.647152e+00 1.313878e+00 2.673171e+00 2.300937e+00 8.782125e-01 8.737885e-01 6.279273e-02 7.961579e-02 1.193636e-01 2.229527e-01 1.767537e-01 1.783490e-01 3.104995e-01 3.611053e-01 1.970560e-01 3.453838e-01 2.803495e-01 1.333646e-01 1.289473e-01
<GCONST> 1.044889e+02
<MIXTURE> 2 1.045437e-01
<MEAN> 39
 1.126900e+01 -8.935263e+00 7.649788e+00 3.641595e+01 2.725574e+01 -2.299564e+00 -1.437605e+01 1.210169e+01 -5.380790e+00 -2.191576e+01 8.458138e-03 -2.245656e+00 -9.537407e+00 -6.969982e-02 3.818867e-02 7.014881e-02 -4.380859e-02 -5.611776e-02 -3.395743e-02 -2.660476e-03 7.934398e-02 4.973968e-02 1.249947e-02 8.174399e-02 7.881604e-02 -1.712118e-02 2.122569e-02 2.463820e-03 -4.125168e-02 -3.578700e-02 2.388417e-02 4.373876e-02 -3.507743e-02 -3.899660e-02 -4.247996e-02 3.264196e-03 5.484966e-02 4.058260e-03 1.710049e-03
<VARIANCE> 39
 9.158165e+00 2.473062e+01 3.095140e+01 6.090149e+01 5.110512e+01 2.896205e+01 1.648077e+02 5.975478e+01 3.023320e+01 6.880108e+01 6.796323e+01 2.667539e+01 4.830194e+01 1.011372e-01 2.029151e-01 3.056748e-01 5.845110e-01 4.616898e-01 5.037346e-01 6.781914e-01 6.817331e-01 5.646880e-01 8.000872e-01 6.439058e-01 4.735272e-01 4.708963e-01 1.518251e-02 2.650404e-02 4.426978e-02 8.334984e-02 6.435657e-02 7.275622e-02 9.745350e-02 1.059609e-01 8.567205e-02 1.161474e-01 1.003246e-01 7.355478e-02 6.923307e-02
<GCONST> 7.403624e+01
<STATE> 3
<NUMMIXES> 2
<MIXTURE> 1 9.978893e-01
<MEAN> 39
 1.091179e+01 -3.952654e+00 4.042101e+00 2.590751e+01 1.983424e+01 -3.177968e-01 -7.875545e+00 1.347285e+01 -6.962989e+00 -2.187174e+01 -1.668574e+00 -1.824957e+00 -5.352905e+00 4.370573e-02 4.828934e-02 -4.839877e-01 -1.109934e+00 -9.327957e-02 7.510607e-01 -3.395364e-01 -1.035540e+00 -2.682863e-02 9.826973e-01 8.115892e-01 -6.382026e-02 -2.597950e-01 7.220340e-02 -1.595124e-01 -1.394124e-01 -1.452852e-01 1.529513e-02 -7.815800e-02 -2.308579e-01 -1.446097e-02 -7.105705e-02 -9.081982e-02 2.139708e-01 8.438773e-02 -4.349140e-02
<VARIANCE> 39
 5.675856e+01 5.515408e+01 5.589142e+01 1.348054e+02 8.658931e+01 6.944723e+01 1.466373e+02 8.298050e+01 5.595200e+01 1.073772e+02 9.949999e+01 4.949990e+01 4.856991e+01 1.884554e+00 1.968179e+00 2.334858e+00 4.056231e+00 1.963706e+00 2.820947e+00 5.385901e+00 4.429626e+00 2.325487e+00 5.288374e+00 4.152548e+00 1.571559e+00 1.498483e+00 1.559909e-01 2.147784e-01 2.932895e-01 4.030669e-01 2.695718e-01 2.734040e-01 6.077164e-01 5.751874e-01 3.176996e-01 6.076456e-01 4.809050e-01 2.049199e-01 1.983037e-01
<GCONST> 1.263102e+02
<MIXTURE> 2 2.110789e-03
<MEAN> 39
 1.146951e+01 -7.872472e+00 8.098247e+00 3.653955e+01 2.477706e+01 -4.936291e+00 -1.345140e+01 4.542012e+00 -5.517499e+00 -1.389841e+01 1.472034e+00 -3.748997e-01 -9.616438e+00 9.299580e-02 1.116902e-01 -3.646151e-01 -3.121617e-01 7.725407e-02 3.624176e-03 -2.870356e-02 -4.674875e-01 -2.323746e-01 1.948250e-01 6.454413e-02 3.277384e-02 3.187722e-01 4.866197e-02 1.039136e-03 -4.755339e-02 3.945008e-03 -9.471913e-02 3.000795e-02 1.913739e-01 1.326715e-01 -1.604962e-01 -2.981376e-01 6.647479e-02 3.656363e-02 -2.274730e-02
<VARIANCE> 39
 4.787273e+00 7.160912e+00 1.143719e+01 3.565407e+01 1.178857e+01 9.690449e+00 7.035106e+01 4.778384e+01 1.741527e+01 6.627780e+01 3.085339e+01 1.217466e+01 1.661345e+01 1.808884e-01 2.342928e-01 1.990137e-01 2.145820e-01 4.267649e-01 8.311732e-01 4.859660e-01 5.598671e-01 2.000445e-01 1.000841e+00 7.694105e-01 1.309324e+00 5.002573e-01 3.229811e-02 1.603425e-02 2.977167e-02 8.823149e-02 5.245679e-02 4.751702e-02 6.181604e-02 4.459492e-02 4.230960e-02 3.424591e-02 4.420762e-02 6.745289e-02 2.250573e-02
<GCONST> 5.738272e+01
<STATE> 4
<NUMMIXES> 2
<MIXTURE> 1 1.411514e-01
<MEAN> 39
 -8.466358e+00 -5.429406e+00 -5.645956e+00 2.768382e+00 3.745274e+00 2.317781e+00 -3.372391e+00 5.925224e+00 -2.870808e+00 -6.961156e+00 6.608300e-01 6.668345e-01 4.155741e-01 -2.516422e-01 5.451653e-02 5.497659e-02 -2.458633e-01 -2.081591e-01 -6.805962e-02 1.113205e-01 9.550776e-02 1.837235e-01 2.810551e-01 1.325319e-01 6.139573e-02 -1.631032e-02 5.215635e-02 1.891060e-02 4.060088e-02 6.136849e-02 -2.763172e-03 -5.705683e-02 -1.501752e-02 5.732654e-02 -6.509047e-02 -1.226028e-01 -5.742720e-02 -2.668583e-02 -1.724352e-02
<VARIANCE> 39
 4.514480e+02 7.803310e+01 8.256305e+01 6.755080e+01 6.477613e+01 7.339037e+01 5.070653e+01 7.239814e+01 5.534835e+01 5.338686e+01 5.033618e+01 4.568404e+01 2.307570e+01 4.708955e-01 4.460721e-01 5.563523e-01 6.081723e-01 7.199017e-01 1.059626e+00 1.212068e+00 1.096566e+00 1.466893e+00 1.389366e+00 1.319686e+00 1.215435e+00 7.596638e-01 5.963155e-02 6.675440e-02 1.214160e-01 8.916409e-02 1.113865e-01 1.735595e-01 1.783478e-01 1.701744e-01 2.400726e-01 2.307020e-01 1.720071e-01 1.870963e-01 1.274294e-01
<GCONST> 9.871497e+01
<MIXTURE> 2 8.588465e-01
<MEAN> 39
 1.527261e+01 -9.737649e+00 1.156766e+00 2.422673e+01 2.371838e+01 -1.477188e+00 -1.832274e+01 9.402523e+00 -1.161045e+01 -2.350468e+01 9.296141e+00 1.374102e-01 -1.047252e+01 5.536484e-01 -6.709460e-01 -8.363378e-01 -1.483549e+00 4.153180e-01 1.980912e-01 -2.261001e+00 -1.020565e+00 -1.741024e-01 4.041320e-01 1.803765e+00 5.880405e-02 -7.676938e-01 -5.824652e-02 3.183392e-02 1.805861e-01 2.031340e-01 4.128439e-02 -1.120338e-01 2.739346e-02 2.988960e-01 1.359515e-01 -2.137618e-01 -2.226374e-01 -1.656492e-02 2.366947e-02
<VARIANCE> 39
 1.585410e+01 1.993825e+01 3.899594e+01 8.437189e+01 5.297304e+01 3.179325e+01 1.099904e+02 5.448190e+01 3.338279e+01 4.352278e+01 9.639346e+01 1.672021e+01 4.834983e+01 7.864429e-01 1.170710e+00 2.091456e+00 2.414413e+00 1.311365e+00 1.195876e+00 4.884878e+00 3.457509e+00 1.741368e+00 3.070920e+00 3.942424e+00 9.574025e-01 1.443932e+00 9.441745e-02 1.140727e-01 2.037930e-01 2.463019e-01 1.697738e-01 2.059558e-01 4.921579e-01 4.164540e-01 2.315040e-01 3.869749e-01 3.844153e-01 1.418612e-01 1.421280e-01
<GCONST> 1.086561e+02
<TRANSP> 5
 0.000000e+00 1.000000e+00 0.000000e+00 0.000000e+00 0.000000e+00
 0.000000e+00 9.570661e-01 4.293387e-02 0.000000e+00 0.000000e+00
 0.000000e+00 0.000000e+00 6.445565e-01 3.554434e-01 0.000000e+00
 0.000000e+00 0.000000e+00 0.000000e+00 6.749291e-01 3.250708e-01
 0.000000e+00 0.000000e+00 0.000000e+00 0.000000e+00 0.000000e+00
<ENDHMM>
~h "m"
<BEGINHMM>
<NUMSTATES> 5
<STATE> 2
<NUMMIXES> 2
<MIXTURE> 1 4.331109e-01
<MEAN> 39
 1.279974e+01 4.649816e+00 2.980404e+00 1.500994e+01 1.074882e+01 -2.838119e+00 -6.399026e+00 1.365323e+01 1.916922e+00 -1.183678e+01 -3.487524e+00 -4.509790e+00 -7.511141e+00 -3.511946e-01 6.792396e-01 9.006077e-01 1.088213e+00 1.082650e+00 8.942764e-01 -1.721196e-02 -1.190500e+00 -3.349910e-01 5.327591e-01 -4.644514e-01 -8.957180e-01 -6.618043e-01 1.993070e-02 -1.321211e-01 -8.944228e-02 -7.384601e-02 -3.472881e-02 -6.523432e-02 -6.850599e-02 1.569768e-02 -3.223336e-02 -3.506133e-02 1.184915e-01 6.868870e-02 1.199973e-02
<VARIANCE> 39
 1.066172e+02 7.215930e+01 6.460241e+01 4.939392e+01 5.009448e+01 8.751086e+01 3.684518e+01 1.001738e+02 3.990611e+01 5.578507e+01 4.219461e+01 2.843362e+01 3.225657e+01 1.901399e+00 1.806526e+00 2.111105e+00 2.391324e+00 2.520611e+00 2.631557e+00 2.399821e+00 3.088035e+00 1.629910e+00 2.269688e+00 2.032267e+00 1.795529e+00 1.382997e+00 1.375084e-01 1.642904e-01 2.247707e-01 2.567066e-01 3.101982e-01 3.438924e-01 3.180737e-01 3.539931e-01 2.348653e-01 3.263127e-01 2.732249e-01 2.290189e-01 1.736878e-01
<GCONST> 1.150841e+02
<MIXTURE> 2 5.668861e-01
<MEAN> 39
 1.477677e+01 8.082405e+00 6.915065e+00 2.091538e+01 1.655959e+01 -6.971631e-01 -8.839259e+00 5.802402e+00 -7.553387e-01 -9.547312e+00 -4.700687e+00 -8.143210e+00 -1.148078e+01 -1.223546e-01 2.495951e-01 3.099510e-01 5.344314e-02 4.470017e-02 1.944115e-01 -9.413338e-02 -4.698198e-01 -2.223125e-01 2.076522e-01 9.612294e-02 -6.298896e-02 4.547415e-02 -3.452009e-03 1.868128e-02 -2.221305e-02 -8.856677e-02 -9.645738e-02 -2.029250e-02 5.122893e-02 1.041900e-01 2.465297e-02 -5.492947e-02 -6.488042e-03 7.222977e-02 8.951404e-02
<VARIANCE> 39
 5.887299e+00 2.551243e+01 2.982809e+01 1.645338e+01 2.574594e+01 3.422948e+01 3.058604e+01 8.288377e+01 3.027119e+01 3.039604e+01 2.239026e+01 1.852068e+01 1.848561e+01 1.176630e-01 3.261576e-01 3.602777e-01 4.794736e-01 5.048918e-01 4.832970e-01 6.745813e-01 9.290169e-01 4.463361e-01 6.341459e-01 4.834251e-01 4.934648e-01 4.518893e-01 1.755320e-02 3.831254e-02 4.585264e-02 8.500901e-02 8.640163e-02 6.942350e-02 9.873284e-02 1.182307e-01 6.447968e-02 1.042315e-01 7.682586e-02 8.196546e-02 6.839055e-02
<GCONST> 6.771851e+01
<STATE> 3
<NUMMIXES> 2
<MIXTURE> 1 8.965086e-02
<MEAN> 39
 -1.712976e+01 8.121002e-02 1.577169e+00 2.915984e+00 1.066608e+00 4.485263e+00 -1.774633e+00 2.536524e+00 -1.689013e+00 -2.265283e+00 -2.722955e-01 -1.567430e+00 1.335781e-01 -5.601286e-01 -2.651370e-01 -1.300588e-01 -8.447331e-02 -4.409643e-02 1.395550e-01 1.601282e-01 1.135811e-02 1.770700e-01 1.782914e-01 -2.869561e-03 8.006413e-02 2.071680e-01 1.047726e-01 -1.180264e-02 8.632540e-02 9.759313e-02 6.461946e-02 1.446797e-02 -8.075842e-02 -2.298146e-02 -1.533110e-02 -6.268110e-02 -5.799001e-02 -6.920914e-02 -6.845504e-02
<VARIANCE> 39
 1.716749e+02 1.328826e+02 9.378912e+01 7.051891e+01 4.693509e+01 2.126341e+01 1.385502e+01 1.825751e+01 2.326714e+01 1.544724e+01 1.287085e+01 1.411162e+01 1.558320e+01 1.901568e+00 1.111658e+00 1.080433e+00 8.786616e-01 1.152643e+00 8.419013e-01 1.204645e+00 1.172737e+00 1.593102e+00 1.238991e+00 1.178838e+00 1.183701e+00 1.064788e+00 8.160131e-02 7.954630e-02 1.164629e-01 1.114641e-01 1.455219e-01 1.290212e-01 1.581771e-01 1.536869e-01 1.961840e-01 2.218078e-01 2.062213e-01 1.429043e-01 1.656116e-01
<GCONST> 9.333795e+01
<MIXTURE> 2 9.103487e-01
<MEAN> 39
 1.284498e+01 1.126618e+01 9.920391e+00 2.075527e+01 1.613678e+01 1.409386e+00 -8.358375e+00 4.040917e+00 -1.450716e+00 -8.606980e+00 -5.632725e+00 -9.191530e+00 -1.007663e+01 -2.614430e-01 2.827241e-01 2.637966e-01 -2.445695e-01 -2.603527e-01 2.783241e-01 2.823385e-01 -1.361532e-01 -1.698027e-01 2.695251e-02 9.775944e-03 1.837890e-01 3.316975e-01 1.237925e-02 -1.066067e-01 -1.166161e-01 -1.362843e-01 -1.315964e-01 -5.759361e-02 7.334553e-02 1.862930e-01 3.357339e-02 -1.240448e-01 3.396579e-02 1.631145e-01 1.277167e-01
<VARIANCE> 39
 8.155128e+00 2.176744e+01 2.650229e+01 1.350702e+01 1.991639e+01 3.368456e+01 2.895376e+01 7.003773e+01 3.500797e+01 2.657858e+01 1.824368e+01 1.986911e+01 2.034179e+01 2.887695e-01 5.616096e-01 6.675706e-01 8.506857e-01 9.227712e-01 8.375812e-01 1.383161e+00 1.664780e+00 8.441222e-01 1.132828e+00 7.192714e-01 8.480171e-01 7.533080e-01 3.258643e-02 7.650132e-02 8.680876e-02 1.520422e-01 1.675203e-01 1.315685e-01 1.913972e-01 2.202063e-01 1.140806e-01 2.175987e-01 1.157170e-01 1.488079e-01 1.288759e-01
<GCONST> 8.286053e+01
<STATE> 4
<NUMMIXES> 2
<MIXTURE> 1 0.000000e+00
<MEAN> 39
 -3.465476e+01 1.675967e+01 -7.743439e+00 1.826633e+00 -1.155705e+00 1.236522e+01 -1.445375e+01 5.846484e+00 -1.598039e-01 2.253834e-01 -2.058068e+00 -9.824362e-02 3.765816e+00 -1.362455e-01 8.215038e-02 1.575990e-02 -2.231550e-02 5.907191e-02 6.852118e-02 -5.401044e-02 8.545254e-03 3.942942e-02 2.500927e-04 -6.214541e-04 1.159003e-02 3.031951e-02 2.616155e-01 -1.072249e-01 2.894851e-02 8.718687e-02 -5.242795e-02 -9.323000e-02 1.351443e-01 9.685402e-03 -5.067167e-02 2.049104e-02 2.124489e-02 -7.652363e-03 -4.976257e-02
<VARIANCE> 39
 4.483082e-01 6.496472e-01 1.372011e+00 1.126045e+00 1.920628e+00 1.941905e+00 2.517905e+00 2.499093e+00 2.399876e+00 2.720778e+00 3.064659e+00 2.732042e+00 2.229308e+00 1.086354e+00 3.270376e-01 2.173789e-01 2.914865e-01 3.910311e-01 4.624964e-01 5.924420e-01 3.902425e-01 4.446459e-01 4.080288e-01 4.378160e-01 3.926591e-01 3.533571e-01 2.683040e-01 8.656988e-02 6.370471e-02 7.948849e-02 7.781372e-02 1.027722e-01 1.615612e-01 9.150107e-02 9.617190e-02 9.459341e-02 9.706742e-02 8.784577e-02 8.113205e-02
<GCONST> 3.729400e+01
<MIXTURE> 2 1.000000e+00
<MEAN> 39
 1.513422e+01 4.069215e+00 2.195514e+00 1.489006e+01 1.283275e+01 -2.228409e+00 -9.300384e+00 1.162171e+01 -1.185021e+00 -1.548326e+01 -1.698430e+00 -2.247766e+00 -7.872211e+00 3.965034e-01 -1.410060e+00 -1.024884e+00 -1.029000e+00 -5.431215e-01 -7.103975e-01 -6.893513e-01 1.408189e+00 -2.293445e-01 -1.710973e+00 1.137632e+00 1.408161e+00 5.367700e-01 2.136935e-02 -1.700325e-01 -1.222771e-02 4.244829e-02 9.513824e-02 -4.594415e-02 -2.255810e-01 -4.067458e-03 -4.420261e-02 -2.177899e-02 2.427674e-01 2.742901e-02 -1.328471e-01
<VARIANCE> 39
 5.908759e+01 6.360622e+01 7.057784e+01 4.018506e+01 7.354504e+01 8.538499e+01 4.696977e+01 1.168276e+02 5.512103e+01 9.211979e+01 4.337770e+01 4.144438e+01 2.307186e+01 1.283086e+00 2.087419e+00 2.303964e+00 2.063979e+00 3.371964e+00 2.570065e+00 3.095927e+00 3.623718e+00 1.345602e+00 4.527970e+00 2.926621e+00 2.293433e+00 1.395418e+00 1.383463e-01 2.357113e-01 3.628135e-01 2.796717e-01 3.462756e-01 3.050059e-01 3.163724e-01 5.438496e-01 1.757094e-01 7.022896e-01 3.402438e-01 3.652252e-01 1.645352e-01
<GCONST> 1.198443e+02
<TRANSP> 5
 0.000000e+00 1.000000e+00 0.000000e+00 0.000000e+00 0.000000e+00
 0.000000e+00 9.210194e-01 7.898066e-02 0.000000e+00 0.000000e+00
 0.000000e+00 0.000000e+00 7.074252e-01 2.925748e-01 0.000000e+00
 0.000000e+00 0.000000e+00 0.000000e+00 7.235234e-01 2.764766e-01
 0.000000e+00 0.000000e+00 0.000000e+00 0.000000e+00 0.000000e+00
<ENDHMM>
~h "n"
<BEGINHMM>
<NUMSTATES> 5
<STATE> 2
<NUMMIXES> 2
<MIXTURE> 1 9.236670e-01
<MEAN> 39
 1.379961e+01 4.847924e+00 4.247826e+00 1.727599e+01 2.135084e+01 6.212960e+00 -1.379384e+01 1.039167e+00 -6.660786e+00 -1.372359e+01 1.747751e-02 -4.655082e+00 -6.584843e+00 3.991625e-02 5.641565e-01 4.095088e-01 5.557516e-01 4.188649e-01 8.219391e-02 -4.478269e-01 -1.281918e+00 -1.933362e-01 5.592767e-01 -4.147574e-01 -3.394725e-01 1.165446e-01 4.721992e-02 -1.421811e-01 -1.443467e-01 -1.164370e-01 -6.333432e-02 -4.265492e-02 1.737288e-02 7.888391e-02 4.187473e-02 1.903606e-02 1.071948e-01 9.726105e-02 3.691638e-02
<VARIANCE> 39
 2.934589e+01 8.368646e+01 2.899266e+01 3.179672e+01 4.667146e+01 4.091106e+01 1.270056e+02 7.615983e+01 2.647733e+01 5.918187e+01 1.284364e+02 2.625069e+01 5.368003e+01 4.895304e-01 1.387410e+00 1.304106e+00 1.551463e+00 1.563838e+00 1.084005e+00 2.891873e+00 2.096412e+00 1.030204e+00 2.230594e+00 2.040284e+00 1.123890e+00 1.279095e+00 5.496334e-02 1.715103e-01 1.494382e-01 1.917933e-01 2.239797e-01 1.354493e-01 3.346867e-01 3.003458e-01 1.458101e-01 2.874162e-01 2.746771e-01 1.509796e-01 1.696952e-01
<GCONST> 1.049224e+02
<MIXTURE> 2 7.633360e-02
<MEAN> 39
 1.318715e+01 1.077507e+01 8.980754e+00 1.869303e+01 1.715440e+01 4.880331e+00 -8.265537e+00 -1.644788e+00 -6.209186e+00 -9.865451e+00 -4.486341e+00 -6.017704e+00 -5.576133e+00 4.485777e-02 2.477803e-01 1.414890e-01 4.259764e-02 1.282495e-01 1.474113e-01 -1.189760e-01 -3.009802e-01 -6.191813e-02 1.190151e-01 -1.351168e-01 -2.114062e-01 4.268194e-02 2.901525e-02 -1.209312e-02 -6.229545e-02 -3.414724e-02 6.752443e-02 5.631695e-02 -7.138686e-02 -5.059536e-02 -8.118339e-03 -8.487758e-03 -1.211720e-02 -1.562938e-02 5.668173e-02
<VARIANCE> 39
 4.854881e+00 2.221311e+01 2.245342e+01 1.667499e+01 3.206180e+01 2.716007e+01 4.127860e+01 4.436327e+01 1.851772e+01 2.650714e+01 3.061135e+01 1.740468e+01 1.674709e+01 8.032919e-02 2.686704e-01 2.208827e-01 4.085027e-01 4.773218e-01 2.789900e-01 5.270856e-01 5.453001e-01 3.798867e-01 6.498486e-01 3.398423e-01 3.815114e-01 3.076063e-01 8.842940e-03 2.278146e-02 2.616404e-02 4.371557e-02 4.879143e-02 3.550960e-02 6.889263e-02 6.097775e-02 3.509863e-02 6.775387e-02 3.473254e-02 3.998165e-02 3.626906e-02
<GCONST> 5.468128e+01
<STATE> 3
<NUMMIXES> 2
<MIXTURE> 1 6.753777e-01
<MEAN> 39
 1.416451e+01 1.062882e+01 7.415215e+00 2.005942e+01 2.145910e+01 6.053067e+00 -1.330960e+01 -6.513721e+00 -5.837353e+00 -8.019670e+00 -5.980185e+00 -7.483410e+00 -3.118178e+00 -6.270469e-02 9.904698e-02 9.548687e-02 -5.501024e-02 -7.100745e-02 6.353243e-02 5.890651e-02 -7.223122e-02 1.027556e-02 1.251504e-01 -6.731339e-04 -7.439223e-02 -5.727936e-03 -1.749008e-02 -5.443654e-02 -4.050492e-02 -6.646565e-02 -6.856387e-02 5.657963e-03 1.054735e-01 2.002488e-01 6.009862e-04 -1.204245e-01 5.352680e-02 6.628221e-02 -2.941922e-02
<VARIANCE> 39
 6.631927e+00 1.564793e+01 2.085914e+01 1.563737e+01 2.627669e+01 2.652362e+01 3.015944e+01 3.496924e+01 1.834129e+01 3.051290e+01 1.764568e+01 1.565343e+01 1.268287e+01 1.242808e-01 3.734010e-01 3.786219e-01 5.184351e-01 8.182076e-01 4.990492e-01 1.122926e+00 8.310690e-01 5.621080e-01 9.918302e-01 5.287505e-01 6.160644e-01 4.552290e-01 1.692291e-02 5.367736e-02 5.835348e-02 9.303844e-02 1.384720e-01 8.218669e-02 1.689129e-01 1.331519e-01 9.653300e-02 1.765082e-01 8.915479e-02 9.826984e-02 7.409921e-02
<GCONST> 7.004485e+01
<MIXTURE> 2 3.246222e-01
<MEAN> 39
 5.755664e+00 7.629484e+00 5.994663e+00 1.413536e+01 1.486410e+01 8.530595e+00 -5.681851e+00 -5.542564e-02 -6.373353e+00 -9.061850e+00 -2.987199e+00 -5.156905e+00 -2.828795e+00 3.799533e-02 1.647262e-01 -1.493438e-02 -1.053227e-01 -4.764098e-02 1.325825e-01 2.932779e-01 2.768152e-01 -1.162765e-01 -2.699343e-01 -3.455874e-02 9.811421e-02 6.691286e-02 2.238705e-02 -1.666356e-01 -9.119373e-02 -1.563686e-02 3.994277e-02 -6.000748e-02 -1.337061e-01 6.754497e-02 -2.884537e-02 -9.196513e-02 1.575095e-01 9.672254e-02 -2.341693e-02
<VARIANCE> 39
 1.447911e+02 1.020783e+02 7.305257e+01 6.849430e+01 6.785287e+01 3.422801e+01 5.707243e+01 4.786591e+01 3.377268e+01 4.459755e+01 5.474583e+01 2.757895e+01 2.388495e+01 2.775517e+00 3.212233e+00 3.377975e+00 3.155981e+00 2.677406e+00 2.064576e+00 4.315613e+00 4.679535e+00 2.443834e+00 4.269137e+00 3.184125e+00 1.719073e+00 1.433185e+00 1.921745e-01 3.185152e-01 4.539424e-01 4.274014e-01 3.309456e-01 2.893733e-01 5.067628e-01 6.337783e-01 4.192763e-01 6.223611e-01 4.330634e-01 2.559644e-01 2.122538e-01
<GCONST> 1.239361e+02
<STATE> 4
<NUMMIXES> 2
<MIXTURE> 1 8.506924e-01
<MEAN> 39
 1.469425e+01 8.126199e-01 1.484313e+00 1.729226e+01 2.167733e+01 5.553095e+00 -1.407303e+01 2.656902e+00 -9.108568e+00 -1.693865e+01 3.582561e+00 -1.521784e+00 -5.962485e+00 4.054483e-01 -2.053245e+00 -9.174671e-01 -6.818026e-01 -2.255137e-01 -9.174047e-01 -9.298470e-01 2.383072e+00 -1.485307e-01 -1.774595e+00 2.324932e+00 1.041290e+00 -9.822898e-01 2.110136e-02 -6.856323e-02 2.367744e-02 -9.165991e-02 -3.432811e-02 -1.040027e-01 -2.248213e-01 5.331076e-02 1.028224e-01 8.298668e-02 1.495737e-01 -5.170394e-02 -5.652589e-02
<VARIANCE> 39
 3.905448e+01 8.364577e+01 4.298820e+01 3.874261e+01 4.367659e+01 2.953020e+01 8.005856e+01 7.628936e+01 3.100378e+01 6.669283e+01 1.183093e+02 2.778120e+01 4.218437e+01 7.506230e-01 3.600559e+00 2.326087e+00 2.420411e+00 1.989146e+00 1.753056e+00 4.076934e+00 4.061393e+00 1.756073e+00 3.862589e+00 4.779819e+00 1.781692e+00 2.032515e+00 8.652582e-02 4.435588e-01 2.780637e-01 2.387654e-01 2.387386e-01 2.147630e-01 4.175787e-01 6.202687e-01 2.585061e-01 6.154137e-01 6.235329e-01 2.906586e-01 2.542426e-01
<GCONST> 1.188744e+02
<MIXTURE> 2 1.493065e-01
<MEAN> 39
 1.284669e+01 1.381149e+01 1.078490e+01 1.749643e+01 1.607942e+01 5.333087e+00 -9.913078e+00 -5.919627e+00 -6.745337e+00 -7.303775e+00 -5.130758e+00 -7.078232e+00 -4.360312e+00 -2.420691e-01 2.246541e-01 1.901711e-01 -6.203891e-02 -1.787786e-01 1.186992e-01 2.273406e-01 1.144700e-01 -3.792801e-02 5.163365e-02 5.793515e-02 -5.817274e-03 -9.740771e-02 8.997444e-03 -6.470843e-02 -4.251605e-02 3.559496e-02 6.661996e-02 1.715501e-03 -5.517242e-02 4.043017e-02 7.064994e-03 -6.331849e-02 2.068542e-03 -4.900362e-03 -1.460286e-02
<VARIANCE> 39
 1.035923e+01 1.423331e+01 1.649762e+01 1.041340e+01 2.118195e+01 1.278179e+01 3.464445e+01 3.085737e+01 1.025867e+01 2.325954e+01 1.212302e+01 1.175371e+01 8.612785e+00 1.827496e-01 4.345856e-01 2.740153e-01 4.005180e-01 5.548175e-01 3.379479e-01 6.952214e-01 4.874696e-01 3.376471e-01 5.678881e-01 3.380439e-01 4.109884e-01 2.803768e-01 1.534769e-02 5.078119e-02 3.482115e-02 4.224065e-02 6.009416e-02 3.866493e-02 7.010983e-02 5.924943e-02 4.514077e-02 6.705361e-02 3.755850e-02 4.342410e-02 3.236653e-02
<GCONST> 5.370770e+01
<TRANSP> 5
 0.000000e+00 1.000000e+00 0.000000e+00 0.000000e+00 0.000000e+00
 0.000000e+00 7.491021e-01 2.508979e-01 0.000000e+00 0.000000e+00
 0.000000e+00 0.000000e+00 9.135494e-01 8.645054e-02 0.000000e+00
 0.000000e+00 0.000000e+00 0.000000e+00 7.444769e-01 2.555231e-01
 0.000000e+00 0.000000e+00 0.000000e+00 0.000000e+00 0.000000e+00
<ENDHMM>
~h "o"
<BEGINHMM>
<NUMSTATES> 7
<STATE> 2
<NUMMIXES> 2
<MIXTURE> 1 5.571722e-01
<MEAN> 39
 2.022338e+00 1.406042e+00 2.689583e+00 8.838868e-01 -7.303281e+00 -3.242996e+00 -1.738639e+00 1.539100e+01 2.687103e+00 -4.406569e+00 5.986143e+00 -1.082700e+00 -1.721019e+00 2.243036e+00 5.237679e-01 3.617943e-01 8.407884e-01 2.515682e-01 -7.794574e-01 -2.641090e-01 7.065495e-01 1.339521e-01 -6.670778e-01 -1.315277e-01 -2.333756e-01 -5.647464e-01 6.658341e-02 1.354785e-01 1.366203e-01 3.853604e-01 3.622856e-01 -1.593803e-01 -2.875241e-01 -1.380876e-01 -1.815296e-02 -2.875319e-01 -3.821863e-01 -4.652498e-02 -1.324760e-01
<VARIANCE> 39
 8.472960e+01 1.912262e+02 4.137770e+01 1.197387e+02 1.413821e+02 1.521301e+02 7.388095e+01 9.660930e+01 4.975504e+01 4.910703e+01 5.360130e+01 2.873712e+01 4.447526e+01 2.501117e+00 5.435503e+00 2.889696e+00 9.283818e+00 1.210119e+01 6.889156e+00 4.050559e+00 4.760480e+00 3.714874e+00 4.175962e+00 5.193904e+00 1.904096e+00 2.132101e+00 3.498635e-01 5.056123e-01 3.400526e-01 1.170403e+00 1.722164e+00 1.398406e+00 8.122774e-01 7.631990e-01 7.038845e-01 7.316843e-01 8.315261e-01 3.556116e-01 4.442348e-01
<GCONST> 1.417891e+02
<MIXTURE> 2 4.428275e-01
<MEAN> 39
 1.483550e+01 2.553549e+00 4.433944e+00 1.060705e+01 9.421807e-01 -9.602221e+00 -9.706240e+00 1.691694e+01 1.405325e+00 -1.433912e+01 6.415868e-01 -3.226487e+00 -6.004086e+00 1.917579e+00 5.911256e-01 -3.337272e-01 4.905888e-01 1.370499e-01 -3.400401e+00 -2.589918e+00 1.855036e+00 7.469919e-01 -2.387841e+00 -7.861413e-01 -1.836733e-01 -1.329502e+00 -4.350247e-01 -3.757663e-01 -1.730098e-01 -3.362191e-01 -1.788624e-01 1.568961e-01 8.670029e-02 1.912874e-01 1.859708e-01 2.352863e-01 3.229330e-01 5.123209e-02 2.479520e-02
<VARIANCE> 39
 4.578461e+01 1.042377e+02 3.127519e+01 7.090593e+01 9.525089e+01 8.826941e+01 5.238313e+01 5.209427e+01 4.886266e+01 6.841225e+01 3.963713e+01 3.053251e+01 2.868666e+01 1.553151e+00 2.349725e+00 1.858916e+00 3.692796e+00 3.075874e+00 2.426040e+00 3.019226e+00 3.561683e+00 2.442423e+00 2.590739e+00 3.768222e+00 1.283539e+00 1.139721e+00 1.513313e-01 1.799233e-01 2.788856e-01 4.816933e-01 5.628545e-01 6.404064e-01 4.643822e-01 4.589692e-01 3.059015e-01 3.939600e-01 3.920509e-01 1.730630e-01 1.748079e-01
<GCONST> 1.198004e+02
<STATE> 3
<NUMMIXES> 2
<MIXTURE> 1 9.997947e-01
<MEAN> 39
 1.891737e+01 1.113791e+00 2.845769e+00 1.228906e+01 4.943662e+00 -1.499512e+01 -1.677930e+01 2.218862e+01 4.512926e+00 -2.083945e+01 -1.341379e+00 -4.043087e+00 -9.184131e+00 2.363353e-01 1.172045e-01 -9.576243e-02 -2.146745e-01 -3.786830e-01 -1.740886e+00 -1.108364e+00 1.234354e+00 9.666479e-01 -5.522628e-01 -9.663939e-02 -1.082609e-01 -6.295874e-01 -2.286905e-01 -4.007313e-02 1.689404e-01 -1.934628e-02 -8.697893e-02 4.266510e-01 3.036542e-01 -3.664373e-01 -2.743317e-02 4.210537e-01 7.179014e-02 1.566732e-02 1.578712e-01
<VARIANCE> 39
 1.138344e+01 7.478956e+01 3.503287e+01 3.331152e+01 7.118056e+01 9.503053e+01 4.894693e+01 5.491235e+01 3.988608e+01 7.102321e+01 4.039534e+01 3.434039e+01 2.129065e+01 4.771401e-01 1.298491e+00 8.662080e-01 1.066140e+00 1.076807e+00 1.302106e+00 1.768468e+00 2.264006e+00 1.063435e+00 1.677486e+00 1.220900e+00 8.590167e-01 6.055638e-01 9.686477e-02 8.370829e-02 1.454956e-01 1.606574e-01 1.602571e-01 2.265951e-01 2.826098e-01 3.458657e-01 1.580615e-01 2.946279e-01 2.325654e-01 1.300689e-01 9.862936e-02
<GCONST> 9.864281e+01
<MIXTURE> 2 2.054195e-04
<MEAN> 39
 1.499713e+01 1.172188e+01 8.177001e+00 1.058351e+01 -1.855972e+00 -1.505396e+01 -1.202283e+01 1.276637e+01 4.229095e+00 -7.492134e+00 4.015266e+00 3.144692e+00 -7.107479e+00 1.359205e-01 -1.427933e-01 -1.537819e-01 7.217835e-01 1.308730e-01 -2.738292e-01 -2.329036e-01 -2.692995e-01 9.756911e-02 5.649782e-01 4.674981e-01 4.453032e-01 4.136319e-02 8.280210e-02 -9.468661e-02 -2.458283e-01 4.431074e-02 2.001865e-01 -1.400487e-01 -1.654749e-01 4.499212e-02 1.538630e-01 1.206520e-01 1.284745e-01 2.120444e-02 6.391350e-02
<VARIANCE> 39
 5.160820e+00 3.136984e+01 1.510863e+01 3.903592e+01 1.342858e+01 5.683069e+01 9.830618e+01 5.570122e+01 1.614389e+01 3.023714e+01 8.226353e+00 1.640977e+01 8.188902e+00 8.773661e-02 8.598007e-01 4.996008e-01 2.589446e-01 3.070622e-01 4.849818e-01 1.845969e-01 2.161136e+00 5.258251e-01 5.177742e-01 6.769246e-01 2.381289e-01 1.562411e-01 1.921917e-02 2.058884e-02 5.914754e-02 4.179910e-02 1.453615e-02 3.198482e-02 4.871219e-02 6.392875e-02 5.086729e-02 3.823951e-02 1.917352e-02 4.284933e-02 3.078186e-02
<GCONST> 5.504230e+01
<STATE> 4
<NUMMIXES> 2
<MIXTURE> 1 2.176162e-02
<MEAN> 39
 1.881749e+01 5.997087e+00 6.958704e+00 9.855366e+00 -3.968483e+00 -1.841577e+01 -1.239383e+01 1.931102e+01 5.474236e+00 -1.846912e+01 -4.212070e+00 -3.001904e+00 -1.176349e+01 2.092058e-01 -3.089562e-01 -5.338751e-01 -3.138735e-01 3.913155e-01 1.771719e-01 -6.711598e-02 2.748334e-01 -4.573188e-02 -7.439916e-01 -5.185182e-01 -3.161485e-01 -1.348159e-01 -6.151405e-02 -7.699311e-03 -4.326409e-02 1.237917e-02 1.990020e-01 1.923235e-01 -2.410439e-02 -2.313724e-02 -1.307252e-01 -6.666001e-03 1.299672e-01 -1.859009e-02 8.973017e-02
<VARIANCE> 39
 3.614429e+00 2.742720e+01 3.910186e+01 2.136544e+01 2.848364e+01 6.797992e+01 1.455502e+01 2.888342e+01 2.908745e+01 2.413059e+01 1.943455e+01 1.505430e+01 1.417050e+01 4.568098e-01 5.134822e-01 4.241656e-01 3.418283e-01 5.794333e-01 1.890834e+00 1.012808e+00 1.328290e+00 7.777554e-01 1.663958e+00 6.050751e-01 6.986538e-01 5.812438e-01 6.780624e-02 8.207409e-02 6.341503e-02 5.765172e-02 5.021822e-02 9.144951e-02 9.292473e-02 1.172206e-01 1.064446e-01 1.740115e-01 1.491359e-01 7.928633e-02 5.143961e-02
<GCONST> 7.525678e+01
<MIXTURE> 2 9.782370e-01
<MEAN> 39
 1.813019e+01 4.805994e+00 7.099840e+00 1.420780e+01 -4.947972e-01 -2.360107e+01 -1.962900e+01 2.295260e+01 9.016779e+00 -1.773588e+01 -6.421680e-01 -1.649089e+00 -1.119547e+01 -7.087545e-03 -6.762133e-02 -2.424123e-02 -8.834444e-02 -2.869579e-02 -1.349026e-01 -1.328340e-01 1.530766e-01 8.985922e-02 -1.190369e-01 7.494571e-03 -1.400915e-01 -1.968810e-01 -1.348140e-02 3.524444e-02 -1.536302e-02 -1.391529e-02 3.261027e-02 2.004954e-01 1.595882e-01 -9.684376e-02 -1.209639e-01 6.370669e-02 1.850460e-02 -1.000887e-02 6.341480e-02
<VARIANCE> 39
 5.691650e+00 2.796726e+01 2.562378e+01 2.389456e+01 3.292159e+01 6.121347e+01 3.360696e+01 3.574269e+01 2.502035e+01 3.615025e+01 2.817893e+01 2.584991e+01 1.968147e+01 1.858672e-01 5.630699e-01 5.866649e-01 6.523829e-01 6.226406e-01 1.314915e+00 1.327168e+00 1.463808e+00 8.752718e-01 1.243347e+00 9.014075e-01 8.641760e-01 4.301622e-01 2.762531e-02 4.404090e-02 6.174612e-02 7.978893e-02 7.402545e-02 1.146531e-01 1.625061e-01 2.081052e-01 1.013598e-01 1.576264e-01 1.215460e-01 9.628024e-02 6.141388e-02
<GCONST> 7.892433e+01
<STATE> 5
<NUMMIXES> 2
<MIXTURE> 1 1.408962e-01
<MEAN> 39
 2.033096e+01 -2.069985e+00 -1.957394e+00 8.770334e+00 8.100816e+00 -8.291178e+00 -1.534145e+01 1.748638e+01 3.265563e+00 -2.286935e+01 -3.883921e+00 -3.862686e+00 -1.035986e+01 5.636494e-02 4.589197e-01 -1.769943e-01 -6.017101e-02 -1.607966e-02 -5.998824e-01 -8.799221e-02 1.667588e-01 2.104626e-01 6.214161e-01 2.402467e-01 -2.187130e-01 -2.378554e-01 -7.208770e-02 3.236275e-02 1.215971e-01 1.445350e-01 9.602793e-03 1.219703e-01 4.124366e-02 5.340406e-02 -6.940148e-02 1.392743e-01 1.789056e-01 -6.976227e-02 1.179528e-01
<VARIANCE> 39
 5.650363e+00 2.974162e+01 2.458826e+01 3.437125e+01 3.402542e+01 6.748010e+01 3.626417e+01 4.796661e+01 3.983033e+01 4.760225e+01 3.290896e+01 1.566028e+01 2.374439e+01 5.490452e-01 8.152819e-01 1.166365e+00 5.845691e-01 1.908183e+00 3.247585e+00 3.470155e+00 2.032517e+00 2.106313e+00 2.592515e+00 1.109217e+00 6.578583e-01 8.522539e-01 9.053471e-02 9.393848e-02 7.763895e-02 4.406371e-02 9.330162e-02 8.775089e-02 3.045982e-01 3.244724e-01 1.051590e-01 2.053831e-01 2.360214e-01 6.511348e-02 7.364857e-02
<GCONST> 9.133082e+01
<MIXTURE> 2 8.591055e-01
<MEAN> 39
 1.836646e+01 2.155674e+00 3.480958e+00 1.153749e+01 3.468086e+00 -1.723598e+01 -1.767414e+01 2.393134e+01 6.102944e+00 -2.106878e+01 -1.077652e+00 -4.794559e+00 -1.145330e+01 -2.801594e-02 1.249769e-01 -9.632652e-02 -1.586604e-01 1.254153e-01 4.953394e-01 3.830774e-01 -4.116077e-01 -2.842023e-01 2.412895e-01 -7.291657e-02 -8.302385e-02 1.216054e-01 -5.296185e-02 4.399393e-02 6.855080e-02 1.143063e-01 3.205158e-03 2.033814e-01 2.253448e-01 -2.683625e-01 -1.004614e-01 2.254315e-01 -3.769203e-02 5.761053e-02 1.515688e-01
<VARIANCE> 39
 1.512445e+01 4.685153e+01 3.259834e+01 3.866092e+01 6.340056e+01 9.756569e+01 5.781337e+01 6.201608e+01 3.314040e+01 7.145370e+01 4.309687e+01 2.979401e+01 2.580601e+01 3.632979e-01 7.269902e-01 8.659471e-01 7.275174e-01 1.288580e+00 2.837637e+00 2.705439e+00 2.881166e+00 1.768111e+00 2.565056e+00 1.487121e+00 1.128016e+00 8.220072e-01 5.568825e-02 5.972016e-02 9.507225e-02 9.318362e-02 1.352452e-01 1.576961e-01 2.869675e-01 3.464059e-01 1.184790e-01 2.525871e-01 2.047107e-01 1.243453e-01 9.635006e-02
<GCONST> 9.775384e+01
<STATE> 6
<NUMMIXES> 2
<MIXTURE> 1 2.541447e-01
<MEAN> 39
 5.501137e+00 9.594078e+00 8.601972e+00 1.090923e+01 3.162054e+00 -2.756722e+00 -3.173581e+00 1.538512e+01 3.792499e+00 -6.882074e+00 1.430723e+00 -1.681333e+00 -5.319018e+00 -1.267350e+00 -4.362570e-02 -6.562475e-02 -3.559342e-01 2.437426e-01 1.497641e+00 9.968166e-01 -7.433268e-01 -1.752066e-01 7.213913e-01 -3.985914e-01 -1.520834e-01 6.922051e-01 -3.691064e-02 -8.969469e-02 4.835262e-03 -1.001112e-02 -1.270245e-02 -4.407839e-02 -8.746549e-02 -1.463608e-02 1.183751e-02 -4.246047e-02 -1.780233e-02 -1.165723e-02 -5.787363e-03
<VARIANCE> 39
 1.719149e+02 8.095170e+01 5.473704e+01 4.433206e+01 4.487230e+01 1.695157e+02 9.090801e+01 6.583595e+01 3.308270e+01 1.139347e+02 4.827330e+01 3.046887e+01 3.921016e+01 2.316142e+00 2.941484e+00 2.567607e+00 2.216341e+00 2.647702e+00 5.836552e+00 3.958887e+00 3.180434e+00 2.546681e+00 3.866946e+00 1.880431e+00 1.249593e+00 1.501832e+00 1.513782e-01 2.195994e-01 2.575910e-01 2.876707e-01 3.085235e-01 4.895486e-01 3.751850e-01 4.044050e-01 3.650662e-01 4.013450e-01 3.071839e-01 1.905254e-01 1.994721e-01
<GCONST> 1.221669e+02
<MIXTURE> 2 7.458553e-01
<MEAN> 39
 1.403304e+01 3.622210e+00 5.449172e+00 1.227079e+01 1.974566e-01 -1.910786e+01 -1.593231e+01 2.076857e+01 6.395710e+00 -1.551375e+01 6.389751e-01 -2.537674e+00 -1.010348e+01 -1.202709e-01 2.041578e-01 1.525123e-01 4.445571e-02 -5.907279e-02 1.227418e-01 1.649352e-01 -1.855709e-01 -9.955040e-02 2.395944e-01 1.409741e-01 6.367109e-02 -1.953437e-03 -1.008491e-02 9.991042e-03 -1.070414e-03 -1.493797e-03 1.969144e-02 7.145354e-02 5.303899e-02 -1.811699e-02 -2.857539e-02 1.239672e-02 4.658189e-03 1.488386e-03 1.994740e-02
<VARIANCE> 39
 1.760923e+02 5.150254e+01 4.466919e+01 4.069104e+01 3.996645e+01 1.509204e+02 7.464354e+01 9.647931e+01 3.075729e+01 8.871349e+01 3.333404e+01 2.506901e+01 2.830631e+01 2.981823e-01 4.580675e-01 5.662475e-01 5.837509e-01 6.725268e-01 1.276423e+00 1.114468e+00 1.406627e+00 7.677113e-01 1.120090e+00 8.831490e-01 6.866624e-01 4.520357e-01 3.902453e-02 4.391123e-02 7.025409e-02 7.831683e-02 7.573684e-02 1.120010e-01 1.494937e-01 2.027120e-01 8.786123e-02 1.467474e-01 1.316599e-01 9.114689e-02 6.762309e-02
<GCONST> 8.831317e+01
<TRANSP> 7
 0.000000e+00 1.000000e+00 0.000000e+00 0.000000e+00 0.000000e+00 0.000000e+00 0.000000e+00
 0.000000e+00 8.281311e-01 1.718688e-01 0.000000e+00 0.000000e+00 0.000000e+00 0.000000e+00
 0.000000e+00 0.000000e+00 6.627747e-01 3.372254e-01 0.000000e+00 0.000000e+00 0.000000e+00
 0.000000e+00 0.000000e+00 0.000000e+00 7.755205e-01 2.244795e-01 0.000000e+00 0.000000e+00
 0.000000e+00 0.000000e+00 0.000000e+00 0.000000e+00 1.620586e-01 8.379414e-01 0.000000e+00
 0.000000e+00 0.000000e+00 0.000000e+00 0.000000e+00 0.000000e+00 9.516082e-01 4.839179e-02
 0.000000e+00 0.000000e+00 0.000000e+00 0.000000e+00 0.000000e+00 0.000000e+00 0.000000e+00
<ENDHMM>
~h "p"
<BEGINHMM>
<NUMSTATES> 5
<STATE> 2
<NUMMIXES> 2
<MIXTURE> 1 5.263951e-01
<MEAN> 39
 -2.267455e+01 -4.279991e+00 -3.740899e+00 -1.158099e+00 -1.738713e+00 1.910159e+00 -2.658139e+00 1.601619e+00 -2.752902e+00 -2.060980e+00 5.967021e-01 -2.177588e-01 2.452946e-01 -1.653971e-01 6.593402e-03 1.941245e-02 -4.978517e-02 -6.656488e-02 -6.775312e-03 -1.208331e-02 -1.255636e-02 3.247037e-02 1.177834e-01 2.961106e-02 3.280221e-02 6.462682e-02 2.247799e-02 -7.439785e-03 1.979215e-02 5.403138e-02 6.872085e-02 5.906568e-02 4.107699e-02 5.431533e-02 3.274527e-02 -3.813415e-03 4.860199e-03 9.240442e-03 3.221904e-02
<VARIANCE> 39
 1.072903e+02 5.428081e+01 3.961674e+01 3.763805e+01 2.694515e+01 2.419088e+01 1.236640e+01 1.869824e+01 2.433707e+01 1.692773e+01 1.215890e+01 1.855842e+01 9.785900e+00 2.931725e-01 2.400151e-01 3.632497e-01 4.796383e-01 5.643758e-01 8.457184e-01 8.447624e-01 9.617237e-01 1.059138e+00 8.586000e-01 9.117689e-01 8.922373e-01 7.216592e-01 3.141160e-02 4.496324e-02 6.422202e-02 9.429225e-02 1.195180e-01 1.584397e-01 1.553917e-01 1.837582e-01 1.877341e-01 1.597536e-01 1.687972e-01 1.621606e-01 1.332861e-01
<GCONST> 7.900967e+01
<MIXTURE> 2 4.736034e-01
<MEAN> 39
 -5.762530e+00 7.515024e+00 4.959415e+00 7.540404e+00 5.078852e+00 4.693787e+00 6.824069e-01 8.911352e+00 1.166304e+00 -3.766022e+00 -1.118400e+00 -5.473654e-01 2.336459e-01 -1.997119e+00 -3.153744e-01 1.689562e-01 -3.844067e-01 -2.162652e-01 7.290496e-01 4.478034e-01 -3.728265e-01 -1.009794e-02 6.779724e-01 2.561346e-01 1.255153e-02 3.342146e-01 4.578849e-02 -3.373629e-01 -1.848703e-01 3.395869e-02 5.318773e-02 -5.251634e-02 -3.234547e-02 9.229589e-02 1.042560e-03 -5.231474e-02 1.118042e-01 9.580001e-02 3.369870e-02
<VARIANCE> 39
 1.820172e+02 8.951608e+01 7.789600e+01 6.403374e+01 6.002212e+01 7.761198e+01 3.631403e+01 6.157007e+01 6.629331e+01 3.924732e+01 2.174191e+01 2.347440e+01 1.954710e+01 1.971339e+00 2.328400e+00 2.153450e+00 1.705874e+00 2.474094e+00 3.055443e+00 1.889986e+00 1.889187e+00 1.658656e+00 1.930892e+00 1.334069e+00 1.301458e+00 1.203863e+00 1.611502e-01 3.010576e-01 2.933046e-01 2.665257e-01 3.761372e-01 4.006629e-01 2.923000e-01 2.914112e-01 2.964543e-01 2.581042e-01 2.385053e-01 2.170119e-01 2.258206e-01
<GCONST> 1.141935e+02
<STATE> 3
<NUMMIXES> 2
<MIXTURE> 1 9.321687e-01
<MEAN> 39
 -1.569175e+01 -1.399565e+00 5.373820e-01 5.689146e+00 5.155090e+00 7.422776e+00 1.517081e+00 7.663459e+00 1.971006e+00 -5.731598e-01 5.250773e-01 1.496474e-01 3.357634e+00 1.226940e+00 -1.263189e+00 -7.717503e-01 4.173791e-01 9.130287e-01 8.026342e-01 2.730366e-01 7.674587e-01 1.758998e-01 -4.535249e-01 4.338384e-02 1.021016e-01 6.728685e-01 6.550562e-01 -2.722439e-02 -2.672970e-02 1.976910e-02 5.079527e-02 -5.100358e-02 -1.774699e-01 7.673961e-02 -1.577859e-01 -3.245594e-01 -9.278305e-03 -1.430662e-01 -1.310483e-01
<VARIANCE> 39
 6.359709e+01 4.641537e+01 3.712016e+01 3.827475e+01 4.820625e+01 4.476118e+01 2.967710e+01 3.308610e+01 2.976155e+01 2.141677e+01 1.592883e+01 1.388349e+01 1.898933e+01 6.902105e+00 4.907771e+00 3.538417e+00 3.207385e+00 3.687611e+00 3.114451e+00 3.004940e+00 2.770341e+00 2.638998e+00 2.460276e+00 2.272055e+00 2.023133e+00 2.412751e+00 2.821796e-01 3.551134e-01 4.255449e-01 4.245719e-01 5.417622e-01 4.985077e-01 4.481332e-01 3.964814e-01 4.006205e-01 3.677886e-01 3.570665e-01 3.193006e-01 4.530730e-01
<GCONST> 1.191550e+02
<MIXTURE> 2 6.783083e-02
<MEAN> 39
 -2.535070e+01 -5.011153e+00 -3.699099e+00 -1.325811e+00 -2.425625e+00 1.662680e+00 -2.753901e+00 1.662497e+00 -8.302824e-01 4.149344e-01 8.911861e-01 -7.216787e-01 5.428553e-01 -6.320843e-02 -1.372573e-01 -1.423326e-01 -7.744984e-02 3.485354e-02 -3.713243e-02 -5.479068e-02 1.114534e-01 2.298754e-02 -4.825044e-02 3.638111e-02 7.763865e-02 1.929153e-01 2.484683e-01 9.327699e-02 8.526115e-02 1.111394e-01 1.478917e-01 9.312916e-02 9.961203e-02 1.664694e-01 1.656726e-02 -1.318088e-01 -6.031328e-02 2.519555e-03 8.087670e-02
<VARIANCE> 39
 2.796725e+01 1.735320e+01 1.224594e+01 1.280215e+01 1.398294e+01 1.061636e+01 9.086218e+00 8.199066e+00 7.448545e+00 7.644779e+00 8.027790e+00 8.110402e+00 5.836835e+00 2.367680e-01 2.277745e-01 3.170113e-01 5.249190e-01 5.631918e-01 6.054356e-01 7.065903e-01 6.510112e-01 7.403016e-01 1.111348e+00 1.072066e+00 1.030919e+00 9.466366e-01 9.324871e-02 7.164557e-02 8.825720e-02 1.375053e-01 1.825083e-01 1.819410e-01 2.246860e-01 2.014492e-01 2.304251e-01 2.826591e-01 2.720926e-01 2.861867e-01 2.312127e-01
<GCONST> 7.282544e+01
<STATE> 4
<NUMMIXES> 2
<MIXTURE> 1 2.803394e-01
<MEAN> 39
 -1.073822e+01 -3.164686e+00 -1.618145e+00 6.727389e+00 8.145367e+00 9.288009e+00 1.954912e+00 8.780539e+00 3.997955e-01 -3.956319e+00 -3.965530e-01 7.943469e-01 5.550108e+00 3.326792e+00 -6.625739e-01 -7.458858e-01 1.386778e-01 3.920663e-01 -3.321833e-01 -9.866887e-01 8.229806e-01 -1.006256e-01 -1.086538e+00 1.714357e-01 -6.718132e-01 -1.712858e-01 5.292948e-01 1.691894e-01 5.070055e-02 -3.015162e-01 -4.857171e-01 -5.523087e-01 -4.707257e-01 4.009318e-02 -1.085647e-01 -1.656580e-01 2.734109e-01 -2.655164e-01 -5.766658e-01
<VARIANCE> 39
 4.090310e+01 2.174429e+01 1.995240e+01 2.603756e+01 3.137721e+01 2.609798e+01 2.967772e+01 2.405117e+01 2.486844e+01 2.115286e+01 1.912743e+01 1.601469e+01 1.649752e+01 4.179689e+00 2.118438e+00 2.014996e+00 2.390193e+00 3.004168e+00 3.645422e+00 3.627320e+00 2.687138e+00 2.724895e+00 2.648813e+00 2.674672e+00 2.235102e+00 2.553783e+00 2.389282e-01 2.638074e-01 3.867830e-01 4.285061e-01 4.832414e-01 5.846863e-01 4.902816e-01 4.388572e-01 5.040274e-01 4.669802e-01 4.238761e-01 3.620910e-01 3.406725e-01
<GCONST> 1.141586e+02
<MIXTURE> 2 7.196591e-01
<MEAN> 39
 6.148828e+00 -5.247096e+00 -4.554046e+00 5.909967e+00 6.071815e+00 2.902845e+00 -3.979681e+00 1.434868e+01 1.046494e+00 -9.781894e+00 1.298013e+00 -2.583173e+00 1.125414e+00 2.812005e+00 -2.495709e-01 -6.341674e-01 -1.973516e-01 -4.498622e-01 -1.825080e+00 -1.234648e+00 1.006892e+00 -2.849564e-01 -1.630686e+00 2.720590e-01 -6.870764e-02 -9.288715e-01 -4.251641e-01 6.111355e-02 5.428159e-02 7.760395e-02 7.736601e-02 -6.499437e-02 9.441397e-02 -6.547607e-03 7.695907e-02 1.359154e-01 6.977066e-03 2.578182e-01 1.092551e-01
<VARIANCE> 39
 1.218532e+02 6.664586e+01 3.956811e+01 4.334951e+01 7.609651e+01 2.312372e+02 9.674564e+01 6.984744e+01 7.122812e+01 5.570079e+01 4.305692e+01 3.181287e+01 2.204115e+01 4.457947e+00 2.758091e+00 2.718349e+00 1.941158e+00 3.192373e+00 1.027365e+01 3.511691e+00 3.357829e+00 4.388024e+00 3.833481e+00 3.073431e+00 1.862080e+00 1.476912e+00 2.627843e-01 4.307779e-01 3.898536e-01 3.099997e-01 4.021702e-01 1.163142e+00 4.899886e-01 4.659583e-01 5.602655e-01 5.519957e-01 5.888441e-01 2.975246e-01 2.409871e-01
<GCONST> 1.295422e+02
<TRANSP> 5
 0.000000e+00 1.000000e+00 0.000000e+00 0.000000e+00 0.000000e+00
 0.000000e+00 8.076628e-01 1.923372e-01 0.000000e+00 0.000000e+00
 0.000000e+00 0.000000e+00 8.070980e-01 1.929020e-01 0.000000e+00
 0.000000e+00 0.000000e+00 0.000000e+00 7.679012e-01 2.320987e-01
 0.000000e+00 0.000000e+00 0.000000e+00 0.000000e+00 0.000000e+00
<ENDHMM>
~h "q"
<BEGINHMM>
<NUMSTATES> 5
<STATE> 2
<NUMMIXES> 2
<MIXTURE> 1 7.009947e-01
<MEAN> 39
 1.280235e+01 -5.787098e-01 2.814636e+00 1.670789e+01 1.756833e+01 -1.334756e+00 -1.699783e+01 1.004135e+01 -3.269899e+00 -1.481286e+01 8.188662e+00 -1.843911e+00 -1.078837e+01 -4.879860e-01 9.697744e-01 7.295275e-01 6.065927e-01 2.318788e-01 6.610874e-01 6.355151e-01 -1.074790e+00 -1.427518e-01 7.267396e-01 -9.773825e-01 -4.797198e-01 2.671947e-01 -3.963135e-02 -5.314484e-03 1.175059e-02 -4.526845e-02 -5.118536e-02 1.206145e-02 5.297064e-02 -9.972425e-04 -1.718804e-03 1.851256e-02 -3.451633e-02 1.164108e-02 6.829102e-02
<VARIANCE> 39
 1.026297e+02 8.223198e+01 6.181603e+01 8.693814e+01 9.211060e+01 6.785313e+01 1.315513e+02 1.197929e+02 7.030214e+01 1.136112e+02 1.512312e+02 2.884982e+01 6.014233e+01 7.999095e-01 1.778314e+00 1.502887e+00 2.045399e+00 2.146764e+00 1.860475e+00 3.551873e+00 3.036103e+00 1.388094e+00 2.774138e+00 3.274413e+00 1.286674e+00 1.896530e+00 7.840703e-02 1.818117e-01 1.622332e-01 2.090487e-01 2.306782e-01 2.366497e-01 4.065295e-01 3.736139e-01 1.998523e-01 3.416552e-01 3.953000e-01 1.829394e-01 2.037065e-01
<GCONST> 1.185117e+02
<MIXTURE> 2 2.990034e-01
<MEAN> 39
 1.533698e+01 -7.211483e-01 5.809955e+00 2.095206e+01 1.817254e+01 -4.826357e+00 -1.770976e+01 1.423914e+01 -7.778306e-01 -1.765241e+01 4.731650e+00 -4.821799e+00 -1.552292e+01 -1.232928e-01 2.534450e-01 3.503883e-01 1.225277e-01 -7.305373e-03 1.017975e-01 1.601927e-02 -2.668796e-01 -1.253198e-01 2.142504e-01 5.205311e-02 -1.945185e-01 -8.852926e-02 -5.189955e-03 5.616866e-02 -2.177278e-03 -5.259582e-02 -5.975195e-02 3.872360e-02 7.013366e-02 -2.768806e-02 2.205465e-03 3.498513e-02 -3.315124e-02 2.780693e-02 7.509330e-02
<VARIANCE> 39
 8.896645e+00 8.532561e+01 2.939999e+01 4.306949e+01 4.666203e+01 3.612513e+01 1.584950e+02 5.782077e+01 6.905087e+01 8.946770e+01 2.153605e+02 3.727187e+01 3.676242e+01 1.026561e-01 2.977004e-01 3.396627e-01 5.454596e-01 4.532225e-01 5.785434e-01 7.389297e-01 8.017545e-01 4.841946e-01 6.339409e-01 6.035767e-01 5.497242e-01 5.242163e-01 1.726573e-02 3.824244e-02 5.083174e-02 8.880962e-02 8.513068e-02 8.726784e-02 1.203273e-01 1.233784e-01 7.789838e-02 1.108168e-01 9.161519e-02 9.065755e-02 8.833475e-02
<GCONST> 7.955830e+01
<STATE> 3
<NUMMIXES> 2
<MIXTURE> 1 8.495280e-01
<MEAN> 39
 8.010974e+00 1.066285e+01 1.025944e+01 1.919293e+01 1.698007e+01 4.905576e+00 -9.782604e+00 -4.072709e-01 -3.854158e+00 -6.710049e+00 -1.973748e+00 -6.014050e+00 -5.321258e+00 -6.939847e-01 6.232811e-01 6.148301e-01 -2.772048e-01 -5.597564e-01 4.912587e-01 9.999548e-01 1.126278e-01 -9.929594e-02 1.864323e-01 -2.915951e-01 -5.604336e-02 2.739321e-01 -6.359009e-02 -1.170278e-01 -7.501657e-02 -4.706331e-02 -2.525297e-02 -2.883710e-02 5.482256e-03 1.464392e-01 3.003994e-02 -4.221366e-02 1.282929e-01 1.062423e-01 -1.813989e-02
<VARIANCE> 39
 1.017778e+02 5.392151e+01 3.341554e+01 4.036127e+01 5.068623e+01 3.880991e+01 7.277112e+01 8.052141e+01 3.560774e+01 5.108605e+01 6.184452e+01 3.065135e+01 2.485880e+01 5.238906e-01 7.071445e-01 7.534555e-01 9.225777e-01 1.159643e+00 9.918097e-01 1.799906e+00 1.528549e+00 9.986238e-01 1.423647e+00 1.287764e+00 9.800127e-01 8.691143e-01 3.462359e-02 8.306248e-02 9.089538e-02 1.307063e-01 1.705313e-01 1.234447e-01 2.293312e-01 1.796569e-01 1.488061e-01 2.005388e-01 1.531304e-01 1.363924e-01 1.094086e-01
<GCONST> 9.533318e+01
<MIXTURE> 2 1.504706e-01
<MEAN> 39
 1.269504e+01 8.934454e+00 7.401439e+00 2.043600e+01 1.859264e+01 2.319439e+00 -1.219228e+01 -1.880292e+00 -3.263871e+00 -7.859015e+00 -5.425985e+00 -6.838796e+00 -5.345819e+00 -1.129932e-01 4.073405e-01 3.260477e-01 -1.233875e-02 -1.004589e-01 1.962497e-01 7.974625e-02 -7.565487e-02 -1.006395e-01 4.969200e-02 -1.447879e-01 -3.171581e-01 -2.008299e-02 -2.859583e-02 2.305401e-02 2.899489e-02 2.052797e-02 1.395112e-02 8.113536e-03 -9.094324e-03 6.756987e-02 -2.178748e-02 -5.473014e-02 3.660575e-02 -4.529534e-03 -1.766859e-02
<VARIANCE> 39
 6.679337e+01 3.581187e+01 3.430721e+01 3.911899e+01 6.324068e+01 3.218204e+01 4.642213e+01 9.171548e+01 3.823019e+01 3.637290e+01 3.725180e+01 2.534224e+01 3.190182e+01 5.250651e-02 2.004373e-01 1.487820e-01 2.646557e-01 3.151667e-01 2.513766e-01 4.550309e-01 3.468593e-01 3.139091e-01 3.561059e-01 2.610275e-01 3.142958e-01 2.470127e-01 1.018031e-02 2.579329e-02 2.428200e-02 4.602342e-02 4.887756e-02 3.739097e-02 7.529610e-02 5.440928e-02 4.923972e-02 6.027906e-02 4.353094e-02 5.267065e-02 4.838083e-02
<GCONST> 6.015344e+01
<STATE> 4
<NUMMIXES> 2
<MIXTURE> 1 7.903733e-01
<MEAN> 39
 -2.057350e+01 -2.313512e+00 -1.104114e+00 1.778688e+00 6.898112e-01 3.179518e+00 -2.273871e+00 2.728817e+00 -1.627521e+00 -1.319089e+00 1.282682e+00 -4.001349e-01 -3.248978e-02 -2.823664e-01 -6.783410e-02 -3.607945e-02 -1.243992e-01 -9.549702e-02 8.190690e-02 1.184645e-01 7.463351e-03 2.591495e-02 8.237067e-02 -3.123045e-03 4.189719e-02 9.482630e-02 2.950469e-03 -2.575340e-02 -9.054095e-03 1.797559e-02 1.633579e-02 -1.565684e-02 -3.440115e-02 -1.104635e-02 -4.916001e-03 -1.306676e-02 -3.599842e-03 -1.090793e-02 -7.280648e-03
<VARIANCE> 39
 1.344801e+02 7.217136e+01 6.805432e+01 7.795810e+01 6.230415e+01 2.995382e+01 2.401411e+01 2.826358e+01 2.359780e+01 2.267359e+01 2.018795e+01 1.841419e+01 1.313879e+01 5.460823e-01 3.236918e-01 4.181314e-01 5.929382e-01 6.685879e-01 7.975854e-01 9.126432e-01 9.534548e-01 1.104137e+00 1.093740e+00 9.419439e-01 9.049850e-01 7.457750e-01 3.395698e-02 5.477494e-02 7.587577e-02 1.021901e-01 1.283922e-01 1.523524e-01 1.770256e-01 1.831863e-01 2.075348e-01 2.067030e-01 1.869159e-01 1.770537e-01 1.473252e-01
<GCONST> 8.712034e+01
<MIXTURE> 2 2.096201e-01
<MEAN> 39
 -1.023645e+01 4.109165e+00 7.122116e+00 1.231193e+01 1.021711e+01 7.225183e+00 -1.999624e+00 5.151374e+00 -1.509595e+00 -2.696648e+00 2.620004e+00 -4.988675e-01 -1.266961e+00 -1.352432e+00 -9.186451e-01 -7.610509e-01 -1.300170e+00 -1.262426e+00 -1.502728e-01 2.353900e-01 -1.624568e-01 2.835367e-02 1.358820e-01 -2.453224e-01 -1.026180e-02 3.750664e-01 1.156423e-01 -1.260668e-01 -6.348206e-02 -8.771479e-03 1.563019e-02 -3.226350e-02 -9.660310e-02 3.043849e-02 1.680321e-02 -3.165273e-02 8.000199e-02 2.564787e-02 -3.260875e-02
<VARIANCE> 39
 1.509206e+02 7.026397e+01 6.871458e+01 9.447270e+01 8.433466e+01 4.990298e+01 7.965514e+01 5.918562e+01 5.321205e+01 6.361483e+01 4.917931e+01 3.003895e+01 2.724455e+01 2.160982e+00 2.513576e+00 3.545015e+00 3.487106e+00 3.584666e+00 3.846753e+00 4.467519e+00 4.054808e+00 3.134327e+00 3.043268e+00 2.759531e+00 1.934330e+00 1.512724e+00 1.869089e-01 3.019406e-01 3.745642e-01 4.303471e-01 4.599239e-01 4.085182e-01 4.775250e-01 4.424832e-01 4.092543e-01 4.133957e-01 3.861220e-01 2.763263e-01 2.137857e-01
<GCONST> 1.258457e+02
<TRANSP> 5
 0.000000e+00 1.000000e+00 0.000000e+00 0.000000e+00 0.000000e+00
 0.000000e+00 8.330917e-01 1.669083e-01 0.000000e+00 0.000000e+00
 0.000000e+00 0.000000e+00 6.921125e-01 3.078875e-01 0.000000e+00
 0.000000e+00 0.000000e+00 0.000000e+00 8.972763e-01 1.027237e-01
 0.000000e+00 0.000000e+00 0.000000e+00 0.000000e+00 0.000000e+00
<ENDHMM>
~h "r"
<BEGINHMM>
<NUMSTATES> 5
<STATE> 2
<NUMMIXES> 2
<MIXTURE> 1 9.845883e-01
<MEAN> 39
 1.997073e+01 -4.686237e+00 -1.055998e+01 5.055669e+00 1.618083e+01 1.113070e+00 -1.594991e+01 8.175388e+00 -8.284861e+00 -1.768104e+01 8.017861e+00 2.365069e+00 2.874404e-01 -5.060270e-01 1.059450e+00 2.820360e-01 2.917774e-01 2.154665e-01 1.267332e+00 1.349723e+00 -1.010669e+00 2.118950e-01 6.844358e-01 -1.423946e+00 -6.223898e-02 3.610848e-01 -2.234880e-01 1.382904e-01 3.092049e-01 1.389428e-01 -1.885623e-01 3.497297e-02 3.249266e-01 1.002175e-01 6.530782e-02 1.257722e-01 -1.022373e-01 -5.746893e-02 -9.615218e-03
<VARIANCE> 39
 2.621501e+01 3.402471e+01 5.410693e+01 4.107090e+01 4.591916e+01 5.260975e+01 9.326863e+01 5.396439e+01 4.415811e+01 5.590106e+01 8.258623e+01 3.397679e+01 3.743949e+01 1.568522e+00 1.388218e+00 2.105991e+00 1.119751e+00 1.459002e+00 2.058126e+00 4.426815e+00 3.159222e+00 1.761907e+00 2.736193e+00 3.398240e+00 1.202167e+00 1.177643e+00 1.843766e-01 1.610398e-01 2.822891e-01 1.661344e-01 1.956091e-01 2.277019e-01 4.851417e-01 4.698757e-01 2.266783e-01 4.203798e-01 4.272285e-01 1.891280e-01 1.648077e-01
<GCONST> 1.125454e+02
<MIXTURE> 2 1.541210e-02
<MEAN> 39
 1.835050e+01 -9.385011e+00 3.911079e-01 1.479964e+01 1.497240e+01 3.858452e+00 -1.932943e+01 -3.939838e-01 -8.183053e+00 -2.105348e+01 7.632183e+00 3.996146e+00 -1.063571e+01 1.514838e-01 8.883279e-02 -3.388675e-01 -7.884811e-02 2.140947e-01 -1.992577e-01 -2.796640e-01 -3.615148e-02 5.208347e-02 -1.805344e-01 -3.082780e-01 -5.240928e-02 1.263735e-01 -1.703228e-02 1.130610e-01 -7.602747e-02 3.140742e-03 1.071135e-01 2.030842e-02 1.064815e-01 8.288814e-02 -6.498713e-03 8.051351e-03 -8.276215e-02 1.155735e-02 8.042362e-02
<VARIANCE> 39
 4.355059e+00 1.325164e+01 1.417620e+01 1.047449e+01 3.514581e+01 1.909107e+01 1.437427e+02 4.523688e+01 1.385536e+01 3.215706e+01 3.131268e+01 2.399230e+01 5.151604e+01 3.414102e-01 5.075100e-01 6.239473e-01 3.144487e-01 5.684196e-01 4.655258e-01 1.179292e+00 6.165084e-01 3.600972e-01 7.899629e-01 4.990362e-01 4.397728e-01 6.823847e-01 5.144940e-02 5.615827e-02 5.005300e-02 3.687280e-02 5.726329e-02 5.307577e-02 1.601582e-01 4.864746e-02 6.275526e-02 6.423237e-02 7.681607e-02 5.612167e-02 7.832029e-02
<GCONST> 6.819926e+01
<STATE> 3
<NUMMIXES> 2
<MIXTURE> 1 9.899706e-01
<MEAN> 39
 1.369606e+01 1.309135e+00 -4.523563e+00 7.839133e+00 1.250825e+01 7.107198e+00 -4.095736e+00 5.841257e+00 -7.480463e+00 -1.348034e+01 7.962976e-01 8.947572e-01 2.110581e+00 -5.490568e-01 2.311008e-01 7.030182e-01 3.877368e-01 -6.158952e-02 4.264144e-01 5.472474e-01 1.095609e-01 -4.876809e-01 -2.573788e-01 2.616628e-01 1.258824e-01 -2.417589e-01 1.903616e-01 -3.285837e-01 -2.437685e-01 -1.108298e-01 1.312336e-01 -2.182226e-01 -5.087413e-01 8.375402e-02 -1.272414e-01 -2.502929e-01 3.783775e-01 7.383306e-02 -1.478558e-01
<VARIANCE> 39
 6.023683e+01 4.057986e+01 4.932265e+01 4.578495e+01 4.547739e+01 3.824885e+01 5.963494e+01 3.544849e+01 4.387299e+01 4.850970e+01 5.307669e+01 2.438871e+01 2.758127e+01 4.043455e+00 3.958418e+00 4.184426e+00 2.104766e+00 2.673434e+00 2.647382e+00 5.601366e+00 2.772353e+00 4.100380e+00 5.529901e+00 4.625077e+00 1.792812e+00 2.102632e+00 5.126683e-01 5.239217e-01 5.776349e-01 2.762165e-01 3.125681e-01 3.729905e-01 7.081591e-01 4.864511e-01 7.511362e-01 9.575378e-01 7.893996e-01 2.728075e-01 2.924421e-01
<GCONST> 1.266334e+02
<MIXTURE> 2 1.002875e-02
<MEAN> 39
 1.204349e+01 -1.812023e+01 1.024206e+01 1.611496e+01 7.276642e+00 1.679101e+01 -1.046460e+01 -2.442846e+00 -3.557050e+00 -1.510254e+01 3.154840e+00 2.589262e+00 -1.669235e+00 5.747017e-01 6.823033e-01 -1.531796e+00 -1.997062e-01 1.062129e+00 -3.752330e-01 5.988330e-02 1.764483e-01 -9.759368e-02 4.073930e-02 -4.981084e-01 2.943867e-02 4.910348e-01 -1.106117e-01 2.617014e-01 -1.431250e-01 -1.093714e-01 1.826833e-01 -1.985826e-01 1.300178e-01 3.266634e-01 -2.770599e-02 8.189835e-02 -5.842175e-03 -3.048974e-02 6.589366e-02
<VARIANCE> 39
 4.616949e+01 5.075064e+01 1.578597e+02 8.015336e+01 5.252594e+01 7.728197e+01 8.949667e+01 3.737393e+01 4.164348e+01 4.775140e+01 6.895483e+01 1.539896e+01 3.579809e+01 3.138528e+00 3.856886e+00 8.087985e+00 1.479577e+00 3.574788e+00 4.638789e+00 4.109272e+00 3.557358e+00 1.521966e+00 2.563387e+00 1.502927e+00 1.326732e+00 8.637441e-01 1.964397e-01 2.016002e-01 3.883509e-01 2.227144e-01 3.621526e-01 2.066175e-01 3.179313e-01 2.636516e-01 2.330429e-01 3.988839e-01 3.411096e-01 2.138524e-01 9.840277e-02
<GCONST> 1.177576e+02
<STATE> 4
<NUMMIXES> 2
<MIXTURE> 1 5.905711e-01
<MEAN> 39
 1.074524e+01 2.188141e+00 -5.664533e+00 3.746161e+00 9.767110e+00 7.115067e+00 -3.780656e+00 5.858589e+00 -4.442433e+00 -1.030072e+01 7.437601e-01 9.748722e-01 1.982170e+00 -7.664672e-01 1.517045e-01 3.498738e-01 -1.053389e-02 -4.514575e-03 2.244460e-01 8.474627e-02 -5.898094e-02 1.323999e-01 2.300844e-01 1.464610e-02 3.400937e-02 -2.816890e-02 3.784782e-02 -1.477119e-01 -4.306491e-02 -2.871297e-03 2.688102e-03 -1.038669e-01 -1.258394e-01 8.421289e-02 -3.640098e-02 -9.717345e-02 1.180106e-01 -1.501990e-02 -6.437454e-02
<VARIANCE> 39
 2.190833e+02 9.074799e+01 8.716435e+01 4.337162e+01 4.490387e+01 4.954160e+01 7.718103e+01 3.636293e+01 3.372369e+01 4.130589e+01 4.406059e+01 2.993308e+01 2.690909e+01 2.806741e+00 1.731893e+00 2.166399e+00 1.214159e+00 1.199873e+00 1.776642e+00 2.543908e+00 1.723612e+00 1.623124e+00 2.110610e+00 1.812577e+00 1.084966e+00 1.047214e+00 2.209603e-01 1.979432e-01 2.658072e-01 1.605502e-01 1.483042e-01 1.795645e-01 3.359296e-01 2.546447e-01 2.564094e-01 3.464679e-01 2.718137e-01 1.545580e-01 1.482886e-01
<GCONST> 1.100453e+02
<MIXTURE> 2 4.094254e-01
<MEAN> 39
 1.867843e+01 -7.147446e+00 -4.838961e+00 1.025744e+01 2.180187e+01 2.909657e+00 -2.101833e+01 8.951834e+00 -1.412388e+01 -2.456525e+01 1.616133e+01 1.962591e+00 -9.425625e+00 6.842984e-02 -5.208220e-01 1.257286e-01 1.267225e-01 2.919407e-01 -3.990949e-01 -8.557585e-01 3.454655e-01 -1.829391e-01 -2.663987e-01 8.979169e-01 -1.043264e-01 -5.531645e-01 -9.241315e-02 1.161877e-01 8.031563e-02 -1.244394e-02 -1.332058e-01 7.564031e-02 2.298047e-01 -5.689396e-02 1.351884e-01 2.115879e-01 -2.136732e-01 -4.341071e-02 1.105695e-01
<VARIANCE> 39
 1.048457e+01 2.762597e+01 4.291511e+01 8.266051e+01 5.205875e+01 5.168698e+01 7.920798e+01 5.219067e+01 3.220889e+01 4.430246e+01 8.120615e+01 1.767412e+01 6.889603e+01 5.126679e-01 8.849255e-01 1.008980e+00 9.854849e-01 1.078720e+00 1.293830e+00 3.029657e+00 2.276684e+00 1.207796e+00 1.956643e+00 2.710222e+00 8.918011e-01 1.390479e+00 5.953731e-02 8.210981e-02 1.260130e-01 1.093629e-01 1.267635e-01 1.411906e-01 2.338248e-01 2.666532e-01 1.665134e-01 2.446997e-01 2.297450e-01 1.251147e-01 1.164602e-01
<GCONST> 9.874678e+01
<TRANSP> 5
 0.000000e+00 1.000000e+00 0.000000e+00 0.000000e+00 0.000000e+00
 0.000000e+00 7.477775e-01 2.522224e-01 0.000000e+00 0.000000e+00
 0.000000e+00 0.000000e+00 7.409617e-01 2.590382e-01 0.000000e+00
 0.000000e+00 0.000000e+00 0.000000e+00 8.009599e-01 1.990401e-01
 0.000000e+00 0.000000e+00 0.000000e+00 0.000000e+00 0.000000e+00
<ENDHMM>
~h "s"
<BEGINHMM>
<NUMSTATES> 5
<STATE> 2
<NUMMIXES> 2
<MIXTURE> 1 8.009148e-01
<MEAN> 39
 -1.242944e+01 -2.375612e+01 3.083927e+01 -6.441340e+00 -1.521934e+00 2.088747e+01 -6.541060e+00 6.483984e+00 -1.359942e+01 -6.034369e+00 9.611643e+00 -1.323016e+00 2.936571e+00 -1.397915e+00 -9.885037e-01 1.379425e+00 -1.200848e+00 -7.346098e-01 4.621332e-01 1.415256e-01 2.374789e-01 -2.920126e-01 6.044217e-01 1.659499e-01 4.471605e-02 5.481230e-01 -3.754306e-02 1.543993e-02 -1.302462e-01 4.198222e-02 6.484257e-02 -8.476891e-02 -1.613679e-02 5.357280e-02 6.441300e-02 3.089185e-02 7.077881e-02 6.241244e-02 -1.181104e-02
<VARIANCE> 39
 1.976709e+02 1.210948e+02 2.044832e+02 1.728509e+02 1.000488e+02 9.419513e+01 6.274511e+01 7.897911e+01 4.787283e+01 6.060808e+01 4.720948e+01 2.567310e+01 4.573595e+01 3.442123e+00 3.222362e+00 6.244972e+00 2.505960e+00 2.208941e+00 4.454934e+00 2.519621e+00 3.274565e+00 2.356087e+00 2.826205e+00 2.819144e+00 1.948982e+00 1.788498e+00 2.702168e-01 3.255962e-01 5.943692e-01 2.754950e-01 2.989387e-01 4.531982e-01 2.824339e-01 4.469810e-01 3.532098e-01 3.917576e-01 4.096413e-01 3.169579e-01 2.262983e-01
<GCONST> 1.287093e+02
<MIXTURE> 2 1.990832e-01
<MEAN> 39
 -2.285732e+01 -2.682391e+01 3.755190e+01 -1.526171e+01 -3.632842e+00 2.319859e+01 -8.343754e+00 8.423823e+00 -1.058270e+01 -1.608827e-01 1.165968e+01 4.178832e-01 5.809389e+00 -1.209485e+00 -6.769429e-01 -5.529258e-01 -1.186479e+00 -8.851398e-01 -8.686861e-01 -6.212889e-01 4.866365e-02 -9.475607e-02 5.623250e-02 -1.848954e-02 -8.663878e-03 1.125850e-01 4.052871e-01 1.369332e-01 -3.663763e-02 7.192959e-02 2.493276e-02 -1.812486e-02 -1.071877e-01 -2.334183e-01 -2.142853e-01 -2.455276e-01 -2.503183e-01 -2.267745e-01 -1.231417e-01
<VARIANCE> 39
 1.922165e+01 3.177185e+01 3.813406e+01 5.558939e+01 3.567831e+01 3.856488e+01 4.407878e+01 2.636891e+01 2.868484e+01 2.009673e+01 2.376423e+01 1.721470e+01 1.183690e+01 1.566314e+00 1.033390e+00 1.280234e+00 2.052295e+00 1.814372e+00 1.838003e+00 1.133364e+00 1.395231e+00 1.464772e+00 1.493485e+00 1.673036e+00 1.462521e+00 9.033629e-01 1.353333e-01 1.492125e-01 2.260968e-01 1.752837e-01 1.945625e-01 2.454978e-01 2.109001e-01 2.356868e-01 2.567803e-01 2.632614e-01 2.840897e-01 2.621282e-01 1.530069e-01
<GCONST> 9.922186e+01
<STATE> 3
<NUMMIXES> 2
<MIXTURE> 1 3.089286e-02
<MEAN> 39
 -1.206854e+01 -2.612044e+01 2.797379e+01 -3.967858e+00 -2.394678e+00 1.967598e+01 -6.662598e+00 6.913198e+00 -8.131742e+00 -4.517648e+00 1.115752e+01 1.243901e+00 2.635701e+00 5.955549e-02 -9.289342e-02 -1.064139e+00 1.720768e-01 5.641724e-02 -8.522233e-01 -4.170032e-01 2.306739e-01 4.477265e-02 -1.628503e-01 3.346613e-01 2.400145e-01 -1.016331e-01 3.153808e-01 2.384655e-01 -2.688529e-01 1.002938e-01 1.639393e-01 -2.361863e-01 -6.052145e-02 -2.454864e-02 -2.299003e-01 -2.404550e-01 -1.277466e-01 -1.419423e-01 -9.829708e-02
<VARIANCE> 39
 1.722095e+02 1.219034e+02 1.978037e+02 1.791580e+02 1.319532e+02 8.807906e+01 6.027401e+01 7.892331e+01 6.209903e+01 5.707533e+01 5.745807e+01 2.203502e+01 3.468796e+01 6.861328e+00 4.288985e+00 4.408114e+00 3.037921e+00 2.948825e+00 2.976456e+00 2.530594e+00 2.484765e+00 2.579866e+00 4.129961e+00 2.323020e+00 1.353748e+00 1.660857e+00 1.993526e-01 3.174779e-01 3.514180e-01 2.094016e-01 2.453919e-01 3.494580e-01 2.912746e-01 2.700313e-01 3.334331e-01 3.993762e-01 4.403806e-01 2.440532e-01 1.905206e-01
<GCONST> 1.265294e+02
<MIXTURE> 2 9.691077e-01
<MEAN> 39
 -2.529644e+01 -2.212009e+01 2.379498e+01 -1.361840e+01 -6.293720e+00 1.388644e+01 -7.732503e+00 5.731887e+00 -1.023070e+01 -1.632649e+00 7.572495e+00 -8.492311e-01 4.131727e+00 2.800438e-02 -2.049686e-01 -2.976674e-01 2.622737e-02 1.121537e-01 3.571528e-02 7.801130e-04 -1.566462e-01 -6.171861e-02 1.490556e-01 1.033983e-01 4.178137e-02 3.672330e-02 1.930632e-01 -4.573161e-02 -1.356926e-02 5.507720e-02 1.025133e-01 9.810016e-02 4.295018e-02 -8.485641e-03 -5.913551e-02 -3.738127e-02 -3.390647e-02 -4.540658e-02 1.931796e-04
<VARIANCE> 39
 6.815462e+00 1.153369e+02 3.641656e+02 6.794672e+01 2.134488e+01 8.292731e+01 3.426585e+01 2.739817e+01 4.828717e+01 1.775541e+01 3.597455e+01 1.501925e+01 1.279522e+01 5.243741e-01 6.972336e-01 7.231355e-01 5.660278e-01 5.682778e-01 7.650051e-01 7.489896e-01 9.822745e-01 1.158684e+00 1.189685e+00 1.283679e+00 1.197605e+00 7.643317e-01 9.794386e-02 1.021112e-01 1.132365e-01 9.555675e-02 1.013493e-01 1.388951e-01 1.360258e-01 1.835528e-01 2.185109e-01 2.256568e-01 2.390726e-01 2.216837e-01 1.605729e-01
<GCONST> 9.096104e+01
<STATE> 4
<NUMMIXES> 2
<MIXTURE> 1 8.025898e-01
<MEAN> 39
 -1.671398e+01 -2.706794e+01 2.745992e+01 -1.043542e+01 -3.830489e+00 1.948490e+01 -6.191336e+00 6.711325e+00 -1.321535e+01 -3.505398e+00 9.230837e+00 -9.654403e-01 5.295298e+00 1.814847e+00 1.347162e+00 -2.011488e+00 1.403016e+00 7.868386e-01 -4.767947e-01 -2.630204e-02 -1.961676e-01 6.687852e-01 -5.042505e-01 -4.495040e-01 -1.710500e-01 -3.944050e-01 1.100662e-01 6.100556e-02 -3.038707e-01 1.030579e-01 5.495358e-02 -2.437767e-01 -1.245187e-01 7.951161e-02 6.835836e-02 -1.321529e-01 8.522326e-02 4.711775e-02 -8.806224e-02
<VARIANCE> 39
 1.172057e+02 1.002842e+02 1.217876e+02 1.024179e+02 6.323348e+01 6.495078e+01 6.779048e+01 6.517891e+01 7.204559e+01 4.249280e+01 3.059684e+01 2.101635e+01 2.073608e+01 6.917342e+00 5.256649e+00 5.501776e+00 3.223592e+00 1.561249e+00 4.149902e+00 3.081540e+00 2.573526e+00 3.860992e+00 3.436398e+00 2.112868e+00 1.724845e+00 1.582645e+00 5.323094e-01 7.024045e-01 5.505648e-01 3.020421e-01 1.944766e-01 5.401897e-01 5.063829e-01 3.777464e-01 5.573955e-01 5.403662e-01 3.910671e-01 2.958449e-01 2.584946e-01
<GCONST> 1.280705e+02
<MIXTURE> 2 1.974106e-01
<MEAN> 39
 -2.344032e+01 -2.811979e+01 2.935647e+01 -1.693428e+01 -3.950195e+00 1.911813e+01 -1.047491e+01 5.071641e+00 -1.174936e+01 5.407255e-01 1.109056e+01 1.208665e-01 5.695745e+00 1.092949e+00 3.224585e-01 -1.057419e+00 9.051352e-01 7.324840e-01 3.053063e-01 5.023158e-01 -5.718633e-01 6.248826e-02 3.581638e-01 2.467531e-01 3.208313e-01 1.067034e-01 5.605676e-01 4.120729e-01 3.744512e-02 3.678757e-01 1.576380e-01 9.348365e-02 1.033718e-01 -4.406020e-03 6.266207e-03 -2.065452e-01 -2.896550e-01 -2.242446e-01 -1.114736e-01
<VARIANCE> 39
 1.650198e+01 6.367236e+01 1.341269e+02 4.906824e+01 2.593523e+01 5.370197e+01 3.320810e+01 3.252163e+01 3.759875e+01 1.969601e+01 2.737121e+01 1.251653e+01 1.134189e+01 1.968474e+00 2.351404e+00 1.941600e+00 1.835677e+00 1.214545e+00 1.437903e+00 1.221126e+00 1.417951e+00 1.761615e+00 1.290692e+00 1.361748e+00 1.255283e+00 9.677196e-01 2.765303e-01 3.969801e-01 2.731748e-01 2.682274e-01 1.716007e-01 2.145451e-01 2.160079e-01 2.558545e-01 3.239384e-01 2.420472e-01 2.512904e-01 2.521161e-01 1.736188e-01
<GCONST> 1.036811e+02
<TRANSP> 5
 0.000000e+00 1.000000e+00 0.000000e+00 0.000000e+00 0.000000e+00
 0.000000e+00 9.479133e-01 5.208675e-02 0.000000e+00 0.000000e+00
 0.000000e+00 0.000000e+00 4.016550e-01 5.983449e-01 0.000000e+00
 0.000000e+00 0.000000e+00 0.000000e+00 9.054795e-01 9.452049e-02
 0.000000e+00 0.000000e+00 0.000000e+00 0.000000e+00 0.000000e+00
<ENDHMM>
~h "t"
<BEGINHMM>
<NUMSTATES> 5
<STATE> 2
<NUMMIXES> 2
<MIXTURE> 1 6.467032e-01
<MEAN> 39
 -2.531174e+01 -5.405613e+00 -4.249086e+00 -1.960697e+00 -2.513497e+00 1.720130e+00 -2.922053e+00 1.700843e+00 -1.577036e+00 -6.626295e-01 8.440025e-01 -5.454724e-01 5.804498e-01 -6.916708e-02 -3.677693e-02 -5.086219e-02 -5.567263e-02 -2.180995e-02 8.109093e-03 -1.094294e-02 -3.246959e-02 -3.676385e-03 1.822026e-02 -2.216111e-02 -2.014275e-02 1.478485e-02 6.786716e-02 4.320934e-03 1.663570e-02 6.694469e-02 9.155077e-02 7.772155e-02 4.287835e-02 2.310414e-02 -2.998382e-03 -1.384900e-02 5.808420e-03 4.177162e-02 6.864087e-02
<VARIANCE> 39
 2.670007e+01 1.602470e+01 1.598290e+01 2.081383e+01 2.000038e+01 1.425163e+01 1.128667e+01 1.429571e+01 1.455632e+01 1.156808e+01 1.002510e+01 9.412806e+00 7.419928e+00 1.556019e-01 2.251426e-01 3.204977e-01 4.502794e-01 5.933692e-01 7.604225e-01 8.345072e-01 9.931402e-01 1.124903e+00 1.054939e+00 9.794254e-01 9.289128e-01 8.300845e-01 4.058187e-02 4.109993e-02 5.890800e-02 1.035936e-01 1.417392e-01 1.633292e-01 1.644370e-01 1.873723e-01 2.170420e-01 1.978217e-01 1.896907e-01 1.749439e-01 1.671717e-01
<GCONST> 7.249319e+01
<MIXTURE> 2 3.532968e-01
<MEAN> 39
 -5.611976e+00 8.215899e-01 3.072378e+00 8.957381e+00 8.123885e+00 7.845210e+00 -9.408666e-01 4.589498e+00 -6.398810e+00 -6.835570e+00 3.397912e+00 8.144473e-01 2.660954e+00 -1.498213e+00 -7.398613e-02 -1.411433e-01 -4.880887e-01 -6.105547e-01 -7.236242e-02 2.826333e-01 -3.033168e-01 3.836891e-01 5.364487e-01 -5.417512e-01 -2.270723e-02 2.083853e-01 9.896223e-02 -1.250119e-01 -1.112518e-01 4.290131e-02 6.909789e-02 -9.187435e-02 -8.515467e-02 1.615945e-01 1.640258e-01 3.733604e-02 3.378701e-02 -1.495809e-02 -2.940874e-02
<VARIANCE> 39
 1.875278e+02 1.101073e+02 4.271955e+01 5.734742e+01 7.956384e+01 8.458936e+01 8.161104e+01 7.254065e+01 7.563095e+01 8.278523e+01 7.244945e+01 3.488552e+01 5.518525e+01 2.665593e+00 4.363749e+00 2.818216e+00 2.135729e+00 2.573537e+00 3.579051e+00 3.619105e+00 3.044435e+00 3.415847e+00 2.934505e+00 3.068079e+00 1.798790e+00 1.947414e+00 2.352129e-01 3.986425e-01 3.033337e-01 2.853214e-01 3.410533e-01 4.779119e-01 4.216304e-01 4.031831e-01 5.476488e-01 4.511926e-01 3.981872e-01 2.488057e-01 2.698990e-01
<GCONST> 1.276331e+02
<STATE> 3
<NUMMIXES> 2
<MIXTURE> 1 8.923323e-03
<MEAN> 39
 7.758603e-01 -1.687225e+01 3.107531e+00 7.126091e+00 -2.470181e+00 1.151851e+01 -2.860012e+00 4.661434e+00 3.691024e+00 4.260831e-01 4.451422e+00 -5.064347e+00 8.900990e-01 3.027625e+00 -1.592933e+00 1.072556e+00 -9.818962e-01 -1.667701e+00 9.546539e-01 -1.685673e+00 -5.781920e-01 -6.456620e-01 -2.088293e+00 1.231436e+00 -7.161024e-01 -2.513815e+00 -2.289070e-01 1.765430e-01 -1.137585e-01 -5.167296e-02 4.770436e-01 -1.157341e-01 -1.688538e-01 1.389002e-01 -7.035509e-01 -8.886220e-01 6.754942e-02 1.628507e-01 -5.043000e-02
<VARIANCE> 39
 6.551879e+01 1.643312e+01 1.867819e+01 4.460040e+01 1.743842e+01 3.139278e+01 1.792609e+01 2.330540e+01 1.135862e+02 7.709833e+01 4.447599e+01 1.697214e+01 1.976852e+01 5.339322e-01 7.725994e+00 1.088394e+00 1.421206e+00 2.669031e+00 8.856634e+00 1.629197e+00 3.013830e+00 3.908049e+00 3.209553e+00 7.928350e+00 2.337923e+00 3.561486e+00 1.839570e-01 2.863285e-01 2.483755e-01 2.719269e-01 3.486721e-01 7.482983e-01 2.766349e-01 4.127554e-01 7.037951e-01 3.616794e-01 4.507917e-01 1.251819e-01 5.639186e-01
<GCONST> 1.157708e+02
<MIXTURE> 2 9.910763e-01
<MEAN> 39
 -1.726400e+01 -4.822527e+00 -1.943643e+00 4.048186e+00 3.619258e+00 6.385596e+00 -1.456885e-01 5.192841e+00 1.917158e-01 -7.275431e-01 8.867741e-01 3.167281e-01 4.540937e+00 1.961802e+00 -8.952978e-01 -2.936345e-01 6.655608e-01 6.888967e-01 4.983603e-01 -1.864627e-02 6.150606e-01 4.729481e-01 2.350156e-01 2.886733e-01 -1.192340e-01 6.667393e-01 6.585913e-01 -1.264985e-01 7.651818e-02 3.722225e-02 -3.458136e-02 -1.348962e-02 -2.225547e-01 -1.964048e-02 -2.338572e-01 -1.467356e-01 2.576576e-01 -2.086175e-01 -1.502292e-01
<VARIANCE> 39
 7.830536e+01 2.710599e+01 2.032767e+01 3.693480e+01 3.594801e+01 2.788012e+01 1.992002e+01 2.543714e+01 2.602108e+01 1.998940e+01 1.758888e+01 1.568479e+01 2.269170e+01 4.397607e+00 2.831172e+00 2.112006e+00 3.229682e+00 4.448153e+00 3.556501e+00 2.902426e+00 2.534175e+00 2.751480e+00 2.711356e+00 2.804364e+00 2.283173e+00 2.827287e+00 2.635724e-01 2.363615e-01 2.851953e-01 5.901794e-01 8.040153e-01 5.866507e-01 4.745585e-01 4.450780e-01 6.633851e-01 5.162692e-01 3.946049e-01 3.675501e-01 5.672483e-01
<GCONST> 1.177635e+02
<STATE> 4
<NUMMIXES> 2
<MIXTURE> 1 9.910075e-01
<MEAN> 39
 -5.254975e+00 -9.464569e+00 -1.506763e+00 5.962216e+00 4.362371e+00 7.222914e+00 -3.770894e+00 4.645477e+00 -3.577983e+00 -2.860507e+00 4.294081e+00 -2.816847e+00 4.771756e+00 3.322920e+00 -9.271247e-01 3.650526e-01 3.526274e-01 3.131390e-01 3.665782e-01 -9.814404e-01 7.485807e-02 -1.374345e+00 -1.017695e+00 1.435747e+00 -7.426954e-01 -5.092223e-01 5.882899e-02 1.560365e-01 1.168375e-01 8.136220e-02 2.020582e-01 2.702569e-02 -1.737251e-02 1.035226e-01 -1.596798e-01 -2.744334e-01 1.695144e-01 9.912600e-02 -2.261263e-01
<VARIANCE> 39
 9.695738e+01 4.760363e+01 2.146559e+01 3.526553e+01 4.145824e+01 4.403384e+01 3.796213e+01 4.652755e+01 6.138620e+01 4.575294e+01 5.338380e+01 2.996737e+01 2.648886e+01 3.362822e+00 3.141233e+00 1.732048e+00 2.839273e+00 3.698431e+00 4.052800e+00 3.507339e+00 2.631701e+00 6.016868e+00 4.387999e+00 5.802683e+00 2.084828e+00 2.722456e+00 3.687074e-01 4.980870e-01 3.174738e-01 5.577501e-01 7.041729e-01 5.911220e-01 4.774974e-01 4.152147e-01 1.170944e+00 8.741094e-01 9.253805e-01 3.946068e-01 4.816543e-01
<GCONST> 1.283376e+02
<MIXTURE> 2 8.992254e-03
<MEAN> 39
 5.884430e+00 -2.213607e+01 5.304339e+00 1.293601e+00 -7.913271e+00 1.811098e+01 -5.935195e+00 -8.259764e-01 -4.979693e+00 -8.300614e+00 9.747753e+00 -4.802497e+00 -2.385050e+00 1.646849e+00 -1.199106e-01 1.244841e+00 7.462310e-01 7.752214e-01 1.049901e+00 -7.000992e-01 -5.513735e-01 -1.815114e+00 -2.217991e+00 7.741056e-01 2.507846e-01 -1.673891e-01 -6.117212e-01 9.410092e-01 -3.625805e-01 5.480605e-01 1.022133e+00 -8.241857e-01 -4.577685e-03 3.066888e-01 5.683522e-01 6.126850e-01 -6.640038e-01 9.851353e-02 5.176296e-01
<VARIANCE> 39
 1.971132e+01 1.543040e+01 1.701089e+01 2.121609e+01 2.927973e+01 2.566579e+01 3.727774e+01 2.847914e+01 7.039944e+01 5.581208e+01 1.676953e+01 2.920770e+01 9.636105e+00 1.091269e+00 3.266259e+00 1.816332e+00 1.996574e+00 3.022405e+00 5.474429e+00 1.242981e+00 1.756460e+00 3.199818e+00 3.493163e+00 2.225336e+00 7.704566e-01 1.665781e+00 1.012577e-01 3.726366e-01 2.026026e-01 4.507842e-01 6.681845e-01 7.847477e-01 2.482706e-01 2.254180e-01 8.372914e-01 6.332028e-01 3.455469e-01 2.907987e-01 2.616392e-01
<GCONST> 1.097460e+02
<TRANSP> 5
 0.000000e+00 1.000000e+00 0.000000e+00 0.000000e+00 0.000000e+00
 0.000000e+00 8.057266e-01 1.942733e-01 0.000000e+00 0.000000e+00
 0.000000e+00 0.000000e+00 7.648890e-01 2.351110e-01 0.000000e+00
 0.000000e+00 0.000000e+00 0.000000e+00 6.251816e-01 3.748185e-01
 0.000000e+00 0.000000e+00 0.000000e+00 0.000000e+00 0.000000e+00
<ENDHMM>
~h "u"
<BEGINHMM>
<NUMSTATES> 7
<STATE> 2
<NUMMIXES> 2
<MIXTURE> 1 7.768992e-01
<MEAN> 39
 7.296663e+00 3.917985e-01 5.414476e+00 8.104768e+00 -1.681591e+00 -7.476475e+00 -8.453746e+00 1.485930e+01 2.420089e-01 -1.373135e+01 7.566252e-01 -1.699574e+00 -5.576381e+00 1.215846e+00 2.362425e-01 1.381724e-01 4.505278e-01 2.155543e-01 -1.018029e+00 -7.978082e-01 7.857357e-01 2.281351e-01 -1.030363e+00 -2.059749e-01 -1.082139e-01 -6.466744e-01 -1.767615e-01 -6.729373e-02 -4.835790e-03 -5.459207e-02 4.076324e-02 9.900244e-02 5.889893e-03 -5.666889e-02 5.972814e-02 3.503127e-02 -6.526676e-02 -5.870546e-03 3.026277e-02
<VARIANCE> 39
 1.864066e+02 1.875045e+02 6.028529e+01 7.667671e+01 1.014170e+02 2.131691e+02 7.374561e+01 1.269290e+02 5.645277e+01 8.558497e+01 4.632289e+01 3.604226e+01 3.868974e+01 4.209693e+00 4.599650e+00 2.843543e+00 3.358587e+00 4.803550e+00 5.654473e+00 3.290687e+00 3.782538e+00 2.598311e+00 4.855420e+00 3.078471e+00 1.936839e+00 1.910273e+00 2.957962e-01 4.566161e-01 3.736471e-01 5.138473e-01 6.689199e-01 8.214542e-01 4.974443e-01 5.193499e-01 4.081270e-01 5.871931e-01 5.468363e-01 3.096098e-01 2.707337e-01
<GCONST> 1.351572e+02
<MIXTURE> 2 2.230976e-01
<MEAN> 39
 1.830668e+01 5.489346e+00 6.879682e+00 1.022437e+01 -1.025534e+00 -1.534155e+01 -1.266473e+01 2.069875e+01 3.435367e+00 -1.947556e+01 1.256824e+00 -1.695143e+00 -1.303351e+01 2.040348e-02 -1.766688e-01 -8.946687e-02 -1.060753e-01 9.273918e-02 5.370504e-02 3.400708e-02 2.458527e-01 1.369858e-01 -1.793191e-01 -6.813744e-02 -1.902847e-01 -2.635055e-01 -1.980355e-02 4.856471e-03 -2.090139e-02 2.113609e-02 4.706171e-02 1.459066e-01 1.149094e-01 -6.237493e-02 -1.066795e-01 5.274633e-02 2.728011e-02 -1.237092e-02 9.922821e-02
<VARIANCE> 39
 4.693440e+00 4.363072e+01 3.846059e+01 3.075841e+01 5.640080e+01 1.007783e+02 2.271340e+01 5.771094e+01 2.627718e+01 7.328819e+01 4.924401e+01 4.494283e+01 2.532753e+01 1.720994e-01 7.559915e-01 5.543563e-01 5.795528e-01 7.897211e-01 1.135044e+00 9.228038e-01 1.509047e+00 1.073632e+00 1.230134e+00 7.767312e-01 9.878464e-01 5.870787e-01 2.804837e-02 3.948520e-02 5.541890e-02 6.405825e-02 6.906895e-02 1.078581e-01 1.218679e-01 1.802288e-01 8.404969e-02 1.445255e-01 9.776718e-02 8.239796e-02 7.390354e-02
<GCONST> 8.192208e+01
<STATE> 3
<NUMMIXES> 2
<MIXTURE> 1 9.555383e-01
<MEAN> 39
 1.681638e+01 6.769021e+00 5.148006e+00 1.252639e+01 2.887678e-01 -1.828536e+01 -1.416009e+01 2.030174e+01 8.394942e+00 -1.358231e+01 -3.451956e+00 -3.401383e+00 -8.282311e+00 -5.228367e-02 2.938002e-03 1.075799e-01 3.487725e-02 3.507886e-01 2.021896e-01 -2.741790e-01 -5.828518e-03 5.955291e-02 -1.619396e-01 -9.407073e-03 -2.313397e-01 -1.935681e-01 -2.238988e-02 -7.547499e-03 -7.174230e-02 -2.996746e-02 7.068150e-02 2.263497e-01 1.383766e-01 -7.037905e-02 -1.418455e-01 8.291930e-03 8.416314e-02 4.801955e-02 6.588036e-02
<VARIANCE> 39
 3.152562e+01 5.010727e+01 4.590030e+01 2.457358e+01 4.695980e+01 2.227470e+02 7.288653e+01 8.907013e+01 5.863986e+01 5.195195e+01 2.899332e+01 3.345858e+01 2.478325e+01 3.926975e-01 9.612324e-01 1.096780e+00 8.757082e-01 7.832008e-01 1.846064e+00 1.197544e+00 1.878113e+00 1.024090e+00 1.638407e+00 9.889724e-01 9.853826e-01 4.818242e-01 4.426601e-02 4.688096e-02 8.552892e-02 9.513293e-02 8.386233e-02 1.587646e-01 1.641976e-01 1.960154e-01 1.169519e-01 1.762516e-01 1.513159e-01 1.064418e-01 7.736143e-02
<GCONST> 9.282554e+01
<MIXTURE> 2 4.446160e-02
<MEAN> 39
 1.718841e+01 -5.317221e+00 -5.272144e-01 1.523122e+01 1.774935e+01 -3.136856e+00 -1.654732e+01 1.624481e+01 -6.149356e+00 -3.019544e+01 2.256346e+00 2.911911e-01 -9.351162e+00 -2.562226e-02 2.604755e-01 -2.020360e-01 -2.211618e-01 3.491521e-03 -5.705494e-01 -2.783736e-01 4.718282e-01 -3.866330e-03 -6.675102e-01 1.795872e-01 4.876780e-02 -3.402271e-01 8.364484e-03 1.565623e-02 1.737867e-01 -1.223595e-02 -2.107266e-01 4.758772e-01 2.490221e-01 -3.728205e-01 1.551561e-01 5.685620e-01 -2.085678e-01 -1.926603e-01 2.977367e-01
<VARIANCE> 39
 5.407364e+00 8.178629e+00 1.390364e+01 2.401981e+01 5.090265e+01 5.712474e+01 4.121526e+01 7.020047e+01 2.930675e+01 2.799097e+01 3.745267e+01 1.939874e+01 2.177787e+01 2.907470e-01 3.870771e-01 9.863530e-01 1.323825e+00 7.553799e-01 2.259152e+00 1.610409e+00 3.417057e+00 1.506729e+00 1.083734e+00 1.487978e+00 1.338418e+00 6.648074e-01 7.601961e-02 6.351048e-02 7.789464e-02 7.710793e-02 1.511063e-01 2.460373e-01 2.232731e-01 4.081103e-01 2.234086e-01 3.552326e-01 2.749733e-01 1.098812e-01 1.516608e-01
<GCONST> 9.063962e+01
<STATE> 4
<NUMMIXES> 2
<MIXTURE> 1 9.999942e-01
<MEAN> 39
 1.934503e+01 1.039119e+00 1.477328e+00 1.079488e+01 5.370049e+00 -1.195363e+01 -1.367221e+01 2.225597e+01 1.809210e+00 -2.357902e+01 -4.309959e-01 -3.825202e+00 -1.113767e+01 -1.452430e-01 -1.246226e-01 -3.255315e-01 9.815976e-02 7.881550e-01 1.269912e+00 7.687431e-01 -5.012881e-01 -7.940573e-01 -1.252798e-01 -9.475273e-02 -1.106124e-01 3.216022e-01 -1.211521e-01 1.429576e-01 1.064071e-01 9.689952e-02 -3.559265e-02 1.539305e-01 2.798085e-01 -1.452281e-01 -3.675205e-02 2.589461e-01 -8.381638e-02 2.538167e-02 1.557012e-01
<VARIANCE> 39
 1.322139e+01 3.228165e+01 3.082950e+01 2.637197e+01 6.499526e+01 1.235961e+02 4.687074e+01 7.241455e+01 5.629803e+01 9.446338e+01 3.751286e+01 3.401092e+01 2.318320e+01 6.302966e-01 1.323534e+00 1.169081e+00 1.145997e+00 1.082765e+00 2.193841e+00 2.130845e+00 2.410564e+00 1.419654e+00 2.624233e+00 1.661036e+00 1.160071e+00 8.648214e-01 7.162367e-02 8.480230e-02 1.219238e-01 1.167852e-01 1.069832e-01 2.192890e-01 2.145626e-01 3.602974e-01 2.064840e-01 3.339261e-01 2.380539e-01 1.240515e-01 1.157841e-01
<GCONST> 1.008471e+02
<MIXTURE> 2 0.000000e+00
<MEAN> 39
 3.417223e+00 7.293330e+00 8.330730e+00 -9.710498e+00 -1.625434e-01 -2.035127e+01 -9.064593e-01 1.561739e+00 -1.227357e+01 -1.039749e+01 -7.147142e+00 -1.017353e+01 -1.074242e+01 -2.990634e-02 2.168149e-01 1.001392e-02 -4.689300e-02 -1.589202e-01 -7.911995e-03 6.217949e-02 3.558638e-02 5.552286e-02 3.114433e-03 -1.407267e-01 -1.060831e-01 -1.548424e-01 -5.462008e-03 -1.843423e-02 -2.657526e-02 6.268177e-02 6.855920e-02 9.713328e-02 -2.289386e-02 -5.790818e-02 2.742950e-02 2.240322e-02 1.946409e-02 5.355634e-02 3.129942e-02
<VARIANCE> 39
 6.075173e+00 4.578182e+01 2.743917e+01 3.471677e+01 5.041447e+01 4.296664e+01 3.941714e+01 4.597451e+01 8.174229e+01 6.164312e+01 4.850667e+01 5.474281e+01 4.559898e+01 9.210440e-02 5.496898e-01 4.708762e-01 6.562652e-01 8.952708e-01 9.710231e-01 9.655682e-01 1.150128e+00 1.134475e+00 1.179296e+00 1.051585e+00 1.147964e+00 1.009993e+00 1.406629e-02 4.912791e-02 6.224088e-02 9.069604e-02 1.023018e-01 1.395229e-01 1.419330e-01 1.569344e-01 1.592698e-01 1.563243e-01 1.508348e-01 1.450534e-01 1.304802e-01
<GCONST> 8.581348e+01
<STATE> 5
<NUMMIXES> 2
<MIXTURE> 1 4.787573e-01
<MEAN> 39
 3.759917e+00 3.541107e+00 7.273170e+00 1.028827e+01 2.805613e+00 -4.943480e-01 -5.667170e+00 8.404124e+00 -2.133675e+00 -9.895667e+00 -5.753770e-01 -1.367575e+00 -8.233249e-01 -1.442326e+00 -8.806221e-03 1.811159e-01 -5.610556e-01 -1.873462e-01 1.319586e+00 9.670038e-01 -5.101475e-01 3.879197e-01 1.309231e+00 1.031792e-01 -1.397525e-01 4.217023e-01 -6.227884e-02 -6.389318e-02 2.040662e-03 4.621515e-02 2.626624e-02 -1.823157e-02 1.151404e-02 3.667849e-02 1.036376e-01 -1.018298e-02 -4.799649e-02 -4.918643e-02 -9.337236e-02
<VARIANCE> 39
 1.353958e+02 1.999529e+02 6.938837e+01 5.869751e+01 6.616769e+01 1.332670e+02 1.036654e+02 1.391010e+02 8.456570e+01 8.223316e+01 4.190867e+01 5.096068e+01 5.658632e+01 4.544266e+00 5.945284e+00 4.200233e+00 2.978164e+00 4.680871e+00 9.455525e+00 5.244701e+00 4.545095e+00 4.363678e+00 4.126480e+00 3.794682e+00 2.215342e+00 3.188646e+00 2.510436e-01 5.309963e-01 5.387660e-01 4.954271e-01 5.932484e-01 6.882830e-01 4.698312e-01 5.090368e-01 7.566074e-01 6.053599e-01 4.763422e-01 3.731424e-01 4.555327e-01
<GCONST> 1.394128e+02
<MIXTURE> 2 5.212420e-01
<MEAN> 39
 1.696592e+01 4.538692e+00 4.175604e+00 1.149330e+01 4.878907e+00 -9.326568e+00 -9.378843e+00 2.094812e+01 4.291334e-01 -2.076218e+01 -1.794201e+00 -5.616149e+00 -9.941886e+00 -5.239791e-01 3.379646e-01 1.350263e-01 4.470608e-01 6.916310e-01 1.551235e+00 1.145733e+00 -8.164343e-01 -4.552284e-01 4.226788e-01 -4.428153e-01 1.128041e-01 5.668947e-01 -1.493318e-01 5.146899e-02 1.428294e-01 1.959600e-02 -2.422439e-02 1.106322e-01 -6.926909e-03 -1.239986e-01 9.924304e-02 2.142268e-01 4.273522e-02 6.186346e-02 7.761874e-02
<VARIANCE> 39
 1.680214e+01 5.441836e+01 3.956916e+01 3.831975e+01 6.113840e+01 1.384194e+02 7.217673e+01 8.277896e+01 4.736565e+01 9.636972e+01 5.758212e+01 4.485847e+01 3.044604e+01 9.667084e-01 1.509823e+00 1.089006e+00 1.572372e+00 1.527284e+00 3.333610e+00 2.783371e+00 3.572151e+00 1.580443e+00 3.603636e+00 2.170486e+00 1.271448e+00 1.246715e+00 6.637025e-02 1.262120e-01 1.071651e-01 1.614330e-01 1.345792e-01 3.802160e-01 3.563074e-01 4.160760e-01 2.321516e-01 3.101624e-01 3.211082e-01 1.719653e-01 1.762118e-01
<GCONST> 1.100882e+02
<STATE> 6
<NUMMIXES> 2
<MIXTURE> 1 3.544039e-01
<MEAN> 39
 -2.577113e+01 -6.359896e+00 -5.202754e+00 -2.742579e+00 -3.355571e+00 1.326003e+00 -2.431468e+00 1.721541e+00 -2.702994e+00 -1.684037e+00 5.655935e-01 2.693946e-01 1.023979e+00 -3.357115e-02 -3.670414e-02 -2.841282e-02 1.768093e-02 4.468932e-02 8.390788e-03 2.277254e-02 1.971291e-02 4.986004e-02 6.512523e-02 3.372208e-02 -6.372035e-04 -6.106075e-03 4.425026e-02 1.549263e-02 1.307756e-02 2.057745e-02 3.194475e-02 -6.064828e-03 -3.419422e-02 -3.791866e-02 -3.571419e-02 -5.036104e-02 -1.160987e-02 2.099855e-03 1.485712e-02
<VARIANCE> 39
 1.490627e+01 1.468193e+01 1.243586e+01 8.316956e+00 7.611073e+00 7.883618e+00 8.460608e+00 5.449363e+00 1.362790e+01 1.702591e+01 7.016047e+00 1.195083e+01 6.737453e+00 1.038134e-01 1.573122e-01 3.120368e-01 3.802904e-01 6.475634e-01 7.131572e-01 7.483591e-01 6.116488e-01 8.576094e-01 1.065676e+00 1.011385e+00 8.743471e-01 6.726162e-01 3.191075e-02 3.867952e-02 7.126258e-02 8.610506e-02 1.649335e-01 1.706476e-01 1.736859e-01 1.596557e-01 1.985238e-01 2.146478e-01 2.111917e-01 1.575576e-01 1.495837e-01
<GCONST> 6.559870e+01
<MIXTURE> 2 6.455941e-01
<MEAN> 39
 6.333623e+00 7.323913e+00 5.687866e+00 1.012776e+01 6.146546e+00 -7.905024e-02 -4.196711e+00 1.326746e+01 1.697326e+00 -1.040100e+01 -1.226449e+00 -3.568626e+00 -5.563945e+00 -1.125503e+00 2.204533e-02 2.046566e-01 2.117355e-02 4.507097e-01 1.221327e+00 6.723071e-01 -4.830156e-01 -9.404643e-02 6.114980e-01 -7.321137e-02 -1.374771e-01 3.003553e-01 -2.172363e-02 -1.440002e-01 -3.780595e-02 -2.679512e-02 -1.102880e-01 -2.002317e-01 -1.292431e-01 4.172346e-02 5.974865e-03 -4.032628e-02 4.035275e-02 4.912334e-02 5.663528e-03
<VARIANCE> 39
 2.017153e+02 8.739075e+01 6.788351e+01 4.828116e+01 4.630524e+01 1.080509e+02 9.676381e+01 8.125175e+01 5.665216e+01 1.500898e+02 3.504803e+01 3.502159e+01 3.799715e+01 3.041623e+00 1.957407e+00 1.847313e+00 1.432799e+00 1.335955e+00 3.380937e+00 2.799606e+00 2.397851e+00 2.062857e+00 2.549725e+00 1.520034e+00 1.334334e+00 1.216675e+00 1.325894e-01 2.062489e-01 2.123764e-01 1.480189e-01 1.489352e-01 2.655661e-01 2.960688e-01 2.678821e-01 2.942129e-01 3.752291e-01 2.509262e-01 1.892666e-01 1.726812e-01
<GCONST> 1.157373e+02
<TRANSP> 7
 0.000000e+00 1.000000e+00 0.000000e+00 0.000000e+00 0.000000e+00 0.000000e+00 0.000000e+00
 0.000000e+00 8.979481e-01 1.020519e-01 0.000000e+00 0.000000e+00 0.000000e+00 0.000000e+00
 0.000000e+00 0.000000e+00 6.522321e-01 3.477680e-01 0.000000e+00 0.000000e+00 0.000000e+00
 0.000000e+00 0.000000e+00 0.000000e+00 7.771183e-01 2.228816e-01 0.000000e+00 0.000000e+00
 0.000000e+00 0.000000e+00 0.000000e+00 0.000000e+00 6.412727e-01 3.587274e-01 0.000000e+00
 0.000000e+00 0.000000e+00 0.000000e+00 0.000000e+00 0.000000e+00 7.166857e-01 2.833143e-01
 0.000000e+00 0.000000e+00 0.000000e+00 0.000000e+00 0.000000e+00 0.000000e+00 0.000000e+00
<ENDHMM>
~h "w"
<BEGINHMM>
<NUMSTATES> 5
<STATE> 2
<NUMMIXES> 2
<MIXTURE> 1 9.999945e-01
<MEAN> 39
 7.512496e+00 1.472541e+01 9.653168e+00 1.340563e+01 9.984665e+00 6.254848e+00 3.720986e+00 1.714009e+01 4.840456e+00 -8.222677e+00 -6.513064e+00 -6.259753e+00 -6.864227e+00 -4.756621e-01 4.564739e-01 6.864821e-01 1.441912e-01 5.892467e-02 4.802713e-01 2.876616e-01 -1.247132e-01 1.482254e-01 4.734706e-01 1.268232e-01 -1.951433e-01 -7.397721e-02 -1.008142e-03 -1.531200e-01 -8.200057e-02 4.304722e-02 5.867019e-02 9.737387e-04 -6.716789e-02 -2.256378e-02 -2.530347e-02 -2.160348e-02 4.407531e-02 5.583396e-02 1.005047e-01
<VARIANCE> 39
 2.510460e+01 2.633732e+01 3.392440e+01 1.668144e+01 2.289306e+01 5.000134e+01 2.219961e+01 4.159367e+01 2.862113e+01 3.688142e+01 1.976205e+01 1.640828e+01 1.556618e+01 5.814403e-01 7.529667e-01 9.688101e-01 5.346544e-01 6.580716e-01 1.189649e+00 9.379295e-01 1.416975e+00 8.499376e-01 1.395440e+00 9.415855e-01 9.049441e-01 8.469192e-01 3.537572e-02 7.416573e-02 9.682013e-02 6.956600e-02 7.958137e-02 1.195201e-01 1.162170e-01 1.942664e-01 1.131650e-01 1.780190e-01 1.136751e-01 1.086803e-01 1.004121e-01
<GCONST> 8.228272e+01
<MIXTURE> 2 0.000000e+00
<MEAN> 39
 1.378911e+01 -5.882964e+00 5.711132e+00 9.465131e+00 -1.243303e+01 8.746708e+00 5.601330e-01 -7.174479e+00 2.589908e+00 -1.117520e+01 -1.118331e+01 1.178023e-01 -6.158607e+00 -1.288440e-01 1.712742e-02 2.953843e-01 2.247112e-02 -1.709286e-01 2.319557e-01 7.940844e-02 2.872613e-02 2.858532e-01 -3.339471e-02 -1.537790e-01 2.861512e-02 -6.112367e-02 4.143821e-02 -1.702908e-01 -5.036233e-02 -1.903104e-02 -4.757323e-02 -1.118162e-01 -1.095709e-01 -5.744234e-02 -1.100288e-01 -7.373928e-02 7.590093e-02 2.229727e-02 -1.457045e-03
<VARIANCE> 39
 5.693203e+00 3.076212e+01 1.764848e+01 2.169621e+01 3.926045e+01 3.001332e+01 2.751151e+01 3.213239e+01 3.717189e+01 2.692718e+01 1.927668e+01 1.926764e+01 1.896693e+01 1.228157e-01 5.694669e-01 4.044106e-01 4.887558e-01 7.384183e-01 9.813446e-01 7.732689e-01 8.090994e-01 9.743630e-01 8.385676e-01 6.937302e-01 6.511840e-01 6.163760e-01 1.787036e-02 5.931752e-02 6.642151e-02 7.853088e-02 1.136717e-01 1.498673e-01 1.329894e-01 1.448491e-01 1.629503e-01 1.434017e-01 1.325567e-01 1.232411e-01 1.184856e-01
<GCONST> 7.573148e+01
<STATE> 3
<NUMMIXES> 2
<MIXTURE> 1 9.997429e-01
<MEAN> 39
 5.105699e+00 1.107978e+01 9.269221e+00 1.477804e+01 1.240025e+01 8.997091e+00 3.096037e+00 1.610072e+01 4.513940e+00 -7.493090e+00 -4.902307e+00 -5.501969e+00 -3.277146e+00 7.020538e-01 -1.227877e+00 -1.024580e+00 -1.316592e-01 -9.629559e-03 -8.915322e-01 -1.167467e+00 2.777211e-01 2.562808e-02 -6.704782e-01 2.456717e-01 1.654820e-01 4.322035e-01 3.403562e-01 -3.193984e-01 -3.916603e-01 -1.206967e-01 -8.464742e-02 -4.442410e-01 -3.907220e-01 4.275919e-02 -6.665148e-02 -2.896802e-01 4.026419e-02 1.285738e-01 2.182273e-03
<VARIANCE> 39
 2.964252e+01 5.413038e+01 3.734848e+01 1.946825e+01 2.633728e+01 5.617047e+01 3.497221e+01 3.118492e+01 3.630562e+01 3.741069e+01 2.754690e+01 1.765275e+01 1.754384e+01 2.245724e+00 3.773268e+00 3.590207e+00 1.459113e+00 1.476158e+00 4.132914e+00 3.099401e+00 2.079692e+00 2.135970e+00 3.120249e+00 2.125345e+00 1.298634e+00 1.440956e+00 1.436451e-01 2.551807e-01 2.899971e-01 2.125939e-01 2.128105e-01 3.231249e-01 2.895462e-01 3.670705e-01 3.045644e-01 3.357155e-01 3.439991e-01 2.152404e-01 2.418585e-01
<GCONST> 1.096344e+02
<MIXTURE> 2 2.570669e-04
<MEAN> 39
 1.531703e+01 8.302060e+00 3.538699e+00 9.829655e+00 2.742861e+00 -5.237622e+00 -3.299998e+00 1.536554e+01 3.208447e+00 -1.340062e+01 -6.560478e+00 -3.970311e+00 -6.940005e+00 8.120724e-01 -1.232246e+00 -8.613831e-01 3.293492e-01 -9.628478e-02 -1.745029e+00 -1.306262e+00 6.501129e-01 -8.125404e-02 -1.383471e+00 2.372977e-01 4.900557e-01 -4.563427e-01 9.654079e-02 -2.000382e-01 -3.204829e-01 -4.406467e-02 3.194445e-01 -1.785864e-02 -3.431768e-01 1.815632e-01 -1.980696e-02 -2.180051e-01 1.977396e-01 9.843718e-02 2.710280e-02
<VARIANCE> 39
 1.039291e+01 2.103546e+01 1.317401e+01 1.465784e+01 2.010057e+01 8.239044e+01 2.712885e+01 1.489661e+01 2.017401e+01 1.402836e+01 2.671546e+01 9.286766e+00 2.361587e+01 3.102023e-01 1.060385e+00 8.874373e-01 5.585846e-01 5.963352e-01 1.859569e+00 8.747560e-01 1.316597e+00 1.152813e+00 1.899484e+00 1.048955e+00 5.287922e-01 8.738297e-01 2.810819e-02 8.677282e-02 7.092378e-02 6.241894e-02 6.762630e-02 1.593463e-01 1.327643e-01 8.840461e-02 9.454916e-02 9.841589e-02 1.143197e-01 9.007198e-02 9.119391e-02
<GCONST> 7.649396e+01
<STATE> 4
<NUMMIXES> 2
<MIXTURE> 1 4.225287e-04
<MEAN> 39
 1.907334e+01 6.388483e-01 -1.553309e+00 1.027549e+01 3.290863e-01 -1.520675e+01 -8.163815e+00 1.187751e+01 -6.675366e+00 -2.210073e+01 -4.551890e+00 2.222618e+00 -1.769118e-01 1.742570e-01 -5.197614e-01 -4.135143e-01 4.996333e-01 9.219025e-02 -4.673678e-01 -1.801397e-01 -1.136859e+00 -1.368035e+00 1.191225e-02 1.140998e+00 1.227806e+00 4.439736e-01 -6.188877e-03 1.387639e-02 3.891134e-02 -1.012158e-01 1.848046e-01 1.650186e-01 -5.921264e-02 1.275228e-01 1.898815e-01 3.529027e-03 -1.579539e-02 -1.163976e-01 -1.109880e-01
<VARIANCE> 39
 4.551725e-01 3.333603e+00 2.444191e+00 2.621826e+00 1.217978e+01 2.754266e+01 2.312366e+00 1.315524e+01 8.443914e+00 4.137920e+00 1.303724e+01 6.174133e+00 2.741404e+01 2.929987e-02 1.602400e-01 2.003037e-01 3.516780e-01 3.296195e-01 1.027997e+00 2.097149e-01 9.567478e-02 7.047899e-01 5.429221e-01 9.847491e-01 1.026505e-01 1.368683e-01 1.703587e-02 2.851584e-02 1.178465e-02 3.944760e-02 2.644476e-02 4.231714e-02 3.739379e-02 4.018626e-02 2.434439e-02 3.166368e-02 7.466403e-02 7.686213e-02 2.643712e-02
<GCONST> 3.162813e+01
<MIXTURE> 2 9.995775e-01
<MEAN> 39
 1.804019e+01 -1.242640e-01 -5.019345e+00 9.732287e+00 5.145333e+00 -1.383983e+01 -1.348657e+01 2.182681e+01 8.450409e+00 -1.586934e+01 -5.278192e+00 -1.908613e+00 -1.443618e+00 8.967221e-01 -1.319539e+00 -1.272634e+00 -4.376198e-01 -8.074197e-02 -1.309673e+00 -1.264670e+00 6.635164e-02 -2.833361e-01 -7.019081e-01 6.220344e-01 6.354587e-01 2.854036e-01 -7.964344e-02 7.261107e-02 8.773357e-02 3.808143e-03 1.215535e-01 2.291094e-01 1.197567e-01 -2.317582e-02 -1.026884e-01 4.600184e-02 1.408823e-01 1.863893e-02 -2.994388e-02
<VARIANCE> 39
 2.899036e+01 3.149300e+01 4.981649e+01 2.296616e+01 4.501064e+01 1.438283e+02 6.331126e+01 3.547083e+01 6.138500e+01 4.351104e+01 3.517142e+01 1.470526e+01 2.077649e+01 1.226469e+00 9.606906e-01 1.202116e+00 7.794837e-01 1.389341e+00 3.068726e+00 2.486707e+00 1.999010e+00 1.287129e+00 1.966212e+00 1.587819e+00 8.190876e-01 7.034500e-01 1.356883e-01 8.007654e-02 1.225845e-01 1.118988e-01 1.508778e-01 2.938192e-01 2.731462e-01 2.875185e-01 1.636379e-01 2.423653e-01 2.321638e-01 1.376686e-01 1.021440e-01
<GCONST> 9.976974e+01
<TRANSP> 5
 0.000000e+00 1.000000e+00 0.000000e+00 0.000000e+00 0.000000e+00
 0.000000e+00 8.164642e-01 1.835358e-01 0.000000e+00 0.000000e+00
 0.000000e+00 0.000000e+00 8.431439e-01 1.568561e-01 0.000000e+00
 0.000000e+00 0.000000e+00 0.000000e+00 7.325248e-01 2.674753e-01
 0.000000e+00 0.000000e+00 0.000000e+00 0.000000e+00 0.000000e+00
<ENDHMM>
~h "y"
<BEGINHMM>
<NUMSTATES> 5
<STATE> 2
<NUMMIXES> 2
<MIXTURE> 1 1.000000e+00
<MEAN> 39
 9.912087e+00 -6.945491e+00 9.614991e+00 3.025700e+01 2.338842e+01 -1.436659e+00 -1.638642e+01 1.352643e+01 -5.053983e+00 -2.099468e+01 6.026518e+00 -1.323826e-01 -1.025847e+01 4.537048e-01 -2.825961e-01 -4.096871e-01 -3.246961e-01 2.496981e-01 -2.662475e-01 -8.404408e-01 1.165275e-02 -1.450289e-01 -4.868300e-01 3.952969e-01 2.111989e-01 -1.681776e-01 -3.208043e-02 1.486340e-02 -1.854622e-02 -9.033436e-02 -9.733693e-02 1.827501e-02 9.133689e-02 -1.540192e-02 1.961065e-02 8.205495e-02 -7.318882e-03 1.563701e-02 7.327878e-02
<VARIANCE> 39
 4.299542e+01 8.741337e+01 8.111264e+01 1.085996e+02 7.422466e+01 4.700985e+01 2.066766e+02 7.392966e+01 2.981166e+01 6.438602e+01 8.394192e+01 2.527228e+01 4.295883e+01 8.954958e-01 1.682202e+00 1.624368e+00 3.022762e+00 2.131354e+00 1.732086e+00 3.784151e+00 2.296757e+00 1.082530e+00 3.221961e+00 1.964598e+00 1.241778e+00 1.534269e+00 8.746601e-02 1.447447e-01 1.550562e-01 2.930206e-01 2.382939e-01 2.021265e-01 3.524466e-01 3.131528e-01 1.551707e-01 3.892535e-01 2.434093e-01 1.671418e-01 1.795783e-01
<GCONST> 1.133790e+02
<MIXTURE> 2 0.000000e+00
<MEAN> 39
 1.077002e+01 -1.956420e+01 1.628934e+01 2.477308e+01 -1.067274e+01 -2.976494e-01 -1.631964e+01 -1.125875e+01 8.065402e+00 -1.447605e+01 -1.309809e+01 -1.712498e+00 -8.394070e+00 6.742813e-02 -9.836404e-02 -1.169972e-01 -9.043243e-02 -7.185069e-02 -4.700645e-02 -1.383417e-01 -1.586409e-01 -4.520181e-02 8.582173e-02 1.406730e-01 1.323300e-02 -1.787742e-02 1.718775e-02 -1.453367e-03 -6.490878e-02 -5.673794e-02 8.897717e-03 2.129654e-02 3.349083e-04 -4.583070e-02 -3.346105e-02 4.537795e-02 5.137637e-02 4.648509e-03 -1.070770e-02
<VARIANCE> 39
 4.835891e+00 1.564970e+01 1.978276e+01 2.057377e+01 2.182557e+01 2.436750e+01 2.886898e+01 3.342552e+01 2.415036e+01 3.267395e+01 2.042847e+01 2.264841e+01 1.821476e+01 1.990445e-01 2.737281e-01 3.442593e-01 4.312418e-01 5.640050e-01 5.272828e-01 3.877100e-01 4.964686e-01 5.398856e-01 5.405872e-01 4.196366e-01 3.762387e-01 3.816764e-01 2.946622e-02 3.539984e-02 2.297077e-02 5.282143e-02 8.965132e-02 8.030171e-02 5.395827e-02 6.092423e-02 8.503931e-02 7.202144e-02 5.072999e-02 5.755227e-02 6.090007e-02
<GCONST> 6.119115e+01
<STATE> 3
<NUMMIXES> 2
<MIXTURE> 1 1.567735e-01
<MEAN> 39
 1.164822e+01 -9.807848e+00 7.004473e+00 3.247654e+01 3.157860e+01 6.034794e-01 -2.366290e+01 7.335488e+00 -6.823930e+00 -2.193241e+01 9.044083e+00 -9.572802e-01 -1.722671e+01 4.126159e-02 8.259369e-02 -1.620844e-03 -2.846780e-01 -1.170530e-01 -1.005025e-01 -1.644151e-01 -1.310656e-01 -9.855902e-02 -1.452809e-01 -2.593198e-02 1.901531e-01 2.020136e-02 6.171754e-02 2.559099e-02 -5.715065e-02 -1.051869e-01 -9.891281e-02 8.782606e-02 7.284801e-02 2.750706e-03 -7.097730e-02 -2.941316e-03 5.804887e-02 5.686330e-02 4.238072e-02
<VARIANCE> 39
 7.196579e+00 2.957849e+01 2.469135e+01 6.115100e+01 5.377731e+01 3.144565e+01 7.513645e+01 6.557167e+01 2.178731e+01 3.334537e+01 4.112311e+01 1.867185e+01 2.204758e+01 1.196170e-01 1.419228e-01 3.639840e-01 7.318663e-01 4.434331e-01 5.627918e-01 6.219740e-01 7.328727e-01 5.121878e-01 8.221499e-01 6.776956e-01 4.729848e-01 5.058458e-01 1.397113e-02 1.719045e-02 2.928395e-02 7.513361e-02 6.490541e-02 7.425241e-02 9.345707e-02 1.067292e-01 7.278406e-02 1.174447e-01 8.697788e-02 8.041818e-02 6.065321e-02
<GCONST> 6.943822e+01
<MIXTURE> 2 8.432257e-01
<MEAN> 39
 1.590470e+01 -1.211184e+01 1.341949e+00 2.137077e+01 2.519065e+01 -5.481521e-01 -2.731002e+01 6.437652e+00 -6.014392e+00 -2.250842e+01 1.148044e+01 3.140705e+00 -1.152150e+01 2.190959e-01 3.464334e-01 -5.770112e-01 -1.241340e+00 -7.429364e-01 -2.364084e-01 2.943034e-01 1.652301e-01 -9.451835e-02 -4.749939e-02 4.174754e-01 6.402701e-01 2.981293e-01 -4.135086e-02 5.921736e-02 2.384619e-02 -1.574601e-02 -1.214183e-01 2.852742e-02 2.707690e-01 1.550087e-01 -3.589528e-02 7.092981e-02 -3.566125e-02 -5.491532e-02 1.283855e-01
<VARIANCE> 39
 1.709517e+01 2.511763e+01 5.017099e+01 9.682413e+01 6.623389e+01 4.726493e+01 7.795413e+01 4.855676e+01 2.260125e+01 5.182094e+01 6.318088e+01 1.871123e+01 5.507007e+01 5.660112e-01 6.390439e-01 9.758285e-01 1.414652e+00 1.343150e+00 1.482856e+00 2.495761e+00 1.869783e+00 8.625484e-01 2.188468e+00 1.776805e+00 8.383775e-01 1.346913e+00 8.657740e-02 8.578578e-02 9.729472e-02 1.139124e-01 1.450586e-01 1.501842e-01 2.345781e-01 2.036284e-01 1.270123e-01 2.564120e-01 1.965102e-01 1.188630e-01 1.322000e-01
<GCONST> 9.805424e+01
<STATE> 4
<NUMMIXES> 2
<MIXTURE> 1 9.944145e-01
<MEAN> 39
 1.625862e+01 -1.000702e+01 3.059051e-01 1.977597e+01 2.596526e+01 -2.975311e-01 -2.669517e+01 7.516776e+00 -8.563460e+00 -2.436119e+01 1.377509e+01 4.753108e+00 -1.235244e+01 2.925646e-01 4.020694e-01 -4.558848e-01 -1.214772e+00 -1.199753e+00 -2.046061e-01 8.627166e-01 5.864768e-01 1.686653e-02 -9.620592e-02 1.795532e-02 4.056882e-01 6.010338e-01 2.765692e-03 1.612557e-02 5.478916e-02 4.827654e-02 -9.943721e-02 -2.340093e-03 1.499786e-01 1.352285e-01 9.988111e-02 3.016474e-02 -1.350650e-01 -1.272707e-01 1.517206e-02
<VARIANCE> 39
 1.297141e+01 2.289690e+01 4.625492e+01 7.878909e+01 5.155091e+01 4.770642e+01 6.895416e+01 4.833797e+01 1.881132e+01 4.247839e+01 6.413678e+01 1.824535e+01 6.103747e+01 3.009645e-01 4.110887e-01 7.968719e-01 9.015303e-01 9.911041e-01 9.315074e-01 1.623782e+00 1.727295e+00 9.348761e-01 2.147262e+00 2.161309e+00 8.214062e-01 8.625120e-01 3.872626e-02 4.261893e-02 7.034064e-02 1.029611e-01 1.092283e-01 1.167790e-01 2.033221e-01 2.156677e-01 1.110428e-01 2.128496e-01 1.838160e-01 1.143904e-01 9.911625e-02
<GCONST> 9.026328e+01
<MIXTURE> 2 5.585493e-03
<MEAN> 39
 1.712117e+01 -1.215061e+01 6.666360e+00 1.869945e+01 1.904156e+01 -1.657476e-01 -3.271700e+01 8.648266e+00 8.655269e-01 -2.647209e+01 1.701041e+01 3.521249e+00 -2.411337e+01 4.169359e-01 -2.105512e-01 -3.194613e-01 -9.581460e-02 -2.643757e-01 5.142242e-01 4.544356e-01 -2.037593e-01 -4.523966e-01 2.596096e-01 4.564978e-01 4.835927e-02 -1.664638e-01 -2.730298e-02 7.683414e-02 -1.037999e-02 -2.024744e-02 1.913859e-01 1.973556e-02 1.108205e-01 -2.332045e-02 -1.751808e-01 6.945357e-02 -2.258083e-02 -5.124748e-02 2.958514e-02
<VARIANCE> 39
 3.760947e+00 4.518162e+00 1.161737e+01 2.195756e+01 7.031738e+00 6.942211e+00 2.105013e+01 1.428426e+01 1.114671e+01 9.943491e+00 2.723633e+01 4.935169e+00 1.664754e+01 1.554476e-01 3.031857e-01 2.147560e-01 4.577073e-01 2.227572e-01 3.334519e-01 9.725266e-01 4.248276e-01 8.038891e-01 4.323971e-01 2.774233e-01 1.934677e-01 3.083618e-01 3.809517e-02 4.767732e-02 5.838208e-02 5.682800e-02 3.278833e-02 5.398258e-02 9.317148e-02 4.852509e-02 7.093744e-02 7.820287e-02 4.550118e-02 5.073014e-02 5.702469e-02
<GCONST> 5.016531e+01
<TRANSP> 5
 0.000000e+00 1.000000e+00 0.000000e+00 0.000000e+00 0.000000e+00
 0.000000e+00 9.380545e-01 6.194551e-02 0.000000e+00 0.000000e+00
 0.000000e+00 0.000000e+00 2.449197e-01 7.550803e-01 0.000000e+00
 0.000000e+00 0.000000e+00 0.000000e+00 7.657493e-01 2.342507e-01
 0.000000e+00 0.000000e+00 0.000000e+00 0.000000e+00 0.000000e+00
<ENDHMM>
~h "z"
<BEGINHMM>
<NUMSTATES> 5
<STATE> 2
<NUMMIXES> 2
<MIXTURE> 1 6.170735e-01
<MEAN> 39
 -4.551183e+00 -1.181906e+01 4.077260e+01 1.662461e+00 1.127112e+01 3.901300e+01 -1.080934e+01 4.641762e-01 -1.214608e+01 -1.336800e+01 5.500381e+00 -1.052692e+00 1.635870e+00 -2.435950e+00 -4.786815e-01 2.510310e+00 -1.433095e+00 -1.178700e+00 9.271423e-01 1.758105e+00 2.122375e+00 1.063169e+00 9.810963e-01 1.690355e-01 6.375952e-01 7.339749e-01 1.260505e-01 -1.503792e-01 -8.054531e-01 2.079114e-01 8.735845e-02 -5.435095e-01 1.114202e-01 1.875326e-01 2.779676e-01 1.500529e-01 3.122724e-01 1.209717e-01 -2.261992e-01
<VARIANCE> 39
 2.757874e+01 1.662587e+01 3.224500e+01 4.580794e+01 3.380607e+01 2.540552e+01 3.634747e+01 7.400014e+01 4.981946e+01 3.631453e+01 3.991179e+01 2.750453e+01 2.141451e+01 7.114658e-01 8.529730e-01 3.925642e+00 1.512043e+00 1.359103e+00 2.728694e+00 1.900913e+00 1.677426e+00 3.290876e+00 1.905323e+00 1.470188e+00 1.600852e+00 1.608888e+00 5.160080e-02 1.057306e-01 2.754588e-01 2.066287e-01 2.347620e-01 3.096457e-01 4.170579e-01 3.695492e-01 5.290291e-01 2.881871e-01 2.394183e-01 3.163600e-01 2.914326e-01
<GCONST> 1.059777e+02
<MIXTURE> 2 3.829264e-01
<MEAN> 39
 9.172740e+00 -9.531879e+00 1.861063e+01 1.000385e+01 1.644591e+01 2.555107e+01 -1.558720e+01 -2.914511e+00 -1.364226e+01 -1.795567e+01 8.707005e+00 -2.488506e+00 -4.560462e+00 -2.155270e+00 -2.310078e-01 4.439170e+00 -2.041113e+00 -1.355342e+00 3.163556e+00 2.902134e-01 -2.420417e-01 6.190709e-01 8.859766e-01 -1.541264e+00 -1.003379e-01 1.781162e+00 -3.438444e-01 -6.131088e-03 4.542308e-01 -2.157521e-01 -1.290928e-01 6.155846e-02 1.946346e-01 4.275259e-01 -2.845679e-02 5.504377e-02 4.282566e-02 -3.160007e-03 7.300965e-02
<VARIANCE> 39
 2.703941e+01 2.317348e+01 8.516038e+01 7.257790e+01 6.206936e+01 1.004786e+02 3.205000e+01 9.390446e+01 3.005138e+01 2.295780e+01 4.087383e+01 1.973707e+01 3.743596e+01 9.790654e-01 5.588549e-01 3.602859e+00 1.596993e+00 1.924484e+00 2.213273e+00 1.917045e+00 1.251211e+00 1.969524e+00 1.459848e+00 1.900476e+00 9.438293e-01 1.390678e+00 4.302807e-02 7.969870e-02 2.599167e-01 8.717859e-02 1.160790e-01 2.334987e-01 2.728845e-01 2.237354e-01 1.866011e-01 2.297871e-01 2.115423e-01 1.269317e-01 9.898448e-02
<GCONST> 1.009415e+02
<STATE> 3
<NUMMIXES> 2
<MIXTURE> 1 9.433274e-01
<MEAN> 39
 -1.223451e+01 -1.410017e+01 4.322917e+01 -1.889173e+00 7.060025e+00 3.749966e+01 -3.567203e+00 8.542130e+00 -5.084669e+00 -8.151107e+00 7.857593e+00 2.252153e+00 1.715964e+00 -1.768503e+00 -1.328594e+00 9.317443e-03 -1.195438e+00 -7.122599e-01 -2.549540e-01 9.547594e-01 1.749940e+00 1.605703e+00 1.898914e+00 1.031063e+00 4.830122e-01 7.207071e-01 3.249187e-01 -2.277952e-01 -4.549308e-01 -7.270613e-02 1.298505e-01 -8.000945e-02 -5.063185e-01 -4.343710e-01 -3.886428e-01 -9.298658e-02 1.021902e-01 -1.654390e-02 2.897499e-01
<VARIANCE> 39
 4.592397e+01 1.548882e+01 9.517981e+01 2.941852e+01 1.865775e+01 7.429022e+01 1.806477e+01 2.711035e+01 3.168333e+01 3.644643e+01 1.948576e+01 1.198347e+01 1.762120e+01 5.354477e-01 6.801592e-01 8.892696e-01 1.339328e+00 1.293887e+00 1.257466e+00 8.203353e-01 2.026637e+00 2.417567e+00 1.516791e+00 1.125874e+00 1.212456e+00 1.277652e+00 5.400853e-02 7.236522e-02 2.369481e-01 1.368441e-01 2.737342e-01 3.608879e-01 2.450683e-01 2.103198e-01 4.364163e-01 1.225397e-01 1.705427e-01 2.087423e-01 1.983302e-01
<GCONST> 9.486385e+01
<MIXTURE> 2 5.667253e-02
<MEAN> 39
 4.084127e+00 -7.736633e+00 2.762716e+01 -2.063272e+00 4.219181e+00 2.789194e+01 -9.180755e+00 9.087240e+00 -8.500593e+00 -1.727564e+01 -1.166975e-02 -9.496557e+00 5.632191e+00 9.597799e-01 -3.585758e-01 -2.390975e+00 2.568691e+00 1.263662e+00 -2.212609e+00 -6.672046e-01 1.909338e+00 5.554011e-01 -2.738426e+00 2.701406e-01 9.089333e-01 -6.788511e-01 -5.701104e-02 -2.194016e-02 -4.117272e-01 8.909229e-03 1.154768e-01 -6.445919e-01 -7.226481e-02 -4.873580e-02 -1.078228e-01 1.140851e-01 7.464007e-01 2.450257e-01 -4.390032e-01
<VARIANCE> 39
 3.009113e+01 8.756142e+01 1.877495e+01 1.327919e+00 7.895538e+00 2.482727e+00 1.265840e+01 1.213473e+02 3.346249e+00 4.744871e+01 2.072221e+01 6.639371e+01 6.922112e-01 7.183189e+00 1.988344e-01 7.804501e+00 2.508616e-01 2.613246e+00 7.733548e+00 9.246243e+00 3.236669e+00 8.467211e-01 3.602066e+00 1.239494e+00 3.179896e-01 6.847572e-02 2.411012e-02 1.947155e-01 1.796549e-01 7.336768e-02 2.510517e-01 4.029502e-01 1.015325e-01 6.600047e-01 4.370022e-01 5.956631e-01 1.379474e-01 3.164383e-01 5.676615e-02
<GCONST> 8.791457e+01
<STATE> 4
<NUMMIXES> 2
<MIXTURE> 1 3.591725e-01
<MEAN> 39
 -1.761364e+01 -2.190461e+01 4.240223e+01 -8.702869e+00 3.392133e+00 3.641022e+01 -4.027950e+00 9.816282e+00 -3.592039e+00 -1.579339e+00 1.229624e+01 4.763512e+00 7.023956e+00 5.516452e-02 -1.016642e+00 -6.104673e-01 -8.460161e-01 -1.428000e-01 -1.815989e-01 -3.248718e-01 -3.142940e-01 -3.215393e-01 6.221416e-01 1.470157e-01 3.496781e-03 7.116651e-01 6.025164e-01 3.492541e-01 -8.254431e-02 4.064313e-01 2.755374e-01 6.472229e-02 -1.916076e-01 -4.675510e-01 -4.198262e-01 -4.030112e-01 -4.069658e-01 -3.029902e-01 -1.938230e-01
<VARIANCE> 39
 1.239436e+01 2.167157e+01 1.534375e+01 3.533234e+01 2.196596e+01 3.273499e+01 1.728101e+01 1.187776e+01 2.374637e+01 2.725308e+01 1.780080e+01 1.768554e+01 1.471677e+01 1.855366e+00 1.501428e+00 1.127115e+00 2.447278e+00 2.124389e+00 2.814274e+00 1.269643e+00 1.790180e+00 2.531251e+00 1.871640e+00 1.514387e+00 1.642238e+00 1.559368e+00 1.447996e-01 2.073211e-01 2.064354e-01 2.762123e-01 3.440072e-01 5.246631e-01 2.886333e-01 2.555378e-01 4.772320e-01 2.786994e-01 2.571291e-01 3.001468e-01 2.532975e-01
<GCONST> 1.012995e+02
<MIXTURE> 2 6.408270e-01
<MEAN> 39
 -5.641832e+00 -1.800100e+01 3.524169e+01 -4.692112e+00 5.767425e+00 3.308489e+01 -8.039028e+00 4.986491e+00 -7.404933e+00 -6.533263e+00 5.836267e+00 1.883827e-01 6.467416e+00 3.027961e+00 7.843417e-01 -3.106321e+00 1.121980e+00 9.260491e-02 -2.279661e+00 -1.082188e+00 -6.818237e-01 -2.551982e-01 -1.318243e+00 -5.930620e-01 -2.251374e-01 -4.759116e-01 3.242216e-01 6.879480e-02 -6.652036e-01 1.992071e-01 1.058700e-01 -5.779239e-01 -1.943725e-01 2.741573e-01 -5.463510e-02 -4.693348e-01 3.479874e-01 1.772611e-01 -2.511144e-01
<VARIANCE> 39
 9.864200e+01 3.621777e+01 9.059494e+01 3.457929e+01 1.669246e+01 6.389343e+01 2.172731e+01 4.050409e+01 2.907041e+01 4.150539e+01 3.693660e+01 1.978549e+01 1.515322e+01 5.333838e+00 2.959922e+00 6.727736e+00 3.096290e+00 1.847941e+00 5.622378e+00 1.681880e+00 2.986385e+00 2.564664e+00 4.503426e+00 2.743892e+00 1.829622e+00 1.748290e+00 3.581352e-01 3.790126e-01 4.642980e-01 3.133835e-01 2.895642e-01 5.203832e-01 2.406857e-01 5.957434e-01 4.473613e-01 3.488428e-01 6.581498e-01 2.612205e-01 2.140945e-01
<GCONST> 1.195183e+02
<TRANSP> 5
 0.000000e+00 1.000000e+00 0.000000e+00 0.000000e+00 0.000000e+00
 0.000000e+00 8.860961e-01 1.139040e-01 0.000000e+00 0.000000e+00
 0.000000e+00 0.000000e+00 1.384662e-01 8.615338e-01 0.000000e+00
 0.000000e+00 0.000000e+00 0.000000e+00 9.155099e-01 8.449012e-02
 0.000000e+00 0.000000e+00 0.000000e+00 0.000000e+00 0.000000e+00
<ENDHMM>
~h "aa"
<BEGINHMM>
<NUMSTATES> 7
<STATE> 2
<NUMMIXES> 2
<MIXTURE> 1 1.814701e-02
<MEAN> 39
 2.158163e+01 -1.211730e+01 -1.276088e+01 5.644244e+00 3.084633e+00 -1.006618e+01 -9.488514e+00 1.637773e+01 -9.251451e-02 -1.134353e+01 9.628731e+00 4.448417e+00 6.905937e-02 1.506029e-02 -2.200980e-01 -6.871758e-01 -4.264069e-01 -3.084121e-01 -4.199326e-01 4.479382e-01 4.519184e-01 4.640248e-01 3.040372e-01 -2.506988e-01 5.868350e-02 2.322032e-01 -9.349452e-02 9.800563e-02 6.701791e-02 5.563673e-03 5.537504e-02 8.246954e-02 1.639780e-02 1.619804e-02 -3.440332e-02 2.607211e-02 -3.003613e-02 -1.029405e-01 1.318837e-02
<VARIANCE> 39
 1.151070e+01 1.457892e+01 3.386891e+01 1.776292e+01 6.139899e+01 5.455144e+01 1.272191e+02 5.450397e+01 6.927553e+01 6.662474e+01 5.547090e+01 2.622014e+01 2.300980e+01 6.212189e-01 4.468414e-01 6.890776e-01 4.905826e-01 7.219391e-01 9.279168e-01 1.120909e+00 8.962976e-01 8.101717e-01 7.548770e-01 9.194414e-01 6.196890e-01 4.068756e-01 8.166457e-02 6.764152e-02 6.835472e-02 6.760799e-02 6.227571e-02 8.841854e-02 9.081724e-02 9.853341e-02 9.054828e-02 7.948031e-02 1.143983e-01 8.423029e-02 6.132302e-02
<GCONST> 8.143838e+01
<MIXTURE> 2 9.818550e-01
<MEAN> 39
 1.570562e+01 -8.965024e+00 -1.066511e+01 4.044220e+00 3.785726e+00 -6.042897e+00 -9.272345e+00 1.583281e+01 -9.025651e-01 -1.086500e+01 8.470106e+00 2.556894e+00 1.697038e+00 1.190116e+00 -4.344915e-01 -1.175419e+00 -2.869546e-01 -1.019027e-01 -1.258637e+00 -4.386805e-01 9.221113e-01 2.348206e-01 -3.981393e-01 4.221849e-01 3.796258e-01 -1.409873e-02 -2.450303e-01 2.153359e-02 1.344900e-01 2.362373e-03 1.162692e-03 1.421709e-01 1.154256e-01 -8.373437e-02 1.032495e-01 1.590884e-01 -1.337093e-01 -3.064074e-02 3.636479e-02
<VARIANCE> 39
 1.180666e+02 4.629669e+01 5.726904e+01 4.898753e+01 9.936514e+01 1.041435e+02 1.001562e+02 8.672812e+01 9.480064e+01 8.151495e+01 8.195942e+01 2.899428e+01 2.631676e+01 3.685824e+00 1.918822e+00 2.991493e+00 2.521834e+00 2.588338e+00 3.562600e+00 3.294625e+00 3.517526e+00 3.019435e+00 3.492101e+00 3.189815e+00 1.630197e+00 1.361273e+00 3.766122e-01 2.862906e-01 4.056710e-01 4.008144e-01 3.442497e-01 5.016017e-01 4.358223e-01 5.267375e-01 4.699701e-01 5.373409e-01 4.668609e-01 2.623146e-01 2.173305e-01
<GCONST> 1.272201e+02
<STATE> 3
<NUMMIXES> 2
<MIXTURE> 1 3.671962e-04
<MEAN> 39
 2.064744e+01 -1.143697e+01 -1.082151e+01 6.344735e+00 -7.314647e+00 -1.080369e+01 6.032874e+00 2.409126e+01 3.594612e+00 -9.580713e+00 4.200772e+00 3.751583e+00 -2.021480e-01 -7.230690e-02 -9.638295e-03 -2.790389e-01 -8.341559e-02 2.334884e-01 -1.606958e-02 8.422006e-03 2.948760e-01 -3.922413e-02 -4.840867e-01 -1.497998e-01 2.662303e-01 -2.038265e-01 -6.474099e-02 5.331856e-02 -2.266582e-02 4.007664e-02 1.537411e-01 4.450400e-02 -1.036083e-01 6.337315e-04 -1.143311e-01 7.467589e-02 8.351310e-02 -3.115823e-02 3.958436e-02
<VARIANCE> 39
 1.135402e+01 3.888863e+00 8.904533e+00 8.214556e+00 8.228134e+00 1.335893e+02 7.396565e+01 3.869080e+01 5.434723e+00 4.287549e+01 7.918114e+00 5.761324e+00 1.546970e+01 6.629081e-01 5.140622e-01 3.065923e-01 1.792244e-01 2.391940e-01 1.828470e-01 5.636116e-01 5.431769e-01 2.554772e-01 4.180198e-01 6.434046e-01 1.920250e-01 1.381057e-01 1.205494e-01 2.674193e-02 3.493458e-02 2.667727e-02 4.905110e-02 2.939030e-02 2.996086e-02 2.519747e-02 3.819927e-02 4.640621e-02 1.406841e-01 7.853252e-02 1.580075e-02
<GCONST> 5.069560e+01
<MIXTURE> 2 9.996330e-01
<MEAN> 39
 2.081137e+01 -1.015478e+01 -1.428446e+01 3.214853e+00 5.123966e+00 -1.329838e+01 -1.366027e+01 2.240943e+01 3.466433e+00 -1.321900e+01 8.408899e+00 4.295607e+00 1.809541e+00 1.771566e-02 -2.823474e-01 -4.756837e-01 -3.701735e-01 -3.222539e-01 -1.492365e-01 4.766135e-01 4.458917e-01 4.738655e-01 4.072143e-01 -1.759918e-01 -9.113171e-02 1.284270e-01 8.902200e-03 3.800970e-02 9.847403e-02 9.625819e-02 4.796383e-02 1.090315e-01 6.808226e-03 -7.821600e-02 -7.954008e-02 -1.975788e-02 -1.724485e-03 -7.499881e-02 -5.811503e-02
<VARIANCE> 39
 1.552089e+01 2.089193e+01 2.488295e+01 2.613735e+01 7.462626e+01 5.552695e+01 9.707454e+01 7.477386e+01 9.518871e+01 6.052495e+01 9.678713e+01 2.456064e+01 2.610446e+01 4.744115e-01 4.039004e-01 6.048262e-01 7.100369e-01 7.935933e-01 8.293354e-01 1.345783e+00 1.774634e+00 1.192463e+00 1.136933e+00 1.541748e+00 8.184094e-01 5.754725e-01 8.603681e-02 5.705075e-02 9.360101e-02 1.037058e-01 1.077546e-01 1.295166e-01 2.106777e-01 2.778559e-01 1.290722e-01 1.904809e-01 2.165858e-01 1.331783e-01 8.778767e-02
<GCONST> 9.204345e+01
<STATE> 4
<NUMMIXES> 2
<MIXTURE> 1 1.339556e-02
<MEAN> 39
 9.222699e+00 -6.041358e+00 -1.194946e+01 -4.290439e+00 -8.794315e+00 -2.961373e+00 3.501318e+00 1.650496e+01 6.400149e+00 2.428305e+00 1.031545e+01 9.693940e+00 1.092245e+01 9.214376e-03 4.059320e-01 2.352684e-01 6.696476e-03 -9.745808e-02 4.910805e-01 7.323787e-01 -3.405361e-02 -9.025481e-02 4.126515e-01 -1.471624e-02 -2.517127e-01 -4.124261e-01 -7.957003e-03 4.060079e-02 1.745286e-01 3.942819e-01 4.794221e-01 1.591113e-01 -1.204311e-01 -4.018448e-03 -1.495140e-01 -2.278753e-01 -8.892232e-02 -1.262711e-01 -1.777306e-01
<VARIANCE> 39
 6.975972e+01 1.154116e+02 2.346754e+01 2.782745e+01 9.810419e+01 3.421587e+01 8.595274e+01 1.281926e+02 8.215833e+01 4.889933e+01 5.076431e+01 5.507465e+01 2.036437e+01 6.540852e-01 6.733634e-01 7.315938e-01 8.988634e-01 1.970890e+00 1.901274e+00 1.719717e+00 2.087563e+00 2.614845e+00 1.928681e+00 1.488947e+00 1.023965e+00 7.873755e-01 4.863113e-02 1.231952e-01 1.733803e-01 9.833287e-02 1.513062e-01 2.883729e-01 4.536841e-01 4.923612e-01 2.289511e-01 2.190115e-01 3.295572e-01 2.041567e-01 1.538245e-01
<GCONST> 1.056036e+02
<MIXTURE> 2 9.866040e-01
<MEAN> 39
 2.193098e+01 -1.131684e+01 -1.632923e+01 3.089180e+00 3.928868e+00 -1.339210e+01 -1.046848e+01 2.255926e+01 3.801849e+00 -1.191902e+01 7.404613e+00 3.339566e+00 8.278699e-01 -1.169524e-02 -1.366999e-01 -1.568159e-01 -9.556491e-02 -1.097982e-01 -3.261585e-03 2.010925e-01 3.352255e-03 1.443720e-01 2.290685e-01 -8.036529e-02 -6.815451e-02 2.126728e-02 8.897452e-03 5.971163e-02 8.337742e-02 6.596532e-02 3.719994e-02 6.184036e-02 -4.508419e-02 -5.813950e-02 -8.548272e-02 -2.488274e-02 3.128313e-02 -4.727282e-02 -1.718752e-02
<VARIANCE> 39
 1.001962e+01 1.391925e+01 2.581512e+01 1.863504e+01 5.257104e+01 4.401460e+01 7.189720e+01 5.224786e+01 7.820676e+01 4.847372e+01 7.421569e+01 2.034861e+01 2.012221e+01 2.461790e-01 2.692786e-01 3.838609e-01 4.455262e-01 4.854668e-01 5.648961e-01 7.566580e-01 9.228985e-01 8.761836e-01 6.579485e-01 9.208765e-01 5.050773e-01 3.711834e-01 3.437173e-02 3.101264e-02 4.864769e-02 5.748601e-02 5.250495e-02 6.088573e-02 9.273721e-02 1.127757e-01 6.683097e-02 8.583956e-02 1.096341e-01 7.360002e-02 5.418419e-02
<GCONST> 7.296615e+01
<STATE> 5
<NUMMIXES> 2
<MIXTURE> 1 7.625034e-01
<MEAN> 39
 2.324967e+01 -1.273799e+01 -1.630046e+01 3.734578e+00 3.664526e+00 -1.233678e+01 -1.001051e+01 2.251937e+01 2.303961e+00 -1.293834e+01 8.859201e+00 2.770273e+00 -4.969540e-01 3.463771e-01 -1.419949e-01 -2.119591e-01 7.854286e-02 6.149885e-02 -3.692672e-03 -2.131003e-02 3.398421e-01 -3.028274e-03 7.129291e-02 1.870251e-01 -3.228669e-01 -6.412714e-02 -1.246751e-01 1.546554e-01 9.801443e-02 2.149814e-02 3.585760e-02 4.931506e-02 3.752306e-03 -1.158970e-01 -3.069554e-02 3.936261e-02 -7.592008e-02 8.501153e-03 3.740137e-02
<VARIANCE> 39
 1.047742e+01 1.167130e+01 2.740936e+01 1.619541e+01 4.632816e+01 4.776228e+01 6.932416e+01 5.434900e+01 6.124041e+01 5.509398e+01 6.191403e+01 1.799051e+01 2.297321e+01 9.228722e-01 5.158569e-01 6.180820e-01 5.499308e-01 7.110556e-01 6.817179e-01 1.101792e+00 1.852309e+00 1.032011e+00 9.557805e-01 1.474419e+00 6.315789e-01 4.325003e-01 1.076873e-01 6.127965e-02 7.521427e-02 7.096455e-02 7.129954e-02 7.308233e-02 1.222707e-01 1.825862e-01 8.046742e-02 1.195083e-01 1.606496e-01 8.831098e-02 6.138594e-02
<GCONST> 8.303076e+01
<MIXTURE> 2 2.374961e-01
<MEAN> 39
 1.765404e+01 -8.272917e+00 -1.338165e+01 9.735460e-01 4.950940e+00 -1.055829e+01 -1.188302e+01 2.146475e+01 2.586268e+00 -9.910405e+00 1.030141e+01 5.568854e+00 4.610274e+00 -2.493418e-01 1.936451e-01 3.464702e-01 1.620550e-01 2.217191e-01 4.365553e-01 1.524961e-01 -4.164434e-01 -2.509692e-01 1.884912e-01 2.014217e-01 -6.885305e-03 -4.967605e-02 4.993591e-03 3.598875e-02 9.223794e-02 1.385486e-01 8.045716e-02 1.308579e-01 3.321598e-02 -4.919641e-02 -1.763762e-02 -8.095255e-02 -2.623493e-02 -5.939597e-02 -9.799723e-02
<VARIANCE> 39
 3.272023e+01 4.377048e+01 3.527753e+01 4.576662e+01 9.525322e+01 4.586383e+01 1.200155e+02 9.071875e+01 9.923764e+01 9.312370e+01 9.124915e+01 4.660707e+01 3.833233e+01 3.630939e-01 3.856546e-01 6.107419e-01 8.151371e-01 1.114119e+00 1.158485e+00 1.894797e+00 2.436173e+00 1.655138e+00 1.479075e+00 2.055707e+00 1.045532e+00 7.793813e-01 6.338897e-02 5.767292e-02 9.633483e-02 1.252241e-01 1.519136e-01 1.626725e-01 2.565522e-01 3.689626e-01 1.903429e-01 2.460445e-01 2.688980e-01 1.523203e-01 1.235370e-01
<GCONST> 1.012396e+02
<STATE> 6
<NUMMIXES> 2
<MIXTURE> 1 7.446923e-01
<MEAN> 39
 1.951180e+01 -1.031209e+01 -1.495717e+01 3.569949e+00 3.501043e+00 -1.148836e+01 -8.570162e+00 2.150823e+01 3.328458e+00 -1.056258e+01 6.814462e+00 2.318876e+00 6.592791e-01 -1.569517e-01 1.908005e-01 2.486776e-01 4.977754e-02 1.267470e-01 2.697658e-01 1.542479e-03 -3.273354e-01 -2.951264e-01 3.073071e-02 1.394775e-01 -8.002371e-03 -2.589182e-02 -1.873792e-02 3.892359e-02 3.933160e-02 5.677968e-03 1.702800e-02 3.325964e-02 -1.393727e-02 -4.773870e-02 -3.283260e-02 -1.134558e-02 9.124599e-03 1.347372e-02 -5.272515e-03
<VARIANCE> 39
 1.172587e+02 2.949603e+01 4.395053e+01 2.450781e+01 5.901807e+01 7.498807e+01 8.810929e+01 7.829282e+01 6.656807e+01 5.137999e+01 6.696863e+01 2.460489e+01 2.152354e+01 6.521749e-01 5.261642e-01 6.581687e-01 6.848589e-01 8.128721e-01 8.844755e-01 1.295125e+00 1.650097e+00 1.090351e+00 9.925629e-01 1.622303e+00 7.521802e-01 5.503895e-01 8.971836e-02 6.293622e-02 9.044234e-02 1.010145e-01 9.440207e-02 1.140402e-01 1.721899e-01 2.341341e-01 1.226860e-01 1.489815e-01 2.117122e-01 1.165585e-01 8.386000e-02
<GCONST> 9.310273e+01
<MIXTURE> 2 2.553106e-01
<MEAN> 39
 1.369948e+01 -4.604743e+00 -9.949204e+00 2.961507e+00 5.708886e+00 -3.646886e+00 -6.331512e+00 1.639807e+01 1.837978e-01 -8.597282e+00 7.954244e+00 3.209221e+00 2.400526e+00 -9.129779e-01 5.888765e-01 7.993568e-01 2.887883e-01 3.698463e-01 8.993333e-01 2.280815e-01 -6.214738e-01 -1.765260e-01 1.852250e-01 -3.050441e-01 -1.298901e-01 2.720198e-02 -8.284140e-02 -2.721137e-02 6.312190e-02 2.932045e-02 -1.119246e-02 1.480570e-02 3.099187e-02 5.499505e-03 3.249879e-02 2.270324e-02 -4.368317e-02 -1.756560e-02 -3.616237e-03
<VARIANCE> 39
 1.501155e+02 6.678270e+01 6.889355e+01 3.897740e+01 7.075285e+01 1.240052e+02 1.210999e+02 9.350409e+01 8.229578e+01 6.960794e+01 8.506092e+01 3.728786e+01 3.888358e+01 3.232845e+00 2.475861e+00 2.279165e+00 1.696036e+00 2.146430e+00 2.971345e+00 3.775442e+00 4.143949e+00 2.682667e+00 2.596218e+00 4.520555e+00 1.653532e+00 1.422062e+00 3.095987e-01 2.207374e-01 2.680854e-01 1.964441e-01 2.512085e-01 3.110916e-01 4.278280e-01 5.321565e-01 3.559940e-01 3.652422e-01 5.331082e-01 2.300359e-01 1.934538e-01
<GCONST> 1.244777e+02
<TRANSP> 7
 0.000000e+00 1.000000e+00 0.000000e+00 0.000000e+00 0.000000e+00 0.000000e+00 0.000000e+00
 0.000000e+00 8.694167e-01 1.305832e-01 0.000000e+00 0.000000e+00 0.000000e+00 0.000000e+00
 0.000000e+00 0.000000e+00 6.997316e-01 3.002683e-01 0.000000e+00 0.000000e+00 0.000000e+00
 0.000000e+00 0.000000e+00 0.000000e+00 3.751280e-01 6.248719e-01 0.000000e+00 0.000000e+00
 0.000000e+00 0.000000e+00 0.000000e+00 0.000000e+00 2.374096e-01 7.625904e-01 0.000000e+00
 0.000000e+00 0.000000e+00 0.000000e+00 0.000000e+00 0.000000e+00 9.480140e-01 5.198603e-02
 0.000000e+00 0.000000e+00 0.000000e+00 0.000000e+00 0.000000e+00 0.000000e+00 0.000000e+00
<ENDHMM>
~h "ax"
<BEGINHMM>
<NUMSTATES> 7
<STATE> 2
<NUMMIXES> 2
<MIXTURE> 1 3.529135e-01
<MEAN> 39
 -4.018881e+00 -4.271938e+00 1.917152e+00 1.677919e+00 -4.615875e+00 7.808070e-01 1.076748e+00 1.604183e+01 4.048298e+00 -3.588950e+00 1.984087e+00 1.004786e-01 4.443851e+00 3.336116e+00 4.590838e-01 2.658413e-01 1.050723e+00 -1.750937e-02 -1.200110e+00 -2.620783e-01 1.232024e+00 5.903077e-01 -6.279615e-01 -2.683587e-01 -3.339562e-02 -9.214860e-02 2.435669e-01 -1.465285e-01 -3.881763e-01 -3.444123e-01 -5.420713e-01 -7.238278e-01 -3.936523e-01 6.008366e-02 -2.742612e-01 -4.767189e-01 1.427434e-01 -1.734873e-01 -4.913899e-01
<VARIANCE> 39
 1.576856e+02 8.620616e+01 4.185805e+01 3.528558e+01 5.812271e+01 5.855026e+01 5.759921e+01 5.067407e+01 3.179309e+01 4.318015e+01 2.295633e+01 3.151970e+01 2.670291e+01 2.804746e+00 2.821346e+00 2.587506e+00 7.102007e+00 8.716795e+00 3.923018e+00 4.702337e+00 7.173176e+00 3.482340e+00 4.309742e+00 2.696100e+00 3.041766e+00 3.380096e+00 2.284313e-01 3.873705e-01 3.846395e-01 1.043773e+00 9.274890e-01 5.384045e-01 4.614316e-01 7.493860e-01 5.354939e-01 6.302748e-01 4.162602e-01 5.594183e-01 5.649880e-01
<GCONST> 1.315499e+02
<MIXTURE> 2 6.470861e-01
<MEAN> 39
 1.590027e+01 -2.037665e+00 -2.769477e+00 4.644084e+00 -7.699610e+00 -1.648416e+01 -7.822179e+00 2.367971e+01 6.767479e+00 -1.103638e+01 2.667027e+00 -8.046937e-01 -1.457781e+00 1.973991e+00 -3.073758e-01 -9.288146e-01 4.236425e-01 7.479608e-02 -2.166250e+00 -1.336003e+00 7.865921e-01 6.497405e-01 -6.148690e-01 3.722529e-02 1.720395e-01 -7.474216e-01 -4.656193e-01 -5.735496e-02 3.036524e-02 6.367031e-02 2.757108e-01 3.066842e-01 7.729751e-02 -2.693162e-01 1.474882e-01 3.488176e-01 -9.468549e-02 1.481518e-01 1.847712e-01
<VARIANCE> 39
 5.775830e+01 1.961528e+01 3.294790e+01 7.432257e+01 8.196210e+01 1.682977e+02 1.146518e+02 5.625854e+01 5.516376e+01 5.154317e+01 2.897295e+01 3.665720e+01 2.008447e+01 3.269497e+00 1.023329e+00 2.208864e+00 4.601662e+00 5.956091e+00 4.774775e+00 2.902183e+00 4.987032e+00 2.268085e+00 4.062041e+00 2.185116e+00 2.692805e+00 1.493254e+00 2.537275e-01 1.971712e-01 2.411348e-01 1.100766e+00 1.123021e+00 5.293296e-01 4.485447e-01 9.660697e-01 4.066999e-01 6.735852e-01 4.665060e-01 3.519918e-01 2.567896e-01
<GCONST> 1.265392e+02
<STATE> 3
<NUMMIXES> 2
<MIXTURE> 1 9.119028e-01
<MEAN> 39
 2.224828e+01 -4.912728e+00 -1.010487e+01 8.841822e+00 -5.683069e-01 -2.419923e+01 -1.606479e+01 2.207043e+01 1.100535e+01 -1.131000e+01 4.172549e-01 3.253967e+00 -3.197287e+00 4.562176e-01 -3.771726e-01 -9.896649e-01 -2.867862e-01 2.070206e-02 -9.840404e-01 -7.216984e-01 5.359234e-01 1.021946e+00 4.956375e-01 2.024556e-01 4.586330e-01 -1.346029e-01 -8.998871e-02 9.810167e-02 2.226763e-01 -5.643273e-02 -1.137824e-01 3.127631e-01 1.740089e-01 5.013302e-03 -1.076761e-01 6.650569e-02 2.384624e-02 -1.963172e-01 1.231711e-01
<VARIANCE> 39
 9.984894e+00 9.928605e+00 2.598015e+01 9.985870e+00 1.899710e+01 3.798860e+01 2.726055e+01 1.992404e+01 2.729398e+01 2.198876e+01 2.396111e+01 6.383646e+00 1.413359e+01 7.197928e-01 3.363347e-01 7.636937e-01 3.989977e-01 9.063352e-01 9.450915e-01 1.004445e+00 1.746065e+00 6.649789e-01 1.290066e+00 1.085759e+00 6.143544e-01 5.395433e-01 1.936683e-01 6.858638e-02 8.573540e-02 9.830518e-02 1.264157e-01 1.285569e-01 1.671624e-01 2.798756e-01 7.427975e-02 2.226850e-01 2.018063e-01 1.076334e-01 1.092241e-01
<GCONST> 7.898703e+01
<MIXTURE> 2 8.809693e-02
<MEAN> 39
 2.091235e+01 -8.894961e+00 -9.691028e+00 8.534760e+00 6.610436e+00 -1.683088e+01 -1.770579e+01 1.713202e+01 -4.960252e+00 -2.205390e+01 7.953885e+00 6.288197e+00 -1.763728e+00 1.123071e-01 1.345709e-01 -1.010066e+00 -2.537975e-01 -1.178313e+00 -1.162030e+00 1.089382e+00 8.616549e-02 1.705881e+00 1.373767e+00 -1.411691e+00 4.467215e-01 3.816495e-01 7.379513e-02 1.324476e-01 6.365955e-03 -5.499813e-02 6.287292e-03 8.115232e-03 -2.225304e-01 2.361316e-01 1.932355e-01 -1.020138e-02 5.123170e-02 -1.402665e-01 -1.413396e-01
<VARIANCE> 39
 4.968353e+00 1.293654e+01 1.526392e+01 2.477448e+00 6.520509e+01 4.173323e+01 1.574957e+01 1.426178e+01 6.320934e+01 6.140013e+01 1.689912e+01 7.958055e+00 4.542859e+00 2.591888e-01 2.505639e-01 2.896912e-01 1.045210e-01 1.910791e+00 8.530537e-01 1.254953e+00 1.275156e+00 3.491080e-01 3.616312e-01 7.027339e-01 7.661623e-01 5.628008e-01 6.324816e-02 4.594677e-02 6.770402e-02 2.158363e-02 1.640257e-01 7.212706e-02 5.076175e-02 9.817199e-02 2.783265e-02 3.936111e-02 1.565870e-01 7.024634e-02 1.147696e-01
<GCONST> 6.333957e+01
<STATE> 4
<NUMMIXES> 2
<MIXTURE> 1 9.591525e-01
<MEAN> 39
 2.259525e+01 -5.621560e+00 -1.217828e+01 7.725812e+00 -1.306172e+00 -2.655872e+01 -1.796326e+01 2.283960e+01 1.440117e+01 -9.011303e+00 5.688418e-01 4.231506e+00 -2.883473e+00 1.188568e-01 -1.370316e-01 -3.505564e-01 -2.303066e-01 -1.176645e-01 -4.099522e-01 -3.610912e-01 2.092836e-01 6.595964e-01 4.269553e-01 -8.297455e-02 4.462425e-02 1.104783e-01 -2.203658e-02 5.251246e-02 1.118683e-01 2.708705e-02 -9.568907e-03 1.579736e-01 1.361354e-01 -1.584083e-03 -1.491378e-01 -6.195346e-02 -1.064177e-02 -1.274622e-01 -4.864190e-03
<VARIANCE> 39
 7.840622e+00 4.870110e+00 2.294238e+01 7.284012e+00 1.300056e+01 3.032203e+01 2.354444e+01 1.982169e+01 1.856466e+01 1.917391e+01 2.055648e+01 6.182270e+00 1.167013e+01 5.701808e-01 2.619501e-01 4.695592e-01 3.613188e-01 4.582693e-01 5.919416e-01 7.500651e-01 1.381190e+00 6.606034e-01 6.584688e-01 9.764904e-01 3.737742e-01 3.586884e-01 6.821463e-02 2.962935e-02 5.722302e-02 3.026699e-02 5.029443e-02 6.289162e-02 1.142450e-01 1.122592e-01 4.103379e-02 8.881256e-02 1.002289e-01 5.697706e-02 4.261789e-02
<GCONST> 6.131666e+01
<MIXTURE> 2 4.084745e-02
<MEAN> 39
 2.359119e+01 -6.406906e+00 -1.126490e+01 9.252633e+00 -8.577447e-01 -2.378052e+01 -1.243499e+01 2.127398e+01 8.575306e+00 -9.596748e+00 4.049715e+00 4.660846e+00 -6.323604e+00 1.019687e-01 -2.544252e-01 -8.433091e-01 -5.936205e-01 -8.365284e-02 -7.606345e-01 -5.851429e-01 1.009936e-01 1.198974e+00 5.849558e-01 -1.813161e-01 6.626621e-01 1.935384e-01 1.174258e-03 5.480111e-03 1.721102e-01 -4.495151e-02 -1.049776e-01 3.149531e-01 3.699195e-02 2.455155e-01 -1.895767e-01 -9.920613e-02 1.338228e-01 -3.721967e-01 7.974334e-02
<VARIANCE> 39
 5.039078e+00 1.823768e+00 9.423695e+00 4.880035e+00 1.026109e+01 2.228516e+01 1.173260e+01 6.025192e+00 7.434708e+00 7.394440e+00 6.067533e+00 2.120649e+00 2.846125e+00 2.393735e-01 3.534552e-01 2.186846e-01 2.406321e-01 4.334688e-01 2.339060e-01 6.075912e-01 8.289654e-01 2.531778e-01 5.157569e-01 5.437924e-01 3.277929e-01 8.893611e-02 2.167858e-02 2.120164e-02 4.997691e-02 2.597747e-02 5.385187e-02 4.984356e-02 5.104887e-02 7.427393e-02 3.958186e-02 6.776728e-02 6.272094e-02 7.253169e-02 3.674846e-02
<GCONST> 4.000803e+01
<STATE> 5
<NUMMIXES> 2
<MIXTURE> 1 9.995852e-01
<MEAN> 39
 2.302325e+01 -5.257057e+00 -1.233847e+01 6.068473e+00 -1.568069e+00 -2.445731e+01 -1.619044e+01 2.341203e+01 1.397770e+01 -8.273602e+00 2.171865e+00 4.211062e+00 -3.958087e+00 -5.054434e-02 2.358820e-01 1.109140e-01 -1.525780e-01 4.352891e-02 3.639269e-01 2.444756e-01 -1.510658e-01 -2.243271e-01 -4.739669e-02 6.166416e-02 9.365695e-02 -5.263700e-02 -3.626065e-02 5.952368e-02 7.386547e-02 3.788291e-02 4.344597e-02 1.063962e-01 6.944104e-02 -7.147736e-02 -9.592228e-02 -2.455956e-02 -1.384889e-02 -1.469032e-02 -1.482724e-02
<VARIANCE> 39
 1.044974e+01 1.170961e+01 2.839575e+01 1.536526e+01 1.720724e+01 3.376506e+01 2.478692e+01 3.132756e+01 1.551651e+01 2.211477e+01 2.495169e+01 1.645411e+01 1.968200e+01 8.589792e-01 3.767165e-01 6.747057e-01 6.595597e-01 6.743369e-01 1.007622e+00 8.943810e-01 1.688889e+00 7.793761e-01 9.952500e-01 9.823488e-01 6.272303e-01 3.784872e-01 1.440084e-01 4.467987e-02 8.066347e-02 8.763357e-02 9.405938e-02 1.105920e-01 1.388591e-01 2.621379e-01 7.089519e-02 1.481927e-01 1.597256e-01 8.327294e-02 6.188274e-02
<GCONST> 7.726039e+01
<MIXTURE> 2 4.145650e-04
<MEAN> 39
 1.868112e+01 -4.193880e+00 -9.899462e+00 9.930248e-01 -6.620661e+00 -2.192704e+01 -9.787578e+00 2.249012e+01 1.042012e+01 -9.842940e+00 4.087114e+00 6.543792e+00 -8.513848e+00 2.685226e-01 3.786043e-01 3.726882e-01 -4.257596e-01 4.426945e-01 4.039484e-01 -9.306070e-01 9.269035e-01 -2.523044e-01 -1.149494e+00 1.085957e+00 4.477761e-01 -4.713498e-01 2.909845e-01 -6.304000e-03 -3.807547e-02 2.790758e-01 3.609528e-01 -5.555469e-02 -4.233925e-01 3.834530e-01 9.319891e-02 -2.604768e-01 3.230861e-01 6.222005e-02 -8.425421e-02
<VARIANCE> 39
 1.480782e+00 2.993994e+00 1.368349e+01 1.284451e+01 2.381034e+00 3.232171e+00 4.059448e+00 4.883774e+00 2.227112e+00 7.574450e+00 8.436424e+00 3.572023e+00 4.216424e+00 1.839515e-01 1.441846e-01 2.583662e-01 5.875174e-01 1.826842e-01 5.660118e-01 8.363115e-01 4.195175e-01 5.743858e-01 7.551700e-01 5.789729e-01 2.585931e-01 5.061011e-01 2.528620e-02 2.544668e-02 4.197736e-02 1.055929e-01 4.565292e-02 4.173528e-02 5.915719e-02 7.238790e-02 2.312804e-02 3.190649e-02 1.168487e-01 1.050632e-01 2.155907e-02
<GCONST> 3.885401e+01
<STATE> 6
<NUMMIXES> 2
<MIXTURE> 1 6.823325e-01
<MEAN> 39
 1.686182e+01 2.683111e+00 -2.534702e+00 8.356100e+00 -1.197679e+00 -1.681231e+01 -9.435314e+00 2.206911e+01 9.023441e+00 -8.650012e+00 2.790648e+00 3.668719e+00 -4.190916e+00 -1.187210e+00 6.286756e-01 1.111494e+00 4.452123e-01 4.840924e-01 1.597130e+00 9.433128e-01 -5.673783e-01 -2.899017e-01 5.728549e-01 -3.122006e-01 -5.938718e-01 -1.346038e-01 -9.824547e-02 -1.699042e-01 -1.571418e-02 7.962282e-02 8.047963e-02 4.887628e-02 -9.373300e-03 4.614170e-02 3.650352e-03 -4.798567e-02 -9.323120e-03 -6.057439e-02 -3.675499e-02
<VARIANCE> 39
 7.438676e+01 4.331541e+01 6.539337e+01 4.195370e+01 6.076228e+01 1.500098e+02 4.197212e+01 5.484480e+01 4.859250e+01 7.057028e+01 3.715411e+01 3.264515e+01 2.323059e+01 2.276559e+00 2.098989e+00 1.798625e+00 2.432000e+00 1.903281e+00 2.245163e+00 1.301908e+00 1.700502e+00 1.426140e+00 2.269159e+00 2.288636e+00 9.986851e-01 8.375461e-01 2.348056e-01 2.820023e-01 2.200556e-01 1.790678e-01 2.237567e-01 3.412899e-01 2.151224e-01 2.902896e-01 1.340622e-01 2.971019e-01 2.623309e-01 1.855539e-01 1.399992e-01
<GCONST> 1.105221e+02
<MIXTURE> 2 3.176679e-01
<MEAN> 39
 1.868112e+01 5.277328e-01 -1.154084e+00 1.512207e+01 6.573731e+00 -1.339489e+01 -9.468940e+00 2.101042e+01 2.041989e+00 -1.445973e+01 4.051399e+00 2.252285e+00 -7.872699e+00 -5.163238e-01 2.947956e-01 8.421500e-01 1.535405e+00 1.415098e+00 1.220743e+00 7.367977e-01 -2.459829e-01 -8.644598e-01 -3.937763e-01 -3.467331e-01 -7.683139e-01 -6.670933e-01 8.582756e-03 -2.220057e-03 -2.534530e-02 -1.173873e-01 -2.013186e-01 -1.676418e-01 -3.885129e-03 1.059323e-01 2.066502e-01 6.529555e-02 -7.813694e-02 2.652888e-02 7.091787e-02
<VARIANCE> 39
 8.901596e+00 2.273392e+01 4.107932e+01 6.370538e+01 2.534380e+01 3.659641e+01 1.866201e+01 4.104446e+01 4.457005e+01 5.543601e+01 5.612216e+01 2.646892e+01 3.960548e+01 3.335449e-01 6.608350e-01 8.200263e-01 1.487889e+00 1.206877e+00 1.541023e+00 1.133147e+00 2.345452e+00 1.364780e+00 1.776285e+00 1.569767e+00 1.362812e+00 7.332526e-01 6.287465e-02 6.974678e-02 8.645505e-02 1.971370e-01 1.257762e-01 2.079874e-01 1.805829e-01 3.834022e-01 2.069967e-01 3.503090e-01 2.586055e-01 2.388299e-01 1.124746e-01
<GCONST> 9.533716e+01
<TRANSP> 7
 0.000000e+00 1.000000e+00 0.000000e+00 0.000000e+00 0.000000e+00 0.000000e+00 0.000000e+00
 0.000000e+00 9.169403e-01 8.305967e-02 0.000000e+00 0.000000e+00 0.000000e+00 0.000000e+00
 0.000000e+00 0.000000e+00 4.517897e-01 5.482103e-01 0.000000e+00 0.000000e+00 0.000000e+00
 0.000000e+00 0.000000e+00 0.000000e+00 6.042365e-01 3.957635e-01 0.000000e+00 0.000000e+00
 0.000000e+00 0.000000e+00 0.000000e+00 0.000000e+00 9.322028e-01 6.779719e-02 0.000000e+00
 0.000000e+00 0.000000e+00 0.000000e+00 0.000000e+00 0.000000e+00 8.492411e-01 1.507588e-01
 0.000000e+00 0.000000e+00 0.000000e+00 0.000000e+00 0.000000e+00 0.000000e+00 0.000000e+00
<ENDHMM>
~h "bh"
<BEGINHMM>
<NUMSTATES> 5
<STATE> 2
<NUMMIXES> 2
<MIXTURE> 1 5.000000e-01
<MEAN> 39
 7.678076e+00 9.592436e+00 1.012156e+01 1.870543e+01 1.599663e+01 9.551208e+00 -1.697836e-01 1.053766e+01 -3.555000e-01 -1.002373e+01 -2.944818e+00 -3.009229e+00 -3.347093e+00 -5.941048e-02 -2.925347e-01 2.118735e-01 3.244285e-01 4.316025e-01 4.467414e-01 -1.847451e-01 -3.169219e-01 -2.449874e-01 5.753009e-02 5.352260e-01 1.009878e-02 -2.428158e-01 4.516615e-02 -1.361463e-01 -1.003761e-01 3.296795e-03 2.882497e-02 -5.185517e-02 -8.633286e-02 1.574409e-02 3.733962e-02 -1.403459e-02 3.174819e-02 9.117465e-03 -1.227974e-02
<VARIANCE> 39
 2.966000e+01 1.114828e+02 4.015983e+01 3.729380e+01 6.850446e+01 5.406197e+01 7.586210e+01 3.667088e+01 2.591505e+01 4.769622e+01 5.338274e+01 2.125701e+01 2.633628e+01 1.054948e+00 3.611402e+00 3.366421e+00 1.363079e+00 1.887104e+00 2.051249e+00 2.622057e+00 1.688036e+00 1.757957e+00 2.733418e+00 1.538929e+00 1.249118e+00 1.430717e+00 9.066008e-02 2.700072e-01 3.441270e-01 2.186200e-01 2.368290e-01 2.081895e-01 2.366314e-01 2.468714e-01 2.755070e-01 3.723161e-01 2.290945e-01 1.844847e-01 1.999757e-01
<GCONST> 1.097514e+02
<MIXTURE> 2 5.000000e-01
<MEAN> 39
 7.678076e+00 9.592436e+00 1.012156e+01 1.870543e+01 1.599663e+01 9.551208e+00 -1.697836e-01 1.053766e+01 -3.555000e-01 -1.002373e+01 -2.944818e+00 -3.009229e+00 -3.347093e+00 -5.941048e-02 -2.925347e-01 2.118735e-01 3.244285e-01 4.316025e-01 4.467414e-01 -1.847451e-01 -3.169219e-01 -2.449874e-01 5.753009e-02 5.352260e-01 1.009878e-02 -2.428158e-01 4.516615e-02 -1.361463e-01 -1.003761e-01 3.296795e-03 2.882497e-02 -5.185517e-02 -8.633286e-02 1.574409e-02 3.733962e-02 -1.403459e-02 3.174819e-02 9.117465e-03 -1.227974e-02
<VARIANCE> 39
 2.966000e+01 1.114828e+02 4.015983e+01 3.729380e+01 6.850446e+01 5.406197e+01 7.586210e+01 3.667088e+01 2.591505e+01 4.769622e+01 5.338274e+01 2.125701e+01 2.633628e+01 1.054948e+00 3.611402e+00 3.366421e+00 1.363079e+00 1.887104e+00 2.051249e+00 2.622057e+00 1.688036e+00 1.757957e+00 2.733418e+00 1.538929e+00 1.249118e+00 1.430717e+00 9.066008e-02 2.700072e-01 3.441270e-01 2.186200e-01 2.368290e-01 2.081895e-01 2.366314e-01 2.468714e-01 2.755070e-01 3.723161e-01 2.290945e-01 1.844847e-01 1.999757e-01
<GCONST> 1.097514e+02
<STATE> 3
<NUMMIXES> 2
<MIXTURE> 1 5.000000e-01
<MEAN> 39
 9.850788e+00 1.016248e+00 9.068434e+00 2.300956e+01 2.058708e+01 8.710870e+00 -8.568831e+00 8.566324e+00 -3.428090e-01 -1.236289e+01 2.125261e+00 -2.331140e+00 -6.707380e+00 1.951716e-01 -7.745479e-01 -1.746450e-02 3.790903e-01 3.378792e-01 -2.165921e-01 -8.908435e-01 -1.642131e-01 9.595977e-02 -2.363296e-01 3.668715e-01 2.395078e-02 -3.611399e-01 1.371366e-02 -8.569857e-03 -1.473456e-02 -7.507737e-03 -1.715593e-02 -5.609895e-02 -3.459937e-02 1.390775e-02 2.277100e-02 -1.968060e-02 -3.478324e-02 -7.560235e-04 6.005724e-03
<VARIANCE> 39
 2.432572e+01 1.188026e+02 4.921418e+01 8.135481e+01 1.137403e+02 6.778371e+01 1.644133e+02 5.276450e+01 3.461395e+01 6.003631e+01 5.338219e+01 2.748532e+01 4.738719e+01 8.300397e-01 2.186932e+00 2.737477e+00 1.653856e+00 2.393789e+00 1.875967e+00 2.853147e+00 1.696055e+00 1.984395e+00 2.902702e+00 1.927251e+00 1.398774e+00 1.580957e+00 1.002338e-01 2.423324e-01 3.157189e-01 2.540520e-01 3.105139e-01 2.271809e-01 3.346674e-01 2.848885e-01 3.220773e-01 4.317684e-01 2.750411e-01 2.258045e-01 2.258751e-01
<GCONST> 1.156520e+02
<MIXTURE> 2 5.000000e-01
<MEAN> 39
 9.850788e+00 1.016248e+00 9.068434e+00 2.300956e+01 2.058708e+01 8.710870e+00 -8.568831e+00 8.566324e+00 -3.428090e-01 -1.236289e+01 2.125261e+00 -2.331140e+00 -6.707380e+00 1.951716e-01 -7.745479e-01 -1.746450e-02 3.790903e-01 3.378792e-01 -2.165921e-01 -8.908435e-01 -1.642131e-01 9.595977e-02 -2.363296e-01 3.668715e-01 2.395078e-02 -3.611399e-01 1.371366e-02 -8.569857e-03 -1.473456e-02 -7.507737e-03 -1.715593e-02 -5.609895e-02 -3.459937e-02 1.390775e-02 2.277100e-02 -1.968060e-02 -3.478324e-02 -7.560235e-04 6.005724e-03
<VARIANCE> 39
 2.432572e+01 1.188026e+02 4.921418e+01 8.135481e+01 1.137403e+02 6.778371e+01 1.644133e+02 5.276450e+01 3.461395e+01 6.003631e+01 5.338219e+01 2.748532e+01 4.738719e+01 8.300397e-01 2.186932e+00 2.737477e+00 1.653856e+00 2.393789e+00 1.875967e+00 2.853147e+00 1.696055e+00 1.984395e+00 2.902702e+00 1.927251e+00 1.398774e+00 1.580957e+00 1.002338e-01 2.423324e-01 3.157189e-01 2.540520e-01 3.105139e-01 2.271809e-01 3.346674e-01 2.848885e-01 3.220773e-01 4.317684e-01 2.750411e-01 2.258045e-01 2.258751e-01
<GCONST> 1.156520e+02
<STATE> 4
<NUMMIXES> 2
<MIXTURE> 1 5.000000e-01
<MEAN> 39
 1.191099e+01 -5.555661e+00 9.809122e+00 2.639541e+01 2.265218e+01 4.654288e+00 -1.828959e+01 7.302659e+00 1.560991e+00 -1.510261e+01 4.043201e+00 -2.246158e+00 -1.045502e+01 1.138903e-01 -3.071550e-01 -1.420646e-03 1.811050e-01 1.710269e-01 -4.072675e-01 -7.053307e-01 -1.627324e-01 1.343912e-01 -1.609238e-01 -1.567152e-01 -7.454380e-02 -1.904716e-01 -5.981953e-03 5.529622e-02 -3.103853e-02 -1.678664e-02 -1.507024e-02 -2.590789e-02 4.844140e-02 -8.910276e-03 -1.840618e-02 3.048136e-02 -5.140663e-02 -1.649033e-02 3.324549e-02
<VARIANCE> 39
 1.938451e+01 6.923461e+01 5.484851e+01 1.077503e+02 1.177360e+02 6.818505e+01 1.468995e+02 5.878138e+01 3.058668e+01 4.832096e+01 5.609033e+01 2.776419e+01 4.583538e+01 5.600837e-01 1.684493e+00 1.802063e+00 1.192556e+00 1.796872e+00 1.426510e+00 2.996758e+00 1.627302e+00 1.353112e+00 2.142237e+00 2.250278e+00 1.235121e+00 1.302390e+00 7.824603e-02 1.916307e-01 2.323055e-01 1.802184e-01 2.587505e-01 2.121931e-01 3.537380e-01 2.698711e-01 2.202549e-01 3.307118e-01 2.841681e-01 1.962515e-01 1.839255e-01
<GCONST> 1.098515e+02
<MIXTURE> 2 5.000000e-01
<MEAN> 39
 1.191099e+01 -5.555661e+00 9.809122e+00 2.639541e+01 2.265218e+01 4.654288e+00 -1.828959e+01 7.302659e+00 1.560991e+00 -1.510261e+01 4.043201e+00 -2.246158e+00 -1.045502e+01 1.138903e-01 -3.071550e-01 -1.420646e-03 1.811050e-01 1.710269e-01 -4.072675e-01 -7.053307e-01 -1.627324e-01 1.343912e-01 -1.609238e-01 -1.567152e-01 -7.454380e-02 -1.904716e-01 -5.981953e-03 5.529622e-02 -3.103853e-02 -1.678664e-02 -1.507024e-02 -2.590789e-02 4.844140e-02 -8.910276e-03 -1.840618e-02 3.048136e-02 -5.140663e-02 -1.649033e-02 3.324549e-02
<VARIANCE> 39
 1.938451e+01 6.923461e+01 5.484851e+01 1.077503e+02 1.177360e+02 6.818505e+01 1.468995e+02 5.878138e+01 3.058668e+01 4.832096e+01 5.609033e+01 2.776419e+01 4.583538e+01 5.600837e-01 1.684493e+00 1.802063e+00 1.192556e+00 1.796872e+00 1.426510e+00 2.996758e+00 1.627302e+00 1.353112e+00 2.142237e+00 2.250278e+00 1.235121e+00 1.302390e+00 7.824603e-02 1.916307e-01 2.323055e-01 1.802184e-01 2.587505e-01 2.121931e-01 3.537380e-01 2.698711e-01 2.202549e-01 3.307118e-01 2.841681e-01 1.962515e-01 1.839255e-01
<GCONST> 1.098515e+02
<TRANSP> 5
 0.000000e+00 1.000000e+00 0.000000e+00 0.000000e+00 0.000000e+00
 0.000000e+00 9.075337e-01 9.246630e-02 0.000000e+00 0.000000e+00
 0.000000e+00 0.000000e+00 9.075336e-01 9.246635e-02 0.000000e+00
 0.000000e+00 0.000000e+00 0.000000e+00 9.075338e-01 9.246609e-02
 0.000000e+00 0.000000e+00 0.000000e+00 0.000000e+00 0.000000e+00
<ENDHMM>
~h "ch"
<BEGINHMM>
<NUMSTATES> 5
<STATE> 2
<NUMMIXES> 2
<MIXTURE> 1 6.023578e-01
<MEAN> 39
 -5.114470e-01 -7.414482e-01 8.805892e+00 1.661861e+01 1.102112e+01 8.107570e+00 -2.464090e+00 9.548040e+00 -1.925167e+00 -1.393585e+01 -3.158077e+00 -1.089581e+00 -3.524384e-01 -2.459441e+00 -1.880012e+00 9.375636e-01 1.750993e-01 -1.385165e+00 7.063925e-01 7.775295e-02 -1.256973e+00 1.606961e+00 2.102601e+00 -1.123199e+00 -4.349692e-01 1.222736e+00 -3.475334e-02 -1.013562e+00 -6.068824e-02 -2.507780e-01 -3.899606e-01 -1.768800e-01 -3.682127e-01 1.540289e-01 -1.097368e-02 -3.758726e-01 3.692600e-01 1.863983e-01 -2.930487e-01
<VARIANCE> 39
 1.370628e+02 8.333241e+01 5.068133e+01 4.547359e+01 4.341099e+01 3.119987e+01 2.522845e+01 5.792199e+01 5.597160e+01 1.419860e+02 4.828083e+01 2.343849e+01 4.195721e+01 1.542728e+00 1.849161e+01 2.218542e+00 2.596873e+00 3.063718e+00 2.166898e+00 3.960742e+00 2.966468e+00 2.411116e+00 8.960437e+00 5.366452e+00 2.487718e+00 4.072644e+00 1.699337e-01 1.357293e+00 3.397968e-01 3.367801e-01 3.372937e-01 4.577806e-01 3.726007e-01 5.144778e-01 5.303382e-01 1.277483e+00 8.971573e-01 5.493122e-01 5.666429e-01
<GCONST> 1.307179e+02
<MIXTURE> 2 3.976419e-01
<MEAN> 39
 -1.612754e+01 -3.108410e+01 1.071797e+01 1.065365e+01 -5.323306e+00 6.546960e+00 -8.824009e+00 5.541767e+00 5.535179e+00 -8.588928e+00 -1.223966e+00 1.910742e+00 1.937020e+00 -5.547519e-01 -4.601324e+00 2.089358e+00 -9.868128e-01 -2.288609e+00 -3.724294e-01 -1.568179e+00 2.532310e-01 3.555015e-01 -4.557559e-01 1.207773e+00 1.023932e+00 -2.462695e-01 1.573244e-01 7.075939e-01 4.441167e-01 1.233594e-01 4.440934e-01 2.362944e-01 6.952852e-03 -1.653849e-01 -1.943395e-01 1.736682e-01 -1.525946e-01 -2.474599e-01 7.434011e-02
<VARIANCE> 39
 3.136542e+01 9.883505e+01 1.054808e+02 3.025856e+01 3.095516e+01 3.286670e+01 2.218768e+01 2.768254e+01 2.654971e+01 2.664053e+01 2.316630e+01 1.736263e+01 1.944183e+01 3.083508e+00 6.999840e+00 4.503056e+00 3.906794e+00 3.736685e+00 3.639936e+00 1.392613e+00 1.447054e+00 1.809535e+00 2.237390e+00 2.555619e+00 2.347060e+00 2.243534e+00 3.731053e-01 7.650991e-01 7.786044e-01 3.491529e-01 5.896425e-01 5.821494e-01 2.238658e-01 2.839710e-01 3.049344e-01 4.472516e-01 4.677908e-01 4.504160e-01 4.473015e-01
<GCONST> 1.191690e+02
<STATE> 3
<NUMMIXES> 2
<MIXTURE> 1 9.630017e-01
<MEAN> 39
 -1.741246e+01 -4.170052e+01 2.103507e+01 9.425475e+00 -8.762249e+00 8.418516e+00 -1.300120e+01 5.191082e+00 5.587647e+00 -8.972109e+00 1.494828e+00 2.641048e+00 5.349442e-01 -1.699717e-01 -1.633567e+00 6.705607e-01 -4.300755e-01 4.170862e-01 9.191754e-01 -1.079558e+00 -6.879497e-01 -3.332804e-01 7.017787e-01 3.605354e-01 -4.402978e-01 1.639625e-02 5.143733e-01 7.291170e-01 -8.888398e-01 -3.144579e-02 5.246458e-01 1.576805e-01 2.303891e-01 -1.427225e-01 -2.314008e-01 1.146704e-01 -6.248393e-02 -1.452961e-01 -3.308976e-02
<VARIANCE> 39
 3.866089e+01 1.953654e+02 6.494186e+01 3.426155e+01 4.612042e+01 1.773944e+01 2.871979e+01 3.249589e+01 3.064265e+01 1.703381e+01 2.345640e+01 1.693037e+01 9.302444e+00 2.083015e+00 3.289528e+00 4.615574e+00 1.047019e+00 1.792330e+00 9.805350e-01 1.130945e+00 1.513365e+00 1.557516e+00 9.561789e-01 1.884505e+00 1.131022e+00 1.200135e+00 3.197923e-01 5.987449e-01 4.172924e-01 1.938209e-01 3.346504e-01 3.341880e-01 2.367976e-01 2.548256e-01 2.050822e-01 2.339105e-01 3.045595e-01 3.680141e-01 2.098878e-01
<GCONST> 1.063179e+02
<MIXTURE> 2 3.699841e-02
<MEAN> 39
 -2.559668e+01 -6.869760e+00 -5.750080e+00 -3.435030e+00 -2.798511e+00 5.581093e-02 -3.649331e+00 2.241653e+00 1.140859e+00 1.068013e+00 7.191820e-01 -6.059775e-01 7.105767e-02 6.855718e-01 -4.133021e-01 -2.902269e-01 5.047480e-01 1.718490e+00 7.619275e-01 2.390554e-01 -1.691890e-01 -1.202227e+00 -6.940013e-01 3.813114e-01 9.888746e-01 5.994147e-01 2.124398e-01 -1.358919e-01 -1.961917e-01 3.743807e-01 3.370010e-01 1.220256e-01 -1.219153e-01 -1.393443e-01 -2.620179e-01 -3.243801e-01 2.205187e-01 4.498257e-01 4.045697e-01
<VARIANCE> 39
 7.333646e-01 6.517685e+00 3.502197e-01 4.067085e+00 4.346581e+00 6.306686e-01 4.970288e+00 4.293903e+00 2.823335e+00 5.034253e+00 1.495765e+00 3.966388e+00 2.338395e+00 6.406080e-01 6.175314e-01 8.311616e-01 1.742792e+00 3.048003e+00 4.062665e-02 1.006277e+00 4.503947e-02 3.372009e-01 3.582380e-01 7.414551e-01 6.129951e-01 7.932874e-01 7.468206e-02 2.268585e-02 1.644981e-02 1.523236e-01 3.655302e-01 7.494071e-02 5.730540e-02 1.979749e-01 5.282865e-02 6.549689e-02 8.983245e-02 2.186681e-01 2.185782e-01
<GCONST> 4.251201e+01
<STATE> 4
<NUMMIXES> 2
<MIXTURE> 1 9.600034e-01
<MEAN> 39
 -1.124473e+01 -3.493959e+01 1.055356e+01 6.402879e+00 -2.943390e+00 1.409000e+01 -8.661250e+00 2.172330e+00 1.532420e+00 -6.375913e+00 3.024507e+00 2.804992e+00 3.094828e+00 5.487144e-01 1.424376e+00 -9.505454e-01 1.326839e-01 7.007588e-01 1.391451e-01 6.600893e-01 -6.244344e-02 -2.575966e-01 2.589801e-01 1.467575e-01 8.194739e-02 1.755570e-01 -2.484362e-02 1.150402e-01 -2.255893e-02 -7.652670e-03 -8.587083e-02 -1.078725e-01 1.397721e-02 6.524324e-03 -1.359470e-03 -9.266438e-02 -4.345374e-02 1.909842e-02 1.600052e-04
<VARIANCE> 39
 5.415098e+01 2.520103e+02 1.191397e+02 5.864666e+01 7.318562e+01 7.415622e+01 1.015290e+02 5.945679e+01 4.391402e+01 4.684857e+01 3.930742e+01 2.346409e+01 3.942358e+01 1.900468e+00 4.012267e+00 2.126666e+00 3.304477e+00 2.697725e+00 3.473610e+00 3.577499e+00 3.440953e+00 2.750952e+00 2.728013e+00 1.557080e+00 1.633712e+00 1.752337e+00 1.470976e-01 3.877677e-01 2.858363e-01 3.103789e-01 3.391093e-01 3.639672e-01 3.977469e-01 3.663486e-01 3.069584e-01 3.732808e-01 2.554929e-01 2.591884e-01 2.569472e-01
<GCONST> 1.221802e+02
<MIXTURE> 2 3.999709e-02
<MEAN> 39
 -1.200216e+01 -4.115224e+01 1.178780e+01 3.298521e-01 -7.556944e+00 1.046115e+01 -1.785645e+01 -4.723012e+00 -1.300683e+00 -1.068038e+01 5.415779e-01 3.132230e+00 1.579908e+00 1.518427e+00 8.312730e-01 -1.092561e+00 -8.398588e-01 -2.896284e-01 7.491734e-01 7.449435e-02 -5.616291e-01 -8.783710e-01 -7.901875e-01 -3.092274e-03 5.723779e-01 7.289488e-01 1.139379e-01 3.052352e-02 2.194857e-01 3.632273e-01 1.910638e-01 3.695011e-01 4.563019e-01 6.345077e-01 2.462329e-01 2.234476e-01 1.759072e-01 -1.059029e-01 1.127498e-02
<VARIANCE> 39
 1.911605e+01 3.218817e+01 2.799001e+01 1.536012e+01 3.991968e+01 2.171280e+01 2.046774e+01 3.737318e+01 1.194744e+01 1.844597e+01 1.594010e+01 8.627963e+00 8.069741e+00 6.977391e-01 7.277722e-01 5.861859e-01 1.245471e+00 5.302927e-01 1.083657e+00 8.592925e-01 1.422120e+00 6.978918e-01 6.511962e-01 4.413061e-01 4.926554e-01 7.217876e-01 7.402193e-02 2.037220e-01 1.196336e-01 1.829798e-01 1.325187e-01 1.106801e-01 1.256760e-01 2.518487e-01 1.025397e-01 1.914202e-01 1.208186e-01 1.224834e-01 1.703787e-01
<GCONST> 8.038351e+01
<TRANSP> 5
 0.000000e+00 1.000000e+00 0.000000e+00 0.000000e+00 0.000000e+00
 0.000000e+00 8.741251e-01 1.258749e-01 0.000000e+00 0.000000e+00
 0.000000e+00 0.000000e+00 5.599189e-01 4.400811e-01 0.000000e+00
 0.000000e+00 0.000000e+00 0.000000e+00 8.940371e-01 1.059629e-01
 0.000000e+00 0.000000e+00 0.000000e+00 0.000000e+00 0.000000e+00
<ENDHMM>
~h "dh"
<BEGINHMM>
<NUMSTATES> 5
<STATE> 2
<NUMMIXES> 2
<MIXTURE> 1 5.000000e-01
<MEAN> 39
 7.482863e+00 5.108420e+00 9.435152e+00 1.560213e+01 1.281921e+01 1.116848e+01 -7.722893e-01 8.813358e+00 -2.266262e+00 -7.300660e+00 4.138024e+00 -1.682860e+00 -1.491264e+00 1.123132e-01 -6.911720e-01 -3.488049e-02 -1.184276e-02 -1.546134e-01 -7.254406e-02 -3.549371e-01 1.181202e-01 1.404835e-01 1.638476e-01 7.901869e-01 -6.533633e-02 -4.540394e-01 2.805890e-02 -8.519692e-02 -6.481918e-02 1.509323e-03 1.938861e-02 -4.327681e-02 -7.475740e-02 2.089467e-02 1.725053e-02 -1.319108e-02 2.045986e-02 8.247207e-03 1.712124e-02
<VARIANCE> 39
 4.196124e+01 1.591480e+02 6.009209e+01 4.268510e+01 6.864502e+01 4.943781e+01 1.043460e+02 3.283801e+01 4.837946e+01 5.590856e+01 1.123356e+02 2.803068e+01 4.476076e+01 9.805380e-01 4.437375e+00 2.439810e+00 2.507385e+00 2.767985e+00 1.738735e+00 2.730404e+00 1.726138e+00 2.887294e+00 2.715825e+00 3.324588e+00 1.463716e+00 1.692142e+00 1.003697e-01 5.261062e-01 3.426605e-01 4.582275e-01 4.284186e-01 2.631449e-01 3.020920e-01 2.613232e-01 4.547078e-01 3.607100e-01 4.807943e-01 2.006171e-01 2.568752e-01
<GCONST> 1.199124e+02
<MIXTURE> 2 5.000000e-01
<MEAN> 39
 7.482863e+00 5.108420e+00 9.435152e+00 1.560213e+01 1.281921e+01 1.116848e+01 -7.722893e-01 8.813358e+00 -2.266262e+00 -7.300660e+00 4.138024e+00 -1.682860e+00 -1.491264e+00 1.123132e-01 -6.911720e-01 -3.488049e-02 -1.184276e-02 -1.546134e-01 -7.254406e-02 -3.549371e-01 1.181202e-01 1.404835e-01 1.638476e-01 7.901869e-01 -6.533633e-02 -4.540394e-01 2.805890e-02 -8.519692e-02 -6.481918e-02 1.509323e-03 1.938861e-02 -4.327681e-02 -7.475740e-02 2.089467e-02 1.725053e-02 -1.319108e-02 2.045986e-02 8.247207e-03 1.712124e-02
<VARIANCE> 39
 4.196124e+01 1.591480e+02 6.009209e+01 4.268510e+01 6.864502e+01 4.943781e+01 1.043460e+02 3.283801e+01 4.837946e+01 5.590856e+01 1.123356e+02 2.803068e+01 4.476076e+01 9.805380e-01 4.437375e+00 2.439810e+00 2.507385e+00 2.767985e+00 1.738735e+00 2.730404e+00 1.726138e+00 2.887294e+00 2.715825e+00 3.324588e+00 1.463716e+00 1.692142e+00 1.003697e-01 5.261062e-01 3.426605e-01 4.582275e-01 4.284186e-01 2.631449e-01 3.020920e-01 2.613232e-01 4.547078e-01 3.607100e-01 4.807943e-01 2.006171e-01 2.568752e-01
<GCONST> 1.199124e+02
<STATE> 3
<NUMMIXES> 2
<MIXTURE> 1 5.000000e-01
<MEAN> 39
 1.172797e+01 -3.664352e+00 5.334066e+00 1.463753e+01 1.299188e+01 7.289551e+00 -8.697699e+00 1.013458e+01 -2.745190e+00 -9.919023e+00 1.200736e+01 -4.277394e-01 -5.354477e+00 2.366702e-01 -4.130408e-01 -2.550084e-01 -4.457948e-02 1.284801e-01 -3.059351e-01 -5.144828e-01 1.681911e-01 -7.721914e-02 -2.825392e-01 3.902411e-01 5.307971e-02 -2.952284e-01 -1.575721e-02 3.043985e-02 -9.311567e-03 4.782526e-03 1.552026e-02 -2.719126e-03 2.772581e-02 7.367572e-03 1.040523e-02 -3.431694e-03 -7.359461e-02 -7.751653e-03 2.687636e-02
<VARIANCE> 39
 4.603684e+01 1.068816e+02 1.010426e+02 6.923270e+01 8.621935e+01 7.399892e+01 1.477234e+02 6.483382e+01 5.694003e+01 7.574307e+01 1.038249e+02 2.869373e+01 5.834621e+01 9.847838e-01 3.621026e+00 2.373312e+00 2.675637e+00 2.742974e+00 1.695595e+00 3.254700e+00 2.234962e+00 2.400917e+00 2.613252e+00 3.575486e+00 1.424796e+00 1.622861e+00 1.190480e-01 4.330292e-01 3.248693e-01 4.224687e-01 3.991184e-01 2.654737e-01 3.620489e-01 3.369553e-01 3.966568e-01 3.762216e-01 4.858398e-01 2.242536e-01 2.393841e-01
<GCONST> 1.231363e+02
<MIXTURE> 2 5.000000e-01
<MEAN> 39
 1.172797e+01 -3.664352e+00 5.334066e+00 1.463753e+01 1.299188e+01 7.289551e+00 -8.697699e+00 1.013458e+01 -2.745190e+00 -9.919023e+00 1.200736e+01 -4.277394e-01 -5.354477e+00 2.366702e-01 -4.130408e-01 -2.550084e-01 -4.457948e-02 1.284801e-01 -3.059351e-01 -5.144828e-01 1.681911e-01 -7.721914e-02 -2.825392e-01 3.902411e-01 5.307971e-02 -2.952284e-01 -1.575721e-02 3.043985e-02 -9.311567e-03 4.782526e-03 1.552026e-02 -2.719126e-03 2.772581e-02 7.367572e-03 1.040523e-02 -3.431694e-03 -7.359461e-02 -7.751653e-03 2.687636e-02
<VARIANCE> 39
 4.603684e+01 1.068816e+02 1.010426e+02 6.923270e+01 8.621935e+01 7.399892e+01 1.477234e+02 6.483382e+01 5.694003e+01 7.574307e+01 1.038249e+02 2.869373e+01 5.834621e+01 9.847838e-01 3.621026e+00 2.373312e+00 2.675637e+00 2.742974e+00 1.695595e+00 3.254700e+00 2.234962e+00 2.400917e+00 2.613252e+00 3.575486e+00 1.424796e+00 1.622861e+00 1.190480e-01 4.330292e-01 3.248693e-01 4.224687e-01 3.991184e-01 2.654737e-01 3.620489e-01 3.369553e-01 3.966568e-01 3.762216e-01 4.858398e-01 2.242536e-01 2.393841e-01
<GCONST> 1.231363e+02
<STATE> 4
<NUMMIXES> 2
<MIXTURE> 1 5.000000e-01
<MEAN> 39
 1.449534e+01 -5.229199e+00 1.112852e+00 1.276776e+01 1.442085e+01 3.201589e+00 -1.200159e+01 1.301285e+01 -4.109772e+00 -1.408291e+01 1.256159e+01 -1.461319e-01 -7.401950e+00 -2.121796e-01 2.227189e-01 -2.713788e-02 8.255710e-02 1.175367e-01 -8.796404e-02 1.954468e-01 9.768981e-02 1.015291e-01 2.262590e-02 -4.791246e-01 -1.140609e-01 5.430089e-02 -4.587678e-02 4.206136e-02 1.706940e-02 -1.055773e-02 -5.614085e-02 2.279458e-02 9.194452e-02 -2.914260e-02 2.114975e-02 5.183527e-02 -5.164682e-02 1.694007e-02 7.109486e-02
<VARIANCE> 39
 4.562700e+01 8.138799e+01 1.371573e+02 8.897192e+01 8.909212e+01 8.488365e+01 1.447505e+02 1.039552e+02 4.977442e+01 7.166256e+01 8.810283e+01 2.188782e+01 6.413382e+01 1.617814e+00 2.987228e+00 2.391704e+00 1.774863e+00 1.784995e+00 1.563657e+00 3.396655e+00 2.711628e+00 1.927586e+00 3.201287e+00 3.233371e+00 1.213813e+00 1.572514e+00 1.513161e-01 3.327592e-01 2.925945e-01 2.524865e-01 2.540032e-01 1.962140e-01 3.654040e-01 3.965279e-01 2.752737e-01 4.010535e-01 4.228323e-01 2.189011e-01 2.004017e-01
<GCONST> 1.209531e+02
<MIXTURE> 2 5.000000e-01
<MEAN> 39
 1.449534e+01 -5.229199e+00 1.112852e+00 1.276776e+01 1.442085e+01 3.201589e+00 -1.200159e+01 1.301285e+01 -4.109772e+00 -1.408291e+01 1.256159e+01 -1.461319e-01 -7.401950e+00 -2.121796e-01 2.227189e-01 -2.713788e-02 8.255710e-02 1.175367e-01 -8.796404e-02 1.954468e-01 9.768981e-02 1.015291e-01 2.262590e-02 -4.791246e-01 -1.140609e-01 5.430089e-02 -4.587678e-02 4.206136e-02 1.706940e-02 -1.055773e-02 -5.614085e-02 2.279458e-02 9.194452e-02 -2.914260e-02 2.114975e-02 5.183527e-02 -5.164682e-02 1.694007e-02 7.109486e-02
<VARIANCE> 39
 4.562700e+01 8.138799e+01 1.371573e+02 8.897192e+01 8.909212e+01 8.488365e+01 1.447505e+02 1.039552e+02 4.977442e+01 7.166256e+01 8.810283e+01 2.188782e+01 6.413382e+01 1.617814e+00 2.987228e+00 2.391704e+00 1.774863e+00 1.784995e+00 1.563657e+00 3.396655e+00 2.711628e+00 1.927586e+00 3.201287e+00 3.233371e+00 1.213813e+00 1.572514e+00 1.513161e-01 3.327592e-01 2.925945e-01 2.524865e-01 2.540032e-01 1.962140e-01 3.654040e-01 3.965279e-01 2.752737e-01 4.010535e-01 4.228323e-01 2.189011e-01 2.004017e-01
<GCONST> 1.209531e+02
<TRANSP> 5
 0.000000e+00 1.000000e+00 0.000000e+00 0.000000e+00 0.000000e+00
 0.000000e+00 9.175751e-01 8.242494e-02 0.000000e+00 0.000000e+00
 0.000000e+00 0.000000e+00 9.175752e-01 8.242475e-02 0.000000e+00
 0.000000e+00 0.000000e+00 0.000000e+00 9.175754e-01 8.242466e-02
 0.000000e+00 0.000000e+00 0.000000e+00 0.000000e+00 0.000000e+00
<ENDHMM>
~h "dx"
<BEGINHMM>
<NUMSTATES> 5
<STATE> 2
<NUMMIXES> 2
<MIXTURE> 1 5.000000e-01
<MEAN> 39
 7.688206e+00 2.415430e+00 6.547884e+00 1.879072e+01 2.123833e+01 9.255288e+00 -7.357596e+00 8.074442e+00 -5.437557e+00 -1.182181e+01 5.012890e+00 -1.914773e+00 -6.061425e+00 -1.315109e-02 -5.960991e-01 -8.778059e-02 3.209027e-01 1.965798e-01 -1.100127e-01 -1.710491e-01 2.155299e-01 7.580009e-02 4.594260e-02 4.016119e-01 3.142671e-02 -1.911296e-01 2.385766e-02 -5.575618e-02 -4.515945e-02 -8.503899e-03 -9.218464e-03 -4.339838e-02 -3.926872e-02 -6.373643e-03 1.054582e-03 1.260022e-03 1.437467e-02 1.075606e-02 9.696004e-03
<VARIANCE> 39
 6.105480e+01 2.078386e+02 7.698656e+01 5.486200e+01 7.140401e+01 1.002706e+02 2.764786e+02 4.457857e+01 6.049928e+01 1.028586e+02 1.306888e+02 2.126903e+01 6.075144e+01 1.569371e+00 5.077582e+00 2.174219e+00 1.608396e+00 2.197494e+00 2.097969e+00 4.314011e+00 2.103966e+00 3.042590e+00 3.331923e+00 3.987165e+00 1.180396e+00 1.869682e+00 1.345623e-01 4.383457e-01 2.609608e-01 2.223640e-01 3.161569e-01 2.147249e-01 3.745005e-01 2.742779e-01 4.634722e-01 3.976172e-01 5.276430e-01 1.721802e-01 2.711510e-01
<GCONST> 1.240571e+02
<MIXTURE> 2 5.000000e-01
<MEAN> 39
 7.688206e+00 2.415430e+00 6.547884e+00 1.879072e+01 2.123833e+01 9.255288e+00 -7.357596e+00 8.074442e+00 -5.437557e+00 -1.182181e+01 5.012890e+00 -1.914773e+00 -6.061425e+00 -1.315109e-02 -5.960991e-01 -8.778059e-02 3.209027e-01 1.965798e-01 -1.100127e-01 -1.710491e-01 2.155299e-01 7.580009e-02 4.594260e-02 4.016119e-01 3.142671e-02 -1.911296e-01 2.385766e-02 -5.575618e-02 -4.515945e-02 -8.503899e-03 -9.218464e-03 -4.339838e-02 -3.926872e-02 -6.373643e-03 1.054582e-03 1.260022e-03 1.437467e-02 1.075606e-02 9.696004e-03
<VARIANCE> 39
 6.105480e+01 2.078386e+02 7.698656e+01 5.486200e+01 7.140401e+01 1.002706e+02 2.764786e+02 4.457857e+01 6.049928e+01 1.028586e+02 1.306888e+02 2.126903e+01 6.075144e+01 1.569371e+00 5.077582e+00 2.174219e+00 1.608396e+00 2.197494e+00 2.097969e+00 4.314011e+00 2.103966e+00 3.042590e+00 3.331923e+00 3.987165e+00 1.180396e+00 1.869682e+00 1.345623e-01 4.383457e-01 2.609608e-01 2.223640e-01 3.161569e-01 2.147249e-01 3.745005e-01 2.742779e-01 4.634722e-01 3.976172e-01 5.276430e-01 1.721802e-01 2.711510e-01
<GCONST> 1.240571e+02
<STATE> 3
<NUMMIXES> 2
<MIXTURE> 1 5.000000e-01
<MEAN> 39
 8.894876e+00 -3.074434e+00 5.000150e+00 2.137529e+01 2.295371e+01 6.772341e+00 -1.084357e+01 8.459833e+00 -6.056492e+00 -1.296327e+01 7.610510e+00 -1.682015e+00 -7.749517e+00 1.230662e-01 -5.636761e-01 -1.545167e-01 2.210121e-01 1.837660e-01 -2.873575e-01 -4.747056e-01 7.201405e-03 -7.711677e-02 -2.129797e-01 2.377785e-01 6.715620e-02 -1.911715e-01 1.605670e-04 4.096889e-02 1.753202e-03 -3.295713e-02 -2.193905e-02 -9.094748e-03 -9.170011e-03 -1.880845e-02 4.262208e-04 -1.603427e-02 -3.614939e-02 9.135371e-03 1.734587e-02
<VARIANCE> 39
 6.485260e+01 1.770424e+02 7.484983e+01 8.327322e+01 8.074072e+01 9.777226e+01 2.566418e+02 5.361528e+01 6.328735e+01 1.119266e+02 1.012212e+02 2.481146e+01 6.265454e+01 1.732126e+00 5.994069e+00 2.297061e+00 2.165555e+00 3.213175e+00 2.188728e+00 5.644578e+00 2.338146e+00 3.866378e+00 4.116863e+00 4.618811e+00 1.254802e+00 2.257378e+00 1.563942e-01 5.513059e-01 3.054904e-01 2.952947e-01 4.491833e-01 2.390727e-01 4.592389e-01 3.346157e-01 6.028108e-01 4.647935e-01 6.218294e-01 1.957274e-01 2.923011e-01
<GCONST> 1.293432e+02
<MIXTURE> 2 5.000000e-01
<MEAN> 39
 8.894876e+00 -3.074434e+00 5.000150e+00 2.137529e+01 2.295371e+01 6.772341e+00 -1.084357e+01 8.459833e+00 -6.056492e+00 -1.296327e+01 7.610510e+00 -1.682015e+00 -7.749517e+00 1.230662e-01 -5.636761e-01 -1.545167e-01 2.210121e-01 1.837660e-01 -2.873575e-01 -4.747056e-01 7.201405e-03 -7.711677e-02 -2.129797e-01 2.377785e-01 6.715620e-02 -1.911715e-01 1.605670e-04 4.096889e-02 1.753202e-03 -3.295713e-02 -2.193905e-02 -9.094748e-03 -9.170011e-03 -1.880845e-02 4.262208e-04 -1.603427e-02 -3.614939e-02 9.135371e-03 1.734587e-02
<VARIANCE> 39
 6.485260e+01 1.770424e+02 7.484983e+01 8.327322e+01 8.074072e+01 9.777226e+01 2.566418e+02 5.361528e+01 6.328735e+01 1.119266e+02 1.012212e+02 2.481146e+01 6.265454e+01 1.732126e+00 5.994069e+00 2.297061e+00 2.165555e+00 3.213175e+00 2.188728e+00 5.644578e+00 2.338146e+00 3.866378e+00 4.116863e+00 4.618811e+00 1.254802e+00 2.257378e+00 1.563942e-01 5.513059e-01 3.054904e-01 2.952947e-01 4.491833e-01 2.390727e-01 4.592389e-01 3.346157e-01 6.028108e-01 4.647935e-01 6.218294e-01 1.957274e-01 2.923011e-01
<GCONST> 1.293432e+02
<STATE> 4
<NUMMIXES> 2
<MIXTURE> 1 5.000000e-01
<MEAN> 39
 1.000577e+01 -6.422071e+00 4.002625e+00 2.273225e+01 2.454432e+01 4.615267e+00 -1.502077e+01 7.810973e+00 -7.114261e+00 -1.550359e+01 8.514682e+00 -1.093888e+00 -9.392688e+00 -3.190344e-02 -4.736628e-02 -9.592715e-02 -1.273163e-01 -1.028172e-01 -1.771301e-01 -1.974425e-01 -5.611943e-02 1.301137e-02 -2.014847e-01 -9.897791e-02 1.754068e-01 3.424835e-02 -9.068669e-03 4.125207e-02 -1.834369e-02 -3.526117e-02 -5.811385e-02 2.476406e-02 1.051812e-01 -1.524307e-02 -1.985950e-02 9.420956e-03 -5.177987e-02 8.561268e-03 5.022487e-02
<VARIANCE> 39
 8.083397e+01 1.478779e+02 6.745435e+01 1.087569e+02 1.035180e+02 9.902112e+01 2.318338e+02 6.153875e+01 6.262448e+01 1.239092e+02 7.968703e+01 2.829488e+01 7.286642e+01 1.630814e+00 4.252835e+00 1.684468e+00 2.058795e+00 3.137846e+00 1.720162e+00 4.586914e+00 2.402010e+00 3.214346e+00 3.472451e+00 3.650026e+00 1.108535e+00 1.861234e+00 1.363299e-01 4.153101e-01 2.268593e-01 2.548161e-01 3.887017e-01 2.125227e-01 4.440549e-01 3.282309e-01 4.924211e-01 4.109845e-01 4.898053e-01 1.677613e-01 2.263073e-01
<GCONST> 1.257067e+02
<MIXTURE> 2 5.000000e-01
<MEAN> 39
 1.000577e+01 -6.422071e+00 4.002625e+00 2.273225e+01 2.454432e+01 4.615267e+00 -1.502077e+01 7.810973e+00 -7.114261e+00 -1.550359e+01 8.514682e+00 -1.093888e+00 -9.392688e+00 -3.190344e-02 -4.736628e-02 -9.592715e-02 -1.273163e-01 -1.028172e-01 -1.771301e-01 -1.974425e-01 -5.611943e-02 1.301137e-02 -2.014847e-01 -9.897791e-02 1.754068e-01 3.424835e-02 -9.068669e-03 4.125207e-02 -1.834369e-02 -3.526117e-02 -5.811385e-02 2.476406e-02 1.051812e-01 -1.524307e-02 -1.985950e-02 9.420956e-03 -5.177987e-02 8.561268e-03 5.022487e-02
<VARIANCE> 39
 8.083397e+01 1.478779e+02 6.745435e+01 1.087569e+02 1.035180e+02 9.902112e+01 2.318338e+02 6.153875e+01 6.262448e+01 1.239092e+02 7.968703e+01 2.829488e+01 7.286642e+01 1.630814e+00 4.252835e+00 1.684468e+00 2.058795e+00 3.137846e+00 1.720162e+00 4.586914e+00 2.402010e+00 3.214346e+00 3.472451e+00 3.650026e+00 1.108535e+00 1.861234e+00 1.363299e-01 4.153101e-01 2.268593e-01 2.548161e-01 3.887017e-01 2.125227e-01 4.440549e-01 3.282309e-01 4.924211e-01 4.109845e-01 4.898053e-01 1.677613e-01 2.263073e-01
<GCONST> 1.257067e+02
<TRANSP> 5
 0.000000e+00 1.000000e+00 0.000000e+00 0.000000e+00 0.000000e+00
 0.000000e+00 8.948717e-01 1.051283e-01 0.000000e+00 0.000000e+00
 0.000000e+00 0.000000e+00 8.948714e-01 1.051286e-01 0.000000e+00
 0.000000e+00 0.000000e+00 0.000000e+00 8.948718e-01 1.051283e-01
 0.000000e+00 0.000000e+00 0.000000e+00 0.000000e+00 0.000000e+00
<ENDHMM>
~h "ee"
<BEGINHMM>
<NUMSTATES> 7
<STATE> 2
<NUMMIXES> 2
<MIXTURE> 1 4.197686e-01
<MEAN> 39
 2.510714e+00 -1.058247e+01 3.683771e+00 1.435142e+01 1.460732e+01 5.993350e+00 -1.421208e+01 3.978017e+00 -7.234033e+00 -1.053359e+01 8.825621e+00 -2.705572e+00 -4.552560e+00 2.063106e+00 -5.997717e-03 -4.232012e-01 1.330595e+00 1.995363e+00 -9.295961e-01 -2.175328e+00 4.914904e-01 -6.270664e-01 -1.908767e+00 1.312085e+00 1.681365e-01 -1.638402e+00 -1.643559e-01 -9.040430e-02 -6.506107e-02 -1.451285e-01 3.107340e-02 -1.416683e-01 -1.800442e-01 8.199674e-02 -6.503612e-03 -1.031182e-01 4.151149e-02 3.155588e-02 -9.054312e-02
<VARIANCE> 39
 1.655966e+02 9.375880e+01 9.103859e+01 1.104050e+02 1.027672e+02 8.742424e+01 1.005065e+02 5.503493e+01 6.811830e+01 7.767658e+01 7.866473e+01 3.043581e+01 5.452142e+01 4.068198e+00 5.023997e+00 5.910866e+00 4.439230e+00 4.529786e+00 4.219751e+00 5.895703e+00 4.013647e+00 4.419838e+00 5.806636e+00 4.805872e+00 2.069321e+00 3.595702e+00 4.819496e-01 5.855837e-01 7.010373e-01 5.970006e-01 5.896922e-01 4.976520e-01 8.213424e-01 5.577226e-01 7.440260e-01 8.828380e-01 7.527466e-01 3.133191e-01 5.491178e-01
<GCONST> 1.412314e+02
<MIXTURE> 2 5.802296e-01
<MEAN> 39
 9.790832e+00 -1.148733e+01 2.214334e+00 1.796289e+01 2.326712e+01 -4.283171e-01 -2.654761e+01 6.771043e+00 -7.271295e+00 -1.922398e+01 1.118164e+01 -5.221293e-01 -1.113331e+01 -6.153963e-02 -2.634632e-01 6.979307e-02 -8.813646e-02 1.938862e-01 -1.202454e-01 -5.009710e-01 -8.671284e-03 4.709163e-02 -7.874371e-03 1.485719e-01 -3.184360e-02 -1.445339e-01 -4.632130e-02 5.546382e-02 2.501879e-02 6.745692e-03 -3.922464e-02 4.059204e-02 1.274971e-01 1.815494e-02 1.596003e-02 6.496297e-02 -4.242586e-02 -1.435676e-02 4.895324e-02
<VARIANCE> 39
 2.048289e+02 6.559631e+01 7.718523e+01 1.233647e+02 1.488202e+02 3.989218e+01 1.632151e+02 6.542377e+01 4.633298e+01 1.018204e+02 8.574196e+01 2.341914e+01 5.516700e+01 5.478679e-01 5.878959e-01 7.958881e-01 8.920457e-01 8.288484e-01 7.951467e-01 1.856284e+00 1.710864e+00 9.431497e-01 1.437195e+00 1.564139e+00 6.998279e-01 8.680600e-01 8.661807e-02 9.642016e-02 1.097594e-01 1.230031e-01 1.387950e-01 1.249796e-01 2.633764e-01 2.743514e-01 1.607862e-01 2.560650e-01 2.414807e-01 1.239291e-01 1.444487e-01
<GCONST> 1.034937e+02
<STATE> 3
<NUMMIXES> 2
<MIXTURE> 1 9.931080e-01
<MEAN> 39
 1.488631e+01 -1.305150e+01 2.111358e+00 1.836922e+01 2.752282e+01 -2.495956e-02 -3.182716e+01 8.670594e+00 -1.200807e+01 -2.428478e+01 1.910156e+01 -1.373641e+00 -1.627441e+01 1.377015e-01 -2.307524e-01 -2.716801e-01 -5.016193e-03 8.135100e-01 -8.795645e-01 -1.389760e+00 7.785401e-01 -1.777452e-01 -8.862796e-01 7.813880e-01 4.232124e-02 -8.228024e-01 -2.181300e-01 1.116513e-01 2.247719e-01 -6.129193e-02 -3.570713e-01 2.670442e-01 5.550857e-01 -2.326341e-01 1.566250e-01 5.024393e-01 -3.805999e-01 -7.002352e-02 3.998637e-01
<VARIANCE> 39
 4.685057e+01 1.838461e+01 3.812550e+01 4.709294e+01 5.055295e+01 2.333234e+01 5.956744e+01 4.967517e+01 3.848131e+01 4.577235e+01 5.867422e+01 2.020074e+01 3.548389e+01 5.644166e-01 6.544501e-01 1.117772e+00 9.790817e-01 1.120177e+00 1.572862e+00 2.434116e+00 2.026138e+00 9.676272e-01 2.140646e+00 1.853465e+00 7.538108e-01 1.272155e+00 1.366694e-01 1.099117e-01 1.818871e-01 1.500136e-01 2.052181e-01 1.592823e-01 3.546695e-01 3.365315e-01 1.883756e-01 4.029583e-01 3.144443e-01 1.195871e-01 2.314899e-01
<GCONST> 1.010064e+02
<MIXTURE> 2 6.891238e-03
<MEAN> 39
 1.441050e+01 -1.322575e+01 1.071954e+01 2.625354e+01 1.999304e+01 7.503605e-02 -3.258272e+01 -3.450656e+00 2.805166e+00 -1.761045e+01 1.019516e+00 -7.088704e-01 -1.389732e+01 6.359052e-02 2.363685e-01 -4.159064e-01 1.119271e-01 1.265926e-01 -2.802435e-01 1.389712e-01 2.450155e-02 -1.520466e-01 1.646671e-02 1.027220e-01 6.723682e-02 -5.683065e-02 -4.236632e-03 8.103964e-02 -1.800384e-03 1.825912e-02 1.805954e-01 -1.706417e-02 -5.979093e-02 1.359091e-02 -1.124995e-01 1.412645e-01 4.247218e-02 -8.523501e-02 6.244123e-02
<VARIANCE> 39
 4.354374e+00 1.411943e+01 1.182523e+01 1.743162e+01 1.626880e+01 3.577174e+01 2.397386e+01 3.085627e+01 1.571132e+01 1.818839e+01 2.534901e+01 7.257051e+00 2.014055e+01 4.258535e-01 4.189653e-01 4.735305e-01 3.590866e-01 3.541303e-01 4.474197e-01 3.833330e-01 4.657700e-01 3.832728e-01 6.402282e-01 3.715566e-01 2.942666e-01 3.415390e-01 5.097792e-02 6.258891e-02 5.327170e-02 4.392733e-02 6.811203e-02 8.150402e-02 8.676223e-02 7.935438e-02 5.805689e-02 1.040244e-01 4.483294e-02 7.461551e-02 5.005530e-02
<GCONST> 6.043509e+01
<STATE> 4
<NUMMIXES> 2
<MIXTURE> 1 9.581584e-01
<MEAN> 39
 1.432355e+01 -1.273401e+01 3.443180e+00 1.948848e+01 2.884758e+01 -2.219855e+00 -3.359291e+01 7.531430e+00 -9.973044e+00 -2.290926e+01 1.594670e+01 -8.756001e-01 -1.591801e+01 -1.251276e-01 4.676343e-03 1.092937e-01 5.968223e-02 7.916538e-02 -1.136643e-01 -8.390498e-02 -4.063325e-02 -1.960206e-02 9.575886e-02 6.160427e-02 -1.269933e-01 -1.332376e-01 3.429988e-02 5.016308e-02 2.030456e-02 4.086852e-02 -8.590694e-02 1.479306e-01 1.791962e-01 -3.352407e-02 3.576023e-03 6.124503e-02 -5.453248e-02 -4.112007e-02 7.411792e-02
<VARIANCE> 39
 8.721878e+00 1.196933e+01 3.815857e+01 2.943828e+01 2.504686e+01 1.411019e+01 3.635843e+01 3.549350e+01 3.249307e+01 2.673576e+01 5.438057e+01 1.359373e+01 2.694363e+01 2.901814e-01 3.249937e-01 5.800666e-01 7.001465e-01 6.048399e-01 6.165370e-01 1.211052e+00 1.085602e+00 6.985387e-01 9.676921e-01 9.886327e-01 5.479013e-01 6.573503e-01 3.707521e-02 4.769051e-02 7.011025e-02 8.094908e-02 8.953223e-02 8.597357e-02 1.716966e-01 1.584039e-01 9.665477e-02 1.456197e-01 1.442239e-01 7.966757e-02 9.897084e-02
<GCONST> 7.662341e+01
<MIXTURE> 2 4.184325e-02
<MEAN> 39
 -1.222618e+01 -7.955081e+00 1.585758e+00 6.819250e+00 6.488911e+00 5.452614e-01 -1.305763e+01 7.464352e-01 -4.443729e+00 -7.428656e+00 6.714463e-01 -9.657407e-01 -2.079027e+00 -1.416027e-01 -1.014467e-01 -1.140206e-01 2.882306e-02 4.031914e-02 -4.983069e-02 3.938897e-02 8.084653e-02 -5.154757e-02 -1.175487e-02 -6.403263e-02 -9.608649e-02 5.936912e-02 -2.951907e-02 2.362346e-02 -2.731790e-02 5.259406e-02 8.455569e-02 1.865020e-01 1.702754e-01 8.773314e-02 1.271245e-01 1.194077e-01 7.359175e-02 4.028749e-02 2.064831e-02
<VARIANCE> 39
 2.999069e+02 1.023206e+02 1.188912e+02 1.686412e+02 1.603350e+02 3.384088e+01 1.675246e+02 3.215511e+01 4.396558e+01 7.023037e+01 2.149741e+01 2.478456e+01 3.260475e+01 2.964400e-01 4.855101e-01 6.227641e-01 6.227697e-01 5.671705e-01 6.397985e-01 7.250002e-01 9.335451e-01 9.561093e-01 1.136564e+00 1.071760e+00 7.625144e-01 5.659166e-01 3.197577e-02 5.382040e-02 7.407078e-02 9.028199e-02 1.026392e-01 1.166618e-01 1.347769e-01 1.573004e-01 1.971635e-01 1.972666e-01 1.746119e-01 1.462159e-01 1.228613e-01
<GCONST> 9.326286e+01
<STATE> 5
<NUMMIXES> 2
<MIXTURE> 1 7.928367e-01
<MEAN> 39
 1.534056e+01 -1.196716e+01 1.714538e+00 1.960222e+01 2.868234e+01 -1.051565e+00 -3.166019e+01 9.486782e+00 -1.202861e+01 -2.408434e+01 2.018724e+01 -1.361841e+00 -1.719057e+01 -2.779427e-01 7.639167e-01 7.729526e-02 2.646385e-01 -3.810971e-01 3.291828e-01 1.233750e+00 -4.156504e-01 2.371336e-01 7.250481e-01 -7.877109e-01 -8.533148e-02 3.832936e-01 -1.027892e-01 2.057602e-01 6.633609e-02 -2.895783e-02 -1.604528e-01 7.432423e-02 2.759440e-01 -9.167328e-02 1.417910e-01 2.315043e-01 -2.834489e-01 -1.796462e-02 1.977345e-01
<VARIANCE> 39
 1.549928e+01 2.047343e+01 4.017687e+01 4.394363e+01 3.246577e+01 2.084947e+01 6.211740e+01 5.061233e+01 3.392191e+01 4.610150e+01 5.529074e+01 2.471875e+01 3.340856e+01 8.727775e-01 1.511666e+00 1.015835e+00 1.051135e+00 1.454667e+00 9.782830e-01 3.994326e+00 2.860811e+00 1.385833e+00 3.240774e+00 3.401832e+00 8.524409e-01 1.707538e+00 1.237542e-01 1.466849e-01 1.511982e-01 1.634039e-01 1.998270e-01 1.362433e-01 4.220715e-01 4.225323e-01 2.097929e-01 4.274385e-01 4.006082e-01 1.366339e-01 2.202470e-01
<GCONST> 1.039342e+02
<MIXTURE> 2 2.071576e-01
<MEAN> 39
 1.331836e+01 -1.352872e+01 6.182686e+00 2.154377e+01 2.894038e+01 -1.972043e+00 -3.527929e+01 7.871763e+00 -7.940699e+00 -2.270641e+01 1.345368e+01 -3.022146e+00 -1.655338e+01 5.735806e-02 1.749067e-01 -1.335710e-01 2.904839e-01 1.022653e-01 1.704032e-01 2.761180e-01 -2.375834e-02 -6.722408e-02 -4.061026e-02 1.864732e-01 -5.019753e-02 -2.273997e-01 -1.852264e-02 9.794804e-02 -3.455332e-02 2.408058e-02 5.544689e-03 5.560949e-02 1.463730e-01 2.070960e-02 -2.494797e-02 1.855462e-02 3.484411e-02 2.216337e-02 8.672334e-03
<VARIANCE> 39
 4.018333e+01 1.901040e+01 4.207795e+01 4.498563e+01 4.737527e+01 1.783786e+01 5.848596e+01 4.524567e+01 3.662187e+01 4.579251e+01 6.232346e+01 1.821997e+01 4.259819e+01 2.904590e-01 4.146362e-01 6.067712e-01 8.877220e-01 6.911483e-01 6.102263e-01 1.437102e+00 1.338533e+00 7.691510e-01 1.155876e+00 1.011030e+00 6.496074e-01 8.262699e-01 4.053968e-02 6.195849e-02 7.579134e-02 1.085665e-01 1.068020e-01 9.770022e-02 2.092406e-01 2.049880e-01 1.242477e-01 1.856550e-01 1.545131e-01 9.631705e-02 1.257438e-01
<GCONST> 8.647086e+01
<STATE> 6
<NUMMIXES> 2
<MIXTURE> 1 4.331785e-01
<MEAN> 39
 8.389208e-01 7.977360e-01 4.426572e+00 1.762834e+01 1.753535e+01 5.007964e+00 -1.088909e+01 2.015625e+00 -5.276048e+00 -9.062696e+00 2.324651e+00 -2.214432e+00 -4.714567e+00 -1.602270e+00 1.183411e+00 6.428184e-01 -6.776325e-01 -1.169738e+00 6.287494e-01 1.672302e+00 -1.963992e-01 6.737686e-01 1.299537e+00 -1.159572e+00 -1.570337e-01 1.039625e+00 -2.050077e-02 -2.461086e-01 -4.195105e-03 -4.295198e-02 7.114169e-02 -6.294101e-02 -2.784832e-01 7.267876e-02 -1.355486e-01 -2.131548e-01 2.920753e-01 3.454678e-02 -1.854500e-01
<VARIANCE> 39
 1.475569e+02 8.013755e+01 5.992912e+01 1.148103e+02 1.051591e+02 5.125691e+01 1.000073e+02 7.263754e+01 6.503663e+01 6.913676e+01 5.209482e+01 3.377499e+01 4.065039e+01 2.209958e+00 4.615242e+00 2.685069e+00 2.930972e+00 3.038697e+00 2.354195e+00 4.744095e+00 4.456576e+00 3.870978e+00 4.286404e+00 4.559093e+00 1.876940e+00 2.606671e+00 1.732353e-01 3.231091e-01 2.880171e-01 3.636667e-01 4.482069e-01 2.939010e-01 5.702689e-01 5.402360e-01 5.870917e-01 5.420108e-01 4.900790e-01 2.649558e-01 2.916262e-01
<GCONST> 1.295193e+02
<MIXTURE> 2 5.668195e-01
<MEAN> 39
 -1.770790e+01 -5.660484e+00 -2.819357e+00 3.815170e+00 3.905911e+00 2.366516e+00 -5.856273e+00 1.919065e+00 -4.321447e+00 -4.597364e+00 3.169996e+00 8.187366e-01 -1.254726e+00 -1.483196e-01 1.198236e-01 5.964954e-02 -7.636494e-02 -1.196907e-01 8.236130e-02 1.773164e-01 -2.372722e-02 6.407389e-02 1.540679e-01 -5.593742e-02 -1.465505e-02 8.703796e-02 9.701862e-03 -3.186225e-02 -2.261559e-02 -1.349319e-02 9.916074e-03 -4.248703e-03 -2.406808e-02 1.126748e-02 -1.944868e-02 -3.388815e-02 2.421701e-02 8.277727e-03 -1.166315e-02
<VARIANCE> 39
 2.245263e+02 6.946899e+01 6.087154e+01 1.218996e+02 1.225283e+02 2.276624e+01 6.406088e+01 2.833239e+01 3.511979e+01 5.287667e+01 3.857194e+01 2.994206e+01 3.147653e+01 2.856145e-01 4.153579e-01 4.607251e-01 6.106948e-01 7.595625e-01 8.501852e-01 1.097049e+00 1.132709e+00 1.199409e+00 1.215306e+00 1.096475e+00 1.012829e+00 7.872034e-01 2.727905e-02 5.676266e-02 7.407704e-02 1.033650e-01 1.354623e-01 1.563458e-01 1.846827e-01 2.083946e-01 2.265670e-01 2.164894e-01 2.055163e-01 1.931500e-01 1.490811e-01
<GCONST> 9.373222e+01
<TRANSP> 7
 0.000000e+00 1.000000e+00 0.000000e+00 0.000000e+00 0.000000e+00 0.000000e+00 0.000000e+00
 0.000000e+00 9.116365e-01 8.836346e-02 0.000000e+00 0.000000e+00 0.000000e+00 0.000000e+00
 0.000000e+00 0.000000e+00 4.660140e-01 5.339860e-01 0.000000e+00 0.000000e+00 0.000000e+00
 0.000000e+00 0.000000e+00 0.000000e+00 3.427329e-01 6.572671e-01 0.000000e+00 0.000000e+00
 0.000000e+00 0.000000e+00 0.000000e+00 0.000000e+00 8.932568e-01 1.067432e-01 0.000000e+00
 0.000000e+00 0.000000e+00 0.000000e+00 0.000000e+00 0.000000e+00 8.827691e-01 1.172309e-01
 0.000000e+00 0.000000e+00 0.000000e+00 0.000000e+00 0.000000e+00 0.000000e+00 0.000000e+00
<ENDHMM>
~h "ei"
<BEGINHMM>
<NUMSTATES> 7
<STATE> 2
<NUMMIXES> 2
<MIXTURE> 1 5.489902e-01
<MEAN> 39
 1.617206e+01 -9.521823e+00 -9.970256e+00 1.058545e+01 1.784889e+01 -1.146034e+00 -2.010775e+01 6.262110e+00 -5.426871e+00 -4.178382e+00 2.404002e+01 4.992153e+00 -4.569345e+00 -1.651785e-02 -3.753258e-03 -6.131001e-02 1.321463e-01 4.991023e-01 -1.030322e-01 -6.766075e-01 -4.208820e-01 -3.855019e-01 -3.387267e-01 6.659622e-02 1.140212e-01 -3.554498e-02 -3.341923e-02 7.828934e-02 8.958722e-02 5.753106e-02 -1.119497e-02 4.473858e-02 6.010100e-02 -3.650107e-02 -2.446509e-02 -3.143774e-02 -1.064721e-01 -3.509908e-02 1.188400e-02
<VARIANCE> 39
 2.182507e+01 2.768845e+01 4.378976e+01 4.454634e+01 6.736519e+01 2.750783e+01 1.152371e+02 6.016022e+01 5.465473e+01 1.742813e+02 4.025716e+01 2.744249e+01 3.582170e+01 4.237654e-01 6.780761e-01 1.087706e+00 9.064828e-01 9.622918e-01 8.586438e-01 1.624998e+00 1.623618e+00 1.105221e+00 1.953190e+00 1.653264e+00 8.808290e-01 8.068441e-01 5.466936e-02 7.650875e-02 1.189986e-01 1.243997e-01 1.297342e-01 1.432339e-01 2.295631e-01 2.572929e-01 1.632010e-01 2.429523e-01 2.493236e-01 1.425028e-01 1.212663e-01
<GCONST> 9.704315e+01
<MIXTURE> 2 4.509979e-01
<MEAN> 39
 1.436529e+01 -7.984685e+00 -8.721489e+00 1.116077e+01 1.673060e+01 -6.403694e-01 -1.899381e+01 4.208243e+00 -6.149710e+00 -5.770773e+00 1.920710e+01 5.115720e+00 -2.480212e+00 5.860598e-01 -2.681139e-01 -5.989759e-01 8.452870e-02 9.138003e-01 -4.018871e-01 -1.264228e+00 -1.471743e-01 -7.273893e-01 -1.003500e+00 3.808311e-01 2.239669e-01 -9.556765e-02 -8.985276e-02 -4.065070e-02 -2.122531e-02 -4.517269e-02 -2.538401e-02 3.169783e-02 2.580444e-02 -4.839737e-02 3.356542e-02 9.416452e-02 -1.052460e-02 6.126908e-03 2.692548e-02
<VARIANCE> 39
 4.970084e+01 4.745138e+01 7.898334e+01 6.923601e+01 9.395411e+01 3.316577e+01 9.318600e+01 8.282573e+01 4.773273e+01 1.101916e+02 6.084027e+01 3.630186e+01 3.927393e+01 1.939243e+00 2.123554e+00 3.610602e+00 1.993555e+00 2.514484e+00 2.166101e+00 3.822467e+00 3.534954e+00 2.903199e+00 4.794366e+00 4.044985e+00 1.896575e+00 1.526169e+00 2.708630e-01 3.196440e-01 5.143455e-01 2.873169e-01 4.522589e-01 3.364111e-01 6.609253e-01 5.470656e-01 5.244833e-01 6.704902e-01 6.313055e-01 2.970970e-01 2.453354e-01
<GCONST> 1.263824e+02
<STATE> 3
<NUMMIXES> 2
<MIXTURE> 1 9.952070e-01
<MEAN> 39
 1.463198e+01 -6.260030e+00 -9.215305e+00 1.540491e+01 2.655074e+01 -7.905302e-01 -2.907053e+01 -1.867722e+00 -1.197920e+01 -1.077822e+01 2.106122e+01 5.577135e+00 -5.460992e+00 -7.896433e-01 7.597187e-01 6.174706e-01 4.299894e-01 -2.747876e-01 2.319580e-01 3.189051e-01 -1.553560e+00 -1.152560e-01 6.043216e-01 -1.047557e+00 2.296706e-01 4.831149e-01 -3.272670e-01 3.102115e-01 3.948617e-01 3.071380e-02 -3.596288e-01 6.842452e-02 4.954194e-01 2.612622e-02 3.389249e-01 3.291942e-01 -4.385635e-01 -2.518560e-02 2.384675e-01
<VARIANCE> 39
 1.934409e+01 2.256260e+01 3.450676e+01 3.404926e+01 2.562745e+01 1.967973e+01 5.491769e+01 9.422805e+01 3.859070e+01 3.411826e+01 3.670569e+01 3.141657e+01 3.399982e+01 1.509031e+00 1.781813e+00 2.924035e+00 1.445518e+00 3.515989e+00 1.750300e+00 5.207551e+00 3.354394e+00 2.295070e+00 2.751115e+00 3.969041e+00 1.458923e+00 1.435714e+00 2.827337e-01 2.932576e-01 5.636926e-01 2.482418e-01 6.366483e-01 2.601646e-01 1.109782e+00 7.022018e-01 5.561311e-01 5.114951e-01 7.874269e-01 2.900879e-01 2.808879e-01
<GCONST> 1.179204e+02
<MIXTURE> 2 4.792722e-03
<MEAN> 39
 3.791866e+00 4.088929e+00 6.773776e+00 2.338317e+01 1.526618e+01 -4.440691e+00 -1.292594e+01 1.118031e+01 7.326293e+00 2.349415e+00 7.783748e+00 -4.826334e+00 -9.028246e+00 -6.136816e-02 -1.906697e-02 -3.384077e-01 -4.250044e-01 -4.983829e-01 -4.044374e-01 -1.392725e-02 1.174683e-01 -1.908768e-01 -1.182586e-01 3.569048e-01 5.299558e-01 -5.020626e-03 -2.117116e-02 7.304145e-02 6.810755e-02 -9.420036e-02 8.547161e-02 3.767911e-01 3.586819e-01 -2.902824e-03 -8.615320e-02 -1.018681e-01 -8.532526e-02 1.010219e-01 1.376731e-03
<VARIANCE> 39
 1.161157e+01 5.991669e+00 1.330408e+01 3.123996e+01 2.619115e+01 1.771609e+01 1.320466e+01 2.492554e+01 3.368479e+01 4.262578e+01 1.798003e+01 1.562371e+01 8.289276e+00 1.273142e-01 5.225598e-01 4.420871e-01 1.352215e+00 8.101584e-01 1.037559e+00 6.224128e-01 8.000275e-01 1.597019e+00 1.125923e+00 1.453976e+00 4.284031e-01 7.127730e-01 2.735543e-02 5.130528e-02 8.259808e-02 1.503111e-01 1.996660e-01 2.562625e-01 3.365288e-01 2.739713e-01 2.201688e-01 1.232683e-01 1.111492e-01 1.709141e-01 1.290975e-01
<GCONST> 7.865594e+01
<STATE> 4
<NUMMIXES> 2
<MIXTURE> 1 1.000000e+00
<MEAN> 39
 2.727485e+00 3.106329e+00 2.605856e+00 2.044201e+01 2.074642e+01 4.618740e-02 -2.095501e+01 -7.236239e+00 -9.028194e+00 -4.782636e+00 1.154126e+01 6.965976e+00 -2.975390e-01 -1.251554e+00 6.617539e-01 1.117983e+00 1.356750e-01 -4.296143e-01 7.056296e-01 1.499668e+00 6.124911e-01 6.939418e-01 6.237020e-01 -5.409003e-01 -1.254880e-01 2.729191e-01 1.576246e-02 -1.095429e-01 -7.685568e-02 -4.162551e-02 9.651458e-02 1.288800e-01 9.731908e-02 2.348903e-01 7.724722e-02 2.822148e-03 1.590160e-01 -1.613891e-02 -8.693156e-02
<VARIANCE> 39
 4.496752e+01 3.134159e+01 5.119036e+01 3.046205e+01 4.138827e+01 3.545757e+01 6.883080e+01 7.541483e+01 5.096675e+01 3.244609e+01 4.632898e+01 3.792340e+01 3.105273e+01 1.286242e+00 1.666040e+00 2.148285e+00 2.175895e+00 3.186251e+00 2.706159e+00 5.004931e+00 5.286385e+00 3.800796e+00 2.521038e+00 3.540427e+00 1.996646e+00 1.704334e+00 1.724844e-01 1.709859e-01 2.628238e-01 3.927985e-01 5.436850e-01 3.714267e-01 7.906252e-01 6.614784e-01 6.137120e-01 4.107934e-01 5.938751e-01 3.510067e-01 2.606914e-01
<GCONST> 1.205942e+02
<MIXTURE> 2 0.000000e+00
<MEAN> 39
 2.451241e-05 -3.945827e-05 -6.578863e-06 -7.152557e-07 -2.774596e-05 1.187921e-04 -1.449883e-05 1.633167e-05 -6.984919e-06 -4.756451e-05 -2.284069e-07 1.892447e-05 7.908791e-06 -7.654307e-09 2.645538e-08 3.352761e-08 1.137960e-07 9.124051e-09 1.990702e-07 1.084991e-07 -6.868504e-08 -1.708395e-08 1.569279e-07 2.568122e-07 2.303568e-08 -8.591451e-08 -1.363271e-02 1.440285e-03 -1.899552e-03 5.156639e-04 -4.873953e-04 -4.111854e-04 -4.649502e-04 -8.853489e-04 -2.279049e-04 -6.240061e-04 -1.173968e-04 -5.409846e-04 -2.049126e-04
<VARIANCE> 39
 9.626150e-06 2.426654e-05 3.815629e-06 1.000000e-30 1.000000e-30 1.000000e-30 2.935529e-06 1.000000e-30 1.143431e-06 1.000000e-30 1.000000e-30 1.000000e-30 1.000000e-30 1.686828e-11 1.000000e-30 1.923581e-10 1.000000e-30 1.000000e-30 2.846718e-10 1.000000e-30 1.000000e-30 2.116707e-11 1.000000e-30 1.000000e-30 1.000000e-30 8.787993e-11 8.329379e-03 3.102372e-04 3.842243e-04 2.258328e-04 2.910108e-04 3.261111e-04 3.767133e-04 3.033899e-04 2.445394e-04 2.236361e-04 1.965368e-04 1.861692e-04 1.587977e-04
<GCONST> -1.600000e+11
<STATE> 5
<NUMMIXES> 2
<MIXTURE> 1 1.000000e+00
<MEAN> 39
 -1.751411e+01 -8.835034e-01 1.842254e+00 8.063931e+00 8.019609e+00 7.084123e+00 -1.262808e+00 5.626957e+00 1.489049e+00 1.988899e+00 5.862164e+00 1.863631e+00 2.055242e-01 -6.941585e-01 -2.329430e-01 -2.560672e-01 -7.064553e-01 -7.041954e-01 2.887100e-03 3.861693e-01 8.835293e-02 1.352485e-01 1.173341e-01 -2.769942e-01 -1.397212e-01 8.711469e-02 4.335068e-02 -2.195943e-02 -3.942948e-02 -1.424378e-02 -2.890889e-02 -1.150879e-01 -1.557755e-01 -1.228901e-01 -1.182087e-01 -9.258474e-02 -1.459791e-02 4.023658e-03 6.693220e-03
<VARIANCE> 39
 1.056402e+02 4.159450e+01 5.599328e+01 1.170819e+02 1.321370e+02 5.046012e+01 4.195245e+01 4.728092e+01 3.816485e+01 2.979490e+01 3.990856e+01 1.942263e+01 1.138157e+01 1.006005e+00 8.704352e-01 1.327743e+00 1.823537e+00 2.374592e+00 2.247011e+00 2.461940e+00 2.546912e+00 2.242151e+00 1.911386e+00 1.672927e+00 1.261483e+00 9.246314e-01 7.791086e-02 1.037147e-01 1.414019e-01 2.178969e-01 2.998455e-01 2.901110e-01 3.037613e-01 3.291276e-01 3.042337e-01 2.898018e-01 2.801146e-01 2.211342e-01 1.650269e-01
<GCONST> 1.077031e+02
<MIXTURE> 2 0.000000e+00
<MEAN> 39
 -1.609325e-06 -8.135103e-07 4.749745e-07 -6.807968e-07 -4.202593e-08 -3.618188e-07 2.407432e-09 2.424931e-07 1.277658e-07 -1.313165e-07 1.412118e-07 2.625166e-07 -2.114102e-07 1.533401e-01 -5.503851e-03 3.785035e-02 1.390424e-03 1.759262e-02 1.390478e-02 1.895499e-02 1.250848e-02 7.013478e-03 6.770252e-03 6.135121e-03 5.650446e-03 4.476010e-03 -1.806013e-01 2.015203e-02 -3.495460e-02 2.499425e-02 1.963463e-02 -3.039902e-02 -3.971753e-02 -2.047334e-02 -8.192796e-04 8.419420e-03 5.635804e-03 4.006127e-03 -1.858771e-03
<VARIANCE> 39
 1.000000e-30 1.000000e-30 1.000000e-30 1.000000e-30 4.588401e-10 1.000000e-30 9.299506e-14 1.000000e-30 1.959961e-10 7.395329e-10 9.354153e-10 1.000000e-30 1.000000e-30 5.519691e-01 1.833294e-02 3.783517e-02 1.655615e-02 2.303718e-02 2.295028e-02 2.466567e-02 1.928537e-02 1.440313e-02 1.338319e-02 1.233723e-02 1.081821e-02 9.576578e-03 1.242094e-01 1.541650e-02 1.599239e-02 1.925049e-02 2.621124e-02 3.162269e-02 3.145853e-02 1.910103e-02 1.752691e-02 1.237346e-02 1.492543e-02 9.388872e-03 1.088586e-02
<GCONST> -8.000000e+10
<STATE> 6
<NUMMIXES> 2
<MIXTURE> 1 1.000000e+00
<MEAN> 39
 -9.453656e+00 -1.156738e+00 1.549295e+00 8.822357e+00 1.033624e+01 6.153556e+00 -5.967533e+00 3.239484e+00 -2.240832e+00 -1.336767e+00 7.836026e+00 2.658860e+00 -2.208449e-01 -6.722703e-01 -2.820032e-02 2.663910e-01 -1.802023e-01 -2.961068e-01 2.413097e-01 3.650259e-01 1.259953e-02 -3.497284e-02 -5.162754e-02 -3.007024e-01 -1.325775e-01 9.366022e-02 4.943238e-02 -9.437544e-02 -3.909311e-02 1.035645e-01 1.344700e-01 -4.370129e-02 -8.544919e-02 9.209759e-02 -4.567184e-02 -9.762115e-02 9.475155e-02 4.639129e-03 -3.068562e-02
<VARIANCE> 39
 2.349632e+02 6.597588e+01 7.585066e+01 1.068047e+02 1.249034e+02 6.953584e+01 9.906229e+01 5.343911e+01 5.443805e+01 5.220871e+01 5.279901e+01 2.574839e+01 1.752154e+01 1.311153e+00 6.377165e-01 1.175238e+00 1.060774e+00 1.209202e+00 1.364582e+00 1.438471e+00 1.234088e+00 1.048751e+00 1.137573e+00 1.112755e+00 8.624527e-01 7.356456e-01 6.451185e-02 1.115472e-01 1.172749e-01 1.090341e-01 1.437299e-01 1.691764e-01 1.786672e-01 2.114563e-01 1.499087e-01 1.483110e-01 1.580354e-01 1.110314e-01 8.242601e-02
<GCONST> 1.003135e+02
<MIXTURE> 2 0.000000e+00
<MEAN> 39
 0.000000e+00 0.000000e+00 0.000000e+00 0.000000e+00 0.000000e+00 0.000000e+00 0.000000e+00 0.000000e+00 0.000000e+00 0.000000e+00 0.000000e+00 0.000000e+00 0.000000e+00 4.237878e-23 -3.786909e-23 1.582470e-23 -1.329638e-24 3.023070e-24 -8.363062e-24 6.443591e-24 -1.243620e-24 4.356885e-25 -2.915257e-24 3.233656e-24 -1.075627e-24 3.332135e-26 -1.259776e-01 9.946360e-03 -3.100975e-02 6.726459e-03 -2.000426e-04 -2.277133e-02 -2.668727e-02 -1.526267e-02 -5.181108e-03 1.760355e-04 -1.211648e-03 -1.074032e-03 -3.869191e-03
<VARIANCE> 39
 1.000000e-30 1.000000e-30 1.000000e-30 1.000000e-30 1.000000e-30 1.000000e-30 1.000000e-30 1.000000e-30 1.000000e-30 1.000000e-30 1.000000e-30 1.000000e-30 1.000000e-30 5.779452e-23 4.550961e-23 7.666999e-24 4.672506e-26 3.242006e-25 2.289604e-24 1.269824e-24 4.119810e-26 1.051707e-26 3.016532e-25 3.258485e-25 3.081342e-26 3.416759e-28 8.857191e-02 9.054033e-03 1.131149e-02 9.210194e-03 1.184606e-02 1.578277e-02 1.645681e-02 1.080695e-02 9.119515e-03 6.624663e-03 7.254379e-03 5.319290e-03 5.618778e-03
<GCONST> -1.300000e+11
<TRANSP> 7
 0.000000e+00 1.000000e+00 0.000000e+00 0.000000e+00 0.000000e+00 0.000000e+00 0.000000e+00
 0.000000e+00 9.481124e-01 5.188760e-02 0.000000e+00 0.000000e+00 0.000000e+00 0.000000e+00
 0.000000e+00 0.000000e+00 7.268353e-01 2.731647e-01 0.000000e+00 0.000000e+00 0.000000e+00
 0.000000e+00 0.000000e+00 0.000000e+00 9.009627e-01 9.903729e-02 0.000000e+00 0.000000e+00
 0.000000e+00 0.000000e+00 0.000000e+00 0.000000e+00 9.167531e-01 8.324699e-02 0.000000e+00
 0.000000e+00 0.000000e+00 0.000000e+00 0.000000e+00 0.000000e+00 2.304479e-02 9.769552e-01
 0.000000e+00 0.000000e+00 0.000000e+00 0.000000e+00 0.000000e+00 0.000000e+00 0.000000e+00
<ENDHMM>
~h "ii"
<BEGINHMM>
<NUMSTATES> 7
<STATE> 2
<NUMMIXES> 2
<MIXTURE> 1 3.137352e-01
<MEAN> 39
 -6.961735e+00 -2.453061e+01 1.682034e+01 1.472532e+01 8.752088e+00 1.445348e+01 -8.407416e+00 2.958994e+00 -4.340032e+00 -7.731845e-01 8.857007e+00 -5.357703e+00 -7.978805e-01 2.309301e+00 1.690075e+00 1.015562e+00 2.983295e+00 2.189760e+00 1.947531e-01 -6.573331e-01 -4.435426e-01 7.900093e-01 -2.379655e-01 -4.216934e-01 -3.191755e-01 -1.055876e+00 3.259850e-01 2.472018e-01 -2.767682e-01 1.319239e-01 3.713897e-01 -3.486461e-01 -7.609282e-01 -2.011490e-01 -9.560972e-02 -6.596962e-01 -3.198678e-01 -7.452647e-02 -3.840010e-01
<VARIANCE> 39
 9.433532e+01 1.679935e+02 1.614569e+02 2.484584e+02 5.497458e+01 1.595746e+02 3.821797e+01 9.293240e+01 6.787069e+01 7.916499e+01 4.533904e+01 2.325538e+01 2.055353e+01 3.224984e+00 7.150411e+00 4.271515e+00 5.425840e+00 3.431623e+00 3.043546e+00 4.689623e+00 2.968639e+00 3.725010e+00 3.828229e+00 3.722983e+00 2.146596e+00 2.190933e+00 3.091741e-01 8.224911e-01 6.624837e-01 6.222433e-01 4.245732e-01 4.779165e-01 7.279291e-01 4.675153e-01 6.146753e-01 6.113533e-01 4.772150e-01 2.795860e-01 3.302269e-01
<GCONST> 1.355266e+02
<MIXTURE> 2 6.862629e-01
<MEAN> 39
 1.024817e+01 -1.259470e+01 1.140231e+01 3.066563e+01 2.551060e+01 5.341483e+00 -2.290978e+01 2.923810e+00 -2.854783e+00 -1.564556e+01 5.667006e+00 -5.121436e+00 -1.215192e+01 9.269028e-01 1.389185e-02 -3.114600e-01 1.068357e+00 1.818709e+00 -1.021426e+00 -2.575310e+00 2.307190e-01 4.257834e-01 -1.864261e+00 -1.934268e-01 1.888707e-01 -1.592725e+00 -3.671590e-01 -1.575569e-01 9.021349e-03 -3.817741e-01 -3.528935e-01 2.899003e-02 3.011959e-01 2.023641e-01 9.822593e-02 2.154711e-01 4.795888e-02 8.627527e-02 2.160330e-01
<VARIANCE> 39
 2.713087e+01 2.810365e+01 8.428528e+01 6.251398e+01 5.293837e+01 7.286766e+01 8.066687e+01 6.084995e+01 5.712260e+01 7.084569e+01 6.627379e+01 2.649803e+01 3.698663e+01 1.780251e+00 2.029072e+00 2.607522e+00 2.813686e+00 3.035415e+00 2.585704e+00 4.700682e+00 2.854735e+00 2.618995e+00 3.694281e+00 2.801487e+00 1.736977e+00 2.048582e+00 1.441564e-01 3.480682e-01 3.190598e-01 3.093596e-01 3.349194e-01 2.510480e-01 5.563807e-01 3.949541e-01 3.904114e-01 5.116744e-01 4.098987e-01 2.733778e-01 2.747085e-01
<GCONST> 1.211398e+02
<STATE> 3
<NUMMIXES> 2
<MIXTURE> 1 1.000000e+00
<MEAN> 39
 1.017556e+01 -9.095636e+00 1.397367e+01 3.213876e+01 2.609536e+01 3.618164e-01 -2.596463e+01 9.085835e+00 5.715351e-01 -1.929194e+01 6.271699e+00 -4.680168e+00 -1.533296e+01 -3.987547e-02 -4.830751e-02 2.039449e-01 1.135792e-01 2.519909e-01 -4.192194e-01 -6.431229e-01 3.000388e-01 2.805272e-01 -5.370176e-01 -3.089691e-01 1.002368e-01 -2.433004e-01 -1.124290e-02 1.999968e-02 -3.688419e-04 -3.275789e-02 -8.785101e-02 8.270257e-02 1.489916e-01 -9.938591e-02 -3.442661e-02 1.462600e-01 -6.333768e-03 -3.694112e-02 7.816591e-02
<VARIANCE> 39
 1.428650e+01 3.836887e+01 4.339716e+01 3.347797e+01 5.422907e+01 2.971887e+01 1.263741e+02 3.842087e+01 4.449714e+01 7.834454e+01 5.977048e+01 2.216551e+01 2.990611e+01 3.453981e-01 5.761993e-01 9.597847e-01 1.017771e+00 1.147383e+00 9.912788e-01 2.118993e+00 1.295955e+00 1.015398e+00 1.579708e+00 1.100105e+00 8.487065e-01 1.001358e+00 4.781508e-02 8.689725e-02 1.037520e-01 1.619893e-01 1.808883e-01 1.450888e-01 3.343397e-01 2.097888e-01 1.543598e-01 2.851329e-01 1.930693e-01 1.509825e-01 1.723399e-01
<GCONST> 9.550410e+01
<MIXTURE> 2 0.000000e+00
<MEAN> 39
 -2.208270e+00 -4.924166e+00 1.908871e+01 1.414313e+01 1.305121e+01 -2.550124e+01 -8.712596e+00 3.256981e+00 -1.020494e+01 -1.600216e+01 -1.043865e+01 -7.724840e+00 -3.884650e+00 -3.069684e-02 5.741307e-02 2.626543e-02 -1.140945e-02 -5.099841e-03 1.462645e-03 -7.175154e-02 2.450622e-02 1.508959e-02 -8.209687e-02 -2.880517e-02 4.053793e-02 1.540386e-02 4.400872e-03 3.426807e-02 -3.873229e-02 -2.918413e-02 4.017396e-02 7.009056e-02 -1.632413e-02 -6.592760e-02 5.973514e-02 5.484207e-02 -7.151864e-03 -6.910361e-03 -2.705606e-03
<VARIANCE> 39
 5.265318e+00 3.126786e+01 2.337614e+01 3.727947e+01 3.152877e+01 2.943056e+01 3.225301e+01 2.729765e+01 2.195340e+01 2.848150e+01 2.092086e+01 3.419135e+01 3.785925e+01 6.421357e-02 2.003726e-01 3.487247e-01 3.611105e-01 4.247755e-01 4.733264e-01 5.225756e-01 5.518345e-01 5.403954e-01 5.455791e-01 4.727846e-01 4.464683e-01 3.817663e-01 9.004888e-03 2.605502e-02 4.109941e-02 5.433235e-02 6.215053e-02 8.339533e-02 8.227700e-02 8.697993e-02 9.257926e-02 8.818587e-02 8.279812e-02 7.263009e-02 6.514387e-02
<GCONST> 6.347967e+01
<STATE> 4
<NUMMIXES> 2
<MIXTURE> 1 8.735350e-01
<MEAN> 39
 1.080970e+01 -1.133317e+01 1.282372e+01 3.244839e+01 2.906210e+01 -1.326885e-01 -3.113220e+01 5.536685e+00 2.994275e+00 -2.039142e+01 2.303380e+00 -3.747027e+00 -1.644795e+01 -4.604683e-02 1.417778e-01 7.569569e-02 6.465265e-02 2.442039e-02 -8.441377e-02 2.175667e-02 1.970959e-02 1.546169e-01 7.426162e-02 -2.267260e-01 -1.768790e-01 -6.105347e-02 4.864065e-02 1.510121e-02 -3.638155e-02 3.095610e-02 -5.525617e-02 6.485312e-02 1.168456e-01 -5.556415e-02 -9.045449e-02 5.301990e-02 3.467780e-02 -2.798085e-02 4.343498e-02
<VARIANCE> 39
 6.990417e+00 1.742756e+01 2.869933e+01 2.435974e+01 2.741959e+01 2.296681e+01 4.250809e+01 2.249939e+01 3.970853e+01 3.097942e+01 5.336293e+01 1.389455e+01 2.565355e+01 1.891110e-01 2.863686e-01 4.714807e-01 6.223520e-01 5.803869e-01 6.265714e-01 9.648106e-01 8.256416e-01 7.416585e-01 7.904766e-01 7.179984e-01 5.446724e-01 5.817732e-01 2.842162e-02 4.178498e-02 5.665113e-02 8.046584e-02 8.365852e-02 8.954151e-02 1.479958e-01 1.210588e-01 9.995347e-02 1.403733e-01 1.064640e-01 9.154409e-02 9.842701e-02
<GCONST> 7.365225e+01
<MIXTURE> 2 1.264633e-01
<MEAN> 39
 1.190408e+01 -1.334628e+01 1.600834e+01 3.317146e+01 2.341179e+01 3.426063e+00 -2.955926e+01 1.830448e+00 9.040745e+00 -1.894107e+01 -5.060938e+00 -3.294367e+00 -1.357717e+01 -1.935568e-02 1.656606e-01 1.442607e-02 2.759431e-02 9.158492e-02 -1.633268e-01 -7.526860e-02 1.027822e-01 1.209428e-01 -2.730657e-02 -2.186609e-01 -1.390174e-01 -5.500202e-02 -5.950231e-02 9.588930e-02 -4.989709e-02 1.601459e-02 1.488909e-01 -2.560448e-02 6.007415e-02 -8.742113e-03 -1.748685e-01 5.661448e-02 1.321573e-01 -5.767902e-02 2.319302e-03
<VARIANCE> 39
 3.279678e+00 1.368943e+01 1.775369e+01 1.692012e+01 1.155383e+01 2.482262e+01 3.461137e+01 2.301998e+01 1.907960e+01 2.901004e+01 2.844599e+01 1.352958e+01 2.129233e+01 2.406241e-01 4.108551e-01 3.993342e-01 4.844899e-01 4.489694e-01 7.363773e-01 6.879748e-01 6.683313e-01 6.514943e-01 6.049052e-01 5.627106e-01 4.405235e-01 5.301656e-01 3.553308e-02 5.495495e-02 5.533345e-02 6.764686e-02 6.591980e-02 9.680375e-02 1.166718e-01 6.869639e-02 9.519023e-02 9.590118e-02 7.676733e-02 7.942686e-02 8.847132e-02
<GCONST> 6.612405e+01
<STATE> 5
<NUMMIXES> 2
<MIXTURE> 1 7.788146e-01
<MEAN> 39
 1.165629e+01 -1.064878e+01 9.601963e+00 2.915704e+01 3.181650e+01 8.901143e-01 -3.043843e+01 8.151951e+00 -4.675196e+00 -2.160522e+01 1.048632e+01 -4.339201e+00 -1.874166e+01 -1.669904e-01 5.389078e-01 -4.222095e-03 2.802763e-01 -2.188480e-01 2.481583e-01 9.053991e-01 -4.266470e-01 8.044638e-02 5.833397e-01 -5.493165e-01 -7.644123e-02 2.980868e-01 -2.669649e-02 1.257723e-01 -6.098844e-02 2.237276e-02 -1.378258e-01 5.614237e-02 2.763526e-01 -1.037644e-01 1.442642e-02 1.622036e-01 -1.412043e-01 3.400085e-02 1.948219e-01
<VARIANCE> 39
 1.170840e+01 3.031247e+01 3.617234e+01 3.323358e+01 3.710271e+01 2.601965e+01 5.895328e+01 3.795556e+01 4.872677e+01 4.129277e+01 6.590322e+01 1.336998e+01 3.216192e+01 5.506172e-01 1.294648e+00 1.040123e+00 1.155076e+00 1.857460e+00 9.886569e-01 3.482142e+00 1.898305e+00 1.304676e+00 2.310271e+00 1.900824e+00 8.680471e-01 1.538100e+00 7.889473e-02 1.267999e-01 1.292545e-01 1.569599e-01 2.247778e-01 1.207282e-01 3.547139e-01 2.790585e-01 1.736279e-01 3.060868e-01 2.555414e-01 1.427289e-01 1.579274e-01
<GCONST> 9.894791e+01
<MIXTURE> 2 2.211862e-01
<MEAN> 39
 1.147404e+01 -1.123080e+01 1.259072e+01 3.341869e+01 2.775457e+01 -7.347240e-01 -3.001337e+01 6.262501e+00 1.893568e+00 -2.186590e+01 2.540384e+00 -4.605634e+00 -1.732475e+01 8.604719e-02 1.072229e-01 -1.550306e-01 1.573427e-01 1.715602e-01 1.805239e-02 5.638771e-03 -8.555119e-02 -1.442698e-01 9.285069e-02 8.234967e-03 -2.047060e-01 -1.196493e-01 1.906688e-02 5.367330e-02 -8.835039e-02 -9.911343e-03 3.649409e-02 4.165486e-03 5.983966e-02 -2.603485e-02 -9.984110e-02 6.684908e-02 8.430871e-02 3.744048e-02 5.107566e-02
<VARIANCE> 39
 1.580511e+01 1.848132e+01 2.860235e+01 3.755432e+01 2.906851e+01 2.918402e+01 5.842145e+01 3.383203e+01 5.158531e+01 5.486337e+01 9.368919e+01 2.009856e+01 3.729623e+01 1.418805e-01 2.340966e-01 4.110563e-01 7.279217e-01 4.954800e-01 6.512437e-01 9.004330e-01 7.402636e-01 7.652918e-01 8.197299e-01 7.768539e-01 5.495991e-01 5.987633e-01 1.850545e-02 3.297225e-02 5.348871e-02 8.640181e-02 6.540373e-02 8.466487e-02 1.243434e-01 1.018699e-01 8.760565e-02 1.287943e-01 9.863485e-02 8.988633e-02 7.576747e-02
<GCONST> 7.566133e+01
<STATE> 6
<NUMMIXES> 2
<MIXTURE> 1 2.685320e-01
<MEAN> 39
 -4.559038e+00 3.452808e+00 9.173334e+00 1.860525e+01 1.496702e+01 5.942266e+00 -5.862828e+00 5.416716e+00 1.593788e+00 -2.719156e+00 -1.147254e+00 -4.488022e+00 -3.730114e+00 -1.601314e+00 8.717639e-01 2.359966e-01 -1.495805e+00 -1.240105e+00 7.901550e-01 1.639149e+00 2.921298e-01 2.621755e-01 9.740787e-01 -3.399822e-02 3.081973e-01 8.122827e-01 7.143244e-03 -2.836989e-01 -2.363188e-02 1.009458e-01 1.111276e-01 -7.475826e-02 -2.793158e-01 -4.730924e-02 -9.948146e-02 -2.170770e-01 1.154482e-01 -9.289902e-03 -1.979264e-01
<VARIANCE> 39
 1.538477e+02 7.903290e+01 7.882747e+01 1.553664e+02 1.152880e+02 5.513497e+01 4.308289e+01 3.745796e+01 4.044026e+01 3.455866e+01 3.042791e+01 2.381538e+01 2.387632e+01 1.182435e+00 3.288835e+00 1.767904e+00 2.337571e+00 2.160331e+00 1.521926e+00 2.780583e+00 1.744108e+00 1.750918e+00 2.093867e+00 1.975874e+00 1.322249e+00 1.799328e+00 9.871369e-02 1.744152e-01 1.977907e-01 2.541091e-01 2.729555e-01 1.690632e-01 2.429164e-01 2.344007e-01 2.252489e-01 2.730096e-01 2.396463e-01 1.626148e-01 2.087202e-01
<GCONST> 1.114392e+02
<MIXTURE> 2 7.314646e-01
<MEAN> 39
 1.095036e+01 -9.285941e+00 1.052665e+01 3.476294e+01 2.936660e+01 -7.289362e-01 -2.701582e+01 4.910082e+00 8.274202e-01 -1.795811e+01 9.406614e-01 -5.915113e+00 -1.501023e+01 -1.987970e-01 6.668948e-01 -1.544873e-01 -2.803259e-01 -3.798410e-01 2.509275e-01 9.929746e-01 -2.143472e-01 -1.960246e-01 7.235914e-01 -1.941884e-01 -1.013850e-01 5.016198e-01 -8.167546e-02 1.263940e-01 4.472867e-02 -1.417996e-01 -1.226132e-01 7.471456e-02 1.769349e-01 3.857577e-02 3.053071e-02 1.076674e-01 -1.988200e-02 3.312974e-02 1.203000e-01
<VARIANCE> 39
 1.222227e+01 3.547525e+01 3.125983e+01 4.103979e+01 4.743561e+01 5.048885e+01 6.259261e+01 4.719444e+01 4.435759e+01 5.157212e+01 6.269838e+01 2.573933e+01 3.255606e+01 5.067844e-01 1.271731e+00 9.822608e-01 1.650229e+00 1.635073e+00 1.383002e+00 2.930197e+00 1.507400e+00 1.316451e+00 2.177618e+00 1.529476e+00 9.467769e-01 1.283919e+00 5.960021e-02 1.143188e-01 1.128556e-01 2.041731e-01 2.088915e-01 1.633860e-01 3.117599e-01 2.204052e-01 1.894653e-01 2.701076e-01 2.094728e-01 1.407576e-01 1.566746e-01
<GCONST> 1.001366e+02
<TRANSP> 7
 0.000000e+00 1.000000e+00 0.000000e+00 0.000000e+00 0.000000e+00 0.000000e+00 0.000000e+00
 0.000000e+00 8.429064e-01 1.570935e-01 0.000000e+00 0.000000e+00 0.000000e+00 0.000000e+00
 0.000000e+00 0.000000e+00 7.271361e-01 2.728639e-01 0.000000e+00 0.000000e+00 0.000000e+00
 0.000000e+00 0.000000e+00 0.000000e+00 7.373433e-01 2.626567e-01 0.000000e+00 0.000000e+00
 0.000000e+00 0.000000e+00 0.000000e+00 0.000000e+00 5.778610e-01 4.221390e-01 0.000000e+00
 0.000000e+00 0.000000e+00 0.000000e+00 0.000000e+00 0.000000e+00 9.162124e-01 8.378753e-02
 0.000000e+00 0.000000e+00 0.000000e+00 0.000000e+00 0.000000e+00 0.000000e+00 0.000000e+00
<ENDHMM>
~h "jh"
<BEGINHMM>
<NUMSTATES> 5
<STATE> 2
<NUMMIXES> 2
<MIXTURE> 1 2.130954e-01
<MEAN> 39
 1.237275e+01 -7.545190e-01 5.444918e+00 2.209404e+01 1.282851e+01 2.967335e+00 7.159674e-01 1.097188e+01 -1.303312e+01 -1.876021e+01 9.646174e-01 1.457071e-02 -1.308154e+00 -1.516274e+00 1.732104e+00 2.104274e+00 3.575945e-02 -6.631275e-01 1.834196e+00 8.314195e-01 -1.242307e+00 3.176095e-01 7.878311e-01 -1.262624e+00 -1.815775e-02 6.109378e-01 -3.283200e-01 4.023284e-02 4.506488e-01 -1.920678e-01 -2.139292e-01 3.559183e-01 -2.681696e-01 -4.439443e-01 7.353225e-01 5.559912e-01 -7.123449e-02 3.654005e-02 1.792631e-01
<VARIANCE> 39
 3.110380e+01 8.577369e+01 6.574463e+01 2.982791e+01 1.566971e+01 4.298992e+01 3.525924e+01 1.471011e+01 6.724188e+01 2.507290e+01 1.048419e+02 1.735859e+01 8.631748e+00 5.244284e-01 2.429421e+00 6.509004e-01 1.030146e+00 1.424799e+00 1.411020e+00 1.280741e+00 1.877911e+00 2.528710e+00 2.463400e+00 2.355843e+00 4.595179e-01 2.020952e+00 2.842995e-02 6.435454e-01 1.135830e-01 2.186138e-01 2.190605e-01 2.184004e-01 5.293161e-01 2.422646e-01 2.548309e-01 2.901436e-01 4.484304e-01 8.959155e-02 3.344770e-01
<GCONST> 1.013294e+02
<MIXTURE> 2 7.869048e-01
<MEAN> 39
 2.102461e-01 -6.153589e+00 2.443348e+01 2.304545e+01 4.327687e+00 1.627880e+01 3.247916e+00 6.049905e+00 -2.545981e+00 -1.290757e+01 -1.942693e-01 7.863570e-01 -3.116074e-01 -2.286700e+00 -3.954035e+00 2.978725e+00 4.704722e-01 -2.139802e+00 1.214801e+00 -2.267836e-01 3.471973e-01 1.652889e+00 -6.286710e-02 8.781803e-01 7.281137e-01 -1.712195e-01 1.290960e-01 -6.698653e-01 -4.116334e-01 -1.992109e-01 -2.861404e-02 -3.797500e-01 -2.988141e-01 1.621071e-01 -2.454377e-01 -1.271960e-01 4.117306e-01 1.431142e-01 -5.094916e-02
<VARIANCE> 39
 4.169373e+01 2.007725e+02 1.246570e+02 2.430807e+01 4.279737e+01 3.262459e+01 1.836422e+01 2.319473e+01 5.260689e+01 3.515854e+01 3.822252e+01 1.879276e+01 1.917457e+01 1.279592e+00 1.233542e+01 3.422315e+00 1.569935e+00 1.826473e+00 3.512242e+00 3.219306e+00 3.967941e+00 2.908837e+00 4.504970e+00 5.422843e+00 1.942715e+00 2.242144e+00 1.757095e-01 2.024240e+00 6.300665e-01 3.073046e-01 4.773475e-01 5.672178e-01 3.122317e-01 9.151350e-01 4.457743e-01 5.998971e-01 6.091561e-01 3.299825e-01 4.097746e-01
<GCONST> 1.246064e+02
<STATE> 3
<NUMMIXES> 2
<MIXTURE> 1 1.700272e-01
<MEAN> 39
 -1.106810e+01 -2.663884e+01 3.024638e+01 1.694261e+01 -9.333407e+00 1.148012e+01 2.147301e+00 1.073844e+01 5.134455e+00 -7.565021e+00 6.776892e+00 4.366216e+00 -3.286952e-02 -1.966119e+00 -6.604543e+00 1.264965e+00 -2.241730e+00 -3.045901e+00 -1.741222e+00 -1.949268e+00 1.449491e+00 4.785339e-01 -8.516856e-01 1.744099e+00 1.846956e+00 1.442026e-01 4.984414e-01 7.784268e-01 -1.720520e-01 8.104545e-02 8.579099e-01 7.468543e-01 -3.952234e-01 -5.284090e-01 -8.447755e-01 -1.676819e-01 -4.492055e-01 -3.744119e-01 4.083837e-01
<VARIANCE> 39
 9.584546e+00 3.889952e+01 3.629135e+00 2.869244e+01 2.169305e+01 2.364140e+01 1.082511e+01 1.273341e+01 1.006754e+01 1.466107e+01 5.746361e+00 1.399750e+01 5.520375e+00 1.361718e+00 1.144181e+00 3.494727e-01 1.838446e+00 1.979840e+00 2.697455e+00 8.152866e-01 2.297656e+00 2.547141e+00 1.257824e+00 4.531939e-01 1.148064e+00 8.919726e-01 1.933166e-01 3.549412e-01 2.967773e-01 4.521081e-01 2.715429e-01 5.026609e-01 1.081446e-01 1.320607e-01 1.322124e-01 3.048404e-01 8.888857e-02 2.704979e-01 4.293182e-02
<GCONST> 8.618576e+01
<MIXTURE> 2 8.299730e-01
<MEAN> 39
 -1.475441e+01 -4.134422e+01 2.963279e+01 1.228488e+01 -8.961811e+00 1.277244e+01 -7.865259e+00 7.827346e+00 -3.119798e-01 -9.571427e+00 9.235714e+00 5.585283e+00 1.471234e+00 -1.474484e-01 -9.560336e-01 -3.670734e-01 -6.391821e-01 3.599894e-02 -2.369835e-01 -8.598316e-01 -6.272731e-01 -6.153224e-01 4.367357e-01 1.215335e-01 -2.204399e-01 1.875584e-01 3.423524e-01 6.327943e-01 -6.675893e-02 2.209003e-01 2.412340e-01 5.853068e-02 2.436513e-01 -3.368703e-02 -3.056188e-02 -4.470063e-02 -2.464779e-01 -1.430506e-01 -6.398637e-02
<VARIANCE> 39
 2.135617e+01 1.028195e+02 2.500282e+01 4.376343e+01 1.476956e+01 1.712183e+01 2.203795e+01 1.257576e+01 2.896693e+01 3.169250e+01 1.786654e+01 1.159829e+01 1.095041e+01 1.306604e+00 3.250834e+00 1.871181e+00 2.343570e+00 1.530330e+00 1.848657e+00 2.627048e+00 1.706356e+00 1.278648e+00 2.691916e+00 1.972724e+00 1.103241e+00 6.807191e-01 1.560904e-01 3.566017e-01 1.838972e-01 1.971412e-01 2.580653e-01 2.448846e-01 1.556472e-01 2.568973e-01 2.612821e-01 4.330651e-01 3.888720e-01 2.353083e-01 1.231329e-01
<GCONST> 1.003187e+02
<STATE> 4
<NUMMIXES> 2
<MIXTURE> 1 8.771314e-01
<MEAN> 39
 -3.979382e+00 -2.522220e+01 2.875003e+01 2.353513e+01 2.096366e+00 1.712537e+01 -5.568834e+00 6.399791e+00 -1.339059e+00 -1.561182e+01 5.419769e+00 4.835594e+00 -1.545547e+00 1.431664e+00 1.934465e+00 -8.785450e-01 1.164782e+00 1.992854e+00 3.032517e-01 -6.469914e-01 -7.622293e-01 -4.731039e-01 -5.107328e-01 -6.656302e-01 -4.293866e-01 -3.009182e-01 5.641551e-02 2.613744e-01 -1.333743e-01 -1.013454e-01 -6.028082e-02 -2.308995e-01 -8.362044e-02 9.687971e-02 -7.596703e-02 5.477931e-03 4.267550e-02 -1.287702e-01 3.609838e-02
<VARIANCE> 39
 5.971322e+01 1.695151e+02 5.614218e+01 6.855109e+01 1.233450e+02 2.475986e+01 4.001406e+01 4.613802e+01 3.211679e+01 4.694600e+01 2.106030e+01 1.481961e+01 2.587584e+01 1.460252e+00 4.742698e+00 3.535888e+00 3.371997e+00 4.181600e+00 9.290642e-01 3.630871e+00 1.889519e+00 1.390052e+00 1.907863e+00 1.535444e+00 1.577429e+00 9.830933e-01 1.341082e-01 4.138100e-01 1.926691e-01 1.788981e-01 1.587064e-01 1.476790e-01 1.653097e-01 1.898974e-01 1.644872e-01 3.055758e-01 1.468808e-01 1.507961e-01 1.113903e-01
<GCONST> 1.080858e+02
<MIXTURE> 2 1.228684e-01
<MEAN> 39
 -8.842287e+00 -4.130450e+01 3.024805e+01 1.328877e+01 -8.344585e+00 1.265608e+01 -7.261714e+00 3.280457e+00 5.070532e+00 -9.130130e+00 6.556647e+00 5.637423e+00 -8.894578e-01 1.040645e+00 -5.840371e-01 -7.972990e-01 6.747298e-03 6.090664e-01 2.638052e-01 -4.993405e-01 -9.661577e-01 -1.105511e+00 -3.823734e-01 6.784751e-01 -2.972108e-02 2.242386e-01 3.429870e-01 1.173607e+00 -5.951907e-02 7.019843e-01 9.842303e-01 7.347184e-01 2.220220e-01 2.075141e-01 1.812130e-02 1.178407e-01 -1.356433e-02 -4.357430e-01 -1.571754e-01
<VARIANCE> 39
 5.636429e+00 2.865616e+01 2.789607e+01 3.824960e+01 7.474945e+00 9.919312e+00 3.202591e+01 3.049535e+01 7.272384e+00 1.446686e+01 9.053040e+00 3.776465e+01 6.241945e+00 2.003901e-01 2.716742e+00 2.726899e+00 1.555068e+00 1.391563e+00 2.751765e-01 1.855259e+00 5.345761e-01 1.040032e+00 2.520399e+00 9.778970e-01 1.380536e+00 3.558488e-01 1.012880e-01 4.227736e-01 2.321275e-01 1.154051e-01 1.247611e-01 1.506219e-01 2.372196e-01 1.926463e-01 6.169948e-02 1.070093e-01 5.245366e-01 7.274295e-01 3.980178e-02
<GCONST> 8.430719e+01
<TRANSP> 5
 0.000000e+00 1.000000e+00 0.000000e+00 0.000000e+00 0.000000e+00
 0.000000e+00 8.815901e-01 1.184098e-01 0.000000e+00 0.000000e+00
 0.000000e+00 0.000000e+00 8.037151e-01 1.962849e-01 0.000000e+00
 0.000000e+00 0.000000e+00 0.000000e+00 4.983352e-01 5.016648e-01
 0.000000e+00 0.000000e+00 0.000000e+00 0.000000e+00 0.000000e+00
<ENDHMM>
~h "kh"
<BEGINHMM>
<NUMSTATES> 5
<STATE> 2
<NUMMIXES> 2
<MIXTURE> 1 4.029911e-01
<MEAN> 39
 -2.338116e+01 -4.259032e+00 -2.953092e+00 1.535974e-01 -5.800519e-01 1.923842e+00 -3.599288e+00 2.276052e+00 -5.190504e-01 9.043306e-02 4.867344e-01 -1.849393e+00 -3.212416e-01 -2.189717e-01 -1.820424e-01 -1.399449e-01 -5.030520e-02 2.133220e-03 -3.857017e-02 3.755957e-02 -1.774835e-02 5.844474e-03 -1.370844e-01 -8.025739e-02 7.624196e-02 1.715133e-01 6.047693e-02 -1.040703e-01 -1.045617e-01 -5.430601e-02 1.283277e-03 6.251565e-02 2.103854e-02 5.562706e-02 -3.974482e-02 -1.430565e-01 -5.286182e-02 4.338992e-02 6.646869e-02
<VARIANCE> 39
 7.179977e+01 2.474823e+01 2.391320e+01 5.291397e+01 5.379234e+01 1.482892e+01 1.670268e+01 1.532946e+01 1.508921e+01 1.589389e+01 1.079638e+01 8.063237e+00 8.642091e+00 3.356044e-01 3.162643e-01 3.674552e-01 5.937819e-01 7.527630e-01 1.267695e+00 8.670546e-01 1.066263e+00 1.217158e+00 1.242312e+00 1.166260e+00 7.497261e-01 9.068803e-01 4.788855e-02 6.833747e-02 7.668403e-02 1.000037e-01 1.502665e-01 2.244429e-01 1.738755e-01 2.030732e-01 2.188262e-01 2.599783e-01 2.440041e-01 1.405519e-01 2.091768e-01
<GCONST> 8.179406e+01
<MIXTURE> 2 5.970091e-01
<MEAN> 39
 -1.884448e+00 1.057263e+00 4.503736e+00 1.859735e+01 1.836965e+01 5.899687e+00 -9.158137e+00 3.566646e+00 -1.890963e+00 -5.310119e+00 2.107662e+00 -2.789004e+00 -3.825037e+00 -2.104725e+00 2.351160e-01 -2.987821e-01 -1.348771e+00 -1.273250e+00 6.232719e-01 1.367367e+00 -5.483682e-01 -6.632182e-02 6.187264e-01 -1.085821e+00 4.671794e-02 1.308308e+00 -1.185097e-02 -5.834039e-01 -4.070190e-01 -3.613533e-01 -2.553081e-01 -2.848256e-02 -2.482288e-02 1.091902e-01 -1.190137e-01 -2.022783e-01 9.874292e-02 -7.758873e-03 5.215290e-02
<VARIANCE> 39
 1.050836e+02 5.924069e+01 2.737518e+01 9.597595e+01 1.341554e+02 3.549081e+01 7.721537e+01 3.320967e+01 4.124481e+01 5.721391e+01 5.938663e+01 2.901013e+01 6.942453e+01 1.574570e+00 4.466040e+00 1.435751e+00 1.883982e+00 2.580036e+00 2.605249e+00 4.221220e+00 1.999785e+00 3.651891e+00 4.447917e+00 2.264143e+00 1.112399e+00 3.454885e+00 1.361998e-01 5.963275e-01 2.768347e-01 3.328850e-01 4.456968e-01 3.064422e-01 3.538733e-01 3.733737e-01 5.827307e-01 5.442120e-01 4.749796e-01 2.415532e-01 5.395344e-01
<GCONST> 1.231582e+02
<STATE> 3
<NUMMIXES> 2
<MIXTURE> 1 5.167353e-01
<MEAN> 39
 -1.044662e+01 -1.832582e+00 7.622161e-01 1.192389e+01 1.284926e+01 9.025732e+00 -3.069286e+00 3.630376e+00 -8.283124e-01 -2.854376e+00 -1.514566e+00 -2.596666e+00 1.715210e+00 -1.016957e+00 -3.307789e+00 -2.805864e+00 -2.862831e+00 -2.471431e+00 -6.261176e-02 5.999425e-01 -1.017007e-01 -6.409710e-01 -2.240904e-01 1.972501e-01 -1.457455e-01 8.786635e-01 7.978773e-01 -6.668311e-01 -4.789547e-01 -3.260745e-01 -3.321777e-01 -3.995452e-01 -6.653748e-01 -1.982785e-01 -4.074829e-01 -1.530056e-01 7.645566e-01 -9.634264e-02 -3.673400e-01
<VARIANCE> 39
 5.101189e+01 3.898684e+01 3.179008e+01 5.009278e+01 5.639555e+01 3.978336e+01 3.199393e+01 3.196006e+01 3.039986e+01 2.693289e+01 3.299342e+01 2.528852e+01 2.283332e+01 3.279983e+00 4.653225e+00 3.007259e+00 3.541394e+00 4.323755e+00 5.482881e+00 6.223670e+00 3.336233e+00 3.711397e+00 2.953166e+00 4.959616e+00 2.398652e+00 2.882405e+00 2.096969e-01 4.571928e-01 4.510916e-01 3.492286e-01 5.291096e-01 4.585921e-01 5.635481e-01 4.513383e-01 5.177117e-01 4.863822e-01 6.057132e-01 3.064032e-01 4.848269e-01
<GCONST> 1.243078e+02
<MIXTURE> 2 4.832649e-01
<MEAN> 39
 -6.952606e+00 -1.888371e+01 -1.089383e+01 -1.112108e-01 2.986306e+00 9.499828e+00 -5.839578e+00 -8.660204e-01 -9.218085e+00 -4.151064e+00 7.639441e+00 -3.605286e+00 1.705421e+00 1.639217e+00 -2.966341e+00 -7.684526e-01 -1.722610e+00 -1.825986e+00 2.782816e-01 -1.433961e+00 -1.418804e+00 -2.357062e+00 -7.457536e-01 2.781212e+00 1.452074e-01 -3.891940e-01 1.754220e-01 7.707105e-01 1.225070e+00 9.513538e-01 5.506901e-01 2.755331e-01 1.036429e-02 7.068442e-02 1.759507e-01 -7.922090e-02 -1.802089e-01 1.852861e-01 -7.138386e-03
<VARIANCE> 39
 5.347499e+01 5.053757e+01 2.409473e+01 3.463354e+01 7.781708e+01 1.476499e+02 8.216261e+01 8.466142e+01 6.403053e+01 4.845906e+01 9.136888e+01 4.200893e+01 2.269131e+01 2.328939e+00 3.256304e+00 5.837207e+00 4.219110e+00 3.743667e+00 5.171574e+00 3.828339e+00 3.216949e+00 4.577984e+00 3.676762e+00 4.544491e+00 2.631388e+00 2.624046e+00 4.598218e-01 2.772056e-01 3.318624e-01 3.735889e-01 3.180415e-01 4.238112e-01 6.343357e-01 5.855482e-01 1.001756e+00 6.199226e-01 9.930153e-01 3.972025e-01 5.658577e-01
<GCONST> 1.317727e+02
<STATE> 4
<NUMMIXES> 2
<MIXTURE> 1 8.092173e-01
<MEAN> 39
 -5.191221e+00 -2.780627e+01 3.675861e-01 7.580775e+00 -1.387119e-02 7.923116e+00 -1.305985e+01 -2.846823e+00 -9.797090e+00 -7.403625e+00 9.778993e+00 -3.925125e+00 7.962031e-01 3.756919e-01 6.481606e-02 1.082798e+00 1.061165e+00 3.141953e-01 3.443969e-01 2.166691e-01 1.113941e-01 7.223272e-02 6.731361e-02 4.890234e-01 2.875490e-01 4.461706e-03 -9.751271e-02 3.285338e-01 -6.850335e-02 6.906267e-02 1.443419e-01 -8.629321e-02 1.479260e-01 1.055635e-01 1.719536e-01 1.282901e-01 -1.194853e-01 3.540938e-02 2.713279e-02
<VARIANCE> 39
 3.509308e+01 1.048954e+02 8.160548e+01 7.810863e+01 1.505835e+02 3.656927e+02 1.068866e+02 5.448163e+01 5.718784e+01 7.522334e+01 6.319937e+01 6.825891e+01 3.287940e+01 2.066571e+00 4.901994e+00 3.206117e+00 2.029198e+00 4.192028e+00 5.465495e+00 3.252398e+00 2.838890e+00 3.718048e+00 3.245803e+00 3.099720e+00 1.774042e+00 1.842331e+00 2.110132e-01 3.221073e-01 3.968300e-01 3.197471e-01 4.484853e-01 6.922387e-01 4.664491e-01 3.859602e-01 5.276923e-01 4.913603e-01 4.884576e-01 2.530394e-01 3.140310e-01
<GCONST> 1.305759e+02
<MIXTURE> 2 1.907824e-01
<MEAN> 39
 -1.540492e+01 -1.330834e+01 -5.695134e+00 2.021656e+00 3.249374e+00 8.566742e+00 -1.620232e+00 1.847866e+00 -8.165360e+00 -5.001637e+00 8.229559e+00 4.709056e+00 3.109089e+00 1.235145e-01 -1.449612e-01 -1.764414e-01 2.843020e-01 3.177642e-01 3.616812e-02 1.907671e-01 3.523048e-01 1.471162e-01 3.590646e-02 1.751100e-01 3.696133e-01 2.534415e-01 1.858093e-01 -3.728608e-02 2.957765e-02 9.400985e-02 7.824253e-02 5.653013e-02 -1.749841e-02 7.827287e-02 -2.442128e-02 -7.219120e-02 1.292074e-02 -1.200542e-01 -8.281049e-02
<VARIANCE> 39
 1.069782e+02 8.702492e+01 4.534238e+01 7.352997e+01 8.266920e+01 1.008448e+02 5.594468e+01 5.553920e+01 8.491302e+01 4.779118e+01 6.157341e+01 3.183200e+01 2.246558e+01 1.480355e+00 1.839028e+00 1.759524e+00 1.745262e+00 1.949625e+00 1.942144e+00 2.316419e+00 2.034208e+00 1.916141e+00 2.015890e+00 1.913501e+00 1.311518e+00 1.052495e+00 1.745753e-01 1.600327e-01 1.470395e-01 2.064388e-01 2.865724e-01 2.863315e-01 2.517535e-01 3.180523e-01 4.017350e-01 3.804464e-01 3.152513e-01 2.256045e-01 1.707046e-01
<GCONST> 1.139393e+02
<TRANSP> 5
 0.000000e+00 1.000000e+00 0.000000e+00 0.000000e+00 0.000000e+00
 0.000000e+00 6.355868e-01 3.644132e-01 0.000000e+00 0.000000e+00
 0.000000e+00 0.000000e+00 7.758115e-01 2.241886e-01 0.000000e+00
 0.000000e+00 0.000000e+00 0.000000e+00 8.358349e-01 1.641651e-01
 0.000000e+00 0.000000e+00 0.000000e+00 0.000000e+00 0.000000e+00
<ENDHMM>
~h "mq"
<BEGINHMM>
<NUMSTATES> 5
<STATE> 2
<NUMMIXES> 2
<MIXTURE> 1 1.000000e+00
<MEAN> 39
 2.147538e+01 -6.778532e+00 -6.142380e+00 1.473228e+00 5.852692e+00 -5.572157e-01 -6.025798e+00 2.015379e+01 -8.983706e+00 -1.890042e+01 1.635011e+01 -9.682857e-01 -6.247336e+00 -4.396379e-02 7.446743e-01 4.602229e-01 9.887407e-01 6.488614e-01 5.935488e-01 -3.766651e-02 -1.963837e+00 -6.340796e-01 7.666136e-01 -4.095260e-02 3.161132e-02 -7.172117e-02 -1.199907e-01 3.267618e-01 1.076601e-01 2.359049e-01 6.385130e-02 -1.782587e-02 2.699149e-01 1.532651e-01 1.994087e-01 -4.748059e-02 -6.750391e-01 -3.158252e-02 1.099819e-01
<VARIANCE> 39
 3.259521e+00 1.154987e+01 3.350175e+01 2.385449e+01 5.102436e+01 6.558471e+01 4.192076e+01 6.918430e+01 4.183704e+01 2.239377e+01 5.720163e+01 1.349730e+01 2.010794e+01 1.266718e-01 4.621874e-01 3.240972e-01 5.521513e-01 9.061081e-01 1.140474e+00 2.120271e+00 1.251760e+00 6.166728e-01 6.313382e-01 1.333788e+00 8.413950e-01 3.217241e-01 3.329501e-02 8.699112e-02 9.378804e-02 7.602701e-02 9.163878e-02 8.017023e-02 1.848135e-01 1.998136e-01 1.316871e-01 1.417192e-01 2.725844e-01 9.650958e-02 9.276105e-02
<GCONST> 8.006143e+01
<MIXTURE> 2 0.000000e+00
<MEAN> 39
 -9.685755e-07 -6.519258e-07 -1.657754e-07 6.034970e-07 1.440640e-09 1.266599e-07 -8.195639e-08 7.823110e-08 2.533197e-07 1.257285e-08 1.639128e-07 7.078052e-07 2.328306e-08 3.019522e-10 -4.656613e-09 -1.216540e-08 1.164153e-10 1.781154e-08 1.982698e-10 -3.026798e-09 5.587935e-09 -1.746230e-09 4.097819e-08 2.363231e-08 1.315493e-08 -2.043089e-08 -3.744487e-03 2.978991e-04 -4.746468e-04 6.844162e-05 -1.603577e-04 -3.450464e-05 5.754238e-05 -8.061554e-05 1.271995e-04 -1.902887e-04 4.669849e-05 -1.564687e-04 -6.364408e-05
<VARIANCE> 39
 1.000000e-30 1.000000e-30 1.000000e-30 1.000000e-30 1.000000e-30 9.313226e-09 1.000000e-30 3.492460e-10 1.000000e-30 1.473381e-10 1.781154e-08 1.000000e-30 1.000000e-30 1.000000e-30 1.000000e-30 1.000000e-30 2.110312e-12 1.000000e-30 1.000000e-30 1.409717e-11 1.000000e-30 1.318767e-11 3.419700e-10 1.000000e-30 1.000000e-30 1.000000e-30 1.827128e-03 6.024704e-05 5.945166e-05 2.794358e-05 3.412523e-05 3.360989e-05 3.020229e-05 3.188291e-05 2.277736e-05 2.193036e-05 1.852728e-05 2.304439e-05 1.544051e-05
<GCONST> -1.800000e+11
<STATE> 3
<NUMMIXES> 2
<MIXTURE> 1 1.000000e+00
<MEAN> 39
 1.803512e+01 -9.157324e-02 -8.860097e-01 6.292780e+00 1.030447e+01 5.318931e+00 -4.207801e+00 1.230924e+01 -1.015296e+01 -1.599836e+01 9.698483e+00 -2.916703e+00 -4.221092e+00 -1.321760e+00 2.368807e+00 1.460323e+00 1.762552e+00 6.741936e-01 8.756431e-01 1.181378e+00 -1.722972e+00 4.590694e-01 7.798309e-01 -3.195651e+00 -1.124273e-01 7.860470e-01 -2.601914e-01 1.077043e-01 1.862172e-01 3.766626e-03 -1.659445e-01 6.263342e-02 1.192800e-01 1.254902e-01 1.462626e-01 -3.594265e-02 -3.533859e-01 -3.085696e-03 1.551056e-01
<VARIANCE> 39
 1.504916e+01 4.289312e+01 4.642194e+01 2.896716e+01 4.035883e+01 3.948273e+01 4.639226e+01 5.487652e+01 3.374619e+01 2.066132e+01 1.140372e+02 2.059198e+01 1.902366e+01 7.227060e-01 1.357512e+00 1.211153e+00 8.096306e-01 1.042882e+00 1.157442e+00 2.230407e+00 1.236551e+00 2.362046e+00 9.074510e-01 3.773358e+00 8.372591e-01 5.768781e-01 8.427343e-02 3.920825e-01 1.411624e-01 1.743487e-01 1.990202e-01 1.000535e-01 4.539993e-01 1.802060e-01 3.420296e-01 1.424897e-01 9.455600e-01 1.218900e-01 7.084734e-02
<GCONST> 9.898457e+01
<MIXTURE> 2 0.000000e+00
<MEAN> 39
 1.769513e-08 2.514571e-08 -9.313226e-09 1.443550e-08 7.078052e-08 3.911555e-08 -6.798655e-08 3.725290e-09 -1.192093e-07 4.773028e-08 -2.095476e-08 3.818423e-08 3.492460e-09 -1.477929e-11 -3.783498e-10 1.746230e-10 1.011358e-09 1.149601e-09 4.911271e-10 2.779416e-09 1.760782e-09 3.929017e-10 5.966285e-10 -5.209586e-09 2.590241e-09 4.249159e-09 -2.047057e-02 1.739704e-03 -2.860196e-03 4.944406e-04 -9.179143e-04 -4.275220e-04 -1.494129e-04 -1.110907e-03 -5.215620e-04 -1.377407e-03 -4.617415e-04 -8.713729e-04 -4.312473e-04
<VARIANCE> 39
 1.000000e-30 1.964509e-09 1.000000e-30 3.888090e-11 1.000000e-30 1.000000e-30 1.000000e-30 1.000000e-30 1.804437e-09 3.074092e-10 3.783498e-10 1.000000e-30 3.836931e-13 1.000000e-30 2.060574e-13 1.000000e-30 1.962874e-13 1.108447e-12 1.085798e-13 1.000000e-30 8.490986e-13 1.000000e-30 1.000000e-30 4.021672e-12 1.000000e-30 1.989520e-13 1.418590e-02 4.708500e-04 6.059122e-04 2.832045e-04 2.438255e-04 1.964814e-04 2.386844e-04 2.203498e-04 2.247814e-04 1.830704e-04 2.037936e-04 1.436218e-04 1.237932e-04
<GCONST> -1.300000e+11
<STATE> 4
<NUMMIXES> 2
<MIXTURE> 1 1.000000e+00
<MEAN> 39
 1.499896e+01 6.198951e+00 1.096592e+00 1.117190e+01 1.000587e+01 3.908432e+00 -8.401549e-01 1.093813e+01 -6.534408e+00 -1.492195e+01 -8.059526e-01 -1.292808e+00 -2.235511e+00 -1.446849e+00 1.286544e+00 1.398881e+00 9.473066e-01 -2.286479e-01 8.330185e-01 5.990905e-01 -1.017085e+00 1.608838e-01 5.817189e-01 -2.009653e+00 -8.668365e-02 8.231269e-01 -2.040341e-01 -8.176814e-01 3.046834e-01 -5.240930e-02 -4.347676e-01 3.236292e-02 -1.192220e-01 2.486877e-01 -6.995300e-02 -1.157345e-01 4.186055e-01 -7.694400e-02 -1.836448e-04
<VARIANCE> 39
 3.492941e+01 6.799304e+01 6.931720e+01 1.098168e+01 7.409470e+01 1.352904e+02 3.169647e+01 1.263628e+02 3.116089e+01 1.578001e+01 6.618307e+01 1.564797e+01 2.449315e+01 1.133957e+00 1.890170e+00 1.361650e+00 3.883515e-01 2.595722e+00 1.088926e+00 6.626036e-01 1.327205e+00 2.526482e+00 1.652277e+00 2.830651e+00 5.340062e-01 7.076073e-01 1.267255e-01 6.223977e-01 2.346479e-01 1.169904e-01 2.814854e-01 8.996673e-02 2.347810e-01 1.018557e-01 1.731275e-01 2.234545e-01 4.493445e-01 9.888773e-02 1.358041e-01
<GCONST> 1.005570e+02
<MIXTURE> 2 0.000000e+00
<MEAN> 39
 0.000000e+00 0.000000e+00 0.000000e+00 0.000000e+00 0.000000e+00 0.000000e+00 0.000000e+00 0.000000e+00 0.000000e+00 0.000000e+00 0.000000e+00 0.000000e+00 0.000000e+00 0.000000e+00 0.000000e+00 0.000000e+00 0.000000e+00 0.000000e+00 0.000000e+00 0.000000e+00 0.000000e+00 0.000000e+00 0.000000e+00 0.000000e+00 0.000000e+00 0.000000e+00 -7.323198e-02 1.123042e-02 -1.038370e-02 1.682460e-03 -2.594927e-03 -1.410091e-03 -1.503533e-03 -3.022441e-03 -2.858302e-03 -3.888699e-03 -2.411382e-03 -1.670942e-03 -2.166644e-03
<VARIANCE> 39
 1.000000e-30 1.000000e-30 1.000000e-30 1.000000e-30 1.000000e-30 1.000000e-30 1.000000e-30 1.000000e-30 1.000000e-30 1.000000e-30 1.000000e-30 1.000000e-30 1.000000e-30 1.000000e-30 1.000000e-30 1.000000e-30 1.000000e-30 1.000000e-30 1.000000e-30 1.000000e-30 1.000000e-30 1.000000e-30 1.000000e-30 1.000000e-30 1.000000e-30 1.000000e-30 6.110287e-02 6.616157e-03 5.196090e-03 3.621858e-03 3.050250e-03 4.287072e-03 4.344802e-03 3.931833e-03 3.373807e-03 2.996578e-03 2.947920e-03 2.834462e-03 2.042745e-03
<GCONST> -2.600001e+11
<TRANSP> 5
 0.000000e+00 1.000000e+00 0.000000e+00 0.000000e+00 0.000000e+00
 0.000000e+00 3.313102e-02 9.668690e-01 0.000000e+00 0.000000e+00
 0.000000e+00 0.000000e+00 7.838447e-01 2.161552e-01 0.000000e+00
 0.000000e+00 0.000000e+00 0.000000e+00 2.782083e-17 1.000000e+00
 0.000000e+00 0.000000e+00 0.000000e+00 0.000000e+00 0.000000e+00
<ENDHMM>
~h "nj"
<BEGINHMM>
<NUMSTATES> 5
<STATE> 2
<NUMMIXES> 2
<MIXTURE> 1 6.448376e-01
<MEAN> 39
 2.500529e+00 4.883284e+00 9.640644e+00 7.663284e+00 8.983262e+00 1.102280e+00 -1.110930e+01 -4.794134e+00 -1.288087e+00 -5.336167e+00 -8.651181e+00 -5.994543e+00 -4.689224e+00 -8.037093e-03 3.616399e-01 2.282659e-01 1.904264e-01 -7.341486e-02 2.493188e-01 -1.645973e-01 1.039757e-01 1.836264e-01 -2.358938e-02 -1.693905e-01 -2.100465e-01 6.134257e-02 -2.933799e-02 -8.245458e-02 -2.934181e-02 -2.555616e-02 -3.167558e-02 -6.560107e-02 9.943750e-02 4.022849e-02 -2.891495e-02 -3.393753e-02 8.488162e-02 6.642201e-02 -4.307508e-02
<VARIANCE> 39
 2.984620e+01 6.743415e+01 3.440329e+01 6.486826e+01 9.630917e+01 1.111856e+02 7.206052e+01 3.914428e+01 4.361893e+01 6.400179e+01 5.133936e+01 4.753320e+01 6.246100e+01 3.205257e-01 9.356377e-01 8.799419e-01 1.011097e+00 1.131665e+00 1.602336e+00 1.676275e+00 1.622988e+00 1.393007e+00 1.544790e+00 1.534638e+00 1.262773e+00 1.005133e+00 5.129976e-02 1.324087e-01 1.310566e-01 1.649362e-01 1.886846e-01 2.602298e-01 2.799097e-01 2.472048e-01 2.361487e-01 2.447439e-01 2.395605e-01 1.899032e-01 1.721881e-01
<GCONST> 1.035840e+02
<MIXTURE> 2 3.551624e-01
<MEAN> 39
 2.709807e+00 8.928315e+00 1.147999e+01 -1.502002e+00 5.525277e+00 -1.202266e+01 -1.337622e+01 -2.554715e-01 -4.602529e+00 -1.768139e+01 -1.319073e+01 -1.517253e+01 -1.372431e+01 -3.641024e-02 1.717343e-01 7.861748e-02 2.967181e-02 -1.046537e-01 -5.441139e-03 -2.671677e-02 6.079637e-02 1.669364e-01 -1.932618e-01 -2.864245e-01 5.561825e-02 9.325963e-02 -4.810160e-02 -6.521460e-02 -1.482642e-02 1.193514e-02 -1.650132e-02 -1.109369e-02 1.465435e-01 -1.707742e-01 -4.778483e-02 1.308504e-01 6.270327e-02 7.036697e-02 2.437993e-02
<VARIANCE> 39
 2.806140e+00 1.555293e+01 1.314208e+01 1.840736e+01 2.262506e+01 2.127437e+01 3.199649e+01 3.318005e+01 3.093358e+01 4.198512e+01 4.848846e+01 2.774301e+01 2.260729e+01 5.275457e-02 2.340834e-01 2.735551e-01 3.459295e-01 4.041417e-01 4.254854e-01 6.606404e-01 7.842113e-01 6.592637e-01 7.675110e-01 6.076438e-01 6.638942e-01 4.363255e-01 1.427971e-02 5.345663e-02 5.262011e-02 7.491710e-02 9.308103e-02 1.030196e-01 1.470128e-01 1.566586e-01 1.284100e-01 1.334793e-01 1.117656e-01 1.170488e-01 9.097067e-02
<GCONST> 6.805726e+01
<STATE> 3
<NUMMIXES> 2
<MIXTURE> 1 5.768365e-01
<MEAN> 39
 -1.650130e+00 4.293084e+00 1.251531e+01 7.997261e+00 8.073728e+00 -5.246037e-01 -5.022378e+00 -3.656913e+00 -1.169887e+00 -5.260289e+00 -6.472120e+00 -5.230941e+00 -5.362416e+00 -2.457572e-01 -1.055694e+00 5.425199e-02 6.005565e-02 -8.472940e-02 -6.629400e-01 5.229853e-01 -3.181231e-01 -3.388248e-01 -7.298808e-02 3.639769e-01 1.593710e-01 -1.386185e-01 1.520792e-02 -1.310300e-01 -6.702862e-02 -3.907461e-02 5.318189e-02 -1.073812e-01 -1.160357e-01 4.202005e-03 -2.860112e-02 -1.644950e-02 3.863433e-02 3.098836e-02 1.592401e-03
<VARIANCE> 39
 3.918433e+01 6.900724e+01 3.661243e+01 5.426512e+01 7.157546e+01 9.625215e+01 7.617765e+01 5.381805e+01 4.801081e+01 6.558137e+01 4.535140e+01 4.882023e+01 3.880204e+01 1.803826e+00 4.185937e+00 2.995981e+00 3.165112e+00 2.961892e+00 4.166068e+00 5.236826e+00 3.490489e+00 2.493116e+00 2.927037e+00 2.647161e+00 2.256471e+00 1.742612e+00 2.675167e-01 6.951686e-01 5.092847e-01 5.361979e-01 4.958111e-01 6.914724e-01 8.867679e-01 5.816731e-01 4.441610e-01 4.559211e-01 3.934963e-01 3.435938e-01 2.966835e-01
<GCONST> 1.282403e+02
<MIXTURE> 2 4.231635e-01
<MEAN> 39
 1.295004e+01 -1.990565e+00 1.135198e+01 1.051720e+01 -6.057696e+00 5.887888e+00 -1.010513e+01 -1.137384e+01 1.444680e+00 -1.270348e+01 -1.434898e+01 -7.786644e+00 -1.003824e+01 -9.293678e-02 2.690157e-01 1.644063e-01 -4.434790e-02 4.908991e-03 -1.315278e-02 2.359147e-02 2.516896e-02 3.590895e-02 -1.700219e-02 -1.722138e-01 -5.740685e-02 3.323376e-02 -9.219238e-03 -9.527378e-02 1.038478e-02 5.471010e-02 -4.705711e-02 -1.766123e-03 5.385786e-02 9.632568e-03 -1.593223e-02 1.461344e-02 6.699349e-02 4.784431e-02 -4.166522e-02
<VARIANCE> 39
 3.856699e+00 2.329041e+01 2.029645e+01 2.178050e+01 2.279533e+01 2.924805e+01 4.529770e+01 3.117255e+01 4.292793e+01 9.096780e+01 3.922691e+01 2.936979e+01 2.970384e+01 1.036110e-01 3.492112e-01 2.670597e-01 3.809765e-01 4.285590e-01 5.403163e-01 4.986794e-01 4.888597e-01 5.781164e-01 5.797477e-01 5.508767e-01 4.750876e-01 4.293715e-01 1.962212e-02 7.488119e-02 4.759888e-02 7.101423e-02 9.162906e-02 9.864736e-02 9.496345e-02 9.101720e-02 1.042438e-01 1.084253e-01 8.732623e-02 8.894771e-02 7.543494e-02
<GCONST> 6.937938e+01
<STATE> 4
<NUMMIXES> 2
<MIXTURE> 1 6.193125e-01
<MEAN> 39
 1.028075e+01 -1.288878e+01 1.373863e+01 1.291313e+01 -1.063704e+01 3.015265e+00 -1.051210e+01 -9.272548e+00 1.731557e+00 -1.466234e+01 -7.812191e+00 -3.781766e+00 -1.403609e+01 -1.313824e-01 -1.218131e+00 -2.753857e-02 8.111192e-02 -5.507110e-01 -1.762661e-01 1.277021e-02 -2.771645e-02 9.013085e-02 -2.377615e-02 5.405732e-01 4.540587e-01 -2.427453e-01 1.725942e-02 3.638613e-02 -6.293325e-02 -6.635727e-02 3.109851e-02 -2.954077e-03 -4.337660e-02 -9.599536e-03 -1.934156e-02 8.019480e-03 4.517408e-03 -5.125827e-03 2.411142e-02
<VARIANCE> 39
 5.360118e+01 1.147594e+02 5.651950e+01 4.958639e+01 6.452203e+01 8.099206e+01 6.030843e+01 4.255379e+01 4.687903e+01 6.013705e+01 5.901341e+01 4.074115e+01 4.006900e+01 1.196394e+00 4.081296e+00 2.274762e+00 1.764822e+00 2.229019e+00 2.915065e+00 2.342601e+00 1.784886e+00 1.712513e+00 1.735224e+00 1.473653e+00 1.255965e+00 1.251955e+00 1.512755e-01 5.907288e-01 2.923045e-01 2.467913e-01 3.750200e-01 4.103101e-01 3.571459e-01 2.759851e-01 2.797883e-01 2.719341e-01 2.224235e-01 2.094979e-01 1.860853e-01
<GCONST> 1.158219e+02
<MIXTURE> 2 3.806876e-01
<MEAN> 39
 7.986883e-01 -2.793469e+00 4.055068e+00 2.384333e+00 1.088714e+01 -1.595118e+01 -9.973896e+00 -5.408926e+00 -6.926043e+00 -7.952407e+00 -2.742266e+00 -4.678221e+00 -8.477713e+00 1.703769e-01 -3.709843e-01 -7.981473e-01 -6.735662e-01 5.414159e-02 -6.422171e-01 -1.553994e-01 1.988008e-01 -1.845535e-01 -3.992972e-03 4.756051e-01 5.521997e-01 5.975723e-02 -9.899956e-03 9.672721e-02 2.898581e-02 -8.035121e-02 -5.190688e-02 1.995320e-01 1.440018e-01 3.425548e-02 4.790647e-02 -3.596259e-02 -8.568133e-02 2.389571e-02 3.080674e-02
<VARIANCE> 39
 9.078952e+00 3.836557e+01 4.360814e+01 6.360629e+01 1.041817e+02 1.081912e+02 7.833575e+01 4.377275e+01 4.398346e+01 6.020568e+01 4.762598e+01 8.173207e+01 5.883461e+01 1.580081e-01 6.745912e-01 6.551996e-01 1.306109e+00 1.275327e+00 2.599120e+00 1.752467e+00 1.489350e+00 1.622001e+00 1.614136e+00 1.536328e+00 1.120704e+00 1.123707e+00 2.352860e-02 7.751360e-02 8.667944e-02 1.638183e-01 1.665535e-01 2.938957e-01 2.637431e-01 2.522829e-01 2.238973e-01 2.590835e-01 2.209582e-01 1.880653e-01 1.505378e-01
<GCONST> 1.003273e+02
<TRANSP> 5
 0.000000e+00 1.000000e+00 0.000000e+00 0.000000e+00 0.000000e+00
 0.000000e+00 8.560609e-01 1.439391e-01 0.000000e+00 0.000000e+00
 0.000000e+00 0.000000e+00 8.582612e-01 1.417388e-01 0.000000e+00
 0.000000e+00 0.000000e+00 0.000000e+00 8.322633e-01 1.677367e-01
 0.000000e+00 0.000000e+00 0.000000e+00 0.000000e+00 0.000000e+00
<ENDHMM>
~h "nx"
<BEGINHMM>
<NUMSTATES> 5
<STATE> 2
<NUMMIXES> 2
<MIXTURE> 1 1.000000e+00
<MEAN> 39
 2.137672e+01 1.254592e+00 -9.557213e+00 -1.794376e+00 1.601312e+01 1.028204e+01 -1.284627e+01 4.601191e+00 -8.185511e+00 -1.688477e+01 7.388602e+00 -1.195945e+00 -5.353538e+00 -2.591235e-01 2.619497e-01 6.029196e-01 7.171943e-01 8.773139e-02 -5.570287e-02 4.179482e-01 -6.074393e-02 -2.208449e-01 -8.477220e-02 -3.197416e-01 -9.999031e-02 -1.764524e-01 -3.222488e-02 1.911228e-02 4.696206e-02 6.985886e-02 -1.878606e-02 -1.396517e-02 4.955930e-02 -3.164357e-02 -9.129609e-04 3.298189e-02 -6.496245e-02 -1.060453e-02 2.671606e-02
<VARIANCE> 39
 1.372444e+01 1.912524e+01 4.582025e+01 1.000970e+02 2.084088e+01 2.594760e+01 8.030984e+01 4.521251e+01 2.753088e+01 2.725124e+01 6.954495e+01 1.154804e+01 2.716675e+01 4.455760e-01 5.855061e-01 1.229033e+00 2.736542e+00 7.366478e-01 1.123458e+00 2.818706e+00 1.873004e+00 8.853270e-01 1.535518e+00 2.937104e+00 7.989967e-01 6.226065e-01 6.659856e-02 7.284024e-02 1.680586e-01 2.983283e-01 1.298294e-01 1.487190e-01 3.422549e-01 2.916093e-01 1.218679e-01 2.698596e-01 3.312596e-01 1.485561e-01 8.955598e-02
<GCONST> 9.539700e+01
<MIXTURE> 2 0.000000e+00
<MEAN> 39
 1.361686e+01 -1.383072e+00 7.618060e+00 1.232223e+01 -2.383529e+00 8.959254e+00 -1.035662e+01 -1.021862e+01 8.851387e+00 -8.332142e+00 -1.389112e+01 -1.311377e+00 -7.191798e+00 -1.457334e-01 3.850303e-01 1.832990e-01 7.829956e-02 1.980715e-01 -5.036991e-02 -1.340757e-01 -1.179461e-01 -3.900307e-02 1.584407e-01 2.003755e-02 -8.778737e-02 -5.617338e-02 -8.385319e-04 -4.167615e-02 -5.001837e-02 5.873689e-03 7.726591e-03 -9.950018e-03 4.415042e-02 -3.027088e-03 -5.418176e-02 3.586245e-02 5.732016e-02 -7.334471e-04 -7.240163e-03
<VARIANCE> 39
 2.374427e+00 2.125168e+01 1.217588e+01 1.771664e+01 1.535122e+01 2.714209e+01 2.611153e+01 3.003095e+01 4.948417e+01 3.589555e+01 2.532868e+01 2.865796e+01 2.461707e+01 5.158678e-02 1.692707e-01 2.307495e-01 3.434558e-01 3.976840e-01 4.632231e-01 5.185775e-01 4.969022e-01 5.959083e-01 6.742363e-01 5.816705e-01 4.702742e-01 4.794611e-01 8.847732e-03 2.771878e-02 3.858319e-02 5.424614e-02 6.815128e-02 7.742334e-02 8.735045e-02 8.348746e-02 1.017274e-01 9.737392e-02 8.988705e-02 7.854709e-02 8.157872e-02
<GCONST> 6.095366e+01
<STATE> 3
<NUMMIXES> 2
<MIXTURE> 1 3.389573e-01
<MEAN> 39
 1.531526e+01 7.120765e+00 7.937239e+00 1.923895e+01 1.770805e+01 -1.674311e+00 -2.087208e+01 -1.351736e+00 -7.577667e-01 -1.151526e+01 1.769018e-02 -6.734467e-01 -6.583484e+00 -5.201286e-02 3.696169e-02 1.975179e-01 -4.707917e-02 -1.715318e-01 7.766984e-02 2.524176e-01 -1.971784e-01 1.283898e-01 3.460390e-01 -2.204922e-01 -4.494519e-01 -1.291899e-01 7.525784e-02 -3.897657e-02 -7.481883e-02 -6.240755e-02 -8.084142e-05 4.599344e-02 1.324743e-01 5.231014e-02 -5.695134e-02 1.239833e-01 6.390429e-02 -1.434926e-02 5.878931e-02
<VARIANCE> 39
 7.001389e+00 1.907893e+01 2.299416e+01 2.030630e+01 8.081558e+01 8.810739e+01 7.158165e+01 8.985099e+01 5.839143e+01 4.239169e+01 6.469778e+01 4.899609e+01 2.765290e+01 1.323663e-01 1.921761e-01 2.157837e-01 3.716768e-01 3.475629e-01 2.548916e-01 5.320168e-01 5.544940e-01 3.369453e-01 6.465138e-01 3.440230e-01 6.047527e-01 2.361654e-01 1.470506e-02 4.783749e-02 2.858930e-02 7.503244e-02 2.871393e-02 7.908878e-02 7.805739e-02 7.637140e-02 4.370353e-02 9.805612e-02 6.074282e-02 6.534538e-02 4.909166e-02
<GCONST> 6.656680e+01
<MIXTURE> 2 6.610422e-01
<MEAN> 39
 1.460713e+01 4.155293e+00 7.940816e-01 1.171506e+01 1.656253e+01 7.380522e+00 -7.409127e+00 1.401571e+00 -1.151536e+01 -1.638781e+01 1.706653e+00 -2.438047e+00 -6.982560e+00 -6.770954e-01 5.844805e-01 1.085055e+00 5.545602e-01 -2.373541e-01 1.775208e-02 3.398472e-01 -4.044190e-01 3.917800e-01 6.333967e-01 -1.024974e+00 -5.510999e-01 3.243965e-01 1.567186e-01 -2.063223e-01 -4.033813e-01 -5.360215e-01 -1.361288e-01 4.368873e-02 -1.102125e-01 3.541988e-01 7.889980e-02 -3.278989e-02 4.123730e-01 5.673613e-02 -3.847677e-02
<VARIANCE> 39
 8.244272e+01 5.277819e+01 3.986099e+01 5.629846e+01 6.325974e+01 1.743161e+01 1.123923e+02 4.624059e+01 2.889757e+01 4.567262e+01 1.345410e+02 1.718399e+01 4.264946e+01 6.101366e-01 1.959047e+00 1.137849e+00 2.131159e+00 1.333290e+00 1.411795e+00 2.329798e+00 2.821365e+00 9.394176e-01 1.457962e+00 3.537455e+00 8.007815e-01 1.535960e+00 1.175075e-01 2.106149e-01 1.880535e-01 2.484477e-01 1.820421e-01 1.162541e-01 4.032916e-01 3.665627e-01 1.482022e-01 2.475439e-01 7.537212e-01 1.519089e-01 2.015160e-01
<GCONST> 1.077775e+02
<STATE> 4
<NUMMIXES> 2
<MIXTURE> 1 3.219758e-01
<MEAN> 39
 1.305608e+01 8.095222e+00 7.995884e+00 1.627926e+01 1.365620e+01 9.931817e-01 -1.059348e+01 3.717292e+00 -6.048438e+00 -1.308924e+01 1.685619e+00 -2.354075e+00 -7.019114e+00 -5.277700e-01 2.795110e-01 2.579657e-01 -6.626268e-02 -1.886953e-01 2.579417e-01 6.075517e-01 3.061990e-01 2.032522e-01 1.824391e-01 -3.647763e-01 -1.957309e-01 3.293785e-01 1.941834e-02 -8.536202e-02 -8.992356e-02 -6.659334e-02 1.150472e-03 2.570328e-02 2.377900e-02 6.802109e-02 -3.293165e-02 -6.425059e-02 1.113821e-01 1.612354e-02 -6.720968e-02
<VARIANCE> 39
 4.601170e+01 6.526656e+01 3.329093e+01 4.354166e+01 5.037579e+01 1.000831e+02 9.642062e+01 1.098937e+02 6.461229e+01 5.843271e+01 1.007674e+02 1.737311e+01 3.236167e+01 5.254864e-01 5.780304e-01 5.874534e-01 8.421295e-01 7.700733e-01 5.504295e-01 1.019092e+00 1.260100e+00 1.249540e+00 9.698587e-01 1.634619e+00 6.031110e-01 7.484508e-01 3.670599e-02 9.180762e-02 6.840509e-02 1.571896e-01 9.957592e-02 6.969284e-02 1.608893e-01 2.051127e-01 1.282950e-01 1.538327e-01 2.413771e-01 1.050203e-01 8.886845e-02
<GCONST> 9.269485e+01
<MIXTURE> 2 6.780235e-01
<MEAN> 39
 1.580836e+01 4.172710e+00 1.765688e+00 1.030354e+01 1.454644e+01 6.365730e+00 -7.493850e+00 5.321584e+00 -1.192735e+01 -1.671554e+01 6.239890e+00 -2.807439e+00 -7.332722e+00 -5.166478e-01 -1.046383e-01 3.566898e-01 -2.206514e-01 -3.646728e-01 -2.912563e-02 -3.730219e-02 4.357781e-01 -1.137186e-01 2.834330e-02 8.096939e-01 1.205609e-01 -2.291982e-02 -5.041952e-02 -3.073853e-02 6.322684e-03 -1.080289e-02 -1.928389e-02 -2.475350e-02 -8.106172e-03 5.000255e-02 -8.021221e-04 -2.854316e-02 5.445398e-02 6.388103e-02 3.853190e-03
<VARIANCE> 39
 4.301707e+01 6.593699e+01 6.561401e+01 4.963337e+01 2.870362e+01 3.033260e+01 4.463125e+01 8.078727e+01 4.357677e+01 5.108367e+01 1.209197e+02 1.620532e+01 3.262110e+01 1.664335e+00 3.805529e+00 2.608065e+00 3.239214e+00 1.499764e+00 1.439061e+00 2.968296e+00 4.461579e+00 2.620090e+00 3.250918e+00 1.010815e+01 1.425311e+00 2.436774e+00 1.155197e-01 3.155269e-01 3.207461e-01 4.129339e-01 2.076747e-01 1.939364e-01 3.337824e-01 5.131773e-01 3.394540e-01 4.277636e-01 9.351528e-01 1.916455e-01 2.602056e-01
<GCONST> 1.191772e+02
<TRANSP> 5
 0.000000e+00 1.000000e+00 0.000000e+00 0.000000e+00 0.000000e+00
 0.000000e+00 9.460149e-01 5.398513e-02 0.000000e+00 0.000000e+00
 0.000000e+00 0.000000e+00 2.558997e-01 7.441003e-01 0.000000e+00
 0.000000e+00 0.000000e+00 0.000000e+00 9.178526e-01 8.214744e-02
 0.000000e+00 0.000000e+00 0.000000e+00 0.000000e+00 0.000000e+00
<ENDHMM>
~h "ou"
<BEGINHMM>
<NUMSTATES> 7
<STATE> 2
<NUMMIXES> 2
<MIXTURE> 1 0.000000e+00
<MEAN> 39
 2.950430e-05 -1.596659e-05 2.567470e-05 -3.993511e-06 -5.960464e-07 1.929002e-07 -1.204014e-05 8.247793e-06 -1.933426e-06 2.965331e-06 -1.872890e-06 -3.390014e-05 -2.196059e-06 2.152519e-07 -1.188600e-07 -1.470326e-07 2.579764e-07 1.881272e-07 -7.177005e-08 7.529743e-07 5.150214e-07 -5.541369e-08 5.667098e-07 8.731149e-08 2.587331e-08 -1.939479e-07 -6.008020e-02 6.977572e-03 -1.033811e-02 -1.313004e-03 -2.156086e-03 -2.000537e-03 2.022802e-04 5.487027e-04 1.507605e-03 -2.313650e-03 -2.747252e-04 -8.833668e-04 -1.887041e-04
<VARIANCE> 39
 1.000000e-30 1.000000e-30 1.000000e-30 1.138542e-07 1.933426e-06 1.000000e-30 1.000000e-30 4.717149e-07 1.000000e-30 1.000000e-30 1.000000e-30 1.000000e-30 1.194421e-07 1.000000e-30 5.235279e-10 2.760316e-10 1.000000e-30 1.000000e-30 3.660716e-11 1.359149e-08 8.079951e-09 2.454215e-11 1.000000e-30 1.000000e-30 1.390887e-11 1.000000e-30 5.130608e-02 3.996924e-03 4.374815e-03 3.314181e-03 3.503656e-03 3.531398e-03 3.649473e-03 3.541191e-03 3.137489e-03 2.687086e-03 2.360017e-03 1.943796e-03 1.500225e-03
<GCONST> -1.500000e+11
<MIXTURE> 2 1.000000e+00
<MEAN> 39
 1.359222e+00 -1.024054e+00 -2.365657e+00 3.026730e+00 -3.264160e+00 -9.520675e+00 -7.766849e+00 1.369442e+01 2.358533e+00 -9.320227e+00 -7.136366e-01 -3.844488e-02 3.959193e-01 -1.848834e-01 -2.256769e-01 -5.849720e-01 -1.613034e-01 -3.691391e-01 -1.110502e+00 -3.547007e-01 4.737291e-01 4.909759e-01 1.116139e-01 1.224864e-01 2.227164e-01 -6.451666e-02 -3.805655e-02 -2.948338e-02 1.185036e-01 6.293941e-02 1.007694e-02 1.094477e-01 3.498219e-02 -7.187959e-02 8.997902e-02 1.425400e-01 -3.320031e-02 -2.292804e-02 -5.115139e-03
<VARIANCE> 39
 3.384694e+02 8.407301e+01 5.743286e+01 7.361312e+01 7.480594e+01 1.872197e+02 9.096997e+01 1.607020e+02 1.157873e+02 9.998382e+01 2.915839e+01 3.765724e+01 3.387600e+01 5.365230e+00 2.633801e+00 2.452808e+00 2.210682e+00 2.633909e+00 4.821871e+00 2.439225e+00 4.611874e+00 3.007435e+00 2.986559e+00 2.302368e+00 1.749423e+00 1.731143e+00 2.962336e-01 2.379746e-01 3.013073e-01 2.716554e-01 3.435293e-01 4.376715e-01 3.493331e-01 5.157172e-01 3.747894e-01 4.087275e-01 3.601402e-01 2.601230e-01 2.494681e-01
<GCONST> 1.283427e+02
<STATE> 3
<NUMMIXES> 2
<MIXTURE> 1 0.000000e+00
<MEAN> 39
 0.000000e+00 0.000000e+00 0.000000e+00 0.000000e+00 0.000000e+00 0.000000e+00 0.000000e+00 0.000000e+00 0.000000e+00 0.000000e+00 0.000000e+00 0.000000e+00 0.000000e+00 6.126449e-30 -5.464483e-30 2.270194e-30 -1.821515e-31 4.406674e-31 -1.213802e-30 9.256382e-31 -1.708705e-31 6.429896e-32 -4.287194e-31 4.667875e-31 -1.477681e-31 3.115776e-33 -5.948948e-02 7.116884e-03 -1.043719e-02 -1.810754e-03 -2.071288e-03 -1.224210e-03 1.069486e-03 9.119928e-04 2.393554e-03 -1.654138e-03 -8.557731e-05 -5.460818e-04 -2.131514e-04
<VARIANCE> 39
 1.000000e-30 1.000000e-30 1.000000e-30 1.000000e-30 1.000000e-30 1.000000e-30 1.000000e-30 1.000000e-30 1.000000e-30 1.000000e-30 1.000000e-30 1.000000e-30 1.000000e-30 7.215268e-30 5.740278e-30 1.000000e-30 1.000000e-30 1.000000e-30 1.000000e-30 1.000000e-30 1.000000e-30 1.000000e-30 1.000000e-30 1.000000e-30 1.000000e-30 1.000000e-30 5.242730e-02 4.308010e-03 4.828463e-03 3.723914e-03 3.905280e-03 3.459802e-03 3.704401e-03 3.736516e-03 3.287535e-03 2.844681e-03 2.523395e-03 2.245883e-03 1.678810e-03
<GCONST> -1.300000e+11
<MIXTURE> 2 1.000000e+00
<MEAN> 39
 -2.443171e+01 -6.210906e+00 -5.173347e+00 -2.441049e+00 -3.715651e+00 -5.529656e-01 -4.174791e+00 2.470011e+00 -9.092774e-01 -1.120197e+00 4.361792e-01 -7.327895e-01 2.403948e-01 -2.641134e-02 -1.502718e-02 3.847819e-03 2.852364e-02 -1.019983e-02 -3.633327e-02 -4.830643e-02 -3.174326e-02 3.569429e-02 3.560377e-02 -1.366676e-02 -1.279019e-02 2.592043e-02 3.925094e-02 3.145612e-02 3.196724e-02 2.187285e-02 8.373020e-03 9.586577e-03 1.546494e-02 7.428774e-04 -1.242227e-02 -9.049471e-03 1.709717e-04 1.029331e-03 3.312120e-03
<VARIANCE> 39
 8.920175e+01 7.248619e+00 6.245454e+00 1.159937e+01 7.574524e+00 3.512779e+01 1.518329e+01 3.245439e+01 2.143532e+01 1.911320e+01 7.385706e+00 1.026936e+01 7.826183e+00 3.067277e-01 2.579283e-01 3.620805e-01 5.573705e-01 7.052212e-01 8.921446e-01 9.713531e-01 1.143284e+00 1.479759e+00 1.196559e+00 9.252436e-01 9.433056e-01 8.700531e-01 4.396884e-02 5.572824e-02 7.670407e-02 1.138005e-01 1.436822e-01 1.693606e-01 2.081683e-01 2.304992e-01 2.987688e-01 2.453217e-01 2.022965e-01 1.976129e-01 1.915338e-01
<GCONST> 7.742651e+01
<STATE> 4
<NUMMIXES> 2
<MIXTURE> 1 1.000000e+00
<MEAN> 39
 -1.233677e+01 -4.777851e+00 -4.994496e+00 7.498654e-01 -3.688794e+00 -7.429630e+00 -7.183099e+00 7.479301e+00 2.854808e+00 -3.745680e+00 -6.860365e-01 2.491515e-01 5.910324e-01 3.742802e-01 3.077029e-02 5.103673e-02 1.549738e-01 -1.239251e-01 -3.187416e-01 -1.985567e-02 2.009276e-01 3.544992e-01 2.611133e-01 -1.180109e-02 4.783573e-02 5.381801e-02 2.335945e-01 1.703978e-01 1.337292e-01 1.563683e-01 7.045104e-02 -6.343702e-02 -4.464354e-02 1.722150e-01 8.749343e-02 -1.478130e-02 9.804739e-02 6.813953e-02 2.067303e-05
<VARIANCE> 39
 4.273096e+02 2.323322e+01 1.892030e+01 3.091028e+01 1.301249e+01 1.563811e+02 3.990739e+01 9.852992e+01 5.136081e+01 3.867085e+01 1.000348e+01 1.269533e+01 8.106728e+00 1.322382e+00 6.433756e-01 7.065946e-01 5.651283e-01 7.999979e-01 1.145535e+00 7.955787e-01 8.905080e-01 1.099809e+00 1.071165e+00 7.541825e-01 6.575586e-01 5.112134e-01 1.797986e-01 1.192714e-01 1.106586e-01 8.982761e-02 1.053072e-01 1.680343e-01 1.326802e-01 1.476624e-01 1.811911e-01 1.616879e-01 1.425815e-01 1.193786e-01 1.141964e-01
<GCONST> 8.876369e+01
<MIXTURE> 2 0.000000e+00
<MEAN> 39
 1.208484e-05 -8.553267e-06 -2.384186e-07 -1.952052e-06 -1.340359e-05 -3.114343e-05 -5.429611e-07 -6.236136e-06 2.693385e-06 -4.857779e-06 -7.867813e-06 4.526228e-07 9.596348e-06 -5.797483e-08 -3.934838e-07 1.234002e-08 -5.355105e-09 2.961606e-07 -4.060566e-07 -2.242159e-07 7.650815e-07 -7.157214e-07 2.267188e-08 -1.420267e-08 1.264270e-07 -1.518056e-07 -1.733069e-02 2.135032e-03 -2.558388e-03 2.833310e-04 -6.236576e-04 -1.803544e-04 -3.749149e-05 -4.109075e-04 1.268192e-04 -8.433932e-04 1.034832e-04 -7.428668e-04 1.402625e-04
<VARIANCE> 39
 3.943220e-06 1.306646e-06 2.658926e-07 1.000000e-30 4.642643e-06 1.331419e-05 1.000000e-30 1.000000e-30 1.000000e-30 4.651025e-06 1.906883e-06 1.000000e-30 1.000000e-30 1.000000e-30 1.000000e-30 1.000000e-30 1.000000e-30 2.783054e-10 4.038156e-10 1.000000e-30 1.731314e-08 1.000000e-30 3.075229e-11 7.235030e-10 1.000000e-30 6.684786e-10 1.100459e-02 5.213512e-04 5.872871e-04 3.387984e-04 4.089739e-04 3.906928e-04 4.339819e-04 3.915064e-04 3.306664e-04 3.511715e-04 2.671561e-04 2.600339e-04 1.677476e-04
<GCONST> -1.300000e+11
<STATE> 5
<NUMMIXES> 2
<MIXTURE> 1 3.852150e-01
<MEAN> 39
 -1.066959e+01 1.830944e+00 7.661797e-01 4.229300e+00 -3.200841e+00 -7.847690e+00 -7.207558e+00 1.010439e+01 6.690796e+00 5.204451e-02 1.106524e+00 2.062833e+00 2.137226e+00 3.345887e+00 1.020045e+00 4.143423e-01 1.092008e+00 -3.482895e-01 -2.441143e+00 -9.544600e-01 1.978020e+00 1.468043e+00 -3.505490e-01 -6.600633e-02 5.346545e-01 9.470089e-02 2.921883e-01 -1.037478e-01 -1.322533e-01 1.385509e-02 -1.344622e-01 -3.384655e-01 -1.090831e-01 1.754749e-01 5.406398e-02 -1.287807e-01 -3.008394e-02 1.090685e-02 -5.944461e-02
<VARIANCE> 39
 1.718334e+02 3.161193e+01 2.318632e+01 3.398667e+01 2.430722e+01 1.028342e+02 3.186011e+01 7.326568e+01 4.745372e+01 1.849471e+01 1.723247e+01 1.581267e+01 1.354311e+01 3.328955e+00 1.901269e+00 2.610301e+00 1.490514e+00 2.549044e+00 4.849526e+00 2.038115e+00 2.642270e+00 2.058806e+00 2.252297e+00 2.197322e+00 1.362365e+00 1.598238e+00 3.762220e-01 3.428980e-01 4.162848e-01 2.805003e-01 3.893920e-01 5.110440e-01 3.531105e-01 4.429229e-01 3.930329e-01 3.597484e-01 4.577494e-01 2.792221e-01 2.888951e-01
<GCONST> 1.150980e+02
<MIXTURE> 2 6.147829e-01
<MEAN> 39
 1.999701e+01 -1.536868e+00 -5.657828e+00 1.058801e+01 -6.893315e+00 -3.216787e+01 -1.666597e+01 2.635823e+01 1.577163e+01 -8.775290e+00 -1.472108e+00 3.914391e+00 3.572949e-01 7.689905e-01 -6.340990e-01 -5.053644e-01 3.832597e-02 5.979493e-02 -4.122581e-01 -1.179092e-01 3.437325e-01 -1.632035e-03 -3.359093e-01 4.170494e-02 -1.129430e-01 -1.498527e-01 -2.454542e-01 1.723439e-03 3.286526e-02 -8.227887e-02 1.490856e-01 3.631312e-01 1.049082e-01 -1.832496e-01 -1.415832e-01 3.594094e-02 2.913138e-02 -6.180942e-02 1.780370e-02
<VARIANCE> 39
 2.179655e+01 3.405923e+01 3.283733e+01 1.182372e+01 2.149005e+01 3.070341e+01 1.957404e+01 3.069568e+01 1.578351e+01 2.424531e+01 1.581113e+01 1.363039e+01 8.341864e+00 2.521454e+00 9.534904e-01 8.473232e-01 8.493854e-01 1.187354e+00 3.168691e+00 1.138345e+00 2.125924e+00 1.037238e+00 1.252518e+00 9.735374e-01 7.352801e-01 4.773103e-01 2.977127e-01 1.394752e-01 1.024005e-01 1.156862e-01 1.750417e-01 3.109831e-01 1.734253e-01 3.332018e-01 1.164801e-01 1.827869e-01 1.607978e-01 1.099313e-01 8.419587e-02
<GCONST> 8.878689e+01
<STATE> 6
<NUMMIXES> 2
<MIXTURE> 1 5.341608e-01
<MEAN> 39
 2.279586e+01 -3.787854e+00 -9.158687e+00 3.948232e+00 -4.987133e-02 -1.758675e+01 -1.381153e+01 2.186872e+01 6.565164e+00 -1.197885e+01 3.211762e+00 -1.738749e+00 -2.366554e+00 4.913503e-02 5.212772e-01 -2.548363e-01 -9.024753e-01 9.266755e-01 2.422185e+00 4.813901e-01 -1.632452e+00 -1.161327e+00 1.980828e-01 5.196435e-02 -5.491598e-01 1.435670e-01 -8.548650e-02 1.679013e-01 2.609979e-02 -2.424452e-02 2.607794e-02 1.723624e-01 1.423478e-01 -2.055171e-01 3.128692e-02 9.528295e-02 -2.089694e-01 9.465459e-02 1.212073e-01
<VARIANCE> 39
 1.481223e+01 2.296584e+01 3.177933e+01 3.719462e+01 2.948921e+01 1.207068e+02 3.241016e+01 8.645645e+01 4.117645e+01 3.612354e+01 3.349226e+01 2.077260e+01 1.723976e+01 9.557598e-01 8.410829e-01 7.821767e-01 1.052835e+00 8.733875e-01 1.962333e+00 1.727229e+00 3.666587e+00 1.013511e+00 1.685335e+00 2.206507e+00 1.000432e+00 6.927968e-01 1.516240e-01 8.732019e-02 1.279433e-01 1.602916e-01 1.089768e-01 1.598849e-01 2.805506e-01 4.504758e-01 1.398186e-01 2.502722e-01 3.210463e-01 1.752191e-01 1.004122e-01
<GCONST> 9.746758e+01
<MIXTURE> 2 4.658365e-01
<MEAN> 39
 2.150810e+01 -4.466566e+00 -7.391793e+00 8.638381e+00 -5.145456e+00 -2.945953e+01 -1.559311e+01 2.617512e+01 1.314431e+01 -1.111271e+01 7.912588e-02 2.830233e+00 -1.252050e+00 -9.580851e-03 -1.790789e-01 -1.644881e-01 -4.417822e-01 4.450437e-01 1.024491e+00 2.828999e-01 -3.579350e-01 -6.578388e-01 -2.533718e-01 2.388958e-01 -4.021293e-01 -1.782382e-01 4.187376e-02 5.193447e-02 5.709331e-03 -1.553497e-02 4.110407e-02 1.165860e-01 6.773328e-03 -4.643168e-02 -1.158411e-01 -2.280850e-02 5.932657e-02 -4.799225e-02 -1.132936e-02
<VARIANCE> 39
 6.224304e+00 1.393099e+01 2.462830e+01 1.407133e+01 2.084179e+01 3.557609e+01 1.865604e+01 2.835556e+01 2.838277e+01 2.943555e+01 2.039782e+01 1.404563e+01 9.479970e+00 2.996838e-01 2.676542e-01 3.794624e-01 4.985178e-01 4.026207e-01 9.273693e-01 5.852599e-01 8.816369e-01 7.201760e-01 6.057808e-01 6.540849e-01 4.082534e-01 3.222367e-01 4.518338e-02 3.285139e-02 4.660528e-02 5.372147e-02 4.348001e-02 6.210388e-02 9.183794e-02 1.268799e-01 6.095622e-02 8.788718e-02 1.009396e-01 5.648407e-02 4.452795e-02
<GCONST> 6.400758e+01
<TRANSP> 7
 0.000000e+00 1.000000e+00 0.000000e+00 0.000000e+00 0.000000e+00 0.000000e+00 0.000000e+00
 0.000000e+00 8.469572e-01 1.530428e-01 0.000000e+00 0.000000e+00 0.000000e+00 0.000000e+00
 0.000000e+00 0.000000e+00 8.949379e-01 1.050621e-01 0.000000e+00 0.000000e+00 0.000000e+00
 0.000000e+00 0.000000e+00 0.000000e+00 2.017772e-01 7.982228e-01 0.000000e+00 0.000000e+00
 0.000000e+00 0.000000e+00 0.000000e+00 0.000000e+00 9.402701e-01 5.972991e-02 0.000000e+00
 0.000000e+00 0.000000e+00 0.000000e+00 0.000000e+00 0.000000e+00 9.229597e-01 7.704024e-02
 0.000000e+00 0.000000e+00 0.000000e+00 0.000000e+00 0.000000e+00 0.000000e+00 0.000000e+00
<ENDHMM>
~h "ph"
<BEGINHMM>
<NUMSTATES> 5
<STATE> 2
<NUMMIXES> 2
<MIXTURE> 1 3.440050e-01
<MEAN> 39
 -2.606726e+01 -5.732256e+00 -4.569105e+00 -2.380250e+00 -3.367915e+00 6.813574e-01 -3.667263e+00 1.429325e+00 -1.244545e+00 -3.388196e-01 6.328438e-01 -7.975926e-01 3.799865e-01 -5.339541e-02 -3.805964e-02 -3.713989e-02 -3.018757e-02 -3.415752e-03 -1.142567e-02 -4.038630e-02 -1.951033e-02 4.308224e-04 1.470318e-02 5.030891e-02 2.050357e-02 -1.519945e-03 3.374541e-02 2.389306e-02 1.890569e-02 2.919214e-02 6.428134e-02 5.156340e-02 4.416569e-02 1.320613e-02 -1.427564e-02 -2.864665e-02 -1.111026e-02 5.639443e-03 1.020954e-02
<VARIANCE> 39
 1.291855e+01 6.357498e+00 4.831581e+00 4.753090e+00 5.504677e+00 5.326264e+00 6.061935e+00 7.884567e+00 6.968611e+00 6.101974e+00 6.360921e+00 5.938926e+00 5.274998e+00 1.218101e-01 1.437217e-01 2.503754e-01 3.547553e-01 5.384627e-01 5.506542e-01 7.498196e-01 8.279392e-01 7.945939e-01 7.943412e-01 9.048136e-01 7.729206e-01 6.271685e-01 2.786365e-02 4.013094e-02 5.895036e-02 8.154480e-02 1.206204e-01 1.277172e-01 1.787324e-01 1.970842e-01 1.805867e-01 1.900364e-01 1.983425e-01 1.675977e-01 1.379134e-01
<GCONST> 5.765645e+01
<MIXTURE> 2 6.559935e-01
<MEAN> 39
 -1.532252e+01 2.047852e+00 2.682113e+00 5.518712e+00 4.449584e+00 6.464580e+00 8.291888e-02 4.340220e+00 -2.115817e+00 -3.538985e+00 -7.288687e-01 -7.915640e-01 1.285696e+00 -1.468534e+00 -1.271222e+00 -1.014985e+00 -8.046321e-01 -6.287981e-01 -2.387242e-01 -7.692270e-02 -2.181794e-01 2.162104e-01 6.110232e-01 4.020320e-01 2.604125e-01 2.634940e-01 1.827646e-01 -7.937628e-02 -8.039752e-02 1.134193e-02 2.395765e-02 -4.345995e-02 -7.121240e-02 7.492125e-03 -5.885336e-02 -9.582323e-02 9.169742e-03 1.170595e-02 3.005915e-02
<VARIANCE> 39
 9.697639e+01 5.891106e+01 5.863598e+01 5.605836e+01 4.753604e+01 3.254205e+01 3.033078e+01 3.891032e+01 4.360622e+01 4.123506e+01 2.470895e+01 2.625825e+01 2.177275e+01 4.056920e+00 2.690523e+00 3.185371e+00 3.092720e+00 2.896616e+00 2.558769e+00 2.302084e+00 2.444185e+00 2.400845e+00 2.451486e+00 1.726683e+00 1.479301e+00 1.301755e+00 2.462553e-01 3.064032e-01 4.127394e-01 3.924013e-01 3.922983e-01 3.467114e-01 3.166716e-01 3.637480e-01 3.928127e-01 3.703856e-01 2.981683e-01 2.543839e-01 2.256836e-01
<GCONST> 1.167195e+02
<STATE> 3
<NUMMIXES> 2
<MIXTURE> 1 5.715971e-01
<MEAN> 39
 -1.395134e+01 -3.384613e+00 -9.368064e-01 6.099232e+00 6.442658e+00 7.999893e+00 6.841478e-01 6.342478e+00 -9.512337e-01 -2.166906e+00 3.175344e+00 3.547750e+00 6.149567e+00 2.158558e+00 -3.937633e-01 -2.976066e-01 8.286324e-01 1.125112e+00 7.502928e-01 4.514662e-01 1.026774e+00 1.350647e-01 -2.060013e-01 9.609755e-01 1.040137e+00 1.008263e+00 2.946057e-01 -6.288747e-02 -1.261961e-01 -1.023459e-01 -1.519132e-01 -2.172605e-01 -2.230717e-01 -4.983482e-02 -8.721428e-02 -7.166101e-02 1.225385e-01 -1.938495e-02 -1.136823e-01
<VARIANCE> 39
 1.067050e+02 2.356312e+01 2.134611e+01 3.399787e+01 4.275413e+01 3.771429e+01 3.144049e+01 3.254912e+01 3.109917e+01 2.803382e+01 2.664766e+01 3.135296e+01 2.742643e+01 4.101165e+00 3.964794e+00 4.550008e+00 5.232894e+00 5.557444e+00 4.438428e+00 4.109841e+00 3.861707e+00 3.726448e+00 3.647324e+00 2.675191e+00 2.838305e+00 2.386397e+00 4.334882e-01 2.522900e-01 5.046050e-01 5.334130e-01 7.068442e-01 7.317516e-01 7.430939e-01 6.580775e-01 6.739653e-01 6.723509e-01 3.920404e-01 4.613679e-01 4.475055e-01
<GCONST> 1.264501e+02
<MIXTURE> 2 4.284021e-01
<MEAN> 39
 -2.663979e+01 -6.285097e+00 -5.011886e+00 -2.891624e+00 -3.521815e+00 7.935710e-01 -3.440353e+00 1.229530e+00 -1.686427e+00 -7.527785e-01 5.673690e-01 -7.273830e-01 6.639327e-01 4.808751e-02 -3.299357e-02 -1.380950e-03 5.375123e-02 3.539012e-02 2.746204e-02 5.825534e-02 1.307716e-01 1.188277e-01 2.680406e-02 6.292720e-02 8.409350e-02 1.190751e-01 2.915042e-01 2.262123e-01 2.832614e-01 3.667106e-01 3.590255e-01 2.657561e-01 1.985617e-01 2.067286e-01 1.058756e-01 1.629760e-02 3.393977e-02 5.896629e-02 6.807949e-02
<VARIANCE> 39
 1.015656e+00 1.241763e+00 1.780014e+00 3.408546e+00 4.358154e+00 4.966806e+00 5.941120e+00 7.668901e+00 8.108961e+00 7.057574e+00 6.449183e+00 6.173398e+00 5.507693e+00 3.679568e-01 4.328897e-01 6.012671e-01 9.703478e-01 1.111893e+00 1.160794e+00 1.300949e+00 1.403508e+00 1.313338e+00 1.204721e+00 1.202718e+00 1.073524e+00 8.712647e-01 9.576242e-02 9.489443e-02 1.315159e-01 1.996049e-01 2.767770e-01 2.865224e-01 3.251048e-01 3.554820e-01 3.215799e-01 3.103009e-01 3.037156e-01 2.905034e-01 2.293952e-01
<GCONST> 6.986330e+01
<STATE> 4
<NUMMIXES> 2
<MIXTURE> 1 9.999990e-01
<MEAN> 39
 2.623319e+00 -1.127007e+01 -1.037113e+01 3.758430e+00 5.301899e+00 6.974514e+00 4.008327e-01 1.116732e+01 7.460084e-01 7.690847e-01 1.384122e+01 8.031708e+00 7.250751e+00 1.084666e+00 -1.256063e-01 -1.742176e-01 4.482216e-02 -1.785071e-01 -3.913223e-01 -2.401743e-01 9.332064e-02 1.439816e-01 3.461407e-01 4.522097e-01 -2.788033e-01 -4.857875e-01 -5.784977e-02 2.107952e-01 2.043644e-01 6.884390e-02 6.556418e-02 -4.336001e-02 -1.031646e-01 -1.002035e-01 -1.322514e-01 -1.860809e-01 -1.716041e-01 -1.411147e-01 -1.174767e-01
<VARIANCE> 39
 1.006378e+02 7.688768e+01 6.933685e+01 6.158746e+01 7.875600e+01 9.135875e+01 6.154749e+01 6.263470e+01 8.880828e+01 1.169658e+02 8.234372e+01 7.644524e+01 3.300034e+01 1.921592e+00 2.981678e+00 3.118008e+00 2.701175e+00 2.881861e+00 2.991810e+00 2.529114e+00 2.621461e+00 3.688204e+00 4.618543e+00 3.030374e+00 2.980124e+00 1.955444e+00 1.111408e-01 2.597703e-01 2.938598e-01 3.252560e-01 3.657604e-01 4.670174e-01 3.947205e-01 3.857833e-01 5.292225e-01 6.052067e-01 3.590961e-01 4.046757e-01 2.851916e-01
<GCONST> 1.273862e+02
<MIXTURE> 2 0.000000e+00
<MEAN> 39
 5.007752e+00 -2.283543e+01 4.224558e+00 7.395911e+00 -1.496770e+01 1.634329e+01 -3.899620e-01 -7.362168e+00 1.045351e+01 -8.315866e+00 -4.072007e+00 7.575201e+00 -7.643221e+00 4.026023e-01 -7.765181e-02 -8.578298e-02 -6.968217e-02 -1.323925e-01 -1.894298e-01 -1.235157e-01 -2.788639e-02 -4.998827e-02 -1.253398e-01 -5.394829e-02 -4.789721e-02 -1.341058e-01 -2.680980e-02 2.108817e-01 -1.997906e-02 -1.188034e-02 7.128937e-02 -1.880370e-01 -1.090263e-02 7.185538e-02 -9.433557e-02 3.775261e-02 -1.023603e-02 -9.081265e-02 7.448491e-03
<VARIANCE> 39
 4.348479e+01 6.712718e+01 3.071273e+01 2.897330e+01 3.015086e+01 3.144908e+01 3.685800e+01 4.986613e+01 2.770036e+01 2.634098e+01 2.861377e+01 1.982357e+01 1.831832e+01 2.071848e+00 4.567060e+00 1.638904e+00 1.625862e+00 2.427497e+00 3.893136e+00 2.698308e+00 2.704647e+00 2.611578e+00 1.984589e+00 1.565095e+00 1.808744e+00 1.519972e+00 2.321895e-01 5.215378e-01 2.863469e-01 2.859152e-01 3.921969e-01 5.372592e-01 4.658649e-01 5.187892e-01 4.154823e-01 3.823926e-01 2.791561e-01 2.746449e-01 2.874104e-01
<GCONST> 1.139793e+02
<TRANSP> 5
 0.000000e+00 1.000000e+00 0.000000e+00 0.000000e+00 0.000000e+00
 0.000000e+00 8.893334e-01 1.106666e-01 0.000000e+00 0.000000e+00
 0.000000e+00 0.000000e+00 8.749472e-01 1.250528e-01 0.000000e+00
 0.000000e+00 0.000000e+00 0.000000e+00 8.487564e-01 1.512436e-01
 0.000000e+00 0.000000e+00 0.000000e+00 0.000000e+00 0.000000e+00
<ENDHMM>
~h "rq"
<BEGINHMM>
<NUMSTATES> 7
<STATE> 2
<NUMMIXES> 2
<MIXTURE> 1 3.519010e-01
<MEAN> 39
 4.181336e+00 -1.517375e+01 1.116568e+01 6.818635e+00 3.530672e+00 1.927454e+01 1.263686e+00 7.485701e+00 -9.963656e+00 -1.417761e+01 2.671585e+00 2.433806e+00 4.112275e+00 1.285153e+00 1.298296e+00 9.283102e-01 2.255664e+00 -4.811114e-01 -8.332993e-01 2.090622e+00 -2.795177e-01 2.148634e-01 -6.055322e-01 -4.752159e-01 5.372469e-01 -4.655753e-02 2.792411e-01 1.937650e-01 -6.557869e-01 1.581891e-01 1.602010e-01 -6.868160e-01 -4.724116e-01 -4.146271e-01 1.238829e-01 -5.584011e-02 -3.634465e-01 -4.597419e-01 -8.902719e-02
<VARIANCE> 39
 1.830392e+01 2.991368e+01 1.016999e+01 1.705362e+02 4.856846e+01 2.067743e+01 4.092173e+01 5.224297e+00 1.489548e+01 1.574450e+01 1.507810e+01 9.038223e+00 1.834152e+01 4.907720e+00 7.346397e+00 1.820661e+00 4.242373e+00 8.579470e-01 4.982860e+00 1.755152e+00 1.084133e+00 5.350500e+00 4.684863e-01 2.344640e+00 1.714421e+00 1.192865e+00 2.450736e-01 6.472664e-01 9.475523e-02 9.225321e-01 6.266464e-02 3.756290e-01 1.292691e+00 1.876195e-01 1.493585e-01 9.530442e-02 4.539571e-01 2.375029e-01 3.809867e-01
<GCONST> 1.043230e+02
<MIXTURE> 2 6.480992e-01
<MEAN> 39
 1.040921e+01 -1.499514e+01 1.172514e+01 9.313832e+00 -1.984015e-01 1.889252e+01 -3.282471e+00 4.634393e+00 -5.894592e+00 -2.192968e+01 2.101982e+00 1.204662e+00 -3.129215e-01 1.902874e+00 1.431872e+00 -1.230016e+00 1.633186e+00 1.776798e+00 -2.054581e+00 -2.320261e-01 5.094312e-01 -8.270748e-01 -6.443435e-01 -6.817143e-01 -5.268713e-01 -3.782825e-01 -1.040292e-01 6.490776e-02 -5.160593e-01 -3.796982e-01 2.359050e-01 -3.761903e-01 -3.599444e-01 2.571581e-02 -1.642259e-01 1.652588e-01 1.955609e-01 8.947659e-02 1.640474e-02
<VARIANCE> 39
 3.615939e+01 6.267599e+01 2.129615e+01 3.538457e+01 2.036388e+01 7.692703e+01 3.155118e+01 1.031345e+01 4.050479e+01 4.915743e+00 9.733444e+00 4.831935e+00 6.299744e+00 1.265408e+00 2.179049e+00 4.775037e+00 2.953492e+00 1.755693e+00 4.753283e+00 3.344469e+00 1.620120e+00 1.201834e+00 6.092378e-01 9.720836e-01 7.316592e-01 6.890444e-01 3.638683e-01 6.380069e-01 3.859721e-01 5.481848e-01 4.829891e-01 4.949504e-01 8.253998e-01 2.668928e-01 2.519270e-01 2.482954e-01 2.923772e-01 1.938678e-01 4.705249e-02
<GCONST> 1.019462e+02
<STATE> 3
<NUMMIXES> 2
<MIXTURE> 1 3.511024e-01
<MEAN> 39
 6.468946e+00 -1.755998e+01 7.691206e+00 2.274304e+01 1.073937e+01 1.689649e+01 6.260360e+00 3.878803e+00 2.897489e+00 -7.125695e+00 -2.746922e+00 3.861570e+00 1.392186e+00 -1.793035e+00 -3.816187e+00 5.998248e-01 -1.100354e+00 -6.723400e-01 2.705350e+00 -9.738367e-01 -1.068569e+00 3.376971e+00 -2.295446e-01 -1.810947e+00 -1.587794e-01 1.580648e-01 3.011165e-01 -5.392278e-01 -3.938283e-01 -3.555188e-01 4.761953e-01 8.113277e-02 -1.971321e+00 -1.048458e+00 -6.991273e-01 -4.385369e-01 5.498041e-01 -5.291203e-01 -6.617136e-01
<VARIANCE> 39
 1.754596e+01 1.586998e+01 2.806831e+00 1.996417e+01 6.372105e+00 1.159518e+01 1.599412e+01 1.722939e+00 2.983112e+01 4.129900e+01 8.474541e-01 3.062649e+00 4.214649e-01 1.621144e+00 4.061198e+00 1.163027e+00 4.121847e-01 1.255100e+00 6.681163e+00 3.853622e-01 1.540780e-01 5.021198e+00 4.536260e-02 1.227372e+00 3.024662e-01 1.378625e-01 1.128816e-01 3.482071e-02 7.540567e-02 4.122460e-02 1.274055e-02 1.361487e-02 4.696841e-01 2.629369e-01 3.728485e-02 1.280883e-02 1.109228e-03 1.987669e-01 3.972569e-02
<GCONST> 5.080164e+01
<MIXTURE> 2 6.488975e-01
<MEAN> 39
 1.815308e+01 -7.038880e+00 2.683286e+00 1.339780e+01 6.800591e+00 4.557726e+00 -4.244161e+00 4.264984e+00 -1.417315e+01 -2.181569e+01 6.967783e-01 -1.450049e+00 -4.132128e-01 1.034764e+00 5.808804e-01 -2.321710e+00 1.384403e-01 2.876861e+00 -2.755352e+00 -2.385962e+00 5.344210e-01 -2.198731e+00 -1.667064e+00 1.218334e+00 4.611043e-01 -9.907266e-01 -4.189155e-01 5.720623e-02 3.381034e-01 -2.885638e-01 1.905609e-01 5.195057e-01 -1.134536e-01 3.671728e-01 1.392642e-02 -4.357000e-01 4.144552e-01 3.846650e-01 -1.514532e-01
<VARIANCE> 39
 9.222717e-01 4.131014e+00 3.708120e+00 3.494781e+00 6.575999e+00 2.030920e+01 1.670481e+01 8.777298e+00 3.133619e+01 6.950195e+00 4.031055e+00 4.173391e+00 1.525566e+00 7.711877e-02 1.177617e+00 1.181147e-01 9.246889e-02 3.481231e-01 1.301018e+00 9.787631e-02 5.242620e-01 2.886114e-01 2.366793e+00 1.224689e-01 2.276835e+00 1.393037e+00 9.150831e-03 7.613786e-02 3.931959e-02 1.794583e-01 7.361913e-02 1.700322e-01 5.998807e-02 4.021533e-02 8.118997e-02 7.089624e-02 1.998053e-02 1.142558e-01 4.032029e-02
<GCONST> 4.500168e+01
<STATE> 4
<NUMMIXES> 2
<MIXTURE> 1 8.521253e-01
<MEAN> 39
 1.940344e+01 -7.555395e+00 -2.633373e+00 1.086871e+01 1.580969e+01 -1.967487e+00 -1.584333e+01 1.119234e+01 -1.849829e+01 -2.831267e+01 1.192285e+01 -2.448188e-01 -6.579690e+00 -1.242446e-01 -1.160560e-01 -1.242925e-01 -4.272328e-01 4.790933e-01 7.758148e-03 -6.957330e-01 4.552443e-01 -5.174745e-01 -2.898638e-01 1.109191e+00 -4.828625e-01 -3.530445e-01 -9.946234e-02 -5.511988e-02 1.790419e-01 8.607544e-03 -1.540976e-01 2.935073e-01 1.572208e-01 -6.615889e-02 1.164129e-01 1.435926e-01 -6.638406e-02 -1.055296e-01 6.331773e-02
<VARIANCE> 39
 1.686879e+01 2.079837e+01 1.971961e+01 1.489174e+01 9.513855e+00 4.784029e+01 4.072021e+01 2.726581e+01 5.852565e+01 3.526195e+01 5.736911e+01 1.052983e+01 1.291827e+01 3.505828e-01 1.629066e+00 1.102321e+00 4.581875e-01 1.466060e+00 3.157083e+00 2.672001e+00 1.662497e+00 1.179780e+00 1.093560e+00 1.681875e+00 1.100329e+00 1.070166e+00 7.579999e-02 1.254247e-01 1.549125e-01 7.635871e-02 1.014509e-01 2.827119e-01 2.740036e-01 3.686296e-01 2.033884e-01 2.452083e-01 2.372233e-01 1.548475e-01 1.090984e-01
<GCONST> 9.221098e+01
<MIXTURE> 2 1.478747e-01
<MEAN> 39
 1.806197e+01 -4.621056e+00 -9.154365e-01 9.336728e+00 1.867019e+01 -1.355364e+00 -1.630002e+01 1.039519e+01 -2.446249e+01 -2.981104e+01 1.386538e+01 7.193165e-01 -6.900110e+00 9.355612e-03 -1.806538e-01 4.442606e-01 -4.598236e-01 1.409802e+00 -1.028586e+00 -1.731164e+00 1.975725e+00 -1.200387e+00 -1.041397e+00 2.147211e+00 -5.530546e-01 -6.677745e-01 -1.273976e-01 1.169470e-01 4.034767e-01 4.542987e-02 -5.661951e-01 3.657432e-01 3.968648e-01 -1.527269e-01 2.200994e-01 3.231928e-01 -6.592820e-02 -3.894797e-01 6.571001e-02
<VARIANCE> 39
 4.334869e-01 9.509478e-01 6.752043e+00 7.583267e+00 1.824354e+01 5.339508e+00 5.489751e+01 3.087262e+01 2.300949e+01 4.898193e+00 6.297153e+01 1.145882e+01 5.256559e+00 1.941048e-01 5.764277e-01 2.013429e+00 2.595561e-01 1.996085e+00 9.641623e-01 1.075254e+00 9.840273e-01 1.603734e-01 9.740510e-01 3.419404e-01 1.614003e+00 5.872750e-01 2.957322e-02 1.063992e-01 1.053118e-01 1.293838e-01 5.556615e-02 4.193725e-01 1.883631e-01 4.150398e-01 2.638631e-02 6.810230e-02 1.321596e-01 3.969064e-02 6.033360e-02
<GCONST> 6.385042e+01
<STATE> 5
<NUMMIXES> 2
<MIXTURE> 1 9.669814e-01
<MEAN> 39
 -5.791492e+00 -4.848178e+01 4.061735e+00 9.151464e+00 3.003157e+00 2.258064e+01 -1.039409e+01 -4.883094e+00 5.118191e+00 -5.966153e+00 -3.091178e+00 -2.867467e+00 1.734232e+00 -4.027852e-01 -6.990111e-01 -1.812152e-01 -7.691473e-01 -3.506303e-01 1.758977e-01 -3.202474e-01 -1.293318e-01 -1.426704e-01 4.368235e-02 2.977251e-02 -1.202737e-01 3.282614e-01 5.493808e-02 1.804293e-01 7.575046e-03 3.471133e-02 5.515208e-02 -1.136267e-02 1.381940e-01 2.954379e-02 -7.948902e-02 2.957377e-02 -7.058848e-02 -4.182152e-03 -4.654980e-03
<VARIANCE> 39
 3.297180e+01 8.049536e+01 9.501472e+00 2.857573e+01 1.363496e+01 2.256990e+01 2.063115e+01 2.518064e+01 3.117350e+01 2.930330e+01 2.211202e+01 1.015842e+01 1.329578e+01 1.138223e+00 3.739859e+00 1.012722e+00 1.912848e+00 8.801399e-01 1.186832e+00 2.513908e+00 1.018024e+00 1.264318e+00 1.304817e+00 1.538561e+00 1.000826e+00 4.490672e-01 1.536622e-01 2.958371e-01 1.677918e-01 2.238152e-01 9.768645e-02 2.422325e-01 2.579723e-01 2.206363e-01 2.737791e-01 2.571643e-01 3.636193e-01 1.721579e-01 7.815722e-02
<GCONST> 9.423467e+01
<MIXTURE> 2 3.301863e-02
<MEAN> 39
 1.793973e+01 -5.059870e+00 6.130998e+00 6.880225e+00 1.959461e+01 1.538689e+00 -2.028209e+01 1.589831e+01 -3.339242e+01 -3.049555e+01 2.875375e+01 -8.982763e+00 -9.986418e+00 5.592888e-01 -3.157311e-01 4.503329e-01 6.042314e-01 -6.327779e-01 2.398356e+00 1.069207e+00 -1.837468e+00 1.290143e-01 2.149788e+00 9.858483e-01 -1.871419e+00 -1.456645e+00 3.455166e-03 1.439235e-01 -3.599646e-01 2.184361e-01 2.116371e-01 -6.895185e-03 5.032485e-01 -3.238955e-01 1.023951e+00 7.281647e-01 -1.266211e+00 1.870413e-01 2.442276e-01
<VARIANCE> 39
 2.186462e+00 7.989206e-01 2.393131e-01 4.146729e-01 1.459206e+00 2.869568e+00 3.333267e+00 1.181708e+01 5.765945e+00 3.842438e+00 7.949707e+00 2.082523e+00 8.373423e-01 6.781441e-02 3.877586e-02 2.607788e-02 1.213829e-02 1.550689e-01 3.267298e-01 6.861806e-03 8.978057e-02 1.239482e-01 1.141469e-01 2.671982e-01 7.885933e-03 3.196931e-02 3.946018e-02 3.674714e-02 1.142772e-02 1.259540e-02 6.040413e-03 4.968396e-02 8.107513e-03 1.294888e-01 3.729737e-02 1.608032e-02 6.887591e-02 1.956467e-02 1.255981e-01
<GCONST> -3.935585e+00
<STATE> 6
<NUMMIXES> 2
<MIXTURE> 1 5.484452e-01
<MEAN> 39
 -9.463468e-01 1.945376e+00 9.293991e+00 1.140021e+01 1.243093e+01 1.381232e+01 -2.538417e+00 3.536064e+00 -8.438301e+00 -1.446201e+01 -5.929591e+00 -4.842304e+00 2.481808e+00 -2.218553e+00 7.005227e-01 5.000028e-01 2.187648e-01 -5.724495e-01 -5.270100e-02 6.009440e-01 -1.198653e+00 4.148546e-01 4.413792e-01 -1.772092e+00 3.382485e-01 4.054673e-03 3.901123e-02 -6.408747e-01 -4.743916e-01 -1.583147e-01 -5.661725e-02 -2.858479e-01 -1.911649e-01 3.482725e-01 1.465991e-01 1.926087e-04 4.748174e-01 -2.390561e-02 -9.652582e-02
<VARIANCE> 39
 3.742394e+01 3.851938e+02 9.184706e+00 1.848050e+01 2.558794e+01 3.051262e+01 8.304071e+00 2.265228e+01 1.349045e+01 8.461666e+00 3.089966e+01 2.496683e+00 4.336946e+00 1.387771e+00 3.825489e+00 1.128872e+00 1.409427e+00 1.036100e+00 1.139401e+00 2.916832e-01 1.882714e+00 5.574204e-01 1.594650e+00 4.986737e+00 6.444982e-01 1.095698e+00 1.387025e-01 2.682492e-01 1.144230e-01 1.879440e-01 1.811791e-01 3.357128e-01 2.027402e-01 1.986546e-01 3.274381e-01 6.615211e-01 5.082489e-01 3.343648e-02 3.142781e-01
<GCONST> 9.177212e+01
<MIXTURE> 2 4.515549e-01
<MEAN> 39
 1.418291e+01 -2.390232e+00 5.355524e+00 9.118382e+00 1.706846e+01 7.480813e+00 -1.124708e+01 1.217392e+01 -1.971636e+01 -2.179746e+01 1.570707e+01 -9.982373e+00 -5.991719e+00 -1.868875e+00 2.324101e+00 1.349987e+00 4.422647e-01 -8.644137e-01 2.337434e+00 3.095582e+00 -1.372667e+00 2.815767e+00 2.829445e+00 -3.771782e+00 2.376027e-01 1.652052e+00 -3.218113e-01 5.643473e-01 -3.197037e-03 6.102266e-02 -1.312006e-01 -2.983533e-01 1.707138e-01 -2.081685e-01 8.824993e-02 -1.247317e-01 -8.136094e-01 6.260079e-01 4.595895e-01
<VARIANCE> 39
 1.052769e+01 8.316681e+00 6.608479e+00 1.818558e+00 4.640989e+00 1.279575e+01 2.872735e+01 9.970062e+00 5.503706e+01 1.244641e+01 6.685593e+01 5.667301e+00 3.232750e+01 1.323699e+00 1.462471e+00 1.022695e+00 1.604354e-01 2.515375e-01 1.099111e+00 1.071270e+00 5.084466e-01 1.253928e+00 6.984544e-01 2.548378e+00 1.493181e+00 2.499224e+00 1.308296e-01 1.041426e-01 6.618067e-02 3.939981e-02 6.209478e-02 3.497972e-01 4.259596e-01 1.906440e-01 6.173679e-01 3.760661e-01 5.037525e-01 1.160751e-01 4.987569e-01
<GCONST> 8.181905e+01
<TRANSP> 7
 0.000000e+00 1.000000e+00 0.000000e+00 0.000000e+00 0.000000e+00 0.000000e+00 0.000000e+00
 0.000000e+00 8.287822e-01 1.712178e-01 0.000000e+00 0.000000e+00 0.000000e+00 0.000000e+00
 0.000000e+00 0.000000e+00 9.375380e-02 9.062462e-01 0.000000e+00 0.000000e+00 0.000000e+00
 0.000000e+00 0.000000e+00 0.000000e+00 8.957813e-01 1.042188e-01 0.000000e+00 0.000000e+00
 0.000000e+00 0.000000e+00 0.000000e+00 0.000000e+00 9.064348e-01 9.356523e-02 0.000000e+00
 0.000000e+00 0.000000e+00 0.000000e+00 0.000000e+00 0.000000e+00 8.079470e-01 1.920530e-01
 0.000000e+00 0.000000e+00 0.000000e+00 0.000000e+00 0.000000e+00 0.000000e+00 0.000000e+00
<ENDHMM>
~h "sh"
<BEGINHMM>
<NUMSTATES> 5
<STATE> 2
<NUMMIXES> 2
<MIXTURE> 1 8.979074e-01
<MEAN> 39
 -6.059296e-01 -3.196152e+01 4.958313e+00 1.528515e+01 7.156967e+00 1.943487e+01 -3.908006e+00 -8.658233e-01 1.121801e-01 -8.019888e+00 -1.019676e+00 6.172896e-01 3.278924e+00 -1.237982e+00 -2.527896e+00 6.082990e-01 -3.314182e-01 -1.056673e+00 8.954089e-01 1.779023e-01 -4.416605e-01 6.194215e-01 5.640872e-01 5.692244e-05 2.293878e-01 4.287538e-01 -4.898244e-02 -3.005694e-02 -6.874084e-02 -8.881305e-02 -4.332660e-03 -1.310039e-01 -1.130189e-01 6.369837e-02 -8.890964e-03 -4.606991e-02 5.538949e-02 7.815213e-03 -2.056491e-02
<VARIANCE> 39
 1.017998e+02 2.894295e+02 1.138347e+02 1.393603e+02 1.034786e+02 9.685693e+01 1.236923e+02 4.712080e+01 5.761008e+01 4.806357e+01 7.193419e+01 3.688585e+01 7.212659e+01 1.957910e+00 6.519982e+00 3.529225e+00 3.406453e+00 2.184518e+00 4.954639e+00 4.602094e+00 3.227023e+00 3.259161e+00 3.005336e+00 3.052644e+00 2.443051e+00 1.840263e+00 1.634740e-01 7.062321e-01 4.313967e-01 3.249873e-01 3.003434e-01 5.811988e-01 4.417835e-01 4.575415e-01 4.288698e-01 4.426644e-01 4.296236e-01 3.608270e-01 2.560702e-01
<GCONST> 1.322696e+02
<MIXTURE> 2 1.020923e-01
<MEAN> 39
 -9.881470e+00 -4.678409e+01 9.145374e+00 1.375596e+01 4.135848e+00 2.332766e+01 -3.377486e+00 -4.897118e-02 5.921558e+00 -3.068989e+00 7.176336e-01 3.181135e+00 6.407084e+00 -1.501405e+00 -1.817477e+00 -1.002991e+00 -1.635803e+00 -1.200987e+00 -1.201069e+00 -1.083925e+00 -3.397512e-01 -3.043062e-01 2.818290e-02 -2.485088e-01 -3.478215e-01 1.012425e-01 4.136059e-01 4.131686e-01 1.273332e-01 6.991896e-02 -7.390877e-02 -1.934901e-01 -3.099255e-01 -3.000077e-01 -3.542575e-01 -2.757562e-01 -2.029404e-01 -2.162831e-01 -1.695750e-01
<VARIANCE> 39
 1.231847e+01 4.985352e+01 4.721646e+01 4.881308e+01 2.559393e+01 2.196088e+01 7.559810e+01 2.387291e+01 4.064862e+01 1.421478e+01 2.723564e+01 1.997790e+01 2.306249e+01 8.993596e-01 1.362362e+00 9.791309e-01 1.564370e+00 1.338576e+00 2.381902e+00 1.868918e+00 1.238238e+00 1.489538e+00 1.523157e+00 1.732384e+00 1.513127e+00 8.236008e-01 9.146379e-02 1.891957e-01 1.416327e-01 1.523489e-01 1.473589e-01 3.091154e-01 3.203823e-01 2.430585e-01 2.587629e-01 2.698503e-01 2.522582e-01 2.213873e-01 1.643779e-01
<GCONST> 9.879652e+01
<STATE> 3
<NUMMIXES> 2
<MIXTURE> 1 1.515893e-01
<MEAN> 39
 -1.296101e+01 -5.044962e+01 6.366067e+00 8.455379e+00 2.365227e-01 1.846031e+01 -7.703264e+00 -3.894976e+00 -1.452518e-01 -4.425332e+00 -2.530751e+00 -5.637568e-01 6.899885e+00 1.413651e-03 -4.626509e-02 -1.188616e-02 -1.285071e-01 5.576458e-02 2.825692e-02 -2.949540e-02 -2.554650e-02 -1.035312e-01 4.308027e-02 -9.608999e-03 -1.959014e-02 7.494919e-03 1.579254e-01 3.892536e-02 5.612479e-02 4.332021e-02 -3.281283e-02 1.405912e-01 7.372954e-02 4.736437e-02 1.029711e-01 -3.122054e-02 5.133798e-02 5.261763e-02 -5.063651e-02
<VARIANCE> 39
 1.282607e+01 4.047565e+01 2.822977e+01 1.532436e+01 9.915863e+00 1.786700e+01 5.794310e+01 1.757080e+01 2.566561e+01 1.885913e+01 2.525695e+01 1.451786e+01 1.478435e+01 4.141017e-01 6.370079e-01 7.036391e-01 3.756135e-01 3.730777e-01 7.028651e-01 7.104715e-01 9.112867e-01 1.062554e+00 1.282703e+00 1.455903e+00 1.230671e+00 8.140122e-01 7.094635e-02 1.048323e-01 1.292179e-01 6.685109e-02 7.331061e-02 1.290150e-01 1.412230e-01 1.706376e-01 1.817624e-01 2.279921e-01 2.294189e-01 1.926943e-01 1.331192e-01
<GCONST> 8.077453e+01
<MIXTURE> 2 8.484089e-01
<MEAN> 39
 -1.094448e+01 -5.023341e+01 7.846538e+00 1.135517e+01 -1.024729e+00 1.975520e+01 -1.095967e+01 -6.254069e+00 4.935841e+00 -5.227458e+00 -3.865097e-01 7.537718e-01 2.713802e+00 -5.542495e-02 -9.589559e-02 -1.488543e-01 -3.077574e-01 -7.985270e-02 -6.421328e-02 -1.317950e-01 -1.468574e-01 -2.215159e-01 -4.017081e-02 -6.162200e-02 -1.326850e-02 3.924922e-02 9.027639e-02 1.990048e-01 6.577417e-03 9.254430e-02 1.391839e-01 6.740702e-02 1.324899e-01 6.713574e-02 -2.080609e-02 4.132446e-03 -1.376266e-02 2.983946e-02 3.776608e-02
<VARIANCE> 39
 1.181142e+01 1.734833e+01 2.988341e+01 1.787290e+01 1.273788e+01 1.910925e+01 6.495949e+01 2.470388e+01 2.667820e+01 2.602567e+01 3.387479e+01 1.832417e+01 1.599280e+01 1.042149e+00 1.970818e+00 1.064844e+00 8.810391e-01 9.060615e-01 1.540022e+00 1.526891e+00 1.177413e+00 1.270351e+00 1.589404e+00 1.744426e+00 1.467695e+00 8.378811e-01 1.633743e-01 3.551828e-01 1.820956e-01 1.216640e-01 1.269938e-01 2.199793e-01 1.978935e-01 1.893745e-01 2.273891e-01 2.972978e-01 3.377304e-01 2.726212e-01 1.573664e-01
<GCONST> 9.449637e+01
<STATE> 4
<NUMMIXES> 2
<MIXTURE> 1 5.979257e-01
<MEAN> 39
 2.430005e+00 -2.903492e+01 7.229845e+00 1.327059e+01 6.022422e+00 1.894811e+01 -7.184859e+00 -2.453539e+00 1.262119e+00 -7.852747e+00 -1.563599e+00 2.500510e+00 4.427419e+00 2.914082e+00 3.899745e+00 -1.354226e+00 1.238562e-01 1.247848e+00 -2.069334e+00 -8.167622e-01 1.011786e+00 -6.641029e-01 -1.039828e+00 2.308988e-01 -2.887557e-01 -5.713148e-01 -1.271936e-01 -4.197800e-01 -6.003922e-01 -3.290135e-01 1.659124e-01 -4.335655e-01 -3.469487e-01 3.900788e-01 -1.066681e-01 -2.401876e-01 2.991278e-01 2.440414e-02 -9.894930e-02
<VARIANCE> 39
 1.170880e+02 2.452502e+02 5.441714e+01 4.924668e+01 3.846680e+01 5.336032e+01 6.248299e+01 3.426028e+01 2.994083e+01 2.472137e+01 2.731836e+01 2.126268e+01 2.315378e+01 4.558632e+00 8.616814e+00 5.928392e+00 2.619090e+00 1.880452e+00 4.967933e+00 3.892428e+00 2.702648e+00 2.272843e+00 3.320831e+00 1.830824e+00 1.382501e+00 1.424602e+00 4.703662e-01 1.118196e+00 7.178453e-01 3.201723e-01 2.186200e-01 6.158190e-01 5.416182e-01 3.063810e-01 3.931090e-01 5.122486e-01 2.553490e-01 2.994134e-01 1.865523e-01
<GCONST> 1.237832e+02
<MIXTURE> 2 4.020730e-01
<MEAN> 39
 -1.054021e+01 -4.798570e+01 6.484145e+00 8.358939e+00 2.101789e+00 2.113807e+01 -7.562325e+00 -2.709815e+00 2.151859e+00 -3.992786e+00 2.248929e-01 3.048130e+00 6.721859e+00 1.218873e+00 2.191873e+00 1.361186e-01 6.374831e-01 5.439623e-01 3.517259e-01 8.586536e-01 2.568648e-01 1.267729e-01 -1.640019e-01 9.716839e-03 5.239631e-01 1.436066e-01 5.260160e-01 7.832935e-01 2.461145e-01 2.810641e-01 9.054915e-02 -1.383511e-01 -8.562833e-02 -7.436125e-02 -4.336926e-02 -1.459313e-01 -1.716392e-01 -1.817051e-01 -1.820186e-01
<VARIANCE> 39
 1.735998e+01 5.211737e+01 4.070243e+01 2.028130e+01 1.781374e+01 2.126154e+01 7.850163e+01 3.103954e+01 2.315590e+01 1.850270e+01 2.260026e+01 1.781572e+01 1.721286e+01 1.923721e+00 5.333197e+00 1.413204e+00 1.377827e+00 8.350039e-01 1.515497e+00 1.542866e+00 1.569833e+00 1.777644e+00 1.682778e+00 1.574521e+00 1.488257e+00 8.518690e-01 1.847966e-01 4.656566e-01 1.913144e-01 1.415495e-01 1.489016e-01 2.757245e-01 2.691479e-01 2.810914e-01 3.207692e-01 3.149519e-01 2.848402e-01 2.596980e-01 1.474419e-01
<GCONST> 1.010947e+02
<TRANSP> 5
 0.000000e+00 1.000000e+00 0.000000e+00 0.000000e+00 0.000000e+00
 0.000000e+00 9.122640e-01 8.773592e-02 0.000000e+00 0.000000e+00
 0.000000e+00 0.000000e+00 9.259812e-01 7.401881e-02 0.000000e+00
 0.000000e+00 0.000000e+00 0.000000e+00 8.765075e-01 1.234925e-01
 0.000000e+00 0.000000e+00 0.000000e+00 0.000000e+00 0.000000e+00
<ENDHMM>
~h "sp"
<BEGINHMM>
<NUMSTATES> 5
<STATE> 2
<NUMMIXES> 2
<MIXTURE> 1 5.000000e-01
<MEAN> 39
 5.098849e+00 -6.514025e+00 2.430083e+00 1.092778e+01 1.083864e+01 1.500667e+00 -1.140838e+01 9.359310e+00 -3.377835e+00 -1.113024e+01 6.044074e+00 -4.088247e-01 -3.646332e+00 -1.380477e-02 1.475701e-03 -1.072459e-03 -5.524765e-03 -3.099398e-03 2.005852e-03 8.190720e-04 -5.087083e-03 2.488556e-03 5.650900e-03 -1.806995e-03 5.936168e-04 1.443354e-03 -1.213556e-03 -1.404243e-04 -1.926630e-04 -5.029775e-04 -4.298560e-04 2.249404e-04 5.535607e-04 -2.933974e-04 7.204357e-05 8.173331e-04 -1.603794e-04 -1.434907e-04 3.551734e-04
<VARIANCE> 39
 2.696502e+02 1.642264e+02 1.776205e+02 1.699619e+02 1.712323e+02 1.501611e+02 1.653076e+02 1.112998e+02 8.102897e+01 1.132308e+02 1.038732e+02 3.576029e+01 7.139818e+01 2.864393e+00 3.049235e+00 2.950589e+00 2.442850e+00 2.488132e+00 2.882445e+00 3.574063e+00 2.837703e+00 2.254665e+00 3.083899e+00 2.848865e+00 1.410452e+00 1.706605e+00 2.059384e-01 2.861855e-01 3.165202e-01 2.798763e-01 2.958655e-01 3.292713e-01 4.082396e-01 3.875320e-01 3.475762e-01 4.161765e-01 3.917231e-01 2.236369e-01 2.362328e-01
<GCONST> 1.313330e+02
<MIXTURE> 2 5.000000e-01
<MEAN> 39
 5.098849e+00 -6.514025e+00 2.430083e+00 1.092778e+01 1.083864e+01 1.500667e+00 -1.140838e+01 9.359310e+00 -3.377835e+00 -1.113024e+01 6.044074e+00 -4.088247e-01 -3.646332e+00 -1.380477e-02 1.475701e-03 -1.072459e-03 -5.524765e-03 -3.099398e-03 2.005852e-03 8.190720e-04 -5.087083e-03 2.488556e-03 5.650900e-03 -1.806995e-03 5.936168e-04 1.443354e-03 -1.213556e-03 -1.404243e-04 -1.926630e-04 -5.029775e-04 -4.298560e-04 2.249404e-04 5.535607e-04 -2.933974e-04 7.204357e-05 8.173331e-04 -1.603794e-04 -1.434907e-04 3.551734e-04
<VARIANCE> 39
 2.696502e+02 1.642264e+02 1.776205e+02 1.699619e+02 1.712323e+02 1.501611e+02 1.653076e+02 1.112998e+02 8.102897e+01 1.132308e+02 1.038732e+02 3.576029e+01 7.139818e+01 2.864393e+00 3.049235e+00 2.950589e+00 2.442850e+00 2.488132e+00 2.882445e+00 3.574063e+00 2.837703e+00 2.254665e+00 3.083899e+00 2.848865e+00 1.410452e+00 1.706605e+00 2.059384e-01 2.861855e-01 3.165202e-01 2.798763e-01 2.958655e-01 3.292713e-01 4.082396e-01 3.875320e-01 3.475762e-01 4.161765e-01 3.917231e-01 2.236369e-01 2.362328e-01
<GCONST> 1.313330e+02
<STATE> 3
<NUMMIXES> 2
<MIXTURE> 1 5.000000e-01
<MEAN> 39
 5.098849e+00 -6.514025e+00 2.430083e+00 1.092778e+01 1.083864e+01 1.500667e+00 -1.140838e+01 9.359310e+00 -3.377835e+00 -1.113024e+01 6.044074e+00 -4.088247e-01 -3.646332e+00 -1.380477e-02 1.475701e-03 -1.072459e-03 -5.524765e-03 -3.099398e-03 2.005852e-03 8.190720e-04 -5.087083e-03 2.488556e-03 5.650900e-03 -1.806995e-03 5.936168e-04 1.443354e-03 -1.213556e-03 -1.404243e-04 -1.926630e-04 -5.029775e-04 -4.298560e-04 2.249404e-04 5.535607e-04 -2.933974e-04 7.204357e-05 8.173331e-04 -1.603794e-04 -1.434907e-04 3.551734e-04
<VARIANCE> 39
 2.696502e+02 1.642264e+02 1.776205e+02 1.699619e+02 1.712323e+02 1.501611e+02 1.653076e+02 1.112998e+02 8.102897e+01 1.132308e+02 1.038732e+02 3.576029e+01 7.139818e+01 2.864393e+00 3.049235e+00 2.950589e+00 2.442850e+00 2.488132e+00 2.882445e+00 3.574063e+00 2.837703e+00 2.254665e+00 3.083899e+00 2.848865e+00 1.410452e+00 1.706605e+00 2.059384e-01 2.861855e-01 3.165202e-01 2.798763e-01 2.958655e-01 3.292713e-01 4.082396e-01 3.875320e-01 3.475762e-01 4.161765e-01 3.917231e-01 2.236369e-01 2.362328e-01
<GCONST> 1.313330e+02
<MIXTURE> 2 5.000000e-01
<MEAN> 39
 5.098849e+00 -6.514025e+00 2.430083e+00 1.092778e+01 1.083864e+01 1.500667e+00 -1.140838e+01 9.359310e+00 -3.377835e+00 -1.113024e+01 6.044074e+00 -4.088247e-01 -3.646332e+00 -1.380477e-02 1.475701e-03 -1.072459e-03 -5.524765e-03 -3.099398e-03 2.005852e-03 8.190720e-04 -5.087083e-03 2.488556e-03 5.650900e-03 -1.806995e-03 5.936168e-04 1.443354e-03 -1.213556e-03 -1.404243e-04 -1.926630e-04 -5.029775e-04 -4.298560e-04 2.249404e-04 5.535607e-04 -2.933974e-04 7.204357e-05 8.173331e-04 -1.603794e-04 -1.434907e-04 3.551734e-04
<VARIANCE> 39
 2.696502e+02 1.642264e+02 1.776205e+02 1.699619e+02 1.712323e+02 1.501611e+02 1.653076e+02 1.112998e+02 8.102897e+01 1.132308e+02 1.038732e+02 3.576029e+01 7.139818e+01 2.864393e+00 3.049235e+00 2.950589e+00 2.442850e+00 2.488132e+00 2.882445e+00 3.574063e+00 2.837703e+00 2.254665e+00 3.083899e+00 2.848865e+00 1.410452e+00 1.706605e+00 2.059384e-01 2.861855e-01 3.165202e-01 2.798763e-01 2.958655e-01 3.292713e-01 4.082396e-01 3.875320e-01 3.475762e-01 4.161765e-01 3.917231e-01 2.236369e-01 2.362328e-01
<GCONST> 1.313330e+02
<STATE> 4
<NUMMIXES> 2
<MIXTURE> 1 5.000000e-01
<MEAN> 39
 5.098849e+00 -6.514025e+00 2.430083e+00 1.092778e+01 1.083864e+01 1.500667e+00 -1.140838e+01 9.359310e+00 -3.377835e+00 -1.113024e+01 6.044074e+00 -4.088247e-01 -3.646332e+00 -1.380477e-02 1.475701e-03 -1.072459e-03 -5.524765e-03 -3.099398e-03 2.005852e-03 8.190720e-04 -5.087083e-03 2.488556e-03 5.650900e-03 -1.806995e-03 5.936168e-04 1.443354e-03 -1.213556e-03 -1.404243e-04 -1.926630e-04 -5.029775e-04 -4.298560e-04 2.249404e-04 5.535607e-04 -2.933974e-04 7.204357e-05 8.173331e-04 -1.603794e-04 -1.434907e-04 3.551734e-04
<VARIANCE> 39
 2.696502e+02 1.642264e+02 1.776205e+02 1.699619e+02 1.712323e+02 1.501611e+02 1.653076e+02 1.112998e+02 8.102897e+01 1.132308e+02 1.038732e+02 3.576029e+01 7.139818e+01 2.864393e+00 3.049235e+00 2.950589e+00 2.442850e+00 2.488132e+00 2.882445e+00 3.574063e+00 2.837703e+00 2.254665e+00 3.083899e+00 2.848865e+00 1.410452e+00 1.706605e+00 2.059384e-01 2.861855e-01 3.165202e-01 2.798763e-01 2.958655e-01 3.292713e-01 4.082396e-01 3.875320e-01 3.475762e-01 4.161765e-01 3.917231e-01 2.236369e-01 2.362328e-01
<GCONST> 1.313330e+02
<MIXTURE> 2 5.000000e-01
<MEAN> 39
 5.098849e+00 -6.514025e+00 2.430083e+00 1.092778e+01 1.083864e+01 1.500667e+00 -1.140838e+01 9.359310e+00 -3.377835e+00 -1.113024e+01 6.044074e+00 -4.088247e-01 -3.646332e+00 -1.380477e-02 1.475701e-03 -1.072459e-03 -5.524765e-03 -3.099398e-03 2.005852e-03 8.190720e-04 -5.087083e-03 2.488556e-03 5.650900e-03 -1.806995e-03 5.936168e-04 1.443354e-03 -1.213556e-03 -1.404243e-04 -1.926630e-04 -5.029775e-04 -4.298560e-04 2.249404e-04 5.535607e-04 -2.933974e-04 7.204357e-05 8.173331e-04 -1.603794e-04 -1.434907e-04 3.551734e-04
<VARIANCE> 39
 2.696502e+02 1.642264e+02 1.776205e+02 1.699619e+02 1.712323e+02 1.501611e+02 1.653076e+02 1.112998e+02 8.102897e+01 1.132308e+02 1.038732e+02 3.576029e+01 7.139818e+01 2.864393e+00 3.049235e+00 2.950589e+00 2.442850e+00 2.488132e+00 2.882445e+00 3.574063e+00 2.837703e+00 2.254665e+00 3.083899e+00 2.848865e+00 1.410452e+00 1.706605e+00 2.059384e-01 2.861855e-01 3.165202e-01 2.798763e-01 2.958655e-01 3.292713e-01 4.082396e-01 3.875320e-01 3.475762e-01 4.161765e-01 3.917231e-01 2.236369e-01 2.362328e-01
<GCONST> 1.313330e+02
<TRANSP> 5
 0.000000e+00 1.000000e+00 0.000000e+00 0.000000e+00 0.000000e+00
 0.000000e+00 6.000000e-01 4.000000e-01 0.000000e+00 0.000000e+00
 0.000000e+00 0.000000e+00 6.000000e-01 4.000000e-01 0.000000e+00
 0.000000e+00 0.000000e+00 0.000000e+00 6.000000e-01 4.000000e-01
 0.000000e+00 0.000000e+00 0.000000e+00 0.000000e+00 0.000000e+00
<ENDHMM>
~h "sx"
<BEGINHMM>
<NUMSTATES> 5
<STATE> 2
<NUMMIXES> 2
<MIXTURE> 1 9.841090e-01
<MEAN> 39
 -1.095062e+00 -3.018903e+01 2.578077e-01 1.091222e+01 7.167387e+00 1.866636e+01 -5.152874e+00 -1.626196e-01 2.355773e+00 -6.792828e+00 2.768183e-02 2.369071e+00 3.645512e+00 -9.607903e-01 -2.933102e+00 7.197118e-01 -2.383842e-01 -9.778659e-01 1.201503e+00 2.314251e-01 -4.086373e-01 5.457979e-01 3.604549e-01 -2.215327e-01 4.622284e-02 3.405963e-01 -4.468708e-02 3.095858e-02 -2.115503e-03 -9.293877e-02 1.802467e-02 -1.782701e-01 -1.744792e-01 6.223689e-02 -4.578569e-02 -2.261810e-02 9.828626e-02 -2.374513e-02 -4.639169e-02
<VARIANCE> 39
 1.273577e+02 2.811802e+02 1.872262e+02 1.614699e+02 8.712421e+01 1.138433e+02 1.001579e+02 5.394925e+01 3.590746e+01 3.521286e+01 5.795212e+01 2.702851e+01 4.129773e+01 2.871132e+00 4.581285e+00 5.173257e+00 4.227039e+00 2.138022e+00 5.159715e+00 4.169087e+00 3.236012e+00 2.485966e+00 2.438997e+00 2.349860e+00 1.357798e+00 2.020226e+00 1.944566e-01 6.349757e-01 5.785912e-01 3.824004e-01 3.094719e-01 5.869218e-01 4.604613e-01 5.646388e-01 3.615980e-01 4.082257e-01 3.473065e-01 2.181380e-01 3.310821e-01
<GCONST> 1.305749e+02
<MIXTURE> 2 1.589083e-02
<MEAN> 39
 -1.456529e+01 -2.254909e+01 3.056309e+00 9.743439e+00 6.305763e+00 1.477032e+01 -5.259128e-01 3.138325e+00 4.273074e+00 -4.526300e-01 4.395602e-01 3.204414e+00 6.140480e+00 -1.040024e+00 -2.515799e+00 -2.088309e+00 -1.761057e+00 -6.365438e-01 -6.564543e-01 -1.063130e+00 2.442597e-01 2.565938e-02 -5.062959e-01 -5.220014e-01 -2.681477e-02 2.505453e-01 4.137157e-01 1.601499e-01 -1.697066e-01 -1.601792e-01 -1.043639e-01 -2.540368e-01 -3.855331e-01 -3.709737e-01 -2.774019e-01 -1.543603e-01 -2.355416e-01 -2.738794e-01 -4.337602e-02
<VARIANCE> 39
 6.253387e+01 3.561962e+02 8.568935e+01 7.088809e+01 2.308921e+01 9.699326e+01 3.082687e+01 2.986728e+01 1.907660e+01 1.011418e+01 1.804681e+01 1.485603e+01 9.276211e+00 1.867121e+00 5.145714e-01 1.331966e+00 4.559473e-01 9.335731e-01 6.776990e-01 7.719693e-01 1.248724e+00 1.300288e+00 1.031048e+00 7.308745e-01 7.725736e-01 1.169735e+00 4.206431e-02 2.565560e-01 1.068957e-01 7.200366e-02 9.611256e-02 1.151204e-01 1.457550e-01 1.815529e-01 1.653679e-01 1.077594e-01 1.288866e-01 9.814613e-02 8.738488e-02
<GCONST> 8.849887e+01
<STATE> 3
<NUMMIXES> 2
<MIXTURE> 1 0.000000e+00
<MEAN> 39
 -2.460413e+01 -2.528620e+01 9.476417e+00 1.453254e+00 8.121964e+00 -6.020190e+00 2.558741e+00 -3.683615e+00 2.657288e+00 -4.109238e+00 2.908855e+00 4.739001e-02 -7.405792e-01 -1.435858e-01 -1.183302e-01 4.800704e-04 -1.259827e-01 -1.603135e-01 -9.897383e-02 -2.412239e-02 1.340315e-02 5.059737e-02 6.779682e-02 8.571308e-02 1.051517e-01 4.385307e-02 1.701642e-01 1.138292e-01 -9.650642e-03 3.541986e-02 8.229297e-02 5.383232e-02 -1.378253e-02 7.141295e-03 -2.082125e-02 2.484192e-02 -1.483140e-02 1.512020e-02 -1.248819e-02
<VARIANCE> 39
 1.287360e+01 1.845261e+01 3.968744e+01 2.419895e+01 2.596645e+01 2.354561e+01 2.662227e+01 3.145501e+01 2.725155e+01 2.397213e+01 2.824627e+01 2.035361e+01 2.221501e+01 5.440961e-01 4.177724e-01 5.778142e-01 6.248232e-01 8.203446e-01 8.965421e-01 1.009574e+00 1.112690e+00 1.137437e+00 1.150113e+00 1.086122e+00 9.778180e-01 8.340899e-01 5.372016e-02 7.531175e-02 9.407701e-02 1.193896e-01 1.523911e-01 1.770679e-01 2.031044e-01 2.243394e-01 2.324814e-01 2.318604e-01 2.228285e-01 1.993412e-01 1.736224e-01
<GCONST> 8.606846e+01
<MIXTURE> 2 1.000000e+00
<MEAN> 39
 -1.075149e+01 -4.997038e+01 8.791908e+00 8.624512e+00 4.457026e-01 2.115840e+01 -1.212426e+01 -4.708023e+00 4.960612e+00 -5.102453e+00 1.049368e+00 2.492045e+00 3.814254e+00 -3.521178e-01 -6.346111e-02 -1.259594e-01 -3.233619e-01 -3.147148e-01 -4.126297e-01 -2.644036e-01 -4.124652e-02 -1.764055e-01 -8.681554e-02 -1.311075e-01 -3.868128e-02 1.272202e-01 1.050609e-01 1.820087e-01 -1.512228e-02 9.483428e-02 1.191438e-01 6.530773e-02 9.930405e-02 5.535995e-02 -5.394226e-02 -7.164119e-02 -5.567953e-02 -4.655115e-03 -2.562598e-03
<VARIANCE> 39
 1.113926e+01 1.664198e+01 2.771980e+01 1.075998e+01 1.466226e+01 1.643394e+01 5.825385e+01 1.865569e+01 1.705933e+01 2.486342e+01 2.500932e+01 2.087479e+01 1.530052e+01 9.329570e-01 2.176067e+00 1.205085e+00 9.213433e-01 7.379183e-01 1.563810e+00 1.401991e+00 1.091427e+00 1.327693e+00 1.567203e+00 1.253590e+00 1.052630e+00 7.091779e-01 1.411389e-01 2.719589e-01 1.683278e-01 1.078024e-01 1.246918e-01 2.479624e-01 1.428071e-01 1.779467e-01 2.538286e-01 2.943271e-01 2.538311e-01 1.838319e-01 1.339537e-01
<GCONST> 9.006911e+01
<STATE> 4
<NUMMIXES> 2
<MIXTURE> 1 5.425958e-01
<MEAN> 39
 -5.121806e+00 -3.729157e+01 6.560101e+00 8.879642e+00 2.049372e+00 1.825841e+01 -7.947835e+00 -1.118250e+00 1.483757e+00 -7.323480e+00 -2.397431e+00 1.525185e+00 6.024209e+00 1.072748e+00 2.876896e+00 -8.773949e-01 1.301131e-01 5.955235e-01 -1.448567e+00 -2.361111e-01 3.434153e-01 -4.128365e-01 -3.309830e-01 -9.127790e-02 -8.098036e-02 -7.882655e-02 -1.029030e-01 -4.500744e-02 -3.155954e-01 -1.632318e-01 9.487005e-02 -2.006614e-01 -6.382333e-02 2.075488e-01 3.486405e-02 1.144367e-02 2.269075e-01 8.951484e-02 -1.990204e-02
<VARIANCE> 39
 1.223941e+02 2.509999e+02 5.918044e+01 3.591536e+01 3.438158e+01 6.471927e+01 7.116969e+01 2.469671e+01 4.356051e+01 3.257025e+01 2.721140e+01 2.785039e+01 1.533554e+01 5.601681e+00 9.159847e+00 3.662299e+00 2.049231e+00 2.020604e+00 3.801835e+00 4.160101e+00 2.079495e+00 2.320179e+00 2.335228e+00 1.785753e+00 1.520787e+00 1.309243e+00 3.304003e-01 8.914930e-01 4.910418e-01 3.017594e-01 2.109100e-01 4.430250e-01 5.900476e-01 2.834324e-01 3.400352e-01 3.533933e-01 2.383923e-01 2.677752e-01 1.940742e-01
<GCONST> 1.207772e+02
<MIXTURE> 2 4.574030e-01
<MEAN> 39
 -1.415400e+01 -4.401619e+01 5.380942e+00 6.352272e+00 7.294111e-01 1.677975e+01 -7.229698e+00 7.672767e-01 3.052364e+00 -3.267809e+00 -9.305506e-01 1.814948e+00 7.616286e+00 1.507946e-01 1.154132e+00 1.763950e-02 -6.144762e-03 1.263427e-01 -1.347429e-01 2.716629e-01 3.051287e-01 -5.497634e-04 -1.277334e-01 5.393311e-02 1.943117e-01 2.691099e-02 3.375192e-01 3.167176e-01 1.514975e-01 1.677370e-01 2.805158e-02 2.556701e-02 -3.360869e-02 -9.198514e-02 -2.087553e-02 -1.561982e-01 -1.532926e-01 -7.958193e-02 -1.073885e-01
<VARIANCE> 39
 3.219780e+01 2.120540e+02 6.133619e+01 2.002520e+01 2.122994e+01 7.748273e+01 6.637456e+01 2.207539e+01 2.815060e+01 2.231646e+01 2.356612e+01 1.696615e+01 1.374490e+01 1.824448e+00 3.515497e+00 1.395692e+00 1.511838e+00 1.194721e+00 1.546822e+00 1.631887e+00 1.327836e+00 1.690521e+00 1.347463e+00 1.579987e+00 1.312369e+00 1.100265e+00 1.803333e-01 5.880131e-01 2.110378e-01 2.094872e-01 1.770936e-01 2.884642e-01 1.920650e-01 2.136699e-01 2.727813e-01 2.385993e-01 2.808178e-01 2.362368e-01 1.981597e-01
<GCONST> 1.044158e+02
<TRANSP> 5
 0.000000e+00 1.000000e+00 0.000000e+00 0.000000e+00 0.000000e+00
 0.000000e+00 9.241303e-01 7.586973e-02 0.000000e+00 0.000000e+00
 0.000000e+00 0.000000e+00 8.488855e-01 1.511145e-01 0.000000e+00
 0.000000e+00 0.000000e+00 0.000000e+00 9.390388e-01 6.096122e-02
 0.000000e+00 0.000000e+00 0.000000e+00 0.000000e+00 0.000000e+00
<ENDHMM>
~h "th"
<BEGINHMM>
<NUMSTATES> 5
<STATE> 2
<NUMMIXES> 2
<MIXTURE> 1 0.000000e+00
<MEAN> 39
 -3.886223e-05 -1.931190e-05 5.215406e-07 8.761883e-06 -2.145767e-06 5.111098e-06 8.314848e-06 2.488494e-06 -7.539988e-06 1.132488e-06 -3.003515e-07 5.424023e-06 -4.022149e-08 1.873821e-06 -4.437752e-07 5.909242e-07 1.825392e-07 -4.018657e-07 -3.222376e-07 3.189780e-07 -5.820766e-11 -6.482005e-07 -5.755574e-07 -2.846355e-08 6.949995e-08 9.033829e-08 -3.673423e-02 3.657988e-03 -6.203171e-03 1.457151e-03 -7.559096e-04 -1.241736e-03 -9.468020e-04 -1.675523e-03 -7.280131e-04 -1.245679e-03 7.821736e-05 -6.539826e-04 -5.843351e-06
<VARIANCE> 39
 6.791949e-05 1.000000e-30 1.187436e-07 1.545995e-06 3.539026e-07 4.889444e-07 7.301569e-06 3.557652e-07 1.000000e-30 1.000000e-30 1.000000e-30 3.034249e-06 1.224976e-10 1.000000e-30 1.000000e-30 8.043571e-09 1.000000e-30 1.000000e-30 1.000000e-30 2.622983e-09 1.563194e-12 1.000000e-30 1.000000e-30 1.000000e-30 1.000000e-30 1.000000e-30 2.939744e-02 1.510691e-03 1.924523e-03 1.205781e-03 1.539571e-03 1.394400e-03 1.598690e-03 1.480532e-03 1.398113e-03 1.215753e-03 1.174650e-03 9.854551e-04 6.629324e-04
<GCONST> -1.400000e+11
<MIXTURE> 2 1.000000e+00
<MEAN> 39
 -7.781822e+00 -2.460055e+00 -3.409284e+00 2.818115e+00 2.939861e+00 4.067985e+00 -1.720280e+00 5.824928e+00 -5.009950e-01 -1.419233e+00 4.062418e+00 1.995170e+00 3.661633e+00 -6.812654e-01 -9.375837e-02 -8.037978e-02 -7.777111e-02 -2.269308e-01 6.294945e-02 3.505859e-01 -2.442636e-02 2.496120e-01 3.418543e-01 -2.458971e-01 7.926770e-02 3.716058e-01 8.061009e-02 -1.832376e-01 -5.582743e-02 2.079319e-02 3.240673e-02 5.442581e-02 8.968469e-03 8.769756e-02 3.102085e-02 -2.753589e-02 4.521672e-02 3.583542e-02 9.545888e-02
<VARIANCE> 39
 3.024691e+02 8.407330e+01 8.182770e+01 5.966961e+01 9.145551e+01 5.888029e+01 3.849321e+01 4.685406e+01 3.470507e+01 2.762523e+01 3.817131e+01 1.957336e+01 2.625884e+01 2.441825e+00 1.770463e+00 1.371148e+00 9.625871e-01 1.647888e+00 1.661139e+00 1.813498e+00 1.555091e+00 1.737341e+00 1.602846e+00 1.779193e+00 1.059768e+00 1.422129e+00 1.580109e-01 1.932969e-01 1.673961e-01 1.540220e-01 2.119174e-01 2.255110e-01 2.144224e-01 2.442198e-01 2.639582e-01 2.673313e-01 2.281736e-01 1.667209e-01 2.163941e-01
<GCONST> 1.083608e+02
<STATE> 3
<NUMMIXES> 2
<MIXTURE> 1 0.000000e+00
<MEAN> 39
 0.000000e+00 0.000000e+00 0.000000e+00 0.000000e+00 0.000000e+00 0.000000e+00 0.000000e+00 0.000000e+00 0.000000e+00 0.000000e+00 0.000000e+00 0.000000e+00 0.000000e+00 7.602786e-28 -6.781300e-28 2.817260e-28 -2.260459e-29 5.468585e-29 -1.506301e-28 1.148696e-28 -2.120465e-29 7.979356e-30 -5.320312e-29 5.792728e-29 -1.833769e-29 3.866608e-31 -4.988265e-02 4.965165e-03 -7.294576e-03 2.466788e-03 2.788171e-04 -1.618284e-03 -9.823618e-04 -1.922494e-03 -5.035132e-04 -1.812430e-03 -3.375670e-05 -6.368760e-04 -8.684045e-05
<VARIANCE> 39
 1.000000e-30 1.000000e-30 1.000000e-30 1.000000e-30 1.000000e-30 1.000000e-30 1.000000e-30 1.000000e-30 1.000000e-30 1.000000e-30 1.000000e-30 1.000000e-30 1.000000e-30 8.953985e-28 7.123556e-28 1.229489e-28 1.000000e-30 4.632556e-30 3.514752e-29 2.044002e-29 1.000000e-30 1.000000e-30 4.384753e-30 5.198011e-30 1.000000e-30 1.000000e-30 4.486060e-02 3.359458e-03 3.289693e-03 2.491937e-03 2.905590e-03 2.327311e-03 2.783720e-03 2.963404e-03 2.648251e-03 2.054753e-03 2.260878e-03 1.761504e-03 1.385205e-03
<GCONST> -1.300000e+11
<MIXTURE> 2 1.000000e+00
<MEAN> 39
 -1.170206e+01 -3.695085e+00 7.670565e-01 6.783258e+00 5.719176e+00 8.595884e+00 3.386497e-02 6.712385e+00 2.531080e+00 3.486608e-01 7.451079e-01 3.776515e-01 7.596849e+00 1.388743e+00 -2.059722e+00 -4.257934e-01 -2.971469e-01 -8.217110e-01 1.672817e-01 -1.342877e-01 6.653320e-01 8.421291e-01 8.616033e-01 6.955082e-01 -2.720963e-01 7.811928e-01 6.619020e-01 -2.130926e-01 1.780456e-01 -2.479082e-01 -2.610744e-01 2.839290e-02 -3.877983e-01 -1.530737e-01 -4.682652e-01 -2.391733e-01 5.318815e-01 -1.384740e-01 -3.583618e-01
<VARIANCE> 39
 6.999076e+01 5.362993e+01 2.745802e+01 4.118170e+01 3.959158e+01 2.643750e+01 2.609790e+01 2.567474e+01 3.123679e+01 2.514093e+01 2.288850e+01 2.357404e+01 2.852553e+01 6.315508e+00 3.621844e+00 2.337831e+00 4.032030e+00 3.942571e+00 2.314906e+00 3.547102e+00 3.398164e+00 4.775774e+00 2.658464e+00 3.963298e+00 2.264488e+00 4.019398e+00 2.911482e-01 3.148751e-01 3.721855e-01 5.556425e-01 5.964741e-01 4.190191e-01 4.426687e-01 6.860826e-01 1.069385e+00 6.580139e-01 4.750409e-01 4.144641e-01 7.296681e-01
<GCONST> 1.240722e+02
<STATE> 4
<NUMMIXES> 2
<MIXTURE> 1 7.631745e-01
<MEAN> 39
 4.011153e+00 -1.439087e+01 3.751199e+00 3.129251e+00 1.259160e-02 1.347914e+01 -6.022993e+00 3.033752e+00 -6.638079e+00 -5.013507e+00 1.239315e+01 -8.168774e-01 3.866106e+00 1.642605e+00 -4.737228e-01 2.156086e-01 -2.055368e-01 -1.500682e-01 9.696758e-02 -6.607072e-01 -2.670388e-01 -1.925572e+00 -1.439949e+00 1.820215e+00 2.925651e-01 -7.140127e-01 -3.354558e-01 4.436016e-01 -1.447669e-01 2.323072e-01 3.782085e-01 -1.908952e-01 2.578943e-01 2.345264e-01 2.202294e-01 1.021933e-01 -2.176584e-01 1.606803e-01 1.123398e-01
<VARIANCE> 39
 4.945179e+01 8.200912e+01 2.657581e+01 5.240519e+01 5.519479e+01 6.411308e+01 6.586366e+01 6.146847e+01 7.404872e+01 7.122076e+01 5.436469e+01 2.499966e+01 2.537013e+01 3.889584e+00 6.147083e+00 1.957162e+00 4.307479e+00 4.593884e+00 4.721684e+00 6.179689e+00 3.756197e+00 5.393750e+00 6.068827e+00 4.180170e+00 1.951024e+00 1.996662e+00 4.743514e-01 4.709845e-01 2.980894e-01 5.294554e-01 4.126405e-01 5.289467e-01 8.944138e-01 4.433588e-01 1.126904e+00 1.030368e+00 6.352196e-01 3.732951e-01 3.708674e-01
<GCONST> 1.324529e+02
<MIXTURE> 2 2.368251e-01
<MEAN> 39
 -2.908763e+00 -1.133368e+01 -7.416029e-01 2.121387e+00 4.819574e-01 1.067162e+01 1.329160e-01 6.357740e+00 -2.896377e+00 2.473478e+00 1.312449e+01 3.634204e+00 7.319593e+00 5.094209e-01 3.031965e-01 -3.004278e-01 7.700957e-01 3.766017e-01 8.482065e-02 9.347717e-01 5.704876e-01 6.435045e-01 7.724209e-01 5.647652e-01 2.008565e-01 -6.519473e-02 3.393469e-01 2.289021e-01 1.395621e-01 -8.054152e-04 4.156695e-02 -1.144120e-01 -2.450994e-01 -9.187979e-02 -2.942495e-01 -3.479252e-01 -8.267531e-02 -2.835014e-01 -3.105467e-01
<VARIANCE> 39
 1.299034e+02 8.210471e+01 1.969242e+01 3.158974e+01 3.425634e+01 5.344531e+01 8.024959e+01 6.400415e+01 6.240198e+01 2.651074e+01 1.105265e+02 3.249905e+01 2.082339e+01 2.812127e+00 2.366866e+00 1.830406e+00 1.713190e+00 1.976255e+00 1.954726e+00 3.328451e+00 2.288746e+00 1.814313e+00 1.936891e+00 2.040551e+00 3.320772e+00 1.992974e+00 1.933820e-01 1.527131e-01 2.882008e-01 2.870010e-01 2.690975e-01 2.683529e-01 4.372137e-01 3.597855e-01 5.951095e-01 3.824840e-01 3.868297e-01 3.348822e-01 3.637359e-01
<GCONST> 1.173281e+02
<TRANSP> 5
 0.000000e+00 1.000000e+00 0.000000e+00 0.000000e+00 0.000000e+00
 0.000000e+00 7.077252e-01 2.922749e-01 0.000000e+00 0.000000e+00
 0.000000e+00 0.000000e+00 7.763747e-01 2.236253e-01 0.000000e+00
 0.000000e+00 0.000000e+00 0.000000e+00 7.583991e-01 2.416009e-01
 0.000000e+00 0.000000e+00 0.000000e+00 0.000000e+00 0.000000e+00
<ENDHMM>
~h "tx"
<BEGINHMM>
<NUMSTATES> 5
<STATE> 2
<NUMMIXES> 2
<MIXTURE> 1 4.258425e-01
<MEAN> 39
 -4.058432e+00 -4.839401e+00 3.367540e+00 8.387037e+00 9.985479e+00 8.790819e+00 -5.476172e+00 6.062625e+00 -3.947378e+00 -8.313780e+00 2.199219e+00 -2.086851e+00 -8.508949e-01 -8.857142e-01 4.420789e-01 -2.091894e-01 6.137383e-01 1.706911e-01 2.945074e-01 9.060428e-01 -1.741544e-01 8.842491e-01 1.005773e+00 -8.268544e-01 1.421033e-01 1.114771e+00 5.564020e-02 -4.529426e-01 1.796831e-01 -1.038893e-02 -1.672166e-01 4.114598e-03 -1.452306e-01 9.020277e-02 1.424837e-01 7.088976e-02 1.081877e-01 2.274024e-02 7.139298e-02
<VARIANCE> 39
 2.562688e+02 1.993968e+02 1.526329e+02 1.289572e+02 1.825453e+02 5.905582e+01 1.360880e+02 5.131340e+01 7.143442e+01 6.898846e+01 1.440536e+02 3.606704e+01 8.203690e+01 3.785892e+00 6.259234e+00 5.547733e+00 2.380768e+00 3.339189e+00 3.290538e+00 4.229984e+00 2.825960e+00 2.517529e+00 3.188168e+00 3.558493e+00 1.356753e+00 2.675335e+00 2.834016e-01 8.001279e-01 6.568844e-01 3.749288e-01 4.735757e-01 4.202628e-01 4.935569e-01 4.038182e-01 4.225323e-01 5.137376e-01 5.534084e-01 2.403812e-01 4.677472e-01
<GCONST> 1.368568e+02
<MIXTURE> 2 5.741569e-01
<MEAN> 39
 -2.568074e+01 -5.936559e+00 -4.662971e+00 -2.049016e+00 -2.713598e+00 1.314124e+00 -3.476138e+00 1.238760e+00 -1.588057e+00 -6.849509e-01 4.468482e-01 -9.193496e-01 8.718488e-01 -2.466261e-02 -7.748210e-02 -4.198804e-02 6.213346e-02 3.356089e-02 -2.055618e-02 -2.694741e-02 6.417036e-03 1.670207e-02 -3.147137e-02 -4.205230e-02 6.484976e-02 7.195770e-02 8.967065e-02 -1.162276e-01 2.465638e-02 1.454637e-01 1.413359e-01 1.078913e-01 7.838033e-02 1.074993e-01 9.410965e-02 1.176824e-02 9.340664e-03 6.184166e-02 1.216348e-01
<VARIANCE> 39
 2.485458e+01 1.011185e+01 1.101517e+01 1.689697e+01 1.847929e+01 8.934896e+00 9.746426e+00 9.141148e+00 9.361548e+00 8.128459e+00 9.286405e+00 7.066422e+00 6.419772e+00 1.496426e-01 4.000964e-01 3.533740e-01 4.467040e-01 6.671091e-01 7.041562e-01 9.189956e-01 9.296237e-01 1.056240e+00 9.690554e-01 9.970419e-01 8.924359e-01 6.976288e-01 3.900177e-02 7.823472e-02 7.652538e-02 1.275121e-01 1.888496e-01 1.600807e-01 1.825669e-01 1.886307e-01 2.099498e-01 1.727359e-01 1.759876e-01 1.656099e-01 1.738430e-01
<GCONST> 7.048245e+01
<STATE> 3
<NUMMIXES> 2
<MIXTURE> 1 7.978579e-01
<MEAN> 39
 -1.449348e+01 -8.593113e+00 1.586847e+00 8.965689e+00 5.775355e+00 8.737855e+00 -5.349957e-01 6.802611e+00 3.668098e+00 -7.165706e-01 -2.056884e+00 -1.020670e+00 7.375236e+00 1.536368e+00 -2.400081e+00 1.284749e-01 6.952602e-01 -1.653901e-01 7.071809e-01 -2.447963e-02 5.400021e-01 8.766072e-01 3.183152e-01 4.529715e-01 7.070443e-03 5.004117e-01 4.306668e-01 -4.860044e-01 3.511078e-01 -2.340174e-01 -4.107109e-01 1.109908e-01 -2.306140e-01 -1.019734e-01 -4.112185e-01 -3.616294e-01 4.834060e-01 2.942235e-02 -5.461619e-01
<VARIANCE> 39
 6.906677e+01 6.260815e+01 5.045948e+01 5.640475e+01 5.230573e+01 3.144164e+01 2.544789e+01 2.619477e+01 3.715057e+01 1.923015e+01 3.084890e+01 2.175160e+01 3.315260e+01 4.795986e+00 5.941389e+00 3.553761e+00 4.424893e+00 6.505217e+00 2.554437e+00 2.902926e+00 2.658806e+00 3.059915e+00 2.579907e+00 3.852226e+00 2.295491e+00 5.942955e+00 2.864577e-01 3.584856e-01 4.936427e-01 5.821651e-01 8.055100e-01 4.827079e-01 4.011188e-01 4.323852e-01 7.527919e-01 6.232357e-01 5.497620e-01 4.748801e-01 9.008721e-01
<GCONST> 1.270550e+02
<MIXTURE> 2 2.021423e-01
<MEAN> 39
 1.589042e+00 -2.947943e+01 1.360803e+01 1.049786e+01 -3.974272e+00 1.914356e+01 -6.179132e+00 2.888293e+00 -2.715187e-01 -1.040014e+01 8.961105e+00 2.000549e+00 -1.491417e+00 2.203045e+00 -8.284231e-01 2.366404e+00 6.812063e-01 5.327249e-02 1.555775e+00 -1.093258e+00 -1.070042e+00 -1.916315e+00 -2.263394e+00 1.409029e+00 7.297428e-01 -8.680718e-01 -9.534197e-02 1.497354e+00 -7.633111e-01 2.772679e-01 1.087328e+00 -7.927071e-01 -6.626526e-02 1.555611e-02 1.654685e-02 3.554095e-01 -6.844738e-01 -2.616248e-01 4.906606e-01
<VARIANCE> 39
 2.276733e+01 3.810575e+01 5.752288e+01 2.823765e+01 3.375477e+01 5.786029e+01 3.531829e+01 2.118918e+01 5.425427e+01 4.735329e+01 5.916838e+01 2.640529e+01 3.147117e+01 1.549169e+00 1.601245e+01 7.358542e+00 1.969352e+00 6.094831e+00 8.062808e+00 2.773429e+00 1.927249e+00 2.206264e+00 5.191920e+00 5.510933e+00 1.805490e+00 2.750990e+00 2.275871e-01 1.192628e+00 1.496829e+00 3.452755e-01 4.626928e-01 1.388704e+00 5.350753e-01 5.200397e-01 4.397498e-01 9.844729e-01 7.136306e-01 2.686328e-01 5.075943e-01
<GCONST> 1.290359e+02
<STATE> 4
<NUMMIXES> 2
<MIXTURE> 1 9.806859e-01
<MEAN> 39
 -4.031785e+00 -2.348919e+01 8.536686e+00 8.146851e+00 2.070026e+00 1.515891e+01 -3.729189e+00 7.299918e+00 -2.302294e+00 -8.307552e+00 5.975507e+00 2.327178e+00 5.398467e+00 9.294878e-01 -5.755788e-02 2.981369e-01 4.588443e-02 3.000153e-01 1.440988e-01 -3.155587e-01 -7.103357e-02 -1.010445e+00 -8.521748e-01 7.813192e-01 4.120473e-01 -4.099949e-01 -1.324318e-01 4.761129e-01 -1.390936e-01 7.252979e-02 2.548867e-01 -1.474061e-01 -1.521195e-02 2.885144e-02 5.896826e-02 -2.040096e-03 -1.579420e-01 -7.154028e-03 3.998777e-02
<VARIANCE> 39
 9.174630e+01 1.370924e+02 1.123348e+02 5.969547e+01 6.445502e+01 1.050741e+02 7.610909e+01 6.289251e+01 9.530618e+01 7.302621e+01 7.990458e+01 4.941482e+01 5.275041e+01 4.421529e+00 1.456917e+01 9.793257e+00 2.620217e+00 4.147883e+00 7.628787e+00 4.543705e+00 3.539210e+00 6.161106e+00 6.496618e+00 5.299062e+00 2.830073e+00 3.038194e+00 2.873907e-01 1.508427e+00 1.440874e+00 3.780596e-01 5.172512e-01 1.099458e+00 6.248764e-01 6.444385e-01 9.810427e-01 1.051050e+00 7.842374e-01 4.615602e-01 4.920440e-01
<GCONST> 1.448555e+02
<MIXTURE> 2 1.931326e-02
<MEAN> 39
 1.968337e+00 -2.390058e+01 5.164783e+00 1.034943e+01 -1.782694e-01 6.642107e+00 -1.440032e+01 4.348755e-01 -4.149934e+00 -1.064146e+01 1.055898e+01 2.809641e+00 -1.858163e+00 1.771922e-01 1.090103e+00 -5.009462e-01 1.660789e-01 7.655465e-01 -5.277859e-01 -1.338291e-01 1.457411e-01 1.855873e-02 -1.174810e-01 -1.531060e-01 -2.925113e-03 -2.078194e-01 -2.397914e-02 1.488643e-01 -6.032154e-02 -2.755688e-02 5.486081e-02 2.393717e-02 2.263849e-01 5.405922e-02 1.292232e-01 2.456091e-01 1.082211e-02 1.105071e-01 8.406939e-02
<VARIANCE> 39
 1.269383e+02 2.031814e+02 2.711674e+02 7.626461e+01 1.349399e+02 1.673909e+02 8.605596e+01 8.742326e+01 6.944322e+01 1.893804e+02 1.372456e+02 3.361644e+01 5.151830e+01 8.051154e-01 1.508780e+00 1.879953e+00 1.485859e+00 1.337659e+00 2.201834e+00 1.975460e+00 2.194129e+00 1.224727e+00 1.865085e+00 1.658137e+00 6.317847e-01 1.233061e+00 1.131669e-01 2.607576e-01 2.778389e-01 1.022036e-01 1.558312e-01 3.138348e-01 2.502061e-01 2.406472e-01 1.028780e-01 2.656452e-01 2.518772e-01 1.501015e-01 1.389116e-01
<GCONST> 1.156751e+02
<TRANSP> 5
 0.000000e+00 1.000000e+00 0.000000e+00 0.000000e+00 0.000000e+00
 0.000000e+00 6.598191e-01 3.401809e-01 0.000000e+00 0.000000e+00
 0.000000e+00 0.000000e+00 8.208234e-01 1.791766e-01 0.000000e+00
 0.000000e+00 0.000000e+00 0.000000e+00 8.388603e-01 1.611397e-01
 0.000000e+00 0.000000e+00 0.000000e+00 0.000000e+00 0.000000e+00
<ENDHMM>
~h "uu"
<BEGINHMM>
<NUMSTATES> 7
<STATE> 2
<NUMMIXES> 2
<MIXTURE> 1 8.445012e-01
<MEAN> 39
 1.683626e+01 5.167680e+00 5.098951e+00 1.357502e+01 9.215538e+00 -3.285830e+00 -9.402967e+00 1.519422e+01 2.500050e+00 -1.949612e+01 -6.335453e+00 -5.719366e+00 -1.216039e+01 1.905632e-01 6.322981e-01 3.402933e-01 -1.486902e-01 -9.869791e-01 -1.629843e+00 -2.879772e-01 1.001468e+00 9.379822e-01 1.314970e-01 -3.780811e-01 -2.502006e-01 -3.612061e-01 -8.113724e-02 -7.166933e-02 2.718391e-02 4.108458e-02 3.302915e-02 9.581816e-02 3.596538e-02 -1.165452e-01 -3.543735e-02 1.562908e-01 1.184126e-01 5.350358e-02 4.652987e-02
<VARIANCE> 39
 5.243027e+00 3.843963e+01 1.954098e+01 4.922240e+01 4.888655e+01 8.833143e+01 6.299310e+01 4.179549e+01 5.172933e+01 1.023822e+02 3.299579e+01 5.732029e+01 2.459746e+01 3.643652e-01 6.428066e-01 6.509130e-01 1.291023e+00 1.379157e+00 1.805075e+00 3.095251e+00 1.946292e+00 1.381440e+00 1.970533e+00 1.790377e+00 1.373730e+00 1.259722e+00 5.451582e-02 9.963721e-02 1.082125e-01 1.124909e-01 1.087575e-01 2.346624e-01 2.269086e-01 2.199654e-01 1.681191e-01 2.507906e-01 1.550233e-01 1.330195e-01 1.203202e-01
<GCONST> 9.718055e+01
<MIXTURE> 2 1.554960e-01
<MEAN> 39
 3.693953e+00 -1.286908e+01 3.221736e+00 8.781305e+00 2.103324e+00 1.506112e+01 6.708853e+00 9.138522e+00 -1.019444e+00 -8.833852e+00 -3.011103e+00 -2.980486e+00 2.382945e+00 2.307678e+00 1.789693e+00 2.543676e-01 7.693484e-01 -1.050205e-01 -1.700216e+00 -3.169331e-01 4.210631e-01 -4.355957e-01 -9.344310e-01 -5.289305e-01 -7.565200e-01 -1.014566e+00 7.543799e-02 3.803982e-01 1.696371e-01 1.348226e-01 8.930075e-02 -5.917326e-01 -4.997498e-01 1.130105e-01 1.822395e-01 -1.053061e-01 -1.501552e-01 -8.267502e-02 -2.759567e-01
<VARIANCE> 39
 8.306194e+01 3.391658e+02 4.264812e+01 7.264709e+01 6.499972e+01 1.519552e+02 6.433896e+01 6.987895e+01 5.832304e+01 6.676910e+01 9.738726e+01 3.525535e+01 2.674255e+01 2.057249e+00 1.696999e+01 4.079904e+00 2.728394e+00 3.629563e+00 1.019018e+01 5.448605e+00 2.926819e+00 6.466833e+00 4.644525e+00 5.255051e+00 2.028422e+00 2.113844e+00 3.844534e-01 1.269953e+00 6.110375e-01 3.638880e-01 4.181451e-01 8.697851e-01 6.212121e-01 4.381194e-01 1.202194e+00 8.384668e-01 8.275875e-01 2.984256e-01 3.396699e-01
<GCONST> 1.391218e+02
<STATE> 3
<NUMMIXES> 2
<MIXTURE> 1 8.059713e-01
<MEAN> 39
 1.675597e+01 1.009869e+01 1.051610e+01 1.371676e+01 -5.791588e-01 -1.477343e+01 -9.519176e+00 1.643965e+01 4.061365e+00 -1.510058e+01 -3.304093e+00 -1.199112e+00 -1.173716e+01 1.084533e-02 1.950151e-01 3.506872e-02 -1.853991e-01 -3.345709e-01 -1.792587e-01 8.460164e-02 -6.001547e-02 -3.146584e-02 2.214916e-01 6.269865e-02 5.342031e-02 8.603978e-02 4.477977e-03 -3.900307e-02 -7.021421e-02 -4.759036e-03 9.588778e-02 1.242293e-01 9.767151e-03 -1.152943e-02 -4.328436e-02 -5.460761e-02 -4.182390e-02 -5.921324e-02 2.920142e-02
<VARIANCE> 39
 1.845563e+00 1.676605e+01 1.252918e+01 1.266853e+01 2.218240e+01 3.301631e+01 2.346261e+01 2.895227e+01 1.830921e+01 3.313351e+01 2.578558e+01 3.100318e+01 1.604251e+01 9.581374e-02 3.840406e-01 2.956259e-01 3.592758e-01 4.085472e-01 7.321523e-01 5.978267e-01 9.478599e-01 5.386761e-01 8.866720e-01 6.277884e-01 8.027039e-01 3.301524e-01 1.489901e-02 3.509266e-02 3.245940e-02 5.171700e-02 5.423009e-02 8.285668e-02 8.189306e-02 1.142704e-01 7.182281e-02 1.086124e-01 6.164454e-02 7.657565e-02 4.687502e-02
<GCONST> 6.201665e+01
<MIXTURE> 2 1.940269e-01
<MEAN> 39
 1.591946e+01 6.655901e+00 7.690001e+00 1.394806e+01 5.926350e+00 -8.497986e+00 -8.361042e+00 2.086930e+01 3.757944e+00 -2.247240e+01 -7.499533e+00 -5.425626e+00 -1.374433e+01 -3.924550e-02 6.823530e-01 3.246354e-01 -3.332192e-01 -9.989207e-01 -8.432183e-01 2.514109e-01 3.034685e-01 5.946465e-01 1.085545e+00 2.285072e-02 -3.485102e-01 -1.330379e-01 -2.378628e-03 -7.519943e-02 -4.512799e-02 6.260950e-02 1.717345e-01 2.084100e-01 -7.289824e-02 -3.312223e-01 -1.482985e-01 1.115462e-01 1.599113e-01 1.501492e-01 5.029687e-02
<VARIANCE> 39
 1.177603e+01 2.293107e+01 1.339718e+01 1.838504e+01 2.953881e+01 3.893623e+01 3.579753e+01 2.519604e+01 2.920448e+01 5.469319e+01 2.123032e+01 1.381922e+01 1.174508e+01 1.215207e-01 2.538712e-01 3.676840e-01 4.249209e-01 5.613562e-01 7.846543e-01 9.151496e-01 1.204521e+00 5.869040e-01 1.141413e+00 9.569115e-01 9.754336e-01 4.172985e-01 1.583107e-02 3.109914e-02 4.504446e-02 5.930734e-02 7.306307e-02 1.015198e-01 1.564076e-01 1.765278e-01 9.739621e-02 1.735613e-01 1.140143e-01 1.280936e-01 8.075556e-02
<GCONST> 7.189662e+01
<STATE> 4
<NUMMIXES> 2
<MIXTURE> 1 9.999909e-01
<MEAN> 39
 1.617070e+01 1.014861e+01 9.775401e+00 1.490641e+01 2.294298e+00 -1.474640e+01 -1.240915e+01 1.630274e+01 6.561226e+00 -1.349076e+01 -4.273578e+00 -1.973228e+00 -1.074688e+01 -7.179393e-04 1.942937e-01 -2.431058e-02 -1.335874e-01 -1.569552e-01 6.847372e-02 1.483295e-01 -2.975443e-01 -2.518047e-01 2.099215e-01 8.509909e-02 1.465370e-01 2.520643e-01 9.720158e-03 -1.002606e-02 -8.324952e-02 -7.239133e-02 6.908678e-02 2.025312e-01 9.337554e-02 -3.968688e-02 -5.521654e-02 -1.408733e-02 -4.091745e-02 -7.712838e-02 2.813762e-02
<VARIANCE> 39
 7.094330e+00 1.902310e+01 1.185278e+01 1.408096e+01 2.430396e+01 4.087045e+01 3.581266e+01 4.522186e+01 2.412561e+01 4.794981e+01 2.695638e+01 2.771426e+01 1.936121e+01 9.842195e-02 3.147735e-01 3.838652e-01 5.033373e-01 4.243114e-01 9.233444e-01 8.706992e-01 1.050350e+00 6.352406e-01 1.036209e+00 6.755159e-01 1.093830e+00 3.714122e-01 1.333286e-02 3.505640e-02 4.121807e-02 6.093553e-02 6.686715e-02 1.049371e-01 1.149872e-01 1.465012e-01 8.510612e-02 1.173128e-01 7.130869e-02 8.657897e-02 6.441829e-02
<GCONST> 6.963259e+01
<MIXTURE> 2 0.000000e+00
<MEAN> 39
 3.167866e+00 9.785287e+00 1.015721e+01 -1.126460e+01 -1.722803e+00 -2.314090e+01 -2.866014e+00 2.988645e+00 -1.257189e+01 -1.059196e+01 -8.080223e+00 -1.134586e+01 -1.309345e+01 -3.083741e-02 -3.272692e-02 -7.965064e-02 -1.481605e-01 -3.861562e-02 -1.373337e-03 8.863221e-04 1.868999e-02 -7.847838e-02 -1.271299e-01 -1.509936e-01 -7.997945e-02 -7.696240e-02 2.445563e-03 -3.155375e-02 -4.496285e-02 1.969696e-02 5.441263e-02 8.198876e-02 8.278470e-03 -1.894769e-02 -7.840006e-03 -4.695274e-02 -3.333806e-02 3.981774e-02 6.458335e-02
<VARIANCE> 39
 5.315660e+00 3.426040e+01 2.038534e+01 3.630614e+01 3.740158e+01 4.321970e+01 4.220889e+01 4.777325e+01 3.740923e+01 6.335217e+01 4.306703e+01 4.340738e+01 4.843743e+01 6.627245e-02 3.302242e-01 3.574037e-01 4.860166e-01 6.125762e-01 7.172378e-01 7.481684e-01 9.198427e-01 8.672596e-01 1.041075e+00 8.651084e-01 8.226215e-01 8.630548e-01 9.753287e-03 3.193334e-02 4.821209e-02 7.355566e-02 8.457156e-02 1.072942e-01 1.135506e-01 1.351915e-01 1.306799e-01 1.277171e-01 1.218774e-01 1.199830e-01 1.098237e-01
<GCONST> 7.718999e+01
<STATE> 5
<NUMMIXES> 2
<MIXTURE> 1 2.072249e-01
<MEAN> 39
 1.659909e+01 1.148681e+01 7.453110e+00 1.030976e+01 2.843072e+00 -7.518603e+00 -9.689360e+00 1.170905e+01 7.120567e+00 -8.280983e+00 -7.320468e+00 -9.026037e+00 -1.092953e+01 2.459003e-02 1.917596e-01 -8.471191e-01 -9.853866e-01 4.593763e-01 1.973914e+00 1.155842e+00 -5.453848e-01 -4.603463e-01 2.538974e-01 -7.066656e-01 -9.869006e-01 5.336205e-01 -1.143637e-01 -5.928725e-03 -5.576985e-02 -6.391799e-02 5.935017e-02 2.936486e-01 3.979887e-01 2.082786e-01 -1.608412e-01 -2.454058e-01 -4.167219e-02 1.641878e-01 1.929827e-01
<VARIANCE> 39
 7.558899e+00 1.138322e+01 1.576888e+01 1.705455e+01 2.950623e+01 6.512366e+01 4.043033e+01 3.390303e+01 1.829828e+01 3.386246e+01 5.262968e+01 6.735783e+01 1.955406e+01 2.554531e-01 4.851812e-01 6.487336e-01 7.945158e-01 7.136847e-01 1.384539e+00 1.673989e+00 1.769271e+00 8.748400e-01 1.309350e+00 1.131185e+00 1.202090e+00 6.415126e-01 4.475903e-02 5.898468e-02 8.870864e-02 1.396424e-01 1.077648e-01 1.907354e-01 2.424894e-01 2.603349e-01 1.250838e-01 1.434605e-01 1.511879e-01 1.554881e-01 1.051315e-01
<GCONST> 8.540977e+01
<MIXTURE> 2 7.927751e-01
<MEAN> 39
 1.704919e+01 6.250911e+00 5.734231e+00 1.320915e+01 6.619555e+00 -6.757373e+00 -8.164602e+00 1.844386e+01 2.628355e+00 -2.146389e+01 -8.149583e+00 -5.592217e+00 -1.160496e+01 -2.222617e-02 -1.292131e-01 -4.102666e-01 -1.835828e-01 5.550351e-01 1.243266e+00 4.856406e-01 -6.562886e-01 -4.289936e-01 2.673370e-01 -2.532128e-01 -2.988439e-01 6.074499e-01 -1.094302e-01 -4.476953e-03 5.236681e-02 2.284566e-02 6.647499e-02 2.374511e-01 1.420776e-01 -1.491068e-01 -6.367879e-02 1.332579e-01 3.246866e-02 2.230254e-02 1.221554e-01
<VARIANCE> 39
 5.053436e+00 2.714434e+01 1.862597e+01 2.244516e+01 5.760386e+01 6.771124e+01 3.045875e+01 4.667175e+01 2.452905e+01 5.433836e+01 3.007663e+01 3.887841e+01 1.644506e+01 1.693589e-01 5.278754e-01 6.135632e-01 9.332026e-01 6.426301e-01 1.553183e+00 1.494980e+00 1.682891e+00 7.062036e-01 1.794201e+00 9.120626e-01 1.213334e+00 6.578824e-01 3.592566e-02 5.928873e-02 8.584820e-02 1.122426e-01 1.046628e-01 1.636805e-01 2.202002e-01 2.152398e-01 1.101233e-01 2.040494e-01 1.135345e-01 1.298849e-01 9.151409e-02
<GCONST> 8.477602e+01
<STATE> 6
<NUMMIXES> 2
<MIXTURE> 1 2.670612e-01
<MEAN> 39
 -6.059553e+00 8.915955e+00 6.994905e+00 7.042875e+00 3.313336e+00 3.761802e+00 -8.401203e-01 5.941198e+00 7.471681e-01 -1.186106e+00 8.144083e-01 -1.391291e+00 -2.147491e+00 -6.997269e-01 -9.555899e-02 9.775624e-02 4.486850e-02 3.373116e-01 6.872112e-01 3.034939e-01 -2.793944e-01 -1.651663e-01 1.860383e-01 -2.260283e-03 -5.732666e-02 2.648393e-01 4.863366e-02 -5.950640e-02 -4.855414e-02 -6.789938e-04 -6.802230e-02 -1.702900e-01 -1.105519e-01 3.778389e-02 -7.442972e-04 -1.077891e-01 -2.035430e-02 -1.616646e-03 -2.720935e-02
<VARIANCE> 39
 2.640309e+02 1.261931e+02 8.788993e+01 6.849110e+01 4.709328e+01 4.652103e+01 3.439850e+01 3.542939e+01 1.720393e+01 1.735494e+01 1.917126e+01 1.458902e+01 1.988855e+01 1.089158e+00 5.448964e-01 7.267913e-01 6.433174e-01 8.619696e-01 1.671389e+00 1.064428e+00 1.035231e+00 1.169538e+00 1.036168e+00 8.239563e-01 9.805107e-01 7.548124e-01 5.585700e-02 5.904574e-02 1.019095e-01 9.270499e-02 1.155956e-01 1.620254e-01 1.358986e-01 1.497375e-01 2.189666e-01 2.143487e-01 1.648605e-01 1.739476e-01 1.359530e-01
<GCONST> 9.193713e+01
<MIXTURE> 2 7.329367e-01
<MEAN> 39
 1.022949e+01 8.746240e+00 6.694932e+00 1.155401e+01 7.700537e+00 2.630403e+00 -2.080119e+00 1.200721e+01 8.063314e-01 -1.274078e+01 -7.714871e+00 -6.490886e+00 -5.496450e+00 -1.631379e+00 4.109966e-01 7.088932e-01 3.406089e-01 4.075218e-01 1.644063e+00 1.324900e+00 -4.606739e-01 -1.477090e-01 1.136618e+00 7.589746e-02 7.555772e-02 1.116841e+00 -1.913154e-01 -2.969740e-02 2.241031e-01 1.779322e-01 4.944271e-02 -5.625749e-02 -1.460069e-01 -2.302404e-02 9.421925e-02 5.064479e-02 4.513022e-02 5.152681e-02 -1.651090e-02
<VARIANCE> 39
 8.074461e+01 7.204261e+01 3.968070e+01 5.446255e+01 7.822565e+01 1.219688e+02 7.439218e+01 6.165802e+01 3.233272e+01 7.069801e+01 5.530252e+01 6.164419e+01 2.920405e+01 1.061241e+00 2.558150e+00 2.046614e+00 2.248135e+00 1.615304e+00 2.919822e+00 3.079629e+00 2.172469e+00 1.406664e+00 3.129814e+00 1.717115e+00 1.795118e+00 1.302022e+00 1.255215e-01 2.999292e-01 2.850174e-01 3.084243e-01 2.053510e-01 3.333167e-01 4.546355e-01 3.228441e-01 2.131837e-01 4.325126e-01 2.804855e-01 2.621842e-01 1.820804e-01
<GCONST> 1.167015e+02
<TRANSP> 7
 0.000000e+00 1.000000e+00 0.000000e+00 0.000000e+00 0.000000e+00 0.000000e+00 0.000000e+00
 0.000000e+00 9.025483e-01 9.745178e-02 0.000000e+00 0.000000e+00 0.000000e+00 0.000000e+00
 0.000000e+00 0.000000e+00 8.322724e-01 1.677276e-01 0.000000e+00 0.000000e+00 0.000000e+00
 0.000000e+00 0.000000e+00 0.000000e+00 6.611906e-01 3.388094e-01 0.000000e+00 0.000000e+00
 0.000000e+00 0.000000e+00 0.000000e+00 0.000000e+00 7.807381e-01 2.192619e-01 0.000000e+00
 0.000000e+00 0.000000e+00 0.000000e+00 0.000000e+00 0.000000e+00 8.312423e-01 1.687577e-01
 0.000000e+00 0.000000e+00 0.000000e+00 0.000000e+00 0.000000e+00 0.000000e+00 0.000000e+00
<ENDHMM>
~h "SIL"
<BEGINHMM>
<NUMSTATES> 5
<STATE> 2
<NUMMIXES> 2
<MIXTURE> 1 6.343535e-01
<MEAN> 39
 -9.558927e+00 -2.955737e+00 -2.506285e+00 4.132630e+00 -4.022208e-01 3.377083e+00 4.130420e+00 3.240064e-02 1.627516e+00 6.109094e-01 -1.318923e-01 4.498853e+00 -8.942712e-01 -6.928948e-02 3.829870e-02 -6.734582e-04 6.790166e-03 1.340300e-02 1.375837e-02 2.232590e-02 1.784532e-02 1.971374e-02 1.640245e-02 -5.062588e-03 -1.623879e-03 2.044486e-02 -2.696889e-03 4.180977e-03 1.697672e-02 -6.120666e-03 -4.228717e-03 6.320278e-04 -1.656370e-03 -2.444819e-03 6.286830e-03 -8.582719e-03 -1.216181e-02 -5.073556e-03 -4.548995e-03
<VARIANCE> 39
 4.186462e+01 7.402940e+01 3.099679e+01 3.340697e+01 4.645889e+01 4.345008e+01 2.968412e+01 3.228226e+01 3.052909e+01 2.290461e+01 1.840874e+01 1.938979e+01 2.506889e+01 1.440693e-01 3.649671e-01 4.392949e-01 5.817301e-01 7.149680e-01 8.990549e-01 1.019488e+00 1.134216e+00 1.207672e+00 1.148922e+00 1.105158e+00 1.056239e+00 9.328530e-01 2.465242e-02 5.432563e-02 8.521398e-02 1.176557e-01 1.502030e-01 1.916525e-01 2.139053e-01 2.402989e-01 2.571377e-01 2.458468e-01 2.369102e-01 2.262610e-01 2.008634e-01
<GCONST> 8.756295e+01
<MIXTURE> 2 3.656465e-01
<MEAN> 39
 -1.142323e+01 1.189757e+00 -1.150043e+00 2.073591e+00 1.984568e+00 1.458758e+00 4.666055e+00 1.247311e+00 2.303590e+00 6.847165e-01 -4.941858e-01 4.576219e+00 -1.241537e+00 -2.383977e-01 3.311241e-02 -1.279305e-02 2.437228e-02 2.793390e-02 1.407799e-01 9.608070e-02 8.677866e-02 1.114440e-01 1.082627e-01 3.608481e-02 3.226501e-02 6.382274e-02 1.940947e-02 3.630415e-03 8.181022e-03 2.361297e-02 2.753633e-02 -1.779759e-02 -3.005121e-02 -1.506858e-02 -2.992165e-02 -1.730591e-02 -1.236073e-02 -2.410082e-02 -2.872620e-03
<VARIANCE> 39
 4.480489e+01 6.668343e+01 4.001367e+01 5.130425e+01 5.788618e+01 6.144305e+01 5.531167e+01 4.810794e+01 4.128096e+01 3.064755e+01 2.747056e+01 2.852841e+01 3.160432e+01 1.514161e+00 2.485977e+00 2.332164e+00 2.129232e+00 2.084023e+00 2.247124e+00 2.255863e+00 2.281002e+00 2.357451e+00 2.077529e+00 1.851172e+00 1.746888e+00 1.433622e+00 2.191909e-01 3.888186e-01 4.058700e-01 3.762366e-01 3.878883e-01 4.263409e-01 4.298833e-01 4.452224e-01 4.540788e-01 4.104838e-01 3.682645e-01 3.519675e-01 2.906989e-01
<GCONST> 1.171093e+02
<STATE> 3
<NUMMIXES> 2
<MIXTURE> 1 6.952365e-01
<MEAN> 39
 -4.614826e-36 4.088473e-39 7.546833e-41 -2.003180e-38 -1.016468e-37 1.405099e-39 -7.973388e-43 7.664946e-39 -1.286953e-38 1.415171e-41 6.993320e-41 6.165994e-41 1.993908e-41 5.552645e-41 1.641061e-40 1.461414e-41 6.268008e-42 1.373272e-43 -2.054304e-42 1.018744e-41 -2.522337e-44 -2.642154e-39 1.558244e-42 1.841306e-42 3.833953e-42 -1.401298e-45 -1.041492e-02 1.165869e-03 -4.681267e-04 1.067939e-03 -3.674125e-04 -4.449329e-04 -4.800549e-04 -8.346118e-04 -4.919678e-04 -6.385805e-04 -4.974747e-04 3.757836e-04 -7.628010e-04
<VARIANCE> 39
 1.000000e-02 1.000000e-02 1.000000e-02 1.000000e-02 1.000000e-02 1.000000e-02 1.000000e-02 1.000000e-02 1.000000e-02 1.000000e-02 1.000000e-02 1.000000e-02 1.000000e-02 1.000000e-02 1.000000e-02 1.000000e-02 1.000000e-02 1.000000e-02 1.000000e-02 1.000000e-02 1.000000e-02 1.000000e-02 1.000000e-02 1.000000e-02 1.000000e-02 1.000000e-02 1.000000e-02 1.000000e-02 1.000000e-02 1.000000e-02 1.000000e-02 1.000000e-02 1.000000e-02 1.000000e-02 1.000000e-02 1.000000e-02 1.000000e-02 1.000000e-02 1.000000e-02
<GCONST> -1.079245e+02
<MIXTURE> 2 3.047635e-01
<MEAN> 39
 -3.073403e+01 1.425273e+01 -6.347635e+00 2.336389e+00 -7.483404e-01 1.066642e+01 -1.116233e+01 5.172227e+00 2.572465e-01 4.570226e-01 -1.853601e+00 4.806254e-01 3.082728e+00 -1.703352e-02 1.551152e-02 3.685159e-02 3.168634e-02 1.600667e-02 2.196852e-03 1.066339e-02 1.046215e-02 6.194680e-03 -2.002487e-03 -2.168891e-02 -2.960364e-02 -1.420306e-02 6.402527e-02 -2.888847e-02 1.946194e-02 2.577228e-02 -3.223030e-03 -2.393205e-02 1.966219e-02 7.751088e-04 -1.281637e-02 -3.375708e-03 5.767592e-03 -3.608371e-03 -2.195551e-02
<VARIANCE> 39
 7.722108e+01 3.633752e+01 1.621295e+01 8.805264e+00 1.116743e+01 2.184221e+01 5.614600e+01 9.989722e+00 7.891666e+00 5.587424e+00 5.826734e+00 7.160335e+00 7.011834e+00 2.358004e-01 2.073665e-01 2.922952e-01 2.998027e-01 3.982294e-01 4.320155e-01 5.057585e-01 5.343324e-01 5.329021e-01 5.498871e-01 5.658979e-01 5.152957e-01 4.229449e-01 9.825453e-02 6.422583e-02 7.037972e-02 7.732156e-02 9.463117e-02 1.049519e-01 1.273331e-01 1.155301e-01 1.163909e-01 1.174336e-01 1.189772e-01 1.076718e-01 9.144803e-02
<GCONST> 6.387524e+01
<STATE> 4
<NUMMIXES> 2
<MIXTURE> 1 5.103472e-01
<MEAN> 39
 -1.256804e+01 6.479373e+00 2.038786e+00 8.567524e+00 2.427899e+00 5.176943e+00 4.114543e-01 4.024741e+00 1.021508e+00 1.262775e+00 -1.256009e+00 9.477930e-01 3.137723e-02 -8.586787e-02 3.690922e-02 2.457621e-01 1.594240e-01 1.689443e-01 5.045222e-02 3.103973e-02 6.963865e-02 1.091670e-01 7.266748e-02 3.943156e-02 6.249414e-03 -1.648775e-02 1.051229e-02 -3.655927e-02 1.203187e-02 -3.837839e-02 1.769672e-03 -1.438639e-02 9.163395e-03 8.845959e-03 -7.347676e-03 -3.171584e-02 -5.209196e-03 1.373672e-02 -1.236865e-02
<VARIANCE> 39
 7.612381e+01 6.791934e+01 3.206618e+01 5.097443e+01 4.710615e+01 4.857334e+01 4.886001e+01 4.522910e+01 3.813118e+01 2.496777e+01 2.466132e+01 2.227277e+01 1.953887e+01 6.615518e-01 8.886617e-01 9.175950e-01 1.017072e+00 1.108420e+00 1.194592e+00 1.274129e+00 1.362965e+00 1.347271e+00 1.241394e+00 1.154082e+00 1.094268e+00 9.258087e-01 1.785030e-01 2.040161e-01 1.926394e-01 2.249779e-01 2.455316e-01 2.707347e-01 2.889727e-01 3.002017e-01 2.985176e-01 2.784478e-01 2.593574e-01 2.391664e-01 2.035334e-01
<GCONST> 1.016392e+02
<MIXTURE> 2 4.896528e-01
<MEAN> 39
 -1.020193e+01 3.199551e+00 2.373005e+00 5.452412e+00 2.385052e+00 2.486034e+00 1.580645e+00 3.328131e+00 1.332066e+00 -7.191740e-01 -2.476467e+00 1.183569e+00 -1.171889e+00 1.273982e+00 -3.833585e-01 4.658445e-01 1.614458e-01 4.792918e-02 -5.415885e-01 -1.025224e-01 -1.463170e-02 -2.565329e-01 -5.430909e-01 -4.399176e-01 -3.804746e-01 -3.820809e-01 6.029564e-02 -8.747855e-02 5.094163e-03 -3.020878e-02 5.573182e-03 -8.083791e-02 -5.798243e-02 -1.463480e-02 1.865065e-03 -3.867018e-02 -9.503978e-03 -1.724554e-02 6.533443e-03
<VARIANCE> 39
 9.643607e+01 9.792954e+01 6.559746e+01 7.856171e+01 8.060581e+01 7.181393e+01 7.312693e+01 5.997856e+01 4.726611e+01 4.559750e+01 3.356037e+01 3.527980e+01 2.955104e+01 5.178400e+00 5.150322e+00 3.770604e+00 3.737880e+00 3.884596e+00 3.836053e+00 4.076818e+00 3.454412e+00 3.297246e+00 2.993804e+00 2.481349e+00 2.278534e+00 1.766467e+00 7.921278e-01 8.026540e-01 6.029379e-01 5.582282e-01 6.184182e-01 6.333398e-01 6.467891e-01 5.800772e-01 5.622950e-01 5.424428e-01 4.485731e-01 3.958752e-01 3.163141e-01
<GCONST> 1.329065e+02
<TRANSP> 5
 0.000000e+00 1.000000e+00 0.000000e+00 0.000000e+00 0.000000e+00
 0.000000e+00 9.535479e-01 4.645211e-02 0.000000e+00 0.000000e+00
 0.000000e+00 0.000000e+00 9.280416e-01 7.195845e-02 0.000000e+00
 0.000000e+00 0.000000e+00 0.000000e+00 9.013939e-01 9.860607e-02
 0.000000e+00 0.000000e+00 0.000000e+00 0.000000e+00 0.000000e+00
<ENDHMM>
~h "dxhq"
<BEGINHMM>
<NUMSTATES> 5
<STATE> 2
<NUMMIXES> 2
<MIXTURE> 1 5.000000e-01
<MEAN> 39
 2.314222e+01 -3.634208e+00 -1.982985e+01 -3.810855e+00 7.063858e+00 -5.625439e+00 -1.613089e+01 1.085684e+01 1.176051e+01 -3.450546e+00 -1.300125e+00 -1.056656e+00 2.533239e+00 3.080383e-02 1.782330e-01 -3.954170e-02 -1.847141e-01 -1.171091e-01 8.366766e-01 8.087369e-01 -1.760417e-01 -5.354393e-01 1.017041e-01 1.037691e-01 -2.539243e-01 8.014321e-02 -7.061616e-02 3.417890e-02 1.300214e-01 4.720529e-02 -3.879972e-02 2.920384e-02 6.481770e-02 -1.428726e-01 -4.466184e-02 1.064292e-01 8.054926e-03 -4.711869e-02 -3.770500e-02
<VARIANCE> 39
 1.107535e+01 1.280673e+01 2.168811e+01 1.138063e+01 2.510558e+01 3.052187e+01 6.886389e+01 2.850120e+01 1.263725e+01 2.539262e+01 1.558006e+01 1.290679e+01 9.617035e+00 5.446249e-01 8.438948e-01 9.338654e-01 6.180674e-01 1.096870e+00 1.091414e+00 1.194781e+00 2.189621e+00 4.956144e-01 1.289079e+00 7.814171e-01 7.562261e-01 6.805087e-01 4.958472e-02 7.534466e-02 8.411792e-02 6.384803e-02 9.628586e-02 1.494154e-01 1.293202e-01 2.765672e-01 6.440874e-02 1.349021e-01 1.508573e-01 1.014503e-01 8.352613e-02
<GCONST> 7.836157e+01
<MIXTURE> 2 5.000000e-01
<MEAN> 39
 2.314222e+01 -3.634208e+00 -1.982985e+01 -3.810855e+00 7.063858e+00 -5.625439e+00 -1.613089e+01 1.085684e+01 1.176051e+01 -3.450546e+00 -1.300125e+00 -1.056656e+00 2.533239e+00 3.080383e-02 1.782330e-01 -3.954170e-02 -1.847141e-01 -1.171091e-01 8.366766e-01 8.087369e-01 -1.760417e-01 -5.354393e-01 1.017041e-01 1.037691e-01 -2.539243e-01 8.014321e-02 -7.061616e-02 3.417890e-02 1.300214e-01 4.720529e-02 -3.879972e-02 2.920384e-02 6.481770e-02 -1.428726e-01 -4.466184e-02 1.064292e-01 8.054926e-03 -4.711869e-02 -3.770500e-02
<VARIANCE> 39
 1.107535e+01 1.280673e+01 2.168811e+01 1.138063e+01 2.510558e+01 3.052187e+01 6.886389e+01 2.850120e+01 1.263725e+01 2.539262e+01 1.558006e+01 1.290679e+01 9.617035e+00 5.446249e-01 8.438948e-01 9.338654e-01 6.180674e-01 1.096870e+00 1.091414e+00 1.194781e+00 2.189621e+00 4.956144e-01 1.289079e+00 7.814171e-01 7.562261e-01 6.805087e-01 4.958472e-02 7.534466e-02 8.411792e-02 6.384803e-02 9.628586e-02 1.494154e-01 1.293202e-01 2.765672e-01 6.440874e-02 1.349021e-01 1.508573e-01 1.014503e-01 8.352613e-02
<GCONST> 7.836157e+01
<STATE> 3
<NUMMIXES> 2
<MIXTURE> 1 5.000000e-01
<MEAN> 39
 2.173482e+01 -3.808753e+00 -1.689501e+01 -2.542464e+00 3.441833e+00 -1.486207e+00 -7.416055e+00 1.003864e+01 8.500758e+00 4.498081e-01 1.030569e+00 -3.418500e+00 1.777795e+00 -2.202228e-01 -6.886169e-02 4.949044e-01 2.862792e-01 -4.924929e-01 5.926148e-01 1.234675e+00 -1.273572e-01 -4.633096e-01 5.310181e-01 3.241351e-01 -2.957221e-01 -1.203486e-02 -1.908147e-02 -3.404763e-02 5.810296e-02 6.720553e-02 -3.773960e-02 -2.968194e-02 3.637724e-02 3.908436e-02 2.674084e-02 1.449430e-02 5.907182e-03 8.832127e-03 1.270213e-02
<VARIANCE> 39
 1.606799e+01 3.744859e+01 3.991742e+01 2.613908e+01 6.632166e+01 2.528981e+01 1.785205e+02 4.619629e+01 1.568378e+01 4.701642e+01 1.754758e+01 1.663374e+01 1.355077e+01 4.890011e-01 1.601237e+00 6.987706e-01 7.837129e-01 1.493383e+00 1.912194e+00 2.131810e+00 2.663517e+00 1.015357e+00 1.387350e+00 9.713237e-01 9.236476e-01 1.069081e+00 5.319275e-02 1.294129e-01 8.823373e-02 8.704941e-02 1.551272e-01 2.535828e-01 2.123039e-01 2.971750e-01 1.106916e-01 1.912763e-01 1.704568e-01 1.402897e-01 1.416472e-01
<GCONST> 9.320663e+01
<MIXTURE> 2 5.000000e-01
<MEAN> 39
 2.173482e+01 -3.808753e+00 -1.689501e+01 -2.542464e+00 3.441833e+00 -1.486207e+00 -7.416055e+00 1.003864e+01 8.500758e+00 4.498081e-01 1.030569e+00 -3.418500e+00 1.777795e+00 -2.202228e-01 -6.886169e-02 4.949044e-01 2.862792e-01 -4.924929e-01 5.926148e-01 1.234675e+00 -1.273572e-01 -4.633096e-01 5.310181e-01 3.241351e-01 -2.957221e-01 -1.203486e-02 -1.908147e-02 -3.404763e-02 5.810296e-02 6.720553e-02 -3.773960e-02 -2.968194e-02 3.637724e-02 3.908436e-02 2.674084e-02 1.449430e-02 5.907182e-03 8.832127e-03 1.270213e-02
<VARIANCE> 39
 1.606799e+01 3.744859e+01 3.991742e+01 2.613908e+01 6.632166e+01 2.528981e+01 1.785205e+02 4.619629e+01 1.568378e+01 4.701642e+01 1.754758e+01 1.663374e+01 1.355077e+01 4.890011e-01 1.601237e+00 6.987706e-01 7.837129e-01 1.493383e+00 1.912194e+00 2.131810e+00 2.663517e+00 1.015357e+00 1.387350e+00 9.713237e-01 9.236476e-01 1.069081e+00 5.319275e-02 1.294129e-01 8.823373e-02 8.704941e-02 1.551272e-01 2.535828e-01 2.123039e-01 2.971750e-01 1.106916e-01 1.912763e-01 1.704568e-01 1.402897e-01 1.416472e-01
<GCONST> 9.320663e+01
<STATE> 4
<NUMMIXES> 2
<MIXTURE> 1 5.000000e-01
<MEAN> 39
 1.967230e+01 -6.215449e+00 -1.244541e+01 1.020775e+00 -1.354481e+00 1.572503e+00 2.502365e+00 1.146318e+01 6.564974e+00 4.376651e+00 3.717615e+00 -4.962716e+00 2.569299e+00 -2.344614e-01 -2.637969e-01 6.704946e-01 5.722571e-01 -5.658954e-01 4.208957e-01 1.070747e+00 1.468549e-01 -2.390599e-01 2.358316e-01 1.216797e-01 -1.215196e-01 2.410464e-01 1.692673e-02 -1.999175e-02 -4.273066e-03 -3.787334e-02 -5.564393e-02 -6.108182e-02 -9.388109e-02 1.469945e-02 1.544724e-02 -7.556238e-02 -7.306822e-02 3.825767e-02 -1.851020e-03
<VARIANCE> 39
 1.862592e+01 6.001905e+01 4.706407e+01 3.788110e+01 9.603928e+01 2.041956e+01 2.054518e+02 6.103192e+01 2.174958e+01 5.628056e+01 1.543200e+01 1.211056e+01 1.764103e+01 5.716405e-01 2.588042e+00 6.801500e-01 9.323153e-01 1.389316e+00 2.107702e+00 3.011859e+00 2.171281e+00 1.907647e+00 2.420235e+00 1.048156e+00 7.344942e-01 1.437277e+00 4.566279e-02 1.417067e-01 9.809060e-02 1.340144e-01 1.780557e-01 2.820247e-01 2.065704e-01 2.268829e-01 2.587461e-01 2.926673e-01 1.699633e-01 1.170538e-01 1.840510e-01
<GCONST> 9.931584e+01
<MIXTURE> 2 5.000000e-01
<MEAN> 39
 1.967230e+01 -6.215449e+00 -1.244541e+01 1.020775e+00 -1.354481e+00 1.572503e+00 2.502365e+00 1.146318e+01 6.564974e+00 4.376651e+00 3.717615e+00 -4.962716e+00 2.569299e+00 -2.344614e-01 -2.637969e-01 6.704946e-01 5.722571e-01 -5.658954e-01 4.208957e-01 1.070747e+00 1.468549e-01 -2.390599e-01 2.358316e-01 1.216797e-01 -1.215196e-01 2.410464e-01 1.692673e-02 -1.999175e-02 -4.273066e-03 -3.787334e-02 -5.564393e-02 -6.108182e-02 -9.388109e-02 1.469945e-02 1.544724e-02 -7.556238e-02 -7.306822e-02 3.825767e-02 -1.851020e-03
<VARIANCE> 39
 1.862592e+01 6.001905e+01 4.706407e+01 3.788110e+01 9.603928e+01 2.041956e+01 2.054518e+02 6.103192e+01 2.174958e+01 5.628056e+01 1.543200e+01 1.211056e+01 1.764103e+01 5.716405e-01 2.588042e+00 6.801500e-01 9.323153e-01 1.389316e+00 2.107702e+00 3.011859e+00 2.171281e+00 1.907647e+00 2.420235e+00 1.048156e+00 7.344942e-01 1.437277e+00 4.566279e-02 1.417067e-01 9.809060e-02 1.340144e-01 1.780557e-01 2.820247e-01 2.065704e-01 2.268829e-01 2.587461e-01 2.926673e-01 1.699633e-01 1.170538e-01 1.840510e-01
<GCONST> 9.931584e+01
<TRANSP> 5
 0.000000e+00 1.000000e+00 0.000000e+00 0.000000e+00 0.000000e+00
 0.000000e+00 8.788636e-01 1.211364e-01 0.000000e+00 0.000000e+00
 0.000000e+00 0.000000e+00 8.788636e-01 1.211364e-01 0.000000e+00
 0.000000e+00 0.000000e+00 0.000000e+00 8.788636e-01 1.211364e-01
 0.000000e+00 0.000000e+00 0.000000e+00 0.000000e+00 0.000000e+00
<ENDHMM>
~h "dxh"
<BEGINHMM>
<NUMSTATES> 5
<STATE> 2
<NUMMIXES> 2
<MIXTURE> 1 5.000000e-01
<MEAN> 39
 5.098849e+00 -6.514025e+00 2.430083e+00 1.092778e+01 1.083864e+01 1.500667e+00 -1.140838e+01 9.359310e+00 -3.377835e+00 -1.113024e+01 6.044074e+00 -4.088247e-01 -3.646332e+00 -1.380477e-02 1.475701e-03 -1.072459e-03 -5.524765e-03 -3.099398e-03 2.005852e-03 8.190720e-04 -5.087083e-03 2.488556e-03 5.650900e-03 -1.806995e-03 5.936168e-04 1.443354e-03 -1.213556e-03 -1.404243e-04 -1.926630e-04 -5.029775e-04 -4.298560e-04 2.249404e-04 5.535607e-04 -2.933974e-04 7.204357e-05 8.173331e-04 -1.603794e-04 -1.434907e-04 3.551734e-04
<VARIANCE> 39
 2.696502e+02 1.642264e+02 1.776205e+02 1.699619e+02 1.712323e+02 1.501611e+02 1.653076e+02 1.112998e+02 8.102897e+01 1.132308e+02 1.038732e+02 3.576029e+01 7.139818e+01 2.864393e+00 3.049235e+00 2.950589e+00 2.442850e+00 2.488132e+00 2.882445e+00 3.574063e+00 2.837703e+00 2.254665e+00 3.083899e+00 2.848865e+00 1.410452e+00 1.706605e+00 2.059384e-01 2.861855e-01 3.165202e-01 2.798763e-01 2.958655e-01 3.292713e-01 4.082396e-01 3.875320e-01 3.475762e-01 4.161765e-01 3.917231e-01 2.236369e-01 2.362328e-01
<GCONST> 1.313330e+02
<MIXTURE> 2 5.000000e-01
<MEAN> 39
 5.098849e+00 -6.514025e+00 2.430083e+00 1.092778e+01 1.083864e+01 1.500667e+00 -1.140838e+01 9.359310e+00 -3.377835e+00 -1.113024e+01 6.044074e+00 -4.088247e-01 -3.646332e+00 -1.380477e-02 1.475701e-03 -1.072459e-03 -5.524765e-03 -3.099398e-03 2.005852e-03 8.190720e-04 -5.087083e-03 2.488556e-03 5.650900e-03 -1.806995e-03 5.936168e-04 1.443354e-03 -1.213556e-03 -1.404243e-04 -1.926630e-04 -5.029775e-04 -4.298560e-04 2.249404e-04 5.535607e-04 -2.933974e-04 7.204357e-05 8.173331e-04 -1.603794e-04 -1.434907e-04 3.551734e-04
<VARIANCE> 39
 2.696502e+02 1.642264e+02 1.776205e+02 1.699619e+02 1.712323e+02 1.501611e+02 1.653076e+02 1.112998e+02 8.102897e+01 1.132308e+02 1.038732e+02 3.576029e+01 7.139818e+01 2.864393e+00 3.049235e+00 2.950589e+00 2.442850e+00 2.488132e+00 2.882445e+00 3.574063e+00 2.837703e+00 2.254665e+00 3.083899e+00 2.848865e+00 1.410452e+00 1.706605e+00 2.059384e-01 2.861855e-01 3.165202e-01 2.798763e-01 2.958655e-01 3.292713e-01 4.082396e-01 3.875320e-01 3.475762e-01 4.161765e-01 3.917231e-01 2.236369e-01 2.362328e-01
<GCONST> 1.313330e+02
<STATE> 3
<NUMMIXES> 2
<MIXTURE> 1 5.000000e-01
<MEAN> 39
 5.098849e+00 -6.514025e+00 2.430083e+00 1.092778e+01 1.083864e+01 1.500667e+00 -1.140838e+01 9.359310e+00 -3.377835e+00 -1.113024e+01 6.044074e+00 -4.088247e-01 -3.646332e+00 -1.380477e-02 1.475701e-03 -1.072459e-03 -5.524765e-03 -3.099398e-03 2.005852e-03 8.190720e-04 -5.087083e-03 2.488556e-03 5.650900e-03 -1.806995e-03 5.936168e-04 1.443354e-03 -1.213556e-03 -1.404243e-04 -1.926630e-04 -5.029775e-04 -4.298560e-04 2.249404e-04 5.535607e-04 -2.933974e-04 7.204357e-05 8.173331e-04 -1.603794e-04 -1.434907e-04 3.551734e-04
<VARIANCE> 39
 2.696502e+02 1.642264e+02 1.776205e+02 1.699619e+02 1.712323e+02 1.501611e+02 1.653076e+02 1.112998e+02 8.102897e+01 1.132308e+02 1.038732e+02 3.576029e+01 7.139818e+01 2.864393e+00 3.049235e+00 2.950589e+00 2.442850e+00 2.488132e+00 2.882445e+00 3.574063e+00 2.837703e+00 2.254665e+00 3.083899e+00 2.848865e+00 1.410452e+00 1.706605e+00 2.059384e-01 2.861855e-01 3.165202e-01 2.798763e-01 2.958655e-01 3.292713e-01 4.082396e-01 3.875320e-01 3.475762e-01 4.161765e-01 3.917231e-01 2.236369e-01 2.362328e-01
<GCONST> 1.313330e+02
<MIXTURE> 2 5.000000e-01
<MEAN> 39
 5.098849e+00 -6.514025e+00 2.430083e+00 1.092778e+01 1.083864e+01 1.500667e+00 -1.140838e+01 9.359310e+00 -3.377835e+00 -1.113024e+01 6.044074e+00 -4.088247e-01 -3.646332e+00 -1.380477e-02 1.475701e-03 -1.072459e-03 -5.524765e-03 -3.099398e-03 2.005852e-03 8.190720e-04 -5.087083e-03 2.488556e-03 5.650900e-03 -1.806995e-03 5.936168e-04 1.443354e-03 -1.213556e-03 -1.404243e-04 -1.926630e-04 -5.029775e-04 -4.298560e-04 2.249404e-04 5.535607e-04 -2.933974e-04 7.204357e-05 8.173331e-04 -1.603794e-04 -1.434907e-04 3.551734e-04
<VARIANCE> 39
 2.696502e+02 1.642264e+02 1.776205e+02 1.699619e+02 1.712323e+02 1.501611e+02 1.653076e+02 1.112998e+02 8.102897e+01 1.132308e+02 1.038732e+02 3.576029e+01 7.139818e+01 2.864393e+00 3.049235e+00 2.950589e+00 2.442850e+00 2.488132e+00 2.882445e+00 3.574063e+00 2.837703e+00 2.254665e+00 3.083899e+00 2.848865e+00 1.410452e+00 1.706605e+00 2.059384e-01 2.861855e-01 3.165202e-01 2.798763e-01 2.958655e-01 3.292713e-01 4.082396e-01 3.875320e-01 3.475762e-01 4.161765e-01 3.917231e-01 2.236369e-01 2.362328e-01
<GCONST> 1.313330e+02
<STATE> 4
<NUMMIXES> 2
<MIXTURE> 1 5.000000e-01
<MEAN> 39
 5.098849e+00 -6.514025e+00 2.430083e+00 1.092778e+01 1.083864e+01 1.500667e+00 -1.140838e+01 9.359310e+00 -3.377835e+00 -1.113024e+01 6.044074e+00 -4.088247e-01 -3.646332e+00 -1.380477e-02 1.475701e-03 -1.072459e-03 -5.524765e-03 -3.099398e-03 2.005852e-03 8.190720e-04 -5.087083e-03 2.488556e-03 5.650900e-03 -1.806995e-03 5.936168e-04 1.443354e-03 -1.213556e-03 -1.404243e-04 -1.926630e-04 -5.029775e-04 -4.298560e-04 2.249404e-04 5.535607e-04 -2.933974e-04 7.204357e-05 8.173331e-04 -1.603794e-04 -1.434907e-04 3.551734e-04
<VARIANCE> 39
 2.696502e+02 1.642264e+02 1.776205e+02 1.699619e+02 1.712323e+02 1.501611e+02 1.653076e+02 1.112998e+02 8.102897e+01 1.132308e+02 1.038732e+02 3.576029e+01 7.139818e+01 2.864393e+00 3.049235e+00 2.950589e+00 2.442850e+00 2.488132e+00 2.882445e+00 3.574063e+00 2.837703e+00 2.254665e+00 3.083899e+00 2.848865e+00 1.410452e+00 1.706605e+00 2.059384e-01 2.861855e-01 3.165202e-01 2.798763e-01 2.958655e-01 3.292713e-01 4.082396e-01 3.875320e-01 3.475762e-01 4.161765e-01 3.917231e-01 2.236369e-01 2.362328e-01
<GCONST> 1.313330e+02
<MIXTURE> 2 5.000000e-01
<MEAN> 39
 5.098849e+00 -6.514025e+00 2.430083e+00 1.092778e+01 1.083864e+01 1.500667e+00 -1.140838e+01 9.359310e+00 -3.377835e+00 -1.113024e+01 6.044074e+00 -4.088247e-01 -3.646332e+00 -1.380477e-02 1.475701e-03 -1.072459e-03 -5.524765e-03 -3.099398e-03 2.005852e-03 8.190720e-04 -5.087083e-03 2.488556e-03 5.650900e-03 -1.806995e-03 5.936168e-04 1.443354e-03 -1.213556e-03 -1.404243e-04 -1.926630e-04 -5.029775e-04 -4.298560e-04 2.249404e-04 5.535607e-04 -2.933974e-04 7.204357e-05 8.173331e-04 -1.603794e-04 -1.434907e-04 3.551734e-04
<VARIANCE> 39
 2.696502e+02 1.642264e+02 1.776205e+02 1.699619e+02 1.712323e+02 1.501611e+02 1.653076e+02 1.112998e+02 8.102897e+01 1.132308e+02 1.038732e+02 3.576029e+01 7.139818e+01 2.864393e+00 3.049235e+00 2.950589e+00 2.442850e+00 2.488132e+00 2.882445e+00 3.574063e+00 2.837703e+00 2.254665e+00 3.083899e+00 2.848865e+00 1.410452e+00 1.706605e+00 2.059384e-01 2.861855e-01 3.165202e-01 2.798763e-01 2.958655e-01 3.292713e-01 4.082396e-01 3.875320e-01 3.475762e-01 4.161765e-01 3.917231e-01 2.236369e-01 2.362328e-01
<GCONST> 1.313330e+02
<TRANSP> 5
 0.000000e+00 1.000000e+00 0.000000e+00 0.000000e+00 0.000000e+00
 0.000000e+00 6.000000e-01 4.000000e-01 0.000000e+00 0.000000e+00
 0.000000e+00 0.000000e+00 6.000000e-01 4.000000e-01 0.000000e+00
 0.000000e+00 0.000000e+00 0.000000e+00 6.000000e-01 4.000000e-01
 0.000000e+00 0.000000e+00 0.000000e+00 0.000000e+00 0.000000e+00
<ENDHMM>
~h "dxq"
<BEGINHMM>
<NUMSTATES> 5
<STATE> 2
<NUMMIXES> 2
<MIXTURE> 1 5.000000e-01
<MEAN> 39
 2.175434e+01 2.332493e+00 -9.342101e+00 7.244835e-01 9.658080e+00 -1.135780e+00 -1.639607e+01 4.236611e+00 1.500454e+00 -6.679745e+00 1.116418e+00 -6.832842e+00 -5.523213e+00 -8.240127e-03 -3.047207e-01 4.241759e-02 1.047599e-01 -1.127334e-02 3.565080e-01 6.047254e-01 3.664240e-01 -7.543232e-01 -7.181072e-01 3.049313e-01 1.002543e-01 -1.501189e-01 -5.122266e-02 -3.831371e-02 5.856073e-02 4.823776e-02 -5.903735e-02 -5.661241e-02 5.183139e-02 5.288048e-02 2.629873e-02 -6.366197e-03 -2.320143e-02 1.968094e-02 2.386454e-02
<VARIANCE> 39
 1.140897e+01 7.879021e+01 6.709970e+01 6.966988e+01 6.870831e+01 7.119686e+01 1.045068e+02 6.604656e+01 7.464395e+01 1.016630e+02 5.445962e+01 3.867679e+01 4.318288e+01 7.592081e-01 1.406432e+00 1.512787e+00 2.358068e+00 1.135273e+00 3.012251e+00 4.833963e+00 2.434257e+00 1.339873e+00 1.844063e+00 2.316839e+00 1.008999e+00 1.208102e+00 1.045123e-01 1.537029e-01 1.749266e-01 1.706627e-01 1.415934e-01 2.202323e-01 5.449166e-01 2.851401e-01 1.496138e-01 2.428090e-01 3.104229e-01 1.260182e-01 1.287286e-01
<GCONST> 1.100121e+02
<MIXTURE> 2 5.000000e-01
<MEAN> 39
 2.175434e+01 2.332493e+00 -9.342101e+00 7.244835e-01 9.658080e+00 -1.135780e+00 -1.639607e+01 4.236611e+00 1.500454e+00 -6.679745e+00 1.116418e+00 -6.832842e+00 -5.523213e+00 -8.240127e-03 -3.047207e-01 4.241759e-02 1.047599e-01 -1.127334e-02 3.565080e-01 6.047254e-01 3.664240e-01 -7.543232e-01 -7.181072e-01 3.049313e-01 1.002543e-01 -1.501189e-01 -5.122266e-02 -3.831371e-02 5.856073e-02 4.823776e-02 -5.903735e-02 -5.661241e-02 5.183139e-02 5.288048e-02 2.629873e-02 -6.366197e-03 -2.320143e-02 1.968094e-02 2.386454e-02
<VARIANCE> 39
 1.140897e+01 7.879021e+01 6.709970e+01 6.966988e+01 6.870831e+01 7.119686e+01 1.045068e+02 6.604656e+01 7.464395e+01 1.016630e+02 5.445962e+01 3.867679e+01 4.318288e+01 7.592081e-01 1.406432e+00 1.512787e+00 2.358068e+00 1.135273e+00 3.012251e+00 4.833963e+00 2.434257e+00 1.339873e+00 1.844063e+00 2.316839e+00 1.008999e+00 1.208102e+00 1.045123e-01 1.537029e-01 1.749266e-01 1.706627e-01 1.415934e-01 2.202323e-01 5.449166e-01 2.851401e-01 1.496138e-01 2.428090e-01 3.104229e-01 1.260182e-01 1.287286e-01
<GCONST> 1.100121e+02
<STATE> 3
<NUMMIXES> 2
<MIXTURE> 1 5.000000e-01
<MEAN> 39
 2.054501e+01 -2.716904e+00 -8.052163e+00 4.329095e+00 9.765594e+00 -2.019080e+00 -1.332853e+01 1.026320e+01 -2.442834e+00 -1.303184e+01 4.031656e+00 -4.473235e+00 -5.125821e+00 -2.605049e-01 -5.522275e-01 2.891253e-01 5.423686e-01 -3.943984e-02 -2.920407e-01 1.871746e-01 6.688261e-01 -2.001381e-01 -4.765013e-01 3.061986e-01 1.981130e-01 3.893601e-02 -3.172704e-02 7.246682e-03 1.564436e-02 1.045943e-02 -3.655178e-03 -3.360066e-02 -3.224210e-02 -1.213677e-02 5.324807e-02 4.737059e-02 -9.980568e-03 7.178476e-03 1.595268e-02
<VARIANCE> 39
 2.130563e+01 1.038126e+02 6.149606e+01 1.025172e+02 1.132455e+02 9.168063e+01 1.276337e+02 9.954293e+01 6.163271e+01 9.277953e+01 1.104187e+02 2.940548e+01 5.845425e+01 1.025814e+00 1.818397e+00 1.364273e+00 2.061790e+00 1.268418e+00 3.099640e+00 4.954083e+00 2.669528e+00 1.696639e+00 2.164566e+00 2.952982e+00 1.073650e+00 1.390891e+00 1.246218e-01 2.106447e-01 1.688852e-01 2.028617e-01 1.549369e-01 2.896292e-01 5.750967e-01 3.334253e-01 1.805951e-01 2.785703e-01 3.836715e-01 1.598888e-01 1.471888e-01
<GCONST> 1.165579e+02
<MIXTURE> 2 5.000000e-01
<MEAN> 39
 2.054501e+01 -2.716904e+00 -8.052163e+00 4.329095e+00 9.765594e+00 -2.019080e+00 -1.332853e+01 1.026320e+01 -2.442834e+00 -1.303184e+01 4.031656e+00 -4.473235e+00 -5.125821e+00 -2.605049e-01 -5.522275e-01 2.891253e-01 5.423686e-01 -3.943984e-02 -2.920407e-01 1.871746e-01 6.688261e-01 -2.001381e-01 -4.765013e-01 3.061986e-01 1.981130e-01 3.893601e-02 -3.172704e-02 7.246682e-03 1.564436e-02 1.045943e-02 -3.655178e-03 -3.360066e-02 -3.224210e-02 -1.213677e-02 5.324807e-02 4.737059e-02 -9.980568e-03 7.178476e-03 1.595268e-02
<VARIANCE> 39
 2.130563e+01 1.038126e+02 6.149606e+01 1.025172e+02 1.132455e+02 9.168063e+01 1.276337e+02 9.954293e+01 6.163271e+01 9.277953e+01 1.104187e+02 2.940548e+01 5.845425e+01 1.025814e+00 1.818397e+00 1.364273e+00 2.061790e+00 1.268418e+00 3.099640e+00 4.954083e+00 2.669528e+00 1.696639e+00 2.164566e+00 2.952982e+00 1.073650e+00 1.390891e+00 1.246218e-01 2.106447e-01 1.688852e-01 2.028617e-01 1.549369e-01 2.896292e-01 5.750967e-01 3.334253e-01 1.805951e-01 2.785703e-01 3.836715e-01 1.598888e-01 1.471888e-01
<GCONST> 1.165579e+02
<STATE> 4
<NUMMIXES> 2
<MIXTURE> 1 5.000000e-01
<MEAN> 39
 1.819684e+01 -7.128547e+00 -5.916469e+00 9.272129e+00 1.046712e+01 -5.619793e+00 -1.413556e+01 1.526188e+01 -2.448795e+00 -1.506085e+01 7.300212e+00 -2.759961e+00 -4.983168e+00 -4.111666e-01 -1.942859e-01 2.990880e-01 3.585438e-01 -1.235148e-02 -2.143586e-01 4.578653e-02 2.606340e-01 2.796679e-02 -1.392233e-02 2.047639e-01 1.453990e-01 2.501760e-02 -4.167852e-04 4.827157e-02 -2.208306e-02 -4.663463e-02 -4.855232e-03 3.910556e-02 1.760501e-02 -8.141117e-02 -1.299687e-02 2.523102e-02 -1.660595e-02 8.733292e-03 -7.451507e-03
<VARIANCE> 39
 5.046028e+01 8.135709e+01 8.794176e+01 1.026046e+02 1.619274e+02 9.321906e+01 1.423644e+02 9.371519e+01 6.145128e+01 7.067298e+01 1.324520e+02 2.402229e+01 8.489670e+01 1.326074e+00 1.685410e+00 9.871534e-01 1.430189e+00 1.027573e+00 2.188358e+00 2.831957e+00 2.759412e+00 1.271114e+00 1.818646e+00 2.283956e+00 8.895327e-01 9.728070e-01 1.144831e-01 1.615163e-01 1.186485e-01 1.433279e-01 1.229656e-01 2.299379e-01 3.612179e-01 3.188497e-01 1.544861e-01 2.609620e-01 3.111582e-01 1.435374e-01 1.269024e-01
<GCONST> 1.124674e+02
<MIXTURE> 2 5.000000e-01
<MEAN> 39
 1.819684e+01 -7.128547e+00 -5.916469e+00 9.272129e+00 1.046712e+01 -5.619793e+00 -1.413556e+01 1.526188e+01 -2.448795e+00 -1.506085e+01 7.300212e+00 -2.759961e+00 -4.983168e+00 -4.111666e-01 -1.942859e-01 2.990880e-01 3.585438e-01 -1.235148e-02 -2.143586e-01 4.578653e-02 2.606340e-01 2.796679e-02 -1.392233e-02 2.047639e-01 1.453990e-01 2.501760e-02 -4.167852e-04 4.827157e-02 -2.208306e-02 -4.663463e-02 -4.855232e-03 3.910556e-02 1.760501e-02 -8.141117e-02 -1.299687e-02 2.523102e-02 -1.660595e-02 8.733292e-03 -7.451507e-03
<VARIANCE> 39
 5.046028e+01 8.135709e+01 8.794176e+01 1.026046e+02 1.619274e+02 9.321906e+01 1.423644e+02 9.371519e+01 6.145128e+01 7.067298e+01 1.324520e+02 2.402229e+01 8.489670e+01 1.326074e+00 1.685410e+00 9.871534e-01 1.430189e+00 1.027573e+00 2.188358e+00 2.831957e+00 2.759412e+00 1.271114e+00 1.818646e+00 2.283956e+00 8.895327e-01 9.728070e-01 1.144831e-01 1.615163e-01 1.186485e-01 1.433279e-01 1.229656e-01 2.299379e-01 3.612179e-01 3.188497e-01 1.544861e-01 2.609620e-01 3.111582e-01 1.435374e-01 1.269024e-01
<GCONST> 1.124674e+02
<TRANSP> 5
 0.000000e+00 1.000000e+00 0.000000e+00 0.000000e+00 0.000000e+00
 0.000000e+00 8.872935e-01 1.127065e-01 0.000000e+00 0.000000e+00
 0.000000e+00 0.000000e+00 8.872936e-01 1.127064e-01 0.000000e+00
 0.000000e+00 0.000000e+00 0.000000e+00 8.872940e-01 1.127060e-01
 0.000000e+00 0.000000e+00 0.000000e+00 0.000000e+00 0.000000e+00
<ENDHMM>
~h "khq"
<BEGINHMM>
<NUMSTATES> 5
<STATE> 2
<NUMMIXES> 2
<MIXTURE> 1 5.000000e-01
<MEAN> 39
 5.098849e+00 -6.514025e+00 2.430083e+00 1.092778e+01 1.083864e+01 1.500667e+00 -1.140838e+01 9.359310e+00 -3.377835e+00 -1.113024e+01 6.044074e+00 -4.088247e-01 -3.646332e+00 -1.380477e-02 1.475701e-03 -1.072459e-03 -5.524765e-03 -3.099398e-03 2.005852e-03 8.190720e-04 -5.087083e-03 2.488556e-03 5.650900e-03 -1.806995e-03 5.936168e-04 1.443354e-03 -1.213556e-03 -1.404243e-04 -1.926630e-04 -5.029775e-04 -4.298560e-04 2.249404e-04 5.535607e-04 -2.933974e-04 7.204357e-05 8.173331e-04 -1.603794e-04 -1.434907e-04 3.551734e-04
<VARIANCE> 39
 2.696502e+02 1.642264e+02 1.776205e+02 1.699619e+02 1.712323e+02 1.501611e+02 1.653076e+02 1.112998e+02 8.102897e+01 1.132308e+02 1.038732e+02 3.576029e+01 7.139818e+01 2.864393e+00 3.049235e+00 2.950589e+00 2.442850e+00 2.488132e+00 2.882445e+00 3.574063e+00 2.837703e+00 2.254665e+00 3.083899e+00 2.848865e+00 1.410452e+00 1.706605e+00 2.059384e-01 2.861855e-01 3.165202e-01 2.798763e-01 2.958655e-01 3.292713e-01 4.082396e-01 3.875320e-01 3.475762e-01 4.161765e-01 3.917231e-01 2.236369e-01 2.362328e-01
<GCONST> 1.313330e+02
<MIXTURE> 2 5.000000e-01
<MEAN> 39
 5.098849e+00 -6.514025e+00 2.430083e+00 1.092778e+01 1.083864e+01 1.500667e+00 -1.140838e+01 9.359310e+00 -3.377835e+00 -1.113024e+01 6.044074e+00 -4.088247e-01 -3.646332e+00 -1.380477e-02 1.475701e-03 -1.072459e-03 -5.524765e-03 -3.099398e-03 2.005852e-03 8.190720e-04 -5.087083e-03 2.488556e-03 5.650900e-03 -1.806995e-03 5.936168e-04 1.443354e-03 -1.213556e-03 -1.404243e-04 -1.926630e-04 -5.029775e-04 -4.298560e-04 2.249404e-04 5.535607e-04 -2.933974e-04 7.204357e-05 8.173331e-04 -1.603794e-04 -1.434907e-04 3.551734e-04
<VARIANCE> 39
 2.696502e+02 1.642264e+02 1.776205e+02 1.699619e+02 1.712323e+02 1.501611e+02 1.653076e+02 1.112998e+02 8.102897e+01 1.132308e+02 1.038732e+02 3.576029e+01 7.139818e+01 2.864393e+00 3.049235e+00 2.950589e+00 2.442850e+00 2.488132e+00 2.882445e+00 3.574063e+00 2.837703e+00 2.254665e+00 3.083899e+00 2.848865e+00 1.410452e+00 1.706605e+00 2.059384e-01 2.861855e-01 3.165202e-01 2.798763e-01 2.958655e-01 3.292713e-01 4.082396e-01 3.875320e-01 3.475762e-01 4.161765e-01 3.917231e-01 2.236369e-01 2.362328e-01
<GCONST> 1.313330e+02
<STATE> 3
<NUMMIXES> 2
<MIXTURE> 1 5.000000e-01
<MEAN> 39
 5.098849e+00 -6.514025e+00 2.430083e+00 1.092778e+01 1.083864e+01 1.500667e+00 -1.140838e+01 9.359310e+00 -3.377835e+00 -1.113024e+01 6.044074e+00 -4.088247e-01 -3.646332e+00 -1.380477e-02 1.475701e-03 -1.072459e-03 -5.524765e-03 -3.099398e-03 2.005852e-03 8.190720e-04 -5.087083e-03 2.488556e-03 5.650900e-03 -1.806995e-03 5.936168e-04 1.443354e-03 -1.213556e-03 -1.404243e-04 -1.926630e-04 -5.029775e-04 -4.298560e-04 2.249404e-04 5.535607e-04 -2.933974e-04 7.204357e-05 8.173331e-04 -1.603794e-04 -1.434907e-04 3.551734e-04
<VARIANCE> 39
 2.696502e+02 1.642264e+02 1.776205e+02 1.699619e+02 1.712323e+02 1.501611e+02 1.653076e+02 1.112998e+02 8.102897e+01 1.132308e+02 1.038732e+02 3.576029e+01 7.139818e+01 2.864393e+00 3.049235e+00 2.950589e+00 2.442850e+00 2.488132e+00 2.882445e+00 3.574063e+00 2.837703e+00 2.254665e+00 3.083899e+00 2.848865e+00 1.410452e+00 1.706605e+00 2.059384e-01 2.861855e-01 3.165202e-01 2.798763e-01 2.958655e-01 3.292713e-01 4.082396e-01 3.875320e-01 3.475762e-01 4.161765e-01 3.917231e-01 2.236369e-01 2.362328e-01
<GCONST> 1.313330e+02
<MIXTURE> 2 5.000000e-01
<MEAN> 39
 5.098849e+00 -6.514025e+00 2.430083e+00 1.092778e+01 1.083864e+01 1.500667e+00 -1.140838e+01 9.359310e+00 -3.377835e+00 -1.113024e+01 6.044074e+00 -4.088247e-01 -3.646332e+00 -1.380477e-02 1.475701e-03 -1.072459e-03 -5.524765e-03 -3.099398e-03 2.005852e-03 8.190720e-04 -5.087083e-03 2.488556e-03 5.650900e-03 -1.806995e-03 5.936168e-04 1.443354e-03 -1.213556e-03 -1.404243e-04 -1.926630e-04 -5.029775e-04 -4.298560e-04 2.249404e-04 5.535607e-04 -2.933974e-04 7.204357e-05 8.173331e-04 -1.603794e-04 -1.434907e-04 3.551734e-04
<VARIANCE> 39
 2.696502e+02 1.642264e+02 1.776205e+02 1.699619e+02 1.712323e+02 1.501611e+02 1.653076e+02 1.112998e+02 8.102897e+01 1.132308e+02 1.038732e+02 3.576029e+01 7.139818e+01 2.864393e+00 3.049235e+00 2.950589e+00 2.442850e+00 2.488132e+00 2.882445e+00 3.574063e+00 2.837703e+00 2.254665e+00 3.083899e+00 2.848865e+00 1.410452e+00 1.706605e+00 2.059384e-01 2.861855e-01 3.165202e-01 2.798763e-01 2.958655e-01 3.292713e-01 4.082396e-01 3.875320e-01 3.475762e-01 4.161765e-01 3.917231e-01 2.236369e-01 2.362328e-01
<GCONST> 1.313330e+02
<STATE> 4
<NUMMIXES> 2
<MIXTURE> 1 5.000000e-01
<MEAN> 39
 5.098849e+00 -6.514025e+00 2.430083e+00 1.092778e+01 1.083864e+01 1.500667e+00 -1.140838e+01 9.359310e+00 -3.377835e+00 -1.113024e+01 6.044074e+00 -4.088247e-01 -3.646332e+00 -1.380477e-02 1.475701e-03 -1.072459e-03 -5.524765e-03 -3.099398e-03 2.005852e-03 8.190720e-04 -5.087083e-03 2.488556e-03 5.650900e-03 -1.806995e-03 5.936168e-04 1.443354e-03 -1.213556e-03 -1.404243e-04 -1.926630e-04 -5.029775e-04 -4.298560e-04 2.249404e-04 5.535607e-04 -2.933974e-04 7.204357e-05 8.173331e-04 -1.603794e-04 -1.434907e-04 3.551734e-04
<VARIANCE> 39
 2.696502e+02 1.642264e+02 1.776205e+02 1.699619e+02 1.712323e+02 1.501611e+02 1.653076e+02 1.112998e+02 8.102897e+01 1.132308e+02 1.038732e+02 3.576029e+01 7.139818e+01 2.864393e+00 3.049235e+00 2.950589e+00 2.442850e+00 2.488132e+00 2.882445e+00 3.574063e+00 2.837703e+00 2.254665e+00 3.083899e+00 2.848865e+00 1.410452e+00 1.706605e+00 2.059384e-01 2.861855e-01 3.165202e-01 2.798763e-01 2.958655e-01 3.292713e-01 4.082396e-01 3.875320e-01 3.475762e-01 4.161765e-01 3.917231e-01 2.236369e-01 2.362328e-01
<GCONST> 1.313330e+02
<MIXTURE> 2 5.000000e-01
<MEAN> 39
 5.098849e+00 -6.514025e+00 2.430083e+00 1.092778e+01 1.083864e+01 1.500667e+00 -1.140838e+01 9.359310e+00 -3.377835e+00 -1.113024e+01 6.044074e+00 -4.088247e-01 -3.646332e+00 -1.380477e-02 1.475701e-03 -1.072459e-03 -5.524765e-03 -3.099398e-03 2.005852e-03 8.190720e-04 -5.087083e-03 2.488556e-03 5.650900e-03 -1.806995e-03 5.936168e-04 1.443354e-03 -1.213556e-03 -1.404243e-04 -1.926630e-04 -5.029775e-04 -4.298560e-04 2.249404e-04 5.535607e-04 -2.933974e-04 7.204357e-05 8.173331e-04 -1.603794e-04 -1.434907e-04 3.551734e-04
<VARIANCE> 39
 2.696502e+02 1.642264e+02 1.776205e+02 1.699619e+02 1.712323e+02 1.501611e+02 1.653076e+02 1.112998e+02 8.102897e+01 1.132308e+02 1.038732e+02 3.576029e+01 7.139818e+01 2.864393e+00 3.049235e+00 2.950589e+00 2.442850e+00 2.488132e+00 2.882445e+00 3.574063e+00 2.837703e+00 2.254665e+00 3.083899e+00 2.848865e+00 1.410452e+00 1.706605e+00 2.059384e-01 2.861855e-01 3.165202e-01 2.798763e-01 2.958655e-01 3.292713e-01 4.082396e-01 3.875320e-01 3.475762e-01 4.161765e-01 3.917231e-01 2.236369e-01 2.362328e-01
<GCONST> 1.313330e+02
<TRANSP> 5
 0.000000e+00 1.000000e+00 0.000000e+00 0.000000e+00 0.000000e+00
 0.000000e+00 6.000000e-01 4.000000e-01 0.000000e+00 0.000000e+00
 0.000000e+00 0.000000e+00 6.000000e-01 4.000000e-01 0.000000e+00
 0.000000e+00 0.000000e+00 0.000000e+00 6.000000e-01 4.000000e-01
 0.000000e+00 0.000000e+00 0.000000e+00 0.000000e+00 0.000000e+00
<ENDHMM>
~h "txh"
<BEGINHMM>
<NUMSTATES> 5
<STATE> 2
<NUMMIXES> 2
<MIXTURE> 1 6.832466e-01
<MEAN> 39
 7.257456e+00 1.958542e+00 -5.709857e+00 6.425050e+00 1.628862e+01 1.078234e+01 -6.678167e+00 2.235022e+00 -5.331308e+00 -5.969379e+00 8.449444e+00 6.685276e+00 3.486793e+00 -2.682141e+00 5.497946e-01 1.445207e+00 6.368711e-01 -8.452619e-01 7.222873e-01 1.977579e+00 -2.000463e-01 5.194820e-01 1.302146e+00 -1.204336e+00 -2.383393e-01 1.007845e+00 -1.882060e-01 -3.670971e-01 9.814930e-02 1.656856e-02 -1.962291e-01 -2.138505e-01 -1.306926e-01 2.054077e-01 1.168677e-01 -1.200254e-01 -5.432395e-02 -1.018974e-01 8.417564e-02
<VARIANCE> 39
 1.379828e+02 3.274002e+01 5.796355e+01 3.231032e+01 3.143979e+01 5.140414e+01 1.028100e+02 5.045166e+01 4.029850e+01 8.769186e+01 3.517049e+01 1.484604e+01 2.525217e+01 1.767627e+00 3.066094e+00 2.497019e+00 1.290095e+00 2.132747e+00 3.015203e+00 2.197065e+00 2.383580e+00 1.720758e+00 2.351434e+00 2.045343e+00 9.191836e-01 1.660292e+00 1.894052e-01 6.189198e-01 3.629268e-01 1.830527e-01 3.252811e-01 4.450456e-01 3.886991e-01 3.261111e-01 3.538218e-01 3.123748e-01 3.498339e-01 2.275476e-01 2.759300e-01
<GCONST> 1.152655e+02
<MIXTURE> 2 3.167529e-01
<MEAN> 39
 -2.571906e+01 -5.907561e+00 -4.842037e+00 -2.616384e+00 -2.929560e+00 1.542851e+00 -3.246823e+00 1.650724e+00 -1.097750e+00 -2.296861e-01 8.839738e-01 -1.024904e+00 1.793196e-01 -3.885025e-02 -4.262269e-03 1.072866e-01 1.429178e-01 8.057305e-02 -3.920421e-04 -1.807463e-01 -2.330748e-01 -2.229686e-01 -1.288683e-01 -6.551725e-02 -1.221369e-02 1.556561e-01 9.451807e-02 1.289904e-02 5.383117e-02 1.848483e-01 1.960600e-01 6.997691e-02 9.565251e-02 1.348490e-01 9.558418e-02 4.016152e-02 2.590400e-02 7.648741e-02 8.677766e-02
<VARIANCE> 39
 2.577028e+01 6.316765e+00 5.241966e+00 8.124451e+00 1.320238e+01 7.676721e+00 6.520640e+00 7.262477e+00 9.756873e+00 1.333280e+01 7.987481e+00 7.162986e+00 4.234477e+00 2.594158e-01 2.545118e-01 3.106531e-01 3.950825e-01 4.556211e-01 7.189190e-01 9.948667e-01 1.096604e+00 1.307795e+00 1.268093e+00 9.794297e-01 1.030698e+00 7.714381e-01 5.221026e-02 5.354579e-02 5.558952e-02 1.068833e-01 1.596443e-01 1.940503e-01 2.292791e-01 3.329504e-01 3.760936e-01 3.129627e-01 2.093089e-01 1.797771e-01 1.655575e-01
<GCONST> 6.949654e+01
<STATE> 3
<NUMMIXES> 2
<MIXTURE> 1 9.745774e-01
<MEAN> 39
 -1.252666e+01 -7.843961e+00 5.955229e-01 8.721082e+00 6.836647e+00 1.065934e+01 1.823560e+00 7.061840e+00 2.513890e+00 4.776558e-01 1.745542e+00 1.245752e+00 7.484966e+00 6.392360e-01 -3.241754e+00 8.177489e-01 9.847990e-01 -4.385638e-01 5.931392e-01 1.307832e-01 1.068892e+00 8.317218e-01 2.666674e-01 6.909240e-01 -3.791568e-01 -5.988473e-02 7.260855e-01 -4.364161e-01 1.051112e-01 -1.308895e-01 -7.615536e-02 2.275862e-01 -2.425513e-01 -8.824529e-02 -4.480114e-01 -2.683109e-01 6.636987e-01 2.894002e-01 -3.294382e-01
<VARIANCE> 39
 6.997013e+01 5.800329e+01 2.046743e+01 2.754861e+01 3.086695e+01 3.209473e+01 1.990611e+01 2.857723e+01 3.208553e+01 1.894102e+01 1.944904e+01 2.368052e+01 2.595031e+01 6.045991e+00 5.554994e+00 1.768570e+00 3.340823e+00 6.151449e+00 3.503287e+00 2.736402e+00 3.434938e+00 5.114115e+00 3.444316e+00 5.531361e+00 3.942838e+00 5.479567e+00 3.453281e-01 3.435501e-01 3.676196e-01 4.216212e-01 6.844174e-01 6.555723e-01 4.238436e-01 6.713492e-01 9.974384e-01 4.635379e-01 5.902956e-01 7.651607e-01 8.642724e-01
<GCONST> 1.258481e+02
<MIXTURE> 2 2.542254e-02
<MEAN> 39
 -5.408273e+00 -2.212680e+01 5.625985e+00 5.634377e+00 -2.681065e-02 1.135225e+01 4.055305e-01 9.392916e+00 -4.394915e-01 3.628301e+00 1.034297e+01 -1.185973e-01 3.162404e+00 1.267058e+00 -5.911862e+00 2.132725e+00 -1.461542e+00 -9.650336e-01 1.865242e+00 2.561080e-01 1.356943e+00 -2.578158e+00 -7.433403e-02 5.316688e+00 3.469049e+00 -1.135962e+00 4.878783e-02 4.959805e-01 1.037664e+00 2.398731e-01 9.199787e-01 1.267098e+00 -1.624508e-01 -5.090963e-01 -1.450796e+00 -9.569310e-01 -1.696087e-02 4.090727e-01 6.711324e-01
<VARIANCE> 39
 6.548814e+00 1.537038e+01 8.881845e+00 1.366827e+01 3.619125e+00 5.432770e+00 1.227178e+01 3.000544e+01 2.493396e+01 2.145091e+01 3.301651e+01 2.384885e+01 4.926033e+00 4.859648e-01 4.986849e-01 1.555905e+00 1.835208e+00 1.004650e+00 2.774311e+00 7.790847e-01 2.642441e+00 3.698384e+00 4.424178e+00 1.572414e+00 1.313049e+00 1.945325e+00 1.898477e-01 2.376012e-01 1.088451e-01 1.013088e-01 1.495113e-01 1.639258e-01 2.674355e-01 3.968511e-01 7.631754e-01 2.973816e-01 4.512099e-01 6.979365e-01 2.326236e-01
<GCONST> 9.243027e+01
<STATE> 4
<NUMMIXES> 2
<MIXTURE> 1 1.303669e-01
<MEAN> 39
 -8.392347e+00 -1.330846e+01 -4.938092e+00 6.056842e+00 6.329686e+00 1.417363e+01 7.782806e+00 1.035920e+01 -9.235082e-01 -1.476389e+00 9.581458e+00 8.728188e+00 9.047816e+00 -1.066125e+00 1.509948e+00 -3.684027e-01 -5.407438e-01 -2.088927e-01 -9.406852e-01 -8.410634e-02 1.777382e-01 5.093977e-01 -6.019533e-03 -1.128487e+00 -3.467776e-01 -9.704186e-02 7.048725e-02 -2.434957e-01 2.985385e-01 4.218293e-02 -8.645853e-02 1.620912e-01 -1.283803e-01 -6.866297e-02 -1.806815e-01 -1.506156e-01 1.426083e-01 -7.403810e-02 -1.359962e-01
<VARIANCE> 39
 9.694534e+01 1.243329e+02 5.754216e+01 4.736272e+01 4.798994e+01 4.988449e+01 4.741238e+01 4.518474e+01 2.891157e+01 3.888486e+01 5.816402e+01 3.167218e+01 2.189140e+01 1.404476e+00 1.574073e+00 3.228049e+00 1.312321e+00 2.021416e+00 1.624517e+00 1.250992e+00 1.236628e+00 2.489882e+00 2.487663e+00 1.778955e+00 1.389825e+00 1.507057e+00 1.126068e-01 1.971845e-01 2.912917e-01 1.357071e-01 1.650998e-01 3.112096e-01 1.809848e-01 2.256323e-01 2.850713e-01 2.983402e-01 2.713758e-01 1.702477e-01 1.775866e-01
<GCONST> 1.085935e+02
<MIXTURE> 2 8.696335e-01
<MEAN> 39
 -4.925831e+00 -2.835072e+01 7.816150e+00 1.150193e+01 5.272593e+00 2.104326e+01 8.965771e-01 5.942567e+00 -5.141347e+00 -2.940525e+00 1.589726e+01 4.684456e+00 4.029542e+00 1.622866e-01 1.116602e-01 -1.284589e-01 2.516247e-01 4.290889e-01 2.739657e-01 1.378225e-01 -1.221248e-01 -3.647146e-01 -9.675911e-02 5.379311e-01 3.083912e-01 -1.605991e-02 -1.486696e-01 4.774247e-01 -2.301967e-01 -3.411742e-02 9.789992e-02 -2.460363e-01 3.839996e-02 2.947694e-02 1.947557e-01 9.751204e-02 -3.069499e-01 -8.260377e-02 4.350977e-02
<VARIANCE> 39
 4.304681e+01 1.439188e+02 9.225288e+01 4.475197e+01 4.673074e+01 6.696381e+01 5.866510e+01 4.548134e+01 5.557807e+01 5.791517e+01 8.642938e+01 5.264125e+01 4.509874e+01 2.818938e+00 1.110602e+01 7.044595e+00 1.801195e+00 2.788194e+00 5.583763e+00 2.880446e+00 2.617135e+00 5.698761e+00 4.215345e+00 5.851349e+00 2.482686e+00 2.606148e+00 2.968599e-01 7.990241e-01 8.917506e-01 2.591619e-01 4.438449e-01 7.363284e-01 4.201792e-01 4.514090e-01 9.518912e-01 8.007978e-01 6.268368e-01 4.104777e-01 5.139979e-01
<GCONST> 1.345643e+02
<TRANSP> 5
 0.000000e+00 1.000000e+00 0.000000e+00 0.000000e+00 0.000000e+00
 0.000000e+00 8.749095e-01 1.250905e-01 0.000000e+00 0.000000e+00
 0.000000e+00 0.000000e+00 7.954450e-01 2.045550e-01 0.000000e+00
 0.000000e+00 0.000000e+00 0.000000e+00 9.178461e-01 8.215389e-02
 0.000000e+00 0.000000e+00 0.000000e+00 0.000000e+00 0.000000e+00
<ENDHMM>
