~o
<STREAMINFO> 1 39
<VECSIZE> 39<NULLD><MFCC_D_A><DIAGC>
~h "proto_5s_2m"
<BEGINHMM>
<NUMSTATES> 7
<STATE> 2
<NUMMIXES> 2
<MIXTURE> 1 5.000000e-01
<MEAN> 39
 5.098849e+00 -6.514025e+00 2.430083e+00 1.092778e+01 1.083864e+01 1.500667e+00 -1.140838e+01 9.359310e+00 -3.377835e+00 -1.113024e+01 6.044074e+00 -4.088247e-01 -3.646332e+00 -1.380477e-02 1.475701e-03 -1.072459e-03 -5.524765e-03 -3.099398e-03 2.005852e-03 8.190720e-04 -5.087083e-03 2.488556e-03 5.650900e-03 -1.806995e-03 5.936168e-04 1.443354e-03 -1.213556e-03 -1.404243e-04 -1.926630e-04 -5.029775e-04 -4.298560e-04 2.249404e-04 5.535607e-04 -2.933974e-04 7.204357e-05 8.173331e-04 -1.603794e-04 -1.434907e-04 3.551734e-04
<VARIANCE> 39
 2.696502e+02 1.642264e+02 1.776205e+02 1.699619e+02 1.712323e+02 1.501611e+02 1.653076e+02 1.112998e+02 8.102897e+01 1.132308e+02 1.038732e+02 3.576029e+01 7.139818e+01 2.864393e+00 3.049235e+00 2.950589e+00 2.442850e+00 2.488132e+00 2.882445e+00 3.574063e+00 2.837703e+00 2.254665e+00 3.083899e+00 2.848865e+00 1.410452e+00 1.706605e+00 2.059384e-01 2.861855e-01 3.165202e-01 2.798763e-01 2.958655e-01 3.292713e-01 4.082396e-01 3.875320e-01 3.475762e-01 4.161765e-01 3.917231e-01 2.236369e-01 2.362328e-01
<GCONST> 1.313330e+02
<MIXTURE> 2 5.000000e-01
<MEAN> 39
 5.098849e+00 -6.514025e+00 2.430083e+00 1.092778e+01 1.083864e+01 1.500667e+00 -1.140838e+01 9.359310e+00 -3.377835e+00 -1.113024e+01 6.044074e+00 -4.088247e-01 -3.646332e+00 -1.380477e-02 1.475701e-03 -1.072459e-03 -5.524765e-03 -3.099398e-03 2.005852e-03 8.190720e-04 -5.087083e-03 2.488556e-03 5.650900e-03 -1.806995e-03 5.936168e-04 1.443354e-03 -1.213556e-03 -1.404243e-04 -1.926630e-04 -5.029775e-04 -4.298560e-04 2.249404e-04 5.535607e-04 -2.933974e-04 7.204357e-05 8.173331e-04 -1.603794e-04 -1.434907e-04 3.551734e-04
<VARIANCE> 39
 2.696502e+02 1.642264e+02 1.776205e+02 1.699619e+02 1.712323e+02 1.501611e+02 1.653076e+02 1.112998e+02 8.102897e+01 1.132308e+02 1.038732e+02 3.576029e+01 7.139818e+01 2.864393e+00 3.049235e+00 2.950589e+00 2.442850e+00 2.488132e+00 2.882445e+00 3.574063e+00 2.837703e+00 2.254665e+00 3.083899e+00 2.848865e+00 1.410452e+00 1.706605e+00 2.059384e-01 2.861855e-01 3.165202e-01 2.798763e-01 2.958655e-01 3.292713e-01 4.082396e-01 3.875320e-01 3.475762e-01 4.161765e-01 3.917231e-01 2.236369e-01 2.362328e-01
<GCONST> 1.313330e+02
<STATE> 3
<NUMMIXES> 2
<MIXTURE> 1 5.000000e-01
<MEAN> 39
 5.098849e+00 -6.514025e+00 2.430083e+00 1.092778e+01 1.083864e+01 1.500667e+00 -1.140838e+01 9.359310e+00 -3.377835e+00 -1.113024e+01 6.044074e+00 -4.088247e-01 -3.646332e+00 -1.380477e-02 1.475701e-03 -1.072459e-03 -5.524765e-03 -3.099398e-03 2.005852e-03 8.190720e-04 -5.087083e-03 2.488556e-03 5.650900e-03 -1.806995e-03 5.936168e-04 1.443354e-03 -1.213556e-03 -1.404243e-04 -1.926630e-04 -5.029775e-04 -4.298560e-04 2.249404e-04 5.535607e-04 -2.933974e-04 7.204357e-05 8.173331e-04 -1.603794e-04 -1.434907e-04 3.551734e-04
<VARIANCE> 39
 2.696502e+02 1.642264e+02 1.776205e+02 1.699619e+02 1.712323e+02 1.501611e+02 1.653076e+02 1.112998e+02 8.102897e+01 1.132308e+02 1.038732e+02 3.576029e+01 7.139818e+01 2.864393e+00 3.049235e+00 2.950589e+00 2.442850e+00 2.488132e+00 2.882445e+00 3.574063e+00 2.837703e+00 2.254665e+00 3.083899e+00 2.848865e+00 1.410452e+00 1.706605e+00 2.059384e-01 2.861855e-01 3.165202e-01 2.798763e-01 2.958655e-01 3.292713e-01 4.082396e-01 3.875320e-01 3.475762e-01 4.161765e-01 3.917231e-01 2.236369e-01 2.362328e-01
<GCONST> 1.313330e+02
<MIXTURE> 2 5.000000e-01
<MEAN> 39
 5.098849e+00 -6.514025e+00 2.430083e+00 1.092778e+01 1.083864e+01 1.500667e+00 -1.140838e+01 9.359310e+00 -3.377835e+00 -1.113024e+01 6.044074e+00 -4.088247e-01 -3.646332e+00 -1.380477e-02 1.475701e-03 -1.072459e-03 -5.524765e-03 -3.099398e-03 2.005852e-03 8.190720e-04 -5.087083e-03 2.488556e-03 5.650900e-03 -1.806995e-03 5.936168e-04 1.443354e-03 -1.213556e-03 -1.404243e-04 -1.926630e-04 -5.029775e-04 -4.298560e-04 2.249404e-04 5.535607e-04 -2.933974e-04 7.204357e-05 8.173331e-04 -1.603794e-04 -1.434907e-04 3.551734e-04
<VARIANCE> 39
 2.696502e+02 1.642264e+02 1.776205e+02 1.699619e+02 1.712323e+02 1.501611e+02 1.653076e+02 1.112998e+02 8.102897e+01 1.132308e+02 1.038732e+02 3.576029e+01 7.139818e+01 2.864393e+00 3.049235e+00 2.950589e+00 2.442850e+00 2.488132e+00 2.882445e+00 3.574063e+00 2.837703e+00 2.254665e+00 3.083899e+00 2.848865e+00 1.410452e+00 1.706605e+00 2.059384e-01 2.861855e-01 3.165202e-01 2.798763e-01 2.958655e-01 3.292713e-01 4.082396e-01 3.875320e-01 3.475762e-01 4.161765e-01 3.917231e-01 2.236369e-01 2.362328e-01
<GCONST> 1.313330e+02
<STATE> 4
<NUMMIXES> 2
<MIXTURE> 1 5.000000e-01
<MEAN> 39
 5.098849e+00 -6.514025e+00 2.430083e+00 1.092778e+01 1.083864e+01 1.500667e+00 -1.140838e+01 9.359310e+00 -3.377835e+00 -1.113024e+01 6.044074e+00 -4.088247e-01 -3.646332e+00 -1.380477e-02 1.475701e-03 -1.072459e-03 -5.524765e-03 -3.099398e-03 2.005852e-03 8.190720e-04 -5.087083e-03 2.488556e-03 5.650900e-03 -1.806995e-03 5.936168e-04 1.443354e-03 -1.213556e-03 -1.404243e-04 -1.926630e-04 -5.029775e-04 -4.298560e-04 2.249404e-04 5.535607e-04 -2.933974e-04 7.204357e-05 8.173331e-04 -1.603794e-04 -1.434907e-04 3.551734e-04
<VARIANCE> 39
 2.696502e+02 1.642264e+02 1.776205e+02 1.699619e+02 1.712323e+02 1.501611e+02 1.653076e+02 1.112998e+02 8.102897e+01 1.132308e+02 1.038732e+02 3.576029e+01 7.139818e+01 2.864393e+00 3.049235e+00 2.950589e+00 2.442850e+00 2.488132e+00 2.882445e+00 3.574063e+00 2.837703e+00 2.254665e+00 3.083899e+00 2.848865e+00 1.410452e+00 1.706605e+00 2.059384e-01 2.861855e-01 3.165202e-01 2.798763e-01 2.958655e-01 3.292713e-01 4.082396e-01 3.875320e-01 3.475762e-01 4.161765e-01 3.917231e-01 2.236369e-01 2.362328e-01
<GCONST> 1.313330e+02
<MIXTURE> 2 5.000000e-01
<MEAN> 39
 5.098849e+00 -6.514025e+00 2.430083e+00 1.092778e+01 1.083864e+01 1.500667e+00 -1.140838e+01 9.359310e+00 -3.377835e+00 -1.113024e+01 6.044074e+00 -4.088247e-01 -3.646332e+00 -1.380477e-02 1.475701e-03 -1.072459e-03 -5.524765e-03 -3.099398e-03 2.005852e-03 8.190720e-04 -5.087083e-03 2.488556e-03 5.650900e-03 -1.806995e-03 5.936168e-04 1.443354e-03 -1.213556e-03 -1.404243e-04 -1.926630e-04 -5.029775e-04 -4.298560e-04 2.249404e-04 5.535607e-04 -2.933974e-04 7.204357e-05 8.173331e-04 -1.603794e-04 -1.434907e-04 3.551734e-04
<VARIANCE> 39
 2.696502e+02 1.642264e+02 1.776205e+02 1.699619e+02 1.712323e+02 1.501611e+02 1.653076e+02 1.112998e+02 8.102897e+01 1.132308e+02 1.038732e+02 3.576029e+01 7.139818e+01 2.864393e+00 3.049235e+00 2.950589e+00 2.442850e+00 2.488132e+00 2.882445e+00 3.574063e+00 2.837703e+00 2.254665e+00 3.083899e+00 2.848865e+00 1.410452e+00 1.706605e+00 2.059384e-01 2.861855e-01 3.165202e-01 2.798763e-01 2.958655e-01 3.292713e-01 4.082396e-01 3.875320e-01 3.475762e-01 4.161765e-01 3.917231e-01 2.236369e-01 2.362328e-01
<GCONST> 1.313330e+02
<STATE> 5
<NUMMIXES> 2
<MIXTURE> 1 5.000000e-01
<MEAN> 39
 5.098849e+00 -6.514025e+00 2.430083e+00 1.092778e+01 1.083864e+01 1.500667e+00 -1.140838e+01 9.359310e+00 -3.377835e+00 -1.113024e+01 6.044074e+00 -4.088247e-01 -3.646332e+00 -1.380477e-02 1.475701e-03 -1.072459e-03 -5.524765e-03 -3.099398e-03 2.005852e-03 8.190720e-04 -5.087083e-03 2.488556e-03 5.650900e-03 -1.806995e-03 5.936168e-04 1.443354e-03 -1.213556e-03 -1.404243e-04 -1.926630e-04 -5.029775e-04 -4.298560e-04 2.249404e-04 5.535607e-04 -2.933974e-04 7.204357e-05 8.173331e-04 -1.603794e-04 -1.434907e-04 3.551734e-04
<VARIANCE> 39
 2.696502e+02 1.642264e+02 1.776205e+02 1.699619e+02 1.712323e+02 1.501611e+02 1.653076e+02 1.112998e+02 8.102897e+01 1.132308e+02 1.038732e+02 3.576029e+01 7.139818e+01 2.864393e+00 3.049235e+00 2.950589e+00 2.442850e+00 2.488132e+00 2.882445e+00 3.574063e+00 2.837703e+00 2.254665e+00 3.083899e+00 2.848865e+00 1.410452e+00 1.706605e+00 2.059384e-01 2.861855e-01 3.165202e-01 2.798763e-01 2.958655e-01 3.292713e-01 4.082396e-01 3.875320e-01 3.475762e-01 4.161765e-01 3.917231e-01 2.236369e-01 2.362328e-01
<GCONST> 1.313330e+02
<MIXTURE> 2 5.000000e-01
<MEAN> 39
 5.098849e+00 -6.514025e+00 2.430083e+00 1.092778e+01 1.083864e+01 1.500667e+00 -1.140838e+01 9.359310e+00 -3.377835e+00 -1.113024e+01 6.044074e+00 -4.088247e-01 -3.646332e+00 -1.380477e-02 1.475701e-03 -1.072459e-03 -5.524765e-03 -3.099398e-03 2.005852e-03 8.190720e-04 -5.087083e-03 2.488556e-03 5.650900e-03 -1.806995e-03 5.936168e-04 1.443354e-03 -1.213556e-03 -1.404243e-04 -1.926630e-04 -5.029775e-04 -4.298560e-04 2.249404e-04 5.535607e-04 -2.933974e-04 7.204357e-05 8.173331e-04 -1.603794e-04 -1.434907e-04 3.551734e-04
<VARIANCE> 39
 2.696502e+02 1.642264e+02 1.776205e+02 1.699619e+02 1.712323e+02 1.501611e+02 1.653076e+02 1.112998e+02 8.102897e+01 1.132308e+02 1.038732e+02 3.576029e+01 7.139818e+01 2.864393e+00 3.049235e+00 2.950589e+00 2.442850e+00 2.488132e+00 2.882445e+00 3.574063e+00 2.837703e+00 2.254665e+00 3.083899e+00 2.848865e+00 1.410452e+00 1.706605e+00 2.059384e-01 2.861855e-01 3.165202e-01 2.798763e-01 2.958655e-01 3.292713e-01 4.082396e-01 3.875320e-01 3.475762e-01 4.161765e-01 3.917231e-01 2.236369e-01 2.362328e-01
<GCONST> 1.313330e+02
<STATE> 6
<NUMMIXES> 2
<MIXTURE> 1 5.000000e-01
<MEAN> 39
 5.098849e+00 -6.514025e+00 2.430083e+00 1.092778e+01 1.083864e+01 1.500667e+00 -1.140838e+01 9.359310e+00 -3.377835e+00 -1.113024e+01 6.044074e+00 -4.088247e-01 -3.646332e+00 -1.380477e-02 1.475701e-03 -1.072459e-03 -5.524765e-03 -3.099398e-03 2.005852e-03 8.190720e-04 -5.087083e-03 2.488556e-03 5.650900e-03 -1.806995e-03 5.936168e-04 1.443354e-03 -1.213556e-03 -1.404243e-04 -1.926630e-04 -5.029775e-04 -4.298560e-04 2.249404e-04 5.535607e-04 -2.933974e-04 7.204357e-05 8.173331e-04 -1.603794e-04 -1.434907e-04 3.551734e-04
<VARIANCE> 39
 2.696502e+02 1.642264e+02 1.776205e+02 1.699619e+02 1.712323e+02 1.501611e+02 1.653076e+02 1.112998e+02 8.102897e+01 1.132308e+02 1.038732e+02 3.576029e+01 7.139818e+01 2.864393e+00 3.049235e+00 2.950589e+00 2.442850e+00 2.488132e+00 2.882445e+00 3.574063e+00 2.837703e+00 2.254665e+00 3.083899e+00 2.848865e+00 1.410452e+00 1.706605e+00 2.059384e-01 2.861855e-01 3.165202e-01 2.798763e-01 2.958655e-01 3.292713e-01 4.082396e-01 3.875320e-01 3.475762e-01 4.161765e-01 3.917231e-01 2.236369e-01 2.362328e-01
<GCONST> 1.313330e+02
<MIXTURE> 2 5.000000e-01
<MEAN> 39
 5.098849e+00 -6.514025e+00 2.430083e+00 1.092778e+01 1.083864e+01 1.500667e+00 -1.140838e+01 9.359310e+00 -3.377835e+00 -1.113024e+01 6.044074e+00 -4.088247e-01 -3.646332e+00 -1.380477e-02 1.475701e-03 -1.072459e-03 -5.524765e-03 -3.099398e-03 2.005852e-03 8.190720e-04 -5.087083e-03 2.488556e-03 5.650900e-03 -1.806995e-03 5.936168e-04 1.443354e-03 -1.213556e-03 -1.404243e-04 -1.926630e-04 -5.029775e-04 -4.298560e-04 2.249404e-04 5.535607e-04 -2.933974e-04 7.204357e-05 8.173331e-04 -1.603794e-04 -1.434907e-04 3.551734e-04
<VARIANCE> 39
 2.696502e+02 1.642264e+02 1.776205e+02 1.699619e+02 1.712323e+02 1.501611e+02 1.653076e+02 1.112998e+02 8.102897e+01 1.132308e+02 1.038732e+02 3.576029e+01 7.139818e+01 2.864393e+00 3.049235e+00 2.950589e+00 2.442850e+00 2.488132e+00 2.882445e+00 3.574063e+00 2.837703e+00 2.254665e+00 3.083899e+00 2.848865e+00 1.410452e+00 1.706605e+00 2.059384e-01 2.861855e-01 3.165202e-01 2.798763e-01 2.958655e-01 3.292713e-01 4.082396e-01 3.875320e-01 3.475762e-01 4.161765e-01 3.917231e-01 2.236369e-01 2.362328e-01
<GCONST> 1.313330e+02
<TRANSP> 7
 0.000000e+00 1.000000e+00 0.000000e+00 0.000000e+00 0.000000e+00 0.000000e+00 0.000000e+00
 0.000000e+00 6.000000e-01 4.000000e-01 0.000000e+00 0.000000e+00 0.000000e+00 0.000000e+00
 0.000000e+00 0.000000e+00 6.000000e-01 4.000000e-01 0.000000e+00 0.000000e+00 0.000000e+00
 0.000000e+00 0.000000e+00 0.000000e+00 6.000000e-01 4.000000e-01 0.000000e+00 0.000000e+00
 0.000000e+00 0.000000e+00 0.000000e+00 0.000000e+00 6.000000e-01 4.000000e-01 0.000000e+00
 0.000000e+00 0.000000e+00 0.000000e+00 0.000000e+00 0.000000e+00 6.000000e-01 4.000000e-01
 0.000000e+00 0.000000e+00 0.000000e+00 0.000000e+00 0.000000e+00 0.000000e+00 0.000000e+00
<ENDHMM>
