~o
<STREAMINFO> 1 39
<VECSIZE> 39<NULLD><MFCC_D_A><DIAGC>
~h "a"
<BEGINHMM>
<NUMSTATES> 7
<STATE> 2
<NUMMIXES> 2
<MIXTURE> 1 6.175944e-01
<MEAN> 39
 1.142972e+01 -4.991127e+00 -3.164030e+00 5.508175e+00 2.380790e+00 -3.618749e+00 -6.947591e+00 1.440786e+01 -1.328688e+00 -1.111513e+01 5.540588e+00 1.160067e+00 1.070854e-01 2.408025e+00 -4.119506e-01 -1.671148e+00 4.680047e-01 6.076075e-01 -2.373363e+00 -1.616527e+00 1.259139e+00 -3.921662e-01 -1.839455e+00 8.616287e-01 3.508873e-01 -9.005439e-01 -2.710825e-01 -2.937747e-01 -1.226261e-01 -1.831239e-01 9.692140e-02 9.275555e-02 -4.534078e-02 2.098598e-01 -1.149445e-01 -1.292362e-01 2.149830e-01 1.905077e-02 -1.868916e-02
<VARIANCE> 39
 1.636938e+02 3.499926e+01 5.907639e+01 6.577111e+01 8.191787e+01 1.202438e+02 8.085963e+01 1.291473e+02 8.325224e+01 5.043295e+01 6.206134e+01 2.515559e+01 2.560088e+01 3.532129e+00 2.383102e+00 5.126152e+00 3.649082e+00 3.949636e+00 5.531866e+00 4.568296e+00 3.508477e+00 3.000010e+00 4.303790e+00 3.032962e+00 1.647867e+00 1.924622e+00 4.114999e-01 4.143187e-01 5.367324e-01 6.148523e-01 4.331881e-01 6.071107e-01 4.317320e-01 5.553752e-01 4.424335e-01 5.014839e-01 5.198846e-01 2.382713e-01 2.529504e-01
<GCONST> 1.311122e+02
<MIXTURE> 2 3.824050e-01
<MEAN> 39
 2.132723e+01 -1.103337e+01 -6.876680e+00 8.377101e+00 1.296852e+01 -2.537268e+00 -1.710217e+01 1.356687e+01 -1.059919e+01 -2.231874e+01 1.375637e+01 2.981815e+00 -3.139967e+00 1.376251e+00 -5.045833e-01 -2.441487e+00 -1.159131e-01 1.299307e+00 -2.594379e+00 -2.065599e+00 2.020917e+00 -8.090727e-01 -2.189357e+00 2.006201e+00 5.934125e-01 -7.670252e-01 -7.036164e-01 3.825246e-02 6.278362e-01 -3.341538e-01 -3.757031e-01 6.452140e-01 4.708288e-01 -2.892821e-01 3.383760e-01 7.370224e-01 -3.399226e-01 -1.145138e-01 3.957647e-01
<VARIANCE> 39
 7.723901e+00 1.570912e+01 3.614970e+01 3.244460e+01 3.858906e+01 4.663303e+01 3.474508e+01 5.179100e+01 4.427552e+01 2.608995e+01 5.615002e+01 1.550508e+01 2.158461e+01 1.007109e+00 1.773978e+00 2.263208e+00 1.507962e+00 1.120935e+00 1.882731e+00 2.306274e+00 1.752754e+00 1.245732e+00 1.955435e+00 1.919179e+00 9.394108e-01 1.015274e+00 1.686305e-01 2.152943e-01 3.594149e-01 3.289547e-01 1.934908e-01 2.021162e-01 2.602535e-01 3.578211e-01 1.830164e-01 2.807906e-01 3.413449e-01 1.584981e-01 1.413492e-01
<GCONST> 1.019652e+02
<STATE> 3
<NUMMIXES> 2
<MIXTURE> 1 6.642524e-01
<MEAN> 39
 2.190106e+01 -9.201284e+00 -1.074328e+01 4.765485e+00 7.799264e+00 -1.117851e+01 -1.521093e+01 2.087187e+01 -3.729716e+00 -2.009938e+01 1.175692e+01 3.936408e+00 -1.894605e+00 -2.321774e-02 -1.860873e-02 -8.008382e-02 -9.108760e-02 9.749763e-02 -6.992649e-02 -1.688937e-01 -1.468970e-01 -4.984999e-02 -2.342791e-02 -5.708561e-02 3.961930e-02 1.112483e-01 -1.153028e-02 9.935121e-02 1.190786e-01 6.340565e-02 3.185022e-02 1.308904e-01 2.696370e-02 -4.213269e-02 -4.480333e-02 1.571862e-03 -2.296148e-02 -8.636072e-02 -4.864221e-02
<VARIANCE> 39
 8.196786e+00 1.672941e+01 3.217355e+01 1.541041e+01 4.966693e+01 4.231185e+01 6.850401e+01 6.712598e+01 7.834683e+01 4.071556e+01 8.025732e+01 1.416084e+01 1.736920e+01 5.313517e-01 5.332052e-01 6.959231e-01 6.457586e-01 7.750479e-01 1.035915e+00 1.458192e+00 1.793515e+00 1.018168e+00 1.095995e+00 1.889395e+00 6.346425e-01 5.330433e-01 7.980581e-02 5.972255e-02 9.028208e-02 8.118744e-02 7.826559e-02 9.027665e-02 1.554884e-01 2.088474e-01 7.600612e-02 1.370154e-01 1.817666e-01 8.772887e-02 6.298032e-02
<GCONST> 8.507928e+01
<MIXTURE> 2 3.357475e-01
<MEAN> 39
 2.049024e+01 -9.141729e+00 -5.936011e+00 6.164172e+00 1.062121e+01 -5.783959e+00 -1.679460e+01 1.984778e+01 -8.008087e+00 -2.044312e+01 1.839424e+01 2.345927e+00 -3.670621e+00 2.728194e-01 -2.696595e-01 -4.431935e-01 -3.208046e-01 2.340829e-01 -4.653637e-01 -6.376156e-01 5.682658e-01 -1.258859e-01 -4.367277e-01 5.178834e-01 2.502166e-03 -6.429484e-02 -1.597406e-01 1.026040e-01 1.153318e-01 4.817637e-02 -9.466370e-02 1.774267e-01 2.723091e-01 -2.973324e-01 1.122799e-01 2.625215e-01 -3.215349e-01 1.418823e-02 1.157793e-01
<VARIANCE> 39
 1.637605e+01 2.425847e+01 4.320374e+01 4.152001e+01 7.570343e+01 4.489710e+01 1.213416e+02 7.799272e+01 5.940900e+01 6.936967e+01 8.125121e+01 2.191157e+01 2.955006e+01 5.813560e-01 7.269397e-01 1.161782e+00 1.225771e+00 1.168441e+00 1.428976e+00 2.416835e+00 2.361565e+00 1.393481e+00 1.957442e+00 2.316744e+00 1.106311e+00 9.604924e-01 1.517484e-01 1.415944e-01 1.992300e-01 2.107764e-01 2.061316e-01 2.799834e-01 4.216725e-01 5.120336e-01 2.391702e-01 4.225289e-01 4.585049e-01 2.020482e-01 1.674791e-01
<GCONST> 1.074321e+02
<STATE> 4
<NUMMIXES> 2
<MIXTURE> 1 6.540944e-02
<MEAN> 39
 6.512275e+00 -6.680554e+00 -3.643653e-01 1.607303e+01 1.256519e+01 3.814884e-01 -8.762807e+00 7.704305e+00 -7.307082e+00 -1.537608e+01 2.346177e+00 -1.001609e+00 -2.903305e+00 2.068225e-01 1.926529e-01 -7.100393e-01 2.246796e-01 4.848191e-01 -9.912795e-01 -4.226641e-01 6.038783e-01 -2.732930e-01 -5.339308e-01 2.763227e-01 6.052335e-02 -4.476759e-01 -1.562421e-01 3.878085e-02 3.501784e-01 -2.524814e-01 -2.260219e-01 3.331237e-01 4.247303e-02 -1.790213e-01 3.348435e-01 4.226464e-01 -6.156240e-02 -1.278776e-02 1.255170e-01
<VARIANCE> 39
 1.738443e+02 7.674627e+01 1.755297e+02 4.783304e+02 1.918122e+02 1.066975e+02 9.427077e+01 9.071077e+01 7.153865e+01 5.995248e+01 7.222430e+01 4.956040e+01 5.450938e+01 3.529303e+00 2.294472e+00 3.842888e+00 4.184525e+00 2.548125e+00 3.807136e+00 2.547329e+00 3.078090e+00 2.803282e+00 3.785149e+00 2.848454e+00 1.460412e+00 1.587376e+00 4.758794e-01 4.166473e-01 4.873478e-01 6.640621e-01 4.556313e-01 4.904363e-01 5.084581e-01 8.196948e-01 5.474789e-01 7.204974e-01 7.598373e-01 2.685824e-01 3.209135e-01
<GCONST> 1.367137e+02
<MIXTURE> 2 9.345905e-01
<MEAN> 39
 2.299351e+01 -9.575055e+00 -1.079249e+01 5.177026e+00 1.181477e+01 -9.505106e+00 -1.928861e+01 2.086606e+01 -7.220086e+00 -2.321653e+01 1.482716e+01 2.919995e+00 -2.916679e+00 -1.416658e-01 6.986373e-01 2.052771e-01 3.265082e-01 1.873231e-01 4.758413e-01 3.681338e-01 -8.854107e-01 9.246682e-02 3.295048e-01 -9.443437e-01 -1.380654e-01 -4.193834e-02 -3.181943e-01 3.451112e-01 2.525858e-01 1.525570e-01 -9.306599e-02 3.677049e-01 5.418067e-01 -5.678077e-01 2.113626e-01 4.891016e-01 -6.235160e-01 -4.436766e-02 8.459749e-02
<VARIANCE> 39
 6.623970e+00 1.710454e+01 3.199152e+01 2.119322e+01 5.794449e+01 5.382647e+01 5.614330e+01 6.055327e+01 8.915195e+01 3.098442e+01 1.000767e+02 1.710290e+01 2.746063e+01 5.039649e-01 4.571756e-01 8.202497e-01 8.397524e-01 9.505417e-01 1.283039e+00 1.657615e+00 2.118122e+00 1.221798e+00 1.360276e+00 2.176127e+00 8.086996e-01 7.760352e-01 7.334550e-02 6.183237e-02 1.627664e-01 1.146444e-01 1.196958e-01 1.468780e-01 1.799326e-01 2.180043e-01 1.289331e-01 1.531008e-01 2.063264e-01 1.398057e-01 9.980807e-02
<GCONST> 9.178618e+01
<STATE> 5
<NUMMIXES> 2
<MIXTURE> 1 4.489165e-01
<MEAN> 39
 2.078829e+01 -9.032043e+00 -1.165484e+01 6.636290e+00 1.676322e+01 -2.976182e+00 -1.891989e+01 9.164903e+00 -1.017665e+01 -1.835842e+01 1.421909e+01 4.846957e+00 -1.105070e+00 -3.973783e-01 1.007883e+00 1.551142e-01 3.638855e-01 2.863267e-01 1.121125e+00 1.063813e+00 -1.402343e+00 2.865323e-01 8.986158e-01 -1.370803e+00 -3.969301e-02 1.500324e-01 -1.496557e-01 2.078000e-01 2.730137e-01 1.302888e-01 -1.407342e-02 1.787684e-01 1.633077e-01 1.363519e-01 1.155399e-01 5.744107e-02 -1.452682e-01 -1.469730e-01 8.060679e-03
<VARIANCE> 39
 1.010717e+01 1.263185e+01 3.753081e+01 5.059623e+01 2.698004e+01 2.269733e+01 4.416599e+01 3.383101e+01 3.584315e+01 3.201860e+01 7.542764e+01 1.954572e+01 3.381136e+01 6.604533e-01 5.854699e-01 1.174549e+00 1.110876e+00 1.003338e+00 1.332525e+00 1.911816e+00 2.275538e+00 1.134901e+00 1.554765e+00 2.744851e+00 8.710689e-01 8.856308e-01 1.568394e-01 9.089641e-02 1.985637e-01 1.370609e-01 1.293592e-01 1.311427e-01 2.587112e-01 2.515785e-01 1.623978e-01 2.472269e-01 2.294428e-01 1.179813e-01 1.442156e-01
<GCONST> 9.463512e+01
<MIXTURE> 2 5.510834e-01
<MEAN> 39
 2.115082e+01 -6.098283e+00 -7.636847e+00 7.346402e+00 9.497908e+00 -9.777216e+00 -1.554903e+01 2.079160e+01 -4.920339e+00 -2.188471e+01 1.018117e+01 1.258740e+00 -4.863232e+00 -9.880852e-01 1.566039e+00 1.244977e+00 9.515993e-01 1.082110e-02 1.346952e+00 1.682502e+00 -1.598128e+00 6.632725e-01 1.482137e+00 -2.107906e+00 -5.361892e-01 5.044656e-02 -4.238045e-01 3.476336e-01 4.287819e-01 1.950143e-01 5.667746e-02 5.504607e-01 5.010110e-01 -4.824827e-01 2.325570e-01 5.882990e-01 -4.904654e-01 -1.120684e-01 2.102532e-01
<VARIANCE> 39
 2.337509e+01 2.339467e+01 4.156415e+01 3.404053e+01 7.653263e+01 8.923955e+01 6.111203e+01 6.412342e+01 1.243610e+02 4.473697e+01 1.452521e+02 2.083222e+01 2.855306e+01 7.497281e-01 8.989829e-01 1.424714e+00 1.134209e+00 1.399801e+00 1.858973e+00 2.494309e+00 2.840465e+00 1.420218e+00 1.839431e+00 2.576610e+00 1.209372e+00 1.039139e+00 1.086261e-01 1.398218e-01 2.022893e-01 1.845428e-01 2.671483e-01 2.947217e-01 3.264758e-01 3.185691e-01 2.982903e-01 2.836667e-01 4.082626e-01 2.431796e-01 2.200857e-01
<GCONST> 1.088911e+02
<STATE> 6
<NUMMIXES> 2
<MIXTURE> 1 7.664646e-01
<MEAN> 39
 1.485767e+01 7.536465e-01 -3.544580e+00 9.848006e+00 1.117004e+01 -6.793578e-01 -7.561514e+00 1.079092e+01 -4.503321e+00 -1.483857e+01 2.046185e+00 1.707719e+00 -3.767529e-01 -1.984774e+00 2.306003e+00 2.174575e+00 8.918160e-01 1.004108e-01 2.052505e+00 1.873345e+00 -1.591976e+00 8.394181e-01 1.741866e+00 -2.295788e+00 -4.017441e-01 8.592017e-01 -1.017111e-01 -1.385132e-01 1.666719e-01 -2.768730e-02 1.384675e-03 -3.978181e-02 -2.042626e-01 1.428550e-01 -2.187193e-01 -1.833015e-01 3.499378e-01 -3.297561e-02 -5.772047e-02
<VARIANCE> 39
 4.269664e+01 4.093486e+01 4.500347e+01 3.410942e+01 5.692697e+01 8.994093e+01 4.675320e+01 9.119946e+01 9.134982e+01 4.193563e+01 8.045724e+01 2.677808e+01 3.627966e+01 1.088185e+00 1.943768e+00 1.817707e+00 2.007855e+00 2.057783e+00 2.140683e+00 2.640121e+00 2.892766e+00 2.132687e+00 2.608202e+00 2.844527e+00 1.873241e+00 1.914386e+00 1.240824e-01 2.729309e-01 2.623512e-01 2.179635e-01 2.660631e-01 3.103794e-01 3.465324e-01 3.657317e-01 3.460877e-01 3.443908e-01 3.413239e-01 2.125603e-01 2.273235e-01
<GCONST> 1.154556e+02
<MIXTURE> 2 2.335356e-01
<MEAN> 39
 1.479326e+01 -2.574601e+00 -1.823228e+00 1.262949e+01 1.305211e+01 -4.971572e+00 -1.544967e+01 1.169099e+01 -3.242183e+00 -1.483187e+01 6.592740e+00 -6.213678e-02 -5.383507e+00 3.062282e-03 3.203214e-01 5.798656e-02 5.316316e-02 1.916417e-01 4.041256e-01 7.125141e-02 -3.059255e-01 -8.609965e-03 1.900246e-01 -1.163977e-01 -1.761556e-01 -1.011061e-01 1.095868e-02 1.406620e-02 8.017921e-03 1.827849e-03 5.949320e-03 9.106897e-02 5.408821e-02 1.624053e-02 -2.885393e-02 -3.358893e-02 -1.699491e-02 -1.384210e-02 2.636265e-03
<VARIANCE> 39
 1.192720e+02 7.985000e+01 1.155080e+02 1.890073e+02 1.494585e+02 1.028791e+02 1.197397e+02 9.730437e+01 6.990073e+01 7.837593e+01 1.300553e+02 3.761284e+01 6.564822e+01 4.577957e-01 5.177411e-01 9.845976e-01 1.067096e+00 1.197729e+00 1.670499e+00 1.803469e+00 1.989462e+00 1.100672e+00 1.457353e+00 1.548559e+00 8.935534e-01 7.522575e-01 5.107463e-02 6.085468e-02 1.027931e-01 1.445333e-01 1.575723e-01 1.761732e-01 2.386919e-01 2.571039e-01 1.587444e-01 2.270173e-01 2.071881e-01 1.194827e-01 1.124001e-01
<GCONST> 1.066498e+02
<TRANSP> 7
 0.000000e+00 1.000000e+00 0.000000e+00 0.000000e+00 0.000000e+00 0.000000e+00 0.000000e+00
 0.000000e+00 7.037714e-01 2.962286e-01 0.000000e+00 0.000000e+00 0.000000e+00 0.000000e+00
 0.000000e+00 0.000000e+00 8.959572e-01 1.040428e-01 0.000000e+00 0.000000e+00 0.000000e+00
 0.000000e+00 0.000000e+00 0.000000e+00 3.594287e-01 6.405713e-01 0.000000e+00 0.000000e+00
 0.000000e+00 0.000000e+00 0.000000e+00 0.000000e+00 5.925116e-01 4.074885e-01 0.000000e+00
 0.000000e+00 0.000000e+00 0.000000e+00 0.000000e+00 0.000000e+00 6.023036e-01 3.976964e-01
 0.000000e+00 0.000000e+00 0.000000e+00 0.000000e+00 0.000000e+00 0.000000e+00 0.000000e+00
<ENDHMM>
~h "b"
<BEGINHMM>
<NUMSTATES> 5
<STATE> 2
<NUMMIXES> 2
<MIXTURE> 1 5.000000e-01
<MEAN> 39
 8.044301e+00 1.592734e+01 1.082542e+01 1.401527e+01 8.865266e+00 5.057033e+00 3.379745e+00 1.477853e+01 3.759636e+00 -7.606472e+00 -7.208632e+00 -6.066250e+00 -4.609309e+00 -1.095606e+00 9.588375e-01 1.294742e+00 1.601540e-01 1.718606e-01 1.365357e+00 9.045161e-01 -5.582415e-01 -3.032947e-01 9.107023e-01 5.204437e-01 -1.589747e-01 -1.102854e-01 8.236926e-02 -4.972815e-01 -3.537907e-01 -2.357334e-02 5.410841e-02 -2.261755e-01 -2.868856e-01 -2.420142e-02 -4.144238e-02 -1.011354e-01 1.853200e-01 1.908332e-01 8.756000e-02
<VARIANCE> 39
 2.261608e+01 1.460045e+01 1.588716e+01 1.214760e+01 1.655927e+01 4.161169e+01 1.894314e+01 3.727210e+01 2.495088e+01 2.523339e+01 1.811981e+01 1.902170e+01 2.679644e+01 1.134600e+00 2.067131e+00 1.988588e+00 8.822248e-01 1.170453e+00 2.874568e+00 1.627620e+00 2.178361e+00 1.363968e+00 1.767411e+00 1.445865e+00 1.279249e+00 1.331777e+00 7.012656e-02 1.762219e-01 1.662158e-01 1.361886e-01 1.553136e-01 2.518969e-01 2.232732e-01 3.112976e-01 2.482830e-01 2.542110e-01 2.263852e-01 1.860924e-01 2.046328e-01
<GCONST> 9.548006e+01
<MIXTURE> 2 5.000000e-01
<MEAN> 39
 8.044301e+00 1.592734e+01 1.082542e+01 1.401527e+01 8.865266e+00 5.057033e+00 3.379745e+00 1.477853e+01 3.759636e+00 -7.606472e+00 -7.208632e+00 -6.066250e+00 -4.609309e+00 -1.095606e+00 9.588375e-01 1.294742e+00 1.601540e-01 1.718606e-01 1.365357e+00 9.045161e-01 -5.582415e-01 -3.032947e-01 9.107023e-01 5.204437e-01 -1.589747e-01 -1.102854e-01 8.236926e-02 -4.972815e-01 -3.537907e-01 -2.357334e-02 5.410841e-02 -2.261755e-01 -2.868856e-01 -2.420142e-02 -4.144238e-02 -1.011354e-01 1.853200e-01 1.908332e-01 8.756000e-02
<VARIANCE> 39
 2.261608e+01 1.460045e+01 1.588716e+01 1.214760e+01 1.655927e+01 4.161169e+01 1.894314e+01 3.727210e+01 2.495088e+01 2.523339e+01 1.811981e+01 1.902170e+01 2.679644e+01 1.134600e+00 2.067131e+00 1.988588e+00 8.822248e-01 1.170453e+00 2.874568e+00 1.627620e+00 2.178361e+00 1.363968e+00 1.767411e+00 1.445865e+00 1.279249e+00 1.331777e+00 7.012656e-02 1.762219e-01 1.662158e-01 1.361886e-01 1.553136e-01 2.518969e-01 2.232732e-01 3.112976e-01 2.482830e-01 2.542110e-01 2.263852e-01 1.860924e-01 2.046328e-01
<GCONST> 9.548006e+01
<STATE> 3
<NUMMIXES> 2
<MIXTURE> 1 5.000000e-01
<MEAN> 39
 2.529691e+00 1.831856e+01 1.565652e+01 1.614154e+01 1.319898e+01 1.289894e+01 5.628550e+00 9.848084e+00 2.057230e+00 -2.197639e+00 -3.034693e+00 -5.223592e+00 -4.174800e+00 -1.955724e-01 -4.770573e-01 -3.174146e-01 1.649988e-01 3.225003e-01 -1.294386e-02 -1.968249e-01 2.094642e-01 3.810247e-01 1.273149e-01 -6.172135e-03 1.307425e-01 3.922014e-01 1.341390e-01 -3.290781e-01 -3.193604e-01 -5.658436e-02 -3.104167e-02 -2.463059e-01 -2.229662e-01 1.258831e-01 8.106919e-02 -1.823490e-01 -4.870110e-02 6.232022e-02 9.947446e-02
<VARIANCE> 39
 2.097364e+01 1.134720e+01 1.122756e+01 8.768459e+00 7.842501e+00 1.220693e+01 9.646070e+00 9.924115e+00 1.315233e+01 1.567621e+01 1.472502e+01 1.279802e+01 1.377995e+01 9.157652e-01 1.641841e+00 1.446881e+00 7.320408e-01 6.372247e-01 1.040297e+00 1.057456e+00 8.518361e-01 8.930848e-01 9.481766e-01 9.493265e-01 8.219265e-01 1.177387e+00 7.367999e-02 1.444584e-01 1.899219e-01 1.507014e-01 1.300827e-01 1.717428e-01 1.500084e-01 1.240820e-01 1.299522e-01 1.442434e-01 1.675151e-01 1.301637e-01 1.367352e-01
<GCONST> 7.807763e+01
<MIXTURE> 2 5.000000e-01
<MEAN> 39
 2.529691e+00 1.831856e+01 1.565652e+01 1.614154e+01 1.319898e+01 1.289894e+01 5.628550e+00 9.848084e+00 2.057230e+00 -2.197639e+00 -3.034693e+00 -5.223592e+00 -4.174800e+00 -1.955724e-01 -4.770573e-01 -3.174146e-01 1.649988e-01 3.225003e-01 -1.294386e-02 -1.968249e-01 2.094642e-01 3.810247e-01 1.273149e-01 -6.172135e-03 1.307425e-01 3.922014e-01 1.341390e-01 -3.290781e-01 -3.193604e-01 -5.658436e-02 -3.104167e-02 -2.463059e-01 -2.229662e-01 1.258831e-01 8.106919e-02 -1.823490e-01 -4.870110e-02 6.232022e-02 9.947446e-02
<VARIANCE> 39
 2.097364e+01 1.134720e+01 1.122756e+01 8.768459e+00 7.842501e+00 1.220693e+01 9.646070e+00 9.924115e+00 1.315233e+01 1.567621e+01 1.472502e+01 1.279802e+01 1.377995e+01 9.157652e-01 1.641841e+00 1.446881e+00 7.320408e-01 6.372247e-01 1.040297e+00 1.057456e+00 8.518361e-01 8.930848e-01 9.481766e-01 9.493265e-01 8.219265e-01 1.177387e+00 7.367999e-02 1.444584e-01 1.899219e-01 1.507014e-01 1.300827e-01 1.717428e-01 1.500084e-01 1.240820e-01 1.299522e-01 1.442434e-01 1.675151e-01 1.301637e-01 1.367352e-01
<GCONST> 7.807763e+01
<STATE> 4
<NUMMIXES> 2
<MIXTURE> 1 5.000000e-01
<MEAN> 39
 4.335316e+00 7.024958e+00 5.849927e+00 1.522188e+01 1.327228e+01 6.219903e+00 -1.020218e+00 1.386285e+01 6.145849e+00 -5.394166e+00 -3.789873e+00 -3.077174e+00 7.308605e-01 1.495759e+00 -2.920683e+00 -2.815660e+00 -1.419600e+00 -1.302234e+00 -2.624938e+00 -2.229504e+00 6.158082e-01 -3.357802e-02 -1.501038e+00 7.285349e-01 8.575995e-01 4.556338e-01 5.386456e-01 1.454361e-02 -8.759573e-02 -4.041237e-01 -6.476931e-01 -6.621116e-01 -2.301242e-01 6.889255e-02 -3.315857e-01 -3.673705e-01 2.009159e-01 3.195026e-02 -4.083415e-01
<VARIANCE> 39
 6.978041e+01 3.567051e+01 2.396871e+01 2.604021e+01 2.797418e+01 6.368680e+01 4.297206e+01 2.781549e+01 3.384553e+01 2.683957e+01 3.175082e+01 2.467995e+01 1.970100e+01 3.097979e+00 2.169185e+00 1.582856e+00 2.179497e+00 3.314915e+00 6.694772e+00 3.129033e+00 2.549390e+00 2.407119e+00 2.332407e+00 1.981589e+00 1.365944e+00 1.303409e+00 1.118934e-01 2.618349e-01 2.427987e-01 3.863997e-01 4.241703e-01 4.469441e-01 3.215341e-01 4.121462e-01 3.483100e-01 3.838985e-01 3.558218e-01 2.301121e-01 2.204810e-01
<GCONST> 1.126597e+02
<MIXTURE> 2 5.000000e-01
<MEAN> 39
 4.335316e+00 7.024958e+00 5.849927e+00 1.522188e+01 1.327228e+01 6.219903e+00 -1.020218e+00 1.386285e+01 6.145849e+00 -5.394166e+00 -3.789873e+00 -3.077174e+00 7.308605e-01 1.495759e+00 -2.920683e+00 -2.815660e+00 -1.419600e+00 -1.302234e+00 -2.624938e+00 -2.229504e+00 6.158082e-01 -3.357802e-02 -1.501038e+00 7.285349e-01 8.575995e-01 4.556338e-01 5.386456e-01 1.454361e-02 -8.759573e-02 -4.041237e-01 -6.476931e-01 -6.621116e-01 -2.301242e-01 6.889255e-02 -3.315857e-01 -3.673705e-01 2.009159e-01 3.195026e-02 -4.083415e-01
<VARIANCE> 39
 6.978041e+01 3.567051e+01 2.396871e+01 2.604021e+01 2.797418e+01 6.368680e+01 4.297206e+01 2.781549e+01 3.384553e+01 2.683957e+01 3.175082e+01 2.467995e+01 1.970100e+01 3.097979e+00 2.169185e+00 1.582856e+00 2.179497e+00 3.314915e+00 6.694772e+00 3.129033e+00 2.549390e+00 2.407119e+00 2.332407e+00 1.981589e+00 1.365944e+00 1.303409e+00 1.118934e-01 2.618349e-01 2.427987e-01 3.863997e-01 4.241703e-01 4.469441e-01 3.215341e-01 4.121462e-01 3.483100e-01 3.838985e-01 3.558218e-01 2.301121e-01 2.204810e-01
<GCONST> 1.126597e+02
<TRANSP> 5
 0.000000e+00 1.000000e+00 0.000000e+00 0.000000e+00 0.000000e+00
 0.000000e+00 7.801282e-01 2.198717e-01 0.000000e+00 0.000000e+00
 0.000000e+00 0.000000e+00 8.650689e-01 1.349311e-01 0.000000e+00
 0.000000e+00 0.000000e+00 0.000000e+00 7.085037e-01 2.914963e-01
 0.000000e+00 0.000000e+00 0.000000e+00 0.000000e+00 0.000000e+00
<ENDHMM>
~h "c"
<BEGINHMM>
<NUMSTATES> 5
<STATE> 2
<NUMMIXES> 2
<MIXTURE> 1 6.320623e-01
<MEAN> 39
 -1.472576e+01 -7.185791e+00 5.520134e+00 9.953077e+00 3.320396e+00 8.464520e+00 3.084780e-01 5.513147e+00 -2.259436e-01 -4.487995e+00 -1.154762e+00 5.716510e-01 4.611691e+00 -1.624404e+00 -3.089653e+00 1.299213e-01 -7.210824e-01 -1.842330e+00 -3.148277e-01 -5.491161e-01 -1.648839e-01 3.471000e-01 -6.674302e-02 2.994370e-01 1.167697e-01 -1.964429e-01 2.616886e-01 -2.876314e-01 1.517466e-01 -1.205458e-01 -2.046338e-01 -1.308178e-01 -2.092227e-01 6.052921e-02 -5.289395e-02 -1.806569e-01 1.739639e-01 2.102422e-02 -2.266370e-01
<VARIANCE> 39
 7.788018e+01 2.117829e+02 9.407261e+01 6.547386e+01 5.418119e+01 5.345438e+01 4.363816e+01 3.398949e+01 3.373160e+01 3.423923e+01 2.496357e+01 2.097574e+01 2.187665e+01 3.784922e+00 9.843781e+00 5.619125e+00 4.510703e+00 3.477179e+00 3.654252e+00 3.061946e+00 2.891544e+00 2.725416e+00 3.036347e+00 2.560148e+00 2.037260e+00 2.608572e+00 2.328353e-01 9.348471e-01 6.844559e-01 5.410381e-01 4.421321e-01 5.657918e-01 4.499338e-01 4.617411e-01 4.706156e-01 4.224147e-01 4.050197e-01 3.501760e-01 4.088212e-01
<GCONST> 1.281436e+02
<MIXTURE> 2 3.679376e-01
<MEAN> 39
 -1.625439e+01 -4.116082e+01 2.186627e+01 1.022900e+01 -1.208272e+01 7.559847e+00 -1.065473e+01 5.485324e+00 3.437555e+00 -9.849770e+00 3.469087e+00 2.648355e+00 3.380364e-01 8.584186e-02 -2.004211e+00 1.829707e+00 -1.975926e-01 -1.107599e-01 5.413347e-01 -1.253919e+00 -2.009670e-01 -2.463854e-01 1.976622e-01 8.409948e-01 -6.752237e-02 -2.170325e-01 5.129920e-02 5.523804e-01 -5.586479e-01 1.438501e-01 6.493323e-01 2.325381e-01 1.868236e-01 -1.445406e-01 -7.391786e-02 2.586185e-01 -1.303916e-01 -6.578191e-02 2.340488e-01
<VARIANCE> 39
 1.435578e+01 4.630914e+01 6.408410e+01 2.365785e+01 3.071458e+01 1.800645e+01 3.450177e+01 2.884032e+01 3.351234e+01 2.416547e+01 2.919278e+01 1.603058e+01 9.035372e+00 1.750468e+00 4.840033e+00 7.063284e+00 1.215471e+00 3.629870e+00 2.154515e+00 1.591967e+00 1.884402e+00 1.701749e+00 2.317749e+00 1.483862e+00 1.501433e+00 1.226288e+00 3.813356e-01 6.263124e-01 7.324166e-01 2.560631e-01 3.672022e-01 3.820416e-01 2.737519e-01 2.783987e-01 2.649533e-01 3.587064e-01 2.141412e-01 3.373705e-01 1.869246e-01
<GCONST> 1.092825e+02
<STATE> 3
<NUMMIXES> 2
<MIXTURE> 1 6.641027e-01
<MEAN> 39
 -1.528676e+01 -3.793867e+01 1.605748e+01 8.326281e+00 -3.772582e+00 1.213711e+01 -1.047053e+01 2.026328e+00 7.226489e-01 -5.213823e+00 3.775213e+00 2.635866e+00 3.409755e+00 1.294590e+00 5.225751e-01 9.960403e-02 8.761102e-01 8.622469e-01 9.480914e-01 4.087683e-01 -3.722890e-01 2.530698e-01 1.584301e-01 7.312154e-02 3.509645e-01 1.259723e-01 3.140596e-01 6.039460e-01 -8.183400e-02 9.427754e-02 6.265051e-02 -9.792939e-02 1.093005e-01 3.797204e-03 2.704459e-02 -5.909923e-02 -1.120024e-01 -6.405235e-02 -8.551142e-02
<VARIANCE> 39
 3.828281e+01 1.346819e+02 1.719185e+02 8.613250e+01 4.568549e+01 7.424347e+01 5.692527e+01 4.776526e+01 8.788367e+01 3.177145e+01 6.156908e+01 2.795157e+01 1.795302e+01 3.039113e+00 1.100763e+01 5.251768e+00 2.356719e+00 2.711351e+00 2.154197e+00 3.066556e+00 2.014322e+00 2.325211e+00 2.248870e+00 2.045599e+00 1.747470e+00 1.530448e+00 3.712874e-01 6.998989e-01 5.536619e-01 2.865886e-01 3.023326e-01 4.750641e-01 4.615204e-01 3.548462e-01 3.546406e-01 4.173958e-01 3.666949e-01 3.294377e-01 2.625594e-01
<GCONST> 1.248040e+02
<MIXTURE> 2 3.358967e-01
<MEAN> 39
 -2.662292e+01 -6.353426e+00 -5.158068e+00 -2.760275e+00 -3.463754e+00 7.111580e-01 -3.440099e+00 1.440005e+00 -1.411333e+00 -5.972311e-01 4.698144e-01 -8.641067e-01 5.141312e-01 1.146469e-02 -1.921306e-01 -5.602459e-02 1.572264e-01 7.912944e-02 -1.509188e-01 -1.145385e-01 2.814945e-02 -1.369933e-02 -9.885941e-02 -9.741352e-02 3.677097e-02 9.768093e-02 1.032736e-01 -1.250445e-01 1.893787e-02 1.982580e-01 1.424502e-01 3.971165e-02 1.438098e-02 8.208899e-02 4.140151e-02 -7.577095e-02 -6.469785e-02 7.266384e-02 1.445430e-01
<VARIANCE> 39
 5.680399e-01 1.167743e+00 1.654927e+00 3.079655e+00 4.373974e+00 5.247831e+00 6.041159e+00 5.995874e+00 7.222534e+00 7.242602e+00 6.885332e+00 6.081967e+00 5.467189e+00 1.316617e-01 5.113604e-01 3.318645e-01 7.493658e-01 7.392588e-01 8.220473e-01 9.908658e-01 9.867535e-01 1.130102e+00 1.270674e+00 1.058764e+00 9.451819e-01 9.937586e-01 4.291651e-02 1.745797e-01 1.104960e-01 2.033580e-01 2.020878e-01 2.015557e-01 2.262920e-01 2.404906e-01 2.580934e-01 2.788221e-01 2.457052e-01 1.990013e-01 2.074050e-01
<GCONST> 6.273112e+01
<STATE> 4
<NUMMIXES> 2
<MIXTURE> 1 9.962005e-01
<MEAN> 39
 6.428927e+00 -1.902800e+01 1.224221e+01 1.644011e+01 5.074056e+00 1.287844e+01 -8.795280e+00 1.127023e+00 1.539605e+00 -9.117595e+00 2.438900e+00 3.745622e+00 1.580925e+00 4.168376e+00 3.737301e+00 -3.712069e+00 5.742797e-01 2.043889e+00 -3.197265e+00 -1.396761e+00 9.103993e-01 -9.449027e-01 -2.100669e+00 -4.350449e-01 -1.490289e-01 -4.968466e-01 -4.203889e-01 -8.859725e-01 -5.617903e-01 -3.779399e-01 1.224187e-02 -8.441458e-01 -5.891992e-01 5.804513e-01 -2.942067e-01 -3.871405e-01 3.815555e-01 8.324767e-04 -8.774979e-02
<VARIANCE> 39
 1.090159e+02 6.932486e+01 8.682903e+01 3.576616e+01 4.040331e+01 7.566786e+01 4.196111e+01 3.410909e+01 3.071106e+01 4.139415e+01 3.461629e+01 1.696649e+01 1.436746e+01 4.296307e+00 6.061154e+00 7.016178e+00 2.048682e+00 1.908542e+00 4.985286e+00 3.205107e+00 4.251291e+00 1.883241e+00 3.262545e+00 2.352461e+00 1.159248e+00 1.484513e+00 5.019341e-01 3.686356e-01 7.691957e-01 1.515153e-01 2.156415e-01 7.033058e-01 6.600776e-01 3.569677e-01 3.057623e-01 4.910815e-01 2.867142e-01 1.875077e-01 1.468871e-01
<GCONST> 1.202263e+02
<MIXTURE> 2 3.799517e-03
<MEAN> 39
 -1.209897e+01 -4.169722e+01 1.154459e+01 4.205655e+00 -1.738037e+01 4.752167e+00 -1.617877e+01 -8.469489e+00 3.080506e+00 -7.874886e+00 7.277630e-01 4.369623e+00 1.268425e+00 1.461388e+00 1.779153e+00 -3.060936e+00 -1.933902e+00 -2.377350e+00 -2.659541e+00 3.404091e-01 -2.701687e+00 -1.109947e+00 -9.490104e-01 -8.266192e-01 1.372049e+00 -3.049830e-01 5.870696e-01 -2.836612e-01 2.036864e-01 -7.915635e-02 -5.369119e-03 2.452288e-01 -5.254538e-02 8.627701e-01 -1.986892e-02 -3.312968e-01 1.903526e-01 -6.472344e-01 -3.660180e-01
<VARIANCE> 39
 7.727998e+00 4.205399e+00 1.837072e-01 8.433472e+00 9.174490e+00 4.719291e-01 7.200521e+00 2.866564e-01 1.106849e+00 6.630652e-01 1.040959e-02 1.804324e+00 1.466974e+00 5.931337e-01 5.151355e-02 4.636735e-01 4.557953e-02 2.783624e-01 1.441653e-03 2.755065e-01 5.821671e-01 3.155592e-02 1.266232e-03 3.123829e-04 2.346994e-01 1.559483e-01 7.716620e-04 2.382507e-03 6.601118e-04 9.015241e-03 5.908640e-02 8.105268e-02 3.000028e-02 5.936959e-02 5.326727e-03 8.817400e-03 2.682656e-02 1.280898e-03 5.191004e-02
<GCONST> -2.473061e+01
<TRANSP> 5
 0.000000e+00 1.000000e+00 0.000000e+00 0.000000e+00 0.000000e+00
 0.000000e+00 9.215760e-01 7.842401e-02 0.000000e+00 0.000000e+00
 0.000000e+00 0.000000e+00 9.276016e-01 7.239838e-02 0.000000e+00
 0.000000e+00 0.000000e+00 0.000000e+00 7.092829e-01 2.907170e-01
 0.000000e+00 0.000000e+00 0.000000e+00 0.000000e+00 0.000000e+00
<ENDHMM>
~h "d"
<BEGINHMM>
<NUMSTATES> 5
<STATE> 2
<NUMMIXES> 2
<MIXTURE> 1 5.000000e-01
<MEAN> 39
 5.930402e+00 9.714928e+00 7.986503e+00 1.565138e+01 1.070459e+01 5.020985e+00 1.965742e+00 1.283191e+01 -5.166998e-01 -1.035051e+01 -5.597705e+00 -3.337193e+00 5.931492e-01 -1.102141e+00 2.283929e+00 1.878558e+00 2.954403e-01 5.425030e-01 2.077512e+00 1.319953e+00 -6.768634e-01 4.242948e-01 1.051050e+00 -7.939707e-01 -1.036459e-01 3.868947e-01 1.585804e-01 -4.614509e-01 -1.655740e-01 -5.791093e-02 -3.132407e-02 -2.154900e-01 -2.788469e-01 3.205590e-02 -2.368117e-01 -1.707933e-01 4.032320e-01 -6.081771e-03 -2.315578e-01
<VARIANCE> 39
 8.820631e+01 4.946443e+01 3.440677e+01 2.982416e+01 8.149985e+01 8.392760e+01 2.150871e+01 6.426395e+01 3.803313e+01 5.628385e+01 3.667200e+01 1.957023e+01 2.167755e+01 1.943425e+00 2.967469e+00 1.559825e+00 1.389877e+00 2.210473e+00 2.822260e+00 1.744129e+00 2.687768e+00 2.394650e+00 2.059355e+00 2.334080e+00 1.080932e+00 1.444402e+00 7.311101e-02 3.490081e-01 2.210057e-01 2.094263e-01 2.873293e-01 2.688585e-01 2.640252e-01 2.785945e-01 3.979745e-01 3.465435e-01 3.066969e-01 1.623276e-01 2.269434e-01
<GCONST> 1.107893e+02
<MIXTURE> 2 5.000000e-01
<MEAN> 39
 5.930402e+00 9.714928e+00 7.986503e+00 1.565138e+01 1.070459e+01 5.020985e+00 1.965742e+00 1.283191e+01 -5.166998e-01 -1.035051e+01 -5.597705e+00 -3.337193e+00 5.931492e-01 -1.102141e+00 2.283929e+00 1.878558e+00 2.954403e-01 5.425030e-01 2.077512e+00 1.319953e+00 -6.768634e-01 4.242948e-01 1.051050e+00 -7.939707e-01 -1.036459e-01 3.868947e-01 1.585804e-01 -4.614509e-01 -1.655740e-01 -5.791093e-02 -3.132407e-02 -2.154900e-01 -2.788469e-01 3.205590e-02 -2.368117e-01 -1.707933e-01 4.032320e-01 -6.081771e-03 -2.315578e-01
<VARIANCE> 39
 8.820631e+01 4.946443e+01 3.440677e+01 2.982416e+01 8.149985e+01 8.392760e+01 2.150871e+01 6.426395e+01 3.803313e+01 5.628385e+01 3.667200e+01 1.957023e+01 2.167755e+01 1.943425e+00 2.967469e+00 1.559825e+00 1.389877e+00 2.210473e+00 2.822260e+00 1.744129e+00 2.687768e+00 2.394650e+00 2.059355e+00 2.334080e+00 1.080932e+00 1.444402e+00 7.311101e-02 3.490081e-01 2.210057e-01 2.094263e-01 2.873293e-01 2.688585e-01 2.640252e-01 2.785945e-01 3.979745e-01 3.465435e-01 3.066969e-01 1.623276e-01 2.269434e-01
<GCONST> 1.107893e+02
<STATE> 3
<NUMMIXES> 2
<MIXTURE> 1 5.000000e-01
<MEAN> 39
 1.095168e+00 1.744586e+01 1.595654e+01 1.739127e+01 1.458373e+01 1.419282e+01 6.279090e+00 9.332157e+00 2.857967e-01 -3.640883e+00 -2.438804e+00 -3.315878e+00 -2.137466e+00 -3.797621e-01 -4.204721e-01 -3.100991e-02 1.877044e-01 1.823705e-01 2.910400e-01 1.808654e-01 1.385645e-01 4.168938e-01 4.968332e-01 1.345386e-01 3.875631e-02 2.730722e-01 9.826667e-02 -4.897315e-01 -3.440898e-01 -4.867949e-04 1.299605e-02 -1.732067e-01 -1.984457e-01 8.114395e-02 2.580380e-02 -7.219955e-02 8.209522e-02 1.912924e-02 9.618043e-02
<VARIANCE> 39
 1.952803e+01 1.015939e+01 1.255590e+01 1.084472e+01 9.037454e+00 1.363600e+01 1.012385e+01 1.083755e+01 1.711691e+01 2.685539e+01 1.508232e+01 1.041244e+01 1.177034e+01 6.466613e-01 2.325828e+00 1.639351e+00 9.503054e-01 8.956064e-01 9.488791e-01 9.162884e-01 1.025655e+00 9.550827e-01 1.400003e+00 9.395543e-01 9.067520e-01 1.310999e+00 6.781071e-02 2.266776e-01 2.119891e-01 1.757534e-01 1.737897e-01 1.415484e-01 1.659059e-01 1.431742e-01 1.546013e-01 1.809838e-01 2.031867e-01 1.404780e-01 1.583449e-01
<GCONST> 8.218790e+01
<MIXTURE> 2 5.000000e-01
<MEAN> 39
 1.095168e+00 1.744586e+01 1.595654e+01 1.739127e+01 1.458373e+01 1.419282e+01 6.279090e+00 9.332157e+00 2.857967e-01 -3.640883e+00 -2.438804e+00 -3.315878e+00 -2.137466e+00 -3.797621e-01 -4.204721e-01 -3.100991e-02 1.877044e-01 1.823705e-01 2.910400e-01 1.808654e-01 1.385645e-01 4.168938e-01 4.968332e-01 1.345386e-01 3.875631e-02 2.730722e-01 9.826667e-02 -4.897315e-01 -3.440898e-01 -4.867949e-04 1.299605e-02 -1.732067e-01 -1.984457e-01 8.114395e-02 2.580380e-02 -7.219955e-02 8.209522e-02 1.912924e-02 9.618043e-02
<VARIANCE> 39
 1.952803e+01 1.015939e+01 1.255590e+01 1.084472e+01 9.037454e+00 1.363600e+01 1.012385e+01 1.083755e+01 1.711691e+01 2.685539e+01 1.508232e+01 1.041244e+01 1.177034e+01 6.466613e-01 2.325828e+00 1.639351e+00 9.503054e-01 8.956064e-01 9.488791e-01 9.162884e-01 1.025655e+00 9.550827e-01 1.400003e+00 9.395543e-01 9.067520e-01 1.310999e+00 6.781071e-02 2.266776e-01 2.119891e-01 1.757534e-01 1.737897e-01 1.415484e-01 1.659059e-01 1.431742e-01 1.546013e-01 1.809838e-01 2.031867e-01 1.404780e-01 1.583449e-01
<GCONST> 8.218790e+01
<STATE> 4
<NUMMIXES> 2
<MIXTURE> 1 5.000000e-01
<MEAN> 39
 2.169630e+00 7.988255e-01 6.137967e+00 1.756725e+01 1.362847e+01 1.080124e+01 2.924586e+00 1.142561e+01 1.039178e+00 -3.675769e+00 1.454519e-01 -3.320406e+00 2.937617e+00 1.618572e+00 -3.659966e+00 -2.254808e+00 -1.087365e+00 -1.202621e+00 -1.330949e+00 -1.461213e+00 2.402515e-01 -1.310661e+00 -1.055896e+00 1.897088e+00 -2.216017e-01 -2.823720e-01 5.458190e-01 2.337791e-01 1.642942e-01 -2.037384e-01 -1.511687e-01 -3.125616e-01 -3.940797e-01 -9.567394e-02 -6.495820e-01 -7.217973e-01 2.528432e-01 3.100235e-02 -4.632090e-01
<VARIANCE> 39
 3.657877e+01 6.257573e+01 2.561625e+01 2.581867e+01 4.130280e+01 2.660249e+01 3.137790e+01 3.113404e+01 4.891829e+01 5.034795e+01 4.197660e+01 2.930237e+01 2.757468e+01 1.655649e+00 3.509994e+00 1.733031e+00 1.936558e+00 3.090160e+00 2.154600e+00 3.112653e+00 1.940987e+00 5.633508e+00 5.078529e+00 4.996358e+00 1.888600e+00 2.295972e+00 1.526835e-01 6.318628e-01 3.960277e-01 4.587261e-01 6.613696e-01 3.567839e-01 3.818384e-01 3.713484e-01 9.611218e-01 7.369257e-01 9.416914e-01 3.926505e-01 3.497083e-01
<GCONST> 1.212971e+02
<MIXTURE> 2 5.000000e-01
<MEAN> 39
 2.169630e+00 7.988255e-01 6.137967e+00 1.756725e+01 1.362847e+01 1.080124e+01 2.924586e+00 1.142561e+01 1.039178e+00 -3.675769e+00 1.454519e-01 -3.320406e+00 2.937617e+00 1.618572e+00 -3.659966e+00 -2.254808e+00 -1.087365e+00 -1.202621e+00 -1.330949e+00 -1.461213e+00 2.402515e-01 -1.310661e+00 -1.055896e+00 1.897088e+00 -2.216017e-01 -2.823720e-01 5.458190e-01 2.337791e-01 1.642942e-01 -2.037384e-01 -1.511687e-01 -3.125616e-01 -3.940797e-01 -9.567394e-02 -6.495820e-01 -7.217973e-01 2.528432e-01 3.100235e-02 -4.632090e-01
<VARIANCE> 39
 3.657877e+01 6.257573e+01 2.561625e+01 2.581867e+01 4.130280e+01 2.660249e+01 3.137790e+01 3.113404e+01 4.891829e+01 5.034795e+01 4.197660e+01 2.930237e+01 2.757468e+01 1.655649e+00 3.509994e+00 1.733031e+00 1.936558e+00 3.090160e+00 2.154600e+00 3.112653e+00 1.940987e+00 5.633508e+00 5.078529e+00 4.996358e+00 1.888600e+00 2.295972e+00 1.526835e-01 6.318628e-01 3.960277e-01 4.587261e-01 6.613696e-01 3.567839e-01 3.818384e-01 3.713484e-01 9.611218e-01 7.369257e-01 9.416914e-01 3.926505e-01 3.497083e-01
<GCONST> 1.212971e+02
<TRANSP> 5
 0.000000e+00 1.000000e+00 0.000000e+00 0.000000e+00 0.000000e+00
 0.000000e+00 5.458120e-01 4.541880e-01 0.000000e+00 0.000000e+00
 0.000000e+00 0.000000e+00 8.876329e-01 1.123671e-01 0.000000e+00
 0.000000e+00 0.000000e+00 0.000000e+00 7.633215e-01 2.366785e-01
 0.000000e+00 0.000000e+00 0.000000e+00 0.000000e+00 0.000000e+00
<ENDHMM>
~h "f"
<BEGINHMM>
<NUMSTATES> 5
<STATE> 2
<NUMMIXES> 2
<MIXTURE> 1 1.000000e+00
<MEAN> 39
 2.057891e+01 -7.025203e+00 -2.826435e+00 1.885897e+01 3.626405e+00 -2.238802e+01 -2.111297e+01 1.577597e+01 1.234411e+01 -7.389926e+00 -6.630448e-01 9.890254e-01 -4.126818e+00 -6.695915e-01 6.713633e-01 3.728207e-01 -5.180002e-01 -1.353031e-01 6.431449e-01 3.089027e-01 -8.630230e-01 -4.147328e-01 6.022802e-01 -6.428642e-01 -8.744145e-02 2.971728e-01 -2.407258e-02 -4.419482e-03 -1.232143e-02 -5.748786e-03 2.308355e-01 1.466276e-01 -9.580517e-03 7.923929e-02 -1.305069e-01 -2.108282e-01 6.439571e-02 -5.270266e-02 -5.062891e-02
<VARIANCE> 39
 8.968931e+00 4.567213e+01 6.960700e+01 1.029008e+02 2.844630e+02 3.294579e+02 3.370080e+01 2.109139e+02 5.548479e+01 2.501340e+00 4.190527e+00 1.591031e+01 1.276031e+01 3.442536e-01 5.082710e-01 2.494393e-01 1.230640e-01 3.655972e-01 1.257897e-01 3.744233e-01 4.568781e-02 2.091806e-01 7.216007e-01 1.316531e-01 8.919526e-01 2.365356e-02 5.246883e-02 2.815821e-02 7.207000e-04 4.258915e-02 7.974884e-03 3.425910e-02 8.847193e-02 1.083580e-01 8.175398e-02 7.471033e-02 2.635990e-02 1.172375e-02 1.169386e-02
<GCONST> 5.102332e+01
<MIXTURE> 2 0.000000e+00
<MEAN> 39
 -1.585175e+01 -1.551351e+00 7.729309e+00 -7.243529e+00 1.722945e+01 -4.595492e+00 8.562895e+00 -3.340965e+00 3.503048e+00 -4.349793e+00 2.257324e+00 -9.441703e-01 1.405435e+00 -2.463601e+00 -8.618322e-01 -7.031665e-01 -4.471729e-01 2.791805e-01 3.659815e-01 -1.137626e-01 -3.731829e-01 -3.769362e-02 -3.910118e-02 3.242532e-01 -1.921992e-02 3.981748e-01 4.077158e-01 -1.006740e-01 -2.800901e-01 -9.457918e-02 -3.625076e-01 -3.459834e-01 -2.940953e-01 2.188951e-02 -1.688870e-01 -1.846896e-01 -1.475902e-01 -2.191112e-03 -1.261082e-01
<VARIANCE> 39
 3.794474e+01 3.006912e+01 3.696891e+01 3.629724e+01 4.906600e+01 3.866109e+01 4.917469e+01 3.866268e+01 3.933981e+01 3.216502e+01 2.111969e+01 2.085070e+01 1.584314e+01 1.946436e+00 1.199190e+00 1.955029e+00 2.033741e+00 2.686450e+00 2.348367e+00 2.500819e+00 2.211571e+00 1.997479e+00 1.933216e+00 1.770481e+00 1.567442e+00 1.408696e+00 2.019766e-01 2.254066e-01 2.903521e-01 2.933460e-01 3.599655e-01 3.714276e-01 4.149454e-01 4.019520e-01 3.977194e-01 3.726283e-01 3.362232e-01 2.893453e-01 2.591272e-01
<GCONST> 1.105595e+02
<STATE> 3
<NUMMIXES> 2
<MIXTURE> 1 1.000000e+00
<MEAN> 39
 1.666759e+01 -6.406253e+00 -6.365658e-01 1.636592e+01 3.071540e+00 -1.984894e+01 -1.904933e+01 1.205270e+01 1.131007e+01 -5.477893e+00 -1.998752e+00 1.190754e+00 -3.418467e+00 2.111737e-01 5.623290e-01 -1.393435e-01 -2.399647e-01 3.542741e-01 3.924167e-01 1.857946e-01 2.587403e-01 -8.632807e-01 -3.023102e-01 1.711241e-01 -3.606551e-01 -1.463091e-01 3.480555e-01 -6.246350e-02 -1.444318e-01 2.450533e-01 1.211688e-01 -1.590134e-01 -3.170919e-02 4.881812e-01 -2.372025e-02 -3.771952e-01 2.462374e-01 -9.499171e-02 -1.812136e-01
<VARIANCE> 39
 2.384366e+00 5.936377e+01 3.945271e+01 1.379021e+02 3.020098e+02 2.663195e+02 3.986625e+01 1.731621e+02 5.825124e+01 1.542826e+00 9.009376e+00 2.712198e+01 1.890081e+01 1.559578e-01 5.307559e-01 4.102200e-01 2.258259e-01 8.944757e-02 6.467198e-02 9.086200e-02 9.112954e-01 1.168773e-01 1.638494e+00 2.448216e-02 2.570629e-01 1.286758e-01 2.223690e-01 3.584287e-02 4.063192e-02 1.529074e-02 7.970671e-02 6.702496e-03 2.610398e-01 3.047150e-01 4.560904e-02 1.096198e-01 2.722404e-02 1.453750e-01 2.255154e-03
<GCONST> 5.780963e+01
<MIXTURE> 2 0.000000e+00
<MEAN> 39
 3.639828e+00 2.334219e+01 2.275135e+01 1.852283e+01 1.423527e+01 1.180350e+01 1.503383e+00 3.615908e+00 -5.643132e+00 -7.883940e+00 -4.223375e+00 -8.214487e+00 -1.385839e+00 7.378227e-01 3.235949e-01 3.322033e-01 2.980543e-01 5.087882e-01 -9.404181e-01 -6.376179e-01 -4.802291e-01 -1.009100e+00 -7.107889e-01 -4.104046e-01 7.652082e-02 7.022230e-01 8.588254e-02 -5.611768e-01 -7.325470e-01 -3.333505e-01 -7.526119e-02 1.938971e-01 3.722913e-01 3.623554e-01 5.790925e-01 5.305554e-01 -6.042129e-02 1.178928e-01 -2.853412e-01
<VARIANCE> 39
 -6.103516e-05 6.103516e-05 6.103516e-05 -6.103516e-05 0.000000e+00 0.000000e+00 -4.768372e-07 0.000000e+00 0.000000e+00 0.000000e+00 -3.814697e-06 3.814697e-06 0.000000e+00 5.960464e-08 0.000000e+00 0.000000e+00 2.980232e-08 5.960464e-08 5.960464e-08 -2.980232e-08 1.490116e-08 0.000000e+00 0.000000e+00 2.980232e-08 0.000000e+00 0.000000e+00 1.862645e-09 5.960464e-08 5.960464e-08 -1.490116e-08 -1.862645e-09 3.725290e-09 0.000000e+00 0.000000e+00 0.000000e+00 -2.980232e-08 9.313226e-10 -9.313226e-10 0.000000e+00
<GCONST> -2.500001e+11
<STATE> 4
<NUMMIXES> 2
<MIXTURE> 1 1.000000e+00
<MEAN> 39
 1.960571e+01 -5.593321e+00 -2.035943e+00 1.685646e+01 3.645718e+00 -2.099132e+01 -2.028477e+01 1.429511e+01 1.066270e+01 -6.755638e+00 -1.064084e+00 8.835147e-01 -3.193256e+00 2.539043e-01 2.903292e-01 9.736691e-02 -3.298479e-02 -4.340491e-02 2.071459e-02 6.539335e-01 2.469515e-01 -9.282801e-01 -2.700031e-01 1.357598e-01 -3.363415e-01 -2.754507e-01 6.648601e-02 2.026542e-02 8.777757e-02 2.342930e-01 -7.526325e-02 4.031637e-02 2.497546e-01 1.712471e-01 2.271110e-03 -1.653060e-01 6.555267e-02 -1.166243e-01 -1.203983e-01
<VARIANCE> 39
 1.194411e+01 6.343602e+01 6.921790e+01 1.387395e+02 2.977696e+02 2.819531e+02 2.289319e+01 2.474082e+02 9.539587e+01 2.119789e+00 6.868902e+00 2.470560e+01 1.321222e+01 5.023378e-01 2.601834e-01 2.611312e-02 1.582728e-01 1.015927e-01 1.726797e-02 3.755268e-01 1.544409e+00 4.027764e-01 1.223840e+00 4.811562e-02 6.288573e-02 1.434783e-01 1.483146e-02 1.166606e-01 1.145195e-01 1.259096e-01 6.659604e-03 6.763960e-02 6.165038e-02 1.778971e-01 1.754103e-03 4.239433e-03 4.128503e-02 1.248270e-01 5.395721e-03
<GCONST> 5.250208e+01
<MIXTURE> 2 0.000000e+00
<MEAN> 39
 -1.919306e+01 -9.236015e+00 3.689552e+00 -1.223476e+01 1.489335e+01 -6.318414e+00 7.143879e+00 -6.103525e+00 3.174531e+00 -6.095226e+00 4.311400e+00 -2.684157e-01 3.222131e+00 2.403928e+00 6.682029e-01 1.196788e+00 8.050752e-01 2.333375e-01 1.086554e-01 -3.363338e-03 2.492941e-01 -2.023524e-01 1.609932e-01 -2.533848e-01 3.826904e-02 -4.694991e-01 5.983038e-01 5.120639e-01 1.572707e-01 3.195376e-01 -1.208165e-01 -2.085501e-01 -3.490097e-01 1.940116e-01 -1.673514e-01 -7.740311e-02 -3.054772e-01 -1.087985e-01 -3.564875e-01
<VARIANCE> 39
 3.042087e+01 2.921870e+01 3.283026e+01 3.405130e+01 4.104346e+01 3.583276e+01 4.287782e+01 3.903381e+01 3.163493e+01 3.066770e+01 2.307189e+01 1.659729e+01 1.461290e+01 2.254787e+00 2.112019e+00 1.727328e+00 2.238523e+00 2.263419e+00 2.361685e+00 2.342651e+00 2.605778e+00 2.095444e+00 2.131377e+00 2.099487e+00 1.836933e+00 1.663770e+00 2.622992e-01 2.496722e-01 3.391603e-01 3.445290e-01 4.448123e-01 5.514072e-01 5.425829e-01 4.482497e-01 4.572209e-01 4.257733e-01 3.892074e-01 3.408262e-01 2.868415e-01
<GCONST> 1.128664e+02
<TRANSP> 5
 0.000000e+00 1.000000e+00 0.000000e+00 0.000000e+00 0.000000e+00
 0.000000e+00 0.000000e+00 1.000000e+00 0.000000e+00 0.000000e+00
 0.000000e+00 0.000000e+00 0.000000e+00 1.000000e+00 0.000000e+00
 0.000000e+00 0.000000e+00 0.000000e+00 0.000000e+00 1.000000e+00
 0.000000e+00 0.000000e+00 0.000000e+00 0.000000e+00 0.000000e+00
<ENDHMM>
~h "g"
<BEGINHMM>
<NUMSTATES> 5
<STATE> 2
<NUMMIXES> 2
<MIXTURE> 1 5.000000e-01
<MEAN> 39
 6.708529e+00 1.488823e+01 1.084027e+01 1.618056e+01 1.401050e+01 8.954128e+00 2.522342e-01 6.575531e+00 -3.415721e+00 -9.004477e+00 -5.485835e+00 -5.821988e+00 -4.473990e+00 -1.337095e+00 1.299407e+00 1.789594e+00 3.311193e-01 4.279535e-01 1.707864e+00 8.695489e-01 -8.806709e-01 -5.528792e-01 2.164498e-01 -5.765669e-01 -5.461342e-01 2.365080e-01 1.970743e-01 -6.363347e-01 -4.804098e-01 -1.712427e-01 -8.321980e-02 -3.017319e-01 -2.410759e-01 2.559451e-01 4.047279e-02 -1.751403e-02 5.367652e-01 1.281124e-01 -1.689545e-01
<VARIANCE> 39
 3.646199e+01 3.330006e+01 3.450826e+01 2.478299e+01 3.324223e+01 2.698925e+01 3.243044e+01 4.598620e+01 4.136415e+01 3.871972e+01 2.793095e+01 2.555322e+01 1.978628e+01 6.368563e-01 3.190341e+00 2.951054e+00 1.426460e+00 1.717610e+00 1.819330e+00 1.866628e+00 2.814161e+00 1.667937e+00 1.860750e+00 2.780368e+00 2.149708e+00 1.330507e+00 4.534177e-02 1.923056e-01 2.217969e-01 1.324386e-01 1.777651e-01 2.337163e-01 2.473031e-01 3.013262e-01 3.100248e-01 2.391741e-01 2.779129e-01 1.935636e-01 2.082560e-01
<GCONST> 1.035811e+02
<MIXTURE> 2 5.000000e-01
<MEAN> 39
 6.708529e+00 1.488823e+01 1.084027e+01 1.618056e+01 1.401050e+01 8.954128e+00 2.522342e-01 6.575531e+00 -3.415721e+00 -9.004477e+00 -5.485835e+00 -5.821988e+00 -4.473990e+00 -1.337095e+00 1.299407e+00 1.789594e+00 3.311193e-01 4.279535e-01 1.707864e+00 8.695489e-01 -8.806709e-01 -5.528792e-01 2.164498e-01 -5.765669e-01 -5.461342e-01 2.365080e-01 1.970743e-01 -6.363347e-01 -4.804098e-01 -1.712427e-01 -8.321980e-02 -3.017319e-01 -2.410759e-01 2.559451e-01 4.047279e-02 -1.751403e-02 5.367652e-01 1.281124e-01 -1.689545e-01
<VARIANCE> 39
 3.646199e+01 3.330006e+01 3.450826e+01 2.478299e+01 3.324223e+01 2.698925e+01 3.243044e+01 4.598620e+01 4.136415e+01 3.871972e+01 2.793095e+01 2.555322e+01 1.978628e+01 6.368563e-01 3.190341e+00 2.951054e+00 1.426460e+00 1.717610e+00 1.819330e+00 1.866628e+00 2.814161e+00 1.667937e+00 1.860750e+00 2.780368e+00 2.149708e+00 1.330507e+00 4.534177e-02 1.923056e-01 2.217969e-01 1.324386e-01 1.777651e-01 2.337163e-01 2.473031e-01 3.013262e-01 3.100248e-01 2.391741e-01 2.779129e-01 1.935636e-01 2.082560e-01
<GCONST> 1.035811e+02
<STATE> 3
<NUMMIXES> 2
<MIXTURE> 1 5.000000e-01
<MEAN> 39
 2.854274e+00 1.823907e+01 1.580996e+01 1.665382e+01 1.419200e+01 1.331960e+01 3.750112e+00 6.347970e+00 -2.011954e+00 -5.055285e+00 -4.407820e+00 -7.063895e+00 -5.560548e+00 -5.338825e-01 -5.914817e-01 -3.716233e-01 -4.858408e-01 -2.671702e-01 3.092873e-01 5.580090e-01 7.767797e-01 4.597724e-01 2.455105e-01 4.356142e-01 1.203886e-01 1.357098e-01 1.935556e-01 -4.087723e-01 -4.814880e-01 -3.227155e-01 -2.803451e-01 -3.421363e-01 -1.543203e-01 3.306371e-01 1.245590e-01 -1.005841e-01 2.536538e-01 1.652888e-01 3.626838e-02
<VARIANCE> 39
 2.111997e+01 1.812789e+01 1.733178e+01 1.306833e+01 1.317186e+01 1.466159e+01 1.878462e+01 1.744540e+01 1.718618e+01 1.793680e+01 1.094653e+01 1.100994e+01 9.552114e+00 5.153462e-01 1.839273e+00 2.032360e+00 1.879616e+00 1.676002e+00 1.869951e+00 1.213524e+00 1.635296e+00 1.133094e+00 1.296147e+00 1.395283e+00 1.261228e+00 1.018052e+00 7.282236e-02 1.848093e-01 2.551207e-01 2.818098e-01 2.939076e-01 2.299347e-01 1.697445e-01 2.106668e-01 1.999870e-01 1.649858e-01 2.357861e-01 1.592624e-01 1.359861e-01
<GCONST> 8.930965e+01
<MIXTURE> 2 5.000000e-01
<MEAN> 39
 2.854274e+00 1.823907e+01 1.580996e+01 1.665382e+01 1.419200e+01 1.331960e+01 3.750112e+00 6.347970e+00 -2.011954e+00 -5.055285e+00 -4.407820e+00 -7.063895e+00 -5.560548e+00 -5.338825e-01 -5.914817e-01 -3.716233e-01 -4.858408e-01 -2.671702e-01 3.092873e-01 5.580090e-01 7.767797e-01 4.597724e-01 2.455105e-01 4.356142e-01 1.203886e-01 1.357098e-01 1.935556e-01 -4.087723e-01 -4.814880e-01 -3.227155e-01 -2.803451e-01 -3.421363e-01 -1.543203e-01 3.306371e-01 1.245590e-01 -1.005841e-01 2.536538e-01 1.652888e-01 3.626838e-02
<VARIANCE> 39
 2.111997e+01 1.812789e+01 1.733178e+01 1.306833e+01 1.317186e+01 1.466159e+01 1.878462e+01 1.744540e+01 1.718618e+01 1.793680e+01 1.094653e+01 1.100994e+01 9.552114e+00 5.153462e-01 1.839273e+00 2.032360e+00 1.879616e+00 1.676002e+00 1.869951e+00 1.213524e+00 1.635296e+00 1.133094e+00 1.296147e+00 1.395283e+00 1.261228e+00 1.018052e+00 7.282236e-02 1.848093e-01 2.551207e-01 2.818098e-01 2.939076e-01 2.299347e-01 1.697445e-01 2.106668e-01 1.999870e-01 1.649858e-01 2.357861e-01 1.592624e-01 1.359861e-01
<GCONST> 8.930965e+01
<STATE> 4
<NUMMIXES> 2
<MIXTURE> 1 5.000000e-01
<MEAN> 39
 6.142864e+00 7.842233e+00 2.075009e+00 4.453707e+00 7.637053e+00 1.095050e+01 3.984007e+00 1.435277e+01 -5.372328e-01 -8.937292e+00 6.733962e-01 -4.579706e+00 -4.079042e+00 1.152826e+00 -2.042427e+00 -2.019988e+00 -1.261472e+00 -5.221928e-01 -7.894978e-01 -1.145717e+00 4.467909e-01 -7.288858e-01 -1.147542e+00 1.404672e+00 5.981057e-01 2.591979e-02 2.119945e-01 1.113538e-01 2.643323e-01 3.711483e-01 2.112305e-01 -2.653674e-01 -4.809830e-01 -3.923966e-01 -2.580035e-01 -7.307500e-02 5.510233e-02 4.040314e-03 -1.552896e-01
<VARIANCE> 39
 6.922491e+01 6.691607e+01 6.791743e+01 1.396886e+02 1.246340e+02 7.312428e+01 6.232445e+01 8.155220e+01 8.415240e+01 7.934341e+01 4.014351e+01 2.839320e+01 2.496535e+01 1.607912e+00 2.783070e+00 3.445292e+00 1.111352e+01 1.064584e+01 5.832450e+00 3.426742e+00 7.627724e+00 5.631083e+00 3.777032e+00 3.640407e+00 1.694031e+00 1.793426e+00 2.562156e-01 2.777077e-01 5.005725e-01 1.439856e+00 1.206282e+00 7.272769e-01 5.306988e-01 8.184430e-01 7.284614e-01 5.732500e-01 4.424729e-01 3.147004e-01 3.451745e-01
<GCONST> 1.361420e+02
<MIXTURE> 2 5.000000e-01
<MEAN> 39
 6.142864e+00 7.842233e+00 2.075009e+00 4.453707e+00 7.637053e+00 1.095050e+01 3.984007e+00 1.435277e+01 -5.372328e-01 -8.937292e+00 6.733962e-01 -4.579706e+00 -4.079042e+00 1.152826e+00 -2.042427e+00 -2.019988e+00 -1.261472e+00 -5.221928e-01 -7.894978e-01 -1.145717e+00 4.467909e-01 -7.288858e-01 -1.147542e+00 1.404672e+00 5.981057e-01 2.591979e-02 2.119945e-01 1.113538e-01 2.643323e-01 3.711483e-01 2.112305e-01 -2.653674e-01 -4.809830e-01 -3.923966e-01 -2.580035e-01 -7.307500e-02 5.510233e-02 4.040314e-03 -1.552896e-01
<VARIANCE> 39
 6.922491e+01 6.691607e+01 6.791743e+01 1.396886e+02 1.246340e+02 7.312428e+01 6.232445e+01 8.155220e+01 8.415240e+01 7.934341e+01 4.014351e+01 2.839320e+01 2.496535e+01 1.607912e+00 2.783070e+00 3.445292e+00 1.111352e+01 1.064584e+01 5.832450e+00 3.426742e+00 7.627724e+00 5.631083e+00 3.777032e+00 3.640407e+00 1.694031e+00 1.793426e+00 2.562156e-01 2.777077e-01 5.005725e-01 1.439856e+00 1.206282e+00 7.272769e-01 5.306988e-01 8.184430e-01 7.284614e-01 5.732500e-01 4.424729e-01 3.147004e-01 3.451745e-01
<GCONST> 1.361420e+02
<TRANSP> 5
 0.000000e+00 1.000000e+00 0.000000e+00 0.000000e+00 0.000000e+00
 0.000000e+00 5.029066e-01 4.970935e-01 0.000000e+00 0.000000e+00
 0.000000e+00 0.000000e+00 8.052975e-01 1.947024e-01 0.000000e+00
 0.000000e+00 0.000000e+00 0.000000e+00 7.552052e-01 2.447948e-01
 0.000000e+00 0.000000e+00 0.000000e+00 0.000000e+00 0.000000e+00
<ENDHMM>
~h "h"
<BEGINHMM>
<NUMSTATES> 5
<STATE> 2
<NUMMIXES> 2
<MIXTURE> 1 6.282625e-01
<MEAN> 39
 1.372454e+01 -7.006866e+00 -6.661302e+00 9.665104e+00 9.384231e+00 5.336104e+00 -4.767504e+00 6.916785e+00 -4.812866e-01 7.578926e+00 2.520720e+01 5.389987e+00 -3.650871e+00 -3.457033e-01 1.307510e-01 1.789991e-01 2.898191e-01 1.841734e-01 2.582186e-01 1.030356e-01 -2.132958e-01 2.839951e-01 6.413174e-01 1.924228e-01 1.190342e-01 -2.605517e-02 2.931620e-02 1.792613e-02 3.053376e-02 3.232941e-02 7.949570e-02 -1.083166e-01 -1.732816e-01 5.993849e-02 -8.601280e-02 -3.002208e-01 -1.292445e-01 -3.881377e-02 -1.303182e-02
<VARIANCE> 39
 7.706107e+00 1.862625e+01 4.595393e+01 4.542479e+01 5.056261e+01 2.128070e+01 6.446443e+01 5.120288e+01 3.584724e+01 1.020454e+02 4.118644e+01 3.113556e+01 3.220670e+01 2.480125e-01 8.193833e-01 1.040603e+00 1.296688e+00 1.634324e+00 1.381564e+00 3.373281e+00 1.900942e+00 1.916715e+00 3.243036e+00 2.595096e+00 1.198627e+00 1.379770e+00 2.834551e-02 1.089201e-01 1.226061e-01 1.573379e-01 1.669300e-01 2.144887e-01 2.875655e-01 2.840471e-01 2.555954e-01 2.739193e-01 3.278267e-01 2.070479e-01 2.083981e-01
<GCONST> 1.003858e+02
<MIXTURE> 2 3.717380e-01
<MEAN> 39
 -1.254916e+01 -4.683146e+00 -3.472549e+00 5.013696e-01 -8.037782e-01 2.296337e+00 -1.191212e+00 6.359527e+00 -2.404366e+00 -4.116656e+00 2.970371e+00 1.829985e+00 1.731235e+00 -1.660177e-01 -1.702340e-01 -2.881026e-01 -3.779576e-01 -5.810865e-01 -1.590296e-01 6.123639e-01 6.681126e-01 4.471315e-01 1.641917e-01 -2.499580e-01 -8.473583e-02 8.847065e-02 1.032165e-01 -5.796079e-02 -2.259780e-02 1.995590e-02 -3.779183e-03 -5.904620e-02 -4.138257e-02 6.406603e-02 -2.681340e-02 -4.799154e-02 7.087928e-02 -1.095715e-02 -6.313214e-02
<VARIANCE> 39
 2.568571e+02 7.356892e+01 9.681596e+01 1.307594e+02 9.920238e+01 7.060471e+01 6.105624e+01 1.023709e+02 5.717404e+01 4.965852e+01 4.639323e+01 2.976728e+01 2.244319e+01 2.736634e+00 1.559300e+00 2.040189e+00 1.784035e+00 1.929698e+00 2.422301e+00 2.718700e+00 3.352240e+00 2.327507e+00 2.459941e+00 1.819623e+00 1.491516e+00 1.451666e+00 1.177763e-01 1.488941e-01 1.870433e-01 2.108417e-01 2.292251e-01 2.946477e-01 3.549959e-01 4.214892e-01 3.679702e-01 3.304180e-01 2.955519e-01 2.467548e-01 2.497063e-01
<GCONST> 1.184843e+02
<STATE> 3
<NUMMIXES> 2
<MIXTURE> 1 3.960226e-01
<MEAN> 39
 6.422804e+00 -3.779100e-01 7.376879e+00 2.458169e+01 1.818580e+01 1.741067e+00 -1.123408e+01 1.005316e+01 4.518826e+00 2.434296e+00 1.381087e+01 -5.349933e+00 -1.138744e+01 -1.292619e-01 2.202290e-01 6.574657e-02 -1.650766e-01 -2.132874e-01 -8.214254e-02 1.609977e-01 3.652507e-01 3.796210e-01 4.865720e-02 -1.131080e-01 1.115582e-01 -7.122692e-03 1.081643e-01 -3.920014e-02 -2.434691e-02 -3.985512e-02 4.349416e-02 -5.737872e-02 -1.907794e-01 -3.468802e-02 -2.093220e-01 -2.798206e-01 9.474031e-02 6.195955e-02 -4.897056e-02
<VARIANCE> 39
 1.134062e+01 2.625271e+01 3.473550e+01 4.359031e+01 2.222844e+01 2.736856e+01 2.692945e+01 3.428444e+01 4.275606e+01 4.465245e+01 4.535572e+01 2.884566e+01 2.715986e+01 3.337447e-01 5.264887e-01 1.088284e+00 1.700803e+00 1.331830e+00 1.201808e+00 1.963903e+00 1.714306e+00 2.313720e+00 3.164101e+00 2.323071e+00 1.289918e+00 1.433470e+00 2.507699e-02 8.924657e-02 1.100140e-01 1.969353e-01 1.850395e-01 1.988094e-01 2.707738e-01 2.795183e-01 2.553738e-01 2.850601e-01 3.153753e-01 2.092764e-01 2.477206e-01
<GCONST> 9.742514e+01
<MIXTURE> 2 6.039762e-01
<MEAN> 39
 1.363270e+01 -4.211353e-01 -2.295646e+00 4.863580e+00 -5.918937e+00 -2.060192e+00 1.076011e+01 2.604215e+01 6.087881e+00 -5.832775e+00 3.792804e+00 3.074634e+00 2.210702e+00 5.287236e-02 1.526898e-01 4.256874e-02 -1.160235e-01 -2.608657e-01 -2.607937e-01 4.409989e-02 7.215297e-02 -1.294306e-01 -1.514763e-01 -4.002291e-02 3.956508e-03 -8.202126e-02 5.144270e-02 -4.574902e-02 -5.079271e-02 7.510914e-03 1.085764e-01 -7.435817e-02 -2.297641e-01 -8.421781e-02 -5.385744e-02 -6.807846e-02 5.963634e-02 -7.528238e-03 -7.576375e-02
<VARIANCE> 39
 4.199394e+01 7.770204e+01 6.270993e+01 2.504034e+01 7.248738e+01 7.758744e+01 8.189439e+01 7.692400e+01 4.565338e+01 6.712447e+01 3.946129e+01 2.204682e+01 2.498319e+01 8.359340e-01 1.016327e+00 1.111986e+00 9.121677e-01 1.493155e+00 2.172714e+00 3.126581e+00 2.165326e+00 1.430557e+00 1.790640e+00 1.448004e+00 1.053786e+00 1.151554e+00 4.205469e-02 1.076919e-01 1.307277e-01 1.405618e-01 1.633246e-01 2.130373e-01 2.363216e-01 2.842385e-01 2.149730e-01 2.422454e-01 2.204621e-01 1.892537e-01 1.721356e-01
<GCONST> 1.036249e+02
<STATE> 4
<NUMMIXES> 2
<MIXTURE> 1 5.547978e-01
<MEAN> 39
 1.041768e+01 -1.380052e+00 4.419626e+00 2.095751e+01 1.926085e+01 2.578437e-01 -1.787665e+01 8.434562e+00 -1.056011e+00 -4.178077e+00 1.922550e+01 -8.966814e-01 -1.206525e+01 6.254393e-01 -2.322783e-01 -4.785100e-01 -1.173223e-01 5.539752e-01 -5.109363e-01 -1.358747e+00 -2.311345e-01 -9.128075e-01 -1.380840e+00 2.328570e-01 2.349857e-01 -1.557465e-01 4.322053e-02 -1.301116e-01 -2.485053e-01 -9.491123e-02 6.165803e-02 3.592988e-02 -5.949231e-03 -3.597294e-02 2.853006e-02 5.349241e-02 -3.694635e-02 3.709859e-02 8.418968e-02
<VARIANCE> 39
 1.252158e+01 2.824957e+01 4.603854e+01 4.007452e+01 2.986463e+01 2.602828e+01 4.564232e+01 3.983803e+01 3.635947e+01 6.013478e+01 6.040107e+01 2.857412e+01 3.034484e+01 3.126903e-01 7.813648e-01 1.486201e+00 1.545364e+00 1.181609e+00 1.417383e+00 2.111633e+00 1.925517e+00 1.496080e+00 2.286441e+00 1.988325e+00 1.140939e+00 1.230672e+00 4.045037e-02 9.473252e-02 1.519064e-01 1.965908e-01 1.967881e-01 2.375402e-01 3.621671e-01 3.145953e-01 2.397089e-01 3.002323e-01 3.384009e-01 1.932429e-01 2.101972e-01
<GCONST> 1.001515e+02
<MIXTURE> 2 4.452024e-01
<MEAN> 39
 3.958392e+00 -8.492146e+00 -7.927028e+00 -1.917419e+00 -9.432911e+00 -4.180128e+00 4.618954e+00 1.841028e+01 -6.111676e-01 -7.309335e+00 4.881222e+00 2.964961e+00 2.174390e+00 9.732487e-01 4.873742e-01 5.472773e-01 8.534491e-01 6.288344e-01 -6.441776e-02 -2.027831e-01 1.116585e-01 2.665923e-01 1.791481e-01 2.380526e-01 3.739571e-03 -1.353049e-01 4.429412e-02 4.644614e-02 1.114394e-01 1.801997e-01 2.548654e-01 3.959458e-02 -1.439835e-01 5.775248e-03 3.176057e-02 -6.774931e-02 2.682669e-03 -2.341063e-02 -8.561353e-02
<VARIANCE> 39
 1.488487e+02 1.148711e+02 1.963676e+02 1.697201e+02 1.765049e+02 1.036541e+02 1.422810e+02 1.771818e+02 6.556863e+01 9.020055e+01 1.075823e+02 2.752479e+01 3.348288e+01 2.432688e+00 2.413805e+00 3.303151e+00 3.189647e+00 4.201706e+00 3.564401e+00 3.131283e+00 2.726762e+00 2.348686e+00 2.459307e+00 2.171676e+00 1.565564e+00 1.521915e+00 1.326912e-01 2.525356e-01 3.923540e-01 3.744107e-01 4.117588e-01 5.104097e-01 4.983343e-01 4.689641e-01 4.024723e-01 4.216143e-01 3.339685e-01 2.714542e-01 2.441047e-01
<GCONST> 1.304383e+02
<TRANSP> 5
 0.000000e+00 1.000000e+00 0.000000e+00 0.000000e+00 0.000000e+00
 0.000000e+00 8.435907e-01 1.564093e-01 0.000000e+00 0.000000e+00
 0.000000e+00 0.000000e+00 8.685462e-01 1.314538e-01 0.000000e+00
 0.000000e+00 0.000000e+00 0.000000e+00 7.799392e-01 2.200608e-01
 0.000000e+00 0.000000e+00 0.000000e+00 0.000000e+00 0.000000e+00
<ENDHMM>
~h "i"
<BEGINHMM>
<NUMSTATES> 7
<STATE> 2
<NUMMIXES> 2
<MIXTURE> 1 8.686211e-01
<MEAN> 39
 3.014787e+00 -8.935076e+00 6.569528e+00 1.630921e+01 1.533200e+01 5.221208e+00 -1.273719e+01 5.679087e+00 -7.234460e+00 -1.162812e+01 8.194126e+00 -1.558360e+00 -5.780231e+00 1.768395e+00 -4.367371e-01 5.572127e-02 1.211529e+00 2.054807e+00 -5.736456e-01 -2.679201e+00 3.779878e-02 -7.563624e-01 -1.950734e+00 1.224153e+00 1.028292e-01 -1.827676e+00 -9.651776e-02 -7.055160e-02 -1.748875e-02 -6.096064e-02 8.817266e-02 -6.396817e-02 -2.151876e-01 1.471047e-01 4.108838e-02 -1.913096e-01 -2.853266e-02 -1.832534e-02 -8.706056e-02
<VARIANCE> 39
 2.000601e+02 7.773266e+01 1.330463e+02 1.890959e+02 1.130765e+02 8.634508e+01 7.753587e+01 5.483004e+01 5.626043e+01 8.188519e+01 6.159506e+01 3.074301e+01 5.659943e+01 3.383022e+00 3.288622e+00 3.664968e+00 3.522890e+00 3.875204e+00 2.942208e+00 5.151612e+00 3.585415e+00 2.922287e+00 4.529191e+00 4.301909e+00 1.715757e+00 3.104791e+00 3.243669e-01 4.824122e-01 5.497136e-01 5.328383e-01 4.975958e-01 3.576142e-01 4.328508e-01 5.435828e-01 4.935164e-01 5.805610e-01 6.067649e-01 2.777637e-01 3.652859e-01
<GCONST> 1.347595e+02
<MIXTURE> 2 1.313788e-01
<MEAN> 39
 1.064879e+01 -1.435909e+01 1.384700e+01 3.279637e+01 2.086626e+01 5.702862e+00 -1.760717e+01 1.052299e+00 -3.406114e+00 -1.365754e+01 3.278693e+00 -5.140241e+00 -9.723900e+00 1.647518e+00 7.029581e-01 -2.009231e+00 6.985794e-01 3.246685e+00 -2.046223e+00 -3.563453e+00 5.869094e-02 -2.020516e-01 -2.621986e+00 -2.696650e-01 7.836123e-01 -1.961013e+00 -5.646120e-01 -4.994804e-01 -1.322366e-01 -5.566693e-01 -3.667502e-01 -6.912795e-02 1.582275e-01 7.147561e-01 1.202090e-01 2.495453e-03 4.429606e-01 1.995343e-01 9.164106e-02
<VARIANCE> 39
 1.161793e+01 1.927318e+01 3.787598e+01 5.780445e+01 2.612210e+01 4.322354e+01 2.963876e+01 4.061796e+01 3.091677e+01 2.632301e+01 3.009327e+01 1.897878e+01 2.012149e+01 9.449125e-01 1.706213e+00 2.919850e+00 1.984578e+00 1.574589e+00 2.564325e+00 3.138077e+00 3.360503e+00 1.734450e+00 1.843024e+00 2.432542e+00 1.301003e+00 1.230700e+00 1.044678e-01 2.040336e-01 4.609778e-01 1.937585e-01 2.048912e-01 2.943058e-01 3.116630e-01 3.368898e-01 1.820211e-01 2.886283e-01 1.967665e-01 1.709441e-01 1.532427e-01
<GCONST> 1.039209e+02
<STATE> 3
<NUMMIXES> 2
<MIXTURE> 1 4.680159e-01
<MEAN> 39
 1.544940e+01 -1.148820e+01 1.873804e+00 2.100186e+01 2.672045e+01 6.500980e-01 -2.677413e+01 8.577806e+00 -1.083058e+01 -2.400252e+01 1.591691e+01 7.710669e-01 -1.431416e+01 3.522263e-01 -5.983406e-01 1.750534e-01 -1.252552e-03 1.169344e+00 -2.245450e-01 -2.071789e+00 6.369647e-01 -1.965865e-01 -1.330760e+00 1.074128e+00 -6.701833e-02 -1.388850e+00 -2.342013e-01 1.508895e-01 1.342793e-01 -1.392922e-01 -3.503765e-01 1.574257e-01 5.369112e-01 -4.555723e-02 2.023775e-01 4.361266e-01 -3.208930e-01 -1.124205e-01 3.167032e-01
<VARIANCE> 39
 3.351074e+01 1.937371e+01 5.825327e+01 9.235949e+01 4.036679e+01 2.681536e+01 5.902184e+01 4.630186e+01 3.598169e+01 4.433463e+01 7.121233e+01 2.233920e+01 4.057048e+01 6.690097e-01 8.009818e-01 1.334186e+00 1.402074e+00 1.217692e+00 1.362721e+00 2.391789e+00 2.189899e+00 1.215199e+00 1.946147e+00 1.825219e+00 1.097154e+00 1.180538e+00 1.249169e-01 1.379175e-01 1.971714e-01 2.094447e-01 2.347275e-01 1.609976e-01 4.063517e-01 4.143914e-01 2.031785e-01 4.057695e-01 3.410748e-01 1.639426e-01 2.111070e-01
<GCONST> 1.047390e+02
<MIXTURE> 2 5.319839e-01
<MEAN> 39
 1.626785e+01 -1.292194e+01 2.006077e+00 1.959991e+01 2.849616e+01 7.978649e-01 -3.042164e+01 9.034338e+00 -1.095236e+01 -2.648569e+01 1.784274e+01 5.022017e-01 -1.813510e+01 -1.966334e-01 2.753931e-02 2.700054e-01 5.277919e-02 5.101965e-02 1.838922e-01 7.400683e-02 -2.913388e-01 -4.857820e-02 1.495202e-01 -2.672174e-02 -1.642619e-01 -3.041144e-01 -5.727347e-04 7.813015e-02 -4.496527e-02 5.083780e-02 -6.784432e-02 9.544197e-02 2.614597e-01 -6.258165e-02 -5.013056e-02 1.033350e-01 -8.455977e-02 6.396947e-04 1.363749e-01
<VARIANCE> 39
 7.618618e+00 1.029013e+01 2.939601e+01 4.885058e+01 2.163677e+01 1.714717e+01 3.191467e+01 3.320827e+01 2.776628e+01 2.310121e+01 4.926004e+01 1.185151e+01 2.730479e+01 3.862215e-01 3.451097e-01 6.878778e-01 9.675171e-01 4.946945e-01 6.424171e-01 1.282023e+00 1.309246e+00 6.034251e-01 1.062534e+00 1.120827e+00 5.215246e-01 8.559420e-01 4.913244e-02 5.332911e-02 7.116301e-02 7.418975e-02 7.061949e-02 8.235301e-02 1.776213e-01 1.781499e-01 8.292633e-02 1.590637e-01 1.533962e-01 6.839978e-02 9.838438e-02
<GCONST> 7.715013e+01
<STATE> 4
<NUMMIXES> 2
<MIXTURE> 1 6.701835e-01
<MEAN> 39
 1.335473e+01 -1.175901e+01 7.166028e+00 2.308682e+01 2.927628e+01 9.051277e-01 -3.042973e+01 8.605727e+00 -9.851724e+00 -2.412560e+01 1.383708e+01 -1.526127e+00 -1.667435e+01 9.293884e-02 1.897807e-01 -1.813187e-01 4.181608e-02 -9.631616e-02 3.245455e-01 4.794304e-01 -2.876751e-01 -7.068630e-02 1.001747e-01 -1.144169e-01 3.189370e-02 5.384224e-02 -7.999779e-02 1.772099e-01 -1.667094e-02 2.103662e-02 -2.825655e-01 1.219108e-01 5.006887e-01 -2.401118e-01 1.233092e-01 3.212520e-01 -3.138601e-01 2.273926e-02 2.620265e-01
<VARIANCE> 39
 3.617072e+01 1.920603e+01 6.125837e+01 9.982613e+01 5.341072e+01 2.528029e+01 8.678826e+01 4.144352e+01 6.182277e+01 4.314000e+01 8.027104e+01 1.987148e+01 4.574220e+01 4.128679e-01 6.244718e-01 8.953179e-01 1.423037e+00 1.067518e+00 1.149333e+00 2.087463e+00 1.828265e+00 1.181342e+00 1.567901e+00 1.515710e+00 9.074045e-01 9.692056e-01 6.639159e-02 1.185750e-01 1.443376e-01 1.804203e-01 1.857194e-01 1.846550e-01 3.370544e-01 3.537357e-01 1.799758e-01 3.423290e-01 2.694353e-01 1.392442e-01 2.054263e-01
<GCONST> 1.011114e+02
<MIXTURE> 2 3.298165e-01
<MEAN> 39
 1.034685e+01 -1.260367e+01 1.415839e+01 3.387996e+01 2.693000e+01 -1.024761e+00 -2.852311e+01 5.696212e+00 2.857542e+00 -1.989413e+01 -2.940210e-01 -2.548035e+00 -1.445266e+01 9.521719e-03 5.915165e-03 -8.190815e-02 -1.751667e-01 2.623065e-02 -1.076774e-01 -1.110102e-01 9.008314e-02 -7.932173e-02 -8.058278e-02 -5.966689e-02 7.596068e-03 3.826693e-02 3.747153e-02 -9.738459e-03 -2.077036e-02 -3.248215e-03 3.881737e-02 3.185541e-02 1.177369e-03 5.368483e-02 -1.579747e-01 -3.864507e-02 1.413167e-01 -1.692290e-02 1.426403e-02
<VARIANCE> 39
 5.444223e+00 1.490037e+01 1.473848e+01 3.404695e+01 1.741849e+01 1.658071e+01 4.833173e+01 2.349767e+01 1.926134e+01 1.943181e+01 2.549776e+01 1.442786e+01 2.348345e+01 2.833038e-01 3.891444e-01 5.155734e-01 9.233295e-01 7.004613e-01 6.931033e-01 1.210103e+00 8.949620e-01 9.096459e-01 9.057558e-01 8.231285e-01 5.716506e-01 7.516661e-01 4.420280e-02 6.076710e-02 7.369156e-02 1.175368e-01 1.106707e-01 1.130964e-01 1.802001e-01 1.311412e-01 1.146138e-01 1.451524e-01 1.165361e-01 9.730744e-02 1.192157e-01
<GCONST> 7.566119e+01
<STATE> 5
<NUMMIXES> 2
<MIXTURE> 1 8.451741e-01
<MEAN> 39
 1.470262e+01 -1.010566e+01 3.176970e+00 2.098376e+01 2.687374e+01 5.419572e+00 -2.337670e+01 5.354892e+00 -1.184717e+01 -2.280034e+01 1.506701e+01 -6.378313e-01 -1.648239e+01 -7.431250e-01 1.395478e+00 7.125787e-01 -1.464612e-01 -1.534381e+00 1.428976e+00 2.924631e+00 -1.561063e+00 7.321039e-01 2.381025e+00 -2.232677e+00 -2.947230e-01 1.892329e+00 -3.266240e-01 3.527372e-01 4.871680e-01 -2.384364e-01 -4.218110e-01 2.498067e-01 3.950089e-01 -1.724834e-01 3.112672e-01 5.949197e-01 -5.379918e-01 -1.363710e-01 5.240950e-01
<VARIANCE> 39
 3.254462e+01 2.030069e+01 4.266823e+01 5.893982e+01 4.942894e+01 4.200010e+01 6.299154e+01 4.878618e+01 3.514751e+01 4.760207e+01 6.480252e+01 1.886237e+01 3.699392e+01 6.975177e-01 2.809859e+00 1.870569e+00 1.453780e+00 1.521898e+00 2.434810e+00 2.164847e+00 3.309350e+00 1.781008e+00 2.974123e+00 2.284797e+00 9.684958e-01 1.543972e+00 8.533695e-02 2.105156e-01 2.244724e-01 1.655357e-01 1.699512e-01 2.338001e-01 3.354156e-01 3.864894e-01 2.788426e-01 3.627263e-01 3.029092e-01 1.832689e-01 2.281151e-01
<GCONST> 1.084181e+02
<MIXTURE> 2 1.548257e-01
<MEAN> 39
 1.120760e+01 -8.848707e+00 1.100828e+01 3.038103e+01 2.537707e+01 1.735763e+00 -2.401340e+01 4.147377e+00 -1.296509e+00 -1.662030e+01 5.345605e+00 -2.687557e+00 -1.429361e+01 -6.730171e-02 7.949331e-01 -3.584249e-01 -4.955792e-01 -5.868837e-01 2.439406e-01 1.333869e+00 -5.765506e-02 -1.298121e-01 8.842441e-01 5.843944e-02 7.434057e-02 7.494742e-01 -3.237337e-02 2.161472e-02 -1.243186e-02 -1.654117e-01 -8.447167e-02 4.773606e-02 1.640596e-01 2.161106e-01 -3.048350e-02 -1.188945e-02 4.763826e-02 5.958953e-02 1.542681e-01
<VARIANCE> 39
 8.957067e+00 3.614973e+01 2.306878e+01 5.692047e+01 4.058381e+01 3.891705e+01 6.727296e+01 4.202597e+01 2.314066e+01 3.887812e+01 4.247095e+01 2.296356e+01 1.963791e+01 3.895691e-01 1.147583e+00 1.180635e+00 1.481751e+00 1.357276e+00 1.547601e+00 3.040883e+00 1.798366e+00 1.410227e+00 2.218332e+00 1.674423e+00 1.217195e+00 1.481400e+00 5.667013e-02 1.625951e-01 1.505054e-01 1.631856e-01 1.499024e-01 2.049523e-01 2.567701e-01 2.538295e-01 1.950047e-01 2.585445e-01 1.745642e-01 1.426078e-01 1.604421e-01
<GCONST> 9.793507e+01
<STATE> 6
<NUMMIXES> 2
<MIXTURE> 1 6.586190e-01
<MEAN> 39
 5.092670e+00 -2.814154e+00 7.352694e+00 1.639164e+01 1.606614e+01 8.930647e+00 -8.733500e+00 4.058228e+00 -5.488549e+00 -1.062027e+01 3.435598e+00 -2.104195e+00 -4.795006e+00 -1.145766e+00 1.079411e+00 1.058771e+00 -5.685750e-01 -1.192864e+00 8.585560e-01 1.580523e+00 -4.049623e-01 6.178313e-01 1.458646e+00 -1.328646e+00 -2.999755e-01 1.274455e+00 -6.935243e-02 -2.620046e-01 8.304131e-02 -9.757132e-02 5.802003e-02 -6.323972e-02 -2.750521e-01 1.634442e-01 -1.704227e-01 -2.184996e-01 3.311264e-01 3.516314e-02 -1.797270e-01
<VARIANCE> 39
 1.265703e+02 1.715313e+02 9.703905e+01 1.243091e+02 9.693360e+01 8.535298e+01 8.946112e+01 7.700373e+01 6.113295e+01 7.167456e+01 6.827448e+01 2.413319e+01 4.689454e+01 3.205091e+00 5.949625e+00 4.904525e+00 3.033709e+00 3.190009e+00 4.046219e+00 4.762272e+00 3.715286e+00 3.360852e+00 4.993023e+00 4.256451e+00 1.677298e+00 3.291184e+00 2.264588e-01 4.098463e-01 4.209836e-01 3.170584e-01 3.422445e-01 3.387372e-01 4.316185e-01 4.984406e-01 4.153427e-01 4.851134e-01 4.071087e-01 2.406506e-01 2.792083e-01
<GCONST> 1.323323e+02
<MIXTURE> 2 3.413806e-01
<MEAN> 39
 -4.133083e+00 -6.960546e+00 -9.949640e-01 6.170759e+00 6.672608e+00 -3.406219e-01 -1.012535e+01 7.022411e+00 -3.855668e+00 -9.786529e+00 4.385062e+00 7.678385e-01 -3.484764e+00 -3.182829e-02 7.883324e-02 3.336185e-02 -3.632870e-02 -6.347962e-02 -9.219475e-02 -4.241931e-02 1.913312e-02 7.732055e-02 8.615050e-02 1.000341e-02 -3.020666e-02 -1.896043e-02 -4.103942e-03 5.358015e-03 2.636876e-02 2.957944e-02 1.699507e-02 5.904221e-02 2.417460e-02 -2.006843e-02 -1.204326e-02 -8.952659e-03 -6.331067e-03 -4.501317e-03 -8.224603e-04
<VARIANCE> 39
 4.514710e+02 1.013608e+02 1.573092e+02 2.023675e+02 1.457856e+02 1.031058e+02 1.353494e+02 9.772624e+01 7.459447e+01 9.174886e+01 7.098425e+01 3.825734e+01 5.773315e+01 2.962163e-01 4.261371e-01 5.727707e-01 7.162986e-01 7.475269e-01 1.089513e+00 1.169064e+00 1.323030e+00 1.234605e+00 1.171588e+00 1.271941e+00 1.048123e+00 7.047946e-01 5.269627e-02 6.361153e-02 8.887288e-02 1.095147e-01 1.244134e-01 1.686734e-01 1.905437e-01 2.169075e-01 1.882155e-01 2.037235e-01 2.283434e-01 1.914418e-01 1.316368e-01
<GCONST> 1.044560e+02
<TRANSP> 7
 0.000000e+00 1.000000e+00 0.000000e+00 0.000000e+00 0.000000e+00 0.000000e+00 0.000000e+00
 0.000000e+00 6.539667e-01 3.460334e-01 0.000000e+00 0.000000e+00 0.000000e+00 0.000000e+00
 0.000000e+00 0.000000e+00 8.667544e-01 1.332457e-01 0.000000e+00 0.000000e+00 0.000000e+00
 0.000000e+00 0.000000e+00 0.000000e+00 7.379491e-01 2.620509e-01 0.000000e+00 0.000000e+00
 0.000000e+00 0.000000e+00 0.000000e+00 0.000000e+00 6.928809e-01 3.071191e-01 0.000000e+00
 0.000000e+00 0.000000e+00 0.000000e+00 0.000000e+00 0.000000e+00 7.944677e-01 2.055323e-01
 0.000000e+00 0.000000e+00 0.000000e+00 0.000000e+00 0.000000e+00 0.000000e+00 0.000000e+00
<ENDHMM>
~h "j"
<BEGINHMM>
<NUMSTATES> 5
<STATE> 2
<NUMMIXES> 2
<MIXTURE> 1 6.241312e-01
<MEAN> 39
 2.676661e+00 1.944528e+01 1.765092e+01 1.789358e+01 1.462571e+01 1.351255e+01 4.535413e+00 7.508471e+00 -5.492041e-01 -4.532318e+00 -4.564515e+00 -5.716082e+00 -3.715719e+00 -2.228017e-01 -1.832070e-01 6.680715e-02 1.533783e-01 -7.689790e-03 1.464936e-01 2.536056e-01 2.500786e-01 3.370676e-01 2.378486e-01 -4.728783e-02 6.079791e-02 1.964616e-01 -1.286706e-01 -3.496192e-01 -5.210108e-02 1.158092e-01 -5.341187e-02 -7.501472e-02 -6.929064e-02 2.466828e-02 1.376864e-01 6.844117e-02 2.909151e-02 1.063634e-01 1.817373e-01
<VARIANCE> 39
 9.755896e+00 4.980714e+00 1.035953e+01 7.737331e+00 3.924477e+00 6.973365e+00 7.914525e+00 1.254620e+01 1.334342e+01 1.220647e+01 9.431125e+00 7.725497e+00 5.439658e+00 7.567327e-01 9.167375e-01 1.155917e+00 1.051003e+00 5.430712e-01 5.516116e-01 5.911969e-01 5.676981e-01 7.731479e-01 9.693251e-01 7.997825e-01 6.809284e-01 7.353824e-01 5.776593e-02 2.028705e-01 2.293963e-01 2.068108e-01 9.484778e-02 8.441910e-02 9.430840e-02 8.928585e-02 1.228910e-01 1.235091e-01 1.321484e-01 1.068151e-01 1.329189e-01
<GCONST> 6.768984e+01
<MIXTURE> 2 3.758696e-01
<MEAN> 39
 -1.185693e+01 6.364147e+00 7.680633e+00 9.726345e+00 7.675204e+00 9.187303e+00 2.243040e+00 6.503507e+00 1.009382e+00 -2.562063e-01 9.497936e-01 -1.213550e+00 1.343578e-03 1.326102e+00 1.926580e+00 1.769898e+00 1.073630e+00 7.201019e-01 9.133641e-01 7.077409e-01 1.457737e-01 7.139470e-02 -1.073085e-02 -5.041152e-01 -4.175613e-01 -2.433256e-01 5.021789e-02 -1.591630e-01 4.225958e-03 3.418568e-03 -5.880247e-02 -5.162491e-02 -1.070092e-01 -6.531242e-02 -1.465816e-01 -1.735555e-01 -2.473376e-02 -7.175457e-02 -8.736848e-02
<VARIANCE> 39
 1.353376e+02 7.603335e+01 6.607659e+01 6.889571e+01 5.646831e+01 3.243885e+01 2.338249e+01 1.968219e+01 1.758415e+01 2.434204e+01 1.503529e+01 1.115845e+01 9.116543e+00 3.685405e+00 1.695133e+00 2.393266e+00 2.600185e+00 3.158885e+00 1.885195e+00 2.140563e+00 1.614223e+00 1.691562e+00 2.035903e+00 1.496767e+00 1.172162e+00 1.010434e+00 2.248515e-01 3.737579e-01 3.236190e-01 3.930383e-01 3.932733e-01 2.760921e-01 2.881499e-01 2.529049e-01 2.457774e-01 2.279110e-01 2.787323e-01 1.789834e-01 1.528142e-01
<GCONST> 1.077335e+02
<STATE> 3
<NUMMIXES> 2
<MIXTURE> 1 4.594162e-01
<MEAN> 39
 -2.224399e+00 4.508719e+00 1.957724e+01 2.425510e+01 1.161276e+01 1.465640e+01 4.742235e+00 8.936429e+00 6.021719e+00 -1.876175e+00 -4.624353e+00 -2.024858e+00 3.218637e+00 -1.544128e+00 -5.146152e+00 1.211275e+00 9.706237e-01 -1.478347e+00 1.102238e+00 -2.468922e-01 2.065788e-01 1.592633e+00 -6.305164e-02 7.119972e-01 1.095610e+00 8.111068e-01 -7.930771e-02 -9.813681e-01 1.114984e-01 -3.308786e-01 -3.355451e-01 5.472745e-02 -3.086606e-01 1.254693e-01 -6.179314e-02 -4.733337e-01 5.250480e-01 3.376714e-01 -3.484372e-01
<VARIANCE> 39
 1.831986e+01 7.769584e+01 2.682439e+01 2.226700e+01 2.803725e+01 2.056024e+01 1.974257e+01 2.068317e+01 4.476801e+01 2.922255e+01 2.639585e+01 2.032185e+01 1.969380e+01 6.438054e-01 4.369519e+00 2.947857e+00 2.097300e+00 2.084797e+00 2.071863e+00 2.173085e+00 1.527516e+00 1.689530e+00 2.425779e+00 2.937245e+00 1.944242e+00 2.138856e+00 7.064675e-02 4.467720e-01 2.292389e-01 4.358718e-01 2.548746e-01 3.784993e-01 2.602850e-01 2.396087e-01 2.900564e-01 3.288569e-01 3.207656e-01 2.579677e-01 2.885374e-01
<GCONST> 1.066161e+02
<MIXTURE> 2 5.405838e-01
<MEAN> 39
 -9.993134e+00 -2.843196e+01 2.843465e+01 2.154285e+01 -7.823257e-01 1.867735e+01 -1.960990e+00 1.016990e+01 1.054201e+01 -7.383146e+00 4.195321e+00 5.610400e+00 2.288196e+00 -3.853678e-01 -3.968643e+00 2.140275e+00 -4.602965e-01 -1.325262e+00 6.909832e-01 -1.913169e+00 -4.207292e-01 -1.609693e-01 -9.346026e-01 1.202910e+00 2.450151e-01 -6.632998e-01 5.744781e-01 1.149861e+00 -2.976438e-01 1.972588e-01 7.448168e-01 -1.148415e-02 -1.345910e-01 -4.550352e-01 -4.087587e-01 1.379119e-01 -4.383473e-01 -4.990549e-01 -3.587479e-02
<VARIANCE> 39
 2.237695e+01 1.026400e+02 8.195661e+01 5.382053e+01 5.706268e+01 4.359434e+01 6.425489e+01 3.329413e+01 7.562761e+01 3.320446e+01 3.666647e+01 2.628028e+01 2.247753e+01 2.306079e+00 6.587864e+00 4.147417e+00 4.148688e+00 6.763346e+00 4.186035e+00 3.185987e+00 2.543644e+00 2.736166e+00 2.755019e+00 2.124698e+00 3.391711e+00 1.306586e+00 2.204186e-01 5.361897e-01 1.180299e+00 6.999596e-01 8.541603e-01 8.168833e-01 6.604006e-01 3.820313e-01 3.989560e-01 4.362552e-01 3.431354e-01 4.204949e-01 2.316339e-01
<GCONST> 1.271609e+02
<STATE> 4
<NUMMIXES> 2
<MIXTURE> 1 3.484800e-01
<MEAN> 39
 -7.061633e+00 -3.419002e+01 3.141132e+01 2.151571e+01 2.361656e+00 2.311571e+01 -7.628185e+00 4.496292e+00 5.974891e+00 -8.619528e+00 5.798221e+00 3.080243e+00 -5.566092e-01 2.294211e+00 2.213025e+00 -1.672966e+00 2.487497e-01 1.872868e+00 8.371507e-02 -5.703438e-01 -2.362267e+00 -1.447149e+00 -4.005260e-01 -1.265120e+00 -8.139554e-01 -5.272713e-01 4.299617e-01 7.635801e-01 -1.022457e+00 -2.400256e-01 1.097287e-01 -5.596704e-01 6.929956e-02 -2.040195e-01 -6.606312e-02 -5.207765e-02 -3.673838e-01 1.150850e-01 7.904159e-02
<VARIANCE> 39
 2.618239e+01 6.064219e+01 1.149204e+02 6.518575e+01 3.872498e+01 3.794382e+01 5.262823e+01 3.889505e+01 6.164322e+01 3.085069e+01 3.160143e+01 3.033925e+01 2.698506e+01 2.103043e+00 2.942371e+00 2.394758e+00 1.499048e+00 1.466670e+00 3.211276e+00 3.446913e+00 3.534711e+00 2.497681e+00 1.388610e+00 1.539706e+00 1.314055e+00 1.184583e+00 2.726993e-01 5.208504e-01 7.887470e-01 2.515466e-01 3.636165e-01 3.781529e-01 3.991257e-01 4.195305e-01 3.068393e-01 2.798324e-01 2.862456e-01 2.391568e-01 1.627936e-01
<GCONST> 1.155730e+02
<MIXTURE> 2 6.515200e-01
<MEAN> 39
 9.254393e+00 -2.214846e+01 1.811937e+01 2.314925e+01 1.181130e+01 1.717830e+01 -1.601708e+01 -4.005729e+00 7.439695e-01 -1.511569e+01 -1.127995e+00 1.348324e-01 -3.939968e+00 2.713030e+00 2.084541e+00 -4.433266e+00 -5.175896e-01 2.069908e+00 -2.676275e+00 -1.487244e+00 5.611924e-01 -8.454079e-01 -1.393969e+00 -3.768426e-01 -2.483522e-02 -3.366876e-01 -3.149868e-01 -8.685062e-02 -3.244008e-02 -1.062895e-01 -7.948811e-02 -4.513477e-01 4.268939e-02 9.231424e-01 2.015309e-01 -1.235626e-01 3.891337e-01 9.997718e-02 1.733852e-02
<VARIANCE> 39
 3.931628e+01 2.989241e+01 1.079642e+02 3.693160e+01 3.572436e+01 6.077014e+01 3.348716e+01 2.948073e+01 3.453449e+01 2.269208e+01 3.156186e+01 1.323770e+01 1.518625e+01 1.540921e+00 1.019307e+00 2.661098e+00 9.290432e-01 1.671744e+00 3.153761e+00 2.067054e+00 6.940714e+00 1.380262e+00 1.533993e+00 1.872961e+00 1.428101e+00 7.221698e-01 1.568400e-01 1.446264e-01 5.068979e-01 1.209707e-01 1.907566e-01 3.349374e-01 2.321847e-01 4.418270e-01 2.122831e-01 2.301395e-01 2.054420e-01 1.878128e-01 1.044376e-01
<GCONST> 1.039873e+02
<TRANSP> 5
 0.000000e+00 1.000000e+00 0.000000e+00 0.000000e+00 0.000000e+00
 0.000000e+00 9.128873e-01 8.711270e-02 0.000000e+00 0.000000e+00
 0.000000e+00 0.000000e+00 9.049233e-01 9.507672e-02 0.000000e+00
 0.000000e+00 0.000000e+00 0.000000e+00 8.838074e-01 1.161926e-01
 0.000000e+00 0.000000e+00 0.000000e+00 0.000000e+00 0.000000e+00
<ENDHMM>
~h "k"
<BEGINHMM>
<NUMSTATES> 5
<STATE> 2
<NUMMIXES> 2
<MIXTURE> 1 4.729216e-01
<MEAN> 39
 -2.656948e+01 -6.390698e+00 -5.141284e+00 -2.899118e+00 -3.578595e+00 9.129865e-01 -3.429681e+00 1.113233e+00 -1.923523e+00 -8.772238e-01 7.169970e-01 -6.389747e-01 5.492343e-01 -7.565441e-03 -5.869510e-02 -6.585802e-02 -1.835219e-02 -5.526764e-04 -4.476788e-02 -5.089705e-02 -9.354670e-05 2.278428e-02 -6.056827e-03 -3.364482e-02 -3.862635e-03 2.607079e-02 9.815436e-02 6.592490e-03 3.199487e-02 8.818068e-02 1.030459e-01 7.397016e-02 4.867765e-02 6.659925e-02 2.285432e-02 -1.876179e-02 1.015585e-03 3.886875e-02 6.218720e-02
<VARIANCE> 39
 5.895686e-01 1.527349e+00 2.086985e+00 2.815127e+00 3.926149e+00 5.795598e+00 6.223341e+00 6.627483e+00 9.860877e+00 8.621510e+00 6.696503e+00 8.056137e+00 6.093950e+00 1.149846e-01 2.297725e-01 3.266037e-01 4.776376e-01 6.720631e-01 8.218346e-01 9.763616e-01 9.915278e-01 1.196328e+00 1.096922e+00 9.931716e-01 9.993515e-01 8.807566e-01 5.968771e-02 7.046641e-02 9.370024e-02 1.341574e-01 1.858138e-01 2.140051e-01 2.384172e-01 2.405286e-01 2.625796e-01 2.420605e-01 2.282991e-01 2.240343e-01 2.109070e-01
<GCONST> 6.122903e+01
<MIXTURE> 2 5.270777e-01
<MEAN> 39
 -8.960970e+00 7.181359e+00 8.167924e+00 1.199074e+01 1.113876e+01 1.096758e+01 1.148872e+00 4.438851e+00 -2.367075e+00 -3.435970e+00 4.912092e-02 -3.854291e-01 1.247181e+00 -2.690222e+00 -1.317276e+00 -9.227556e-01 -1.341391e+00 -1.166416e+00 -1.131030e-01 5.157798e-01 1.081257e-01 2.175924e-01 3.505977e-01 -7.395038e-02 2.430383e-01 5.375380e-01 1.583061e-01 -6.685832e-01 -6.477971e-01 -2.509694e-01 -1.413137e-01 -3.375936e-01 -3.056768e-01 8.888222e-02 5.073415e-03 -1.355621e-01 8.454730e-02 -4.415309e-02 -9.030955e-02
<VARIANCE> 39
 6.427379e+01 4.956615e+01 3.566773e+01 3.852747e+01 3.479200e+01 2.892952e+01 3.210731e+01 3.198006e+01 4.788443e+01 3.991077e+01 2.881486e+01 4.005889e+01 3.773042e+01 7.092754e-01 4.018634e+00 3.744915e+00 2.269272e+00 2.391289e+00 2.735372e+00 2.550843e+00 2.239005e+00 2.440844e+00 2.130929e+00 1.721282e+00 1.560686e+00 1.920643e+00 1.264344e-01 2.554687e-01 3.349533e-01 2.871354e-01 3.354516e-01 3.299000e-01 3.093996e-01 3.384097e-01 3.935880e-01 3.595113e-01 3.434148e-01 2.894180e-01 3.013394e-01
<GCONST> 1.134567e+02
<STATE> 3
<NUMMIXES> 2
<MIXTURE> 1 6.280547e-01
<MEAN> 39
 -1.849052e+01 -6.904024e+00 -4.660577e+00 2.441440e+00 3.665120e+00 5.927286e+00 -6.090810e-01 6.240308e+00 4.021423e-02 -2.710747e+00 -1.257680e-01 5.980177e-01 4.652396e+00 9.865082e-01 -2.094329e+00 -2.193652e+00 -1.273260e+00 -1.105727e+00 -1.427983e+00 -1.125157e+00 3.719820e-01 -5.705158e-02 -4.554069e-01 1.464444e-01 -5.217533e-01 -6.730795e-02 8.372991e-01 6.670910e-02 2.553083e-01 2.312576e-02 -8.299223e-02 2.104646e-02 -1.919498e-01 -2.423324e-03 -3.843954e-01 -2.542753e-01 3.561358e-01 -3.071251e-01 -4.100839e-01
<VARIANCE> 39
 3.983696e+01 3.344933e+01 3.204603e+01 3.842918e+01 4.081701e+01 3.820047e+01 3.714493e+01 2.722764e+01 2.526106e+01 2.411238e+01 2.490281e+01 2.297216e+01 1.983100e+01 6.200411e+00 4.825266e+00 4.477540e+00 5.175255e+00 5.241763e+00 4.311003e+00 3.643656e+00 3.736360e+00 3.235619e+00 3.081295e+00 3.782649e+00 3.000474e+00 3.603212e+00 2.773167e-01 3.705969e-01 4.107561e-01 4.925780e-01 5.808707e-01 6.418893e-01 6.060144e-01 5.830406e-01 7.141643e-01 5.539272e-01 6.202163e-01 4.115824e-01 6.174873e-01
<GCONST> 1.256136e+02
<MIXTURE> 2 3.719452e-01
<MEAN> 39
 -6.542661e+00 -1.619823e+01 -1.145213e+01 -1.854953e+00 7.720098e-02 2.430096e+00 -6.163960e+00 7.971210e+00 -5.462358e+00 -8.821443e+00 3.982451e+00 -5.284544e+00 -2.790194e-01 3.065706e+00 -1.876549e+00 -5.054866e-01 -8.956861e-01 -4.932176e-01 4.990435e-01 -5.719858e-01 6.730812e-01 -2.718215e+00 -2.310601e+00 2.543093e+00 -8.313963e-01 -1.458982e+00 -1.669955e-01 5.741135e-01 8.885622e-01 7.196311e-01 5.499513e-01 4.515003e-01 3.158136e-01 1.793537e-02 -2.415559e-02 -4.502122e-02 -4.496749e-02 3.357754e-01 2.726485e-01
<VARIANCE> 39
 7.568723e+01 6.065945e+01 3.520516e+01 9.370478e+01 6.966553e+01 8.425407e+01 7.527978e+01 6.841267e+01 6.028960e+01 6.407542e+01 6.793642e+01 3.705404e+01 2.972137e+01 2.361078e+00 2.482087e+00 2.977545e+00 5.048368e+00 3.418631e+00 4.076713e+00 3.764895e+00 4.070368e+00 5.771502e+00 4.616061e+00 4.513395e+00 2.294590e+00 2.813414e+00 5.094600e-01 3.630108e-01 4.135588e-01 6.120847e-01 4.578350e-01 6.739807e-01 5.693926e-01 6.367272e-01 1.171507e+00 9.554003e-01 9.490433e-01 3.107045e-01 4.744301e-01
<GCONST> 1.343074e+02
<STATE> 4
<NUMMIXES> 2
<MIXTURE> 1 6.644555e-01
<MEAN> 39
 -1.774135e+00 -1.425589e+01 2.086186e+00 1.192185e+01 5.431421e+00 4.563277e+00 -5.701813e+00 9.031577e+00 -5.436234e+00 -8.934184e+00 7.536739e+00 -3.743951e+00 -3.995272e-01 1.299694e+00 1.528429e+00 2.321797e+00 2.943306e+00 1.860084e+00 -1.907791e-01 -4.854752e-01 -3.212094e-04 1.158647e+00 4.496182e-01 -1.112617e-01 5.947374e-01 -3.808879e-01 3.085568e-01 -3.281119e-02 -4.738251e-01 -1.842425e-01 3.043375e-01 -2.543755e-01 -5.795680e-01 -1.068223e-01 -2.244214e-01 -4.752288e-01 3.638534e-02 1.845205e-02 -4.087395e-01
<VARIANCE> 39
 1.169963e+02 1.365015e+02 8.854639e+01 1.853803e+02 8.807511e+01 7.949895e+01 6.098072e+01 7.339236e+01 5.589073e+01 4.792474e+01 4.367889e+01 3.894359e+01 2.621826e+01 3.271697e+00 3.403129e+00 4.908425e+00 6.081763e+00 5.761685e+00 5.929401e+00 5.542638e+00 4.635042e+00 4.193161e+00 4.342674e+00 3.304106e+00 2.518665e+00 2.917623e+00 2.455701e-01 4.794863e-01 5.903789e-01 6.454614e-01 5.884860e-01 5.923175e-01 6.845822e-01 5.648762e-01 6.641842e-01 7.566963e-01 4.423652e-01 3.205437e-01 3.872038e-01
<GCONST> 1.368974e+02
<MIXTURE> 2 3.355443e-01
<MEAN> 39
 2.042881e+00 -2.027993e+01 -9.815010e+00 -1.039535e+00 3.160611e+00 7.217421e+00 -7.772581e+00 8.604284e+00 -1.537333e+01 -1.684886e+01 1.125318e+01 -6.629797e+00 -3.411970e+00 1.164712e+00 6.678668e-01 2.469799e+00 2.085286e+00 7.199953e-01 2.259778e-01 -4.802744e-02 -8.633286e-03 -1.694443e-01 2.820827e-04 3.767727e-01 1.974938e-01 2.867786e-01 -6.266606e-01 9.197798e-01 9.273939e-01 1.236387e+00 4.935485e-01 -4.022155e-01 1.294160e-01 -1.050633e-01 1.545971e+00 1.251725e+00 -8.009533e-01 4.360092e-01 4.434021e-01
<VARIANCE> 39
 5.980074e+01 8.193510e+01 8.935434e+01 1.915145e+02 1.323725e+02 1.165370e+02 1.125914e+02 1.227420e+02 7.312749e+01 7.319324e+01 8.473324e+01 6.814511e+01 4.806106e+01 1.921234e+00 3.299310e+00 3.482549e+00 3.552971e+00 3.019072e+00 3.068229e+00 2.975580e+00 2.845555e+00 5.601761e+00 4.751720e+00 3.231066e+00 1.698152e+00 1.700771e+00 1.940666e-01 4.195702e-01 6.208795e-01 9.642590e-01 8.846377e-01 1.027411e+00 9.913862e-01 9.608981e-01 7.894607e-01 7.254826e-01 9.353215e-01 4.984370e-01 5.167316e-01
<GCONST> 1.393120e+02
<TRANSP> 5
 0.000000e+00 1.000000e+00 0.000000e+00 0.000000e+00 0.000000e+00
 0.000000e+00 8.823493e-01 1.176508e-01 0.000000e+00 0.000000e+00
 0.000000e+00 0.000000e+00 8.545881e-01 1.454119e-01 0.000000e+00
 0.000000e+00 0.000000e+00 0.000000e+00 7.816633e-01 2.183367e-01
 0.000000e+00 0.000000e+00 0.000000e+00 0.000000e+00 0.000000e+00
<ENDHMM>
~h "l"
<BEGINHMM>
<NUMSTATES> 5
<STATE> 2
<NUMMIXES> 2
<MIXTURE> 1 6.573641e-01
<MEAN> 39
 1.267966e+01 -7.627198e+00 5.354161e+00 3.218861e+01 2.374904e+01 -4.288586e+00 -1.154492e+01 1.575396e+01 -9.148751e+00 -2.672050e+01 1.080686e-02 -6.215631e-01 -7.015902e+00 -9.007666e-02 7.164102e-02 2.412736e-01 4.416316e-01 8.872595e-02 -1.093820e-01 1.299382e-01 2.145696e-01 -1.165880e-02 -1.578459e-01 -1.335410e-01 -5.936073e-02 -1.222575e-01 1.796706e-02 -1.162537e-02 -9.878606e-02 -2.513762e-01 -2.307859e-02 1.320983e-01 -1.416446e-01 -2.240641e-01 6.095232e-02 2.581940e-01 1.600796e-01 -2.229331e-02 -1.076012e-02
<VARIANCE> 39
 1.878207e+01 3.045989e+01 4.106132e+01 8.293736e+01 6.920157e+01 3.910743e+01 1.623807e+02 9.432299e+01 3.790248e+01 8.987150e+01 1.098113e+02 2.914699e+01 4.307435e+01 6.212651e-01 7.827370e-01 1.136577e+00 2.383050e+00 1.313627e+00 1.770325e+00 2.505022e+00 3.540703e+00 1.437036e+00 3.995776e+00 2.690931e+00 1.032863e+00 9.894958e-01 7.920444e-02 1.114597e-01 1.480844e-01 2.642534e-01 2.021107e-01 2.221346e-01 3.646071e-01 4.339619e-01 2.273325e-01 4.412736e-01 3.491552e-01 1.654801e-01 1.529365e-01
<GCONST> 1.097825e+02
<MIXTURE> 2 3.426341e-01
<MEAN> 39
 1.203374e+01 -1.039374e+01 6.807721e+00 3.545182e+01 2.841610e+01 -2.673975e+00 -1.669857e+01 1.250894e+01 -6.574037e+00 -2.355696e+01 1.829877e+00 -1.539892e+00 -1.025851e+01 -9.299198e-02 1.196450e-01 2.198632e-02 -1.375581e-01 -7.492525e-02 4.457417e-02 -6.762818e-03 -1.609354e-01 7.010034e-02 2.315819e-01 8.125977e-02 1.051627e-01 -6.804862e-03 1.187109e-02 7.631752e-03 -2.024591e-02 -5.598614e-02 6.338627e-03 7.373305e-02 -5.996220e-03 -6.162676e-02 -6.813478e-02 2.066089e-02 5.545712e-02 -7.812986e-03 8.661735e-03
<VARIANCE> 39
 9.657187e+00 2.538972e+01 3.001855e+01 6.150249e+01 4.765072e+01 3.171636e+01 1.880061e+02 6.500061e+01 2.784379e+01 5.661080e+01 7.717567e+01 2.260624e+01 4.602986e+01 2.248951e-01 2.913739e-01 4.655262e-01 7.262216e-01 6.213976e-01 6.871560e-01 9.839499e-01 1.042765e+00 7.576893e-01 1.100375e+00 7.942553e-01 5.918483e-01 5.950798e-01 3.617537e-02 4.623087e-02 6.683046e-02 1.159416e-01 9.915348e-02 1.111842e-01 1.482733e-01 1.586304e-01 1.186161e-01 1.669950e-01 1.390911e-01 9.179851e-02 9.011309e-02
<GCONST> 8.379697e+01
<STATE> 3
<NUMMIXES> 2
<MIXTURE> 1 9.173145e-01
<MEAN> 39
 1.025404e+00 1.888782e+00 4.956756e+00 1.831422e+01 1.501166e+01 3.966173e+00 -4.827719e+00 8.194330e+00 -3.137894e+00 -1.020185e+01 3.112378e-01 -1.432284e+00 -3.295950e+00 -1.163402e+00 -2.096708e-02 -3.872052e-01 -1.467372e+00 -1.053385e+00 4.809647e-01 5.989866e-01 -3.730552e-01 4.188122e-01 1.016476e+00 -1.439104e-01 -1.278007e-01 3.485647e-01 5.660448e-03 -1.454182e-01 -8.282408e-02 -6.528834e-02 -6.192792e-04 -8.402540e-02 -1.901560e-01 -4.656004e-02 -9.266493e-02 -7.599434e-02 1.561674e-01 5.459490e-02 -3.349090e-02
<VARIANCE> 39
 1.831938e+02 5.251804e+01 4.777599e+01 1.482168e+02 1.053234e+02 7.152798e+01 1.273418e+02 1.029405e+02 8.155582e+01 1.672723e+02 9.073588e+01 5.405005e+01 4.498616e+01 2.301832e+00 2.826328e+00 2.513307e+00 3.184642e+00 2.941705e+00 3.175593e+00 5.320523e+00 4.125574e+00 3.471539e+00 4.786023e+00 3.080670e+00 1.690135e+00 1.725674e+00 1.528887e-01 2.002678e-01 3.319119e-01 4.935683e-01 4.413046e-01 2.774707e-01 5.736868e-01 5.424913e-01 4.995105e-01 5.178264e-01 4.031731e-01 2.480514e-01 2.378508e-01
<GCONST> 1.305759e+02
<MIXTURE> 2 8.268531e-02
<MEAN> 39
 1.282633e+01 -6.853791e+00 7.034883e+00 3.722507e+01 2.720447e+01 -1.716763e+00 -1.527683e+01 1.272481e+00 -6.957684e+00 -1.297215e+01 1.626335e+00 -1.184623e+00 -9.532056e+00 1.333758e-01 -1.192168e-01 -3.568259e-01 -5.112224e-01 5.201443e-01 6.911985e-01 -6.970378e-01 -1.016600e+00 5.328696e-02 4.819796e-01 2.344768e-01 -8.912660e-02 -2.387309e-01 -1.593082e-03 6.648099e-03 1.849331e-02 -1.103824e-01 1.438862e-02 6.886704e-02 -3.839286e-02 1.892237e-01 1.609694e-03 -2.505089e-01 7.573301e-02 2.332788e-02 -1.267984e-01
<VARIANCE> 39
 3.680037e+00 4.907500e+01 9.800153e+00 6.422810e+01 2.008971e+01 1.650526e+01 2.782288e+01 3.614044e+01 1.012379e+01 2.382277e+01 1.918808e+01 1.161715e+01 1.409510e+01 2.142218e-01 2.896669e-01 3.719122e-01 9.959548e-01 7.261195e-01 8.208933e-01 6.189591e-01 1.239660e+00 6.416507e-01 9.537188e-01 8.224407e-01 5.342559e-01 7.769471e-01 3.454679e-02 5.517149e-02 5.403192e-02 1.267716e-01 1.152780e-01 9.501399e-02 1.135925e-01 1.543536e-01 8.076540e-02 1.605360e-01 1.313081e-01 8.094002e-02 1.228964e-01
<GCONST> 7.266238e+01
<STATE> 4
<NUMMIXES> 2
<MIXTURE> 1 8.449244e-01
<MEAN> 39
 -2.554400e+01 -9.358190e+00 -7.213793e+00 -1.784411e+00 -1.262793e+00 1.768630e+00 -3.343991e+00 1.013667e+00 -5.470083e+00 -3.984677e+00 2.818720e+00 3.146358e+00 1.088242e+00 -6.466080e-03 -3.073677e-02 -3.128283e-02 -1.454787e-02 1.592697e-03 -3.735446e-03 -2.511787e-03 -6.591243e-03 -3.468849e-02 -2.995165e-02 1.064514e-02 2.428484e-02 7.036720e-03 2.359543e-02 2.084832e-02 2.520332e-02 2.917464e-02 2.513130e-02 1.585464e-02 1.124434e-02 1.387034e-02 6.137521e-03 1.781713e-03 6.068918e-03 2.673839e-03 -1.516927e-03
<VARIANCE> 39
 1.950794e+00 1.566465e+01 9.340931e+00 7.944247e+00 1.414893e+01 9.938387e+00 7.954854e+00 9.823286e+00 2.636183e+01 2.320751e+01 1.501635e+01 2.726775e+01 6.972162e+00 9.966984e-02 3.052873e-01 4.021212e-01 4.995521e-01 7.119507e-01 9.282141e-01 8.850344e-01 1.095979e+00 1.502875e+00 1.299728e+00 1.145375e+00 1.267558e+00 8.237306e-01 2.815334e-02 5.732431e-02 8.695208e-02 1.146468e-01 1.534654e-01 1.933016e-01 1.913961e-01 2.372640e-01 3.054616e-01 2.600863e-01 2.419515e-01 2.494250e-01 1.739395e-01
<GCONST> 7.365119e+01
<MIXTURE> 2 1.550753e-01
<MEAN> 39
 1.206489e+01 -5.085213e+00 4.855278e+00 2.712531e+01 2.027315e+01 6.347749e-01 -8.185457e+00 1.011961e+01 -8.090077e+00 -1.868139e+01 1.395819e+00 -1.404857e+00 -5.892099e+00 8.038565e-01 -1.130947e+00 -1.538634e+00 -2.018793e+00 6.227244e-01 7.884038e-01 -2.739690e+00 -2.169353e+00 -7.189860e-01 9.704851e-01 2.772914e+00 1.325151e-01 -9.076117e-01 1.502559e-01 -2.831284e-01 -6.167266e-02 2.525221e-01 2.924239e-01 -3.486014e-01 -5.432386e-01 3.432035e-01 -6.118660e-02 -5.939047e-01 1.139214e-01 9.799719e-02 -1.833796e-01
<VARIANCE> 39
 2.181410e+01 3.556306e+01 3.920510e+01 8.992499e+01 3.879573e+01 4.698298e+01 5.326368e+01 5.260783e+01 3.726998e+01 6.387473e+01 5.673420e+01 2.130135e+01 2.659579e+01 1.302919e+00 1.798851e+00 2.575399e+00 3.241348e+00 1.741326e+00 1.910216e+00 3.526855e+00 2.884311e+00 2.203084e+00 3.560040e+00 3.312435e+00 1.476115e+00 1.682835e+00 8.583451e-02 1.646737e-01 2.216771e-01 3.222164e-01 1.947674e-01 2.505927e-01 3.310964e-01 4.843703e-01 3.134273e-01 3.611340e-01 4.143058e-01 2.199469e-01 1.683375e-01
<GCONST> 1.126563e+02
<TRANSP> 5
 0.000000e+00 1.000000e+00 0.000000e+00 0.000000e+00 0.000000e+00
 0.000000e+00 9.431216e-01 5.687838e-02 0.000000e+00 0.000000e+00
 0.000000e+00 0.000000e+00 7.933861e-01 2.066139e-01 0.000000e+00
 0.000000e+00 0.000000e+00 0.000000e+00 9.115729e-01 8.842713e-02
 0.000000e+00 0.000000e+00 0.000000e+00 0.000000e+00 0.000000e+00
<ENDHMM>
~h "m"
<BEGINHMM>
<NUMSTATES> 5
<STATE> 2
<NUMMIXES> 2
<MIXTURE> 1 3.561384e-01
<MEAN> 39
 1.538019e+01 5.934820e+00 2.317541e+00 1.570210e+01 1.115180e+01 -4.020633e+00 -5.897761e+00 1.514640e+01 3.127949e+00 -1.280652e+01 -5.414606e+00 -5.122072e+00 -8.893833e+00 -5.423558e-01 1.060962e+00 1.381809e+00 1.615772e+00 1.631585e+00 1.347290e+00 -1.549121e-01 -1.885861e+00 -5.099720e-01 8.689656e-01 -7.392386e-01 -1.561642e+00 -1.005550e+00 1.458899e-01 -3.609247e-01 -2.709668e-01 -1.570452e-01 -5.720899e-02 -2.748329e-01 -3.434879e-01 6.616443e-02 -1.535488e-01 -2.331552e-01 3.719023e-01 2.372906e-01 6.832501e-03
<VARIANCE> 39
 2.777212e+01 2.500968e+01 3.614202e+01 3.590202e+01 5.371183e+01 5.191572e+01 2.280153e+01 7.101025e+01 3.374767e+01 3.173569e+01 2.793764e+01 2.124587e+01 1.725697e+01 1.538865e+00 1.408763e+00 1.628083e+00 2.057782e+00 2.417436e+00 2.479613e+00 2.117480e+00 2.540836e+00 1.258888e+00 2.196948e+00 1.777281e+00 1.530125e+00 1.087240e+00 1.017925e-01 1.229742e-01 1.595567e-01 2.265592e-01 3.518811e-01 3.009395e-01 3.026799e-01 3.520945e-01 1.968626e-01 2.807959e-01 2.549594e-01 2.185211e-01 1.695013e-01
<GCONST> 1.047373e+02
<MIXTURE> 2 6.438612e-01
<MEAN> 39
 1.517739e+01 6.895063e+00 6.067542e+00 2.190366e+01 1.718730e+01 -1.909691e+00 -9.440001e+00 7.161154e+00 -1.061563e-01 -1.036877e+01 -4.936331e+00 -8.253339e+00 -1.217094e+01 -1.716350e-01 3.276028e-01 4.345611e-01 9.007511e-02 6.104441e-02 2.257710e-01 -1.835412e-01 -6.969436e-01 -2.802311e-01 3.291591e-01 1.514808e-01 -4.512841e-02 1.306507e-01 6.796827e-03 2.941222e-02 -3.824104e-02 -1.624005e-01 -1.593102e-01 -1.963531e-02 8.087000e-02 1.155573e-01 3.682999e-02 -4.735510e-02 -1.373405e-02 9.340500e-02 1.292698e-01
<VARIANCE> 39
 3.537017e+00 1.644028e+01 2.529807e+01 1.192020e+01 2.400093e+01 2.681200e+01 3.088407e+01 7.525763e+01 2.694390e+01 2.775008e+01 2.070480e+01 1.637841e+01 1.650933e+01 1.186269e-01 3.501506e-01 4.195525e-01 5.643790e-01 5.546986e-01 5.556760e-01 7.058603e-01 1.087164e+00 4.866674e-01 7.091239e-01 5.453495e-01 5.308089e-01 5.243997e-01 2.019063e-02 4.349900e-02 5.963122e-02 1.126867e-01 1.122108e-01 8.516600e-02 1.166046e-01 1.466784e-01 7.505753e-02 1.261754e-01 9.077064e-02 9.211328e-02 7.920045e-02
<GCONST> 6.916324e+01
<STATE> 3
<NUMMIXES> 2
<MIXTURE> 1 6.782817e-02
<MEAN> 39
 -2.568037e+01 -5.652041e+00 -4.510357e+00 -2.382468e+00 -3.597017e+00 6.593700e-01 -3.407284e+00 1.080383e+00 -2.018035e+00 -9.022043e-01 3.682295e-01 -1.148344e+00 8.092105e-02 -2.716048e-01 -3.752822e-01 -2.629424e-01 -2.072950e-02 5.909210e-02 4.772111e-02 6.344215e-02 1.536756e-01 2.008672e-01 1.528101e-01 1.477053e-01 1.726986e-01 2.051796e-01 2.817641e-01 1.461494e-01 1.368490e-01 1.361090e-01 1.000733e-01 4.699810e-03 -1.189557e-02 1.150668e-01 5.784785e-02 -7.122298e-02 -5.916348e-02 -1.718343e-02 2.126416e-02
<VARIANCE> 39
 6.506780e+00 6.178929e+00 6.325682e+00 7.639935e+00 1.060570e+01 1.113850e+01 8.827995e+00 1.070742e+01 1.376815e+01 1.193760e+01 9.589213e+00 8.439016e+00 8.216687e+00 1.843806e+00 1.294793e+00 1.378611e+00 1.447280e+00 1.692300e+00 1.601492e+00 1.452082e+00 2.030525e+00 2.205888e+00 1.676655e+00 1.428408e+00 1.400062e+00 1.305635e+00 1.738224e-01 1.306157e-01 1.869403e-01 2.123739e-01 2.729669e-01 2.560246e-01 2.812384e-01 3.755260e-01 4.091517e-01 2.903182e-01 2.748963e-01 2.395874e-01 2.230815e-01
<GCONST> 8.780721e+01
<MIXTURE> 2 9.321718e-01
<MEAN> 39
 1.169456e+01 1.329841e+01 1.126231e+01 1.944262e+01 1.568408e+01 4.081922e+00 -7.272318e+00 8.395003e-01 -3.616858e+00 -7.377684e+00 -4.720511e+00 -8.420721e+00 -8.831684e+00 -2.789892e-01 1.220760e-01 3.760020e-02 -4.014855e-01 -3.246502e-01 3.015298e-01 4.424070e-01 1.202527e-01 -8.275834e-02 -1.052873e-01 -1.056514e-01 1.763675e-01 2.500005e-01 -4.700152e-02 -1.988599e-01 -1.391724e-01 -1.099488e-01 -9.216452e-02 -5.123563e-02 5.980108e-02 2.575446e-01 4.528760e-02 -1.774957e-01 6.097890e-02 1.757473e-01 1.158181e-01
<VARIANCE> 39
 1.406696e+01 1.581355e+01 2.161084e+01 1.187522e+01 1.868260e+01 2.044975e+01 3.185234e+01 4.131269e+01 2.480155e+01 1.917837e+01 1.504916e+01 1.833163e+01 1.838014e+01 7.600276e-01 6.962059e-01 9.349757e-01 8.817682e-01 1.044302e+00 9.145635e-01 1.663967e+00 1.529462e+00 8.434952e-01 1.234611e+00 7.325161e-01 9.523305e-01 9.392852e-01 5.507208e-02 1.071236e-01 1.330536e-01 1.405831e-01 1.647465e-01 1.320190e-01 1.969332e-01 2.275346e-01 1.291309e-01 2.499594e-01 1.261020e-01 1.527509e-01 1.200017e-01
<GCONST> 8.458110e+01
<STATE> 4
<NUMMIXES> 2
<MIXTURE> 1 0.000000e+00
<MEAN> 39
 -3.465476e+01 1.675967e+01 -7.743439e+00 1.826633e+00 -1.155705e+00 1.236522e+01 -1.445375e+01 5.846484e+00 -1.598039e-01 2.253834e-01 -2.058068e+00 -9.824362e-02 3.765816e+00 -1.362455e-01 8.215038e-02 1.575990e-02 -2.231550e-02 5.907191e-02 6.852118e-02 -5.401044e-02 8.545254e-03 3.942942e-02 2.500927e-04 -6.214541e-04 1.159003e-02 3.031951e-02 2.616155e-01 -1.072249e-01 2.894851e-02 8.718687e-02 -5.242795e-02 -9.323000e-02 1.351443e-01 9.685402e-03 -5.067167e-02 2.049104e-02 2.124489e-02 -7.652363e-03 -4.976257e-02
<VARIANCE> 39
 4.483082e-01 6.496472e-01 1.372011e+00 1.126045e+00 1.920628e+00 1.941905e+00 2.517905e+00 2.499093e+00 2.399876e+00 2.720778e+00 3.064659e+00 2.732042e+00 2.229308e+00 1.086354e+00 3.270376e-01 2.173789e-01 2.914865e-01 3.910311e-01 4.624964e-01 5.924420e-01 3.902425e-01 4.446459e-01 4.080288e-01 4.378160e-01 3.926591e-01 3.533571e-01 2.683040e-01 8.656988e-02 6.370471e-02 7.948849e-02 7.781372e-02 1.027722e-01 1.615612e-01 9.150107e-02 9.617190e-02 9.459340e-02 9.706742e-02 8.784577e-02 8.113205e-02
<GCONST> 3.729400e+01
<MIXTURE> 2 1.000000e+00
<MEAN> 39
 1.459289e+01 6.456559e+00 3.441710e+00 1.548612e+01 1.349770e+01 2.981753e-01 -6.961273e+00 8.906503e+00 -2.036435e+00 -1.400351e+01 -3.937332e+00 -3.308152e+00 -7.272877e+00 6.560701e-01 -1.819603e+00 -1.632743e+00 -1.424984e+00 -9.165846e-01 -1.027283e+00 -5.353978e-01 2.019498e+00 -3.750364e-01 -2.480363e+00 1.248409e+00 2.067468e+00 8.492978e-01 6.829405e-02 -3.876478e-01 -9.897390e-02 6.592021e-02 1.225002e-01 -2.152736e-01 -4.532220e-01 1.476039e-01 -1.063055e-01 -2.315998e-01 5.049167e-01 2.045785e-01 -2.152700e-01
<VARIANCE> 39
 3.961192e+01 3.572572e+01 5.227947e+01 2.425917e+01 4.675212e+01 7.556368e+01 2.921895e+01 7.030837e+01 5.059341e+01 5.638596e+01 2.132905e+01 2.726074e+01 1.864181e+01 1.523594e+00 2.266295e+00 2.698539e+00 2.162674e+00 3.705983e+00 3.376678e+00 3.016174e+00 3.112597e+00 1.782733e+00 5.220311e+00 2.440139e+00 1.865046e+00 1.182198e+00 1.331384e-01 2.160027e-01 3.977935e-01 3.378221e-01 3.477419e-01 3.025229e-01 3.453099e-01 5.209652e-01 2.484564e-01 6.391026e-01 3.130990e-01 3.095237e-01 1.935297e-01
<GCONST> 1.154655e+02
<TRANSP> 5
 0.000000e+00 1.000000e+00 0.000000e+00 0.000000e+00 0.000000e+00
 0.000000e+00 9.077630e-01 9.223697e-02 0.000000e+00 0.000000e+00
 0.000000e+00 0.000000e+00 8.449113e-01 1.550887e-01 0.000000e+00
 0.000000e+00 0.000000e+00 0.000000e+00 6.445853e-01 3.554148e-01
 0.000000e+00 0.000000e+00 0.000000e+00 0.000000e+00 0.000000e+00
<ENDHMM>
~h "n"
<BEGINHMM>
<NUMSTATES> 5
<STATE> 2
<NUMMIXES> 2
<MIXTURE> 1 9.328727e-01
<MEAN> 39
 1.315819e+01 8.834680e+00 4.865913e+00 1.746638e+01 1.982454e+01 7.856307e+00 -8.506260e+00 -4.856288e-01 -6.027524e+00 -1.107841e+01 -4.707341e+00 -5.299008e+00 -2.833570e+00 4.269224e-02 1.235698e+00 1.007297e+00 9.566281e-01 6.701666e-01 4.255560e-02 -8.296226e-01 -1.931311e+00 -2.875836e-01 7.227091e-01 -9.847193e-01 -8.363169e-01 4.934695e-02 1.790627e-01 -5.441579e-01 -3.784228e-01 -1.680833e-01 5.024206e-02 -1.844465e-01 -4.006261e-01 1.573644e-01 -5.087486e-02 -1.712076e-01 5.232400e-01 2.179552e-01 -1.181600e-01
<VARIANCE> 39
 1.932093e+01 2.370704e+01 2.739397e+01 2.261345e+01 2.652702e+01 2.600415e+01 4.415038e+01 4.369161e+01 2.103976e+01 3.148508e+01 3.201850e+01 1.885687e+01 1.451370e+01 1.180839e+00 2.090368e+00 2.357296e+00 2.048495e+00 1.937770e+00 1.267508e+00 2.831041e+00 1.935050e+00 1.347907e+00 2.462574e+00 2.309122e+00 1.384807e+00 1.305267e+00 1.066060e-01 1.886014e-01 2.095735e-01 1.904614e-01 2.647308e-01 2.018713e-01 4.538034e-01 3.709321e-01 2.293695e-01 2.951005e-01 2.655270e-01 1.727103e-01 2.063816e-01
<GCONST> 1.024228e+02
<MIXTURE> 2 6.712726e-02
<MEAN> 39
 1.111451e+01 1.417146e+01 1.271602e+01 1.765956e+01 1.272138e+01 3.716209e+00 -4.090893e+00 3.643188e+00 -3.450843e+00 -9.457422e+00 -5.612311e+00 -6.888622e+00 -6.590904e+00 3.218342e-02 9.902111e-02 1.001661e-01 1.788798e-01 2.788889e-01 6.589413e-02 -4.071142e-01 -5.482048e-01 2.368519e-02 3.074142e-01 -6.269926e-02 -3.009118e-02 2.762625e-01 4.056635e-02 -8.429609e-02 -1.500006e-01 -5.862961e-02 6.490805e-02 5.233784e-02 -7.973784e-02 -2.002085e-02 2.197044e-02 -4.226346e-03 -5.032033e-03 -4.021716e-02 5.639916e-02
<VARIANCE> 39
 1.566105e+01 1.367074e+01 6.633414e+00 1.215171e+01 1.081956e+01 3.210715e+01 3.598743e+01 4.276006e+01 3.081633e+01 2.808330e+01 1.377697e+01 1.687315e+01 1.705912e+01 2.575027e-01 2.751973e-01 3.072159e-01 4.966350e-01 4.802347e-01 5.900285e-01 1.028604e+00 6.962915e-01 4.891004e-01 5.818549e-01 4.344894e-01 5.146037e-01 3.904239e-01 2.387621e-02 4.890403e-02 7.931111e-02 9.421158e-02 8.735725e-02 7.797130e-02 1.265859e-01 9.029203e-02 9.411552e-02 1.346044e-01 6.885384e-02 9.331598e-02 8.260629e-02
<GCONST> 6.683401e+01
<STATE> 3
<NUMMIXES> 2
<MIXTURE> 1 7.857440e-01
<MEAN> 39
 1.466491e+01 1.021458e+01 6.412404e+00 2.007438e+01 2.256730e+01 6.522783e+00 -1.438089e+01 -7.814260e+00 -6.461461e+00 -7.817533e+00 -5.299739e+00 -7.112908e+00 -3.007587e+00 1.816962e-03 1.021375e-02 4.115998e-02 -9.985810e-03 -1.744124e-02 -3.159435e-02 -7.866286e-02 -9.248872e-02 1.869914e-02 8.823475e-02 1.874166e-02 -6.011658e-02 -1.905750e-02 -2.825699e-02 -8.132801e-02 -3.220569e-02 -9.583475e-02 -1.183719e-01 -4.021572e-03 1.609522e-01 3.003255e-01 1.136867e-02 -1.689183e-01 7.122749e-02 7.719722e-02 -4.967279e-02
<VARIANCE> 39
 3.066495e+00 1.033564e+01 1.766177e+01 1.164789e+01 2.047976e+01 2.484350e+01 2.156727e+01 2.794795e+01 1.665593e+01 2.971955e+01 1.711721e+01 1.583794e+01 1.246304e+01 1.375246e-01 4.374427e-01 4.605917e-01 5.460054e-01 9.777705e-01 5.506276e-01 1.231564e+00 1.021151e+00 5.927886e-01 1.153381e+00 5.880739e-01 6.519198e-01 4.799601e-01 2.123695e-02 6.668081e-02 7.031181e-02 1.071498e-01 1.696978e-01 9.421556e-02 1.862666e-01 1.661150e-01 1.077016e-01 2.066471e-01 1.047114e-01 1.063473e-01 8.343459e-02
<GCONST> 7.092297e+01
<MIXTURE> 2 2.142562e-01
<MEAN> 39
 1.269418e+01 1.133806e+01 6.899734e+00 1.598346e+01 1.661526e+01 7.227659e+00 -6.116536e+00 5.911034e-01 -5.991417e+00 -1.182405e+01 -7.649397e+00 -7.993489e+00 -4.483627e+00 -2.940159e-01 -9.932206e-02 4.687855e-03 -4.918317e-01 -5.731865e-01 2.124053e-01 7.908440e-01 9.319056e-01 -1.665127e-01 -7.076121e-01 3.731322e-02 4.309374e-01 2.138580e-01 -6.372799e-02 -2.207873e-01 -5.900729e-02 -5.508481e-02 -7.975445e-03 -7.497364e-02 -2.086895e-01 9.479441e-02 1.459208e-02 -1.849393e-02 3.564477e-01 2.249764e-01 -4.432747e-03
<VARIANCE> 39
 2.502222e+01 1.878994e+01 3.207550e+01 3.016452e+01 3.108022e+01 2.076991e+01 4.286776e+01 5.224780e+01 2.209525e+01 4.165035e+01 2.407921e+01 1.826725e+01 1.737704e+01 1.510790e+00 1.476891e+00 3.187254e+00 2.732661e+00 1.820367e+00 1.643956e+00 3.943479e+00 4.551102e+00 1.475065e+00 4.193731e+00 1.773000e+00 1.336258e+00 9.933660e-01 1.367417e-01 2.740969e-01 5.468246e-01 4.743514e-01 2.623271e-01 2.464945e-01 5.049486e-01 8.047968e-01 2.721779e-01 7.585160e-01 3.049215e-01 2.360111e-01 1.695402e-01
<GCONST> 1.100280e+02
<STATE> 4
<NUMMIXES> 2
<MIXTURE> 1 5.940655e-01
<MEAN> 39
 1.545471e+01 2.886757e+00 1.788304e+00 1.695247e+01 2.131467e+01 5.352181e+00 -1.332912e+01 2.256403e+00 -8.345663e+00 -1.601828e+01 2.005286e+00 -1.689992e+00 -4.755225e+00 5.761465e-01 -2.747472e+00 -1.386127e+00 -9.876429e-01 -4.930078e-01 -1.146938e+00 -8.654330e-01 3.159565e+00 -4.453013e-01 -2.473000e+00 3.112961e+00 1.581603e+00 -1.195001e+00 8.107579e-02 -3.555059e-01 -1.108708e-01 -7.808643e-02 7.664505e-02 -1.613968e-01 -4.324705e-01 2.014303e-01 -2.198311e-02 -1.473769e-01 4.642951e-01 6.926617e-02 -2.136554e-01
<VARIANCE> 39
 1.963637e+01 3.324771e+01 4.033091e+01 3.982527e+01 3.370238e+01 2.124845e+01 3.823227e+01 6.558778e+01 2.843381e+01 4.317231e+01 6.979889e+01 2.353322e+01 2.232982e+01 9.778439e-01 2.198872e+00 2.737381e+00 2.898685e+00 2.086545e+00 1.760268e+00 2.953990e+00 3.351097e+00 1.875523e+00 3.345162e+00 3.443912e+00 1.705234e+00 2.018018e+00 7.946790e-02 3.238771e-01 2.576547e-01 2.341815e-01 2.502638e-01 1.965794e-01 3.633929e-01 5.235556e-01 3.336304e-01 5.753607e-01 5.005960e-01 2.965032e-01 2.395782e-01
<GCONST> 1.121770e+02
<MIXTURE> 2 4.059343e-01
<MEAN> 39
 9.829310e+00 1.645641e+01 1.401121e+01 1.749170e+01 1.393351e+01 6.736357e+00 -5.138371e+00 -1.682867e+00 -5.999403e+00 -7.828055e+00 -5.937556e+00 -7.433622e+00 -4.597817e+00 -9.116757e-01 3.997051e-01 3.869314e-01 -3.199842e-01 -4.149975e-01 4.850753e-01 8.948537e-01 5.917460e-01 1.167004e-01 2.500960e-01 2.940766e-01 2.368290e-01 3.538527e-03 -1.274135e-01 -1.247223e-01 -7.268180e-02 1.330999e-02 8.417988e-02 2.956308e-02 -4.402322e-02 4.497349e-02 5.896481e-02 -1.044608e-02 1.622177e-02 3.158341e-02 5.473965e-02
<VARIANCE> 39
 1.244582e+01 6.612464e+00 5.169038e+00 7.235713e+00 9.238347e+00 1.151714e+01 2.360269e+01 1.706549e+01 8.783472e+00 1.175347e+01 6.107631e+00 8.606034e+00 6.331944e+00 6.754546e-01 4.457939e-01 4.006411e-01 5.774402e-01 6.382259e-01 4.518954e-01 1.036669e+00 6.633725e-01 7.059251e-01 9.789567e-01 4.547274e-01 5.792819e-01 4.820535e-01 3.047631e-02 8.137447e-02 6.567049e-02 9.263650e-02 9.057665e-02 6.447776e-02 1.281201e-01 9.055065e-02 1.044289e-01 1.285124e-01 6.849284e-02 8.851998e-02 7.240353e-02
<GCONST> 6.136108e+01
<TRANSP> 5
 0.000000e+00 1.000000e+00 0.000000e+00 0.000000e+00 0.000000e+00
 0.000000e+00 7.354041e-01 2.645958e-01 0.000000e+00 0.000000e+00
 0.000000e+00 0.000000e+00 9.038026e-01 9.619738e-02 0.000000e+00
 0.000000e+00 0.000000e+00 0.000000e+00 7.668555e-01 2.331444e-01
 0.000000e+00 0.000000e+00 0.000000e+00 0.000000e+00 0.000000e+00
<ENDHMM>
~h "o"
<BEGINHMM>
<NUMSTATES> 7
<STATE> 2
<NUMMIXES> 2
<MIXTURE> 1 5.737524e-01
<MEAN> 39
 3.471755e+00 5.074487e+00 1.489606e+00 -3.106377e+00 -1.179617e+01 -9.587928e+00 -4.415762e+00 1.786511e+01 3.492146e+00 -5.573106e+00 6.972424e+00 -2.932416e-01 -3.340320e+00 2.563149e+00 7.699990e-01 5.996196e-01 1.124960e+00 4.939220e-01 -9.080330e-01 -5.788853e-01 8.047164e-01 1.994622e-01 -9.187648e-01 -1.151209e-01 -2.701784e-01 -8.862013e-01 -1.545750e-01 -4.542137e-02 1.281620e-01 6.239141e-01 6.503467e-01 1.406109e-01 -1.072141e-01 -2.894647e-01 -2.742320e-02 -1.301557e-01 -4.558745e-01 -3.384320e-02 4.463587e-03
<VARIANCE> 39
 6.323195e+01 7.036052e+01 5.187391e+01 1.058404e+02 1.265630e+02 7.811368e+01 7.314374e+01 7.476963e+01 4.898664e+01 5.823847e+01 4.998601e+01 3.009801e+01 3.684969e+01 2.383621e+00 2.198232e+00 2.129965e+00 1.060702e+01 1.338555e+01 7.451817e+00 4.688033e+00 5.287653e+00 2.791830e+00 4.162580e+00 5.180258e+00 2.011545e+00 2.367191e+00 3.181929e-01 4.047690e-01 3.256463e-01 1.173086e+00 1.675881e+00 1.472840e+00 9.078873e-01 7.525804e-01 6.526708e-01 7.675549e-01 7.622665e-01 3.517318e-01 4.110771e-01
<GCONST> 1.382328e+02
<MIXTURE> 2 4.262479e-01
<MEAN> 39
 1.558849e+01 5.245740e+00 6.077090e+00 1.255767e+01 2.038106e+00 -9.716733e+00 -9.275023e+00 1.653391e+01 2.303404e+00 -1.339071e+01 2.433303e-02 -1.849798e+00 -5.710795e+00 1.792990e+00 1.929024e-01 -2.503259e-01 1.130128e+00 4.152610e-01 -3.400640e+00 -2.610508e+00 1.502188e+00 6.512420e-01 -2.401472e+00 -1.049370e+00 -1.138954e-01 -1.266046e+00 -3.422070e-01 -3.506528e-01 -2.309354e-01 -4.835393e-01 -3.418180e-01 -8.023264e-02 -9.448481e-02 3.115986e-01 2.424286e-01 1.124298e-01 2.919008e-01 -1.459123e-02 -4.661998e-02
<VARIANCE> 39
 1.755086e+01 9.999870e+01 3.170020e+01 3.693040e+01 5.867427e+01 7.568945e+01 4.620627e+01 4.717331e+01 4.695587e+01 6.641525e+01 3.245130e+01 3.285437e+01 2.660917e+01 8.593210e-01 2.138526e+00 1.575409e+00 2.892719e+00 2.112321e+00 2.002657e+00 2.554585e+00 3.105857e+00 2.738063e+00 2.649440e+00 3.430133e+00 1.175061e+00 9.887331e-01 1.277028e-01 1.660693e-01 2.682885e-01 4.203768e-01 4.788004e-01 6.530257e-01 3.901877e-01 4.285328e-01 3.098393e-01 3.908555e-01 3.605487e-01 1.652786e-01 1.529590e-01
<GCONST> 1.138037e+02
<STATE> 3
<NUMMIXES> 2
<MIXTURE> 1 1.000000e+00
<MEAN> 39
 1.953969e+01 -5.069686e-01 -3.499247e-01 1.036454e+01 7.603819e+00 -1.197404e+01 -1.782290e+01 2.071749e+01 4.673957e+00 -2.157956e+01 -2.354969e+00 -4.584800e+00 -8.944427e+00 2.397247e-01 2.393331e-01 7.351925e-02 -8.016871e-02 -5.376684e-01 -1.872297e+00 -9.923092e-01 1.288548e+00 1.052340e+00 -2.085253e-01 2.984344e-02 -1.933335e-01 -6.500754e-01 -2.187246e-01 -3.629337e-02 1.795727e-01 2.809229e-02 -1.179544e-01 3.401753e-01 2.992594e-01 -3.409723e-01 -2.460160e-02 3.944457e-01 4.853522e-02 6.824091e-02 1.629616e-01
<VARIANCE> 39
 2.342773e+01 5.236806e+01 4.664499e+01 5.071061e+01 6.281453e+01 7.138041e+01 5.110011e+01 6.224515e+01 3.421893e+01 6.278021e+01 4.737517e+01 2.529847e+01 1.994171e+01 6.145583e-01 1.100453e+00 8.958407e-01 1.118030e+00 1.117260e+00 1.091228e+00 2.075634e+00 2.005904e+00 9.766050e-01 2.090725e+00 1.169301e+00 7.508950e-01 6.282483e-01 1.076862e-01 7.467943e-02 1.388500e-01 1.715074e-01 1.534786e-01 2.073643e-01 2.796399e-01 2.926716e-01 1.413909e-01 2.758667e-01 2.473787e-01 1.089362e-01 9.474950e-02
<GCONST> 9.841377e+01
<MIXTURE> 2 0.000000e+00
<MEAN> 39
 2.053493e+01 -1.293648e+01 -2.003549e+01 5.413818e+00 3.407337e+00 -1.218152e+01 -8.150859e+00 1.543847e+01 -1.538217e-01 -7.834913e+00 1.010392e+01 5.555103e+00 -1.096917e-01 -1.596474e-01 -6.584548e-01 7.967833e-01 -5.153264e-01 5.315405e-01 2.146320e-01 8.254738e-02 1.298883e-01 -6.072966e-01 5.288538e-01 5.167323e-01 -3.581259e-01 4.330588e-01 1.113991e-01 -1.392816e-01 2.348052e-01 -2.920718e-01 2.698408e-01 4.800510e-02 -7.561634e-02 1.628003e-01 -1.398900e-01 -3.354345e-02 4.109193e-01 -1.860107e-01 -5.932641e-02
<VARIANCE> 39
 0.000000e+00 3.725290e-09 0.000000e+00 2.910383e-11 0.000000e+00 -4.656613e-10 0.000000e+00 0.000000e+00 0.000000e+00 0.000000e+00 0.000000e+00 0.000000e+00 0.000000e+00 0.000000e+00 0.000000e+00 0.000000e+00 0.000000e+00 0.000000e+00 9.094947e-13 0.000000e+00 0.000000e+00 0.000000e+00 -1.818989e-12 1.455192e-11 0.000000e+00 0.000000e+00 0.000000e+00 0.000000e+00 0.000000e+00 0.000000e+00 -4.547474e-13 0.000000e+00 -3.552714e-15 0.000000e+00 -1.818989e-12 0.000000e+00 0.000000e+00 0.000000e+00 0.000000e+00
<GCONST> -3.500002e+11
<STATE> 4
<NUMMIXES> 2
<MIXTURE> 1 8.777808e-02
<MEAN> 39
 1.640269e+01 2.406724e+00 2.690942e+00 9.595557e+00 9.963146e-01 -1.553034e+01 -1.369677e+01 2.138904e+01 5.490241e+00 -1.799233e+01 -1.003006e+00 -2.348247e+00 -9.040884e+00 3.276228e-01 -2.886661e-01 -4.419647e-01 -1.787734e-01 5.692277e-01 5.403570e-01 -1.299755e-01 1.720583e-02 -4.449805e-01 -5.402655e-01 1.863286e-01 -1.621221e-01 -1.463982e-01 -9.933010e-03 -3.123723e-02 5.077004e-03 6.897054e-02 1.718366e-01 1.618772e-01 -6.749757e-02 -4.923657e-02 -6.860060e-02 2.042879e-02 1.228674e-01 2.003394e-02 4.887541e-02
<VARIANCE> 39
 5.572441e+01 6.169119e+01 8.467920e+01 6.056446e+01 8.783409e+01 9.671799e+01 8.008555e+01 6.886877e+01 5.791380e+01 7.718419e+01 5.819641e+01 2.865996e+01 4.023265e+01 9.044392e-01 1.043131e+00 1.116411e+00 9.463299e-01 1.278832e+00 2.035139e+00 1.889405e+00 2.512168e+00 1.423865e+00 3.032898e+00 1.619509e+00 1.152688e+00 7.487974e-01 1.225849e-01 8.756942e-02 1.306255e-01 1.201824e-01 1.568923e-01 1.975282e-01 2.604038e-01 3.498868e-01 2.044341e-01 2.851310e-01 2.287159e-01 1.428674e-01 1.067169e-01
<GCONST> 1.067933e+02
<MIXTURE> 2 9.122216e-01
<MEAN> 39
 1.896139e+01 4.302861e+00 6.018229e+00 1.421701e+01 -1.457589e+00 -2.539268e+01 -1.910845e+01 2.396363e+01 9.440699e+00 -1.768232e+01 -1.144649e+00 -1.534602e+00 -1.086599e+01 -1.927112e-02 -3.069546e-02 3.536274e-02 5.334003e-02 -9.143295e-02 -1.575644e-01 1.828624e-03 5.153605e-02 -4.978340e-02 -1.093320e-02 9.935527e-02 1.567921e-03 -7.896718e-02 -2.607267e-02 3.340955e-02 -1.474442e-02 -4.275901e-02 4.522156e-02 1.956308e-01 1.205715e-01 -7.398606e-02 -1.040321e-01 2.726130e-02 2.058505e-02 -1.857661e-02 4.346512e-02
<VARIANCE> 39
 3.942117e+00 2.028703e+01 2.383352e+01 1.592208e+01 1.640765e+01 2.742219e+01 2.676538e+01 3.034664e+01 1.707696e+01 2.487178e+01 2.935763e+01 2.591150e+01 1.344293e+01 2.504294e-01 5.829992e-01 6.827685e-01 6.096792e-01 5.884259e-01 1.106784e+00 1.146582e+00 1.402154e+00 6.607437e-01 1.193587e+00 8.969708e-01 7.734714e-01 3.642400e-01 4.055970e-02 4.299125e-02 6.428795e-02 7.419928e-02 6.305607e-02 1.118564e-01 1.439084e-01 2.038179e-01 7.419738e-02 1.394787e-01 1.107145e-01 8.033216e-02 5.334452e-02
<GCONST> 7.331847e+01
<STATE> 5
<NUMMIXES> 2
<MIXTURE> 1 3.102296e-01
<MEAN> 39
 1.958092e+01 -6.485174e+00 -1.970993e+00 1.293734e+01 1.303977e+01 -9.880618e+00 -1.671790e+01 2.333027e+01 -5.931715e+00 -3.217104e+01 1.981723e+00 -2.471538e+00 -8.970970e+00 -2.973332e-01 -2.546965e-01 1.365028e-02 6.309736e-01 1.009084e+00 1.066252e+00 4.614867e-01 -6.867107e-01 -1.015978e+00 -1.538015e-01 4.632961e-01 5.985721e-01 2.729322e-01 -1.865731e-01 2.382282e-01 2.048372e-01 1.124491e-01 -4.002320e-02 7.633295e-02 1.230743e-01 -1.523199e-01 2.372990e-01 4.326125e-01 -1.069741e-01 -3.500343e-02 3.193851e-02
<VARIANCE> 39
 6.840825e+00 1.914463e+01 2.275554e+01 3.033870e+01 3.993525e+01 3.308210e+01 4.672221e+01 4.557002e+01 3.346132e+01 3.265192e+01 6.653979e+01 2.526468e+01 2.300984e+01 7.081850e-01 1.030875e+00 8.721160e-01 9.571050e-01 1.109463e+00 1.093794e+00 2.548586e+00 2.476226e+00 1.557947e+00 2.747510e+00 2.220005e+00 9.718567e-01 7.334971e-01 9.767971e-02 1.399541e-01 1.045852e-01 1.052691e-01 1.040223e-01 1.636675e-01 2.636088e-01 3.522306e-01 1.824885e-01 3.621744e-01 2.889262e-01 1.393673e-01 1.209261e-01
<GCONST> 9.565928e+01
<MIXTURE> 2 6.897703e-01
<MEAN> 39
 1.819854e+01 4.058010e+00 3.952563e+00 1.207012e+01 1.713374e+00 -1.762296e+01 -1.581566e+01 2.260653e+01 5.933157e+00 -1.774266e+01 6.678972e-01 -3.315562e+00 -1.120059e+01 -4.852563e-01 6.521972e-01 1.019253e-01 -3.035907e-01 3.622378e-01 2.098407e+00 1.461506e+00 -1.652943e+00 -5.958363e-01 1.344482e+00 -4.126673e-01 -2.326093e-01 7.598099e-01 -2.518775e-01 1.462605e-01 1.621721e-01 -7.930527e-02 6.904660e-02 5.710136e-01 3.698105e-01 -4.171695e-01 -1.547900e-02 3.424230e-01 -2.590310e-01 -1.706641e-02 2.935501e-01
<VARIANCE> 39
 2.404202e+01 3.993886e+01 5.150816e+01 4.171391e+01 4.758743e+01 8.666637e+01 5.912823e+01 6.719965e+01 3.851926e+01 7.188087e+01 5.898264e+01 4.645643e+01 2.777313e+01 8.027837e-01 1.190764e+00 1.581510e+00 1.160594e+00 1.423498e+00 2.669508e+00 2.415124e+00 2.377838e+00 1.382552e+00 2.757460e+00 1.657744e+00 1.528011e+00 8.101177e-01 7.190300e-02 9.394293e-02 1.925057e-01 1.593822e-01 1.849367e-01 2.755240e-01 2.688699e-01 3.527398e-01 1.826359e-01 3.036231e-01 2.146566e-01 2.206333e-01 1.127690e-01
<GCONST> 1.057586e+02
<STATE> 6
<NUMMIXES> 2
<MIXTURE> 1 6.591119e-01
<MEAN> 39
 9.113492e+00 9.435966e+00 7.328344e+00 1.141079e+01 4.216334e+00 -2.891185e+00 -3.965105e+00 1.360175e+01 2.637507e+00 -9.495526e+00 -3.129766e+00 -3.527095e+00 -5.071942e+00 -1.719497e+00 7.955986e-01 1.160995e+00 -3.761455e-02 6.460748e-01 2.957037e+00 1.808502e+00 -1.313770e+00 -5.067490e-01 1.112969e+00 -6.140801e-01 -2.791162e-01 9.217230e-01 -1.133328e-01 -2.627684e-01 1.263589e-01 9.627439e-02 2.885911e-02 -1.657747e-01 -2.167729e-01 1.924491e-01 -1.037666e-01 -2.809481e-01 1.585195e-01 2.821860e-02 -1.240029e-01
<VARIANCE> 39
 1.019431e+02 7.416028e+01 6.500586e+01 5.247095e+01 6.908201e+01 9.010423e+01 5.202240e+01 5.393476e+01 3.595632e+01 8.191615e+01 6.027617e+01 4.366009e+01 2.395563e+01 1.312542e+00 2.870244e+00 2.945053e+00 1.812796e+00 2.294468e+00 4.314119e+00 3.021406e+00 2.725784e+00 2.109362e+00 3.086248e+00 2.192133e+00 1.581295e+00 1.405578e+00 1.142801e-01 2.139979e-01 2.739875e-01 1.975154e-01 2.204624e-01 3.486607e-01 3.273956e-01 3.635472e-01 2.996466e-01 3.430904e-01 3.011075e-01 2.219702e-01 1.677711e-01
<GCONST> 1.172298e+02
<MIXTURE> 2 3.408881e-01
<MEAN> 39
 1.675888e+01 8.891350e+00 4.689188e+00 1.205063e+01 6.376551e+00 -1.114177e+01 -1.855145e+01 7.334142e+00 6.991296e+00 -4.295230e+00 -3.271005e-01 -6.246946e+00 -9.939610e+00 -1.386864e-01 2.955647e-01 3.521004e-02 -3.338453e-02 4.524091e-01 8.808828e-01 1.714493e-01 -9.945782e-01 -4.466940e-01 6.733674e-01 1.849769e-01 -3.220828e-01 9.127183e-03 -4.087242e-03 -2.069141e-02 -3.308303e-02 -9.053794e-02 -1.674692e-02 1.253695e-01 1.315345e-01 1.407033e-01 -3.707553e-02 -1.752512e-01 -1.986132e-02 2.829024e-02 2.125308e-02
<VARIANCE> 39
 3.926999e+01 4.164135e+01 4.540485e+01 4.480699e+01 5.882567e+01 7.232022e+01 1.151814e+02 5.447787e+01 6.220022e+01 6.996940e+01 6.492395e+01 6.236371e+01 2.299880e+01 2.650951e-01 3.893747e-01 5.852607e-01 1.239912e+00 8.287900e-01 1.141165e+00 1.570280e+00 1.386930e+00 7.313818e-01 1.352353e+00 9.134661e-01 7.076201e-01 6.134083e-01 3.276730e-02 4.770331e-02 7.570860e-02 1.058291e-01 9.662431e-02 1.019309e-01 1.869379e-01 1.585806e-01 9.769674e-02 1.435442e-01 1.203375e-01 9.729908e-02 7.547721e-02
<GCONST> 9.008473e+01
<TRANSP> 7
 0.000000e+00 1.000000e+00 0.000000e+00 0.000000e+00 0.000000e+00 0.000000e+00 0.000000e+00
 0.000000e+00 7.954745e-01 2.045255e-01 0.000000e+00 0.000000e+00 0.000000e+00 0.000000e+00
 0.000000e+00 0.000000e+00 7.176352e-01 2.823648e-01 0.000000e+00 0.000000e+00 0.000000e+00
 0.000000e+00 0.000000e+00 0.000000e+00 9.071853e-01 9.281475e-02 0.000000e+00 0.000000e+00
 0.000000e+00 0.000000e+00 0.000000e+00 0.000000e+00 7.370720e-01 2.629280e-01 0.000000e+00
 0.000000e+00 0.000000e+00 0.000000e+00 0.000000e+00 0.000000e+00 7.784054e-01 2.215945e-01
 0.000000e+00 0.000000e+00 0.000000e+00 0.000000e+00 0.000000e+00 0.000000e+00 0.000000e+00
<ENDHMM>
~h "p"
<BEGINHMM>
<NUMSTATES> 5
<STATE> 2
<NUMMIXES> 2
<MIXTURE> 1 1.709336e-01
<MEAN> 39
 -2.460364e+01 -1.020342e+01 -9.265079e+00 -4.373572e+00 -9.672107e-01 6.052681e+00 5.286967e-01 2.138573e-01 -9.795877e+00 -6.984832e+00 3.447485e+00 5.726236e+00 3.307689e+00 -6.941059e-02 2.516263e-02 -6.682518e-02 -8.872636e-02 -3.363310e-02 -6.189769e-02 -7.814665e-02 -9.874090e-02 -3.138069e-02 1.173603e-02 -5.641995e-03 -1.934994e-03 -4.699677e-02 3.379885e-02 3.433844e-02 8.315803e-02 6.092080e-02 2.244215e-02 2.492516e-02 2.232444e-02 5.628153e-02 6.049695e-02 4.274801e-02 1.636985e-03 -2.558098e-02 -1.147012e-02
<VARIANCE> 39
 2.651007e+00 9.431773e+00 1.306778e+01 1.537908e+01 1.485804e+01 2.561046e+01 1.867835e+01 1.661014e+01 4.329900e+01 2.304892e+01 1.759519e+01 2.527929e+01 1.465829e+01 2.035593e-01 7.477705e-01 9.444230e-01 8.811797e-01 8.211210e-01 1.394296e+00 1.325559e+00 1.367664e+00 2.368348e+00 1.733726e+00 1.380088e+00 1.594532e+00 1.035756e+00 4.485550e-02 9.803765e-02 1.331567e-01 1.354876e-01 1.547199e-01 2.651874e-01 2.697358e-01 2.571217e-01 3.544512e-01 2.438578e-01 2.539221e-01 2.578972e-01 1.634268e-01
<GCONST> 8.617766e+01
<MIXTURE> 2 8.290665e-01
<MEAN> 39
 -3.702539e+00 1.233097e+01 1.064342e+01 1.202786e+01 8.737185e+00 7.588212e+00 1.371792e+00 8.346169e+00 5.564947e-01 -3.707600e+00 -1.523964e+00 -1.446947e+00 -3.394688e-01 -2.885610e+00 -9.743344e-01 2.632380e-02 -6.274154e-01 -5.882859e-01 6.207347e-01 5.055143e-01 -5.134233e-01 -9.522519e-02 8.359627e-01 4.966553e-01 1.349370e-01 4.015444e-01 9.255961e-03 -6.377684e-01 -5.821984e-01 -2.009511e-01 -1.015059e-01 -2.529980e-01 -1.715507e-01 5.884678e-02 -3.552937e-03 -1.343894e-01 5.489731e-02 5.750459e-02 -2.585604e-02
<VARIANCE> 39
 5.982533e+01 2.126998e+01 3.383592e+01 3.149830e+01 3.902570e+01 4.642406e+01 2.282300e+01 3.724343e+01 5.071481e+01 3.497805e+01 1.864244e+01 1.768490e+01 1.760799e+01 4.955915e-01 3.106479e+00 3.062070e+00 1.393517e+00 1.613087e+00 1.877829e+00 1.307115e+00 1.466716e+00 1.428960e+00 1.430067e+00 1.248551e+00 1.023182e+00 1.046273e+00 6.950592e-02 1.322138e-01 1.772008e-01 2.201228e-01 2.884937e-01 2.558183e-01 2.025076e-01 2.380178e-01 2.620462e-01 2.537370e-01 2.485268e-01 1.941367e-01 1.913877e-01
<GCONST> 9.987042e+01
<STATE> 3
<NUMMIXES> 2
<MIXTURE> 1 5.054594e-01
<MEAN> 39
 -1.983631e+01 -1.907018e+00 4.653814e-01 3.339910e+00 2.161902e+00 5.955567e+00 9.006421e-01 5.839382e+00 8.135835e-01 -2.719551e-01 1.001350e+00 -1.781716e-01 1.698540e+00 -6.255628e-01 -2.035709e+00 -1.544463e+00 -7.647108e-01 -2.254008e-01 5.699442e-02 -4.488790e-02 1.611740e-01 -3.295646e-02 -3.353838e-01 -9.312259e-02 1.641895e-01 5.403463e-01 8.126337e-01 2.664441e-01 2.999915e-01 3.099980e-01 2.894580e-01 1.323116e-01 -2.663410e-02 2.085929e-01 -4.074487e-02 -2.848886e-01 -1.265139e-01 -6.839332e-02 4.126046e-02
<VARIANCE> 39
 3.376350e+01 3.569890e+01 3.014561e+01 3.816953e+01 4.244573e+01 3.885186e+01 2.565902e+01 3.408354e+01 3.053022e+01 2.805972e+01 1.957063e+01 1.528139e+01 1.513410e+01 5.039562e+00 5.626457e+00 4.962111e+00 5.073009e+00 5.682095e+00 4.625624e+00 3.556673e+00 4.168963e+00 3.290231e+00 2.990382e+00 2.407437e+00 2.139078e+00 2.408044e+00 2.607847e-01 3.200185e-01 5.161483e-01 5.517010e-01 5.699366e-01 5.115308e-01 4.984084e-01 4.786095e-01 4.375672e-01 4.283810e-01 4.250477e-01 3.530748e-01 3.766783e-01
<GCONST> 1.215597e+02
<MIXTURE> 2 4.945406e-01
<MEAN> 39
 -2.661930e+01 -6.128286e+00 -5.031009e+00 -2.963097e+00 -3.775906e+00 6.121169e-01 -3.607383e+00 1.039915e+00 -1.520735e+00 -4.836713e-01 3.571289e-01 -1.044575e+00 3.504057e-01 6.969004e-03 4.030198e-03 -3.056503e-03 3.506853e-02 3.528108e-02 -5.157815e-03 -2.493906e-02 2.864253e-02 4.553554e-02 2.495353e-02 -4.751535e-03 9.234317e-03 3.544867e-02 1.629300e-01 6.786248e-02 9.946717e-02 1.364391e-01 1.599908e-01 1.595147e-01 1.293770e-01 1.270919e-01 4.354660e-02 -4.217612e-03 1.848599e-02 4.638309e-02 7.136505e-02
<VARIANCE> 39
 4.574099e-01 1.029490e+00 1.789769e+00 2.630577e+00 3.480602e+00 4.862046e+00 4.998089e+00 5.798795e+00 6.619676e+00 6.651735e+00 6.218945e+00 5.780022e+00 5.006798e+00 1.264498e-01 2.100142e-01 3.338710e-01 4.701141e-01 6.497669e-01 8.359200e-01 8.599435e-01 9.953904e-01 1.071454e+00 9.694174e-01 9.686467e-01 8.977214e-01 8.426195e-01 1.011921e-01 8.336363e-02 1.267146e-01 1.808827e-01 2.161232e-01 2.460594e-01 2.416777e-01 2.736815e-01 2.652464e-01 2.313533e-01 2.274202e-01 2.168977e-01 1.983600e-01
<GCONST> 5.950840e+01
<STATE> 4
<NUMMIXES> 2
<MIXTURE> 1 4.619543e-01
<MEAN> 39
 -9.856809e+00 -3.534804e+00 -1.834268e+00 7.804084e+00 9.036857e+00 9.329035e+00 1.631904e+00 9.692997e+00 2.406781e+00 -2.682238e+00 -5.100988e-01 4.704603e-01 6.103884e+00 3.705816e+00 -5.856111e-01 -6.388945e-01 6.077626e-01 9.120609e-01 1.291736e-01 -6.769730e-01 9.285115e-01 -5.361659e-03 -9.547834e-01 3.010007e-01 -6.091991e-01 -1.623415e-01 4.119407e-01 1.306932e-02 -4.660660e-02 -3.509228e-01 -4.302719e-01 -4.330206e-01 -4.191213e-01 -1.066681e-01 -3.538410e-01 -2.993323e-01 3.185228e-01 -2.232540e-01 -5.754941e-01
<VARIANCE> 39
 5.331434e+01 1.764960e+01 1.493512e+01 2.218714e+01 3.285633e+01 4.036508e+01 3.584196e+01 2.403901e+01 2.591223e+01 2.323330e+01 1.900809e+01 1.827999e+01 1.356713e+01 1.168160e+00 1.530578e+00 1.268889e+00 2.429586e+00 3.008008e+00 3.686106e+00 3.123111e+00 2.334615e+00 2.496283e+00 2.370284e+00 2.567441e+00 2.010281e+00 2.672436e+00 2.260379e-01 2.342821e-01 2.857069e-01 2.973619e-01 4.265782e-01 4.988747e-01 4.055129e-01 3.791446e-01 4.148743e-01 4.278248e-01 4.013454e-01 3.667162e-01 2.985574e-01
<GCONST> 1.099589e+02
<MIXTURE> 2 5.380455e-01
<MEAN> 39
 1.931549e+00 -8.797018e+00 -2.192412e+00 8.137854e+00 1.083039e+01 1.230527e+01 -7.874755e-01 1.132802e+01 -4.043472e+00 -1.051409e+01 4.457286e+00 -3.302466e+00 -5.215877e-01 1.939124e+00 2.934673e-01 5.340644e-01 6.130897e-01 4.407099e-01 -5.094602e-01 -9.314464e-01 3.875613e-03 -4.923707e-01 -7.819170e-01 5.981181e-01 2.010199e-01 -7.198437e-01 -2.558127e-01 3.488052e-01 1.653386e-01 2.586664e-01 4.097727e-02 -4.675683e-01 -1.995455e-01 -1.720126e-01 2.525286e-01 2.029942e-01 -2.185464e-01 2.340774e-01 -4.432993e-03
<VARIANCE> 39
 1.023293e+02 9.301336e+01 7.875728e+01 1.169566e+02 1.327201e+02 1.290978e+02 1.100496e+02 8.378844e+01 6.931834e+01 7.201971e+01 6.487566e+01 3.642617e+01 3.927106e+01 4.029094e+00 3.920495e+00 3.184492e+00 4.268888e+00 3.503330e+00 6.189286e+00 5.459457e+00 3.958123e+00 4.334976e+00 5.193366e+00 3.813432e+00 1.989950e+00 2.708843e+00 1.936268e-01 4.740396e-01 5.364745e-01 5.104246e-01 4.228197e-01 8.635844e-01 7.293953e-01 5.898871e-01 7.128252e-01 9.006432e-01 6.925812e-01 3.930782e-01 3.866394e-01
<GCONST> 1.382257e+02
<TRANSP> 5
 0.000000e+00 1.000000e+00 0.000000e+00 0.000000e+00 0.000000e+00
 0.000000e+00 8.565426e-01 1.434574e-01 0.000000e+00 0.000000e+00
 0.000000e+00 0.000000e+00 8.882288e-01 1.117712e-01 0.000000e+00
 0.000000e+00 0.000000e+00 0.000000e+00 8.679836e-01 1.320165e-01
 0.000000e+00 0.000000e+00 0.000000e+00 0.000000e+00 0.000000e+00
<ENDHMM>
~h "q"
<BEGINHMM>
<NUMSTATES> 5
<STATE> 2
<NUMMIXES> 2
<MIXTURE> 1 5.208054e-01
<MEAN> 39
 7.744192e+00 2.870288e+00 3.053943e+00 1.743246e+01 1.643442e+01 1.743645e+00 -1.063822e+01 5.269049e+00 -2.830036e+00 -9.482591e+00 1.979702e+00 -2.204353e+00 -5.623234e+00 -6.832593e-01 7.431213e-01 7.184140e-01 4.452002e-01 1.166532e-01 4.522100e-01 2.304635e-01 -1.090302e+00 -2.420830e-01 4.596799e-01 -9.013867e-01 -4.080166e-01 2.754837e-01 4.750766e-02 -2.292525e-01 -4.915099e-02 -1.255168e-01 -5.539868e-02 -4.596301e-02 -3.522637e-02 2.941393e-01 5.055430e-02 -1.089653e-01 2.649086e-01 1.057711e-01 -3.884781e-02
<VARIANCE> 39
 1.954900e+02 5.739604e+01 5.017429e+01 9.484657e+01 9.799035e+01 5.430924e+01 9.017297e+01 9.680414e+01 5.283827e+01 7.134937e+01 9.837928e+01 4.062671e+01 3.815595e+01 1.075205e+00 1.731482e+00 2.069500e+00 3.259261e+00 3.278089e+00 2.229726e+00 3.357862e+00 2.747148e+00 1.568670e+00 2.305570e+00 2.104670e+00 1.303472e+00 1.735631e+00 1.069551e-01 2.261410e-01 2.586687e-01 2.937630e-01 3.273158e-01 2.945400e-01 4.177305e-01 3.351017e-01 2.437622e-01 3.482635e-01 3.221996e-01 2.084382e-01 1.993379e-01
<GCONST> 1.194973e+02
<MIXTURE> 2 4.791946e-01
<MEAN> 39
 1.490705e+01 6.237512e+00 6.312309e+00 2.316553e+01 1.572610e+01 -5.602376e+00 -1.018988e+01 1.274203e+01 3.872973e+00 -1.112908e+01 -6.147434e+00 -8.723475e+00 -1.241909e+01 -2.295006e-01 4.564691e-01 5.740833e-01 7.978008e-02 -5.226617e-03 3.189180e-01 3.481368e-02 -5.569620e-01 -2.123865e-01 3.035457e-01 7.678537e-04 -1.906546e-01 2.010276e-02 -6.831182e-03 5.332760e-02 -1.595429e-02 -1.592190e-01 -1.250805e-01 6.128860e-02 1.176660e-01 1.938576e-02 -1.939748e-02 2.440170e-03 -3.519636e-04 4.711653e-02 8.682612e-02
<VARIANCE> 39
 3.934962e+00 1.595617e+01 2.397317e+01 1.326480e+01 2.966841e+01 2.929690e+01 3.750394e+01 6.232522e+01 3.412234e+01 2.145255e+01 3.302559e+01 2.512292e+01 1.847845e+01 1.069974e-01 3.719031e-01 3.551478e-01 8.160232e-01 6.959546e-01 8.134983e-01 8.885217e-01 1.040764e+00 6.577400e-01 6.739411e-01 5.753643e-01 6.485233e-01 6.014105e-01 1.709271e-02 4.207074e-02 5.459545e-02 1.107271e-01 1.104505e-01 9.833438e-02 1.337365e-01 1.423532e-01 1.051158e-01 1.177460e-01 9.528696e-02 1.160872e-01 9.696350e-02
<GCONST> 7.285976e+01
<STATE> 3
<NUMMIXES> 2
<MIXTURE> 1 6.653932e-01
<MEAN> 39
 4.182555e+00 1.284193e+01 1.217923e+01 1.752879e+01 1.385576e+01 6.227748e+00 -5.381980e+00 1.071939e+00 -4.373674e+00 -6.217388e+00 -2.083647e+00 -5.181194e+00 -4.657067e+00 -1.178868e+00 3.150530e-01 4.525184e-01 -5.447729e-01 -6.658986e-01 6.742675e-01 1.167008e+00 3.457965e-01 5.308190e-02 2.125304e-01 -2.358906e-01 8.419030e-02 4.177795e-01 -7.527380e-02 -2.692041e-01 -1.328371e-01 -1.263674e-02 4.107974e-02 -3.350939e-02 -6.833953e-02 1.474633e-01 1.051147e-01 5.107913e-04 1.423938e-01 9.271324e-02 2.213039e-02
<VARIANCE> 39
 1.054662e+02 5.310427e+01 3.669712e+01 4.352255e+01 4.351535e+01 3.137578e+01 5.107723e+01 4.758189e+01 2.567729e+01 2.936135e+01 3.205731e+01 2.448875e+01 1.827811e+01 9.434956e-01 1.030021e+00 1.334436e+00 1.199815e+00 1.359021e+00 1.327564e+00 1.772360e+00 1.678211e+00 1.171943e+00 1.560733e+00 1.282496e+00 1.036687e+00 9.106030e-01 6.263985e-02 1.593170e-01 1.801134e-01 2.033041e-01 2.103269e-01 1.570294e-01 2.252294e-01 2.359235e-01 1.800770e-01 2.223625e-01 1.858066e-01 1.628859e-01 1.437080e-01
<GCONST> 9.889747e+01
<MIXTURE> 2 3.346067e-01
<MEAN> 39
 1.353190e+01 1.182534e+01 9.564246e+00 2.111503e+01 2.018754e+01 4.476659e+00 -1.370329e+01 -6.674194e+00 -5.413956e+00 -6.498110e+00 -4.856351e+00 -7.378326e+00 -4.511351e+00 -2.695254e-01 5.201935e-01 4.325624e-01 -2.017382e-01 -3.459569e-01 3.401434e-01 5.555412e-01 7.573148e-02 -1.012188e-01 4.463662e-02 -2.526522e-01 -3.058016e-01 -1.508457e-02 -6.368171e-02 -2.502063e-02 1.732674e-02 1.426467e-02 -1.751887e-02 1.306069e-02 6.916161e-02 1.705384e-01 -1.454549e-02 -1.116629e-01 5.456635e-02 5.014099e-02 -4.018993e-02
<VARIANCE> 39
 4.408222e+00 1.918528e+01 1.926953e+01 1.541548e+01 3.469711e+01 2.320735e+01 4.694156e+01 4.170975e+01 1.418259e+01 2.678915e+01 2.245696e+01 1.822309e+01 1.468293e+01 1.152056e-01 3.172888e-01 2.557893e-01 4.871510e-01 7.130550e-01 4.047202e-01 9.630253e-01 6.935403e-01 4.121670e-01 6.297290e-01 4.679511e-01 6.142751e-01 3.759548e-01 1.520094e-02 4.974154e-02 3.379929e-02 8.619642e-02 1.289289e-01 6.031921e-02 1.537494e-01 9.741409e-02 7.300376e-02 1.098936e-01 6.723844e-02 9.258709e-02 6.844828e-02
<GCONST> 6.543890e+01
<STATE> 4
<NUMMIXES> 2
<MIXTURE> 1 7.600213e-01
<MEAN> 39
 -2.659157e+01 -6.428120e+00 -5.208711e+00 -2.962193e+00 -3.627751e+00 8.884264e-01 -3.436370e+00 1.049400e+00 -1.935806e+00 -8.081355e-01 6.620955e-01 -6.461596e-01 5.996132e-01 -3.762834e-03 -6.761351e-03 -6.438513e-03 -1.958647e-03 -8.659327e-03 -1.324845e-02 -4.704739e-04 4.100521e-03 1.897629e-03 4.729966e-03 3.762818e-03 3.315886e-04 -3.861703e-03 2.411099e-02 1.766101e-02 2.245355e-02 3.058998e-02 3.251166e-02 2.478692e-02 2.154408e-02 2.053584e-02 6.624120e-03 1.978175e-03 1.231247e-02 1.250435e-02 2.020082e-03
<VARIANCE> 39
 6.113080e-01 1.622283e+00 2.053113e+00 2.765579e+00 3.884876e+00 5.607560e+00 5.960655e+00 6.459344e+00 1.004320e+01 8.987538e+00 6.918207e+00 8.256399e+00 5.626378e+00 7.657409e-02 1.678415e-01 2.701757e-01 4.007002e-01 5.520445e-01 7.363403e-01 8.375770e-01 9.175851e-01 1.113986e+00 1.080181e+00 9.628896e-01 9.777254e-01 7.901673e-01 2.464946e-02 4.183520e-02 6.903359e-02 1.016179e-01 1.325299e-01 1.690113e-01 1.930579e-01 2.093624e-01 2.369919e-01 2.338350e-01 2.112752e-01 2.071965e-01 1.725130e-01
<GCONST> 5.593832e+01
<MIXTURE> 2 2.399790e-01
<MEAN> 39
 -1.182782e+01 2.540717e+00 4.774141e+00 8.970279e+00 7.823987e+00 8.233031e+00 5.899820e-01 5.795565e+00 -1.897793e+00 -2.840015e+00 2.616302e+00 8.299704e-01 -1.815110e-02 -1.044984e+00 -8.362230e-01 -5.746856e-01 -8.551121e-01 -8.466522e-01 -1.251303e-01 2.273223e-01 8.070490e-02 8.054720e-02 4.088336e-02 -1.822867e-01 3.126740e-02 2.728864e-01 1.264590e-01 -1.575101e-01 -8.372562e-02 6.186416e-02 4.156208e-02 -1.550076e-01 -2.022162e-01 2.440471e-02 8.480325e-03 -9.786546e-02 3.929930e-03 -4.243699e-02 -6.135735e-02
<VARIANCE> 39
 1.565768e+02 1.002522e+02 9.720739e+01 9.240091e+01 6.393419e+01 4.372542e+01 5.332875e+01 5.699399e+01 6.495137e+01 6.068735e+01 4.249395e+01 4.163354e+01 2.496534e+01 3.114738e+00 2.471262e+00 3.886828e+00 4.148648e+00 3.529787e+00 3.249816e+00 3.180008e+00 3.164187e+00 2.655312e+00 2.802805e+00 1.856564e+00 1.572017e+00 1.387686e+00 2.144590e-01 3.590012e-01 4.167615e-01 4.284110e-01 4.190441e-01 3.937769e-01 3.705747e-01 3.914926e-01 3.919236e-01 3.585042e-01 3.072307e-01 2.377967e-01 2.127606e-01
<GCONST> 1.242017e+02
<TRANSP> 5
 0.000000e+00 1.000000e+00 0.000000e+00 0.000000e+00 0.000000e+00
 0.000000e+00 7.239565e-01 2.760435e-01 0.000000e+00 0.000000e+00
 0.000000e+00 0.000000e+00 8.082520e-01 1.917480e-01 0.000000e+00
 0.000000e+00 0.000000e+00 0.000000e+00 9.085670e-01 9.143300e-02
 0.000000e+00 0.000000e+00 0.000000e+00 0.000000e+00 0.000000e+00
<ENDHMM>
~h "r"
<BEGINHMM>
<NUMSTATES> 5
<STATE> 2
<NUMMIXES> 2
<MIXTURE> 1 9.018781e-01
<MEAN> 39
 2.143971e+01 -4.153717e+00 -1.279873e+01 3.396086e+00 1.497824e+01 1.559030e+00 -1.534346e+01 6.573648e+00 -5.920027e+00 -1.478684e+01 5.706439e+00 1.376956e+00 1.691805e+00 -7.712771e-01 1.531811e+00 5.037655e-01 2.887921e-01 3.088225e-01 1.841084e+00 1.714454e+00 -1.599838e+00 2.207524e-01 9.617566e-01 -2.037869e+00 -1.134183e-01 5.680861e-01 -4.045928e-01 1.338231e-01 5.672832e-01 2.200360e-01 -3.588027e-01 -4.806821e-02 5.060933e-01 3.103468e-01 5.835193e-02 8.974439e-02 -5.620493e-02 -2.071967e-02 -3.226538e-02
<VARIANCE> 39
 1.936656e+01 2.526965e+01 4.713741e+01 3.865038e+01 4.321359e+01 3.318741e+01 5.905117e+01 4.191556e+01 2.962747e+01 4.159692e+01 5.056409e+01 3.225790e+01 2.349962e+01 1.843231e+00 1.328383e+00 2.787615e+00 1.196155e+00 1.940118e+00 2.122553e+00 4.775875e+00 2.798679e+00 1.707262e+00 2.392366e+00 2.331799e+00 1.187017e+00 1.105326e+00 1.547597e-01 1.538859e-01 2.566178e-01 2.089390e-01 1.607497e-01 2.263330e-01 4.428806e-01 4.889580e-01 1.983123e-01 3.551366e-01 4.577675e-01 2.013293e-01 1.691640e-01
<GCONST> 1.084432e+02
<MIXTURE> 2 9.812174e-02
<MEAN> 39
 1.664820e+01 -1.038337e+01 1.315877e+00 1.737279e+01 2.398096e+01 -4.013252e-01 -2.939313e+01 4.335759e+00 -1.101037e+01 -2.407536e+01 1.553285e+01 1.411100e+00 -1.489334e+01 4.516721e-02 1.824618e-01 -4.596230e-03 -3.583370e-02 -6.128972e-02 3.966611e-02 6.320853e-02 -1.609064e-01 1.150184e-01 4.516550e-02 -2.023811e-01 1.329010e-01 1.102929e-01 -5.777730e-03 7.686200e-02 -4.691252e-02 3.715974e-02 2.236533e-02 4.616283e-02 1.704030e-01 1.443745e-02 -1.662204e-02 4.644959e-02 -1.039263e-01 1.053557e-02 1.017522e-01
<VARIANCE> 39
 9.764753e+00 1.697304e+01 2.385487e+01 8.852983e+01 8.381422e+01 1.410401e+01 3.603576e+01 5.441327e+01 2.113447e+01 2.589108e+01 4.935297e+01 3.122265e+01 1.737738e+01 3.117741e-01 4.086893e-01 6.288360e-01 5.698600e-01 6.400632e-01 4.367562e-01 1.376500e+00 1.052852e+00 4.853940e-01 8.484623e-01 1.196300e+00 3.801460e-01 6.816410e-01 4.811208e-02 6.060869e-02 7.822393e-02 9.121018e-02 8.719084e-02 8.669133e-02 2.061687e-01 1.405605e-01 7.508765e-02 1.431897e-01 1.611394e-01 6.927564e-02 8.301748e-02
<GCONST> 7.882776e+01
<STATE> 3
<NUMMIXES> 2
<MIXTURE> 1 9.824331e-01
<MEAN> 39
 1.599773e+01 2.599099e+00 -6.162051e+00 6.486005e+00 1.247905e+01 7.480530e+00 -4.186499e+00 4.582937e+00 -6.952325e+00 -1.298993e+01 -7.367679e-01 8.362772e-01 2.724531e+00 -3.203763e-01 2.144518e-01 6.712101e-01 4.525207e-01 -2.951183e-02 5.077254e-01 6.281228e-01 1.919983e-01 -6.944116e-01 -5.327767e-01 2.568896e-01 1.034978e-01 -3.440767e-01 2.180646e-01 -4.686384e-01 -2.159823e-01 -3.269663e-02 2.025346e-01 -3.111328e-01 -6.339917e-01 2.085804e-01 -1.373158e-01 -3.258469e-01 5.326511e-01 6.738525e-02 -2.300456e-01
<VARIANCE> 39
 1.627180e+01 2.308282e+01 3.227948e+01 4.061548e+01 3.473175e+01 2.497500e+01 3.599592e+01 2.791093e+01 3.224570e+01 3.477093e+01 3.395857e+01 2.094802e+01 1.805054e+01 2.945684e+00 3.455443e+00 4.422504e+00 1.960619e+00 2.466031e+00 2.539124e+00 5.477904e+00 2.393743e+00 3.315570e+00 4.604789e+00 4.382523e+00 1.891587e+00 1.913246e+00 5.788099e-01 5.703071e-01 7.340120e-01 2.924988e-01 2.811171e-01 3.751589e-01 7.555822e-01 4.774597e-01 7.459862e-01 9.399175e-01 8.318469e-01 2.955103e-01 2.863540e-01
<GCONST> 1.203981e+02
<MIXTURE> 2 1.756686e-02
<MEAN> 39
 1.085154e+01 -1.579002e+00 2.883545e+00 1.632238e+01 1.497844e+01 1.938185e+00 -1.175863e+01 5.538113e+00 -6.954891e+00 -1.495008e+01 3.081601e+00 -2.293624e+00 -6.415709e+00 -4.851937e-02 1.552543e-01 1.098908e-01 -5.350903e-03 9.547710e-03 2.240555e-01 1.062162e-01 -1.751143e-01 -3.210112e-01 8.370169e-04 1.578514e-01 1.577493e-02 1.724871e-01 -7.560216e-02 2.357543e-02 -2.137434e-02 -1.292402e-01 -4.576775e-02 7.216559e-02 1.282419e-01 5.956603e-02 3.629024e-02 1.744809e-02 -4.407727e-03 1.425125e-01 1.384209e-01
<VARIANCE> 39
 1.244400e+02 1.128185e+02 8.979800e+01 1.694140e+02 1.260893e+02 9.163411e+01 1.251511e+02 9.727645e+01 4.933339e+01 6.632815e+01 9.131148e+01 3.741142e+01 6.426375e+01 1.365287e+00 1.193844e+00 1.700078e+00 8.727797e-01 1.825324e+00 3.078876e+00 2.183961e+00 2.922492e+00 1.381003e+00 1.376064e+00 1.451249e+00 9.393424e-01 9.765067e-01 9.326734e-02 2.535543e-01 2.742334e-01 1.698385e-01 2.721491e-01 3.066110e-01 2.952966e-01 3.428903e-01 1.650666e-01 2.766825e-01 2.343220e-01 1.944556e-01 1.659926e-01
<GCONST> 1.158467e+02
<STATE> 4
<NUMMIXES> 2
<MIXTURE> 1 5.321240e-01
<MEAN> 39
 8.161289e+00 4.675100e+00 -1.104206e+00 5.640149e+00 9.472168e+00 8.886108e+00 -1.532132e+00 4.821236e+00 -6.303630e+00 -1.077040e+01 -1.044061e+00 -6.800715e-01 1.514213e+00 -1.619409e+00 4.140613e-01 1.206946e+00 1.751627e-01 -2.878319e-01 4.028815e-01 5.445368e-01 5.080096e-02 6.998120e-01 8.530460e-01 -3.991786e-01 -2.325145e-01 4.842672e-02 -4.485241e-02 -1.837142e-01 -2.809209e-02 -2.007927e-02 3.832052e-02 -9.640057e-02 -1.832705e-01 1.472803e-01 -7.962318e-02 -1.444054e-01 2.232359e-01 3.855219e-02 -7.485884e-02
<VARIANCE> 39
 1.547473e+02 5.765195e+01 6.648798e+01 6.854420e+01 6.536975e+01 5.740966e+01 7.263573e+01 5.780420e+01 4.155772e+01 3.665963e+01 4.961399e+01 4.660696e+01 4.138678e+01 3.650028e+00 3.149232e+00 4.131132e+00 2.232610e+00 1.836854e+00 2.494158e+00 3.418222e+00 2.363709e+00 2.393504e+00 3.005507e+00 2.540726e+00 1.639714e+00 1.690667e+00 1.842597e-01 2.713612e-01 3.141906e-01 2.372989e-01 2.099423e-01 2.332605e-01 3.408513e-01 3.707253e-01 3.886217e-01 3.903500e-01 2.994531e-01 2.288480e-01 2.117547e-01
<GCONST> 1.199730e+02
<MIXTURE> 2 4.678759e-01
<MEAN> 39
 1.991722e+01 -5.699845e+00 -8.660783e+00 8.545939e+00 2.128716e+01 4.096144e+00 -1.837629e+01 7.692879e+00 -1.368734e+01 -2.262527e+01 1.324194e+01 2.536070e+00 -5.644607e+00 1.191902e-01 -7.820406e-01 -5.073220e-03 3.129948e-01 5.900585e-01 -5.740119e-01 -1.208802e+00 3.894929e-01 -3.205605e-01 -4.426225e-01 1.348862e+00 1.771536e-01 -6.972095e-01 -2.988467e-01 2.769605e-01 3.046379e-01 -1.607926e-02 -2.540346e-01 7.967027e-02 3.730324e-01 -7.382465e-02 3.766387e-01 5.012012e-01 -3.877750e-01 -1.379318e-01 1.615172e-01
<VARIANCE> 39
 1.156387e+01 2.502980e+01 3.596956e+01 8.044199e+01 4.507773e+01 4.106761e+01 7.440782e+01 4.872474e+01 3.201548e+01 3.557766e+01 7.667361e+01 1.667954e+01 4.085321e+01 1.287919e+00 1.865967e+00 1.620478e+00 1.332166e+00 1.817881e+00 1.491784e+00 4.178007e+00 2.806123e+00 2.193554e+00 3.731020e+00 4.019421e+00 1.040779e+00 1.670548e+00 1.479240e-01 1.578608e-01 1.993569e-01 1.449105e-01 1.712208e-01 1.860912e-01 3.732920e-01 3.580451e-01 2.671089e-01 4.207640e-01 3.745130e-01 1.701623e-01 1.689183e-01
<GCONST> 1.086110e+02
<TRANSP> 5
 0.000000e+00 1.000000e+00 0.000000e+00 0.000000e+00 0.000000e+00
 0.000000e+00 6.714056e-01 3.285944e-01 0.000000e+00 0.000000e+00
 0.000000e+00 0.000000e+00 7.858102e-01 2.141899e-01 0.000000e+00
 0.000000e+00 0.000000e+00 0.000000e+00 7.989271e-01 2.010729e-01
 0.000000e+00 0.000000e+00 0.000000e+00 0.000000e+00 0.000000e+00
<ENDHMM>
~h "s"
<BEGINHMM>
<NUMSTATES> 5
<STATE> 2
<NUMMIXES> 2
<MIXTURE> 1 5.242983e-01
<MEAN> 39
 -4.938078e+00 -1.892898e+01 3.206104e+01 2.118480e+00 3.957294e+00 2.688347e+01 -3.863921e+00 3.428411e+00 -1.248270e+01 -6.646032e+00 8.989229e+00 -8.545383e-01 2.211777e+00 -3.304543e+00 -2.218989e+00 3.226533e+00 -2.030057e+00 -8.375380e-01 1.363000e+00 7.712398e-01 1.353465e+00 -4.062426e-01 1.299005e+00 8.998947e-01 6.213920e-01 1.234172e+00 3.472325e-02 1.721945e-02 -6.550575e-01 -1.552624e-01 -1.541445e-02 -6.674154e-01 -3.336833e-01 1.881932e-01 1.063870e-01 -1.152690e-01 1.085924e-01 -1.345576e-02 -1.931759e-01
<VARIANCE> 39
 1.122512e+02 9.284061e+01 1.491468e+02 9.600912e+01 6.427267e+01 7.572488e+01 6.062492e+01 1.149265e+02 4.153881e+01 5.468512e+01 4.332317e+01 2.902641e+01 3.319319e+01 2.155227e+00 2.762260e+00 7.546669e+00 2.431245e+00 2.327529e+00 4.692832e+00 2.919357e+00 3.412518e+00 2.715586e+00 2.535189e+00 2.586657e+00 1.682559e+00 1.524689e+00 3.224081e-01 4.149587e-01 6.807515e-01 2.782050e-01 4.479420e-01 3.525910e-01 3.392814e-01 8.086193e-01 3.826755e-01 4.546040e-01 5.016645e-01 3.489035e-01 2.152086e-01
<GCONST> 1.275675e+02
<MIXTURE> 2 4.757018e-01
<MEAN> 39
 -2.226755e+01 -3.048421e+01 3.741377e+01 -1.419928e+01 -5.606229e+00 2.208519e+01 -6.554814e+00 9.298948e+00 -1.373768e+01 -1.280406e+00 1.267892e+01 8.231751e-01 6.543210e+00 -9.035951e-01 -2.978421e-01 -2.200085e-01 -1.478325e+00 -1.254781e+00 -1.357444e+00 -9.210934e-01 -1.288566e-01 -2.540491e-01 -1.458223e-01 -4.945937e-01 -5.176405e-01 -7.566643e-02 3.100701e-01 2.471973e-01 -4.332360e-02 3.097102e-01 2.114234e-01 1.336737e-01 7.775150e-02 -1.459395e-01 -7.018582e-02 -1.954027e-01 -1.776858e-01 -1.269326e-01 -1.350894e-01
<VARIANCE> 39
 1.451268e+01 2.914272e+01 2.249553e+01 3.790516e+01 3.900341e+01 4.798018e+01 3.223381e+01 3.447908e+01 3.549038e+01 2.609635e+01 2.280042e+01 1.923771e+01 1.285597e+01 1.633682e+00 1.906544e+00 2.122476e+00 2.159381e+00 1.792519e+00 1.992310e+00 1.332623e+00 1.604858e+00 1.980212e+00 1.917112e+00 1.966819e+00 1.779308e+00 1.106131e+00 2.096299e-01 2.405751e-01 2.942546e-01 2.092208e-01 2.205207e-01 3.292548e-01 2.241506e-01 2.890508e-01 3.399321e-01 3.289473e-01 3.521366e-01 3.292485e-01 1.980873e-01
<GCONST> 1.047697e+02
<STATE> 3
<NUMMIXES> 2
<MIXTURE> 1 5.673622e-02
<MEAN> 39
 -4.082160e+00 -7.473523e+00 9.260979e-01 9.813477e+00 1.027626e+01 5.487104e+00 -1.015851e+01 2.422788e+00 -5.619371e+00 -6.559954e+00 9.246894e+00 3.124434e+00 -4.638662e-01 -5.384430e-02 -7.001129e-02 -5.485425e-02 1.755645e-02 2.038253e-02 -5.036685e-02 -1.050721e-01 -4.712394e-02 3.188330e-02 2.589403e-02 -2.654063e-02 -4.154039e-02 3.631618e-02 3.019957e-02 -3.733687e-02 1.324181e-02 -5.673487e-02 -3.413761e-02 -4.969269e-02 -6.071469e-02 8.450575e-03 -1.944522e-02 -2.831896e-02 -3.555962e-02 -2.965741e-02 -2.276786e-02
<VARIANCE> 39
 2.972028e+02 9.551031e+01 1.360775e+02 1.844974e+02 1.567226e+02 6.605249e+01 1.951540e+02 5.519772e+01 6.689912e+01 9.409432e+01 1.035339e+02 5.152273e+01 5.335644e+01 3.461413e+00 2.218283e+00 4.366943e+00 2.720121e+00 3.175611e+00 3.121984e+00 3.511072e+00 2.632999e+00 2.646573e+00 3.489948e+00 2.407255e+00 1.803856e+00 1.683958e+00 2.447851e-01 2.125134e-01 4.440034e-01 3.054869e-01 3.697950e-01 3.500969e-01 4.370063e-01 4.431018e-01 4.073718e-01 4.801348e-01 3.471295e-01 3.119975e-01 2.365128e-01
<GCONST> 1.312053e+02
<MIXTURE> 2 9.432639e-01
<MEAN> 39
 -2.412400e+01 -2.814509e+01 3.599832e+01 -1.771775e+01 -8.350169e+00 1.767529e+01 -9.871397e+00 8.431878e+00 -1.358329e+01 -3.307439e+00 8.649463e+00 -2.268587e+00 5.003356e+00 9.246590e-03 -1.481805e-01 -9.961455e-02 -7.896961e-02 1.370007e-01 7.653580e-02 -6.962382e-02 -8.409142e-02 -1.224770e-01 6.037349e-02 4.589900e-02 -5.167082e-02 -3.137266e-03 3.607833e-02 -1.024951e-01 -6.529503e-02 7.612500e-02 1.134662e-01 1.261818e-01 7.332234e-02 1.672484e-02 2.162649e-02 1.119039e-01 1.657352e-01 1.518500e-01 9.426707e-02
<VARIANCE> 39
 9.812744e+00 4.284974e+01 7.568424e+01 3.943918e+01 2.242834e+01 3.520034e+01 3.330004e+01 2.478864e+01 4.159086e+01 2.399120e+01 2.445780e+01 1.996044e+01 1.083452e+01 8.942388e-01 1.091141e+00 8.134085e-01 5.294418e-01 4.514063e-01 6.493289e-01 5.437950e-01 8.634169e-01 1.509679e+00 1.490193e+00 1.730099e+00 1.561411e+00 8.846749e-01 1.718437e-01 1.782264e-01 1.394304e-01 9.724141e-02 8.547721e-02 1.237176e-01 1.109669e-01 1.584024e-01 2.725010e-01 2.799155e-01 3.286061e-01 3.072747e-01 1.686852e-01
<GCONST> 9.039501e+01
<STATE> 4
<NUMMIXES> 2
<MIXTURE> 1 5.223078e-01
<MEAN> 39
 -1.200367e+01 -2.134654e+01 1.949431e+01 -3.420124e+00 -2.377167e-01 1.925354e+01 -4.375784e+00 4.784883e+00 -8.924957e+00 -3.468266e+00 7.326287e+00 -9.578524e-01 4.529053e+00 2.480029e+00 2.854831e+00 -2.482671e+00 2.654615e+00 1.103050e+00 -1.114455e+00 3.775658e-02 -1.453396e-01 1.499755e+00 -5.312368e-01 -7.693254e-01 -2.444560e-01 -6.867989e-01 1.242056e-01 -5.185779e-03 -2.908756e-01 -7.185161e-03 2.976725e-02 -5.222804e-01 -3.662168e-01 1.224209e-01 -1.502113e-01 -3.392227e-01 5.312735e-02 -3.704533e-02 -2.012045e-01
<VARIANCE> 39
 1.125885e+02 1.155694e+02 1.150668e+02 1.210459e+02 7.301019e+01 8.971085e+01 9.684351e+01 9.453534e+01 9.025699e+01 5.940999e+01 3.813961e+01 2.828645e+01 2.590122e+01 8.838263e+00 4.105623e+00 5.917178e+00 4.058632e+00 2.341059e+00 4.921871e+00 4.505885e+00 3.397245e+00 4.157702e+00 3.938569e+00 1.849164e+00 1.735203e+00 1.713206e+00 5.947506e-01 7.903616e-01 7.847350e-01 4.680747e-01 3.189239e-01 8.122792e-01 7.902914e-01 5.597631e-01 7.320349e-01 7.231139e-01 4.261368e-01 3.316666e-01 3.125398e-01
<GCONST> 1.361911e+02
<MIXTURE> 2 4.776921e-01
<MEAN> 39
 -2.248594e+01 -3.266267e+01 3.313917e+01 -1.730975e+01 -4.665852e+00 2.155318e+01 -9.633758e+00 5.348267e+00 -1.616495e+01 -5.351706e-01 1.202663e+01 -9.426626e-01 5.942718e+00 8.560331e-01 9.747420e-02 -1.340414e+00 8.882368e-01 7.522541e-01 4.458146e-01 4.549872e-01 -6.885761e-01 2.660440e-02 2.107916e-01 1.696445e-01 3.125370e-01 6.989381e-02 3.911124e-01 5.092846e-01 -2.678444e-01 4.090976e-01 1.135285e-01 -6.378680e-02 1.437193e-01 -6.459868e-02 2.539102e-01 -6.832988e-02 -1.901916e-01 -6.004054e-02 -1.037423e-01
<VARIANCE> 39
 1.731285e+01 3.432844e+01 2.872635e+01 3.299355e+01 3.103420e+01 3.575220e+01 3.823127e+01 4.268046e+01 3.685240e+01 2.891171e+01 2.222752e+01 1.634099e+01 1.308981e+01 2.280142e+00 2.848297e+00 1.961753e+00 1.704643e+00 1.186816e+00 1.705653e+00 1.425856e+00 1.588983e+00 2.237962e+00 1.603426e+00 1.693579e+00 1.499277e+00 1.041434e+00 3.612089e-01 4.474340e-01 2.968619e-01 2.352734e-01 1.569638e-01 2.432898e-01 2.227871e-01 2.736816e-01 3.855306e-01 2.788246e-01 2.851626e-01 2.735200e-01 1.859622e-01
<GCONST> 1.046070e+02
<TRANSP> 5
 0.000000e+00 1.000000e+00 0.000000e+00 0.000000e+00 0.000000e+00
 0.000000e+00 9.233146e-01 7.668532e-02 0.000000e+00 0.000000e+00
 0.000000e+00 0.000000e+00 8.766611e-01 1.233390e-01 0.000000e+00
 0.000000e+00 0.000000e+00 0.000000e+00 9.072820e-01 9.271793e-02
 0.000000e+00 0.000000e+00 0.000000e+00 0.000000e+00 0.000000e+00
<ENDHMM>
~h "t"
<BEGINHMM>
<NUMSTATES> 5
<STATE> 2
<NUMMIXES> 2
<MIXTURE> 1 3.720242e-01
<MEAN> 39
 -2.665012e+01 -6.301256e+00 -5.089345e+00 -2.964411e+00 -3.671826e+00 7.189155e-01 -3.564169e+00 1.106246e+00 -1.478769e+00 -5.092481e-01 5.789101e-01 -8.115505e-01 6.021383e-01 -1.642120e-02 -2.189630e-02 -4.467262e-02 -1.167460e-02 -1.171570e-02 -4.470731e-02 -5.041936e-02 -3.021286e-02 1.279319e-02 8.992219e-03 -3.383591e-02 -4.871270e-03 1.804107e-02 1.360539e-01 5.885099e-02 8.454051e-02 1.154524e-01 1.586360e-01 1.703042e-01 1.139203e-01 8.519603e-02 -2.897244e-03 -2.763099e-02 2.138495e-02 5.997963e-02 7.466966e-02
<VARIANCE> 39
 4.803806e-01 1.200244e+00 1.855429e+00 2.872740e+00 3.671594e+00 4.864805e+00 5.727269e+00 6.491709e+00 7.704569e+00 6.985901e+00 6.482419e+00 6.407534e+00 5.598783e+00 1.136678e-01 2.168627e-01 3.343892e-01 4.950223e-01 6.514056e-01 9.237793e-01 9.950716e-01 1.009293e+00 1.120261e+00 1.075071e+00 9.791478e-01 9.541810e-01 8.301365e-01 7.605052e-02 7.528059e-02 1.141071e-01 1.597305e-01 2.071550e-01 2.500300e-01 2.417724e-01 2.488113e-01 2.561056e-01 2.482854e-01 2.281843e-01 2.230075e-01 2.051935e-01
<GCONST> 6.040348e+01
<MIXTURE> 2 6.279761e-01
<MEAN> 39
 8.614865e+00 2.808752e+00 6.588274e+00 1.199555e+01 2.930787e+00 -9.418324e+00 -9.333602e+00 1.806858e+01 2.089133e+00 -1.228663e+01 4.381820e+00 -1.372152e+00 -6.368467e+00 -8.433354e-01 5.779087e-03 -9.420666e-02 -2.944645e-01 -1.672123e-01 -1.122051e-02 -1.597734e-02 -1.727949e-01 1.785691e-01 2.045119e-01 -1.549573e-01 7.016183e-02 2.037222e-02 -2.121914e-02 -1.166824e-01 -8.655717e-02 -4.224258e-02 -4.255197e-02 -3.913027e-02 -2.442739e-02 -9.261789e-03 -7.098203e-03 1.596938e-02 3.128156e-02 -1.272402e-02 -1.722713e-02
<VARIANCE> 39
 2.037154e+02 9.280650e+01 5.718650e+01 3.949599e+01 5.521990e+01 2.919264e+02 1.395881e+02 1.105133e+02 6.013692e+01 1.186849e+02 4.430178e+01 2.639140e+01 7.520166e+01 2.614704e+00 2.115808e+00 1.782924e+00 1.351933e+00 1.652618e+00 3.450180e+00 2.736825e+00 2.305974e+00 1.760232e+00 2.421624e+00 1.818170e+00 8.837684e-01 1.194528e+00 1.074984e-01 1.689190e-01 2.098014e-01 1.654604e-01 1.822930e-01 2.830042e-01 2.736421e-01 3.015924e-01 2.303563e-01 2.703761e-01 2.362814e-01 1.439629e-01 1.464158e-01
<GCONST> 1.162048e+02
<STATE> 3
<NUMMIXES> 2
<MIXTURE> 1 8.441491e-02
<MEAN> 39
 -9.021338e+00 -2.345713e+01 1.381418e+01 1.091389e+01 2.403970e+00 1.323672e+01 -6.199953e+00 2.009002e+00 -3.700171e+00 -6.541630e+00 2.398488e+00 -1.854947e-01 2.501294e+00 -1.591233e-01 -3.635975e-01 -9.425008e-02 3.883372e-02 4.266458e-02 1.510768e-01 6.797284e-03 -3.810671e-02 1.791727e-01 6.337145e-02 -3.894880e-02 2.138687e-01 1.812566e-01 2.018278e-01 1.591399e-01 -2.494756e-01 -4.981329e-02 7.415666e-02 -1.566616e-01 9.353223e-03 1.644143e-01 1.211819e-01 2.233341e-02 -4.661612e-03 -2.000420e-03 5.390657e-03
<VARIANCE> 39
 9.006825e+01 5.022987e+02 1.419949e+02 1.062702e+02 8.310072e+01 7.609778e+01 8.119255e+01 7.364610e+01 1.439170e+02 5.109038e+01 8.114481e+01 3.854483e+01 3.344296e+01 4.739424e+00 1.090172e+01 4.064688e+00 3.201459e+00 2.500280e+00 3.317793e+00 2.969608e+00 2.109663e+00 3.603985e+00 2.310244e+00 2.799536e+00 1.883534e+00 1.889576e+00 2.680331e-01 6.440215e-01 4.354071e-01 3.622518e-01 3.394995e-01 4.964515e-01 4.360783e-01 3.959448e-01 5.003389e-01 3.952500e-01 3.635617e-01 3.584636e-01 3.390242e-01
<GCONST> 1.329267e+02
<MIXTURE> 2 9.155849e-01
<MEAN> 39
 -1.776704e+01 -3.303627e+00 -1.238739e+00 4.012615e+00 3.948640e+00 6.614705e+00 -3.356545e-01 4.468909e+00 -1.672305e-01 -1.080507e+00 4.299024e-01 9.501985e-01 4.973339e+00 1.284810e+00 -1.135967e+00 -5.209739e-01 3.029978e-01 2.362665e-01 6.763757e-02 -2.952687e-01 3.815667e-01 4.253101e-01 2.906956e-01 2.129793e-01 -3.153949e-01 3.364189e-01 6.904392e-01 -1.056671e-01 6.994649e-02 2.365898e-02 -4.676960e-02 -1.821141e-02 -1.998659e-01 4.873884e-02 -1.406010e-01 -8.163422e-02 2.588947e-01 -1.880603e-01 -1.511755e-01
<VARIANCE> 39
 4.596272e+01 2.328858e+01 2.090338e+01 3.080082e+01 3.506541e+01 2.757588e+01 2.332130e+01 2.206756e+01 2.087973e+01 1.930241e+01 1.629583e+01 1.602479e+01 2.466060e+01 8.166517e+00 2.902628e+00 2.994085e+00 4.307185e+00 5.327159e+00 3.980175e+00 3.094485e+00 3.032069e+00 2.842239e+00 2.966171e+00 2.446077e+00 2.351654e+00 3.039039e+00 3.659715e-01 3.055864e-01 3.930078e-01 6.535168e-01 8.611761e-01 6.913351e-01 5.307581e-01 4.861995e-01 6.301863e-01 5.339735e-01 5.238953e-01 4.115786e-01 6.243809e-01
<GCONST> 1.204984e+02
<STATE> 4
<NUMMIXES> 2
<MIXTURE> 1 7.979361e-01
<MEAN> 39
 1.965577e+00 -1.184350e+01 -2.046121e+00 6.048064e+00 4.710695e+00 8.057073e+00 -4.473549e+00 7.437327e+00 -4.039783e+00 -3.582479e+00 8.511541e+00 -3.978819e+00 3.921348e+00 3.411643e+00 -9.503786e-01 1.685149e-01 -3.565103e-03 2.716755e-01 3.115622e-01 -8.905172e-01 2.781619e-01 -2.091298e+00 -1.733374e+00 2.149567e+00 -3.838251e-01 -9.812503e-01 -2.154432e-01 4.494917e-01 1.181781e-01 2.519402e-01 4.494029e-01 -1.239233e-01 -9.240957e-02 -1.064557e-01 -1.502084e-01 -4.182788e-01 -2.611589e-01 3.613033e-01 -4.050104e-02
<VARIANCE> 39
 6.568141e+01 3.290142e+01 2.383395e+01 3.610408e+01 4.750037e+01 5.779079e+01 4.977456e+01 4.673733e+01 6.915855e+01 6.239314e+01 5.876291e+01 2.535570e+01 3.438398e+01 2.306772e+00 3.627152e+00 2.001823e+00 2.509259e+00 3.166151e+00 4.589918e+00 3.092549e+00 2.975807e+00 5.408206e+00 3.647285e+00 5.494383e+00 2.172993e+00 2.106749e+00 2.169222e-01 4.556539e-01 3.723586e-01 4.801255e-01 4.631302e-01 6.880392e-01 5.431274e-01 4.525931e-01 1.439707e+00 8.458403e-01 9.192590e-01 3.300875e-01 3.939179e-01
<GCONST> 1.273279e+02
<MIXTURE> 2 2.020638e-01
<MEAN> 39
 7.188450e+00 -1.643485e+01 4.302142e+00 7.371686e+00 6.871347e+00 1.631039e+01 -7.420240e+00 2.849391e+00 -8.743329e+00 -4.858018e+00 1.384307e+01 -5.422427e+00 1.317122e+00 2.178451e+00 1.674067e+00 1.439484e+00 2.794596e+00 3.078151e+00 -6.542811e-01 -1.278564e+00 -2.541948e-01 -6.733819e-01 -1.580866e+00 3.582540e-02 3.824658e-01 -1.303623e+00 -2.853090e-01 5.635568e-01 -5.294383e-01 5.299422e-01 6.658964e-01 -1.377654e+00 -7.331275e-01 3.644061e-01 4.368421e-01 -5.211099e-01 -5.986550e-01 1.653970e-01 -5.342982e-01
<VARIANCE> 39
 1.830318e+01 2.306122e+01 4.064431e+01 6.259020e+01 5.754854e+01 3.581500e+01 4.834940e+01 3.806762e+01 4.512619e+01 3.326202e+01 3.779541e+01 2.877248e+01 2.683399e+01 1.350643e+00 2.364268e+00 2.193781e+00 2.590863e+00 3.617944e+00 4.724567e+00 6.274113e+00 3.161172e+00 4.063158e+00 4.820670e+00 3.241500e+00 1.749162e+00 3.053786e+00 1.885197e-01 5.734175e-01 4.514478e-01 6.054052e-01 4.544447e-01 3.180529e-01 7.322547e-01 4.420711e-01 6.624799e-01 6.861339e-01 6.220986e-01 3.627997e-01 4.918892e-01
<GCONST> 1.232885e+02
<TRANSP> 5
 0.000000e+00 1.000000e+00 0.000000e+00 0.000000e+00 0.000000e+00
 0.000000e+00 9.386022e-01 6.139778e-02 0.000000e+00 0.000000e+00
 0.000000e+00 0.000000e+00 8.628560e-01 1.371441e-01 0.000000e+00
 0.000000e+00 0.000000e+00 0.000000e+00 7.979826e-01 2.020174e-01
 0.000000e+00 0.000000e+00 0.000000e+00 0.000000e+00 0.000000e+00
<ENDHMM>
~h "u"
<BEGINHMM>
<NUMSTATES> 7
<STATE> 2
<NUMMIXES> 2
<MIXTURE> 1 5.782187e-01
<MEAN> 39
 3.764393e+00 3.912807e+00 3.359255e+00 4.801570e+00 -2.949190e+00 -5.769212e+00 -5.453147e+00 1.297949e+01 4.214276e-02 -9.457556e+00 1.636458e+00 -2.038322e+00 -4.250873e+00 1.421194e+00 3.182177e-01 1.856577e-01 7.112816e-01 3.062454e-01 -1.120045e+00 -7.820600e-01 7.757125e-01 2.345251e-01 -9.820079e-01 -1.932244e-01 -8.634677e-02 -7.413514e-01 -1.305400e-01 -1.996446e-01 -3.532040e-02 4.507353e-02 1.447238e-01 8.103621e-02 -5.426671e-02 3.687027e-02 4.904405e-04 -1.101779e-01 -1.748213e-02 -2.285283e-02 -4.911268e-02
<VARIANCE> 39
 2.141599e+02 7.112302e+01 5.753136e+01 9.294889e+01 1.222161e+02 1.406970e+02 7.195976e+01 1.065115e+02 5.051609e+01 6.972846e+01 6.142844e+01 4.086427e+01 3.387572e+01 4.995336e+00 2.900373e+00 2.995779e+00 4.080483e+00 5.783698e+00 7.493586e+00 4.182667e+00 4.303576e+00 2.398699e+00 4.454571e+00 3.723839e+00 1.837360e+00 2.018018e+00 3.245785e-01 3.090100e-01 3.630164e-01 6.643254e-01 8.692385e-01 8.928448e-01 5.378444e-01 5.434604e-01 3.896433e-01 5.733640e-01 5.680385e-01 2.949163e-01 2.496492e-01
<GCONST> 1.350591e+02
<MIXTURE> 2 4.217809e-01
<MEAN> 39
 1.893400e+01 5.141107e+00 5.330752e+00 1.253528e+01 -1.749143e+00 -2.169667e+01 -1.516361e+01 2.342540e+01 7.513761e+00 -1.746757e+01 -1.302959e+00 -2.274561e+00 -1.092821e+01 5.274702e-02 -1.430634e-01 -4.107111e-02 -2.030554e-02 2.399334e-01 7.897499e-02 -1.956691e-01 2.351987e-01 1.881043e-01 -2.385457e-01 -1.121719e-01 -3.175530e-01 -2.746524e-01 -7.387865e-02 -1.127360e-02 -3.643110e-02 -4.076583e-02 9.006931e-02 2.873032e-01 1.566018e-01 -1.536484e-01 -1.669983e-01 7.940727e-02 7.175242e-02 6.271172e-03 1.058030e-01
<VARIANCE> 39
 4.377547e+00 2.804013e+01 3.620138e+01 2.223473e+01 3.143610e+01 8.553992e+01 2.684959e+01 4.491679e+01 2.447757e+01 3.478848e+01 3.759644e+01 3.101304e+01 2.199103e+01 3.130031e-01 1.104412e+00 1.004890e+00 6.664360e-01 8.189170e-01 1.514683e+00 1.146197e+00 2.081005e+00 1.047597e+00 1.672039e+00 9.614545e-01 9.464561e-01 5.147685e-01 5.347712e-02 4.317215e-02 7.526235e-02 9.083007e-02 8.514022e-02 1.783180e-01 1.369944e-01 2.005281e-01 9.813654e-02 1.739987e-01 1.340065e-01 9.807235e-02 6.727684e-02
<GCONST> 8.455298e+01
<STATE> 3
<NUMMIXES> 2
<MIXTURE> 1 6.667286e-01
<MEAN> 39
 1.944161e+01 2.188378e+00 2.099869e+00 1.050080e+01 6.149203e-01 -1.840862e+01 -1.566448e+01 2.361564e+01 7.345035e+00 -1.716622e+01 -8.944141e-01 -5.113917e+00 -1.009725e+01 1.989260e-01 -3.509250e-01 -3.154787e-01 -1.687315e-01 7.382518e-01 4.133881e-01 -5.788287e-01 9.768874e-02 -4.667988e-01 -8.161719e-01 3.011360e-01 -3.357765e-01 -4.241735e-01 -1.223522e-01 5.306785e-02 4.180994e-02 -5.548884e-02 2.005927e-02 3.212159e-01 2.297277e-01 -1.998469e-01 -1.628190e-01 1.285267e-01 7.867451e-02 8.245189e-02 1.596668e-01
<VARIANCE> 39
 1.032753e+01 3.633557e+01 3.366173e+01 2.476753e+01 5.562599e+01 1.005083e+02 6.360490e+01 7.387183e+01 4.333046e+01 8.343519e+01 2.622624e+01 2.345329e+01 3.262986e+01 5.667183e-01 1.205468e+00 1.178009e+00 1.350413e+00 1.351110e+00 2.548321e+00 2.266942e+00 2.692244e+00 1.212403e+00 3.265779e+00 1.256228e+00 1.035866e+00 7.850965e-01 9.060444e-02 6.519078e-02 1.433228e-01 1.674839e-01 1.556664e-01 2.326304e-01 2.612410e-01 3.193650e-01 1.368250e-01 2.640226e-01 2.019082e-01 1.289912e-01 1.196932e-01
<GCONST> 1.002856e+02
<MIXTURE> 2 3.332713e-01
<MEAN> 39
 1.406056e+01 -9.415582e+00 1.990347e+00 2.544663e+01 2.968654e+01 2.581530e+00 -2.320918e+01 9.624565e+00 -6.015695e+00 -2.296414e+01 8.195353e+00 -2.796049e+00 -1.438403e+01 6.655976e-02 1.052597e-01 -7.364914e-02 -2.518630e-01 -7.498335e-02 -4.036555e-01 -4.167431e-01 2.341523e-01 7.619502e-02 -1.987345e-01 3.067001e-02 -1.135866e-01 -1.921796e-01 -3.290404e-02 4.288189e-02 5.306813e-02 -2.391002e-02 -1.401295e-01 1.244094e-01 1.884411e-01 -1.488717e-01 4.902921e-02 2.098877e-01 -1.239578e-01 -2.432854e-02 1.526038e-01
<VARIANCE> 39
 2.330250e+01 1.735924e+01 2.849430e+01 1.155047e+02 5.625013e+01 2.413969e+01 7.972455e+01 4.417677e+01 2.800622e+01 6.006628e+01 1.246990e+02 1.744412e+01 4.682556e+01 4.811524e-01 6.361541e-01 9.785571e-01 1.506004e+00 1.578928e+00 1.643454e+00 2.804109e+00 2.621317e+00 1.043379e+00 2.386101e+00 2.362494e+00 7.669310e-01 1.504954e+00 8.265880e-02 8.707651e-02 1.276240e-01 1.737407e-01 2.310126e-01 2.117537e-01 3.875180e-01 3.786696e-01 1.769908e-01 4.091364e-01 3.498023e-01 1.143500e-01 2.153488e-01
<GCONST> 1.031267e+02
<STATE> 4
<NUMMIXES> 2
<MIXTURE> 1 1.000000e+00
<MEAN> 39
 1.958632e+01 -2.154710e+00 3.226390e-01 1.028869e+01 8.566202e+00 -8.023492e+00 -1.381992e+01 2.310183e+01 -2.245296e+00 -2.858249e+01 2.298939e+00 -3.129617e+00 -1.166433e+01 -1.997354e-01 -1.013047e-01 -3.293883e-01 3.678166e-01 8.172369e-01 1.285471e+00 1.040698e+00 -9.103661e-01 -1.069420e+00 2.704287e-02 -1.216820e-01 2.441954e-01 5.533974e-01 -2.312170e-01 3.040998e-01 1.618895e-01 6.795228e-02 -1.293102e-01 2.030025e-01 4.482132e-01 -3.040040e-01 1.940656e-01 6.138502e-01 -3.201812e-01 -1.517521e-02 2.767810e-01
<VARIANCE> 39
 1.275899e+01 2.658167e+01 2.998885e+01 3.029045e+01 5.357804e+01 9.198383e+01 4.208434e+01 6.933576e+01 4.849713e+01 9.834189e+01 3.728102e+01 3.584235e+01 3.060146e+01 5.187034e-01 1.062319e+00 9.591063e-01 1.054817e+00 8.602915e-01 1.264917e+00 1.895157e+00 1.931610e+00 1.232983e+00 2.850889e+00 1.752537e+00 1.172556e+00 7.793248e-01 1.039804e-01 1.258029e-01 1.603586e-01 1.348804e-01 1.065951e-01 2.409021e-01 2.236076e-01 3.902963e-01 3.168026e-01 4.585981e-01 2.731197e-01 1.531896e-01 1.439735e-01
<GCONST> 1.010990e+02
<MIXTURE> 2 0.000000e+00
<MEAN> 39
 3.417223e+00 7.293330e+00 8.330730e+00 -9.710498e+00 -1.625434e-01 -2.035127e+01 -9.064593e-01 1.561739e+00 -1.227357e+01 -1.039749e+01 -7.147142e+00 -1.017353e+01 -1.074242e+01 -2.990634e-02 2.168149e-01 1.001392e-02 -4.689300e-02 -1.589202e-01 -7.911995e-03 6.217949e-02 3.558638e-02 5.552286e-02 3.114433e-03 -1.407267e-01 -1.060831e-01 -1.548424e-01 -5.462008e-03 -1.843423e-02 -2.657526e-02 6.268177e-02 6.855920e-02 9.713328e-02 -2.289386e-02 -5.790818e-02 2.742950e-02 2.240322e-02 1.946409e-02 5.355634e-02 3.129942e-02
<VARIANCE> 39
 6.075173e+00 4.578182e+01 2.743917e+01 3.471677e+01 5.041447e+01 4.296664e+01 3.941714e+01 4.597451e+01 8.174229e+01 6.164312e+01 4.850667e+01 5.474281e+01 4.559898e+01 9.210440e-02 5.496898e-01 4.708762e-01 6.562652e-01 8.952708e-01 9.710230e-01 9.655681e-01 1.150128e+00 1.134475e+00 1.179296e+00 1.051585e+00 1.147964e+00 1.009993e+00 1.406629e-02 4.912791e-02 6.224088e-02 9.069604e-02 1.023018e-01 1.395229e-01 1.419330e-01 1.569344e-01 1.592698e-01 1.563243e-01 1.508348e-01 1.450534e-01 1.304802e-01
<GCONST> 8.581348e+01
<STATE> 5
<NUMMIXES> 2
<MIXTURE> 1 3.425367e-01
<MEAN> 39
 -2.505651e+00 -1.368283e+01 9.715141e+00 9.396297e+00 3.768267e+00 6.267672e+00 -1.075369e+01 1.284384e+00 -6.998027e+00 -1.241949e+01 1.145181e+00 2.092990e+00 2.086226e+00 -1.082687e+00 -5.190625e-02 -3.433052e-02 -5.774505e-01 -7.202529e-01 -6.674451e-02 3.592997e-01 -3.001636e-01 1.908716e-01 7.268435e-01 -2.219261e-01 -7.942379e-02 3.580169e-01 5.514115e-03 4.368563e-02 -4.948631e-02 -5.186870e-02 -1.986944e-02 -4.857709e-02 -1.506101e-02 8.464399e-02 1.349542e-01 6.616414e-02 -4.004522e-02 -5.476646e-02 -2.186619e-02
<VARIANCE> 39
 1.897002e+02 3.409246e+02 1.709153e+02 1.083193e+02 1.324100e+02 1.077197e+02 9.467365e+01 1.070303e+02 8.635252e+01 1.035587e+02 6.560503e+01 2.504410e+01 4.759649e+01 5.479472e+00 1.156959e+01 5.582809e+00 4.117338e+00 3.925039e+00 4.526063e+00 4.875924e+00 3.992277e+00 4.482548e+00 5.000973e+00 3.356838e+00 2.399738e+00 3.330932e+00 3.051541e-01 1.040050e+00 8.558836e-01 5.612811e-01 4.363958e-01 5.793939e-01 5.919137e-01 5.997930e-01 8.258649e-01 7.931497e-01 5.615724e-01 4.919087e-01 4.954591e-01
<GCONST> 1.445616e+02
<MIXTURE> 2 6.574632e-01
<MEAN> 39
 1.670211e+01 5.005795e+00 2.471239e+00 1.140121e+01 5.862572e+00 -5.551077e+00 -6.095756e+00 1.642962e+01 6.960769e-01 -1.609665e+01 -3.685724e+00 -5.195078e+00 -7.510466e+00 -1.547267e+00 1.474469e+00 9.245002e-01 -8.847966e-02 4.881319e-01 3.114372e+00 2.549604e+00 -1.613910e+00 2.201021e-01 2.179801e+00 -1.404711e+00 -2.752690e-01 1.517150e+00 -3.178856e-01 1.714409e-01 4.122390e-01 9.132834e-02 7.164636e-02 2.093258e-01 -4.035139e-02 5.957419e-02 8.511735e-02 -4.629053e-03 -1.020434e-02 -8.566752e-04 8.304562e-02
<VARIANCE> 39
 1.347160e+01 4.196273e+01 5.005679e+01 5.261395e+01 5.952081e+01 1.122887e+02 4.763568e+01 5.995770e+01 3.361820e+01 6.606677e+01 3.757463e+01 4.262456e+01 1.879038e+01 8.828828e-01 1.848263e+00 1.766209e+00 1.499182e+00 2.124891e+00 2.964036e+00 2.420673e+00 3.103694e+00 2.459861e+00 4.087874e+00 1.866309e+00 1.387011e+00 1.016401e+00 7.847572e-02 1.839231e-01 1.778811e-01 2.252083e-01 2.019417e-01 4.112940e-01 3.105801e-01 3.994189e-01 2.982834e-01 4.273728e-01 2.513951e-01 2.006711e-01 1.566121e-01
<GCONST> 1.103376e+02
<STATE> 6
<NUMMIXES> 2
<MIXTURE> 1 4.057847e-01
<MEAN> 39
 -2.627375e+01 -6.776108e+00 -5.633339e+00 -3.321024e+00 -3.760923e+00 9.163516e-01 -3.047191e+00 1.295840e+00 -2.768811e+00 -1.521425e+00 5.388176e-01 -5.337498e-02 9.667045e-01 -3.842286e-02 1.366495e-03 -1.504029e-02 -1.572422e-02 -2.625013e-02 6.737699e-03 4.946490e-02 6.441420e-02 1.036083e-01 1.025119e-01 -1.231218e-02 -6.142606e-02 -3.250795e-02 3.062034e-02 2.091384e-02 1.187240e-02 1.549871e-02 3.158548e-02 3.291034e-02 2.338797e-03 -1.439859e-02 -1.659939e-02 -1.530434e-02 1.189033e-02 2.047537e-02 1.716754e-02
<VARIANCE> 39
 1.006955e+00 2.788353e+00 2.974649e+00 2.533561e+00 3.276522e+00 6.064798e+00 8.453323e+00 5.211307e+00 1.363993e+01 1.664230e+01 7.392201e+00 1.144552e+01 5.853769e+00 9.185363e-02 2.281888e-01 3.159294e-01 3.275995e-01 5.054069e-01 7.536902e-01 8.937325e-01 8.108300e-01 1.098247e+00 1.158786e+00 9.982233e-01 9.619933e-01 6.519752e-01 3.131309e-02 5.161839e-02 8.087222e-02 7.851698e-02 1.162229e-01 1.632760e-01 2.242625e-01 2.039285e-01 2.387730e-01 2.374356e-01 2.165104e-01 2.049918e-01 1.506239e-01
<GCONST> 5.907196e+01
<MIXTURE> 2 5.942150e-01
<MEAN> 39
 6.958549e+00 9.336283e+00 6.973191e+00 1.061050e+01 7.534763e+00 5.966331e+00 2.590099e+00 1.282608e+01 -1.186748e-01 -1.075163e+01 -5.654833e+00 -5.076161e+00 -2.497172e+00 -1.923215e+00 5.240550e-01 1.101465e+00 3.007003e-01 2.893800e-01 1.529749e+00 8.395275e-01 -1.003195e+00 -1.477616e-01 9.530521e-01 -4.400191e-01 1.386625e-01 9.841608e-01 3.728845e-03 -4.346226e-01 -1.189698e-01 4.969927e-02 -4.432786e-02 -3.666736e-01 -4.720034e-01 1.985185e-02 -8.269877e-02 -2.153807e-01 2.490267e-01 8.163165e-02 -1.203846e-01
<VARIANCE> 39
 9.088142e+01 5.977050e+01 5.663234e+01 4.365913e+01 4.531561e+01 5.372341e+01 4.565917e+01 3.111440e+01 4.487669e+01 8.020402e+01 5.394353e+01 4.521702e+01 2.456891e+01 1.426081e+00 4.121247e+00 2.693040e+00 2.267917e+00 2.181702e+00 4.317616e+00 3.379040e+00 2.907160e+00 2.647751e+00 4.528704e+00 2.437889e+00 1.707142e+00 1.741594e+00 1.215420e-01 3.153474e-01 2.733782e-01 2.054239e-01 2.348883e-01 3.055827e-01 3.863221e-01 3.393552e-01 3.916228e-01 4.337167e-01 3.047245e-01 2.307349e-01 2.537970e-01
<GCONST> 1.183031e+02
<TRANSP> 7
 0.000000e+00 1.000000e+00 0.000000e+00 0.000000e+00 0.000000e+00 0.000000e+00 0.000000e+00
 0.000000e+00 9.223268e-01 7.767320e-02 0.000000e+00 0.000000e+00 0.000000e+00 0.000000e+00
 0.000000e+00 0.000000e+00 7.945719e-01 2.054282e-01 0.000000e+00 0.000000e+00 0.000000e+00
 0.000000e+00 0.000000e+00 0.000000e+00 7.547603e-01 2.452398e-01 0.000000e+00 0.000000e+00
 0.000000e+00 0.000000e+00 0.000000e+00 0.000000e+00 7.532411e-01 2.467589e-01 0.000000e+00
 0.000000e+00 0.000000e+00 0.000000e+00 0.000000e+00 0.000000e+00 7.573745e-01 2.426255e-01
 0.000000e+00 0.000000e+00 0.000000e+00 0.000000e+00 0.000000e+00 0.000000e+00 0.000000e+00
<ENDHMM>
~h "w"
<BEGINHMM>
<NUMSTATES> 5
<STATE> 2
<NUMMIXES> 2
<MIXTURE> 1 1.000000e+00
<MEAN> 39
 7.413285e+00 1.474685e+01 9.637260e+00 1.394280e+01 1.079695e+01 6.820162e+00 3.780292e+00 1.669022e+01 4.529593e+00 -8.248750e+00 -6.616685e+00 -6.132549e+00 -6.549253e+00 -7.133886e-01 8.025621e-01 1.069037e+00 1.732093e-01 2.220275e-03 7.518436e-01 5.872237e-01 -1.483404e-01 2.190599e-01 7.357518e-01 1.561713e-02 -4.133249e-01 -1.155274e-01 7.045136e-02 -3.738721e-01 -2.413556e-01 4.514176e-02 1.142113e-01 -9.685826e-02 -2.371664e-01 -5.256849e-02 -1.085925e-01 -1.636544e-01 1.381232e-01 1.471874e-01 1.205042e-01
<VARIANCE> 39
 2.186794e+01 1.766998e+01 3.400298e+01 1.698912e+01 2.152742e+01 3.952819e+01 2.144802e+01 4.315282e+01 3.133519e+01 3.988288e+01 1.868795e+01 1.695070e+01 1.425237e+01 1.084099e+00 1.423106e+00 1.553089e+00 7.539554e-01 8.566279e-01 1.661233e+00 1.537634e+00 1.763711e+00 1.215225e+00 2.020580e+00 1.406974e+00 1.167282e+00 1.152895e+00 6.410212e-02 1.236494e-01 1.762495e-01 1.246181e-01 1.273177e-01 1.925097e-01 1.964482e-01 3.131834e-01 2.038721e-01 2.453580e-01 2.078660e-01 1.661770e-01 1.753875e-01
<GCONST> 9.333967e+01
<MIXTURE> 2 0.000000e+00
<MEAN> 39
 1.378911e+01 -5.882964e+00 5.711132e+00 9.465131e+00 -1.243303e+01 8.746708e+00 5.601330e-01 -7.174479e+00 2.589908e+00 -1.117520e+01 -1.118331e+01 1.178023e-01 -6.158607e+00 -1.288440e-01 1.712742e-02 2.953843e-01 2.247112e-02 -1.709286e-01 2.319557e-01 7.940844e-02 2.872613e-02 2.858532e-01 -3.339471e-02 -1.537790e-01 2.861512e-02 -6.112367e-02 4.143821e-02 -1.702908e-01 -5.036233e-02 -1.903104e-02 -4.757323e-02 -1.118162e-01 -1.095709e-01 -5.744234e-02 -1.100288e-01 -7.373928e-02 7.590093e-02 2.229727e-02 -1.457045e-03
<VARIANCE> 39
 5.693203e+00 3.076212e+01 1.764848e+01 2.169621e+01 3.926045e+01 3.001332e+01 2.751151e+01 3.213239e+01 3.717189e+01 2.692718e+01 1.927668e+01 1.926764e+01 1.896693e+01 1.228157e-01 5.694669e-01 4.044106e-01 4.887558e-01 7.384183e-01 9.813445e-01 7.732689e-01 8.090994e-01 9.743630e-01 8.385676e-01 6.937302e-01 6.511840e-01 6.163760e-01 1.787036e-02 5.931752e-02 6.642151e-02 7.853088e-02 1.136717e-01 1.498673e-01 1.329894e-01 1.448491e-01 1.629503e-01 1.434017e-01 1.325567e-01 1.232411e-01 1.184856e-01
<GCONST> 7.573148e+01
<STATE> 3
<NUMMIXES> 2
<MIXTURE> 1 9.714254e-01
<MEAN> 39
 5.374835e+00 9.942867e+00 8.587607e+00 1.521558e+01 1.328965e+01 8.938555e+00 1.901204e+00 1.623035e+01 5.198236e+00 -7.520352e+00 -4.976194e+00 -5.703546e+00 -2.402379e+00 1.201970e+00 -2.283356e+00 -2.024750e+00 -4.961554e-01 -9.332191e-02 -1.460947e+00 -1.889567e+00 5.353840e-01 -3.509109e-02 -1.297158e+00 4.302987e-01 4.365943e-01 7.056569e-01 5.293538e-01 -3.161193e-01 -4.832161e-01 -2.209747e-01 -2.032704e-01 -6.434504e-01 -5.269730e-01 2.559729e-02 -1.983106e-01 -4.342298e-01 1.547562e-01 2.015037e-01 -1.060413e-01
<VARIANCE> 39
 1.777166e+01 3.304064e+01 2.756899e+01 1.635855e+01 2.658425e+01 4.774818e+01 2.642245e+01 2.693718e+01 3.490464e+01 3.110846e+01 2.529337e+01 1.363102e+01 1.239813e+01 1.435154e+00 1.286918e+00 1.679676e+00 1.364040e+00 1.592891e+00 3.346730e+00 2.277152e+00 1.945163e+00 2.301681e+00 2.236743e+00 2.272182e+00 1.203291e+00 1.125091e+00 7.609456e-02 2.396562e-01 2.435877e-01 2.094825e-01 2.198701e-01 2.527945e-01 2.469397e-01 3.521951e-01 2.908670e-01 3.072203e-01 3.439952e-01 2.135487e-01 2.067464e-01
<GCONST> 1.016811e+02
<MIXTURE> 2 2.857466e-02
<MEAN> 39
 1.472582e+01 1.142917e+01 5.318557e+00 1.194054e+01 6.112000e+00 -1.766216e+00 -3.803163e+00 1.175544e+01 -7.114880e-01 -1.077592e+01 -1.269805e+00 -5.323392e+00 -1.126770e+01 8.088480e-01 -1.211055e+00 -1.350456e+00 2.030113e-01 7.045318e-01 -5.318658e-01 -4.727378e-01 3.726139e-01 -4.321981e-01 -1.174778e+00 2.296205e-01 4.775983e-01 -4.841775e-01 -1.860353e-02 -5.998269e-02 -9.637593e-02 3.031281e-02 1.858971e-01 5.765760e-02 -7.162696e-02 5.322386e-02 -3.351267e-02 -1.814837e-01 -3.412173e-02 6.000534e-02 5.373991e-02
<VARIANCE> 39
 5.922071e+00 2.145307e+01 1.556647e+01 3.862584e+01 6.006342e+01 4.709996e+01 1.113125e+01 7.036841e+01 1.763507e+01 1.844592e+01 5.155338e+00 1.063989e+01 1.150170e+01 1.403773e-01 3.579057e-01 1.388897e-01 2.874153e-01 4.443670e-01 8.130172e-01 1.116217e+00 1.533186e+00 6.249619e-01 8.826960e-01 3.891403e-01 2.402732e-01 4.900576e-01 1.223810e-02 5.220491e-02 3.314089e-02 5.222640e-02 6.809757e-02 6.976122e-02 9.511058e-02 1.557082e-01 1.046184e-01 6.786902e-02 6.789012e-02 6.382982e-02 6.464732e-02
<GCONST> 6.298862e+01
<STATE> 4
<NUMMIXES> 2
<MIXTURE> 1 0.000000e+00
<MEAN> 39
 1.883199e+01 -7.001300e+00 -1.800085e+00 7.613077e+00 4.525700e+00 -6.993447e+00 -1.184967e+01 1.523451e+01 -9.600030e+00 -2.765470e+01 9.438578e+00 3.366591e+00 -8.420697e+00 -2.649488e-01 -1.113522e-01 -5.765734e-02 -2.314895e-01 1.876235e-01 3.040232e-01 -2.620974e-02 -6.262864e-01 -1.918356e+00 -4.364128e-02 2.249173e+00 4.445328e-01 -1.567626e-01 3.064628e-01 -2.403390e-01 2.766851e-01 -1.412306e-01 2.970545e-01 6.027837e-02 -3.513275e-01 4.939724e-01 4.594464e-02 2.586159e-02 3.198166e-01 -4.293582e-01 -8.306079e-02
<VARIANCE> 39
 1.164153e-10 0.000000e+00 0.000000e+00 0.000000e+00 0.000000e+00 0.000000e+00 0.000000e+00 0.000000e+00 2.328306e-10 0.000000e+00 0.000000e+00 0.000000e+00 0.000000e+00 0.000000e+00 5.820766e-11 0.000000e+00 0.000000e+00 1.455192e-11 0.000000e+00 0.000000e+00 0.000000e+00 0.000000e+00 0.000000e+00 0.000000e+00 -1.455192e-11 -7.275958e-12 0.000000e+00 2.273737e-13 0.000000e+00 1.421085e-14 0.000000e+00 0.000000e+00 0.000000e+00 0.000000e+00 7.275958e-12 0.000000e+00 -7.275958e-12 0.000000e+00 0.000000e+00
<GCONST> -3.200001e+11
<MIXTURE> 2 1.000000e+00
<MEAN> 39
 1.790137e+01 -2.321099e-02 -4.144898e+00 1.055161e+01 5.998628e+00 -1.230203e+01 -1.324544e+01 2.105255e+01 6.739785e+00 -1.688050e+01 -4.772357e+00 -2.080788e+00 -1.760531e+00 1.576893e+00 -1.451151e+00 -1.750116e+00 -4.886509e-01 -3.105521e-01 -2.331993e+00 -1.988866e+00 1.950547e-01 -3.365030e-01 -1.248098e+00 5.741951e-01 9.224145e-01 2.058142e-01 -2.295519e-01 1.592529e-01 1.827030e-01 4.913706e-02 2.168213e-01 3.737064e-01 2.365810e-01 -1.710307e-02 1.020512e-02 1.913277e-01 8.670313e-02 4.842959e-03 1.890216e-02
<VARIANCE> 39
 1.849830e+01 1.912399e+01 2.788248e+01 1.565479e+01 3.642178e+01 1.243619e+02 4.629593e+01 4.083129e+01 6.260106e+01 3.313546e+01 4.205539e+01 1.613375e+01 1.778490e+01 1.701434e+00 9.463521e-01 1.507681e+00 8.843791e-01 1.696586e+00 3.681127e+00 2.523628e+00 2.220876e+00 1.894100e+00 2.776660e+00 1.736105e+00 1.126881e+00 8.128896e-01 1.403080e-01 1.041220e-01 1.565608e-01 1.484861e-01 1.755533e-01 3.731630e-01 2.806790e-01 3.288101e-01 1.804569e-01 3.139119e-01 2.543175e-01 1.606325e-01 1.318727e-01
<GCONST> 1.018758e+02
<TRANSP> 5
 0.000000e+00 1.000000e+00 0.000000e+00 0.000000e+00 0.000000e+00
 0.000000e+00 8.711864e-01 1.288135e-01 0.000000e+00 0.000000e+00
 0.000000e+00 0.000000e+00 7.838291e-01 2.161709e-01 0.000000e+00
 0.000000e+00 0.000000e+00 0.000000e+00 8.028639e-01 1.971361e-01
 0.000000e+00 0.000000e+00 0.000000e+00 0.000000e+00 0.000000e+00
<ENDHMM>
~h "y"
<BEGINHMM>
<NUMSTATES> 5
<STATE> 2
<NUMMIXES> 2
<MIXTURE> 1 1.000000e+00
<MEAN> 39
 7.040669e+00 -4.153536e+00 1.403657e+01 3.518240e+01 2.132562e+01 -1.609303e+00 -9.928366e+00 1.523217e+01 -3.530658e+00 -1.913501e+01 2.274647e+00 -1.263472e+00 -9.808876e+00 4.748337e-01 -5.325608e-01 -2.875522e-01 5.037154e-02 6.486944e-01 -1.820986e-01 -1.196921e+00 -1.002709e-01 -1.240419e-01 -6.553018e-01 2.830554e-01 7.732712e-02 -3.854768e-01 -1.901058e-02 -3.079766e-02 -8.879872e-02 -1.977369e-01 -5.726203e-02 2.313204e-02 -2.510444e-02 2.188771e-02 1.947044e-03 -3.809363e-03 4.239378e-02 3.577180e-02 5.443533e-02
<VARIANCE> 39
 2.580185e+01 8.493240e+01 4.303035e+01 5.373010e+01 6.634913e+01 4.951625e+01 1.347262e+02 7.839541e+01 2.477510e+01 5.461044e+01 4.699870e+01 2.546228e+01 3.935667e+01 9.757414e-01 2.058791e+00 1.736648e+00 3.009851e+00 2.329217e+00 2.000482e+00 4.371413e+00 2.459620e+00 1.135897e+00 3.591993e+00 1.821716e+00 1.440422e+00 1.801798e+00 8.760443e-02 1.889975e-01 1.639497e-01 3.563067e-01 2.887529e-01 2.465898e-01 3.282873e-01 3.460087e-01 1.673392e-01 4.085052e-01 2.409110e-01 1.989852e-01 2.052104e-01
<GCONST> 1.126097e+02
<MIXTURE> 2 0.000000e+00
<MEAN> 39
 1.077002e+01 -1.956420e+01 1.628934e+01 2.477308e+01 -1.067274e+01 -2.976494e-01 -1.631964e+01 -1.125875e+01 8.065402e+00 -1.447605e+01 -1.309809e+01 -1.712498e+00 -8.394070e+00 6.742813e-02 -9.836404e-02 -1.169972e-01 -9.043243e-02 -7.185069e-02 -4.700645e-02 -1.383417e-01 -1.586409e-01 -4.520181e-02 8.582173e-02 1.406730e-01 1.323300e-02 -1.787742e-02 1.718775e-02 -1.453367e-03 -6.490878e-02 -5.673794e-02 8.897717e-03 2.129654e-02 3.349083e-04 -4.583070e-02 -3.346105e-02 4.537795e-02 5.137637e-02 4.648509e-03 -1.070770e-02
<VARIANCE> 39
 4.835891e+00 1.564970e+01 1.978276e+01 2.057377e+01 2.182557e+01 2.436750e+01 2.886898e+01 3.342552e+01 2.415036e+01 3.267395e+01 2.042847e+01 2.264841e+01 1.821476e+01 1.990445e-01 2.737281e-01 3.442593e-01 4.312418e-01 5.640050e-01 5.272828e-01 3.877100e-01 4.964686e-01 5.398856e-01 5.405872e-01 4.196366e-01 3.762387e-01 3.816764e-01 2.946622e-02 3.539984e-02 2.297077e-02 5.282143e-02 8.965132e-02 8.030171e-02 5.395827e-02 6.092423e-02 8.503931e-02 7.202144e-02 5.072999e-02 5.755227e-02 6.090007e-02
<GCONST> 6.119115e+01
<STATE> 3
<NUMMIXES> 2
<MIXTURE> 1 6.064549e-01
<MEAN> 39
 1.266465e+01 -1.178339e+01 6.600125e+00 3.107298e+01 3.335746e+01 2.156519e+00 -2.841990e+01 6.174675e+00 -6.196872e+00 -2.322256e+01 1.025640e+01 -5.027508e-01 -1.822776e+01 2.179656e-01 1.326513e-01 -2.678893e-01 -8.128551e-01 -2.490618e-01 -1.278918e-01 -2.896632e-01 -2.114733e-02 -2.034406e-01 -4.705383e-01 9.154229e-02 3.775810e-01 -3.168002e-03 1.093950e-02 6.874227e-02 -2.921587e-02 -8.903101e-02 -1.921696e-01 2.105299e-03 2.334211e-01 3.884795e-02 -3.542184e-02 5.486862e-02 -6.973157e-02 2.430901e-04 1.661099e-01
<VARIANCE> 39
 5.927192e+00 1.662857e+01 1.779113e+01 4.033832e+01 2.612358e+01 3.588738e+01 5.500762e+01 3.862466e+01 2.957409e+01 2.907721e+01 4.296938e+01 1.677973e+01 2.147163e+01 3.288763e-01 3.463178e-01 6.979082e-01 1.468654e+00 8.713250e-01 9.990506e-01 1.624505e+00 1.259618e+00 8.954587e-01 1.538285e+00 1.073441e+00 6.482256e-01 7.510571e-01 4.379602e-02 4.654663e-02 6.676043e-02 1.228014e-01 1.276441e-01 1.335889e-01 2.214488e-01 1.895948e-01 1.320930e-01 2.331610e-01 1.643883e-01 1.004580e-01 1.204157e-01
<GCONST> 8.391171e+01
<MIXTURE> 2 3.935449e-01
<MEAN> 39
 4.693570e+00 -7.982933e+00 1.428191e+00 1.190550e+01 1.216922e+01 1.939600e+00 -1.312822e+01 7.659979e+00 -4.960414e+00 -1.167443e+01 7.764727e+00 -3.162103e-01 -3.725657e+00 1.736871e-01 7.179944e-02 -3.485590e-01 -3.737916e-01 5.714942e-02 -2.618484e-01 -3.533505e-01 2.249884e-01 -6.691529e-02 -3.935582e-01 1.507720e-01 1.954447e-01 -9.495247e-02 -6.262986e-02 -1.981512e-02 3.744229e-02 -2.219486e-02 -1.178058e-01 1.014638e-02 1.233613e-01 1.548809e-03 5.457346e-02 9.750155e-02 -4.561052e-02 -5.292505e-03 8.831929e-02
<VARIANCE> 39
 2.587537e+02 1.223020e+02 1.575578e+02 1.702521e+02 1.687323e+02 1.042753e+02 1.778482e+02 1.033326e+02 7.641785e+01 1.404124e+02 1.030946e+02 4.009564e+01 8.028592e+01 3.113084e+00 3.322613e+00 3.013878e+00 2.980345e+00 2.517536e+00 2.687866e+00 5.077618e+00 3.261781e+00 2.319588e+00 4.253783e+00 3.891943e+00 1.540352e+00 2.150580e+00 2.418029e-01 3.024812e-01 3.431374e-01 2.840853e-01 3.538989e-01 3.552855e-01 5.860882e-01 4.489112e-01 3.791300e-01 5.333436e-01 4.598163e-01 2.349992e-01 3.080052e-01
<GCONST> 1.345673e+02
<STATE> 4
<NUMMIXES> 2
<MIXTURE> 1 9.912932e-01
<MEAN> 39
 1.782737e+01 -1.194561e+01 -1.885500e+00 1.593084e+01 2.377312e+01 -2.503768e+00 -2.880263e+01 1.075685e+01 -8.302958e+00 -2.563688e+01 1.541755e+01 4.729376e+00 -9.539374e+00 3.318033e-01 4.121312e-01 -6.446772e-01 -1.293622e+00 -1.273643e+00 -3.145901e-01 8.335851e-01 4.671195e-01 1.078533e-01 3.648772e-01 3.145098e-01 4.142899e-01 7.550067e-01 -7.403258e-02 4.315420e-02 8.925474e-02 1.185782e-01 -1.054279e-01 2.792560e-02 2.550469e-01 2.881141e-02 1.132915e-01 1.869415e-01 -1.562490e-01 -1.132099e-01 5.061241e-02
<VARIANCE> 39
 1.269078e+01 1.867697e+01 3.519945e+01 5.590318e+01 4.364688e+01 3.397093e+01 6.096744e+01 4.116590e+01 1.990468e+01 4.446193e+01 7.148950e+01 1.589531e+01 4.429497e+01 6.179973e-01 6.005362e-01 1.145194e+00 1.251907e+00 9.905599e-01 1.062225e+00 2.684841e+00 2.221488e+00 1.017803e+00 2.510304e+00 2.859526e+00 9.437291e-01 8.640397e-01 7.829743e-02 7.467031e-02 1.108377e-01 1.242410e-01 1.313893e-01 1.359532e-01 3.142761e-01 2.957242e-01 1.313086e-01 2.929176e-01 2.559329e-01 1.342988e-01 1.338891e-01
<GCONST> 9.599469e+01
<MIXTURE> 2 8.706788e-03
<MEAN> 39
 1.898605e+01 4.267819e+00 5.001248e+00 1.147026e+01 3.517720e+00 -1.669082e+01 -1.710554e+01 2.258789e+01 9.761514e+00 -2.031349e+01 -4.622553e+00 -2.746452e+00 -1.274281e+01 3.938235e-02 2.747922e-01 1.778260e-01 4.612494e-02 -7.950978e-01 -7.912177e-01 4.973589e-01 3.670837e-01 -5.816945e-02 1.438033e-01 1.365139e-01 4.754475e-01 3.202778e-01 3.005617e-02 -1.179157e-02 -3.913578e-02 -4.303892e-02 8.991467e-02 1.470216e-01 -3.249000e-03 -6.294275e-03 -6.612522e-02 1.955158e-02 1.272686e-01 -8.386315e-02 -4.630511e-02
<VARIANCE> 39
 2.448960e+00 2.704652e+01 1.445583e+01 1.440615e+01 2.384221e+01 2.440727e+01 2.303795e+01 1.782973e+01 1.576810e+01 5.006741e+01 6.365818e+00 9.775843e+00 5.870252e+00 1.475638e-01 1.847427e-01 2.714405e-01 5.499215e-01 2.601107e-01 9.890335e-01 4.420514e-01 1.265734e+00 9.528297e-01 6.190222e-01 5.916384e-01 6.097832e-01 2.993271e-01 2.464216e-02 1.206125e-02 4.578869e-02 5.185243e-02 3.005390e-02 3.824042e-02 6.025023e-02 9.732638e-02 2.928085e-02 5.298072e-02 5.809142e-02 3.984530e-02 4.046829e-02
<GCONST> 5.415330e+01
<TRANSP> 5
 0.000000e+00 1.000000e+00 0.000000e+00 0.000000e+00 0.000000e+00
 0.000000e+00 8.949994e-01 1.050007e-01 0.000000e+00 0.000000e+00
 0.000000e+00 0.000000e+00 8.540612e-01 1.459388e-01 0.000000e+00
 0.000000e+00 0.000000e+00 0.000000e+00 8.730749e-01 1.269251e-01
 0.000000e+00 0.000000e+00 0.000000e+00 0.000000e+00 0.000000e+00
<ENDHMM>
~h "z"
<BEGINHMM>
<NUMSTATES> 5
<STATE> 2
<NUMMIXES> 2
<MIXTURE> 1 6.065743e-01
<MEAN> 39
 -2.216981e+00 -1.170705e+01 3.886810e+01 3.721333e+00 1.147434e+01 3.780936e+01 -1.225261e+01 -1.085152e+00 -1.303225e+01 -1.466048e+01 4.962224e+00 -2.853104e+00 9.444138e-01 -2.572674e+00 -2.634206e-01 3.080688e+00 -1.433089e+00 -1.041464e+00 1.315473e+00 1.577255e+00 1.830222e+00 5.219925e-01 6.652560e-01 -3.520827e-02 6.722677e-01 9.208524e-01 1.058961e-01 -9.944039e-02 -8.460668e-01 2.474151e-01 1.409745e-01 -6.359006e-01 2.479587e-01 3.599996e-01 3.350261e-01 8.530098e-02 3.210853e-01 2.157049e-01 -3.346669e-01
<VARIANCE> 39
 2.192904e+01 2.738890e+01 3.681188e+01 5.785787e+01 3.971257e+01 3.746254e+01 3.507835e+01 9.086356e+01 4.530301e+01 3.305386e+01 4.586222e+01 3.240290e+01 2.496900e+01 4.422411e-01 8.288651e-01 4.084644e+00 2.004251e+00 1.554596e+00 2.693577e+00 2.117663e+00 1.959697e+00 2.605766e+00 1.678135e+00 1.515645e+00 1.669463e+00 1.681908e+00 4.134259e-02 1.111799e-01 2.676644e-01 2.317424e-01 2.834900e-01 3.297377e-01 3.152862e-01 3.896805e-01 4.488953e-01 3.057785e-01 2.834341e-01 3.003693e-01 2.378996e-01
<GCONST> 1.073071e+02
<MIXTURE> 2 3.934258e-01
<MEAN> 39
 9.929311e+00 -1.161271e+01 1.568899e+01 1.642985e+01 2.207227e+01 2.476627e+01 -1.822699e+01 -6.392207e+00 -1.488011e+01 -1.824362e+01 1.174382e+01 -1.825176e+00 -9.722809e+00 -2.227662e+00 -2.779840e-01 5.201368e+00 -2.370554e+00 -2.450328e+00 4.770509e+00 1.136396e+00 -2.012301e+00 8.494252e-01 1.498237e+00 -2.589508e+00 6.234252e-02 2.704510e+00 -3.123233e-01 -9.627782e-02 5.185332e-01 -4.398253e-01 -7.613094e-02 -1.639266e-01 -1.806300e-01 7.914985e-01 -2.034448e-01 -1.006026e-01 4.524379e-01 -9.603833e-02 1.517956e-02
<VARIANCE> 39
 9.499892e+00 1.643334e+01 5.275341e+01 3.075038e+01 2.018391e+01 5.471341e+01 2.014257e+01 1.943897e+01 2.665380e+01 2.132567e+01 3.264043e+01 1.189224e+01 2.340425e+01 6.589654e-01 4.924564e-01 1.781424e+00 1.309903e+00 1.218898e+00 1.341539e+00 1.522102e+00 2.120533e+00 1.891875e+00 1.065792e+00 1.849571e+00 1.356424e+00 9.947678e-01 3.790671e-02 1.419795e-01 3.198996e-01 2.114000e-01 1.814913e-01 4.868421e-01 2.796763e-01 3.721915e-01 2.891445e-01 1.846413e-01 4.111938e-01 1.705973e-01 2.015487e-01
<GCONST> 9.575860e+01
<STATE> 3
<NUMMIXES> 2
<MIXTURE> 1 1.000000e+00
<MEAN> 39
 -1.292628e+01 -1.504428e+01 4.474070e+01 -1.634557e+00 6.509160e+00 3.846669e+01 -3.129990e+00 9.054459e+00 -4.990256e+00 -8.166117e+00 7.391720e+00 1.786052e+00 2.569128e+00 -1.568492e+00 -1.434500e+00 -8.165200e-02 -1.493019e+00 -1.093692e+00 -2.771219e-01 9.438177e-01 1.588917e+00 1.723533e+00 1.926796e+00 1.014648e+00 6.006190e-01 7.410539e-01 3.522899e-01 -1.959217e-01 -4.237139e-01 -1.056969e-01 6.473363e-02 -1.218498e-01 -5.457889e-01 -4.549256e-01 -3.843298e-01 -3.551937e-02 1.195088e-01 -5.697585e-02 2.382214e-01
<VARIANCE> 39
 1.228671e+01 2.053574e+01 1.728625e+01 3.452413e+01 2.242384e+01 2.604491e+01 1.989767e+01 3.122341e+01 3.294655e+01 3.634205e+01 3.107559e+01 1.550434e+01 1.494737e+01 8.184916e-01 6.694696e-01 1.648272e+00 1.457374e+00 1.933635e+00 2.337995e+00 1.747946e+00 2.490373e+00 2.956855e+00 1.292309e+00 1.287028e+00 1.652951e+00 1.464764e+00 7.602700e-02 1.041418e-01 2.774825e-01 2.144123e-01 3.165208e-01 3.803053e-01 2.217557e-01 3.074180e-01 5.195538e-01 2.839275e-01 2.276626e-01 2.467350e-01 2.286016e-01
<GCONST> 9.937031e+01
<MIXTURE> 2 0.000000e+00
<MEAN> 39
 9.548405e+00 2.757985e+00 1.587493e+00 2.546423e+01 2.516029e+01 -1.532878e+00 -2.210041e+01 2.676743e-01 -3.253519e+00 -5.463100e+00 8.693054e+00 -2.583130e+00 -1.410593e+01 1.165624e+00 -1.204195e+00 -1.929883e+00 -1.209229e+00 -1.199724e+00 -1.876355e+00 -1.184111e+00 -1.165375e+00 -1.026490e+00 -1.079515e+00 1.903820e-03 1.041484e+00 2.377080e-01 1.381469e-01 -5.691695e-01 -3.220993e-01 2.302902e-01 -1.282913e-01 -4.383549e-01 2.209661e-01 1.049928e+00 -1.342033e-01 -4.240417e-01 3.025464e-01 2.700545e-02 -1.260652e-01
<VARIANCE> 39
 0.000000e+00 0.000000e+00 -2.273737e-13 0.000000e+00 -2.842171e-14 5.684342e-14 -4.547474e-13 0.000000e+00 0.000000e+00 -3.637979e-12 0.000000e+00 0.000000e+00 -5.684342e-14 -1.421085e-14 1.136868e-13 0.000000e+00 0.000000e+00 0.000000e+00 0.000000e+00 0.000000e+00 0.000000e+00 2.842171e-14 0.000000e+00 0.000000e+00 0.000000e+00 0.000000e+00 0.000000e+00 0.000000e+00 0.000000e+00 -3.552714e-15 0.000000e+00 0.000000e+00 0.000000e+00 0.000000e+00 -7.105427e-15 -7.105427e-15 0.000000e+00 -8.881784e-16 0.000000e+00
<GCONST> -3.600002e+11
<STATE> 4
<NUMMIXES> 2
<MIXTURE> 1 5.295352e-01
<MEAN> 39
 -1.678356e+01 -2.347255e+01 4.158879e+01 -9.065934e+00 3.663471e+00 3.659413e+01 -4.747555e+00 9.338286e+00 -5.322617e+00 -1.743106e+00 1.207603e+01 4.383543e+00 8.168273e+00 8.875943e-01 -4.087737e-01 -6.993058e-01 -1.708672e-01 1.422732e-01 -9.363224e-02 -5.467500e-01 -9.634172e-01 -7.639123e-01 8.248216e-02 -3.078401e-01 -3.273357e-01 4.217332e-01 6.932184e-01 5.401357e-01 -2.024809e-01 4.641277e-01 1.304031e-01 -1.930125e-01 -1.115769e-01 -3.795560e-01 -1.669421e-01 -3.707480e-01 -4.500479e-01 -2.983311e-01 -2.919777e-01
<VARIANCE> 39
 1.694723e+01 1.804139e+01 1.401909e+01 4.479710e+01 2.758657e+01 3.514878e+01 2.251348e+01 1.707283e+01 2.775530e+01 2.769545e+01 1.776747e+01 1.699321e+01 1.213359e+01 2.545715e+00 2.491163e+00 1.388275e+00 2.666002e+00 2.060335e+00 3.161076e+00 1.401708e+00 1.635258e+00 2.517547e+00 1.785312e+00 1.702844e+00 1.650381e+00 1.420284e+00 1.461994e-01 2.145293e-01 3.264605e-01 2.855303e-01 4.119559e-01 7.646467e-01 2.564126e-01 2.530159e-01 5.587236e-01 3.410745e-01 2.517699e-01 2.500450e-01 2.067745e-01
<GCONST> 1.045434e+02
<MIXTURE> 2 4.704652e-01
<MEAN> 39
 1.413692e+00 -1.603358e+01 2.945722e+01 -1.732127e+00 4.915512e+00 2.882490e+01 -9.346137e+00 1.617808e+00 -8.219717e+00 -8.497989e+00 3.935877e+00 -6.792640e-01 5.568212e+00 4.441034e+00 1.527436e+00 -4.864775e+00 1.887008e+00 3.470215e-01 -3.823225e+00 -1.562364e+00 -3.901690e-01 -3.376453e-01 -2.613265e+00 -5.958638e-01 -1.239180e-01 -1.157780e+00 1.087593e-02 -1.990783e-01 -7.143461e-01 1.707994e-01 3.130411e-01 -5.971148e-01 -1.675379e-01 7.671716e-01 -9.279804e-02 -5.853781e-01 7.966154e-01 3.179235e-01 -3.212015e-01
<VARIANCE> 39
 6.460353e+01 1.615399e+01 7.988677e+01 3.202939e+01 1.726299e+01 5.519273e+01 2.584345e+01 1.957097e+01 2.238944e+01 3.484327e+01 2.407083e+01 1.103107e+01 1.188496e+01 9.042472e-01 1.138018e+00 3.524413e+00 1.334020e+00 1.348325e+00 1.940480e+00 9.801748e-01 3.014358e+00 1.391749e+00 2.537588e+00 3.327647e+00 1.496927e+00 1.174733e+00 3.962217e-01 2.224241e-01 5.095463e-01 1.748844e-01 1.803317e-01 3.287460e-01 2.098801e-01 2.714079e-01 3.266118e-01 2.724089e-01 4.945921e-01 1.962870e-01 1.415314e-01
<GCONST> 1.036826e+02
<TRANSP> 5
 0.000000e+00 1.000000e+00 0.000000e+00 0.000000e+00 0.000000e+00
 0.000000e+00 8.860736e-01 1.139265e-01 0.000000e+00 0.000000e+00
 0.000000e+00 0.000000e+00 7.642723e-01 2.357277e-01 0.000000e+00
 0.000000e+00 0.000000e+00 0.000000e+00 9.112900e-01 8.870990e-02
 0.000000e+00 0.000000e+00 0.000000e+00 0.000000e+00 0.000000e+00
<ENDHMM>
~h "aa"
<BEGINHMM>
<NUMSTATES> 7
<STATE> 2
<NUMMIXES> 2
<MIXTURE> 1 3.541138e-01
<MEAN> 39
 2.289201e+01 -1.290590e+01 -1.538908e+01 7.156398e+00 1.165068e+01 -1.079156e+01 -1.777153e+01 1.583265e+01 -5.510192e+00 -1.719395e+01 1.455191e+01 6.914680e+00 5.033551e-01 1.195616e-01 -1.566132e-01 -1.064600e+00 -7.822292e-01 -5.706498e-01 -6.510916e-01 3.894359e-01 6.363253e-01 1.138371e+00 7.391690e-01 -4.549063e-01 1.679526e-01 4.593213e-01 -1.537012e-01 7.187435e-02 2.381582e-01 3.684571e-02 -4.664471e-02 2.305039e-01 9.948598e-02 -1.070169e-01 1.048616e-01 1.304990e-01 -1.939475e-01 -1.866896e-01 -4.367302e-02
<VARIANCE> 39
 7.417484e+00 8.750875e+00 1.795446e+01 1.593914e+01 2.537607e+01 1.906762e+01 3.710944e+01 3.828981e+01 3.083050e+01 2.535305e+01 4.737917e+01 1.571170e+01 1.708165e+01 6.661610e-01 3.807170e-01 5.873240e-01 5.960333e-01 5.071866e-01 6.106753e-01 1.249694e+00 1.708875e+00 6.493780e-01 8.519316e-01 1.549565e+00 7.907194e-01 5.205155e-01 9.408549e-02 5.851942e-02 7.700659e-02 7.252575e-02 6.162760e-02 9.354001e-02 1.303085e-01 1.761862e-01 8.810160e-02 1.337698e-01 1.599429e-01 8.739970e-02 6.804874e-02
<GCONST> 7.646467e+01
<MIXTURE> 2 6.458864e-01
<MEAN> 39
 1.797968e+01 -7.504878e+00 -8.973900e+00 6.202655e+00 4.404370e+00 -7.217600e+00 -9.925303e+00 1.597260e+01 -1.673739e+00 -1.254649e+01 7.732003e+00 2.453799e+00 8.286058e-01 1.826823e+00 -6.786776e-01 -2.098710e+00 -2.797356e-01 1.157972e-01 -2.403700e+00 -1.206752e+00 1.627069e+00 2.158650e-01 -1.158823e+00 7.828802e-01 7.313552e-01 -2.452257e-01 -4.965824e-01 -7.477392e-02 2.055571e-01 -1.091313e-01 -2.128517e-02 4.109305e-01 2.778904e-01 -1.040462e-01 2.340173e-01 3.908669e-01 -1.655010e-01 -9.691553e-02 1.261342e-01
<VARIANCE> 39
 7.452551e+01 3.485383e+01 4.296355e+01 4.985740e+01 9.160406e+01 8.644371e+01 8.112699e+01 8.490924e+01 9.993938e+01 7.822085e+01 8.042416e+01 2.248970e+01 2.279693e+01 2.849463e+00 1.716288e+00 3.019190e+00 2.439671e+00 2.898029e+00 3.984866e+00 3.326055e+00 3.414920e+00 2.403145e+00 2.880048e+00 2.600940e+00 1.556002e+00 1.293564e+00 3.820744e-01 2.967168e-01 4.710996e-01 4.338930e-01 4.094943e-01 5.122417e-01 4.523136e-01 5.944726e-01 3.989170e-01 4.803855e-01 4.464516e-01 2.412475e-01 1.971001e-01
<GCONST> 1.245207e+02
<STATE> 3
<NUMMIXES> 2
<MIXTURE> 1 1.562867e-03
<MEAN> 39
 2.254240e+01 -1.023002e+01 -1.107172e+01 7.741936e+00 -7.776046e+00 -1.974722e+01 2.967798e+00 3.089028e+01 4.583907e+00 -1.704317e+01 9.195737e-01 5.116848e+00 -4.134970e+00 9.660713e-03 -3.819863e-01 -1.138997e-01 1.842059e-02 2.332482e-01 2.456201e-01 2.782629e-01 -1.849876e-01 -2.323984e-01 1.450165e-01 1.448105e-02 -2.123686e-01 -1.524823e-02 -4.023699e-02 4.858644e-02 9.002822e-03 -3.983819e-02 1.082195e-01 -1.035963e-01 -1.267191e-01 7.315153e-02 1.687328e-02 -1.411386e-02 2.443513e-02 3.896875e-02 -3.521266e-02
<VARIANCE> 39
 9.728535e+00 4.590439e+00 1.097356e+00 3.419485e+00 1.368536e+00 1.359851e+00 1.638394e+00 4.255576e+00 2.155065e+00 1.115440e+00 4.351297e+00 2.811129e+00 1.306468e-01 6.052551e-01 2.069230e-01 1.161741e-01 2.270939e-01 1.140381e-01 2.382382e-01 9.144666e-02 2.786345e-01 8.317821e-02 9.977664e-02 2.946399e-01 1.968148e-01 2.899092e-02 7.313039e-02 3.355101e-02 1.702210e-02 2.810521e-02 1.180593e-02 2.205446e-02 4.163916e-02 3.418178e-02 3.808407e-03 1.811662e-02 4.313017e-02 2.645992e-02 1.398706e-02
<GCONST> 7.449436e+00
<MIXTURE> 2 9.984372e-01
<MEAN> 39
 2.142816e+01 -1.040055e+01 -1.450451e+01 3.117744e+00 7.436983e+00 -1.175867e+01 -1.561728e+01 2.177953e+01 1.794718e+00 -1.448697e+01 1.002837e+01 3.965897e+00 1.240210e+00 -9.396686e-02 -1.400944e-01 -3.860599e-01 -2.481232e-01 -4.170466e-01 -3.454868e-01 4.367769e-01 3.467918e-01 7.034268e-01 5.456156e-01 -3.951578e-01 -6.555633e-02 8.501330e-02 -5.214191e-02 5.676619e-02 1.190747e-01 9.093402e-02 9.587075e-03 1.316848e-01 1.103505e-01 -1.248114e-01 -7.877446e-02 1.969358e-02 -6.277479e-02 -5.150159e-02 -3.951607e-02
<VARIANCE> 39
 1.596071e+01 1.667849e+01 3.147799e+01 2.847840e+01 4.771402e+01 5.250874e+01 5.611385e+01 7.896315e+01 6.447154e+01 5.364861e+01 8.136302e+01 2.579000e+01 2.433646e+01 8.745188e-01 6.927836e-01 9.544445e-01 9.328024e-01 9.851145e-01 9.960848e-01 1.840273e+00 2.699370e+00 1.271974e+00 1.605043e+00 2.186443e+00 1.039997e+00 7.158464e-01 1.795737e-01 1.078187e-01 1.713344e-01 1.466805e-01 1.616916e-01 1.949603e-01 3.185810e-01 4.467697e-01 1.762490e-01 2.939652e-01 3.629358e-01 1.835426e-01 1.227485e-01
<GCONST> 1.006383e+02
<STATE> 4
<NUMMIXES> 2
<MIXTURE> 1 1.922689e-01
<MEAN> 39
 -4.741999e+00 -8.793922e+00 -4.919380e+00 -2.894011e+00 -5.269007e+00 1.398954e+00 1.037317e+00 1.176945e+01 1.515779e+00 -3.179843e+00 2.463835e+00 1.603194e+00 4.217345e+00 -1.988191e-01 -6.869717e-02 6.360210e-02 8.959979e-02 1.274652e-01 1.072925e-01 1.061438e-03 -7.566105e-02 -2.710874e-02 6.088277e-02 3.447700e-03 -9.005377e-02 -9.707486e-02 1.033536e-01 -4.672309e-02 -2.553688e-02 4.177667e-02 6.479811e-02 -4.069385e-02 -8.212860e-02 6.051044e-02 -4.717104e-02 -7.998655e-02 7.172920e-02 -6.433709e-03 -3.812810e-02
<VARIANCE> 39
 3.172045e+02 1.448257e+02 1.837244e+02 7.062827e+01 1.114353e+02 1.509779e+02 1.052053e+02 1.494669e+02 9.531468e+01 5.731178e+01 4.141933e+01 3.377343e+01 2.475253e+01 3.678056e+00 2.173558e+00 2.506878e+00 1.865797e+00 2.108233e+00 2.909406e+00 2.853753e+00 2.746633e+00 2.206557e+00 2.133492e+00 1.777851e+00 1.530688e+00 1.333194e+00 2.530099e-01 2.354740e-01 2.522262e-01 2.440639e-01 2.524044e-01 3.452058e-01 3.842903e-01 4.009971e-01 3.466238e-01 3.475113e-01 3.268921e-01 2.684658e-01 2.252428e-01
<GCONST> 1.247080e+02
<MIXTURE> 2 8.077313e-01
<MEAN> 39
 2.293202e+01 -1.170096e+01 -1.855426e+01 4.007831e+00 2.030761e+00 -1.682084e+01 -9.763810e+00 2.349948e+01 8.060269e+00 -1.036960e+01 3.181170e+00 2.593418e+00 3.449489e-01 -1.950494e-03 -1.098232e-01 -6.744443e-02 -3.343417e-02 -5.408587e-02 5.476394e-02 1.703125e-01 2.403792e-02 -3.290633e-02 9.525771e-02 3.397217e-02 -7.431198e-02 -1.472599e-02 1.116992e-02 3.797450e-02 6.987898e-02 2.282071e-02 3.965260e-02 4.277611e-02 -4.935884e-02 2.811169e-03 -1.124621e-01 -6.369307e-02 9.951856e-02 -1.707741e-02 -1.518532e-02
<VARIANCE> 39
 1.000977e+01 1.073249e+01 1.575118e+01 1.173943e+01 2.820457e+01 3.662766e+01 2.692216e+01 4.168827e+01 4.508228e+01 2.418398e+01 4.450503e+01 1.247222e+01 1.253792e+01 7.833185e-01 3.714283e-01 4.330847e-01 4.433533e-01 4.453821e-01 4.561031e-01 6.756255e-01 1.167353e+00 7.176780e-01 6.302987e-01 1.146054e+00 4.616024e-01 3.017280e-01 1.112269e-01 4.563876e-02 6.024121e-02 6.628700e-02 4.973844e-02 5.347505e-02 9.221183e-02 1.466594e-01 5.859473e-02 8.843056e-02 1.388599e-01 6.111380e-02 4.316788e-02
<GCONST> 6.982131e+01
<STATE> 5
<NUMMIXES> 2
<MIXTURE> 1 8.448676e-01
<MEAN> 39
 2.339851e+01 -1.280587e+01 -1.775166e+01 3.999143e+00 5.833189e+00 -1.420601e+01 -1.272282e+01 2.367748e+01 1.963585e+00 -1.326682e+01 9.915342e+00 2.422170e+00 -4.725392e-02 1.857702e-02 9.988555e-02 3.059031e-01 1.048492e-01 3.559621e-01 3.327017e-01 -2.824539e-01 -2.132637e-01 -6.572564e-01 -2.057781e-01 5.748980e-01 -2.156850e-02 -4.006671e-02 -1.925830e-01 1.884512e-01 1.674507e-01 1.199921e-02 -3.629278e-02 1.282076e-01 1.109078e-01 -2.887686e-01 5.807732e-02 1.584376e-01 -2.081896e-01 4.116605e-02 6.217792e-02
<VARIANCE> 39
 8.523052e+00 1.068735e+01 1.705378e+01 1.351365e+01 3.742246e+01 3.246566e+01 3.674971e+01 5.543106e+01 6.409406e+01 3.060781e+01 6.919147e+01 1.839024e+01 1.590243e+01 1.114396e+00 7.477238e-01 7.288838e-01 6.155756e-01 8.199152e-01 6.332011e-01 1.303065e+00 2.360228e+00 1.068110e+00 1.071983e+00 2.346284e+00 7.723283e-01 4.811661e-01 1.582797e-01 9.254239e-02 1.168498e-01 9.613767e-02 7.810400e-02 9.043284e-02 1.595985e-01 2.696106e-01 1.105454e-01 1.463102e-01 2.537246e-01 1.080150e-01 6.647646e-02
<GCONST> 8.608678e+01
<MIXTURE> 2 1.551324e-01
<MEAN> 39
 1.138447e+01 -6.200283e+00 1.126958e+00 1.593022e+01 1.804926e+01 -1.777515e+00 -2.044467e+01 6.985350e+00 -8.243679e+00 -1.542564e+01 1.261526e+01 5.823456e-02 -7.974504e+00 -2.225813e-01 2.671559e-01 3.777507e-01 5.105118e-01 3.461998e-01 1.382106e-01 -5.789624e-02 -2.182979e-01 -2.140280e-01 -2.123093e-01 -1.616269e-01 -1.371067e-01 -3.090497e-01 -6.064520e-03 -8.780340e-03 8.182662e-03 -3.814177e-03 -2.757622e-02 1.652150e-02 7.401893e-02 6.670654e-02 3.994843e-02 -7.907031e-04 -5.263417e-02 -1.000446e-02 2.917739e-02
<VARIANCE> 39
 1.077451e+02 9.190092e+01 1.114641e+02 8.951669e+01 1.022512e+02 5.598841e+01 1.784302e+02 1.169337e+02 8.767063e+01 1.093915e+02 1.640304e+02 5.673456e+01 7.979008e+01 1.691213e+00 1.838749e+00 2.120842e+00 2.189722e+00 1.993024e+00 1.455243e+00 3.988524e+00 2.915711e+00 1.748426e+00 3.008463e+00 3.162276e+00 1.228425e+00 1.885618e+00 1.758402e-01 2.028295e-01 2.083816e-01 2.264056e-01 2.158502e-01 1.718272e-01 4.792106e-01 4.580592e-01 2.863581e-01 4.186970e-01 4.853259e-01 1.876097e-01 2.151049e-01
<GCONST> 1.239582e+02
<STATE> 6
<NUMMIXES> 2
<MIXTURE> 1 5.721639e-01
<MEAN> 39
 2.128541e+01 -1.048268e+01 -1.317160e+01 3.832774e+00 4.305228e+00 -1.186045e+01 -1.040999e+01 2.220818e+01 1.163053e+00 -1.171620e+01 9.144354e+00 1.763224e+00 1.173028e+00 -1.151843e-01 3.281159e-01 4.944673e-01 1.512876e-01 4.243974e-01 6.078159e-01 -2.422390e-01 -6.181316e-01 -7.457873e-01 -1.225146e-01 5.535261e-01 -1.058089e-02 -1.451540e-01 -1.164872e-02 7.234309e-02 3.478801e-02 5.575199e-02 7.001389e-02 8.185603e-02 -1.511484e-02 -4.782195e-02 4.417299e-03 -1.295363e-02 -2.516881e-02 -2.445160e-02 -5.445352e-02
<VARIANCE> 39
 7.678359e+00 1.779803e+01 2.118274e+01 2.244674e+01 6.894370e+01 4.135453e+01 8.266915e+01 7.340235e+01 8.128184e+01 4.968093e+01 8.058711e+01 3.340021e+01 2.486480e+01 6.394728e-01 6.579363e-01 8.380832e-01 9.331903e-01 1.152711e+00 1.054208e+00 1.864855e+00 2.177018e+00 1.188615e+00 1.222929e+00 1.993184e+00 1.001650e+00 7.395117e-01 9.828176e-02 7.619432e-02 1.121313e-01 1.363297e-01 1.243183e-01 1.556854e-01 2.251977e-01 2.977409e-01 1.649846e-01 1.878480e-01 2.818298e-01 1.684996e-01 1.001872e-01
<GCONST> 9.554409e+01
<MIXTURE> 2 4.278358e-01
<MEAN> 39
 1.236644e+01 -2.509254e+00 -8.745954e+00 3.526521e+00 5.346820e+00 -2.185322e+00 -5.135321e+00 1.461751e+01 4.346967e-01 -7.015103e+00 7.852273e+00 4.107432e+00 2.899845e+00 -1.399972e+00 1.234215e+00 1.367532e+00 3.616539e-01 9.478294e-02 1.394368e+00 1.004477e+00 -9.238350e-01 3.261389e-01 7.794670e-01 -1.036829e+00 -1.581184e-01 1.889041e-01 -1.553896e-01 -1.316531e-02 1.509262e-01 2.745639e-02 4.115529e-03 9.852697e-02 7.566839e-02 2.802063e-02 4.100817e-02 5.865172e-02 -4.629707e-02 -3.777154e-02 1.831459e-02
<VARIANCE> 39
 1.598532e+02 4.401986e+01 4.445856e+01 4.504842e+01 7.014164e+01 1.010659e+02 1.166743e+02 9.487032e+01 9.475306e+01 8.096327e+01 8.311851e+01 4.679385e+01 4.281607e+01 1.913115e+00 2.208202e+00 2.195859e+00 1.931474e+00 1.831796e+00 3.077282e+00 3.192291e+00 3.225070e+00 2.245971e+00 2.551327e+00 3.653396e+00 1.542725e+00 1.454682e+00 2.472642e-01 2.235773e-01 3.138154e-01 2.448197e-01 2.753056e-01 3.793765e-01 4.274050e-01 4.411450e-01 3.750753e-01 3.930087e-01 4.938189e-01 2.459134e-01 2.263173e-01
<GCONST> 1.231837e+02
<TRANSP> 7
 0.000000e+00 1.000000e+00 0.000000e+00 0.000000e+00 0.000000e+00 0.000000e+00 0.000000e+00
 0.000000e+00 7.942739e-01 2.057262e-01 0.000000e+00 0.000000e+00 0.000000e+00 0.000000e+00
 0.000000e+00 0.000000e+00 8.054180e-01 1.945821e-01 0.000000e+00 0.000000e+00 0.000000e+00
 0.000000e+00 0.000000e+00 0.000000e+00 8.967257e-01 1.032744e-01 0.000000e+00 0.000000e+00
 0.000000e+00 0.000000e+00 0.000000e+00 0.000000e+00 7.826777e-01 2.173224e-01 0.000000e+00
 0.000000e+00 0.000000e+00 0.000000e+00 0.000000e+00 0.000000e+00 8.988158e-01 1.011842e-01
 0.000000e+00 0.000000e+00 0.000000e+00 0.000000e+00 0.000000e+00 0.000000e+00 0.000000e+00
<ENDHMM>
~h "ax"
<BEGINHMM>
<NUMSTATES> 7
<STATE> 2
<NUMMIXES> 2
<MIXTURE> 1 5.311037e-01
<MEAN> 39
 -2.521405e+00 -7.736486e-01 6.803913e-01 2.854769e+00 -3.716504e+00 -2.124191e-01 2.371346e+00 1.629972e+01 4.911251e+00 -2.718693e+00 2.252072e+00 5.866153e-01 4.086992e+00 3.702317e+00 2.593749e-01 -3.703734e-02 7.780858e-01 -4.662797e-01 -1.778206e+00 -5.290598e-01 1.426705e+00 3.857128e-01 -9.455406e-01 5.649291e-02 -5.241883e-02 -3.854767e-01 2.465710e-01 -2.920590e-01 -3.999621e-01 -6.746700e-01 -7.280672e-01 -6.210045e-01 -3.842519e-01 2.199724e-01 -3.329062e-01 -5.238822e-01 2.448839e-01 -2.917520e-01 -5.524762e-01
<VARIANCE> 39
 1.607543e+02 8.995510e+00 1.071398e+01 1.793526e+01 3.936998e+01 5.576743e+01 3.766756e+01 4.094837e+01 2.057163e+01 2.950380e+01 1.463077e+01 3.028965e+01 2.460400e+01 1.477767e+00 1.152772e+00 1.925892e+00 8.270471e+00 1.045810e+01 4.835629e+00 5.130953e+00 6.793416e+00 3.061303e+00 3.990752e+00 2.839221e+00 4.023266e+00 4.035425e+00 1.375649e-01 1.174175e-01 2.241838e-01 4.469106e-01 5.996875e-01 4.451950e-01 3.528586e-01 5.556883e-01 3.486580e-01 4.247720e-01 4.346533e-01 5.124526e-01 4.984017e-01
<GCONST> 1.185775e+02
<MIXTURE> 2 4.688964e-01
<MEAN> 39
 1.336222e+01 -1.305993e+00 -3.919741e-01 -5.499969e-01 -1.180568e+01 -1.051057e+01 -2.516809e+00 2.498386e+01 3.212571e+00 -1.244126e+01 4.324370e+00 -2.835224e+00 -9.755843e-01 2.579040e+00 -7.097991e-02 -3.691976e-01 9.373741e-01 -3.626460e-02 -2.257345e+00 -1.289620e+00 7.558053e-01 6.504211e-01 -6.055479e-01 -3.098580e-01 -3.312600e-01 -8.413776e-01 -6.040361e-01 -1.174942e-01 -6.850276e-02 7.395635e-01 9.771036e-01 2.150518e-01 -2.448401e-01 -7.134948e-01 3.106456e-01 6.128939e-01 -2.969900e-01 4.031919e-01 3.049429e-01
<VARIANCE> 39
 2.995273e+01 2.390421e+01 2.023178e+01 1.131949e+02 1.182935e+02 1.417364e+02 1.148789e+02 5.598346e+01 5.777428e+01 6.899043e+01 3.633390e+01 5.067604e+01 1.951774e+01 2.286253e+00 9.264992e-01 2.347557e+00 7.125798e+00 8.335565e+00 6.797666e+00 3.082420e+00 7.178851e+00 3.563362e+00 6.378272e+00 2.882269e+00 2.461938e+00 1.639558e+00 2.127801e-01 2.191245e-01 2.662863e-01 1.582933e+00 1.270299e+00 7.911310e-01 4.329418e-01 1.113857e+00 6.154269e-01 8.893269e-01 6.024431e-01 4.067682e-01 2.980996e-01
<GCONST> 1.316694e+02
<STATE> 3
<NUMMIXES> 2
<MIXTURE> 1 9.491688e-01
<MEAN> 39
 2.234122e+01 -3.908224e+00 -6.713311e+00 1.062791e+01 -2.158921e+00 -2.413611e+01 -1.537307e+01 2.315066e+01 1.003590e+01 -1.152959e+01 9.217796e-01 1.748202e+00 -2.719229e+00 7.424302e-01 -6.829262e-01 -1.498982e+00 5.673856e-03 4.856884e-01 -1.658667e+00 -1.284227e+00 7.512155e-01 9.603767e-01 -1.583780e-01 2.865999e-01 7.485184e-01 -4.257863e-01 -3.872786e-01 1.096447e-01 2.278700e-01 -3.789786e-01 -2.565267e-01 4.999093e-01 4.258536e-01 -8.526330e-02 3.293192e-02 2.497384e-01 -4.540547e-02 -1.447355e-01 1.566940e-01
<VARIANCE> 39
 9.470584e+00 1.589248e+01 2.938129e+01 8.757662e+00 3.444289e+01 8.332763e+01 3.653390e+01 3.053429e+01 4.258796e+01 2.935356e+01 2.459859e+01 1.534849e+01 1.817238e+01 1.026019e+00 4.657029e-01 1.087378e+00 7.876688e-01 1.123534e+00 2.159175e+00 1.650914e+00 2.033638e+00 6.849093e-01 1.509575e+00 1.282913e+00 1.201807e+00 8.239181e-01 2.072698e-01 8.051236e-02 1.547536e-01 2.675085e-01 2.394697e-01 3.319456e-01 2.963709e-01 4.874036e-01 1.545165e-01 3.221344e-01 2.656211e-01 1.617696e-01 1.434847e-01
<GCONST> 9.482831e+01
<MIXTURE> 2 5.083121e-02
<MEAN> 39
 1.741443e+01 -8.899511e+00 -4.618056e+00 1.846940e+01 1.414032e+01 -1.248120e+01 -1.382637e+01 2.171070e+01 -5.775711e+00 -2.688597e+01 4.196102e+00 4.827053e+00 -2.205720e+00 -1.051627e-01 5.369741e-01 -5.571631e-01 -9.875870e-01 -1.828222e+00 -1.071619e+00 1.131165e+00 -1.629197e-01 2.000198e+00 1.759845e+00 -1.663517e+00 -2.830514e-01 -2.988911e-02 9.105586e-02 -4.931189e-03 7.754704e-02 2.168522e-01 -2.445152e-02 -1.005746e-01 -3.725049e-02 -4.683593e-02 -8.306678e-03 -6.222077e-02 -8.193174e-02 4.917346e-02 2.986860e-02
<VARIANCE> 39
 4.343982e+01 2.152533e+00 1.124272e+02 2.384431e+02 6.658218e+01 4.798092e+01 1.065868e+02 2.332117e+01 1.805306e+01 8.489567e+00 3.328771e+01 1.465008e+01 2.278178e+00 3.523639e-01 5.867527e-02 4.971106e-02 8.222064e-01 6.469214e-01 2.175522e-01 4.202126e-01 8.879653e-01 4.410443e-01 4.613693e-01 6.099359e-01 3.751189e-01 9.415754e-02 3.284753e-02 2.159460e-02 4.555444e-02 1.371891e-01 2.155649e-01 1.194493e-01 2.241600e-01 1.212409e-01 1.677905e-01 2.353857e-01 1.246814e-01 1.215807e-01 1.111984e-01
<GCONST> 6.968341e+01
<STATE> 4
<NUMMIXES> 2
<MIXTURE> 1 9.648465e-01
<MEAN> 39
 2.315769e+01 -6.494398e+00 -1.349535e+01 7.395918e+00 -6.645018e-01 -2.613772e+01 -1.791866e+01 2.247548e+01 1.412251e+01 -8.806175e+00 1.123211e+00 4.069836e+00 -3.306902e+00 -6.071060e-02 -4.153895e-02 -3.237478e-01 -3.526253e-01 -1.636327e-01 -2.458255e-01 -7.152493e-02 6.890989e-02 6.135968e-01 4.814411e-01 -1.269406e-01 8.944181e-02 9.158541e-02 -2.603580e-02 4.348884e-02 1.076922e-01 1.029838e-02 9.377077e-03 1.692631e-01 9.351093e-02 -4.260577e-03 -1.253239e-01 -6.030330e-02 1.053247e-02 -9.011684e-02 -1.267435e-03
<VARIANCE> 39
 9.920626e+00 4.173501e+00 1.290337e+01 7.148151e+00 1.006233e+01 2.282687e+01 2.337995e+01 1.860631e+01 1.839357e+01 1.554431e+01 1.851403e+01 3.733730e+00 1.041907e+01 9.841668e-01 2.728549e-01 5.457137e-01 4.137450e-01 4.572409e-01 6.458104e-01 7.140062e-01 1.362871e+00 5.787680e-01 9.694418e-01 9.024323e-01 3.363232e-01 2.838044e-01 1.382446e-01 3.345469e-02 6.801026e-02 5.134820e-02 5.192318e-02 5.188963e-02 9.223545e-02 1.568982e-01 3.685219e-02 1.069719e-01 1.127413e-01 5.324178e-02 4.333156e-02
<GCONST> 6.161641e+01
<MIXTURE> 2 3.515356e-02
<MEAN> 39
 2.288008e+01 -5.940730e+00 -5.648096e+00 1.336736e+01 -1.122036e+00 -2.898569e+01 -1.937052e+01 3.010929e+01 9.657785e+00 -1.705223e+01 4.643655e+00 2.698571e+00 -3.165291e+00 -7.282540e-01 1.062170e-01 -2.675854e-01 -2.375714e-01 -3.809654e-01 1.116918e-01 1.016411e+00 -1.176841e+00 5.287052e-01 1.301492e+00 -8.045784e-01 5.636038e-01 3.953438e-01 -3.515423e-01 2.314474e-01 6.168692e-02 5.389169e-03 6.599315e-02 2.563412e-01 3.821281e-01 -5.957252e-01 -6.827611e-02 2.645896e-01 -4.209540e-01 3.122217e-01 2.557343e-01
<VARIANCE> 39
 3.421215e+01 1.402744e+01 7.262918e+01 9.774207e+01 9.779440e+01 1.416270e+02 8.867750e+01 3.458590e+01 6.510100e+01 5.552966e+01 3.649755e+01 2.705993e+01 2.018694e+01 3.408741e-01 1.758806e-01 8.376475e-02 4.710736e-01 1.022240e+00 1.157091e+00 8.900545e-01 1.564108e+00 7.800573e-01 1.122794e+00 8.193078e-01 2.894055e-01 2.240075e-01 1.513108e-01 1.195267e-01 5.366138e-02 7.898933e-02 7.593873e-02 8.093348e-02 2.255948e-01 2.674862e-01 1.194810e-01 2.900922e-01 2.113509e-01 1.667114e-01 8.640443e-02
<GCONST> 8.722803e+01
<STATE> 5
<NUMMIXES> 2
<MIXTURE> 1 9.972667e-01
<MEAN> 39
 2.289029e+01 -5.282934e+00 -1.322095e+01 4.689742e+00 -1.482373e+00 -2.277167e+01 -1.467780e+01 2.312616e+01 1.379539e+01 -7.644764e+00 2.691470e+00 4.612221e+00 -4.523055e+00 1.194374e-02 3.524826e-01 2.138323e-01 -4.192050e-02 -9.570229e-03 2.575072e-01 1.536471e-01 -6.347491e-02 -3.391818e-01 -1.682913e-01 2.215324e-01 2.242987e-01 -1.087945e-01 7.610873e-03 5.757020e-02 6.493779e-02 7.660267e-02 5.093876e-02 4.319461e-02 1.128587e-02 -3.137815e-02 -9.663506e-02 -5.109366e-02 1.660967e-02 -1.600916e-03 -1.817667e-02
<VARIANCE> 39
 1.084796e+01 1.095622e+01 2.141063e+01 1.163124e+01 1.421559e+01 2.114170e+01 1.978862e+01 2.443600e+01 1.239377e+01 1.810450e+01 2.393307e+01 1.790148e+01 1.899031e+01 8.822856e-01 3.976209e-01 6.250874e-01 6.181573e-01 6.457181e-01 7.614889e-01 8.754008e-01 1.452145e+00 6.012161e-01 9.193830e-01 9.939605e-01 6.443350e-01 4.012760e-01 1.554518e-01 5.601579e-02 9.239120e-02 9.134331e-02 9.259375e-02 9.978729e-02 1.416689e-01 2.645914e-01 7.620373e-02 1.652772e-01 1.685925e-01 8.278245e-02 6.259717e-02
<GCONST> 7.495325e+01
<MIXTURE> 2 2.733406e-03
<MEAN> 39
 1.119059e+01 -4.808588e+00 6.214535e+00 4.253802e+01 2.260891e+01 -6.490248e+00 2.908465e+00 2.406875e+01 -1.033914e+01 -3.074433e+01 -5.919907e+00 6.651780e+00 -6.246915e-01 4.878255e-01 -1.567278e-01 -7.306920e-01 1.380102e+00 1.263041e-01 2.232395e-01 -4.475294e-01 -5.557755e-01 -1.904007e+00 -1.556017e+00 -7.721537e-01 8.257344e-01 1.931070e+00 -4.282951e-02 -5.212294e-01 2.761172e-01 -9.230186e-02 4.349045e-01 2.158295e-01 -5.826901e-01 6.262137e-02 -1.602444e-02 -8.146049e-02 3.025547e-01 -2.047906e-01 -2.837473e-01
<VARIANCE> 39
 0.000000e+00 1.907349e-06 0.000000e+00 0.000000e+00 0.000000e+00 -9.313226e-10 -1.525879e-05 1.907349e-06 0.000000e+00 1.907349e-06 0.000000e+00 0.000000e+00 0.000000e+00 -7.450581e-09 -1.490116e-08 -4.656613e-10 -5.960464e-08 -5.960464e-08 0.000000e+00 -3.725290e-09 0.000000e+00 -2.384186e-07 2.980232e-08 0.000000e+00 -2.980232e-08 0.000000e+00 0.000000e+00 0.000000e+00 -9.313226e-10 -5.820766e-11 0.000000e+00 0.000000e+00 0.000000e+00 -1.862645e-09 -2.328306e-10 0.000000e+00 -3.725290e-09 9.313226e-10 0.000000e+00
<GCONST> -3.400001e+11
<STATE> 6
<NUMMIXES> 2
<MIXTURE> 1 4.881034e-01
<MEAN> 39
 2.095453e+01 -2.362902e-01 -5.721714e+00 8.478603e+00 -4.041533e+00 -2.540424e+01 -1.367047e+01 2.522010e+01 1.143357e+01 -1.063427e+01 2.886006e+00 5.432231e+00 -4.188920e+00 -6.308447e-01 6.172230e-01 1.098498e+00 5.287187e-01 8.403925e-01 1.655598e+00 9.158819e-01 -4.931875e-01 -6.963770e-01 8.297459e-02 -2.313134e-01 -6.864588e-01 -2.303787e-01 -1.674452e-01 -2.917807e-02 1.428606e-01 1.528627e-01 2.474809e-01 3.435953e-01 1.413536e-01 6.941579e-03 -6.414644e-02 -5.263630e-02 -8.618093e-02 -1.969096e-01 -6.511127e-02
<VARIANCE> 39
 1.313852e+01 2.054078e+01 3.562119e+01 1.655499e+01 3.043806e+01 7.204913e+01 2.770359e+01 5.798447e+01 2.717890e+01 3.570692e+01 3.056964e+01 2.780619e+01 2.599768e+01 1.836470e+00 1.221972e+00 1.573157e+00 2.102871e+00 1.539768e+00 2.288386e+00 1.112994e+00 2.448847e+00 1.006019e+00 1.873205e+00 1.541811e+00 1.113331e+00 5.900037e-01 2.850371e-01 2.135651e-01 1.711942e-01 1.468823e-01 1.634969e-01 2.326110e-01 1.774801e-01 2.986289e-01 1.200442e-01 2.073221e-01 2.501715e-01 2.051498e-01 9.569832e-02
<GCONST> 9.882545e+01
<MIXTURE> 2 5.118966e-01
<MEAN> 39
 1.891888e+01 4.284447e-02 -2.580689e+00 1.496166e+01 9.200799e+00 -1.038610e+01 -8.641725e+00 2.143067e+01 1.424893e+00 -1.773619e+01 2.552912e-01 4.758626e-02 -7.625723e+00 -5.433649e-01 1.612309e-01 8.408285e-01 1.343505e+00 1.398031e+00 1.188033e+00 4.778671e-01 -1.683638e-01 -7.848964e-01 -7.755314e-01 -4.227258e-01 -6.694093e-01 -5.542513e-01 1.655878e-02 -2.352857e-03 -2.051850e-02 -1.165166e-01 -1.743350e-01 -1.742160e-01 -1.268654e-01 -9.532370e-02 1.536060e-01 1.609205e-01 1.992720e-02 9.676725e-02 9.585026e-02
<VARIANCE> 39
 1.001721e+01 3.158599e+01 5.077391e+01 8.082165e+01 3.913981e+01 4.166964e+01 4.297320e+01 5.900919e+01 3.629817e+01 6.614814e+01 8.894111e+01 2.355266e+01 3.885984e+01 4.363687e-01 7.940345e-01 7.320957e-01 1.797044e+00 1.096844e+00 1.850377e+00 1.826157e+00 3.003218e+00 1.433189e+00 2.919433e+00 2.005919e+00 1.517246e+00 8.187942e-01 6.284472e-02 8.447689e-02 8.213745e-02 2.168710e-01 1.529788e-01 2.293133e-01 2.419568e-01 4.779751e-01 1.891567e-01 4.189900e-01 2.494655e-01 1.866806e-01 1.411944e-01
<GCONST> 1.017154e+02
<TRANSP> 7
 0.000000e+00 1.000000e+00 0.000000e+00 0.000000e+00 0.000000e+00 0.000000e+00 0.000000e+00
 0.000000e+00 8.825347e-01 1.174653e-01 0.000000e+00 0.000000e+00 0.000000e+00 0.000000e+00
 0.000000e+00 0.000000e+00 7.804607e-01 2.195393e-01 0.000000e+00 0.000000e+00 0.000000e+00
 0.000000e+00 0.000000e+00 0.000000e+00 8.614998e-01 1.385002e-01 0.000000e+00 0.000000e+00
 0.000000e+00 0.000000e+00 0.000000e+00 0.000000e+00 8.933966e-01 1.066034e-01 0.000000e+00
 0.000000e+00 0.000000e+00 0.000000e+00 0.000000e+00 0.000000e+00 8.960456e-01 1.039543e-01
 0.000000e+00 0.000000e+00 0.000000e+00 0.000000e+00 0.000000e+00 0.000000e+00 0.000000e+00
<ENDHMM>
~h "bh"
<BEGINHMM>
<NUMSTATES> 5
<STATE> 2
<NUMMIXES> 2
<MIXTURE> 1 5.000000e-01
<MEAN> 39
 8.527088e+00 1.544180e+01 1.092348e+01 1.599938e+01 1.130943e+01 5.798582e+00 2.056137e+00 1.279315e+01 1.597728e+00 -1.018422e+01 -8.269845e+00 -4.405369e+00 -2.803924e+00 -1.029373e+00 1.662500e+00 1.879501e+00 3.821834e-01 2.652580e-01 1.633442e+00 1.131405e+00 -7.370098e-01 -4.437481e-01 9.779059e-01 2.703010e-01 -5.422000e-01 -4.069806e-01 1.863169e-01 -5.496761e-01 -4.319562e-01 -8.581885e-02 6.331173e-02 -1.708222e-01 -2.438761e-01 -2.193742e-03 -6.684548e-02 -1.045440e-01 2.563841e-01 1.381865e-01 -4.374864e-02
<VARIANCE> 39
 2.102028e+01 2.287439e+01 2.761103e+01 1.360619e+01 1.184478e+01 3.350373e+01 1.887036e+01 2.415242e+01 1.737739e+01 3.413927e+01 1.907037e+01 1.378094e+01 1.850869e+01 5.716146e-01 1.895115e+00 1.684972e+00 8.087035e-01 8.285345e-01 1.655272e+00 8.708795e-01 1.747658e+00 1.066125e+00 1.357393e+00 1.356581e+00 8.333116e-01 1.118205e+00 4.338727e-02 1.015093e-01 1.641418e-01 1.128199e-01 1.318914e-01 1.636709e-01 1.232187e-01 3.089121e-01 2.703388e-01 2.407534e-01 2.517286e-01 1.634727e-01 2.254501e-01
<GCONST> 8.856094e+01
<MIXTURE> 2 5.000000e-01
<MEAN> 39
 8.527088e+00 1.544180e+01 1.092348e+01 1.599938e+01 1.130943e+01 5.798582e+00 2.056137e+00 1.279315e+01 1.597728e+00 -1.018422e+01 -8.269845e+00 -4.405369e+00 -2.803924e+00 -1.029373e+00 1.662500e+00 1.879501e+00 3.821834e-01 2.652580e-01 1.633442e+00 1.131405e+00 -7.370098e-01 -4.437481e-01 9.779059e-01 2.703010e-01 -5.422000e-01 -4.069806e-01 1.863169e-01 -5.496761e-01 -4.319562e-01 -8.581885e-02 6.331173e-02 -1.708222e-01 -2.438761e-01 -2.193742e-03 -6.684548e-02 -1.045440e-01 2.563841e-01 1.381865e-01 -4.374864e-02
<VARIANCE> 39
 2.102028e+01 2.287439e+01 2.761103e+01 1.360619e+01 1.184478e+01 3.350373e+01 1.887036e+01 2.415242e+01 1.737739e+01 3.413927e+01 1.907037e+01 1.378094e+01 1.850869e+01 5.716146e-01 1.895115e+00 1.684972e+00 8.087035e-01 8.285345e-01 1.655272e+00 8.708795e-01 1.747658e+00 1.066125e+00 1.357393e+00 1.356581e+00 8.333116e-01 1.118205e+00 4.338727e-02 1.015093e-01 1.641418e-01 1.128199e-01 1.318914e-01 1.636709e-01 1.232187e-01 3.089121e-01 2.703388e-01 2.407534e-01 2.517286e-01 1.634727e-01 2.254501e-01
<GCONST> 8.856094e+01
<STATE> 3
<NUMMIXES> 2
<MIXTURE> 1 5.000000e-01
<MEAN> 39
 4.637680e+00 1.671420e+01 1.422681e+01 1.699215e+01 1.415009e+01 1.260202e+01 5.414774e+00 1.021678e+01 1.076551e+00 -4.450842e+00 -4.349387e+00 -5.370178e+00 -3.940957e+00 2.365960e-01 -1.266476e+00 -1.083583e+00 -1.327270e-02 4.083160e-01 2.219191e-02 -2.812539e-01 2.486982e-01 -2.883407e-02 -2.955894e-01 3.910408e-01 3.339875e-01 4.484431e-01 2.439864e-01 -4.109747e-01 -4.376203e-01 -1.482110e-01 -4.654374e-02 -2.502205e-01 -2.837994e-01 6.967638e-02 -1.357504e-01 -3.466518e-01 1.167224e-01 1.769919e-01 9.977809e-02
<VARIANCE> 39
 1.543138e+01 1.754448e+01 1.681168e+01 9.823044e+00 1.123287e+01 1.298374e+01 1.046590e+01 9.959150e+00 1.176419e+01 1.962817e+01 1.188582e+01 1.091297e+01 1.156202e+01 5.770314e-01 2.446659e+00 2.235209e+00 1.196149e+00 1.260614e+00 1.436958e+00 1.062748e+00 1.099808e+00 9.625782e-01 1.489974e+00 1.335906e+00 1.108791e+00 1.061284e+00 7.238474e-02 1.412972e-01 1.718759e-01 2.348087e-01 2.291165e-01 1.582315e-01 1.389286e-01 1.853244e-01 2.086145e-01 1.950789e-01 1.992531e-01 1.354219e-01 1.529650e-01
<GCONST> 8.419978e+01
<MIXTURE> 2 5.000000e-01
<MEAN> 39
 4.637680e+00 1.671420e+01 1.422681e+01 1.699215e+01 1.415009e+01 1.260202e+01 5.414774e+00 1.021678e+01 1.076551e+00 -4.450842e+00 -4.349387e+00 -5.370178e+00 -3.940957e+00 2.365960e-01 -1.266476e+00 -1.083583e+00 -1.327270e-02 4.083160e-01 2.219191e-02 -2.812539e-01 2.486982e-01 -2.883407e-02 -2.955894e-01 3.910408e-01 3.339875e-01 4.484431e-01 2.439864e-01 -4.109747e-01 -4.376203e-01 -1.482110e-01 -4.654374e-02 -2.502205e-01 -2.837994e-01 6.967638e-02 -1.357504e-01 -3.466518e-01 1.167224e-01 1.769919e-01 9.977809e-02
<VARIANCE> 39
 1.543138e+01 1.754448e+01 1.681168e+01 9.823044e+00 1.123287e+01 1.298374e+01 1.046590e+01 9.959150e+00 1.176419e+01 1.962817e+01 1.188582e+01 1.091297e+01 1.156202e+01 5.770314e-01 2.446659e+00 2.235209e+00 1.196149e+00 1.260614e+00 1.436958e+00 1.062748e+00 1.099808e+00 9.625782e-01 1.489974e+00 1.335906e+00 1.108791e+00 1.061284e+00 7.238474e-02 1.412972e-01 1.718759e-01 2.348087e-01 2.291165e-01 1.582315e-01 1.389286e-01 1.853244e-01 2.086145e-01 1.950789e-01 1.992531e-01 1.354219e-01 1.529650e-01
<GCONST> 8.419978e+01
<STATE> 4
<NUMMIXES> 2
<MIXTURE> 1 5.000000e-01
<MEAN> 39
 1.083198e+01 1.910435e+00 1.989639e+00 1.754712e+01 2.020263e+01 1.211727e+01 -1.920088e+00 8.850126e+00 -5.122212e+00 -1.436783e+01 -7.501334e-03 -5.815043e-01 -7.970798e-01 1.236471e+00 -2.062066e+00 -1.168165e+00 7.347945e-01 1.335832e+00 -5.547112e-01 -2.392733e+00 -6.482080e-01 -7.897857e-01 -1.267675e+00 1.229609e+00 5.024170e-01 -5.298668e-01 -1.282920e-01 3.326236e-01 6.101998e-01 3.895603e-01 8.133839e-02 -1.639354e-01 -2.611515e-01 -1.741959e-02 3.549545e-01 3.083370e-01 -1.374517e-03 -2.316620e-01 -3.763211e-01
<VARIANCE> 39
 1.819792e+01 3.077847e+01 1.890976e+01 4.693372e+01 5.816418e+01 5.018367e+01 3.451627e+01 3.825165e+01 3.830919e+01 5.058815e+01 2.139223e+01 2.325608e+01 1.625281e+01 1.102905e+00 1.661232e+00 3.323504e+00 4.434939e+00 4.164650e+00 2.869704e+00 2.358671e+00 2.890048e+00 3.304034e+00 5.312414e+00 1.770079e+00 1.872085e+00 2.271600e+00 1.588739e-01 2.175096e-01 2.455873e-01 3.654659e-01 3.717565e-01 3.038084e-01 3.497289e-01 4.118606e-01 4.905845e-01 6.643603e-01 3.091440e-01 2.733793e-01 2.326458e-01
<GCONST> 1.141610e+02
<MIXTURE> 2 5.000000e-01
<MEAN> 39
 1.083198e+01 1.910435e+00 1.989639e+00 1.754712e+01 2.020263e+01 1.211727e+01 -1.920088e+00 8.850126e+00 -5.122212e+00 -1.436783e+01 -7.501334e-03 -5.815043e-01 -7.970798e-01 1.236471e+00 -2.062066e+00 -1.168165e+00 7.347945e-01 1.335832e+00 -5.547112e-01 -2.392733e+00 -6.482080e-01 -7.897857e-01 -1.267675e+00 1.229609e+00 5.024170e-01 -5.298668e-01 -1.282920e-01 3.326236e-01 6.101998e-01 3.895603e-01 8.133839e-02 -1.639354e-01 -2.611515e-01 -1.741959e-02 3.549545e-01 3.083370e-01 -1.374517e-03 -2.316620e-01 -3.763211e-01
<VARIANCE> 39
 1.819792e+01 3.077847e+01 1.890976e+01 4.693372e+01 5.816418e+01 5.018367e+01 3.451627e+01 3.825165e+01 3.830919e+01 5.058815e+01 2.139223e+01 2.325608e+01 1.625281e+01 1.102905e+00 1.661232e+00 3.323504e+00 4.434939e+00 4.164650e+00 2.869704e+00 2.358671e+00 2.890048e+00 3.304034e+00 5.312414e+00 1.770079e+00 1.872085e+00 2.271600e+00 1.588739e-01 2.175096e-01 2.455873e-01 3.654659e-01 3.717565e-01 3.038084e-01 3.497289e-01 4.118606e-01 4.905845e-01 6.643603e-01 3.091440e-01 2.733793e-01 2.326458e-01
<GCONST> 1.141610e+02
<TRANSP> 5
 0.000000e+00 1.000000e+00 0.000000e+00 0.000000e+00 0.000000e+00
 0.000000e+00 7.969431e-01 2.030569e-01 0.000000e+00 0.000000e+00
 0.000000e+00 0.000000e+00 8.571674e-01 1.428326e-01 0.000000e+00
 0.000000e+00 0.000000e+00 0.000000e+00 7.623259e-01 2.376740e-01
 0.000000e+00 0.000000e+00 0.000000e+00 0.000000e+00 0.000000e+00
<ENDHMM>
~h "ch"
<BEGINHMM>
<NUMSTATES> 5
<STATE> 2
<NUMMIXES> 2
<MIXTURE> 1 4.945215e-01
<MEAN> 39
 -1.583473e+00 3.529358e+00 1.150482e+01 1.817641e+01 1.120945e+01 9.803748e+00 -3.149735e-01 7.198617e+00 -1.984001e+00 -1.078181e+01 -5.470410e+00 -2.703842e+00 1.523758e+00 -2.986286e+00 -2.356992e+00 8.511794e-01 -2.238104e-01 -1.684796e+00 7.595730e-01 -1.812135e-01 -1.136178e+00 1.399377e+00 1.498550e+00 -8.580313e-01 -5.491223e-01 8.536599e-01 1.960713e-02 -1.454008e+00 -2.948485e-01 -3.393455e-01 -3.947689e-01 -2.646689e-01 -4.910029e-01 3.020661e-01 -1.263758e-01 -6.945452e-01 6.494178e-01 3.559113e-01 -4.985554e-01
<VARIANCE> 39
 6.705796e+01 4.816613e+01 2.018982e+01 1.844804e+01 2.147549e+01 2.302993e+01 1.721825e+01 2.630485e+01 4.606921e+01 4.947113e+01 2.371691e+01 1.103831e+01 1.964244e+01 4.645588e-01 1.489060e+01 3.114588e+00 2.367925e+00 2.162324e+00 2.335377e+00 2.510440e+00 2.810047e+00 2.957353e+00 5.948221e+00 4.508418e+00 1.972968e+00 3.333069e+00 1.214995e-01 8.410186e-01 3.120754e-01 3.584166e-01 3.245873e-01 4.691751e-01 3.054235e-01 4.315558e-01 5.039911e-01 7.034388e-01 5.936431e-01 3.601320e-01 3.995160e-01
<GCONST> 1.161585e+02
<MIXTURE> 2 5.054785e-01
<MEAN> 39
 -1.684285e+01 -2.659776e+01 8.744403e+00 1.062951e+01 -3.758821e+00 6.612101e+00 -7.669803e+00 4.554069e+00 4.603551e+00 -8.273518e+00 -1.650313e+00 1.426192e+00 1.616135e+00 -7.689085e-01 -4.758934e+00 1.434428e+00 -1.111219e+00 -2.430406e+00 -6.070685e-01 -1.617571e+00 1.875719e-01 5.850905e-01 -4.842308e-01 1.095819e+00 1.104640e+00 -2.601951e-01 2.738491e-01 5.622346e-01 5.197608e-01 8.908524e-02 3.710718e-01 1.879253e-01 -3.983267e-02 -5.639204e-02 -1.816589e-01 1.952302e-01 -6.904954e-02 -2.007174e-01 1.375548e-01
<VARIANCE> 39
 3.472036e+01 1.554745e+02 8.647897e+01 3.774138e+01 3.470571e+01 3.551219e+01 2.352183e+01 2.788555e+01 3.240119e+01 3.868684e+01 2.108304e+01 2.113390e+01 1.868253e+01 2.956290e+00 6.705815e+00 6.110495e+00 3.993999e+00 3.559150e+00 3.418113e+00 1.504638e+00 1.628352e+00 1.996868e+00 2.463543e+00 2.961770e+00 2.173611e+00 2.054834e+00 3.358081e-01 7.114388e-01 4.839637e-01 4.408529e-01 5.595892e-01 7.210394e-01 2.452271e-01 3.368068e-01 3.599855e-01 5.187578e-01 4.553120e-01 5.512562e-01 4.273712e-01
<GCONST> 1.215888e+02
<STATE> 3
<NUMMIXES> 2
<MIXTURE> 1 9.161102e-01
<MEAN> 39
 -1.621729e+01 -4.537025e+01 2.060712e+01 7.622233e+00 -8.155126e+00 1.012965e+01 -1.495598e+01 3.625072e+00 3.785819e+00 -7.638733e+00 2.693417e+00 1.635204e+00 6.118158e-01 3.639066e-01 -7.828085e-01 -2.678354e-01 -7.307158e-01 2.802943e-01 7.698062e-01 -4.232109e-01 -7.965031e-01 -6.916959e-01 2.123481e-01 1.909149e-01 -3.284762e-01 -1.095210e-01 1.966453e-01 5.040056e-01 -4.949101e-01 -3.828791e-02 1.022646e-01 1.549464e-02 2.242958e-01 -1.330824e-01 -1.392448e-01 -1.648390e-01 -1.432574e-01 1.925343e-02 -2.135123e-03
<VARIANCE> 39
 1.900477e+01 5.142992e+01 5.518531e+01 3.530517e+01 2.218188e+01 2.500392e+01 2.046814e+01 3.503548e+01 3.626237e+01 1.973555e+01 2.978814e+01 1.817577e+01 1.258867e+01 1.644063e+00 4.321965e+00 5.185870e+00 1.256876e+00 1.564087e+00 1.374142e+00 1.743644e+00 1.675216e+00 1.758593e+00 1.790940e+00 1.740711e+00 1.358945e+00 9.820445e-01 2.641177e-01 6.039598e-01 6.272970e-01 1.961917e-01 4.360411e-01 2.622728e-01 2.697254e-01 2.575991e-01 2.460539e-01 3.118953e-01 3.120168e-01 2.666687e-01 1.725022e-01
<GCONST> 1.065164e+02
<MIXTURE> 2 8.388972e-02
<MEAN> 39
 -2.601428e+01 -7.864844e+00 -5.712888e+00 -1.499503e+00 -2.410820e+00 5.138412e-01 -4.489728e+00 2.098485e+00 -8.387218e-01 -3.105667e-01 1.270068e+00 -4.381054e-01 1.085853e+00 6.409253e-01 -9.177221e-01 -2.836792e-01 1.380079e+00 1.274151e+00 -1.458797e-01 -6.416047e-01 3.728537e-01 1.793155e-01 -1.539279e-01 5.675359e-01 7.917089e-01 5.683168e-01 5.495067e-01 -1.210932e-01 1.545710e-01 6.189723e-01 4.061085e-01 1.531771e-02 -1.017205e-01 1.643176e-01 1.391707e-01 -9.804820e-02 6.595419e-02 3.078136e-01 1.450278e-01
<VARIANCE> 39
 1.171856e+00 7.456676e+00 2.803312e+00 7.600075e+00 6.167607e+00 6.837169e+00 6.181370e+00 9.819894e+00 1.099180e+01 8.476767e+00 6.084191e+00 4.310567e+00 6.595720e+00 1.653126e+00 2.090682e+00 7.130014e-01 2.306001e+00 2.531285e+00 1.738202e+00 1.190811e+00 1.499926e+00 1.192631e+00 2.773144e+00 3.230628e+00 1.800219e+00 9.519706e-01 1.465618e-01 2.730877e-01 1.407517e-01 1.401325e-01 1.892929e-01 2.466146e-01 3.020691e-01 2.158025e-01 2.297136e-01 4.637881e-01 6.435674e-01 2.627980e-01 1.281765e-01
<GCONST> 8.213593e+01
<STATE> 4
<NUMMIXES> 2
<MIXTURE> 1 7.115516e-01
<MEAN> 39
 -3.880668e+00 -2.206866e+01 2.849760e+00 8.357726e+00 1.119080e+00 1.401264e+01 -3.731235e+00 2.265597e+00 8.508281e-01 -6.414933e+00 1.771677e+00 3.180816e+00 5.614666e+00 8.788356e-01 3.304955e+00 -5.718343e-01 1.094525e+00 1.540632e+00 -5.968014e-01 1.317730e+00 1.279228e+00 4.828195e-01 9.131785e-01 2.158892e-01 3.403620e-02 3.248342e-01 -3.797218e-02 3.587474e-02 1.172148e-01 -8.709350e-02 -6.921202e-02 -2.825773e-01 -2.329588e-01 4.680000e-03 -1.102761e-01 -9.567161e-02 -3.339895e-02 -1.385359e-01 -2.170686e-01
<VARIANCE> 39
 9.043893e+01 2.025519e+02 9.749310e+01 1.059022e+02 9.631097e+01 1.379123e+02 1.024471e+02 7.361607e+01 4.926993e+01 5.910986e+01 6.735829e+01 2.847184e+01 3.408294e+01 2.836412e+00 4.162814e+00 2.462743e+00 3.687706e+00 2.552961e+00 4.493474e+00 3.789370e+00 2.715953e+00 3.032790e+00 3.462613e+00 2.273381e+00 1.745024e+00 2.129306e+00 1.578883e-01 3.866011e-01 2.708614e-01 4.498330e-01 3.904644e-01 5.467530e-01 3.822329e-01 3.846154e-01 4.273154e-01 5.522433e-01 3.482011e-01 2.760661e-01 3.327580e-01
<GCONST> 1.289045e+02
<MIXTURE> 2 2.884483e-01
<MEAN> 39
 -9.017604e+00 -4.431120e+01 9.422524e+00 1.298748e+00 -8.993165e+00 1.367115e+01 -1.691506e+01 -6.307443e+00 -2.387145e+00 -1.316241e+01 -4.533060e-01 4.532598e-01 8.576219e-02 1.333930e+00 1.250356e+00 -1.585159e+00 -4.559789e-01 -2.431244e-01 3.772181e-01 5.576997e-01 -5.329999e-01 -6.236199e-01 -9.576275e-01 -4.340244e-01 2.480606e-01 4.220564e-01 1.672882e-02 3.100063e-01 1.112345e-01 4.639212e-01 3.225192e-01 1.214638e-01 4.326885e-01 5.011847e-01 4.007245e-01 3.747803e-01 2.559729e-01 1.493225e-01 1.286884e-01
<VARIANCE> 39
 1.586766e+01 1.502359e+01 2.979174e+01 2.786259e+01 2.617598e+01 3.804444e+01 3.630117e+01 4.251465e+01 2.065404e+01 2.068823e+01 1.932400e+01 1.553038e+01 1.588894e+01 6.267346e-01 1.252778e+00 1.105649e+00 1.843434e+00 1.652668e+00 2.010323e+00 2.164507e+00 1.917741e+00 1.743685e+00 1.784907e+00 1.599853e+00 1.358621e+00 8.572227e-01 1.063473e-01 2.546791e-01 1.573693e-01 1.755213e-01 2.353930e-01 2.235300e-01 2.498015e-01 2.364130e-01 2.515706e-01 2.565463e-01 1.692352e-01 2.017051e-01 1.981252e-01
<GCONST> 9.678841e+01
<TRANSP> 5
 0.000000e+00 1.000000e+00 0.000000e+00 0.000000e+00 0.000000e+00
 0.000000e+00 8.916273e-01 1.083727e-01 0.000000e+00 0.000000e+00
 0.000000e+00 0.000000e+00 8.773639e-01 1.226362e-01 0.000000e+00
 0.000000e+00 0.000000e+00 0.000000e+00 9.194791e-01 8.052088e-02
 0.000000e+00 0.000000e+00 0.000000e+00 0.000000e+00 0.000000e+00
<ENDHMM>
~h "dh"
<BEGINHMM>
<NUMSTATES> 5
<STATE> 2
<NUMMIXES> 2
<MIXTURE> 1 5.000000e-01
<MEAN> 39
 3.577052e+00 1.777799e+01 1.482112e+01 1.685080e+01 1.485145e+01 1.437096e+01 5.716939e+00 8.042701e+00 -2.130668e+00 -6.086236e+00 -3.669732e+00 -2.790483e+00 -8.220580e-01 -6.082183e-01 -5.905909e-02 5.348267e-01 2.800745e-01 3.508049e-02 4.950776e-01 4.297227e-01 1.840740e-01 6.577644e-01 7.898535e-01 1.065330e-01 -3.892030e-01 -1.883468e-01 1.201171e-01 -6.110047e-01 -4.002841e-01 -8.829369e-03 -1.604380e-02 -2.277906e-01 -2.455605e-01 1.590284e-01 1.400441e-01 -1.591111e-02 1.389282e-01 -8.350873e-03 8.968911e-02
<VARIANCE> 39
 1.514181e+01 6.214657e+00 1.311353e+01 7.963432e+00 6.778586e+00 1.145475e+01 1.019141e+01 8.819530e+00 1.813659e+01 2.713573e+01 1.329361e+01 9.688745e+00 1.418312e+01 6.372843e-01 2.265488e+00 1.716082e+00 7.646710e-01 7.828807e-01 1.009102e+00 9.584302e-01 8.284971e-01 9.610944e-01 1.445521e+00 6.734334e-01 9.534697e-01 1.510344e+00 4.778919e-02 2.325894e-01 1.939351e-01 1.689217e-01 1.670877e-01 1.414488e-01 1.299371e-01 1.469039e-01 1.722225e-01 2.237360e-01 2.135562e-01 1.521882e-01 2.038588e-01
<GCONST> 8.000587e+01
<MIXTURE> 2 5.000000e-01
<MEAN> 39
 3.577052e+00 1.777799e+01 1.482112e+01 1.685080e+01 1.485145e+01 1.437096e+01 5.716939e+00 8.042701e+00 -2.130668e+00 -6.086236e+00 -3.669732e+00 -2.790483e+00 -8.220580e-01 -6.082183e-01 -5.905909e-02 5.348267e-01 2.800745e-01 3.508049e-02 4.950776e-01 4.297227e-01 1.840740e-01 6.577644e-01 7.898535e-01 1.065330e-01 -3.892030e-01 -1.883468e-01 1.201171e-01 -6.110047e-01 -4.002841e-01 -8.829369e-03 -1.604380e-02 -2.277906e-01 -2.455605e-01 1.590284e-01 1.400441e-01 -1.591111e-02 1.389282e-01 -8.350873e-03 8.968911e-02
<VARIANCE> 39
 1.514181e+01 6.214657e+00 1.311353e+01 7.963432e+00 6.778586e+00 1.145475e+01 1.019141e+01 8.819530e+00 1.813659e+01 2.713573e+01 1.329361e+01 9.688745e+00 1.418312e+01 6.372843e-01 2.265488e+00 1.716082e+00 7.646710e-01 7.828807e-01 1.009102e+00 9.584302e-01 8.284971e-01 9.610944e-01 1.445521e+00 6.734334e-01 9.534697e-01 1.510344e+00 4.778919e-02 2.325894e-01 1.939351e-01 1.689217e-01 1.670877e-01 1.414488e-01 1.299371e-01 1.469039e-01 1.722225e-01 2.237360e-01 2.135562e-01 1.521882e-01 2.038588e-01
<GCONST> 8.000587e+01
<STATE> 3
<NUMMIXES> 2
<MIXTURE> 1 5.000000e-01
<MEAN> 39
 3.196407e+00 2.290532e+00 8.382003e+00 1.585166e+01 1.197589e+01 1.291716e+01 2.186951e+00 9.995936e+00 2.154103e+00 -1.952645e+00 1.455487e+00 -4.667356e+00 1.497313e+00 1.243279e+00 -4.403889e+00 -2.294465e+00 -1.922410e+00 -1.971453e+00 -4.743651e-01 -1.441994e+00 -3.128715e-03 -8.202226e-01 -5.680136e-03 3.356110e+00 -7.327367e-02 -5.846846e-01 4.564150e-01 1.574377e-01 7.304609e-02 -3.278991e-01 -2.006948e-01 2.480315e-02 -2.384560e-01 -3.433540e-01 -8.520874e-01 -6.017162e-01 5.016304e-01 1.893074e-01 -3.249946e-01
<VARIANCE> 39
 2.408803e+01 7.099431e+01 2.962275e+01 3.395475e+01 4.506200e+01 1.286537e+01 2.333357e+01 1.934390e+01 3.480852e+01 2.518422e+01 5.212844e+01 2.055254e+01 1.957451e+01 1.294207e+00 1.333206e+00 1.342766e+00 3.513785e+00 3.509305e+00 1.908035e+00 1.963848e+00 1.594427e+00 5.614609e+00 4.271117e+00 3.820767e+00 1.980066e+00 2.228526e+00 1.210424e-01 8.695455e-01 6.098329e-01 9.486386e-01 8.530625e-01 3.077860e-01 2.765225e-01 2.035985e-01 3.989361e-01 5.315628e-01 9.381797e-01 3.408787e-01 3.063458e-01
<GCONST> 1.154919e+02
<MIXTURE> 2 5.000000e-01
<MEAN> 39
 3.196407e+00 2.290532e+00 8.382003e+00 1.585166e+01 1.197589e+01 1.291716e+01 2.186951e+00 9.995936e+00 2.154103e+00 -1.952645e+00 1.455487e+00 -4.667356e+00 1.497313e+00 1.243279e+00 -4.403889e+00 -2.294465e+00 -1.922410e+00 -1.971453e+00 -4.743651e-01 -1.441994e+00 -3.128715e-03 -8.202226e-01 -5.680136e-03 3.356110e+00 -7.327367e-02 -5.846846e-01 4.564150e-01 1.574377e-01 7.304609e-02 -3.278991e-01 -2.006948e-01 2.480315e-02 -2.384560e-01 -3.433540e-01 -8.520874e-01 -6.017162e-01 5.016304e-01 1.893074e-01 -3.249946e-01
<VARIANCE> 39
 2.408803e+01 7.099431e+01 2.962275e+01 3.395475e+01 4.506200e+01 1.286537e+01 2.333357e+01 1.934390e+01 3.480852e+01 2.518422e+01 5.212844e+01 2.055254e+01 1.957451e+01 1.294207e+00 1.333206e+00 1.342766e+00 3.513785e+00 3.509305e+00 1.908035e+00 1.963848e+00 1.594427e+00 5.614609e+00 4.271117e+00 3.820767e+00 1.980066e+00 2.228526e+00 1.210424e-01 8.695455e-01 6.098329e-01 9.486386e-01 8.530625e-01 3.077860e-01 2.765225e-01 2.035985e-01 3.989361e-01 5.315628e-01 9.381797e-01 3.408787e-01 3.063458e-01
<GCONST> 1.154919e+02
<STATE> 4
<NUMMIXES> 2
<MIXTURE> 1 5.000000e-01
<MEAN> 39
 1.295857e+01 -5.361835e+00 5.551233e+00 1.300410e+01 1.045213e+01 9.408218e+00 -7.044875e+00 7.875882e+00 -9.063892e+00 -1.309286e+01 1.454361e+01 -2.377251e-01 -3.462058e+00 5.141085e-01 3.771051e-01 4.376863e-01 7.476490e-01 6.627880e-01 -3.448700e-01 -7.321010e-01 -3.664246e-01 -4.826919e-01 -8.363706e-01 1.404088e-01 4.865383e-01 -3.363106e-01 -2.219070e-01 3.938425e-01 2.017006e-01 3.493968e-01 2.648516e-01 -1.040306e-01 8.302994e-02 1.138238e-01 4.258640e-01 2.191090e-01 -4.246685e-01 3.119603e-02 9.977078e-02
<VARIANCE> 39
 1.425506e+01 3.531422e+01 2.049564e+01 5.112520e+01 6.224727e+01 3.946839e+01 4.844617e+01 4.946127e+01 3.385261e+01 6.020473e+01 2.233730e+01 4.484204e+01 2.794064e+01 1.222064e+00 1.586324e+00 1.891488e+00 2.683403e+00 2.849510e+00 2.603765e+00 3.365648e+00 3.102200e+00 3.982404e+00 2.840345e+00 3.906066e+00 1.884967e+00 1.746182e+00 8.767125e-02 5.335841e-01 4.412493e-01 6.680102e-01 6.766009e-01 4.552276e-01 4.522114e-01 4.203017e-01 5.466689e-01 4.143712e-01 6.295525e-01 2.682025e-01 2.680153e-01
<GCONST> 1.182143e+02
<MIXTURE> 2 5.000000e-01
<MEAN> 39
 1.295857e+01 -5.361835e+00 5.551233e+00 1.300410e+01 1.045213e+01 9.408218e+00 -7.044875e+00 7.875882e+00 -9.063892e+00 -1.309286e+01 1.454361e+01 -2.377251e-01 -3.462058e+00 5.141085e-01 3.771051e-01 4.376863e-01 7.476490e-01 6.627880e-01 -3.448700e-01 -7.321010e-01 -3.664246e-01 -4.826919e-01 -8.363706e-01 1.404088e-01 4.865383e-01 -3.363106e-01 -2.219070e-01 3.938425e-01 2.017006e-01 3.493968e-01 2.648516e-01 -1.040306e-01 8.302994e-02 1.138238e-01 4.258640e-01 2.191090e-01 -4.246685e-01 3.119603e-02 9.977078e-02
<VARIANCE> 39
 1.425506e+01 3.531422e+01 2.049564e+01 5.112520e+01 6.224727e+01 3.946839e+01 4.844617e+01 4.946127e+01 3.385261e+01 6.020473e+01 2.233730e+01 4.484204e+01 2.794064e+01 1.222064e+00 1.586324e+00 1.891488e+00 2.683403e+00 2.849510e+00 2.603765e+00 3.365648e+00 3.102200e+00 3.982404e+00 2.840345e+00 3.906066e+00 1.884967e+00 1.746182e+00 8.767125e-02 5.335841e-01 4.412493e-01 6.680102e-01 6.766009e-01 4.552276e-01 4.522114e-01 4.203017e-01 5.466689e-01 4.143712e-01 6.295525e-01 2.682025e-01 2.680153e-01
<GCONST> 1.182143e+02
<TRANSP> 5
 0.000000e+00 1.000000e+00 0.000000e+00 0.000000e+00 0.000000e+00
 0.000000e+00 8.799149e-01 1.200850e-01 0.000000e+00 0.000000e+00
 0.000000e+00 0.000000e+00 7.869722e-01 2.130278e-01 0.000000e+00
 0.000000e+00 0.000000e+00 0.000000e+00 8.687231e-01 1.312768e-01
 0.000000e+00 0.000000e+00 0.000000e+00 0.000000e+00 0.000000e+00
<ENDHMM>
~h "dx"
<BEGINHMM>
<NUMSTATES> 5
<STATE> 2
<NUMMIXES> 2
<MIXTURE> 1 5.000000e-01
<MEAN> 39
 3.405384e+00 1.534808e+01 1.279949e+01 1.783582e+01 1.794385e+01 1.597467e+01 5.008407e+00 6.802576e+00 -2.733401e+00 -6.187624e+00 -3.037066e+00 -3.087595e+00 -2.370538e+00 -6.923611e-01 -4.066892e-01 3.014343e-01 4.158674e-01 -1.537203e-01 1.703678e-02 5.157342e-01 5.120995e-01 3.915183e-01 4.042568e-01 2.229286e-01 7.700476e-02 1.970424e-01 1.259519e-01 -6.391903e-01 -3.750509e-01 1.403109e-01 1.564825e-01 -2.030122e-01 -3.380994e-01 -1.723596e-02 -6.111883e-02 -6.351562e-02 2.615553e-01 5.227070e-02 -4.382004e-02
<VARIANCE> 39
 1.803566e+01 2.175234e+01 1.912518e+01 2.300660e+01 1.843468e+01 2.513362e+01 3.199405e+01 2.072852e+01 2.849562e+01 2.837960e+01 1.699845e+01 1.310798e+01 1.366351e+01 4.852144e-01 3.940159e+00 2.057966e+00 1.723357e+00 1.873180e+00 1.560608e+00 2.065302e+00 1.341966e+00 1.949223e+00 1.619758e+00 1.557648e+00 1.239406e+00 1.098554e+00 6.231111e-02 2.886649e-01 1.858567e-01 2.124788e-01 2.551280e-01 1.999595e-01 1.948008e-01 1.892188e-01 3.602493e-01 2.574375e-01 3.526488e-01 2.003394e-01 2.064303e-01
<GCONST> 9.686395e+01
<MIXTURE> 2 5.000000e-01
<MEAN> 39
 3.405384e+00 1.534808e+01 1.279949e+01 1.783582e+01 1.794385e+01 1.597467e+01 5.008407e+00 6.802576e+00 -2.733401e+00 -6.187624e+00 -3.037066e+00 -3.087595e+00 -2.370538e+00 -6.923611e-01 -4.066892e-01 3.014343e-01 4.158674e-01 -1.537203e-01 1.703678e-02 5.157342e-01 5.120995e-01 3.915183e-01 4.042568e-01 2.229286e-01 7.700476e-02 1.970424e-01 1.259519e-01 -6.391903e-01 -3.750509e-01 1.403109e-01 1.564825e-01 -2.030122e-01 -3.380994e-01 -1.723596e-02 -6.111883e-02 -6.351562e-02 2.615553e-01 5.227070e-02 -4.382004e-02
<VARIANCE> 39
 1.803566e+01 2.175234e+01 1.912518e+01 2.300660e+01 1.843468e+01 2.513362e+01 3.199405e+01 2.072852e+01 2.849562e+01 2.837960e+01 1.699845e+01 1.310798e+01 1.366351e+01 4.852144e-01 3.940159e+00 2.057966e+00 1.723357e+00 1.873180e+00 1.560608e+00 2.065302e+00 1.341966e+00 1.949223e+00 1.619758e+00 1.557648e+00 1.239406e+00 1.098554e+00 6.231111e-02 2.886649e-01 1.858567e-01 2.124788e-01 2.551280e-01 1.999595e-01 1.948008e-01 1.892188e-01 3.602493e-01 2.574375e-01 3.526488e-01 2.003394e-01 2.064303e-01
<GCONST> 9.686395e+01
<STATE> 3
<NUMMIXES> 2
<MIXTURE> 1 5.000000e-01
<MEAN> 39
 9.634883e-01 2.427687e+00 8.771698e+00 2.381806e+01 1.921191e+01 1.184376e+01 2.367739e+00 9.483168e+00 7.303531e-01 -3.104760e+00 -6.459987e-02 -3.448391e+00 -9.809305e-01 7.132396e-01 -4.495927e+00 -2.120540e+00 6.010090e-01 -1.338000e-01 -1.078490e+00 -1.085480e+00 4.239947e-02 -1.291170e+00 -4.590608e-01 2.523860e+00 1.723667e-01 -7.872018e-01 5.072058e-01 -1.392832e-01 -3.357221e-02 -2.628708e-01 -1.415751e-01 -8.751015e-02 -3.476768e-01 -2.661051e-01 -8.136548e-01 -6.093719e-01 6.046007e-01 7.219675e-02 -5.765799e-01
<VARIANCE> 39
 2.643935e+01 6.232588e+01 2.550784e+01 2.857551e+01 2.871172e+01 2.193039e+01 2.986945e+01 2.519419e+01 3.664985e+01 3.595219e+01 4.181480e+01 2.360750e+01 2.203344e+01 1.076499e+00 3.082847e+00 1.889289e+00 2.389765e+00 3.300487e+00 2.336450e+00 2.332788e+00 2.407467e+00 5.748658e+00 3.407333e+00 5.196795e+00 2.332110e+00 2.484892e+00 9.828281e-02 5.625747e-01 4.062301e-01 3.482419e-01 5.160339e-01 2.799309e-01 3.534573e-01 2.415270e-01 5.499140e-01 4.416634e-01 6.794214e-01 2.764333e-01 3.598945e-01
<GCONST> 1.154150e+02
<MIXTURE> 2 5.000000e-01
<MEAN> 39
 9.634883e-01 2.427687e+00 8.771698e+00 2.381806e+01 1.921191e+01 1.184376e+01 2.367739e+00 9.483168e+00 7.303531e-01 -3.104760e+00 -6.459987e-02 -3.448391e+00 -9.809305e-01 7.132396e-01 -4.495927e+00 -2.120540e+00 6.010090e-01 -1.338000e-01 -1.078490e+00 -1.085480e+00 4.239947e-02 -1.291170e+00 -4.590608e-01 2.523860e+00 1.723667e-01 -7.872018e-01 5.072058e-01 -1.392832e-01 -3.357221e-02 -2.628708e-01 -1.415751e-01 -8.751015e-02 -3.476768e-01 -2.661051e-01 -8.136548e-01 -6.093719e-01 6.046007e-01 7.219675e-02 -5.765799e-01
<VARIANCE> 39
 2.643935e+01 6.232588e+01 2.550784e+01 2.857551e+01 2.871172e+01 2.193039e+01 2.986945e+01 2.519419e+01 3.664985e+01 3.595219e+01 4.181480e+01 2.360750e+01 2.203344e+01 1.076499e+00 3.082847e+00 1.889289e+00 2.389765e+00 3.300487e+00 2.336450e+00 2.332788e+00 2.407467e+00 5.748658e+00 3.407333e+00 5.196795e+00 2.332110e+00 2.484892e+00 9.828281e-02 5.625747e-01 4.062301e-01 3.482419e-01 5.160339e-01 2.799309e-01 3.534573e-01 2.415270e-01 5.499140e-01 4.416634e-01 6.794214e-01 2.764333e-01 3.598945e-01
<GCONST> 1.154150e+02
<STATE> 4
<NUMMIXES> 2
<MIXTURE> 1 5.000000e-01
<MEAN> 39
 4.456390e+00 -8.303149e+00 1.073998e+00 2.179304e+01 1.944893e+01 1.173376e+01 -5.290764e-01 5.960495e+00 -1.007565e+01 -8.621524e+00 1.047381e+01 8.591771e-02 -4.492076e+00 4.457689e-01 -1.146017e+00 -4.172696e-01 -5.713551e-01 -6.105896e-01 -6.283719e-01 -8.839968e-01 -1.069389e-01 -5.708126e-01 -4.784562e-01 1.183262e+00 3.141576e-01 -4.551368e-01 -1.232472e-01 8.696718e-01 5.781224e-01 -3.487100e-02 3.233914e-02 -1.030648e-01 -2.505572e-01 -5.304272e-02 4.882241e-01 9.721928e-02 -6.318227e-01 -1.002317e-01 1.381476e-01
<VARIANCE> 39
 5.494556e+01 8.775014e+01 4.038103e+01 8.003763e+01 1.065683e+02 9.412865e+01 9.766083e+01 7.960028e+01 1.177434e+02 8.544532e+01 9.743157e+01 5.424240e+01 4.612936e+01 3.879388e+00 1.049883e+01 3.266567e+00 4.103621e+00 5.251090e+00 4.056787e+00 4.500021e+00 3.213110e+00 1.272102e+01 7.820448e+00 9.391503e+00 2.254744e+00 4.521771e+00 2.807511e-01 8.319089e-01 3.797563e-01 6.721599e-01 1.089898e+00 5.637690e-01 5.801914e-01 6.295028e-01 1.824178e+00 1.159375e+00 1.210620e+00 4.116064e-01 5.092382e-01
<GCONST> 1.442893e+02
<MIXTURE> 2 5.000000e-01
<MEAN> 39
 4.456390e+00 -8.303149e+00 1.073998e+00 2.179304e+01 1.944893e+01 1.173376e+01 -5.290764e-01 5.960495e+00 -1.007565e+01 -8.621524e+00 1.047381e+01 8.591771e-02 -4.492076e+00 4.457689e-01 -1.146017e+00 -4.172696e-01 -5.713551e-01 -6.105896e-01 -6.283719e-01 -8.839968e-01 -1.069389e-01 -5.708126e-01 -4.784562e-01 1.183262e+00 3.141576e-01 -4.551368e-01 -1.232472e-01 8.696718e-01 5.781224e-01 -3.487100e-02 3.233914e-02 -1.030648e-01 -2.505572e-01 -5.304272e-02 4.882241e-01 9.721928e-02 -6.318227e-01 -1.002317e-01 1.381476e-01
<VARIANCE> 39
 5.494556e+01 8.775014e+01 4.038103e+01 8.003763e+01 1.065683e+02 9.412865e+01 9.766083e+01 7.960028e+01 1.177434e+02 8.544532e+01 9.743157e+01 5.424240e+01 4.612936e+01 3.879388e+00 1.049883e+01 3.266567e+00 4.103621e+00 5.251090e+00 4.056787e+00 4.500021e+00 3.213110e+00 1.272102e+01 7.820448e+00 9.391503e+00 2.254744e+00 4.521771e+00 2.807511e-01 8.319089e-01 3.797563e-01 6.721599e-01 1.089898e+00 5.637690e-01 5.801914e-01 6.295028e-01 1.824178e+00 1.159375e+00 1.210620e+00 4.116064e-01 5.092382e-01
<GCONST> 1.442893e+02
<TRANSP> 5
 0.000000e+00 1.000000e+00 0.000000e+00 0.000000e+00 0.000000e+00
 0.000000e+00 8.501008e-01 1.498992e-01 0.000000e+00 0.000000e+00
 0.000000e+00 0.000000e+00 6.333001e-01 3.667000e-01 0.000000e+00
 0.000000e+00 0.000000e+00 0.000000e+00 6.108774e-01 3.891226e-01
 0.000000e+00 0.000000e+00 0.000000e+00 0.000000e+00 0.000000e+00
<ENDHMM>
~h "ee"
<BEGINHMM>
<NUMSTATES> 7
<STATE> 2
<NUMMIXES> 2
<MIXTURE> 1 5.489683e-01
<MEAN> 39
 5.001676e+00 -8.209903e+00 3.813078e+00 1.694615e+01 1.710287e+01 4.572466e+00 -1.540520e+01 3.826030e+00 -7.297275e+00 -1.218233e+01 7.708446e+00 -2.479488e+00 -5.889549e+00 2.226443e+00 -4.547987e-01 -8.794701e-01 1.353944e+00 2.330988e+00 -1.350434e+00 -2.979179e+00 5.854216e-01 -8.581269e-01 -2.521333e+00 1.623878e+00 2.896726e-01 -1.981486e+00 -2.317604e-01 -2.386398e-01 -3.102419e-02 -2.422751e-01 -2.273504e-02 -1.031097e-01 -2.424691e-01 1.678839e-01 -5.931628e-02 -1.237855e-01 1.991921e-01 -2.447832e-02 -1.331931e-01
<VARIANCE> 39
 1.546991e+02 5.216817e+01 6.261311e+01 9.869440e+01 7.926925e+01 6.651041e+01 6.619572e+01 5.735797e+01 5.715915e+01 6.548819e+01 6.819897e+01 2.816878e+01 3.982990e+01 3.386082e+00 3.726247e+00 5.368150e+00 3.990388e+00 3.916186e+00 3.755222e+00 5.512714e+00 3.927052e+00 3.336620e+00 5.502576e+00 4.549827e+00 1.953243e+00 3.703730e+00 4.427884e-01 4.700457e-01 5.981055e-01 6.013294e-01 5.027116e-01 3.649992e-01 5.798327e-01 6.344833e-01 5.585381e-01 7.084120e-01 6.326850e-01 3.128519e-01 4.311625e-01
<GCONST> 1.347781e+02
<MIXTURE> 2 4.510308e-01
<MEAN> 39
 1.172448e+01 -1.082369e+01 8.916612e+00 3.197224e+01 2.993536e+01 -1.713751e+00 -2.785849e+01 6.791343e+00 -3.327999e+00 -1.852036e+01 4.908999e+00 -3.958343e+00 -1.282518e+01 6.586371e-02 -1.146839e-01 -6.695233e-02 -2.539293e-01 9.799720e-02 1.614555e-02 -3.874516e-01 -2.618452e-02 3.042374e-02 -1.795157e-01 8.333430e-02 1.065281e-01 -7.354641e-02 -5.665733e-03 -2.287016e-03 -2.124296e-02 -2.712354e-02 -1.731895e-02 2.816193e-02 2.741352e-02 1.646422e-02 -4.546945e-03 9.565426e-03 2.980060e-02 4.333366e-03 1.038161e-02
<VARIANCE> 39
 1.036285e+01 2.635305e+01 3.635810e+01 8.857065e+01 3.831212e+01 2.101192e+01 1.112595e+02 4.626310e+01 3.500017e+01 4.629629e+01 5.514123e+01 1.894845e+01 2.900795e+01 3.929102e-01 6.608683e-01 9.002713e-01 1.493838e+00 1.236232e+00 9.443241e-01 2.451186e+00 1.778430e+00 1.298862e+00 1.541547e+00 1.484352e+00 8.154800e-01 1.004339e+00 6.141437e-02 9.109250e-02 1.110928e-01 2.009644e-01 1.866617e-01 1.418853e-01 3.018947e-01 2.795702e-01 1.950771e-01 2.411870e-01 2.137397e-01 1.228991e-01 1.620966e-01
<GCONST> 9.616862e+01
<STATE> 3
<NUMMIXES> 2
<MIXTURE> 1 9.411935e-01
<MEAN> 39
 1.647767e+01 -1.247086e+01 1.318545e-01 1.830660e+01 2.655570e+01 5.600723e-01 -2.908514e+01 9.317503e+00 -1.208651e+01 -2.509027e+01 1.843143e+01 -7.467182e-02 -1.461257e+01 4.466531e-01 -7.805384e-01 -3.759560e-01 3.947581e-02 1.229349e+00 -1.063350e+00 -2.415315e+00 8.992586e-01 -2.825285e-01 -1.437736e+00 1.474272e+00 1.600706e-01 -1.284860e+00 -4.315394e-01 2.531042e-01 3.339591e-01 -1.505878e-01 -4.808018e-01 2.597737e-01 7.010747e-01 -2.948343e-01 3.196972e-01 7.633187e-01 -6.057280e-01 -1.641444e-01 4.920616e-01
<VARIANCE> 39
 3.411169e+01 1.629802e+01 4.264161e+01 5.689933e+01 4.550697e+01 2.535331e+01 5.752002e+01 4.644258e+01 3.704205e+01 4.303732e+01 5.345208e+01 2.696451e+01 3.329269e+01 9.729602e-01 1.263794e+00 1.589418e+00 1.118563e+00 1.349475e+00 1.705926e+00 2.684941e+00 2.394293e+00 1.188686e+00 2.701959e+00 2.613715e+00 9.686543e-01 1.421141e+00 1.392427e-01 1.809916e-01 2.460683e-01 2.247014e-01 1.971941e-01 1.857842e-01 3.314480e-01 3.796953e-01 2.127590e-01 3.392846e-01 3.103752e-01 1.877558e-01 2.288141e-01
<GCONST> 1.059085e+02
<MIXTURE> 2 5.880652e-02
<MEAN> 39
 1.512153e+01 -5.598969e+00 7.967233e+00 2.246517e+01 1.593373e+01 -1.020074e+01 -2.696859e+01 1.063726e+01 4.889426e+00 -1.869262e+01 6.693449e-01 -7.960311e-01 -1.231654e+01 -2.735306e-02 1.348978e-01 1.315651e-01 -5.557406e-02 -1.434695e-01 -9.933285e-02 3.241435e-02 -2.391110e-02 -8.657070e-02 9.160865e-02 1.525827e-01 3.826329e-02 -8.619593e-02 2.354495e-04 1.308665e-03 2.906745e-02 8.911834e-03 4.903440e-02 4.993458e-02 -1.756547e-03 3.136769e-02 -7.573745e-02 1.115975e-02 5.952551e-02 -3.976115e-02 2.720284e-02
<VARIANCE> 39
 1.716018e+01 8.571684e+01 2.035633e+01 3.916823e+01 1.868144e+02 1.657261e+02 1.283419e+02 1.520390e+02 2.829010e+01 1.904697e+01 1.054980e+01 1.343093e+01 1.311550e+01 2.237816e-01 4.046684e-01 5.040521e-01 5.874420e-01 3.447315e-01 6.245787e-01 6.122975e-01 6.984807e-01 5.357167e-01 6.256444e-01 4.949633e-01 4.002510e-01 4.324296e-01 3.787921e-02 3.527918e-02 4.925952e-02 4.608468e-02 4.891861e-02 6.681211e-02 9.052372e-02 9.422449e-02 5.211544e-02 8.573053e-02 7.317170e-02 5.177830e-02 7.114200e-02
<GCONST> 7.331094e+01
<STATE> 4
<NUMMIXES> 2
<MIXTURE> 1 9.724310e-01
<MEAN> 39
 1.572960e+01 -1.409828e+01 1.995126e+00 1.960121e+01 2.939391e+01 -2.070220e+00 -3.442699e+01 1.020959e+01 -9.835537e+00 -2.522981e+01 1.805925e+01 -9.618329e-01 -1.686716e+01 -6.075048e-02 -5.001560e-03 8.198244e-02 9.054847e-02 9.489807e-02 5.699746e-03 -4.972618e-02 -4.743665e-03 -1.605006e-02 6.912401e-02 9.221745e-02 -9.420987e-02 -1.293021e-01 -6.166203e-04 6.649213e-02 -8.421380e-03 4.772631e-02 -3.774971e-02 6.815572e-02 1.623668e-01 -4.216134e-02 -2.353226e-02 5.333843e-02 -4.715044e-02 6.663842e-04 4.516454e-02
<VARIANCE> 39
 8.726077e+00 9.020557e+00 3.149872e+01 3.173237e+01 2.816312e+01 1.327852e+01 3.417760e+01 4.000747e+01 3.166937e+01 2.629078e+01 5.745414e+01 1.553707e+01 2.587309e+01 4.782977e-01 3.357810e-01 6.070283e-01 7.562747e-01 6.537909e-01 5.817824e-01 1.586475e+00 1.846264e+00 6.765062e-01 1.302901e+00 1.446235e+00 5.295568e-01 7.561610e-01 6.901496e-02 5.771729e-02 7.491004e-02 8.460099e-02 9.632841e-02 8.748191e-02 2.425501e-01 2.686961e-01 9.427560e-02 2.056853e-01 2.106739e-01 7.729086e-02 1.053843e-01
<GCONST> 8.129070e+01
<MIXTURE> 2 2.756894e-02
<MEAN> 39
 -1.381971e+01 -7.121683e+00 -5.986705e+00 1.088597e+00 2.304326e+00 1.806953e+00 -4.237133e+00 3.860973e+00 -6.226130e+00 -7.398770e+00 3.691305e+00 2.832721e+00 1.255981e+00 -8.403599e-02 3.037204e-02 1.596942e-02 -8.620042e-02 -5.221191e-02 -7.860002e-02 -7.758637e-02 1.870544e-02 1.261933e-01 1.688320e-01 -2.387885e-02 -2.636806e-02 5.331310e-02 -8.830542e-03 1.140934e-02 4.187637e-02 1.827266e-02 3.441921e-02 4.962648e-02 2.803628e-02 6.070262e-02 5.228918e-02 4.200114e-02 1.782340e-02 -3.532040e-02 -1.654090e-02
<VARIANCE> 39
 3.243880e+02 4.713987e+01 6.351167e+01 1.011853e+02 7.545468e+01 8.697266e+01 6.717220e+01 1.022301e+02 7.407423e+01 5.489152e+01 3.892197e+01 3.051965e+01 2.702184e+01 1.596112e+00 8.659073e-01 1.124537e+00 1.231586e+00 1.427809e+00 1.444862e+00 1.791704e+00 1.572540e+00 2.423234e+00 1.909084e+00 1.832073e+00 1.069564e+00 1.123898e+00 1.255135e-01 1.341024e-01 1.264573e-01 1.857739e-01 1.787957e-01 2.146451e-01 2.790998e-01 2.813514e-01 3.389471e-01 3.158851e-01 2.779846e-01 2.022672e-01 1.942261e-01
<GCONST> 1.107300e+02
<STATE> 5
<NUMMIXES> 2
<MIXTURE> 1 7.275036e-01
<MEAN> 39
 1.539059e+01 -1.092984e+01 1.530709e+00 2.221950e+01 2.903071e+01 -8.175679e-02 -2.925232e+01 8.295919e+00 -1.183270e+01 -2.330950e+01 1.853223e+01 -1.393989e+00 -1.675216e+01 -5.965843e-01 1.461884e+00 2.331809e-01 3.745670e-01 -8.772117e-01 5.525058e-01 2.393293e+00 -9.334716e-01 5.193918e-01 1.583647e+00 -1.682668e+00 -1.202025e-01 9.271457e-01 -2.938992e-01 4.398852e-01 2.342567e-01 -1.177446e-01 -3.682050e-01 1.122842e-01 5.336612e-01 -1.987959e-01 3.732873e-01 5.743930e-01 -6.370463e-01 -7.311752e-02 4.292267e-01
<VARIANCE> 39
 1.460379e+01 1.888408e+01 4.589812e+01 6.376097e+01 4.235163e+01 2.647510e+01 6.316645e+01 5.056626e+01 3.642573e+01 4.843593e+01 6.385096e+01 3.024015e+01 3.957087e+01 7.689191e-01 1.403942e+00 1.284234e+00 1.317464e+00 1.584872e+00 1.372006e+00 3.205787e+00 2.774480e+00 1.673555e+00 3.139522e+00 3.096766e+00 9.784823e-01 1.730241e+00 8.532765e-02 1.381453e-01 2.022197e-01 2.110629e-01 1.902347e-01 1.832985e-01 3.520962e-01 3.973230e-01 2.250459e-01 3.566436e-01 2.905025e-01 1.756606e-01 2.283472e-01
<GCONST> 1.060771e+02
<MIXTURE> 2 2.724961e-01
<MEAN> 39
 1.239119e+01 -1.043351e+01 4.188245e+00 2.038626e+01 2.687288e+01 -2.418281e+00 -3.097278e+01 5.434399e+00 -9.271969e+00 -1.804558e+01 1.403645e+01 -1.925239e+00 -1.254321e+01 9.594496e-02 2.352446e-01 -9.891906e-02 3.459305e-01 6.884130e-02 8.086940e-02 2.508458e-01 1.022624e-01 -8.655787e-02 -1.304019e-01 1.850733e-01 3.493547e-02 -1.827689e-01 1.159656e-01 -4.048500e-02 -5.738299e-02 3.397568e-02 1.065525e-01 4.695376e-02 -7.125466e-02 2.245280e-01 -6.059623e-02 -2.307141e-01 1.706668e-01 7.158342e-03 -1.031279e-01
<VARIANCE> 39
 4.900922e+01 2.253783e+01 8.815742e+01 8.019955e+01 6.598926e+01 2.474084e+01 9.125261e+01 6.100649e+01 4.764496e+01 4.577211e+01 7.705291e+01 2.545566e+01 4.458315e+01 4.758965e-01 5.722190e-01 9.358947e-01 1.098783e+00 1.097218e+00 8.828968e-01 1.933798e+00 1.837231e+00 1.187358e+00 1.603876e+00 1.443781e+00 9.724693e-01 1.043127e+00 8.011601e-02 9.030467e-02 1.241277e-01 1.537243e-01 1.795796e-01 1.495886e-01 3.378605e-01 3.589854e-01 1.819998e-01 2.520699e-01 2.544476e-01 1.413560e-01 1.528720e-01
<GCONST> 1.007261e+02
<STATE> 6
<NUMMIXES> 2
<MIXTURE> 1 8.451087e-01
<MEAN> 39
 6.027411e+00 1.656275e+00 5.272593e+00 2.205346e+01 2.146297e+01 3.184867e+00 -1.438893e+01 1.863591e+00 -5.981420e+00 -1.061771e+01 3.632698e+00 -3.055418e+00 -7.633722e+00 -1.704456e+00 1.961063e+00 1.026608e+00 -5.972832e-01 -1.425239e+00 8.036613e-01 2.318158e+00 -2.477610e-01 1.091375e+00 1.842597e+00 -1.860506e+00 -1.771499e-01 1.492956e+00 -9.995919e-02 -3.026803e-01 5.467906e-02 -1.138898e-01 3.676292e-02 9.520075e-03 -2.640160e-01 1.360459e-01 -1.743953e-01 -2.556835e-01 3.754891e-01 4.059236e-02 -1.944200e-01
<VARIANCE> 39
 6.435154e+01 4.430318e+01 3.389489e+01 6.273186e+01 6.476213e+01 4.157991e+01 7.563100e+01 6.551176e+01 5.061765e+01 5.449951e+01 6.261557e+01 3.343897e+01 3.855715e+01 1.347361e+00 3.244076e+00 2.010432e+00 2.397813e+00 2.472170e+00 1.933246e+00 3.866900e+00 3.934119e+00 3.200269e+00 3.693222e+00 3.980976e+00 1.639179e+00 2.356973e+00 1.289809e-01 2.662769e-01 2.568045e-01 3.113963e-01 3.961620e-01 2.358182e-01 5.144944e-01 4.860219e-01 4.983817e-01 4.830085e-01 4.069016e-01 2.398429e-01 2.826575e-01
<GCONST> 1.207910e+02
<MIXTURE> 2 1.548913e-01
<MEAN> 39
 -5.985241e+00 7.929432e+00 1.038492e+01 1.727234e+01 1.451684e+01 8.686550e+00 -1.588813e-01 9.352077e+00 2.985317e+00 5.593538e-03 3.859843e+00 -9.104581e-01 -3.127412e+00 -5.722380e-01 -3.457025e-02 -6.282961e-02 -5.092365e-01 -3.836194e-01 3.573312e-01 6.165572e-01 2.313159e-01 2.756954e-01 4.346003e-01 1.328942e-01 1.466349e-01 3.281316e-01 -6.210927e-03 -1.224010e-01 -1.082110e-01 8.082099e-04 -3.572311e-03 -1.158823e-01 -1.815865e-01 -1.431867e-01 -1.328472e-01 -1.388475e-01 -6.208923e-02 -2.055179e-02 9.157229e-04
<VARIANCE> 39
 1.183555e+02 6.664101e+01 5.340907e+01 8.484604e+01 7.251013e+01 4.902652e+01 5.384347e+01 5.017875e+01 3.757323e+01 4.883411e+01 4.617574e+01 3.662394e+01 2.472283e+01 8.236063e-01 6.058910e-01 7.498264e-01 1.303305e+00 1.531170e+00 1.170047e+00 1.394832e+00 1.426644e+00 1.376722e+00 1.460785e+00 1.176116e+00 9.947223e-01 8.850328e-01 6.161441e-02 8.722688e-02 1.163599e-01 2.010081e-01 2.378119e-01 1.774180e-01 2.041673e-01 2.363571e-01 2.274924e-01 2.176753e-01 2.114335e-01 1.807832e-01 1.455337e-01
<GCONST> 1.012136e+02
<TRANSP> 7
 0.000000e+00 1.000000e+00 0.000000e+00 0.000000e+00 0.000000e+00 0.000000e+00 0.000000e+00
 0.000000e+00 7.908866e-01 2.091134e-01 0.000000e+00 0.000000e+00 0.000000e+00 0.000000e+00
 0.000000e+00 0.000000e+00 6.662433e-01 3.337567e-01 0.000000e+00 0.000000e+00 0.000000e+00
 0.000000e+00 0.000000e+00 0.000000e+00 9.104961e-01 8.950382e-02 0.000000e+00 0.000000e+00
 0.000000e+00 0.000000e+00 0.000000e+00 0.000000e+00 8.326360e-01 1.673639e-01 0.000000e+00
 0.000000e+00 0.000000e+00 0.000000e+00 0.000000e+00 0.000000e+00 7.969941e-01 2.030059e-01
 0.000000e+00 0.000000e+00 0.000000e+00 0.000000e+00 0.000000e+00 0.000000e+00 0.000000e+00
<ENDHMM>
~h "ei"
<BEGINHMM>
<NUMSTATES> 7
<STATE> 2
<NUMMIXES> 2
<MIXTURE> 1 6.860446e-01
<MEAN> 39
 2.014966e+01 -1.303502e+01 -1.309861e+01 8.808683e+00 2.194350e+01 -4.202759e+00 -2.683248e+01 9.185283e+00 -9.888308e+00 -1.436927e+01 2.244955e+01 3.892334e+00 -3.588268e+00 -9.602056e-02 -1.436307e-01 -1.224716e-01 1.465493e-01 4.286470e-01 5.976051e-02 -4.036401e-01 -5.067915e-01 -3.512498e-01 -1.317520e-01 9.223867e-02 1.128555e-01 2.577428e-04 -1.491432e-01 1.698234e-01 1.963356e-01 1.117205e-01 -1.141383e-01 7.517419e-02 2.016128e-01 -1.451773e-01 5.309502e-02 1.438683e-01 -1.383962e-01 1.127581e-02 -6.043320e-03
<VARIANCE> 39
 1.133464e+01 1.510149e+01 3.063629e+01 3.123652e+01 2.274792e+01 1.582985e+01 3.286160e+01 5.459800e+01 2.590899e+01 4.393304e+01 3.802129e+01 1.936446e+01 2.855011e+01 7.923768e-01 7.097063e-01 1.183897e+00 8.155522e-01 9.115592e-01 7.147313e-01 1.890020e+00 2.453860e+00 7.984578e-01 1.441422e+00 2.189006e+00 8.564309e-01 7.476814e-01 1.103694e-01 8.165213e-02 1.177237e-01 1.095582e-01 1.085277e-01 1.045856e-01 2.247720e-01 3.166439e-01 1.159077e-01 2.059085e-01 2.865340e-01 1.270745e-01 8.763955e-02
<GCONST> 8.936240e+01
<MIXTURE> 2 3.139549e-01
<MEAN> 39
 1.540532e+01 -6.617964e+00 -8.420966e+00 1.053752e+01 1.546957e+01 -1.497861e+00 -1.759325e+01 5.703870e+00 -5.019383e+00 -4.849138e+00 1.995006e+01 4.704045e+00 -4.100536e+00 1.028714e+00 -4.371106e-01 -8.560395e-01 -5.560250e-02 1.477449e+00 -4.050853e-01 -1.701637e+00 5.060757e-01 -9.528147e-01 -1.936074e+00 2.569146e-01 -1.855417e-01 -3.034959e-01 -2.195446e-02 -2.460551e-01 -2.232658e-01 -1.366042e-01 4.308174e-02 8.305816e-02 -9.226383e-02 -3.458098e-02 -1.364695e-03 1.366317e-01 1.295691e-01 -7.182479e-03 1.048519e-01
<VARIANCE> 39
 2.937836e+01 2.765369e+01 5.698645e+01 5.187356e+01 5.049183e+01 1.997169e+01 5.473658e+01 4.664209e+01 3.048042e+01 6.907438e+01 5.149012e+01 2.525941e+01 3.106867e+01 1.188832e+00 1.793059e+00 2.706843e+00 1.787066e+00 1.362852e+00 1.821246e+00 2.285431e+00 2.807227e+00 1.606588e+00 2.410261e+00 3.111579e+00 1.580934e+00 1.066617e+00 2.433689e-01 2.446698e-01 3.977294e-01 2.983912e-01 2.645183e-01 2.965538e-01 4.348669e-01 5.673890e-01 3.050758e-01 4.628385e-01 4.825953e-01 2.782722e-01 1.933953e-01
<GCONST> 1.129962e+02
<STATE> 3
<NUMMIXES> 2
<MIXTURE> 1 9.638529e-01
<MEAN> 39
 1.303114e+01 -4.960282e+00 -8.052629e+00 1.813654e+01 2.695618e+01 -9.994051e-01 -2.923555e+01 -5.813444e+00 -1.246236e+01 -1.035707e+01 1.835192e+01 7.286717e+00 -3.504358e+00 -7.894156e-01 6.562317e-01 5.211460e-01 4.319651e-01 -1.958704e-01 1.096815e-01 2.289376e-01 -1.334498e+00 -1.749220e-01 4.418227e-01 -9.366370e-01 3.058758e-01 5.688064e-01 -2.318626e-01 1.967133e-01 2.562653e-01 -7.782667e-02 -2.999011e-01 4.632020e-02 3.768390e-01 1.423985e-01 2.580311e-01 2.071678e-01 -2.749403e-01 -7.432168e-02 1.266432e-01
<VARIANCE> 39
 1.752568e+01 2.145874e+01 3.336905e+01 3.177675e+01 2.656298e+01 1.947951e+01 5.342802e+01 8.253612e+01 4.249502e+01 4.258446e+01 4.491040e+01 3.371029e+01 3.499336e+01 1.539619e+00 2.135527e+00 3.151215e+00 1.854064e+00 4.130338e+00 1.738923e+00 6.288210e+00 3.360196e+00 3.224708e+00 3.257892e+00 4.659981e+00 1.666944e+00 1.545975e+00 3.378506e-01 3.755988e-01 6.393056e-01 3.115599e-01 8.196474e-01 3.010877e-01 1.344086e+00 7.198974e-01 7.504372e-01 6.559681e-01 9.439489e-01 3.253356e-01 3.183701e-01
<GCONST> 1.222637e+02
<MIXTURE> 2 3.614718e-02
<MEAN> 39
 1.500112e+01 5.623367e+00 9.144383e+00 1.470350e+01 1.173019e+00 -1.942992e+01 -1.670955e+01 2.169844e+01 4.587743e+00 -1.632670e+01 4.639813e+00 -1.429110e+00 -1.205465e+01 -3.658019e-01 5.513411e-01 4.047863e-01 9.851892e-02 -9.857094e-02 2.206450e-01 3.034128e-01 -5.335217e-01 -3.845521e-02 6.172213e-01 1.107490e-01 2.405260e-01 2.003965e-01 -5.976129e-02 -3.224552e-02 -3.763011e-02 -1.679271e-02 3.267819e-02 1.392153e-01 1.086823e-01 -4.244565e-02 1.589722e-02 1.078841e-01 -1.097660e-02 -7.741470e-03 6.886447e-02
<VARIANCE> 39
 7.079900e+01 4.388840e+01 3.469304e+01 3.139685e+01 4.143697e+01 1.167253e+02 6.686530e+01 1.058866e+02 2.506694e+01 5.914365e+01 2.778267e+01 2.753981e+01 2.212930e+01 6.854500e-01 3.831224e-01 6.273509e-01 9.333093e-01 9.519737e-01 2.015606e+00 1.710049e+00 2.212066e+00 1.097580e+00 1.559020e+00 9.274114e-01 9.720303e-01 8.121033e-01 5.444130e-02 6.490893e-02 9.797486e-02 1.271198e-01 1.196902e-01 1.756450e-01 2.729670e-01 3.614800e-01 1.398771e-01 2.173440e-01 1.487766e-01 1.713158e-01 1.015863e-01
<GCONST> 9.577577e+01
<STATE> 4
<NUMMIXES> 2
<MIXTURE> 1 1.000000e+00
<MEAN> 39
 1.145832e+00 4.326344e+00 3.921188e+00 1.998693e+01 1.990645e+01 1.317820e+00 -1.869866e+01 -6.932692e+00 -8.864115e+00 -4.395766e+00 1.054129e+01 6.546552e+00 -1.883026e-01 -1.363999e+00 6.211891e-01 1.154278e+00 1.188579e-01 -4.502983e-01 7.736869e-01 1.674625e+00 8.649659e-01 7.972226e-01 6.104950e-01 -5.115988e-01 -1.588463e-01 2.404965e-01 3.484170e-02 -1.632658e-01 -1.017253e-01 -5.256346e-03 1.335337e-01 1.112962e-01 5.637708e-02 2.428274e-01 7.938977e-02 5.969265e-04 1.948453e-01 -7.900243e-03 -9.957123e-02
<VARIANCE> 39
 4.097184e+01 2.838739e+01 4.348473e+01 2.952610e+01 3.701280e+01 4.199324e+01 6.353247e+01 6.239762e+01 4.014663e+01 3.076264e+01 4.548711e+01 3.709484e+01 2.829840e+01 1.360377e+00 1.618713e+00 1.914438e+00 2.072286e+00 2.719882e+00 2.580092e+00 4.520257e+00 4.948401e+00 3.665965e+00 2.475357e+00 3.369631e+00 1.962404e+00 1.622038e+00 1.553184e-01 1.487411e-01 2.327687e-01 3.748320e-01 4.629706e-01 3.656349e-01 6.544769e-01 6.047189e-01 5.789248e-01 4.038566e-01 5.651861e-01 3.435946e-01 2.468658e-01
<GCONST> 1.178208e+02
<MIXTURE> 2 0.000000e+00
<MEAN> 39
 2.451241e-05 -3.945827e-05 -6.578863e-06 -7.152557e-07 -2.774596e-05 1.187921e-04 -1.449883e-05 1.633167e-05 -6.984919e-06 -4.756451e-05 -2.284069e-07 1.892447e-05 7.908791e-06 -7.654307e-09 2.645538e-08 3.352761e-08 1.137960e-07 9.124051e-09 1.990702e-07 1.084991e-07 -6.868504e-08 -1.708395e-08 1.569279e-07 2.568122e-07 2.303568e-08 -8.591451e-08 -1.363271e-02 1.440285e-03 -1.899552e-03 5.156639e-04 -4.873953e-04 -4.111854e-04 -4.649502e-04 -8.853489e-04 -2.279049e-04 -6.240061e-04 -1.173968e-04 -5.409846e-04 -2.049126e-04
<VARIANCE> 39
 9.626150e-06 2.426654e-05 3.815629e-06 0.000000e+00 0.000000e+00 0.000000e+00 2.935529e-06 0.000000e+00 1.143431e-06 0.000000e+00 0.000000e+00 0.000000e+00 0.000000e+00 1.686828e-11 0.000000e+00 1.923581e-10 0.000000e+00 0.000000e+00 2.846718e-10 0.000000e+00 0.000000e+00 2.116707e-11 0.000000e+00 0.000000e+00 0.000000e+00 8.787993e-11 8.329379e-03 3.102372e-04 3.842243e-04 2.258328e-04 2.910108e-04 3.261111e-04 3.767133e-04 3.033899e-04 2.445394e-04 2.236361e-04 1.965368e-04 1.861692e-04 1.587977e-04
<GCONST> -1.600000e+11
<STATE> 5
<NUMMIXES> 2
<MIXTURE> 1 1.000000e+00
<MEAN> 39
 -1.202903e+01 3.832642e+00 8.183325e+00 1.669206e+01 1.657642e+01 1.275600e+01 2.758182e+00 1.084124e+01 5.507238e+00 4.803957e+00 9.223342e+00 3.740597e+00 3.977236e-01 -1.180090e+00 -5.532216e-01 -5.914520e-01 -1.261716e+00 -1.205989e+00 -3.954449e-02 6.129768e-01 1.540569e-01 2.314693e-01 2.076036e-01 -4.473507e-01 -2.477601e-01 1.554080e-01 -2.026969e-02 -1.054089e-01 -1.748965e-01 -1.979116e-01 -2.469652e-01 -3.405794e-01 -3.726742e-01 -3.415641e-01 -3.020347e-01 -2.340062e-01 -1.213684e-01 -4.479766e-02 -1.744871e-02
<VARIANCE> 39
 4.503296e+01 2.451871e+01 2.266306e+01 4.108432e+01 4.035046e+01 2.249960e+01 3.511895e+01 3.363982e+01 3.049432e+01 3.292168e+01 2.038267e+01 1.658079e+01 1.371395e+01 1.023219e+00 1.104005e+00 1.720706e+00 2.429091e+00 3.329098e+00 3.388674e+00 3.197662e+00 3.557017e+00 2.905546e+00 2.387326e+00 2.016997e+00 1.421272e+00 9.594135e-01 9.039129e-02 1.073731e-01 1.384123e-01 2.113991e-01 2.948512e-01 2.790625e-01 2.800671e-01 3.005885e-01 2.710500e-01 2.653632e-01 2.485872e-01 2.068956e-01 1.585995e-01
<GCONST> 1.035342e+02
<MIXTURE> 2 0.000000e+00
<MEAN> 39
 -1.609325e-06 -8.135103e-07 4.749745e-07 -6.807968e-07 -4.202593e-08 -3.618188e-07 2.407432e-09 2.424931e-07 1.277658e-07 -1.313165e-07 1.412118e-07 2.625166e-07 -2.114102e-07 1.533401e-01 -5.503851e-03 3.785035e-02 1.390424e-03 1.759262e-02 1.390478e-02 1.895499e-02 1.250848e-02 7.013478e-03 6.770252e-03 6.135121e-03 5.650446e-03 4.476010e-03 -1.806013e-01 2.015203e-02 -3.495460e-02 2.499425e-02 1.963463e-02 -3.039902e-02 -3.971753e-02 -2.047334e-02 -8.192796e-04 8.419420e-03 5.635804e-03 4.006127e-03 -1.858771e-03
<VARIANCE> 39
 0.000000e+00 0.000000e+00 0.000000e+00 0.000000e+00 4.588401e-10 0.000000e+00 9.299506e-14 0.000000e+00 1.959961e-10 7.395329e-10 9.354153e-10 0.000000e+00 0.000000e+00 5.519691e-01 1.833294e-02 3.783517e-02 1.655615e-02 2.303718e-02 2.295028e-02 2.466567e-02 1.928537e-02 1.440313e-02 1.338319e-02 1.233723e-02 1.081821e-02 9.576578e-03 1.242094e-01 1.541650e-02 1.599239e-02 1.925049e-02 2.621124e-02 3.162269e-02 3.145853e-02 1.910103e-02 1.752691e-02 1.237346e-02 1.492543e-02 9.388872e-03 1.088586e-02
<GCONST> -8.000000e+10
<STATE> 6
<NUMMIXES> 2
<MIXTURE> 1 1.000000e+00
<MEAN> 39
 -2.469946e+01 -6.038772e+00 -4.465769e+00 -1.401570e+00 -1.922499e+00 1.580804e+00 -3.464915e+00 1.510309e+00 -2.136034e+00 -1.099282e+00 1.539173e+00 3.819055e-03 5.049687e-01 -3.067227e-01 -1.771200e-01 -1.605241e-01 -3.662678e-01 -4.749663e-01 -2.940164e-01 -1.561956e-01 -2.032361e-01 -2.007898e-01 -2.105640e-01 -2.556782e-01 -1.358962e-01 -4.142869e-02 1.237483e-01 8.684817e-02 1.411560e-01 1.937235e-01 2.217803e-01 1.533167e-01 8.143926e-02 1.105305e-01 7.401986e-02 6.112674e-02 9.619416e-02 5.380613e-02 2.423658e-02
<VARIANCE> 39
 4.744487e+01 1.245862e+01 1.305085e+01 2.579831e+01 2.774661e+01 1.528560e+01 1.230749e+01 1.290555e+01 1.604612e+01 1.919534e+01 1.396381e+01 1.299050e+01 7.353082e+00 6.752725e-01 6.232224e-01 1.265229e+00 1.608597e+00 1.888798e+00 1.834957e+00 1.584921e+00 1.572030e+00 1.367665e+00 1.525510e+00 1.358189e+00 1.169925e+00 8.708246e-01 8.835325e-02 1.066793e-01 1.516878e-01 2.276177e-01 2.939475e-01 2.649402e-01 2.517245e-01 2.496104e-01 2.558751e-01 2.696966e-01 2.505551e-01 2.192090e-01 1.715994e-01
<GCONST> 9.029519e+01
<MIXTURE> 2 0.000000e+00
<MEAN> 39
 0.000000e+00 0.000000e+00 0.000000e+00 0.000000e+00 0.000000e+00 0.000000e+00 0.000000e+00 0.000000e+00 0.000000e+00 0.000000e+00 0.000000e+00 0.000000e+00 0.000000e+00 4.237878e-23 -3.786909e-23 1.582470e-23 -1.329638e-24 3.023070e-24 -8.363062e-24 6.443591e-24 -1.243620e-24 4.356885e-25 -2.915257e-24 3.233656e-24 -1.075627e-24 3.332135e-26 -1.259776e-01 9.946360e-03 -3.100975e-02 6.726459e-03 -2.000426e-04 -2.277133e-02 -2.668727e-02 -1.526267e-02 -5.181108e-03 1.760355e-04 -1.211648e-03 -1.074032e-03 -3.869191e-03
<VARIANCE> 39
 0.000000e+00 0.000000e+00 0.000000e+00 0.000000e+00 0.000000e+00 0.000000e+00 0.000000e+00 0.000000e+00 0.000000e+00 0.000000e+00 0.000000e+00 0.000000e+00 0.000000e+00 5.779452e-23 4.550961e-23 7.666999e-24 4.672506e-26 3.242006e-25 2.289604e-24 1.269824e-24 4.119810e-26 1.051707e-26 3.016532e-25 3.258485e-25 3.081342e-26 3.416759e-28 8.857191e-02 9.054033e-03 1.131149e-02 9.210194e-03 1.184606e-02 1.578277e-02 1.645681e-02 1.080695e-02 9.119515e-03 6.624663e-03 7.254379e-03 5.319290e-03 5.618778e-03
<GCONST> -1.300000e+11
<TRANSP> 7
 0.000000e+00 1.000000e+00 0.000000e+00 0.000000e+00 0.000000e+00 0.000000e+00 0.000000e+00
 0.000000e+00 9.104040e-01 8.959603e-02 0.000000e+00 0.000000e+00 0.000000e+00 0.000000e+00
 0.000000e+00 0.000000e+00 8.561512e-01 1.438488e-01 0.000000e+00 0.000000e+00 0.000000e+00
 0.000000e+00 0.000000e+00 0.000000e+00 9.006224e-01 9.937765e-02 0.000000e+00 0.000000e+00
 0.000000e+00 0.000000e+00 0.000000e+00 0.000000e+00 8.874015e-01 1.125984e-01 0.000000e+00
 0.000000e+00 0.000000e+00 0.000000e+00 0.000000e+00 0.000000e+00 8.542461e-01 1.457539e-01
 0.000000e+00 0.000000e+00 0.000000e+00 0.000000e+00 0.000000e+00 0.000000e+00 0.000000e+00
<ENDHMM>
~h "ii"
<BEGINHMM>
<NUMSTATES> 7
<STATE> 2
<NUMMIXES> 2
<MIXTURE> 1 3.640195e-01
<MEAN> 39
 5.838189e-01 -1.638874e+01 1.730800e+01 2.458992e+01 1.362728e+01 1.170690e+01 -8.455677e+00 4.398239e+00 -2.330255e+00 -3.723631e+00 7.208230e+00 -6.478376e+00 -3.014835e+00 3.161364e+00 2.636957e+00 6.205568e-01 2.989648e+00 2.698059e+00 -9.229858e-01 -2.447568e+00 -8.178540e-01 1.026901e+00 -1.437683e+00 -1.419154e+00 -2.686193e-01 -1.729678e+00 -1.362523e-02 -4.397612e-01 -7.444057e-01 -2.946891e-01 3.772782e-01 -4.199625e-01 -1.064988e+00 -2.042632e-01 -2.511336e-01 -8.479262e-01 -1.476090e-01 7.776833e-02 -4.861135e-01
<VARIANCE> 39
 4.112122e+01 8.150778e+01 1.086780e+02 1.049388e+02 3.532814e+01 1.411671e+02 3.789142e+01 9.828678e+01 3.949472e+01 6.467634e+01 3.300508e+01 2.598516e+01 1.919859e+01 1.727185e+00 3.714085e+00 3.646008e+00 5.293404e+00 3.087914e+00 3.327399e+00 4.518181e+00 3.103256e+00 3.355132e+00 4.786586e+00 3.119730e+00 2.347756e+00 2.089756e+00 3.075539e-01 5.103478e-01 4.396369e-01 5.196331e-01 4.450160e-01 4.099141e-01 4.513156e-01 5.139787e-01 6.001183e-01 5.904321e-01 4.862787e-01 3.312005e-01 2.508875e-01
<GCONST> 1.279844e+02
<MIXTURE> 2 6.359804e-01
<MEAN> 39
 1.082765e+01 -1.190235e+01 1.164506e+01 3.206367e+01 2.606620e+01 6.036121e+00 -2.219985e+01 1.740903e+00 -2.197253e+00 -1.503061e+01 4.356639e+00 -4.866070e+00 -1.169659e+01 1.100153e+00 -2.439257e-01 -7.020037e-01 1.318072e+00 2.481883e+00 -1.415381e+00 -3.539251e+00 2.592153e-01 4.033661e-01 -2.468966e+00 1.096500e-01 4.330279e-01 -2.142535e+00 -4.502674e-01 -2.275684e-01 4.843191e-02 -5.356023e-01 -4.548447e-01 8.250576e-02 3.795885e-01 4.016007e-01 1.203854e-01 2.200770e-01 1.751312e-01 9.670755e-02 2.503557e-01
<VARIANCE> 39
 1.323388e+01 2.687386e+01 7.705345e+01 5.349669e+01 3.958316e+01 5.916581e+01 4.883372e+01 5.429704e+01 4.067826e+01 4.610373e+01 4.498090e+01 2.394154e+01 2.517980e+01 9.826363e-01 2.058684e+00 2.640074e+00 2.347816e+00 2.372672e+00 2.548260e+00 3.271671e+00 2.994187e+00 2.603934e+00 2.778166e+00 2.628840e+00 1.832176e+00 1.562973e+00 1.452945e-01 3.245620e-01 3.086178e-01 3.145161e-01 3.524978e-01 2.370354e-01 4.515146e-01 3.265647e-01 3.263449e-01 4.139726e-01 3.600739e-01 2.687297e-01 2.554342e-01
<GCONST> 1.143839e+02
<STATE> 3
<NUMMIXES> 2
<MIXTURE> 1 1.000000e+00
<MEAN> 39
 1.234523e+01 -1.059185e+01 9.218602e+00 2.987190e+01 2.913928e+01 1.922888e+00 -2.753543e+01 7.410896e+00 -3.513259e+00 -2.083955e+01 9.781131e+00 -3.205523e+00 -1.600446e+01 -8.173468e-02 -3.147612e-01 4.297601e-01 2.996764e-01 4.797984e-01 -3.658869e-01 -1.152665e+00 2.854463e-01 5.199672e-01 -5.547505e-01 -1.106814e-01 -5.818110e-02 -7.080269e-01 -7.705917e-02 7.331295e-02 1.218973e-02 -9.760721e-02 -2.105390e-01 8.941379e-02 3.338766e-01 -8.051006e-02 1.023259e-02 2.264506e-01 -1.544503e-01 -2.516630e-02 2.352137e-01
<VARIANCE> 39
 1.402759e+01 2.539030e+01 6.238817e+01 4.952671e+01 4.408653e+01 4.408085e+01 7.493109e+01 4.008935e+01 5.833285e+01 5.086008e+01 7.141352e+01 1.865546e+01 3.150088e+01 4.845793e-01 7.570900e-01 1.506484e+00 1.107342e+00 1.518881e+00 1.186491e+00 2.194021e+00 1.816404e+00 1.164761e+00 1.943169e+00 1.485801e+00 1.176021e+00 1.060646e+00 7.390175e-02 1.210800e-01 1.490457e-01 1.649661e-01 2.641649e-01 1.608386e-01 3.999046e-01 2.939873e-01 1.873755e-01 3.647836e-01 2.594715e-01 1.932081e-01 1.847565e-01
<GCONST> 1.016366e+02
<MIXTURE> 2 0.000000e+00
<MEAN> 39
 -2.208270e+00 -4.924166e+00 1.908871e+01 1.414313e+01 1.305121e+01 -2.550124e+01 -8.712596e+00 3.256981e+00 -1.020494e+01 -1.600216e+01 -1.043865e+01 -7.724840e+00 -3.884650e+00 -3.069684e-02 5.741307e-02 2.626543e-02 -1.140945e-02 -5.099841e-03 1.462645e-03 -7.175154e-02 2.450622e-02 1.508959e-02 -8.209687e-02 -2.880517e-02 4.053793e-02 1.540386e-02 4.400872e-03 3.426807e-02 -3.873229e-02 -2.918413e-02 4.017396e-02 7.009056e-02 -1.632413e-02 -6.592760e-02 5.973514e-02 5.484207e-02 -7.151864e-03 -6.910361e-03 -2.705606e-03
<VARIANCE> 39
 5.265318e+00 3.126786e+01 2.337614e+01 3.727947e+01 3.152877e+01 2.943056e+01 3.225301e+01 2.729765e+01 2.195340e+01 2.848150e+01 2.092086e+01 3.419135e+01 3.785925e+01 6.421357e-02 2.003726e-01 3.487247e-01 3.611105e-01 4.247755e-01 4.733264e-01 5.225756e-01 5.518345e-01 5.403954e-01 5.455791e-01 4.727846e-01 4.464683e-01 3.817663e-01 9.004888e-03 2.605502e-02 4.109941e-02 5.433235e-02 6.215053e-02 8.339533e-02 8.227700e-02 8.697993e-02 9.257926e-02 8.818587e-02 8.279812e-02 7.263009e-02 6.514387e-02
<GCONST> 6.347967e+01
<STATE> 4
<NUMMIXES> 2
<MIXTURE> 1 7.105640e-01
<MEAN> 39
 1.168094e+01 -1.283219e+01 1.094404e+01 3.297566e+01 3.126431e+01 -4.197900e-01 -3.279256e+01 6.149797e+00 8.467753e-01 -2.245436e+01 4.712069e+00 -2.948539e+00 -1.720973e+01 -1.786846e-02 1.137005e-01 -3.892538e-02 1.109067e-01 6.008132e-02 -8.792055e-02 6.156990e-02 -6.885476e-02 5.250375e-03 1.171160e-01 -1.443986e-01 -1.013615e-01 5.446056e-03 1.505566e-02 6.165940e-02 -3.736631e-02 1.233286e-02 -6.079898e-02 4.200075e-02 1.783378e-01 -3.517142e-02 -8.484038e-02 9.715257e-02 5.890369e-03 -3.640768e-02 7.079252e-02
<VARIANCE> 39
 6.211930e+00 1.294818e+01 2.568747e+01 2.586549e+01 2.556365e+01 2.137805e+01 2.961685e+01 2.602258e+01 3.288272e+01 2.642319e+01 3.531447e+01 1.196362e+01 2.390409e+01 3.188622e-01 3.582130e-01 6.273962e-01 7.573243e-01 7.154646e-01 7.476632e-01 1.330190e+00 1.013080e+00 9.439278e-01 1.114049e+00 1.074469e+00 6.036348e-01 6.692169e-01 5.055702e-02 6.002206e-02 7.211579e-02 1.054718e-01 1.113190e-01 1.127471e-01 2.134848e-01 1.572571e-01 1.124609e-01 1.975534e-01 1.451183e-01 1.010710e-01 1.055497e-01
<GCONST> 7.875027e+01
<MIXTURE> 2 2.894361e-01
<MEAN> 39
 1.076800e+01 -8.384647e+00 1.436858e+01 3.561186e+01 2.515941e+01 -1.115793e+00 -2.493818e+01 4.422409e+00 7.878870e+00 -1.522907e+01 -7.420065e+00 -7.018212e+00 -1.180357e+01 6.238369e-03 2.438589e-01 -1.425023e-01 1.427194e-03 1.117525e-02 -2.544080e-01 1.271245e-01 1.255227e-01 -8.111049e-02 2.632019e-02 -1.579291e-01 -1.690090e-01 3.743990e-02 7.641139e-03 -2.024042e-02 -9.128185e-03 -8.511178e-03 6.492405e-02 6.430880e-02 -6.041996e-02 1.166706e-02 -9.828232e-02 -5.557363e-02 1.720413e-01 2.179203e-02 -4.655315e-02
<VARIANCE> 39
 3.229542e+00 1.666247e+01 1.903512e+01 1.874097e+01 1.242501e+01 3.743779e+01 4.290205e+01 3.273129e+01 1.618772e+01 2.432226e+01 2.636261e+01 1.822222e+01 2.146864e+01 1.899864e-01 4.554755e-01 4.906308e-01 9.014118e-01 6.632004e-01 9.313653e-01 1.352626e+00 1.030393e+00 7.855834e-01 9.816759e-01 9.171208e-01 7.687733e-01 6.922715e-01 3.235524e-02 6.279330e-02 7.194871e-02 1.258390e-01 9.525651e-02 1.250871e-01 1.729318e-01 1.311385e-01 1.199409e-01 1.545548e-01 1.168193e-01 1.185784e-01 1.169769e-01
<GCONST> 7.622346e+01
<STATE> 5
<NUMMIXES> 2
<MIXTURE> 1 8.673735e-01
<MEAN> 39
 1.274670e+01 -1.155009e+01 7.485620e+00 3.200419e+01 3.357112e+01 1.064775e+00 -3.107243e+01 6.314102e+00 -5.048252e+00 -2.312160e+01 9.330024e+00 -3.186825e+00 -1.808948e+01 -1.292870e-01 1.075983e+00 -4.216335e-01 -7.223190e-02 -6.331180e-01 2.716486e-01 1.919577e+00 -5.569918e-01 -2.874568e-01 1.114042e+00 -6.112685e-01 5.634151e-02 8.380101e-01 -1.841011e-01 4.198321e-01 8.039882e-02 -2.454068e-01 -4.898018e-01 1.395022e-02 6.780114e-01 -3.250549e-02 2.542980e-01 5.187415e-01 -4.413463e-01 -4.233921e-02 4.251009e-01
<VARIANCE> 39
 7.793269e+00 1.956290e+01 3.461229e+01 4.697367e+01 3.308410e+01 3.413902e+01 4.551142e+01 4.091222e+01 4.863522e+01 2.712632e+01 4.572773e+01 1.911472e+01 2.758939e+01 5.279087e-01 1.152657e+00 9.849159e-01 1.581830e+00 1.787050e+00 1.218526e+00 3.367409e+00 1.932583e+00 1.516622e+00 2.441834e+00 2.272137e+00 9.547546e-01 1.382547e+00 6.692222e-02 1.196593e-01 1.660848e-01 2.104460e-01 2.243691e-01 1.655537e-01 3.160554e-01 3.331686e-01 2.556922e-01 2.756230e-01 2.393159e-01 1.465408e-01 1.641411e-01
<GCONST> 9.940272e+01
<MIXTURE> 2 1.326264e-01
<MEAN> 39
 1.120152e+01 -7.822315e-01 9.235857e+00 2.592211e+01 1.843205e+01 -3.816592e+00 -1.714760e+01 7.693683e+00 2.136708e+00 -1.420486e+01 -3.462951e+00 -5.843224e+00 -1.146066e+01 -2.118617e-02 1.791914e-01 -1.140132e-01 -6.182581e-03 4.392102e-02 1.809910e-01 1.612006e-01 -1.455243e-01 -3.222735e-01 2.270905e-01 3.150542e-01 -1.418212e-01 1.661799e-02 -5.369019e-02 3.823613e-02 6.922629e-02 -1.089876e-01 -2.066714e-02 2.016555e-01 5.912894e-02 -6.300357e-02 -4.414883e-02 1.992899e-02 4.746716e-02 3.707676e-02 8.443049e-02
<VARIANCE> 39
 7.374222e+01 8.490350e+01 4.845465e+01 1.631550e+02 1.110025e+02 6.054686e+01 9.190250e+01 9.585947e+01 2.960898e+01 9.646388e+01 2.734289e+01 3.944569e+01 2.593989e+01 2.530761e-01 5.190238e-01 7.472708e-01 1.111820e+00 7.962223e-01 9.951444e-01 1.009211e+00 1.109087e+00 8.089101e-01 9.764072e-01 9.708273e-01 9.797139e-01 6.218430e-01 3.683828e-02 7.258590e-02 9.153689e-02 1.497245e-01 1.085373e-01 1.112331e-01 2.159922e-01 1.726312e-01 1.048211e-01 1.602478e-01 1.284012e-01 8.417637e-02 1.065491e-01
<GCONST> 9.361807e+01
<STATE> 6
<NUMMIXES> 2
<MIXTURE> 1 5.212218e-01
<MEAN> 39
 2.488218e+00 6.618841e+00 1.081726e+01 2.459624e+01 1.995352e+01 5.926599e+00 -6.331627e+00 6.955355e+00 2.315146e+00 -4.502168e+00 -2.291034e+00 -5.500051e+00 -5.084260e+00 -1.629471e+00 1.556862e+00 5.508951e-01 -1.705686e+00 -1.596587e+00 1.082342e+00 2.256727e+00 3.330954e-01 3.319651e-01 1.173811e+00 -3.049125e-01 2.216210e-01 1.074646e+00 -7.963800e-02 -4.788328e-01 -7.644684e-02 5.710288e-02 1.108928e-01 -5.201584e-02 -3.326845e-01 -7.572997e-02 -2.083950e-01 -2.989250e-01 2.804509e-01 3.617723e-02 -2.874085e-01
<VARIANCE> 39
 5.341600e+01 4.269343e+01 2.294897e+01 5.497246e+01 3.736881e+01 2.887045e+01 3.780170e+01 2.903947e+01 3.185801e+01 3.480812e+01 2.788081e+01 2.309852e+01 1.863388e+01 9.729762e-01 3.179323e+00 1.564647e+00 2.095775e+00 1.977451e+00 1.307821e+00 2.463584e+00 1.653184e+00 1.688735e+00 1.886064e+00 2.248397e+00 1.374509e+00 1.722630e+00 6.326994e-02 1.829484e-01 2.015144e-01 2.838227e-01 3.012535e-01 1.678985e-01 2.615913e-01 2.339836e-01 2.277748e-01 2.556275e-01 2.397114e-01 1.714266e-01 2.191017e-01
<GCONST> 1.037885e+02
<MIXTURE> 2 4.787781e-01
<MEAN> 39
 9.884726e+00 -5.712536e+00 1.017898e+01 3.412450e+01 2.685320e+01 2.631259e-01 -2.067121e+01 3.825902e+00 -5.708774e-01 -1.316385e+01 5.140296e-01 -7.325070e+00 -1.303008e+01 -6.497002e-01 1.554155e+00 2.670392e-01 -9.736040e-01 -1.455118e+00 7.070113e-01 2.398213e+00 -1.403623e-01 1.579495e-01 1.719171e+00 -7.760624e-01 -2.522257e-01 1.418780e+00 -1.617886e-01 1.571664e-01 1.832486e-01 -2.669478e-01 -1.578003e-01 1.983869e-01 1.396855e-01 1.652894e-01 1.239884e-01 2.673598e-02 -1.758368e-02 9.391541e-02 1.778445e-01
<VARIANCE> 39
 1.176178e+01 3.196952e+01 3.464212e+01 4.067057e+01 3.123931e+01 6.156569e+01 3.876119e+01 5.959282e+01 3.416871e+01 3.014779e+01 3.400933e+01 2.845642e+01 2.276243e+01 4.822178e-01 1.953702e+00 1.401955e+00 2.106720e+00 1.835557e+00 2.014184e+00 2.921899e+00 2.484298e+00 1.946577e+00 2.215564e+00 2.012173e+00 1.095404e+00 1.502358e+00 6.477961e-02 1.691485e-01 1.784784e-01 2.575036e-01 2.547386e-01 2.270724e-01 3.108193e-01 3.127893e-01 2.445242e-01 2.588764e-01 2.114977e-01 2.022357e-01 1.637665e-01
<GCONST> 1.035783e+02
<TRANSP> 7
 0.000000e+00 1.000000e+00 0.000000e+00 0.000000e+00 0.000000e+00 0.000000e+00 0.000000e+00
 0.000000e+00 7.498347e-01 2.501653e-01 0.000000e+00 0.000000e+00 0.000000e+00 0.000000e+00
 0.000000e+00 0.000000e+00 7.867321e-01 2.132680e-01 0.000000e+00 0.000000e+00 0.000000e+00
 0.000000e+00 0.000000e+00 0.000000e+00 9.165002e-01 8.349973e-02 0.000000e+00 0.000000e+00
 0.000000e+00 0.000000e+00 0.000000e+00 0.000000e+00 6.744571e-01 3.255430e-01 0.000000e+00
 0.000000e+00 0.000000e+00 0.000000e+00 0.000000e+00 0.000000e+00 8.617901e-01 1.382099e-01
 0.000000e+00 0.000000e+00 0.000000e+00 0.000000e+00 0.000000e+00 0.000000e+00 0.000000e+00
<ENDHMM>
~h "jh"
<BEGINHMM>
<NUMSTATES> 5
<STATE> 2
<NUMMIXES> 2
<MIXTURE> 1 3.132149e-01
<MEAN> 39
 1.616292e+01 -5.546127e+00 1.306839e+00 1.837357e+01 1.646508e+01 1.573084e+00 -5.772220e+00 1.542259e+01 -1.765416e+01 -2.781336e+01 1.158450e+01 2.687338e+00 -7.625112e+00 -1.835397e+00 2.701601e+00 1.814913e+00 1.244170e+00 -3.177529e-01 1.588067e+00 2.740323e+00 -1.967757e+00 1.625514e+00 3.163361e+00 -3.428993e+00 -3.375098e-01 1.960092e+00 -3.153180e-01 3.207447e-01 6.219172e-01 -1.848659e-01 -4.815708e-01 3.044293e-01 6.597850e-02 -2.532763e-01 7.792871e-01 6.510496e-01 -5.641624e-01 -2.030101e-01 5.494599e-01
<VARIANCE> 39
 9.789398e+00 3.254834e+01 1.498773e+01 2.376237e+01 1.493356e+01 1.834975e+01 3.428648e+01 6.259554e+01 3.068025e+01 9.636703e+01 6.497296e+01 2.450467e+00 3.284822e+01 5.591565e-01 1.680206e+00 1.745682e+00 6.923233e-01 9.700534e-01 1.268255e+00 1.394971e+00 2.020377e+00 4.496231e+00 3.900081e+00 2.638731e+00 4.287082e-01 1.496939e+00 7.141009e-02 5.821688e-01 1.731189e-01 1.097865e-01 1.097505e-01 1.507339e-01 1.958558e-01 1.837766e-01 6.959643e-01 5.909822e-01 6.667816e-01 6.940808e-02 4.123555e-01
<GCONST> 9.849973e+01
<MIXTURE> 2 6.867851e-01
<MEAN> 39
 2.519768e+00 3.862621e+00 1.871114e+01 2.115250e+01 8.292137e+00 1.370334e+01 4.046271e+00 4.255882e+00 -4.792174e+00 -1.038138e+01 -3.440929e+00 -7.838565e-01 1.700889e+00 -2.650729e+00 -2.443657e+00 3.525927e+00 3.374968e-01 -2.115242e+00 1.994762e+00 2.141619e-01 -5.013660e-01 1.961331e+00 8.595874e-01 2.274394e-01 8.113118e-02 -3.054929e-01 -6.953883e-02 -1.559858e+00 -3.842945e-02 -9.603569e-02 -3.016415e-01 -3.898254e-01 -4.745689e-01 7.567326e-01 -1.466914e-02 -6.066732e-01 8.695376e-01 2.680318e-01 -4.490434e-01
<VARIANCE> 39
 3.102242e+01 5.050393e+01 6.604734e+01 4.006486e+01 1.786055e+01 4.020366e+01 1.409916e+01 1.758566e+01 3.059288e+01 2.321986e+01 1.903506e+01 1.414138e+01 1.891818e+01 9.855248e-01 1.294376e+01 2.019429e+00 1.045207e+00 1.428491e+00 2.645243e+00 2.239362e+00 4.428114e+00 1.521299e+00 4.199221e+00 4.311958e+00 1.660497e+00 2.433267e+00 9.793608e-02 4.292040e-01 3.007664e-01 2.887604e-01 1.496085e-01 6.243187e-01 2.909101e-01 4.054545e-01 3.760096e-01 5.235340e-01 1.959439e-01 3.504178e-01 3.418448e-01
<GCONST> 1.102363e+02
<STATE> 3
<NUMMIXES> 2
<MIXTURE> 1 5.169919e-01
<MEAN> 39
 -9.555082e+00 -2.172140e+01 3.109897e+01 2.021828e+01 -3.986298e+00 1.644157e+01 1.386444e+00 1.008063e+01 3.157920e+00 -1.110280e+01 5.282200e+00 3.042829e+00 -1.952490e+00 -2.047498e+00 -6.723824e+00 1.849247e+00 -1.277954e+00 -3.120964e+00 -7.160925e-01 -1.687920e+00 1.681122e+00 9.146429e-01 -5.756426e-01 2.213013e+00 1.373130e+00 1.003560e-02 5.396739e-01 6.984714e-01 -5.990794e-01 -3.080301e-01 4.804987e-01 -3.445407e-02 -2.915133e-01 -6.032724e-01 -8.126559e-01 1.174855e-01 -3.390328e-01 -2.207117e-01 4.972313e-01
<VARIANCE> 39
 3.618420e+01 8.825591e+01 3.348050e+01 7.846282e+01 2.823160e+01 3.068371e+01 1.400415e+01 1.193131e+01 2.731906e+01 6.281383e+01 2.133243e+01 1.801767e+01 9.691252e+00 9.977211e-01 1.570405e+00 1.741348e+00 3.439658e+00 1.099652e+00 3.112012e+00 1.072535e+00 1.542932e+00 3.182679e+00 3.895920e+00 1.719579e+00 3.319455e+00 8.276027e-01 1.459246e-01 6.202853e-01 4.283729e-01 3.464856e-01 4.306462e-01 5.704523e-01 1.365328e-01 3.392186e-01 2.724607e-01 5.526983e-01 2.400283e-01 2.415973e-01 8.371345e-02
<GCONST> 1.072092e+02
<MIXTURE> 2 4.830081e-01
<MEAN> 39
 -1.064308e+01 -3.620200e+01 3.517319e+01 2.083139e+01 -8.110148e+00 1.664286e+01 -3.972359e+00 1.005729e+01 3.285035e+00 -1.370189e+01 9.252095e+00 6.759027e+00 -3.543597e-01 1.889734e-02 -2.194265e+00 -7.122812e-01 -8.104407e-01 2.722661e-01 1.678563e-01 -1.720598e+00 -1.235575e+00 -1.126044e+00 3.337830e-01 7.004977e-01 -4.929201e-02 3.139682e-01 6.503980e-01 1.562812e+00 -8.514739e-01 -1.106604e-01 7.662923e-01 -5.968459e-02 2.689641e-01 -6.284177e-01 -2.715732e-01 2.809230e-01 -7.073513e-01 -4.342492e-01 -1.760671e-01
<VARIANCE> 39
 4.053911e+01 5.632434e+01 1.958062e+01 5.433973e+01 1.673713e+01 2.191647e+01 1.752370e+01 9.575600e+00 2.515483e+01 6.327099e+01 6.992418e+00 1.266501e+01 1.369741e+01 1.641851e+00 3.692831e+00 2.750841e+00 2.432615e+00 2.474709e+00 2.273590e+00 1.410257e+00 1.136083e+00 6.463352e-01 4.324763e+00 1.388488e+00 1.082905e+00 6.844704e-01 1.062422e-01 3.601714e-01 5.056304e-01 2.760661e-01 4.432158e-01 3.218450e-01 2.976435e-01 2.324344e-01 2.584617e-01 7.688664e-01 2.118722e-01 2.329997e-01 6.903899e-02
<GCONST> 1.016919e+02
<STATE> 4
<NUMMIXES> 2
<MIXTURE> 1 6.928389e-01
<MEAN> 39
 2.863506e+00 -2.013188e+01 2.307694e+01 2.379540e+01 4.390312e+00 1.703884e+01 -4.290384e+00 2.027807e+00 -2.522659e+00 -1.287799e+01 5.388265e+00 3.337885e+00 -1.436976e+00 1.946840e+00 3.441143e+00 -2.062390e+00 1.254216e-01 1.650689e+00 -6.829174e-01 -9.256522e-02 -7.436163e-01 -5.526423e-01 4.535843e-01 -4.047046e-01 -3.649909e-01 5.748357e-02 -6.037906e-02 9.400079e-02 -1.044862e-01 -2.235049e-01 -6.015626e-02 -2.770408e-01 -2.058403e-01 1.219612e-01 5.946254e-02 1.176030e-01 7.949405e-02 -4.149213e-02 2.199399e-02
<VARIANCE> 39
 4.703819e+01 1.594318e+02 5.254318e+01 3.657287e+01 6.789068e+01 3.978085e+01 3.073836e+01 3.342115e+01 3.200071e+01 2.705076e+01 1.326711e+01 2.234241e+01 1.974025e+01 1.131246e+00 3.435835e+00 2.644723e+00 3.888039e+00 2.177906e+00 2.876129e+00 2.866668e+00 2.674610e+00 1.732099e+00 2.149742e+00 1.467869e+00 1.281276e+00 1.339340e+00 1.173365e-01 5.855976e-01 3.089782e-01 4.066210e-01 2.384910e-01 3.507867e-01 4.134407e-01 3.441144e-01 2.813720e-01 3.289252e-01 1.892651e-01 1.828566e-01 1.454308e-01
<GCONST> 1.113780e+02
<MIXTURE> 2 3.071611e-01
<MEAN> 39
 -1.536855e+01 -4.366686e+01 2.840926e+01 8.624932e+00 -1.008431e+01 1.091880e+01 -1.014899e+01 6.857756e+00 -2.086658e+00 -8.141038e+00 9.668845e+00 4.403903e+00 1.834856e+00 6.080934e-01 6.246807e-01 -1.223528e-01 1.816002e-01 3.398767e-01 5.473623e-03 3.421401e-01 -6.790809e-02 -1.672739e-01 -5.152616e-02 -2.571834e-01 -1.800604e-01 -8.110508e-03 2.094284e-01 5.297499e-01 1.203328e-01 5.312492e-01 3.193605e-01 2.854051e-01 4.413837e-01 1.408005e-01 1.587850e-01 -1.367740e-01 -1.140436e-01 4.335484e-02 -6.165016e-02
<VARIANCE> 39
 8.416539e+00 3.022574e+01 6.165334e+00 1.520030e+01 4.317581e+00 6.184134e+00 1.078175e+01 1.907487e+01 1.596500e+01 1.969712e+01 1.736622e+01 1.761189e+01 7.774380e+00 8.286704e-01 2.874959e+00 1.772975e+00 2.917270e+00 1.676705e+00 1.472903e+00 2.657005e+00 1.875727e+00 2.405704e+00 1.554634e+00 1.676086e+00 1.356812e+00 5.194972e-01 8.708932e-02 1.942163e-01 8.624128e-02 1.367370e-01 3.130752e-01 2.127715e-01 1.419159e-01 2.040302e-01 1.813224e-01 2.591126e-01 3.373846e-01 2.170405e-01 1.289529e-01
<GCONST> 8.790829e+01
<TRANSP> 5
 0.000000e+00 1.000000e+00 0.000000e+00 0.000000e+00 0.000000e+00
 0.000000e+00 8.738909e-01 1.261091e-01 0.000000e+00 0.000000e+00
 0.000000e+00 0.000000e+00 8.220895e-01 1.779105e-01 0.000000e+00
 0.000000e+00 0.000000e+00 0.000000e+00 9.135582e-01 8.644171e-02
 0.000000e+00 0.000000e+00 0.000000e+00 0.000000e+00 0.000000e+00
<ENDHMM>
~h "kh"
<BEGINHMM>
<NUMSTATES> 5
<STATE> 2
<NUMMIXES> 2
<MIXTURE> 1 1.281815e-01
<MEAN> 39
 -2.627081e+01 -6.174015e+00 -5.223271e+00 -3.006168e+00 -2.957119e+00 1.841727e+00 -1.914128e+00 2.392580e+00 -7.687940e-01 1.197560e-01 8.016254e-01 -7.379253e-01 3.891531e-01 -2.079776e-01 -7.226875e-01 -6.346005e-01 3.600042e-02 8.916000e-02 -4.235929e-01 -4.044292e-01 2.568276e-01 5.320272e-01 -6.195092e-02 -4.877179e-01 -2.255542e-01 -2.921429e-01 4.748581e-01 -1.008908e-01 -1.500466e-02 2.047208e-01 3.121850e-01 2.791798e-01 1.045636e-01 2.151788e-01 -8.578794e-02 -3.708432e-01 -1.429747e-01 1.597464e-01 3.981649e-01
<VARIANCE> 39
 1.078767e+00 1.189477e+00 1.806950e+00 2.536139e+00 4.745959e+00 5.635322e+00 6.321041e+00 6.571061e+00 6.168346e+00 6.831205e+00 6.890799e+00 6.387226e+00 6.311115e+00 9.107866e-01 7.916119e-01 7.941861e-01 9.867710e-01 1.583270e+00 1.668880e+00 1.399086e+00 1.513815e+00 1.041952e+00 1.749578e+00 1.266628e+00 2.068343e+00 2.262542e+00 9.971129e-02 2.270697e-01 2.688896e-01 2.508369e-01 2.851694e-01 4.718607e-01 3.278262e-01 4.540253e-01 3.648450e-01 2.881285e-01 2.519471e-01 3.203507e-01 2.887868e-01
<GCONST> 7.695419e+01
<MIXTURE> 2 8.718185e-01
<MEAN> 39
 -2.127010e+00 4.323172e+00 5.406472e+00 1.903228e+01 1.901137e+01 7.331360e+00 -7.342098e+00 3.522362e+00 -4.741816e-01 -3.197783e+00 1.438005e+00 -1.548066e+00 -1.123330e+00 -3.110981e+00 2.263701e-01 2.110741e-02 -1.866645e+00 -1.808699e+00 1.022731e+00 1.958650e+00 -4.371697e-01 -1.584375e-01 6.771237e-01 -1.111405e+00 3.753161e-01 1.696047e+00 9.112082e-02 -1.141677e+00 -6.117943e-01 -2.481876e-01 -1.875129e-02 2.892513e-02 -1.877355e-01 5.018716e-02 -4.960875e-01 -5.569309e-01 3.949348e-01 -1.094855e-01 -4.100752e-01
<VARIANCE> 39
 3.451892e+01 1.043520e+01 1.397028e+01 5.762302e+01 5.818399e+01 1.383929e+01 4.205614e+01 3.016084e+01 2.690837e+01 2.126182e+01 2.059923e+01 3.498471e+01 3.489877e+01 3.616956e-01 3.756664e+00 1.336118e+00 1.550085e+00 1.771020e+00 1.741742e+00 2.243564e+00 1.989261e+00 2.804519e+00 2.624438e+00 2.088969e+00 1.420556e+00 2.534350e+00 1.335522e-01 2.627530e-01 3.265162e-01 2.429083e-01 3.381238e-01 3.041883e-01 2.926065e-01 4.001956e-01 5.701418e-01 4.551322e-01 3.211236e-01 3.097951e-01 3.753781e-01
<GCONST> 1.073041e+02
<STATE> 3
<NUMMIXES> 2
<MIXTURE> 1 4.368910e-01
<MEAN> 39
 -1.251010e+01 -3.891913e+00 -1.039807e+00 9.837183e+00 1.158089e+01 1.016010e+01 -6.967973e-01 4.393650e+00 -1.501979e+00 -3.394509e+00 -1.226506e+00 -1.399999e+00 2.943401e+00 -5.158941e-01 -3.969265e+00 -3.499328e+00 -2.927361e+00 -2.336769e+00 -5.065320e-01 -1.873510e-01 -2.415058e-01 -6.777447e-01 -1.653609e-01 5.770476e-01 -2.642196e-01 6.005402e-01 1.027299e+00 -3.922405e-01 -2.850199e-01 -1.669270e-01 -2.991097e-01 -5.550406e-01 -9.279728e-01 -3.505563e-01 -4.004649e-01 -1.137926e-01 7.018946e-01 -2.498119e-01 -4.988189e-01
<VARIANCE> 39
 3.216861e+01 4.239791e+01 3.719646e+01 4.116056e+01 3.997172e+01 3.956697e+01 3.635447e+01 4.489744e+01 3.810755e+01 3.205628e+01 3.729617e+01 2.541978e+01 2.244075e+01 3.468545e+00 2.158819e+00 1.917829e+00 3.541474e+00 4.356845e+00 5.225704e+00 5.496019e+00 4.112284e+00 4.326439e+00 3.048367e+00 4.610071e+00 2.909698e+00 3.206959e+00 1.648773e-01 5.293003e-01 6.593271e-01 3.326103e-01 4.270595e-01 4.104090e-01 4.698897e-01 5.155292e-01 6.651112e-01 5.175573e-01 7.445335e-01 3.911283e-01 5.232047e-01
<GCONST> 1.245162e+02
<MIXTURE> 2 5.631089e-01
<MEAN> 39
 -3.938309e+00 -2.012816e+01 -1.179425e+01 -5.538743e-01 5.325065e-01 4.762823e+00 -1.060939e+01 -1.570109e+00 -1.092773e+01 -7.886649e+00 7.344121e+00 -5.293076e+00 -2.551489e-01 2.000719e+00 -2.372405e+00 8.510733e-02 -8.047796e-01 -1.558816e+00 3.816305e-02 -1.598920e+00 -1.404294e+00 -2.435847e+00 -1.164569e+00 2.481640e+00 -1.102310e-01 -6.438696e-01 -2.069710e-01 6.097488e-01 1.100982e+00 9.070320e-01 5.282399e-01 3.845321e-01 3.815315e-01 1.988820e-01 3.993836e-01 2.089212e-01 -2.118064e-01 3.218764e-01 2.302832e-01
<VARIANCE> 39
 4.354904e+01 4.951276e+01 2.809677e+01 5.278572e+01 6.709666e+01 1.459850e+02 8.359702e+01 7.049387e+01 7.443274e+01 6.454905e+01 9.134908e+01 4.348304e+01 2.505355e+01 1.805004e+00 2.460961e+00 5.664850e+00 4.623167e+00 2.554269e+00 4.020921e+00 2.938081e+00 2.196517e+00 4.236866e+00 3.548189e+00 3.828563e+00 2.694159e+00 2.762421e+00 4.552807e-01 2.600001e-01 3.870649e-01 4.714335e-01 3.353420e-01 5.649303e-01 6.020416e-01 4.692284e-01 1.100481e+00 8.812336e-01 9.449600e-01 3.847573e-01 5.759393e-01
<GCONST> 1.311651e+02
<STATE> 4
<NUMMIXES> 2
<MIXTURE> 1 8.849298e-01
<MEAN> 39
 -1.378974e+00 -2.419715e+01 5.414154e-01 1.202013e+01 4.879061e+00 1.167725e+01 -7.223922e+00 -1.996443e+00 -1.088717e+01 -4.571649e+00 1.469693e+01 -2.867274e-01 1.463263e+00 2.418324e-01 1.137303e+00 9.467981e-01 1.122471e+00 7.500692e-01 2.473018e-01 8.076910e-01 7.396385e-01 1.053498e+00 8.063582e-01 3.922555e-02 4.834498e-01 2.159223e-01 3.908054e-02 3.314029e-01 -1.733857e-01 -1.563863e-01 1.011053e-02 -2.445372e-01 -8.448168e-02 1.167559e-01 1.234803e-01 -4.445670e-02 -1.777629e-01 -1.038679e-01 -9.439843e-02
<VARIANCE> 39
 3.693050e+01 9.848366e+01 5.220874e+01 1.122289e+02 1.413016e+02 2.104671e+02 1.340957e+02 6.021504e+01 5.364544e+01 5.318054e+01 4.043195e+01 5.642790e+01 3.162836e+01 1.152731e+00 5.708099e+00 2.826400e+00 2.849506e+00 3.368901e+00 5.298862e+00 2.951401e+00 2.881045e+00 2.785126e+00 2.225229e+00 2.976730e+00 1.447825e+00 1.519368e+00 1.237664e-01 3.350865e-01 3.045952e-01 3.281748e-01 3.829396e-01 5.629254e-01 5.019592e-01 4.387963e-01 5.027890e-01 4.732483e-01 3.577658e-01 2.207503e-01 2.277444e-01
<GCONST> 1.257004e+02
<MIXTURE> 2 1.150701e-01
<MEAN> 39
 -7.931753e+00 -1.466277e+01 -1.023415e+01 -4.541437e+00 -7.961171e+00 2.192250e+00 -5.949525e-01 3.980589e+00 -6.457705e+00 -2.912435e+00 7.428543e+00 1.540568e+00 4.503682e+00 9.048604e-01 -2.349470e-01 -8.463816e-01 -6.187471e-01 -1.418539e+00 -1.893186e+00 -5.024840e-01 4.651831e-01 5.259531e-01 2.842861e-01 -1.988826e-01 -7.855326e-02 5.631357e-02 3.895302e-01 2.821072e-01 3.049552e-01 3.261253e-01 2.776016e-01 1.686714e-01 1.894064e-01 3.477609e-01 1.537598e-01 -5.089864e-05 2.476809e-01 1.078355e-01 -1.044480e-01
<VARIANCE> 39
 2.153497e+02 7.286386e+01 2.434166e+01 1.302553e+01 2.899017e+01 5.328346e+01 5.727777e+01 3.389360e+01 4.115155e+01 5.241325e+01 1.002430e+02 2.635331e+01 2.968171e+01 2.305345e+00 1.649537e+00 1.736950e+00 2.074787e+00 2.425977e+00 2.384090e+00 2.716161e+00 3.893468e+00 2.979982e+00 2.580644e+00 3.137650e+00 1.776768e+00 1.804330e+00 2.795478e-01 2.062319e-01 2.214672e-01 2.119738e-01 3.238335e-01 3.280189e-01 3.585212e-01 4.604099e-01 3.717386e-01 3.410629e-01 4.351538e-01 2.889086e-01 2.906866e-01
<GCONST> 1.167066e+02
<TRANSP> 5
 0.000000e+00 1.000000e+00 0.000000e+00 0.000000e+00 0.000000e+00
 0.000000e+00 7.429741e-01 2.570259e-01 0.000000e+00 0.000000e+00
 0.000000e+00 0.000000e+00 8.591465e-01 1.408535e-01 0.000000e+00
 0.000000e+00 0.000000e+00 0.000000e+00 9.093806e-01 9.061942e-02
 0.000000e+00 0.000000e+00 0.000000e+00 0.000000e+00 0.000000e+00
<ENDHMM>
~h "mq"
<BEGINHMM>
<NUMSTATES> 5
<STATE> 2
<NUMMIXES> 2
<MIXTURE> 1 1.000000e+00
<MEAN> 39
 2.151844e+01 -5.383915e+00 -8.724596e+00 -4.016419e+00 2.382449e+00 -1.339977e+00 -2.212516e+00 2.524009e+01 -7.032157e+00 -1.906882e+01 1.403411e+01 -1.986835e+00 -8.376538e+00 -1.002646e-01 7.465244e-02 7.260932e-01 3.500905e-01 3.794448e-01 6.678932e-01 -2.601011e-01 -6.487612e-01 -8.441731e-01 -1.247425e-02 8.264433e-01 -2.549046e-01 -7.904623e-02 -2.091879e-02 3.599045e-02 -2.823733e-04 1.432610e-01 4.399326e-02 -5.692533e-02 2.568310e-02 -1.055937e-01 6.337897e-02 6.890535e-02 -1.307205e-01 4.693801e-02 3.585711e-02
<VARIANCE> 39
 1.042889e+01 2.271471e+01 3.069356e+01 5.040698e+01 2.816793e+01 3.597990e+01 3.674376e+01 5.510116e+01 2.560214e+01 3.160730e+01 5.091395e+01 1.052849e+01 6.976265e+00 4.964881e-01 5.958617e-01 4.600546e-01 7.560576e-01 8.151332e-01 7.833399e-01 1.644652e+00 2.172231e+00 4.708590e-01 1.156752e+00 1.282597e+00 5.855885e-01 2.786974e-01 7.257432e-02 8.377305e-02 7.229742e-02 1.168372e-01 9.375403e-02 1.121069e-01 2.409508e-01 2.740100e-01 8.267866e-02 1.636988e-01 2.551541e-01 8.475993e-02 4.935215e-02
<GCONST> 8.203031e+01
<MIXTURE> 2 0.000000e+00
<MEAN> 39
 -9.685755e-07 -6.519258e-07 -1.657754e-07 6.034970e-07 1.440640e-09 1.266599e-07 -8.195639e-08 7.823110e-08 2.533197e-07 1.257285e-08 1.639128e-07 7.078052e-07 2.328306e-08 3.019522e-10 -4.656613e-09 -1.216540e-08 1.164153e-10 1.781154e-08 1.982698e-10 -3.026798e-09 5.587935e-09 -1.746230e-09 4.097819e-08 2.363231e-08 1.315493e-08 -2.043089e-08 -3.744487e-03 2.978991e-04 -4.746468e-04 6.844162e-05 -1.603577e-04 -3.450464e-05 5.754238e-05 -8.061554e-05 1.271995e-04 -1.902887e-04 4.669849e-05 -1.564687e-04 -6.364408e-05
<VARIANCE> 39
 0.000000e+00 0.000000e+00 0.000000e+00 0.000000e+00 0.000000e+00 9.313226e-09 0.000000e+00 3.492460e-10 0.000000e+00 1.473381e-10 1.781154e-08 0.000000e+00 0.000000e+00 0.000000e+00 0.000000e+00 0.000000e+00 2.110312e-12 0.000000e+00 0.000000e+00 1.409717e-11 0.000000e+00 1.318767e-11 3.419700e-10 0.000000e+00 0.000000e+00 0.000000e+00 1.827128e-03 6.024704e-05 5.945166e-05 2.794358e-05 3.412523e-05 3.360989e-05 3.020229e-05 3.188291e-05 2.277736e-05 2.193036e-05 1.852728e-05 2.304439e-05 1.544051e-05
<GCONST> -1.800000e+11
<STATE> 3
<NUMMIXES> 2
<MIXTURE> 1 1.000000e+00
<MEAN> 39
 1.764529e+01 -3.680217e-02 -3.207397e-02 6.557348e+00 9.095243e+00 4.640900e+00 -1.852534e+00 1.427058e+01 -1.140409e+01 -1.656874e+01 1.096950e+01 -2.888528e+00 -5.711936e+00 -1.403097e+00 2.481941e+00 1.368635e+00 1.792901e+00 8.757213e-01 9.491397e-01 1.063716e+00 -1.841562e+00 8.439476e-01 9.755831e-01 -3.515578e+00 -1.797848e-01 8.638583e-01 -2.625862e-01 1.867494e-01 2.180503e-01 -1.375437e-02 -1.252946e-01 9.418570e-02 -2.292691e-03 -2.422263e-02 3.010939e-01 7.509258e-02 -4.314021e-01 -4.430339e-02 1.899650e-01
<VARIANCE> 39
 1.642166e+01 3.927242e+01 2.636306e+01 3.120417e+01 4.113218e+01 3.659102e+01 4.088970e+01 5.272300e+01 3.011503e+01 1.921090e+01 9.935049e+01 1.535279e+01 1.129580e+01 5.238847e-01 1.203452e+00 1.082277e+00 1.008968e+00 8.110223e-01 1.290181e+00 1.929605e+00 7.662775e-01 2.019369e+00 7.144091e-01 3.883363e+00 9.495870e-01 5.045666e-01 4.908242e-02 2.467090e-01 1.477010e-01 2.228675e-01 1.965352e-01 1.427406e-01 3.867930e-01 1.167128e-01 2.832005e-01 1.331414e-01 7.618261e-01 1.080558e-01 7.828420e-02
<GCONST> 9.419522e+01
<MIXTURE> 2 0.000000e+00
<MEAN> 39
 1.769513e-08 2.514571e-08 -9.313226e-09 1.443550e-08 7.078052e-08 3.911555e-08 -6.798655e-08 3.725290e-09 -1.192093e-07 4.773028e-08 -2.095476e-08 3.818423e-08 3.492460e-09 -1.477929e-11 -3.783498e-10 1.746230e-10 1.011358e-09 1.149601e-09 4.911271e-10 2.779416e-09 1.760782e-09 3.929017e-10 5.966285e-10 -5.209586e-09 2.590241e-09 4.249159e-09 -2.047057e-02 1.739704e-03 -2.860196e-03 4.944406e-04 -9.179143e-04 -4.275220e-04 -1.494129e-04 -1.110907e-03 -5.215620e-04 -1.377407e-03 -4.617415e-04 -8.713729e-04 -4.312473e-04
<VARIANCE> 39
 0.000000e+00 1.964509e-09 0.000000e+00 3.888090e-11 0.000000e+00 0.000000e+00 0.000000e+00 0.000000e+00 1.804437e-09 3.074092e-10 3.783498e-10 0.000000e+00 3.836931e-13 0.000000e+00 2.060574e-13 0.000000e+00 1.962874e-13 1.108447e-12 1.085798e-13 0.000000e+00 8.490986e-13 0.000000e+00 0.000000e+00 4.021672e-12 0.000000e+00 1.989520e-13 1.418590e-02 4.708500e-04 6.059122e-04 2.832045e-04 2.438255e-04 1.964814e-04 2.386844e-04 2.203498e-04 2.247814e-04 1.830704e-04 2.037936e-04 1.436218e-04 1.237932e-04
<GCONST> -1.300000e+11
<STATE> 4
<NUMMIXES> 2
<MIXTURE> 1 1.000000e+00
<MEAN> 39
 9.012994e+00 1.151948e+01 8.145321e+00 1.390241e+01 1.198354e+01 1.018860e+01 1.531883e+00 5.273250e+00 -7.213328e+00 -1.226870e+01 -5.783722e+00 -4.018663e+00 1.762452e-01 -2.418554e+00 2.297142e-01 2.674722e+00 7.849451e-01 -1.535258e+00 1.231687e+00 1.074648e+00 -1.219928e+00 4.821440e-01 1.019316e+00 -1.005588e+00 -4.053311e-02 1.147406e+00 -2.617513e-01 -1.435669e+00 2.551192e-01 -3.780836e-02 -6.357284e-01 -6.606950e-02 -1.192179e-01 5.006203e-01 9.385194e-02 -1.359039e-01 9.526463e-01 1.726886e-01 -9.409708e-02
<VARIANCE> 39
 2.594042e+01 2.243097e+01 3.110416e+01 5.226978e+00 3.611724e+01 4.208750e+01 2.277310e+01 4.225666e+01 2.472690e+01 1.961319e+01 3.316919e+01 6.813842e+00 1.623879e+01 8.079582e-01 4.298935e+00 1.711401e+00 8.239536e-01 2.642275e+00 5.644190e-01 9.918643e-01 1.558058e+00 1.140563e+00 1.414765e+00 3.978821e+00 6.125345e-01 1.506382e+00 7.184411e-02 4.541035e-01 2.363802e-01 1.319851e-01 2.700913e-01 1.441219e-01 2.793291e-01 1.105269e-01 3.822975e-01 3.385876e-01 4.039931e-01 9.811702e-02 1.498365e-01
<GCONST> 9.514065e+01
<MIXTURE> 2 0.000000e+00
<MEAN> 39
 0.000000e+00 0.000000e+00 0.000000e+00 0.000000e+00 0.000000e+00 0.000000e+00 0.000000e+00 0.000000e+00 0.000000e+00 0.000000e+00 0.000000e+00 0.000000e+00 0.000000e+00 0.000000e+00 0.000000e+00 0.000000e+00 0.000000e+00 0.000000e+00 0.000000e+00 0.000000e+00 0.000000e+00 0.000000e+00 0.000000e+00 0.000000e+00 0.000000e+00 0.000000e+00 -7.323198e-02 1.123042e-02 -1.038370e-02 1.682460e-03 -2.594927e-03 -1.410091e-03 -1.503533e-03 -3.022441e-03 -2.858302e-03 -3.888699e-03 -2.411382e-03 -1.670942e-03 -2.166644e-03
<VARIANCE> 39
 0.000000e+00 0.000000e+00 0.000000e+00 0.000000e+00 0.000000e+00 0.000000e+00 0.000000e+00 0.000000e+00 0.000000e+00 0.000000e+00 0.000000e+00 0.000000e+00 0.000000e+00 0.000000e+00 0.000000e+00 0.000000e+00 0.000000e+00 0.000000e+00 0.000000e+00 0.000000e+00 0.000000e+00 0.000000e+00 0.000000e+00 0.000000e+00 0.000000e+00 0.000000e+00 6.110287e-02 6.616157e-03 5.196090e-03 3.621858e-03 3.050250e-03 4.287072e-03 4.344802e-03 3.931833e-03 3.373807e-03 2.996578e-03 2.947920e-03 2.834462e-03 2.042745e-03
<GCONST> -2.600001e+11
<TRANSP> 5
 0.000000e+00 1.000000e+00 0.000000e+00 0.000000e+00 0.000000e+00
 0.000000e+00 9.063694e-01 9.363053e-02 0.000000e+00 0.000000e+00
 0.000000e+00 0.000000e+00 7.471683e-01 2.528317e-01 0.000000e+00
 0.000000e+00 0.000000e+00 0.000000e+00 6.514018e-01 3.485982e-01
 0.000000e+00 0.000000e+00 0.000000e+00 0.000000e+00 0.000000e+00
<ENDHMM>
~h "nj"
<BEGINHMM>
<NUMSTATES> 5
<STATE> 2
<NUMMIXES> 2
<MIXTURE> 1 6.448376e-01
<MEAN> 39
 2.500529e+00 4.883284e+00 9.640644e+00 7.663284e+00 8.983262e+00 1.102280e+00 -1.110930e+01 -4.794134e+00 -1.288087e+00 -5.336167e+00 -8.651181e+00 -5.994543e+00 -4.689224e+00 -8.037093e-03 3.616399e-01 2.282659e-01 1.904264e-01 -7.341486e-02 2.493188e-01 -1.645973e-01 1.039757e-01 1.836264e-01 -2.358938e-02 -1.693905e-01 -2.100465e-01 6.134257e-02 -2.933799e-02 -8.245458e-02 -2.934181e-02 -2.555616e-02 -3.167558e-02 -6.560107e-02 9.943750e-02 4.022849e-02 -2.891495e-02 -3.393753e-02 8.488162e-02 6.642201e-02 -4.307508e-02
<VARIANCE> 39
 2.984620e+01 6.743415e+01 3.440329e+01 6.486826e+01 9.630917e+01 1.111856e+02 7.206052e+01 3.914428e+01 4.361893e+01 6.400179e+01 5.133936e+01 4.753320e+01 6.246100e+01 3.205257e-01 9.356377e-01 8.799419e-01 1.011097e+00 1.131665e+00 1.602336e+00 1.676275e+00 1.622988e+00 1.393007e+00 1.544790e+00 1.534638e+00 1.262773e+00 1.005133e+00 5.129976e-02 1.324087e-01 1.310566e-01 1.649362e-01 1.886846e-01 2.602298e-01 2.799097e-01 2.472048e-01 2.361487e-01 2.447439e-01 2.395605e-01 1.899032e-01 1.721881e-01
<GCONST> 1.035840e+02
<MIXTURE> 2 3.551624e-01
<MEAN> 39
 2.709807e+00 8.928315e+00 1.147999e+01 -1.502002e+00 5.525277e+00 -1.202266e+01 -1.337622e+01 -2.554715e-01 -4.602529e+00 -1.768139e+01 -1.319073e+01 -1.517253e+01 -1.372431e+01 -3.641024e-02 1.717343e-01 7.861748e-02 2.967181e-02 -1.046537e-01 -5.441139e-03 -2.671677e-02 6.079637e-02 1.669364e-01 -1.932618e-01 -2.864245e-01 5.561825e-02 9.325963e-02 -4.810160e-02 -6.521460e-02 -1.482642e-02 1.193514e-02 -1.650132e-02 -1.109369e-02 1.465435e-01 -1.707742e-01 -4.778483e-02 1.308504e-01 6.270327e-02 7.036697e-02 2.437993e-02
<VARIANCE> 39
 2.806140e+00 1.555293e+01 1.314208e+01 1.840736e+01 2.262506e+01 2.127437e+01 3.199649e+01 3.318005e+01 3.093358e+01 4.198512e+01 4.848846e+01 2.774301e+01 2.260729e+01 5.275457e-02 2.340834e-01 2.735551e-01 3.459295e-01 4.041417e-01 4.254854e-01 6.606404e-01 7.842113e-01 6.592637e-01 7.675110e-01 6.076438e-01 6.638942e-01 4.363255e-01 1.427971e-02 5.345663e-02 5.262011e-02 7.491710e-02 9.308103e-02 1.030196e-01 1.470128e-01 1.566586e-01 1.284100e-01 1.334793e-01 1.117656e-01 1.170488e-01 9.097067e-02
<GCONST> 6.805726e+01
<STATE> 3
<NUMMIXES> 2
<MIXTURE> 1 5.768365e-01
<MEAN> 39
 -1.650130e+00 4.293084e+00 1.251531e+01 7.997261e+00 8.073728e+00 -5.246037e-01 -5.022378e+00 -3.656913e+00 -1.169887e+00 -5.260289e+00 -6.472120e+00 -5.230941e+00 -5.362416e+00 -2.457572e-01 -1.055694e+00 5.425199e-02 6.005565e-02 -8.472940e-02 -6.629400e-01 5.229853e-01 -3.181231e-01 -3.388248e-01 -7.298808e-02 3.639769e-01 1.593710e-01 -1.386185e-01 1.520792e-02 -1.310300e-01 -6.702862e-02 -3.907461e-02 5.318189e-02 -1.073812e-01 -1.160357e-01 4.202005e-03 -2.860112e-02 -1.644950e-02 3.863433e-02 3.098836e-02 1.592401e-03
<VARIANCE> 39
 3.918433e+01 6.900724e+01 3.661243e+01 5.426512e+01 7.157546e+01 9.625215e+01 7.617765e+01 5.381805e+01 4.801081e+01 6.558137e+01 4.535140e+01 4.882023e+01 3.880204e+01 1.803826e+00 4.185937e+00 2.995981e+00 3.165112e+00 2.961892e+00 4.166068e+00 5.236826e+00 3.490489e+00 2.493116e+00 2.927037e+00 2.647161e+00 2.256471e+00 1.742612e+00 2.675167e-01 6.951686e-01 5.092847e-01 5.361979e-01 4.958111e-01 6.914724e-01 8.867679e-01 5.816731e-01 4.441610e-01 4.559211e-01 3.934963e-01 3.435938e-01 2.966835e-01
<GCONST> 1.282403e+02
<MIXTURE> 2 4.231635e-01
<MEAN> 39
 1.295004e+01 -1.990565e+00 1.135198e+01 1.051720e+01 -6.057696e+00 5.887888e+00 -1.010513e+01 -1.137384e+01 1.444680e+00 -1.270348e+01 -1.434898e+01 -7.786644e+00 -1.003824e+01 -9.293678e-02 2.690157e-01 1.644063e-01 -4.434790e-02 4.908991e-03 -1.315278e-02 2.359147e-02 2.516896e-02 3.590895e-02 -1.700219e-02 -1.722138e-01 -5.740685e-02 3.323376e-02 -9.219238e-03 -9.527378e-02 1.038478e-02 5.471010e-02 -4.705711e-02 -1.766123e-03 5.385786e-02 9.632568e-03 -1.593223e-02 1.461344e-02 6.699349e-02 4.784431e-02 -4.166522e-02
<VARIANCE> 39
 3.856699e+00 2.329041e+01 2.029645e+01 2.178050e+01 2.279533e+01 2.924805e+01 4.529770e+01 3.117255e+01 4.292793e+01 9.096780e+01 3.922691e+01 2.936979e+01 2.970384e+01 1.036110e-01 3.492112e-01 2.670597e-01 3.809765e-01 4.285590e-01 5.403163e-01 4.986794e-01 4.888597e-01 5.781164e-01 5.797477e-01 5.508767e-01 4.750876e-01 4.293715e-01 1.962212e-02 7.488119e-02 4.759888e-02 7.101423e-02 9.162906e-02 9.864736e-02 9.496345e-02 9.101721e-02 1.042438e-01 1.084253e-01 8.732623e-02 8.894771e-02 7.543494e-02
<GCONST> 6.937938e+01
<STATE> 4
<NUMMIXES> 2
<MIXTURE> 1 6.193125e-01
<MEAN> 39
 1.028075e+01 -1.288878e+01 1.373863e+01 1.291313e+01 -1.063704e+01 3.015265e+00 -1.051210e+01 -9.272548e+00 1.731557e+00 -1.466234e+01 -7.812191e+00 -3.781766e+00 -1.403609e+01 -1.313824e-01 -1.218131e+00 -2.753857e-02 8.111192e-02 -5.507110e-01 -1.762661e-01 1.277021e-02 -2.771645e-02 9.013085e-02 -2.377615e-02 5.405732e-01 4.540587e-01 -2.427453e-01 1.725942e-02 3.638613e-02 -6.293325e-02 -6.635727e-02 3.109851e-02 -2.954077e-03 -4.337660e-02 -9.599536e-03 -1.934156e-02 8.019480e-03 4.517408e-03 -5.125827e-03 2.411142e-02
<VARIANCE> 39
 5.360118e+01 1.147594e+02 5.651950e+01 4.958639e+01 6.452203e+01 8.099206e+01 6.030843e+01 4.255379e+01 4.687903e+01 6.013706e+01 5.901341e+01 4.074115e+01 4.006900e+01 1.196394e+00 4.081296e+00 2.274762e+00 1.764822e+00 2.229019e+00 2.915065e+00 2.342601e+00 1.784886e+00 1.712513e+00 1.735224e+00 1.473653e+00 1.255965e+00 1.251955e+00 1.512755e-01 5.907288e-01 2.923045e-01 2.467913e-01 3.750200e-01 4.103101e-01 3.571459e-01 2.759851e-01 2.797883e-01 2.719341e-01 2.224235e-01 2.094979e-01 1.860853e-01
<GCONST> 1.158219e+02
<MIXTURE> 2 3.806876e-01
<MEAN> 39
 7.986883e-01 -2.793469e+00 4.055068e+00 2.384333e+00 1.088714e+01 -1.595118e+01 -9.973896e+00 -5.408926e+00 -6.926043e+00 -7.952407e+00 -2.742266e+00 -4.678221e+00 -8.477713e+00 1.703769e-01 -3.709843e-01 -7.981473e-01 -6.735662e-01 5.414159e-02 -6.422171e-01 -1.553994e-01 1.988008e-01 -1.845535e-01 -3.992972e-03 4.756051e-01 5.521997e-01 5.975723e-02 -9.899956e-03 9.672721e-02 2.898581e-02 -8.035121e-02 -5.190688e-02 1.995320e-01 1.440018e-01 3.425548e-02 4.790647e-02 -3.596259e-02 -8.568133e-02 2.389571e-02 3.080674e-02
<VARIANCE> 39
 9.078952e+00 3.836557e+01 4.360814e+01 6.360629e+01 1.041817e+02 1.081912e+02 7.833575e+01 4.377275e+01 4.398346e+01 6.020568e+01 4.762598e+01 8.173207e+01 5.883461e+01 1.580081e-01 6.745912e-01 6.551996e-01 1.306109e+00 1.275327e+00 2.599120e+00 1.752467e+00 1.489350e+00 1.622001e+00 1.614136e+00 1.536328e+00 1.120704e+00 1.123707e+00 2.352860e-02 7.751360e-02 8.667944e-02 1.638183e-01 1.665535e-01 2.938957e-01 2.637431e-01 2.522829e-01 2.238973e-01 2.590835e-01 2.209582e-01 1.880653e-01 1.505378e-01
<GCONST> 1.003273e+02
<TRANSP> 5
 0.000000e+00 1.000000e+00 0.000000e+00 0.000000e+00 0.000000e+00
 0.000000e+00 8.560609e-01 1.439391e-01 0.000000e+00 0.000000e+00
 0.000000e+00 0.000000e+00 8.582612e-01 1.417388e-01 0.000000e+00
 0.000000e+00 0.000000e+00 0.000000e+00 8.322633e-01 1.677367e-01
 0.000000e+00 0.000000e+00 0.000000e+00 0.000000e+00 0.000000e+00
<ENDHMM>
~h "nx"
<BEGINHMM>
<NUMSTATES> 5
<STATE> 2
<NUMMIXES> 2
<MIXTURE> 1 1.000000e+00
<MEAN> 39
 2.266176e+01 8.960953e-01 -1.304768e+01 -6.486064e+00 1.522287e+01 1.134528e+01 -1.394282e+01 4.228474e+00 -6.573906e+00 -1.557105e+01 7.380488e+00 -1.127102e+00 -3.465565e+00 -1.575697e-01 2.666699e-01 3.638138e-01 4.611672e-01 4.044978e-02 8.424092e-02 7.118528e-01 1.672967e-01 -2.062713e-01 -2.641028e-01 -4.442263e-01 -3.744913e-02 -1.096311e-01 -7.207441e-02 1.395097e-02 1.342378e-01 2.046646e-01 9.309914e-03 -6.890733e-02 4.938039e-02 1.176134e-02 7.073278e-03 -4.221292e-03 -9.654050e-02 -1.968664e-02 -1.599332e-04
<VARIANCE> 39
 1.078335e+01 1.163282e+01 2.466990e+01 4.113625e+01 1.720937e+01 1.987799e+01 5.739271e+01 4.382750e+01 1.597433e+01 2.531422e+01 2.827638e+01 9.302371e+00 1.072926e+01 4.638686e-01 3.985610e-01 1.017951e+00 2.520748e+00 6.188441e-01 1.026593e+00 2.542984e+00 1.632147e+00 6.833834e-01 1.429272e+00 1.990180e+00 7.047380e-01 4.385728e-01 6.808043e-02 6.556731e-02 1.394391e-01 1.580597e-01 1.083841e-01 1.358909e-01 3.211903e-01 2.819882e-01 9.145107e-02 2.615164e-01 1.897358e-01 1.321998e-01 6.742486e-02
<GCONST> 8.479706e+01
<MIXTURE> 2 0.000000e+00
<MEAN> 39
 1.361686e+01 -1.383072e+00 7.618060e+00 1.232223e+01 -2.383529e+00 8.959254e+00 -1.035662e+01 -1.021862e+01 8.851387e+00 -8.332142e+00 -1.389112e+01 -1.311377e+00 -7.191798e+00 -1.457334e-01 3.850303e-01 1.832990e-01 7.829956e-02 1.980715e-01 -5.036991e-02 -1.340757e-01 -1.179461e-01 -3.900307e-02 1.584407e-01 2.003755e-02 -8.778737e-02 -5.617338e-02 -8.385319e-04 -4.167615e-02 -5.001837e-02 5.873689e-03 7.726591e-03 -9.950018e-03 4.415042e-02 -3.027088e-03 -5.418176e-02 3.586245e-02 5.732016e-02 -7.334471e-04 -7.240163e-03
<VARIANCE> 39
 2.374427e+00 2.125168e+01 1.217588e+01 1.771664e+01 1.535122e+01 2.714209e+01 2.611153e+01 3.003095e+01 4.948417e+01 3.589555e+01 2.532868e+01 2.865796e+01 2.461707e+01 5.158678e-02 1.692707e-01 2.307495e-01 3.434558e-01 3.976840e-01 4.632231e-01 5.185775e-01 4.969022e-01 5.959083e-01 6.742363e-01 5.816705e-01 4.702742e-01 4.794611e-01 8.847732e-03 2.771878e-02 3.858319e-02 5.424614e-02 6.815128e-02 7.742334e-02 8.735045e-02 8.348746e-02 1.017274e-01 9.737392e-02 8.988705e-02 7.854709e-02 8.157872e-02
<GCONST> 6.095366e+01
<STATE> 3
<NUMMIXES> 2
<MIXTURE> 1 2.666826e-01
<MEAN> 39
 1.475869e+01 8.985332e+00 6.045300e+00 2.185543e+01 2.434926e+01 6.238462e+00 -1.577512e+01 -1.071176e+01 -7.326517e+00 -6.292467e+00 -3.277630e+00 -5.541735e+00 -3.601548e+00 -1.177360e-01 3.573656e-01 2.547061e-01 -2.307318e-01 -3.943762e-01 1.770483e-01 4.425744e-01 -1.687945e-01 -9.086222e-02 2.818724e-01 -2.359039e-01 -2.967172e-01 1.379213e-01 -1.672378e-02 -1.511008e-01 -8.839955e-02 -9.163401e-02 8.204253e-05 7.137318e-02 9.141402e-02 3.324084e-01 4.190846e-02 -1.866621e-01 7.614771e-02 3.360402e-02 -4.872360e-02
<VARIANCE> 39
 2.439899e+00 1.298372e+01 1.245290e+01 8.496280e+00 1.339600e+01 7.642074e+00 1.345626e+01 2.245004e+01 1.275600e+01 2.687700e+01 1.212895e+01 1.690333e+01 4.624743e+00 1.045123e-01 3.251562e-01 2.556997e-01 6.032807e-01 7.179922e-01 2.983899e-01 6.042221e-01 9.016210e-01 4.266382e-01 8.191718e-01 5.252274e-01 7.319031e-01 3.333367e-01 2.193117e-02 7.014664e-02 4.268209e-02 1.637554e-01 1.110816e-01 8.820675e-02 1.197098e-01 1.652807e-01 8.131311e-02 1.821534e-01 9.922962e-02 1.371559e-01 5.042895e-02
<GCONST> 6.083540e+01
<MIXTURE> 2 7.333176e-01
<MEAN> 39
 1.766760e+01 4.497457e+00 -2.167997e+00 1.155249e+01 1.765435e+01 7.691708e+00 -5.440938e+00 3.131466e+00 -8.883553e+00 -1.685603e+01 -3.959300e+00 -3.561760e+00 -4.186022e+00 -1.515839e-01 -3.336064e-01 5.848163e-01 7.073501e-01 -3.878535e-02 -6.000032e-01 -3.748223e-01 1.378392e-01 2.393928e-02 1.180707e-01 2.744857e-01 -3.126013e-01 -3.357998e-01 2.332733e-01 -2.821839e-01 -4.183030e-01 -6.613519e-01 -1.819962e-01 9.283893e-02 -2.243360e-01 1.823760e-01 -1.042905e-01 -8.969507e-02 7.018445e-01 1.809368e-01 -8.856863e-02
<VARIANCE> 39
 1.475346e+01 1.570416e+01 2.309103e+01 3.704169e+01 2.824673e+01 1.862905e+01 3.649434e+01 5.088837e+01 1.296135e+01 2.188341e+01 2.264204e+01 9.862124e+00 1.482135e+01 6.318930e-01 8.486373e-01 1.872752e+00 4.429767e+00 1.522960e+00 1.199701e+00 2.097436e+00 2.674725e+00 9.147354e-01 1.954596e+00 3.058980e+00 1.026584e+00 6.402225e-01 5.612488e-02 1.041708e-01 1.288043e-01 2.573600e-01 2.112170e-01 1.484539e-01 3.625996e-01 3.882422e-01 1.534689e-01 3.655111e-01 2.803739e-01 1.614088e-01 1.176532e-01
<GCONST> 9.443047e+01
<STATE> 4
<NUMMIXES> 2
<MIXTURE> 1 3.335518e-01
<MEAN> 39
 1.008057e+01 -8.022635e+00 6.053071e+00 3.317894e+01 3.216054e+01 7.245655e-01 -2.265100e+01 5.304217e+00 -6.739033e+00 -1.481209e+01 6.275732e+00 -6.173931e+00 -1.194300e+01 -1.529009e-01 9.509299e-02 -6.730187e-02 -3.125291e-02 9.035380e-02 8.195248e-02 -1.005997e-01 -5.234459e-02 1.276853e-01 3.452668e-02 -2.048662e-01 2.650488e-03 1.688994e-01 -6.506771e-03 -2.692809e-02 -4.821373e-02 -2.151867e-02 -3.014130e-02 1.234149e-02 4.072097e-02 -4.655651e-02 -6.538052e-02 -5.109571e-04 9.014691e-02 6.186121e-02 -9.303992e-03
<VARIANCE> 39
 1.141415e+01 1.032509e+02 3.609015e+01 1.041448e+02 8.256939e+01 2.880332e+01 1.488010e+02 5.244151e+01 3.290162e+01 5.735044e+01 5.484941e+01 1.083325e+01 2.125894e+01 5.933241e-01 7.580813e-01 8.948293e-01 1.275727e+00 1.200775e+00 8.245478e-01 1.650175e+00 1.998256e+00 1.193866e+00 1.453455e+00 1.757925e+00 6.045322e-01 7.712154e-01 4.831915e-02 1.155799e-01 1.059478e-01 1.745520e-01 1.813338e-01 1.397815e-01 2.420047e-01 3.229449e-01 1.614224e-01 2.306457e-01 2.738343e-01 8.223799e-02 1.360616e-01
<GCONST> 9.709214e+01
<MIXTURE> 2 6.664478e-01
<MEAN> 39
 1.303508e+01 -1.831249e+00 1.356679e-01 1.493516e+01 1.804284e+01 4.075353e+00 -1.249312e+01 2.923903e+00 -1.395209e+01 -1.611746e+01 1.027808e+01 -2.414267e+00 -9.983986e+00 -5.887381e-01 1.959555e-01 5.648928e-01 1.831721e-01 -2.334388e-01 2.117326e-02 1.226084e-01 -1.382024e-01 -1.522940e-02 3.617992e-01 2.349298e-01 2.915835e-02 -1.220859e-02 -1.123925e-01 1.149317e-01 1.131329e-01 7.140758e-02 1.610593e-02 4.236891e-02 8.673061e-02 3.144658e-02 1.643880e-01 7.989500e-02 -2.391234e-01 -4.034040e-02 1.149509e-01
<VARIANCE> 39
 9.223664e+01 7.665440e+01 4.796494e+01 1.140935e+02 1.017253e+02 2.802751e+01 1.026777e+02 8.227780e+01 4.159008e+01 4.607896e+01 9.342847e+01 2.674064e+01 3.357532e+01 2.006208e+00 4.623944e+00 3.669417e+00 3.729200e+00 4.193586e+00 1.461708e+00 4.209108e+00 5.024710e+00 4.035047e+00 3.894107e+00 1.011072e+01 1.653079e+00 2.358224e+00 1.623025e-01 4.127261e-01 4.431533e-01 4.851034e-01 5.787278e-01 2.234821e-01 4.872644e-01 6.568567e-01 6.191593e-01 5.781699e-01 9.402295e-01 2.638371e-01 2.953319e-01
<GCONST> 1.301120e+02
<TRANSP> 5
 0.000000e+00 1.000000e+00 0.000000e+00 0.000000e+00 0.000000e+00
 0.000000e+00 9.241868e-01 7.581317e-02 0.000000e+00 0.000000e+00
 0.000000e+00 0.000000e+00 8.476080e-01 1.523920e-01 0.000000e+00
 0.000000e+00 0.000000e+00 0.000000e+00 9.357620e-01 6.423799e-02
 0.000000e+00 0.000000e+00 0.000000e+00 0.000000e+00 0.000000e+00
<ENDHMM>
~h "ou"
<BEGINHMM>
<NUMSTATES> 7
<STATE> 2
<NUMMIXES> 2
<MIXTURE> 1 0.000000e+00
<MEAN> 39
 2.950430e-05 -1.596659e-05 2.567470e-05 -3.993511e-06 -5.960464e-07 1.929002e-07 -1.204014e-05 8.247793e-06 -1.933426e-06 2.965331e-06 -1.872890e-06 -3.390014e-05 -2.196059e-06 2.152519e-07 -1.188600e-07 -1.470326e-07 2.579764e-07 1.881272e-07 -7.177005e-08 7.529743e-07 5.150214e-07 -5.541369e-08 5.667098e-07 8.731149e-08 2.587331e-08 -1.939479e-07 -6.008020e-02 6.977572e-03 -1.033811e-02 -1.313004e-03 -2.156086e-03 -2.000537e-03 2.022802e-04 5.487027e-04 1.507605e-03 -2.313650e-03 -2.747252e-04 -8.833668e-04 -1.887041e-04
<VARIANCE> 39
 0.000000e+00 0.000000e+00 0.000000e+00 1.138542e-07 1.933426e-06 0.000000e+00 0.000000e+00 4.717149e-07 0.000000e+00 0.000000e+00 0.000000e+00 0.000000e+00 1.194421e-07 0.000000e+00 5.235279e-10 2.760316e-10 0.000000e+00 0.000000e+00 3.660716e-11 1.359149e-08 8.079951e-09 2.454215e-11 0.000000e+00 0.000000e+00 1.390887e-11 0.000000e+00 5.130608e-02 3.996924e-03 4.374815e-03 3.314181e-03 3.503656e-03 3.531398e-03 3.649473e-03 3.541191e-03 3.137489e-03 2.687086e-03 2.360017e-03 1.943796e-03 1.500225e-03
<GCONST> -1.500000e+11
<MIXTURE> 2 1.000000e+00
<MEAN> 39
 1.489167e+00 -1.755021e+00 -3.414281e+00 4.391263e+00 1.419240e+00 -6.166920e+00 -8.274566e+00 1.241020e+01 1.905566e+00 -8.094450e+00 2.086609e+00 6.075109e-01 -7.853479e-01 -7.174386e-01 -3.870380e-01 -4.704359e-01 -2.821344e-01 -2.205808e-01 -4.769205e-01 -2.313503e-01 -4.915653e-02 7.284108e-02 1.883620e-01 1.008456e-01 2.997692e-02 -8.604246e-02 4.260791e-04 -2.624399e-02 8.738564e-02 5.328432e-02 7.890817e-03 9.279834e-02 3.938861e-02 -6.383313e-02 3.983608e-02 7.919291e-02 -1.933250e-02 -2.282600e-03 5.773717e-04
<VARIANCE> 39
 3.640131e+02 8.444659e+01 8.695781e+01 9.826344e+01 1.351549e+02 1.626180e+02 1.109992e+02 1.375842e+02 9.396623e+01 1.176850e+02 6.344950e+01 4.211745e+01 4.695065e+01 3.682789e+00 2.266227e+00 2.282844e+00 1.959978e+00 2.487030e+00 4.169462e+00 2.574470e+00 3.905112e+00 2.812197e+00 2.855142e+00 2.423853e+00 1.704271e+00 1.722405e+00 2.296850e-01 2.026521e-01 2.874250e-01 2.328799e-01 2.936655e-01 3.566620e-01 3.331091e-01 4.314939e-01 3.719832e-01 4.318036e-01 3.703010e-01 2.578206e-01 2.476095e-01
<GCONST> 1.285173e+02
<STATE> 3
<NUMMIXES> 2
<MIXTURE> 1 0.000000e+00
<MEAN> 39
 0.000000e+00 0.000000e+00 0.000000e+00 0.000000e+00 0.000000e+00 0.000000e+00 0.000000e+00 0.000000e+00 0.000000e+00 0.000000e+00 0.000000e+00 0.000000e+00 0.000000e+00 6.126449e-30 -5.464483e-30 2.270194e-30 -1.821515e-31 4.406674e-31 -1.213802e-30 9.256382e-31 -1.708705e-31 6.429896e-32 -4.287194e-31 4.667875e-31 -1.477681e-31 3.115776e-33 -5.948948e-02 7.116884e-03 -1.043719e-02 -1.810754e-03 -2.071288e-03 -1.224210e-03 1.069486e-03 9.119928e-04 2.393554e-03 -1.654138e-03 -8.557731e-05 -5.460818e-04 -2.131514e-04
<VARIANCE> 39
 0.000000e+00 0.000000e+00 0.000000e+00 0.000000e+00 0.000000e+00 0.000000e+00 0.000000e+00 0.000000e+00 0.000000e+00 0.000000e+00 0.000000e+00 0.000000e+00 0.000000e+00 7.215268e-30 5.740278e-30 9.907425e-31 6.378229e-33 3.732989e-32 2.832244e-31 1.647090e-31 5.612664e-33 7.947721e-34 3.533306e-32 4.188642e-32 4.197554e-33 1.866239e-36 5.242730e-02 4.308010e-03 4.828463e-03 3.723914e-03 3.905280e-03 3.459802e-03 3.704401e-03 3.736516e-03 3.287535e-03 2.844681e-03 2.523395e-03 2.245883e-03 1.678810e-03
<GCONST> -1.300000e+11
<MIXTURE> 2 1.000000e+00
<MEAN> 39
 -2.513288e+01 -6.294164e+00 -5.083836e+00 -2.473448e+00 -3.566709e+00 1.221670e-02 -3.965384e+00 1.667505e+00 -1.470879e+00 -1.225109e+00 3.042999e-01 -7.688480e-01 3.902523e-01 9.776321e-03 1.064913e-02 1.221530e-02 3.352723e-02 -1.842344e-02 -6.426331e-02 -1.836775e-02 3.396268e-02 9.137951e-02 3.912294e-02 3.161067e-04 2.042596e-02 2.986904e-02 1.040627e-01 7.926644e-02 7.502078e-02 5.935880e-02 2.643948e-02 3.613576e-03 1.538016e-02 5.742958e-02 3.962871e-02 2.039703e-02 3.721219e-02 3.756528e-02 2.038037e-02
<VARIANCE> 39
 5.941795e+01 4.491904e+00 3.959140e+00 7.343131e+00 5.840178e+00 1.838562e+01 9.578719e+00 1.575762e+01 1.316861e+01 1.535900e+01 7.324874e+00 8.345804e+00 6.281783e+00 2.304443e-01 2.680757e-01 3.528405e-01 5.107787e-01 6.730441e-01 9.635063e-01 9.530900e-01 1.103481e+00 1.355346e+00 1.155861e+00 9.402458e-01 9.302495e-01 8.565503e-01 7.443309e-02 8.259469e-02 1.012824e-01 1.272391e-01 1.510676e-01 1.905488e-01 2.213691e-01 2.451153e-01 2.918723e-01 2.496841e-01 2.106920e-01 2.029024e-01 1.973837e-01
<GCONST> 7.356796e+01
<STATE> 4
<NUMMIXES> 2
<MIXTURE> 1 1.000000e+00
<MEAN> 39
 -1.435216e+01 -4.388445e+00 -4.705710e+00 5.436757e-01 -2.572308e+00 -4.774430e+00 -6.061969e+00 7.166037e+00 1.352565e+00 -3.977494e+00 3.387518e-01 1.997709e-01 7.419866e-01 1.839931e+00 1.498260e+00 1.315943e+00 1.066257e+00 1.526945e-01 -7.885888e-01 -2.425445e-01 9.604001e-01 1.263039e+00 8.452693e-01 5.990655e-01 7.354838e-01 2.402924e-01 7.542010e-01 4.640114e-01 4.861681e-01 4.044318e-01 2.163388e-02 -3.544286e-01 -2.614728e-01 4.002855e-01 3.842499e-01 8.633277e-02 8.427416e-02 6.720763e-02 -5.686693e-04
<VARIANCE> 39
 3.897487e+02 2.349341e+01 2.236815e+01 2.882665e+01 2.406620e+01 1.180571e+02 4.406091e+01 9.787277e+01 3.113257e+01 5.944957e+01 1.225604e+01 1.043723e+01 9.703852e+00 2.090520e+00 1.946621e+00 1.867923e+00 1.380214e+00 1.754478e+00 2.515515e+00 1.589516e+00 1.619836e+00 1.522358e+00 1.613557e+00 1.583020e+00 1.274725e+00 1.020924e+00 3.147013e-01 2.421971e-01 1.965607e-01 2.059735e-01 2.318161e-01 3.663130e-01 2.655556e-01 3.542108e-01 3.012630e-01 2.573995e-01 3.026515e-01 2.703237e-01 2.027591e-01
<GCONST> 1.073726e+02
<MIXTURE> 2 0.000000e+00
<MEAN> 39
 1.208484e-05 -8.553267e-06 -2.384186e-07 -1.952052e-06 -1.340359e-05 -3.114343e-05 -5.429611e-07 -6.236136e-06 2.693385e-06 -4.857779e-06 -7.867813e-06 4.526228e-07 9.596348e-06 -5.797483e-08 -3.934838e-07 1.234002e-08 -5.355105e-09 2.961606e-07 -4.060566e-07 -2.242159e-07 7.650815e-07 -7.157214e-07 2.267188e-08 -1.420267e-08 1.264270e-07 -1.518056e-07 -1.733069e-02 2.135032e-03 -2.558388e-03 2.833310e-04 -6.236576e-04 -1.803544e-04 -3.749149e-05 -4.109075e-04 1.268192e-04 -8.433932e-04 1.034832e-04 -7.428668e-04 1.402625e-04
<VARIANCE> 39
 3.943220e-06 1.306646e-06 2.658926e-07 0.000000e+00 4.642643e-06 1.331419e-05 0.000000e+00 0.000000e+00 0.000000e+00 4.651025e-06 1.906883e-06 0.000000e+00 0.000000e+00 0.000000e+00 0.000000e+00 0.000000e+00 0.000000e+00 2.783054e-10 4.038156e-10 0.000000e+00 1.731314e-08 0.000000e+00 3.075229e-11 7.235030e-10 0.000000e+00 6.684786e-10 1.100459e-02 5.213512e-04 5.872871e-04 3.387984e-04 4.089739e-04 3.906928e-04 4.339819e-04 3.915064e-04 3.306664e-04 3.511715e-04 2.671561e-04 2.600339e-04 1.677476e-04
<GCONST> -1.300000e+11
<STATE> 5
<NUMMIXES> 2
<MIXTURE> 1 3.966652e-01
<MEAN> 39
 -6.029605e+00 4.533793e+00 2.884553e+00 6.330170e+00 -2.769573e+00 -9.698759e+00 -8.179119e+00 1.232359e+01 9.062741e+00 6.434518e-01 1.333251e+00 3.042748e+00 2.867664e+00 4.139148e+00 9.062838e-01 1.358195e-01 1.228984e+00 -4.977358e-01 -3.135145e+00 -1.237850e+00 2.370471e+00 1.719452e+00 -6.566378e-01 -3.701176e-01 5.098455e-01 8.780747e-02 1.229668e-01 -3.599409e-01 -3.923360e-01 -1.302625e-01 -2.313236e-01 -3.779542e-01 -5.828576e-02 1.151472e-01 -1.057311e-01 -2.707308e-01 -8.224455e-02 -4.400302e-02 -1.456966e-01
<VARIANCE> 39
 1.050313e+02 1.730532e+01 1.307322e+01 2.143834e+01 2.949063e+01 7.624477e+01 3.244802e+01 4.709539e+01 3.241812e+01 1.807131e+01 2.130455e+01 1.437652e+01 1.489928e+01 1.031060e+00 2.042439e+00 2.764388e+00 1.561257e+00 2.693975e+00 3.088538e+00 2.000217e+00 1.943490e+00 1.799014e+00 1.957985e+00 2.266651e+00 1.424033e+00 1.706508e+00 2.184879e-01 1.831003e-01 2.813173e-01 2.399777e-01 4.145550e-01 4.573727e-01 4.066035e-01 3.712188e-01 3.423587e-01 3.292961e-01 5.039336e-01 2.728736e-01 2.973259e-01
<GCONST> 1.084682e+02
<MIXTURE> 2 6.033350e-01
<MEAN> 39
 1.930208e+01 5.224652e-01 -3.316884e+00 1.104053e+01 -8.194836e+00 -3.328425e+01 -1.659460e+01 2.742217e+01 1.579989e+01 -9.501199e+00 -1.259343e+00 4.920023e+00 3.077154e-01 1.019754e+00 -6.842887e-01 -5.419924e-01 2.731862e-01 -1.956754e-01 -1.134016e+00 -3.878095e-01 6.349260e-01 3.493237e-01 -3.387389e-01 -3.915640e-02 1.130032e-02 -1.910228e-01 -3.266981e-01 -5.963008e-02 2.861058e-02 -8.151944e-02 2.335738e-01 4.900520e-01 1.170013e-01 -2.625543e-01 -1.511905e-01 8.031410e-02 1.828971e-02 -1.068543e-01 4.160656e-02
<VARIANCE> 39
 1.737964e+01 3.183310e+01 3.094292e+01 1.091000e+01 2.632174e+01 2.953898e+01 2.016913e+01 3.034752e+01 1.709905e+01 2.839616e+01 1.508473e+01 1.818263e+01 8.963875e+00 2.714961e+00 9.622081e-01 7.945351e-01 7.461841e-01 1.576506e+00 3.734943e+00 1.441641e+00 2.698132e+00 1.026952e+00 1.724363e+00 9.562825e-01 8.348443e-01 6.184490e-01 3.243083e-01 1.220485e-01 9.607895e-02 1.274327e-01 2.205278e-01 4.262027e-01 2.208131e-01 4.212837e-01 1.462972e-01 2.275734e-01 1.778498e-01 1.357857e-01 1.069894e-01
<GCONST> 9.258239e+01
<STATE> 6
<NUMMIXES> 2
<MIXTURE> 1 4.003436e-01
<MEAN> 39
 2.222954e+01 -4.340335e+00 -8.841802e+00 3.808226e+00 8.381224e-01 -1.599333e+01 -1.300418e+01 2.224087e+01 4.680954e+00 -1.330488e+01 4.233460e+00 -2.415373e+00 -2.883274e+00 4.074660e-02 6.143857e-01 -1.734863e-01 -8.573703e-01 1.008140e+00 2.528955e+00 5.056612e-01 -1.743944e+00 -1.128079e+00 3.536340e-01 2.984671e-02 -6.031230e-01 8.251458e-02 -1.020371e-01 2.353005e-01 1.998590e-02 -2.434192e-02 4.068941e-02 2.450383e-01 1.852714e-01 -2.844262e-01 1.100192e-01 1.910495e-01 -3.175798e-01 1.109608e-01 1.770177e-01
<VARIANCE> 39
 1.726921e+01 1.693391e+01 3.331895e+01 3.334980e+01 2.739042e+01 7.802093e+01 4.221593e+01 8.746177e+01 3.754636e+01 4.358168e+01 3.633989e+01 1.830686e+01 1.784100e+01 1.022515e+00 1.020195e+00 9.297084e-01 1.180648e+00 9.605967e-01 2.091662e+00 1.949366e+00 3.625216e+00 1.305752e+00 1.749153e+00 2.182439e+00 9.697658e-01 6.459709e-01 1.933736e-01 1.381635e-01 1.342553e-01 1.441314e-01 1.324819e-01 1.590032e-01 3.187716e-01 4.264284e-01 2.015117e-01 2.840631e-01 3.279085e-01 1.803041e-01 1.119639e-01
<GCONST> 9.965757e+01
<MIXTURE> 2 5.996563e-01
<MEAN> 39
 2.215414e+01 -5.352122e+00 -8.816257e+00 9.490385e+00 -4.875849e+00 -3.018300e+01 -1.588267e+01 2.595522e+01 1.410605e+01 -1.030101e+01 -8.867979e-01 2.718637e+00 -6.905729e-01 5.166547e-02 -2.523366e-01 -2.418219e-01 -4.550938e-01 4.116280e-01 9.671461e-01 3.035714e-01 -2.339395e-01 -6.484128e-01 -2.958797e-01 2.617644e-01 -4.119553e-01 -1.750869e-01 -1.532182e-02 8.171287e-02 3.690559e-02 -5.280573e-02 4.002969e-02 1.503343e-01 2.604236e-02 -4.171847e-02 -1.347833e-01 -4.147896e-02 6.663366e-02 -4.805080e-02 -8.412610e-03
<VARIANCE> 39
 8.154881e+00 9.720363e+00 1.820645e+01 1.174125e+01 1.508114e+01 2.773139e+01 1.659939e+01 2.322544e+01 1.869447e+01 2.263727e+01 1.579445e+01 6.887814e+00 7.242059e+00 7.269223e-01 4.438221e-01 5.663794e-01 5.685748e-01 4.828560e-01 9.448001e-01 5.458066e-01 1.025061e+00 7.566429e-01 6.927955e-01 7.973834e-01 3.925613e-01 3.062701e-01 1.093341e-01 5.390172e-02 6.873982e-02 6.923955e-02 4.636850e-02 6.545763e-02 7.988053e-02 1.454281e-01 5.477694e-02 9.590614e-02 1.087383e-01 5.460222e-02 4.289138e-02
<GCONST> 6.524332e+01
<TRANSP> 7
 0.000000e+00 1.000000e+00 0.000000e+00 0.000000e+00 0.000000e+00 0.000000e+00 0.000000e+00
 0.000000e+00 8.698411e-01 1.301590e-01 0.000000e+00 0.000000e+00 0.000000e+00 0.000000e+00
 0.000000e+00 0.000000e+00 9.066042e-01 9.339587e-02 0.000000e+00 0.000000e+00 0.000000e+00
 0.000000e+00 0.000000e+00 0.000000e+00 4.006685e-01 5.993316e-01 0.000000e+00 0.000000e+00
 0.000000e+00 0.000000e+00 0.000000e+00 0.000000e+00 9.195418e-01 8.045828e-02 0.000000e+00
 0.000000e+00 0.000000e+00 0.000000e+00 0.000000e+00 0.000000e+00 9.413333e-01 5.866674e-02
 0.000000e+00 0.000000e+00 0.000000e+00 0.000000e+00 0.000000e+00 0.000000e+00 0.000000e+00
<ENDHMM>
~h "ph"
<BEGINHMM>
<NUMSTATES> 5
<STATE> 2
<NUMMIXES> 2
<MIXTURE> 1 4.077245e-01
<MEAN> 39
 -2.662911e+01 -6.212113e+00 -4.941826e+00 -2.767383e+00 -3.544796e+00 7.056949e-01 -3.682855e+00 1.184339e+00 -1.524102e+00 -5.613197e-01 4.944991e-01 -9.344393e-01 3.154894e-01 -4.280809e-02 -3.926598e-02 -3.209233e-02 -3.319454e-02 -4.851966e-02 -6.219206e-02 -8.453966e-02 -3.221678e-02 1.677780e-02 1.413122e-02 2.340984e-02 1.075701e-02 2.029342e-02 1.133977e-01 8.689991e-02 9.093553e-02 1.053930e-01 1.048002e-01 6.141697e-02 4.758928e-02 3.870559e-02 -1.591556e-02 -4.369361e-02 -1.205980e-02 -3.270332e-03 1.006585e-02
<VARIANCE> 39
 5.037055e-01 1.009381e+00 1.725906e+00 2.576841e+00 3.643385e+00 4.407426e+00 5.628431e+00 6.628428e+00 6.662292e+00 6.096762e+00 6.799492e+00 6.227546e+00 4.982078e+00 9.243917e-02 1.727564e-01 2.721133e-01 4.073445e-01 5.738633e-01 7.036741e-01 9.307592e-01 1.045151e+00 9.733419e-01 9.805993e-01 1.093177e+00 9.331204e-01 7.036625e-01 5.201265e-02 7.291610e-02 1.027301e-01 1.233756e-01 1.586505e-01 1.831710e-01 2.456416e-01 2.850498e-01 2.607634e-01 2.673005e-01 2.735949e-01 2.261205e-01 1.766645e-01
<GCONST> 5.697502e+01
<MIXTURE> 2 5.922749e-01
<MEAN> 39
 -1.277471e+01 3.275598e+00 5.699588e+00 6.914955e+00 5.517838e+00 7.422512e+00 -3.741705e-01 4.264879e+00 -3.500119e+00 -5.287993e+00 -1.273651e+00 -1.277306e+00 1.182451e+00 -2.446875e+00 -1.668316e+00 -1.119566e+00 -1.330662e+00 -1.234996e+00 -3.461278e-01 2.456127e-02 -2.790069e-01 1.587902e-01 6.760394e-01 4.098423e-01 1.346037e-01 1.549208e-01 2.345732e-01 -2.061813e-01 -2.776160e-01 -5.638369e-02 1.628514e-02 -1.302780e-01 -1.426648e-01 5.009225e-02 1.777663e-02 -7.733956e-02 1.755152e-02 -6.849653e-03 -4.708916e-02
<VARIANCE> 39
 8.922212e+01 1.022337e+02 8.704227e+01 6.155297e+01 4.902151e+01 3.828668e+01 3.660974e+01 4.935811e+01 5.304079e+01 4.714324e+01 2.862396e+01 2.523345e+01 2.401565e+01 1.519969e+00 2.656435e+00 3.739234e+00 2.280471e+00 1.978392e+00 2.343424e+00 2.581532e+00 3.090332e+00 3.104149e+00 2.724608e+00 2.015928e+00 1.622368e+00 1.500420e+00 1.699607e-01 3.448227e-01 4.606296e-01 3.376741e-01 3.233047e-01 3.143138e-01 3.266273e-01 4.345208e-01 4.901558e-01 4.410244e-01 3.513831e-01 2.851564e-01 2.493738e-01
<GCONST> 1.187215e+02
<STATE> 3
<NUMMIXES> 2
<MIXTURE> 1 7.107733e-01
<MEAN> 39
 -9.442589e+00 -2.107387e+00 6.501262e-01 9.404313e+00 9.639773e+00 9.128734e+00 8.494174e-01 8.284574e+00 -7.653006e-01 -3.699575e+00 3.834027e+00 4.451778e+00 7.033973e+00 3.071275e+00 -1.627629e-01 -2.059901e-01 8.212639e-01 1.027854e+00 3.649015e-01 -2.988947e-01 6.133751e-01 -5.506836e-01 -9.241080e-01 9.581849e-01 7.616544e-01 7.240070e-01 2.485481e-02 -1.916029e-01 -3.432697e-01 -3.825305e-01 -3.840870e-01 -3.128406e-01 -2.206903e-01 -1.392268e-01 -6.830980e-02 6.405634e-02 1.880636e-01 4.887919e-03 -1.495882e-01
<VARIANCE> 39
 9.771764e+01 1.986134e+01 1.699638e+01 2.544910e+01 3.110734e+01 2.925000e+01 3.442853e+01 2.527732e+01 3.919394e+01 4.252684e+01 2.577080e+01 2.774650e+01 2.443068e+01 1.582745e+00 2.053849e+00 2.686601e+00 4.026735e+00 4.750099e+00 3.836071e+00 3.809403e+00 3.143139e+00 3.630544e+00 3.068491e+00 2.601664e+00 2.359655e+00 2.090894e+00 4.063207e-01 1.636077e-01 2.954298e-01 2.842727e-01 3.968124e-01 5.017208e-01 6.889416e-01 5.230950e-01 8.030115e-01 7.974484e-01 3.672705e-01 3.973299e-01 3.910746e-01
<GCONST> 1.188631e+02
<MIXTURE> 2 2.892265e-01
<MEAN> 39
 -2.648518e+01 -6.137325e+00 -4.794356e+00 -2.666003e+00 -3.594449e+00 6.654755e-01 -3.481844e+00 1.310124e+00 -1.355954e+00 -2.783436e-01 9.144962e-01 -6.765969e-01 7.926074e-01 5.642778e-01 2.887958e-01 5.271705e-01 8.503414e-01 9.422248e-01 7.505463e-01 6.837945e-01 7.862250e-01 4.635621e-01 2.007046e-01 3.597038e-01 3.793264e-01 3.861387e-01 6.984094e-01 4.162344e-01 5.854235e-01 8.608356e-01 9.508865e-01 7.189080e-01 4.860977e-01 5.324070e-01 2.223349e-01 -4.028079e-02 8.157965e-02 2.640730e-01 2.967518e-01
<VARIANCE> 39
 6.973749e-01 1.644301e+00 2.030976e+00 3.635574e+00 4.336511e+00 5.278596e+00 5.910052e+00 6.178145e+00 6.712645e+00 6.463175e+00 5.743515e+00 5.158099e+00 4.762997e+00 1.219920e+00 1.205889e+00 1.762807e+00 2.944052e+00 3.470520e+00 2.900438e+00 2.388903e+00 2.031589e+00 1.678960e+00 1.381485e+00 1.113532e+00 1.260576e+00 1.172736e+00 1.382223e-01 1.250410e-01 1.476417e-01 2.400989e-01 2.520129e-01 2.695019e-01 3.401004e-01 2.459496e-01 2.955344e-01 2.889867e-01 2.365956e-01 2.583182e-01 2.559872e-01
<GCONST> 7.733649e+01
<STATE> 4
<NUMMIXES> 2
<MIXTURE> 1 1.000000e+00
<MEAN> 39
 5.582539e+00 -1.038334e+01 -1.001049e+01 3.115014e+00 3.867703e+00 5.532532e+00 -3.264558e-01 1.163248e+01 4.251789e-01 -1.663649e-01 1.437236e+01 8.895029e+00 7.373396e+00 8.467150e-01 -1.153580e-01 -3.428306e-01 -2.200185e-02 -2.970985e-01 -5.095216e-01 -3.632054e-02 2.453801e-01 5.632974e-01 7.128965e-01 4.070523e-01 -1.949062e-01 -5.916975e-01 -2.065382e-02 2.337697e-01 2.802745e-01 1.788512e-01 1.392999e-01 -6.347596e-02 -1.354312e-01 -6.491628e-02 -8.046875e-02 -1.887362e-01 -2.106715e-01 -1.930307e-01 -1.639587e-01
<VARIANCE> 39
 7.140076e+01 8.615476e+01 8.130521e+01 5.589871e+01 1.170626e+02 1.128632e+02 6.872977e+01 1.085199e+02 1.141382e+02 1.376614e+02 7.772625e+01 7.094341e+01 3.216851e+01 1.168890e+00 3.556124e+00 4.009961e+00 2.947480e+00 3.303433e+00 3.410840e+00 2.844312e+00 3.373831e+00 4.694577e+00 5.621736e+00 3.170479e+00 3.619178e+00 2.307800e+00 1.281999e-01 2.943415e-01 3.494062e-01 2.902713e-01 3.807126e-01 5.487522e-01 4.496075e-01 4.622088e-01 7.285957e-01 8.525760e-01 4.029330e-01 4.586382e-01 3.185200e-01
<GCONST> 1.320936e+02
<MIXTURE> 2 0.000000e+00
<MEAN> 39
 -1.015390e+01 -4.631816e+01 1.016816e+01 1.162639e+01 -1.891591e+00 2.216642e+01 -1.014524e+01 -1.183229e+00 9.757619e+00 -9.515562e+00 -1.309112e+00 1.899875e+00 1.101491e+00 -1.253500e+00 -1.690578e+00 9.529696e-01 -3.898689e-02 -7.293209e-01 -5.052592e-01 -1.963609e+00 -2.120598e+00 -5.859047e-01 -5.689625e-01 5.280949e-02 8.777792e-01 9.806890e-01 2.039303e-01 4.147044e-01 -3.179018e-01 1.201470e-01 3.889616e-01 1.040026e-01 3.136157e-01 2.636020e-01 4.920377e-02 1.007182e-01 -1.477228e-01 -3.440652e-01 -4.367760e-01
<VARIANCE> 39
 1.321690e+01 3.304022e+01 8.485703e+00 1.848543e+00 3.048569e+00 1.438585e+01 3.167401e+01 3.004016e+01 7.520224e+00 9.705881e+00 4.621343e+00 1.152077e+01 1.606346e+01 1.299537e+00 2.936247e+00 3.920347e+00 3.001309e-01 1.903624e+00 1.777923e+00 2.750505e+00 1.801411e+00 3.051873e-01 6.002272e-01 6.143333e-01 2.153111e+00 5.379997e+00 1.675129e-01 3.451068e-01 4.612655e-01 1.254931e-01 1.764835e-01 2.608429e-01 2.595738e-01 2.582701e-01 9.209108e-02 1.474895e-01 1.323039e-01 1.194983e-01 5.899492e-01
<GCONST> 8.632181e+01
<TRANSP> 5
 0.000000e+00 1.000000e+00 0.000000e+00 0.000000e+00 0.000000e+00
 0.000000e+00 9.242064e-01 7.579356e-02 0.000000e+00 0.000000e+00
 0.000000e+00 0.000000e+00 8.796869e-01 1.203131e-01 0.000000e+00
 0.000000e+00 0.000000e+00 0.000000e+00 8.886347e-01 1.113653e-01
 0.000000e+00 0.000000e+00 0.000000e+00 0.000000e+00 0.000000e+00
<ENDHMM>
~h "rq"
<BEGINHMM>
<NUMSTATES> 7
<STATE> 2
<NUMMIXES> 2
<MIXTURE> 1 8.007869e-01
<MEAN> 39
 7.913172e+00 -1.553860e+01 1.011237e+01 5.833189e+00 1.904973e+00 2.018658e+01 -4.449872e+00 6.184299e+00 -6.373796e+00 -2.051201e+01 3.030826e+00 2.584277e+00 5.939889e-01 1.833903e+00 1.660085e+00 -1.378998e-02 1.884097e+00 1.114906e+00 -1.487075e+00 3.100706e-01 1.826795e-01 -7.938038e-01 -9.476648e-01 -5.378303e-01 1.209348e-01 -8.910486e-02 6.487662e-02 4.043748e-01 -4.033186e-01 1.650537e-01 1.585522e-01 -6.304364e-01 -1.093387e-01 -6.920184e-02 9.491532e-02 2.709864e-01 -8.712586e-02 -1.653300e-01 2.339836e-02
<VARIANCE> 39
 4.358109e+01 5.939428e+01 4.840899e+01 4.836546e+01 4.306478e+01 4.692133e+01 1.873590e+01 1.279438e+01 2.528918e+01 1.477814e+01 1.180942e+01 3.003401e+00 1.443405e+01 1.470693e+00 2.667945e+00 4.380954e+00 3.865049e+00 2.181575e+00 4.513587e+00 4.957108e+00 1.857671e+00 1.284849e+00 9.641067e-01 1.579845e+00 1.142498e+00 5.702728e-01 3.555843e-01 4.921561e-01 5.849206e-01 8.450237e-01 3.390813e-01 3.801373e-01 6.990920e-01 2.729972e-01 4.428194e-01 1.650544e-01 5.194935e-01 1.727663e-01 1.926713e-01
<GCONST> 1.086673e+02
<MIXTURE> 2 1.992132e-01
<MEAN> 39
 1.532526e+01 -5.430264e+00 8.549420e+00 1.313308e+01 3.520583e-01 7.698312e+00 3.540543e+00 4.145555e+00 -1.532496e+01 -1.971988e+01 1.192365e+00 -1.288745e+00 2.879934e+00 1.797221e+00 5.441651e-01 -2.405828e+00 1.102296e+00 1.251694e+00 -3.140854e+00 -1.411996e+00 -7.354977e-01 -1.245668e+00 -6.102461e-01 -4.532640e-02 -9.781821e-01 -1.439247e+00 -5.345840e-01 -6.113481e-01 -2.938057e-01 -6.274790e-01 7.344784e-01 3.583314e-01 -8.358194e-01 3.315551e-01 -1.036277e-01 -2.535845e-01 4.467401e-01 6.353790e-01 -1.858165e-01
<VARIANCE> 39
 3.147594e+00 7.801512e-01 6.165737e+00 1.169610e+00 1.906457e+00 1.998348e+01 7.644156e+00 1.681328e+00 4.514044e-01 1.658568e+00 4.241230e-01 2.673165e+00 2.071712e+00 5.116579e-01 5.133516e-01 2.653619e-02 1.948151e-01 1.051198e+00 3.842097e-01 1.149700e+00 3.966289e-02 1.368546e-01 6.830409e-01 2.497423e-01 1.562245e+00 7.842224e-02 1.605907e-02 1.508482e-01 8.954529e-02 4.024726e-02 1.949573e-02 8.351350e-02 1.963003e-01 4.384714e-02 4.745173e-03 3.043028e-01 1.941483e-03 2.354681e-01 8.979115e-03
<GCONST> 2.308835e+01
<STATE> 3
<NUMMIXES> 2
<MIXTURE> 1 0.000000e+00
<MEAN> 39
 4.792265e+00 -1.912126e+01 8.256557e+00 2.451213e+01 1.160292e+01 1.819415e+01 7.673485e+00 3.453903e+00 4.996493e+00 -4.574647e+00 -3.024233e+00 4.534252e+00 1.549923e+00 -2.303306e+00 -4.620656e+00 1.031160e+00 -1.352414e+00 -1.113822e+00 3.745343e+00 -7.456693e-01 -1.206692e+00 4.268679e+00 -2.608063e-01 -2.248156e+00 2.545908e-02 2.149880e-01 4.363273e-01 -5.970409e-01 -4.939691e-01 -4.104499e-01 4.786224e-01 7.117655e-02 -2.241323e+00 -1.253818e+00 -7.737113e-01 -4.610961e-01 5.581028e-01 -7.018080e-01 -7.416869e-01
<VARIANCE> 39
 0.000000e+00 0.000000e+00 0.000000e+00 -2.980232e-08 0.000000e+00 5.960464e-08 0.000000e+00 1.164153e-10 1.192093e-07 5.960464e-08 0.000000e+00 0.000000e+00 0.000000e+00 -3.725290e-09 -7.450581e-09 0.000000e+00 0.000000e+00 0.000000e+00 1.490116e-08 -4.656613e-10 5.820766e-11 -7.450581e-09 -3.637979e-12 -1.862645e-09 0.000000e+00 0.000000e+00 -2.328306e-10 0.000000e+00 0.000000e+00 0.000000e+00 0.000000e+00 -5.820766e-11 -9.313226e-10 9.313226e-10 1.164153e-10 7.105427e-15 0.000000e+00 0.000000e+00 1.164153e-10
<GCONST> -2.900001e+11
<MIXTURE> 2 1.000000e+00
<MEAN> 39
 1.820928e+01 -4.780606e+00 1.697213e+00 1.331207e+01 1.022593e+01 4.320985e+00 -7.255181e+00 4.393772e+00 -1.275456e+01 -2.130918e+01 1.670764e+00 -3.283522e-01 -7.675385e-01 7.991849e-01 4.441968e-01 -1.489329e+00 1.700830e-01 2.587387e+00 -2.300680e+00 -2.729705e+00 4.888716e-01 -1.145452e+00 -1.649368e+00 1.366833e+00 1.562015e+00 -9.583329e-01 -4.073933e-01 -1.781296e-02 3.147863e-01 -1.926455e-01 1.419942e-01 6.700743e-01 7.588506e-03 5.209903e-01 3.458540e-01 -2.785622e-01 5.567372e-01 4.157166e-01 -2.928369e-01
<VARIANCE> 39
 1.559384e+00 1.323935e+01 8.617760e+00 1.622334e+00 1.799673e+01 6.993175e+00 1.865530e+01 5.252644e+00 2.075894e+01 1.504658e+00 1.205831e-01 1.671648e+01 2.182214e+00 6.384888e-02 1.818756e+00 1.569956e+00 1.320775e-02 6.395584e-01 2.164290e+00 7.484725e-01 3.384399e-01 2.953255e+00 1.908772e+00 3.603660e-02 1.362795e+00 1.097177e+00 1.421608e-03 4.772684e-02 2.943888e-02 1.149729e-01 1.613986e-02 4.969627e-02 1.125974e-01 7.732490e-02 8.185680e-02 1.274059e-01 1.755208e-01 8.678706e-02 4.410326e-02
<GCONST> 4.438930e+01
<STATE> 4
<NUMMIXES> 2
<MIXTURE> 1 9.038162e-01
<MEAN> 39
 1.710915e+01 -1.716059e+00 1.609747e+00 1.466970e+01 1.918135e+01 2.239965e+00 -1.769728e+01 5.943668e+00 -1.048158e+01 -2.074192e+01 1.020848e+01 8.332483e-01 -8.131378e+00 -1.587190e-01 1.447342e-01 9.225179e-02 1.904778e-03 9.433315e-02 8.269177e-02 8.146970e-02 9.352359e-02 -2.256902e-02 9.158746e-02 5.704468e-02 -1.474244e-01 1.024191e-02 -6.323032e-02 5.491591e-02 7.364219e-02 1.355212e-02 -4.804900e-02 9.575752e-02 1.160532e-01 -5.166484e-02 5.854453e-02 9.276210e-02 -1.043372e-01 -3.066605e-02 4.169471e-02
<VARIANCE> 39
 1.112207e+01 7.593268e+01 5.114676e+01 2.361990e+01 1.714972e+01 3.870543e+01 4.108546e+01 1.227264e+02 4.265465e+01 1.162813e+02 1.214746e+02 4.336976e+01 2.498040e+01 8.544747e-01 1.982861e+00 2.380236e+00 8.507942e-01 1.490378e+00 1.764774e+00 3.635375e+00 2.828704e+00 1.433652e+00 3.261230e+00 4.746752e+00 1.363885e+00 1.311370e+00 1.101486e-01 1.927216e-01 2.966353e-01 1.011730e-01 2.465292e-01 1.721838e-01 4.759164e-01 3.869066e-01 2.245094e-01 3.997060e-01 4.263704e-01 2.075908e-01 1.097512e-01
<GCONST> 1.097895e+02
<MIXTURE> 2 9.618393e-02
<MEAN> 39
 1.866443e+01 -5.401392e+00 -1.506399e+00 9.312284e+00 1.829367e+01 -1.889139e+00 -1.707675e+01 1.072215e+01 -2.259003e+01 -2.989590e+01 1.347255e+01 6.922235e-01 -7.330069e+00 5.264020e-02 -3.818980e-01 3.338493e-01 -4.235562e-01 9.268627e-01 -7.025303e-01 -1.773052e+00 1.655817e+00 -1.026558e+00 -8.502584e-01 2.231153e+00 -7.676905e-01 -7.394102e-01 -1.060702e-01 7.868898e-02 3.930793e-01 7.583790e-02 -4.540430e-01 3.594055e-01 4.012129e-01 -2.199408e-01 1.639731e-01 4.342780e-01 -6.673530e-02 -3.372063e-01 1.279875e-01
<VARIANCE> 39
 1.228253e+00 2.636570e+00 1.014170e+01 6.666268e+00 1.745322e+01 1.090025e+01 3.887939e+01 2.478575e+01 3.665434e+01 3.342100e+00 5.104392e+01 9.570187e+00 4.582650e+00 2.509969e-01 8.183758e-01 1.433608e+00 3.773291e-01 1.826590e+00 8.069233e-01 1.243518e+00 6.673080e-01 2.845357e-01 8.480853e-01 3.612666e-01 1.088542e+00 4.865223e-01 2.764454e-02 1.015752e-01 1.007850e-01 9.481688e-02 1.118556e-01 4.493573e-01 1.562814e-01 4.336775e-01 3.240857e-02 1.198216e-01 9.917044e-02 4.627802e-02 6.295892e-02
<GCONST> 6.672726e+01
<STATE> 5
<NUMMIXES> 2
<MIXTURE> 1 4.999794e-01
<MEAN> 39
 1.021687e+01 1.266961e+00 5.982295e+00 1.339452e+01 1.737661e+01 8.431588e+00 -4.429026e+00 1.002926e+01 -8.625354e+00 -1.735682e+01 2.380750e+00 -3.578291e+00 -1.385582e+00 -2.133796e+00 3.768574e+00 3.026480e+00 7.010307e-01 -3.846094e-01 2.681440e+00 2.456896e+00 -1.237631e+00 1.599122e+00 2.370966e+00 -2.715359e+00 -2.505603e-01 1.108257e+00 3.187932e-01 8.997654e-02 -3.447075e-01 6.115456e-02 -1.160408e-01 -8.701932e-01 -3.677519e-01 2.326381e-01 -8.056377e-01 -4.828998e-01 4.752986e-01 1.261052e-01 -1.321551e-01
<VARIANCE> 39
 9.223193e-02 1.592294e+01 4.503635e-01 3.794489e+01 2.690859e-01 1.473864e+00 8.428819e+00 1.439545e+00 8.682388e+00 9.118070e+00 1.277505e+01 1.779366e+01 9.004557e-02 2.109785e-01 7.702996e-01 3.454174e-01 1.098608e-01 1.693531e-01 8.886310e-01 9.025299e-01 6.659623e-02 1.018985e+00 2.648595e+00 6.829752e-01 4.508407e-01 5.809130e-05 1.422032e-02 1.164175e-01 4.461940e-04 1.733392e-02 4.041188e-02 1.968604e-04 5.359357e-02 3.168393e-01 1.736281e-01 3.412413e-01 5.062146e-01 6.145367e-02 1.236521e-02
<GCONST> 1.944896e+01
<MIXTURE> 2 5.000206e-01
<MEAN> 39
 1.748334e+01 -4.912408e+00 6.519381e+00 7.172497e+00 1.876625e+01 2.960281e+00 -1.890984e+01 1.331033e+01 -3.220710e+01 -2.887740e+01 2.771542e+01 -9.329806e+00 -1.071295e+01 6.647688e-01 -3.381926e-01 3.525429e-01 6.915750e-01 -3.196233e-01 1.935851e+00 1.045099e+00 -1.640531e+00 4.245627e-01 2.374650e+00 5.452879e-01 -1.946172e+00 -1.427778e+00 -1.598011e-01 3.043729e-01 -2.685203e-01 1.269881e-01 1.659334e-01 -1.655996e-01 5.790511e-01 -1.808864e-02 1.157945e+00 6.222216e-01 -1.445170e+00 3.042874e-01 5.446976e-01
<VARIANCE> 39
 1.422229e+00 3.023720e-01 2.461566e-01 4.064646e-01 2.195065e+00 3.879410e+00 5.447817e+00 1.945910e+01 6.212686e+00 6.674847e+00 6.240867e+00 4.603499e-04 8.652864e-01 4.369711e-03 1.781983e-03 1.034947e-02 1.283658e-02 1.614248e-01 5.547156e-01 1.595090e-04 1.202204e-01 1.646673e-01 6.196649e-02 4.493979e-01 1.122476e-02 1.183711e-02 4.694442e-02 4.750057e-02 1.907628e-02 2.191945e-02 7.276126e-03 3.455763e-02 1.179594e-02 1.824278e-01 2.320286e-02 2.791244e-02 4.022332e-02 2.537120e-02 1.728746e-01
<GCONST> -1.951064e+01
<STATE> 6
<NUMMIXES> 2
<MIXTURE> 1 8.255717e-01
<MEAN> 39
 3.287302e+00 1.161995e+01 1.072684e+01 1.400437e+01 1.419662e+01 1.003078e+01 -1.590886e+00 4.392175e+00 -1.030024e+01 -1.502370e+01 -4.240122e+00 -3.078169e+00 2.041631e+00 -2.079284e+00 1.363538e+00 9.177724e-01 2.822098e-01 -4.571264e-01 -1.762021e-01 2.751736e-01 -1.480616e+00 1.741907e-01 6.164404e-01 -1.651374e+00 5.475388e-01 2.333521e-01 9.746126e-02 -7.849238e-01 -3.973494e-01 -1.650411e-01 -1.992762e-02 -2.873197e-01 -5.235155e-01 3.248281e-01 -1.549091e-01 -2.754835e-01 6.416738e-01 -1.329105e-01 -4.255508e-01
<VARIANCE> 39
 2.757814e+01 1.968799e+01 7.229084e+00 2.310888e+01 6.236181e+00 1.195138e+01 7.720212e+00 3.143843e+01 1.158412e+01 1.001969e+01 2.386180e+01 6.579528e+00 3.262201e+00 6.219989e-01 3.205021e+00 9.873462e-01 7.272335e-01 3.603997e-01 1.806086e+00 2.705944e+00 1.315974e+00 6.641022e-01 1.927192e+00 3.719023e+00 4.665619e-01 1.013549e+00 3.281885e-02 1.376852e-01 5.549335e-02 1.346761e-01 9.551351e-02 4.547556e-01 1.890432e-01 1.774899e-01 2.583045e-01 4.506035e-01 2.473330e-01 5.737131e-02 1.369801e-01
<GCONST> 8.067816e+01
<MIXTURE> 2 1.744282e-01
<MEAN> 39
 1.520719e+01 -1.030245e+00 6.950019e+00 9.908769e+00 1.662517e+01 6.283700e+00 -1.146420e+01 1.111219e+01 -2.179630e+01 -1.960523e+01 1.835245e+01 -1.136170e+01 -8.615715e+00 -1.864216e+00 2.672725e+00 7.501571e-01 3.604808e-01 -1.215666e+00 1.924912e+00 3.770801e+00 -9.410027e-01 3.606461e+00 2.282363e+00 -4.851629e+00 7.206531e-01 2.802938e+00 -5.594932e-01 6.710687e-01 1.849286e-01 -4.330432e-02 -8.580651e-02 5.916857e-02 1.344943e-01 -1.466755e-01 1.458497e-02 -5.235822e-01 -8.392494e-01 8.256202e-01 6.981323e-01
<VARIANCE> 39
 9.685814e+00 1.274072e+01 1.531122e+00 1.541873e+00 7.926193e+00 7.493007e+00 4.174859e+01 4.886881e+00 4.540779e+01 1.049288e+01 5.370701e+01 6.138882e+00 2.548846e+01 4.724955e-01 9.673915e-01 2.395552e-01 2.203316e-01 1.366923e-01 3.449856e-01 5.027823e-01 4.663983e-01 4.359542e-01 7.548413e-01 9.650542e-01 1.703385e+00 1.740166e+00 8.444431e-02 1.510944e-01 1.219159e-02 3.535962e-02 8.258177e-02 6.197282e-02 6.185625e-01 1.384566e-01 7.446142e-01 1.185845e-01 6.972661e-01 9.876675e-02 6.702809e-01
<GCONST> 6.832140e+01
<TRANSP> 7
 0.000000e+00 1.000000e+00 0.000000e+00 0.000000e+00 0.000000e+00 0.000000e+00 0.000000e+00
 0.000000e+00 8.505985e-01 1.494016e-01 0.000000e+00 0.000000e+00 0.000000e+00 0.000000e+00
 0.000000e+00 0.000000e+00 0.000000e+00 1.000000e+00 0.000000e+00 0.000000e+00 0.000000e+00
 0.000000e+00 0.000000e+00 0.000000e+00 9.699968e-01 3.000330e-02 0.000000e+00 0.000000e+00
 0.000000e+00 0.000000e+00 0.000000e+00 0.000000e+00 2.500103e-01 7.499898e-01 0.000000e+00
 0.000000e+00 0.000000e+00 0.000000e+00 0.000000e+00 0.000000e+00 8.691860e-01 1.308140e-01
 0.000000e+00 0.000000e+00 0.000000e+00 0.000000e+00 0.000000e+00 0.000000e+00 0.000000e+00
<ENDHMM>
~h "sh"
<BEGINHMM>
<NUMSTATES> 5
<STATE> 2
<NUMMIXES> 2
<MIXTURE> 1 5.868962e-01
<MEAN> 39
 4.656223e+00 -2.179035e+01 1.002574e+01 2.321153e+01 1.179999e+01 2.059648e+01 -1.890092e+00 -1.856903e+00 4.704270e-01 -7.929980e+00 -1.874017e+00 6.658055e-01 1.767094e+00 -2.266824e+00 -4.556673e+00 1.313868e+00 -8.298540e-02 -1.220181e+00 2.755636e+00 1.274578e+00 2.788523e-01 1.943779e+00 8.627411e-01 4.035873e-01 1.083144e+00 9.012442e-01 -8.803782e-02 -3.501988e-01 -5.258273e-01 -4.497667e-01 1.439990e-01 -4.319334e-01 -4.993157e-01 4.161207e-01 -4.084160e-02 -1.885640e-01 3.941059e-01 -2.513470e-02 -1.909901e-01
<VARIANCE> 39
 4.691125e+01 1.604227e+02 6.715496e+01 9.569054e+01 7.462166e+01 6.362357e+01 1.033821e+02 3.825967e+01 4.701524e+01 2.736011e+01 4.548335e+01 3.483545e+01 6.053343e+01 1.291289e+00 4.868645e+00 3.092642e+00 3.637184e+00 2.662292e+00 3.224666e+00 3.041815e+00 2.667457e+00 1.940169e+00 2.075733e+00 2.774790e+00 1.708649e+00 1.720146e+00 1.107281e-01 7.954882e-01 2.576393e-01 2.421049e-01 3.357651e-01 5.425802e-01 3.913337e-01 5.307517e-01 3.573544e-01 4.073409e-01 5.236351e-01 3.448199e-01 2.289279e-01
<GCONST> 1.231528e+02
<MIXTURE> 2 4.131036e-01
<MEAN> 39
 -7.092612e+00 -4.552192e+01 1.082208e+01 1.744749e+01 5.650101e+00 2.684001e+01 -3.168841e+00 6.104937e-01 8.972644e+00 -4.053629e+00 2.766583e+00 4.476713e+00 4.531240e+00 -1.727154e+00 -2.776880e+00 -9.939553e-01 -2.394283e+00 -1.974521e+00 -1.402192e+00 -1.810606e+00 -6.074452e-01 -1.924177e-01 6.123012e-02 -7.631510e-02 -4.128577e-01 2.016514e-01 3.556417e-01 8.256949e-01 -1.365063e-02 9.376051e-02 5.918062e-02 -5.582213e-01 -3.171163e-01 -4.082190e-01 -5.591672e-01 -2.710582e-01 -3.923127e-01 -3.356307e-01 -2.205371e-01
<VARIANCE> 39
 1.582684e+01 2.674611e+01 3.813507e+01 3.553144e+01 3.122890e+01 3.507120e+01 1.161974e+02 2.703598e+01 2.603202e+01 1.659811e+01 2.715805e+01 2.028716e+01 3.144559e+01 8.209242e-01 2.704192e+00 7.877986e-01 9.507075e-01 1.103808e+00 2.796772e+00 1.676590e+00 1.755946e+00 1.829814e+00 1.613659e+00 2.054966e+00 1.787459e+00 1.208491e+00 9.379227e-02 2.839545e-01 1.810911e-01 2.585520e-01 2.888488e-01 6.230005e-01 4.272572e-01 2.703627e-01 2.205143e-01 2.422842e-01 2.739809e-01 2.571205e-01 1.762137e-01
<GCONST> 1.032263e+02
<STATE> 3
<NUMMIXES> 2
<MIXTURE> 1 2.727080e-01
<MEAN> 39
 -9.630863e+00 -5.166050e+01 8.769627e-01 6.138167e+00 -2.699000e+00 2.276099e+01 7.801601e-01 -3.312363e+00 -2.538794e+00 -8.107513e+00 -6.323857e+00 -1.783243e+00 7.549968e+00 -4.570488e-02 1.217730e-02 -7.010590e-02 -1.121221e-01 1.239439e-03 -5.802040e-02 -9.098575e-03 4.740112e-02 -7.077649e-02 -7.366590e-03 1.285688e-02 -1.905583e-02 1.358434e-02 1.271251e-01 2.478277e-01 5.656454e-02 1.105907e-01 3.185672e-02 -3.446373e-02 4.689233e-02 3.558515e-02 1.359632e-01 1.273682e-01 1.543404e-01 1.628301e-01 3.786133e-02
<VARIANCE> 39
 1.347802e+01 4.925476e+01 2.394772e+01 1.449157e+01 9.775021e+00 1.473318e+01 2.628963e+01 2.198335e+01 1.995065e+01 1.796614e+01 1.723904e+01 1.658143e+01 1.064404e+01 7.455255e-01 1.238822e+00 1.027082e+00 5.633857e-01 4.666964e-01 1.025374e+00 1.370213e+00 1.274819e+00 1.347028e+00 1.542907e+00 1.555810e+00 1.227491e+00 7.586818e-01 1.283201e-01 2.824987e-01 1.911428e-01 1.048297e-01 9.205833e-02 1.768115e-01 2.358493e-01 2.353763e-01 2.136526e-01 2.778361e-01 2.886312e-01 2.275978e-01 1.498922e-01
<GCONST> 8.787148e+01
<MIXTURE> 2 7.272921e-01
<MEAN> 39
 -1.171763e+01 -5.013629e+01 8.995260e+00 1.077243e+01 1.772494e-01 1.856605e+01 -1.327952e+01 -5.965865e+00 4.383474e+00 -4.157534e+00 3.511005e-01 8.708887e-01 3.224806e+00 -7.610491e-03 -9.527890e-02 -7.373644e-02 -1.937049e-01 3.240274e-02 3.456457e-02 -7.275853e-02 -8.963482e-02 -2.437453e-01 -8.768462e-02 -1.277011e-01 -3.713166e-02 3.772344e-02 7.252571e-02 1.140161e-01 -2.835570e-02 6.198242e-02 9.701411e-02 1.584229e-01 1.876254e-01 9.916209e-02 1.531959e-02 -5.724769e-02 -2.606648e-02 3.521123e-02 1.991412e-02
<VARIANCE> 39
 1.084794e+01 1.323602e+01 2.440398e+01 1.389297e+01 1.082909e+01 1.399053e+01 5.252332e+01 2.520500e+01 2.485690e+01 2.341246e+01 2.641032e+01 1.799067e+01 1.873695e+01 9.185289e-01 1.625531e+00 1.161790e+00 5.816802e-01 6.153569e-01 1.359051e+00 1.354720e+00 1.226817e+00 1.482173e+00 1.713630e+00 1.938366e+00 1.591907e+00 9.019834e-01 1.633705e-01 2.955675e-01 1.923598e-01 1.092801e-01 1.160064e-01 1.958061e-01 2.006078e-01 1.977282e-01 2.642361e-01 3.251868e-01 3.667325e-01 2.974375e-01 1.726553e-01
<GCONST> 9.210242e+01
<STATE> 4
<NUMMIXES> 2
<MIXTURE> 1 4.723260e-01
<MEAN> 39
 7.892449e+00 -1.762715e+01 8.007641e+00 1.569709e+01 7.036390e+00 1.722724e+01 -4.360541e+00 -8.397306e-01 2.411530e+00 -6.907645e+00 -1.055215e+00 3.641041e+00 4.362167e+00 4.168943e+00 5.337004e+00 -1.902940e+00 1.018436e-01 1.626817e+00 -3.637422e+00 -1.826314e+00 1.317690e+00 -9.108115e-01 -1.446212e+00 4.021804e-01 -4.974270e-01 -1.027419e+00 -2.514691e-01 -1.094219e+00 -1.061375e+00 -6.300234e-01 2.511044e-01 -6.878912e-01 -7.614021e-01 5.573667e-01 -3.943521e-01 -7.306992e-01 3.379124e-01 -7.475714e-02 -2.673033e-01
<VARIANCE> 39
 6.685429e+01 9.981184e+01 4.370505e+01 2.725458e+01 2.391343e+01 5.528550e+01 5.926842e+01 3.378312e+01 2.085749e+01 1.878456e+01 2.881863e+01 1.491634e+01 1.943529e+01 1.884790e+00 6.334424e+00 7.130538e+00 3.185143e+00 1.622010e+00 3.767518e+00 3.732347e+00 2.882390e+00 2.380646e+00 3.462071e+00 1.848486e+00 1.216948e+00 1.344474e+00 4.266139e-01 7.446367e-01 5.543851e-01 2.735946e-01 2.484639e-01 6.370350e-01 4.042676e-01 3.315958e-01 3.209271e-01 3.224883e-01 2.561079e-01 2.385332e-01 1.936457e-01
<GCONST> 1.167694e+02
<MIXTURE> 2 5.276740e-01
<MEAN> 39
 -7.682001e+00 -4.392039e+01 5.144379e+00 8.710190e+00 2.270532e+00 2.382433e+01 -4.393831e+00 -1.932344e+00 2.327984e+00 -7.155307e+00 -1.656782e+00 3.109489e+00 6.032126e+00 1.993935e+00 4.184396e+00 4.820273e-01 1.341996e+00 8.682292e-01 1.737471e-01 1.255619e+00 3.826989e-01 4.216836e-01 8.083586e-02 -1.335780e-02 6.936207e-01 2.504369e-01 6.402227e-01 1.167337e+00 2.476367e-01 3.243020e-01 1.682112e-01 -5.455966e-01 -2.547358e-01 -1.669423e-02 6.102026e-03 1.535875e-01 4.157279e-02 -1.355275e-01 -1.240357e-01
<VARIANCE> 39
 1.968415e+01 5.577671e+01 4.451576e+01 4.591998e+01 2.765665e+01 3.635211e+01 8.626308e+01 3.931105e+01 2.599641e+01 1.860337e+01 3.096023e+01 2.118487e+01 1.996629e+01 2.368462e+00 3.950323e+00 1.928578e+00 1.597025e+00 1.117744e+00 2.022646e+00 1.719192e+00 1.544087e+00 1.280329e+00 1.628837e+00 1.391959e+00 1.229976e+00 8.957161e-01 2.019905e-01 3.039410e-01 2.943411e-01 2.002783e-01 1.783002e-01 4.190717e-01 3.982123e-01 2.842024e-01 2.770322e-01 2.765505e-01 2.160911e-01 2.582779e-01 1.851923e-01
<GCONST> 1.057845e+02
<TRANSP> 5
 0.000000e+00 1.000000e+00 0.000000e+00 0.000000e+00 0.000000e+00
 0.000000e+00 8.857487e-01 1.142513e-01 0.000000e+00 0.000000e+00
 0.000000e+00 0.000000e+00 9.450381e-01 5.496189e-02 0.000000e+00
 0.000000e+00 0.000000e+00 0.000000e+00 8.666183e-01 1.333818e-01
 0.000000e+00 0.000000e+00 0.000000e+00 0.000000e+00 0.000000e+00
<ENDHMM>
~h "sp"
<BEGINHMM>
<NUMSTATES> 5
<STATE> 2
<NUMMIXES> 2
<MIXTURE> 1 5.000000e-01
<MEAN> 39
 5.098849e+00 -6.514025e+00 2.430083e+00 1.092778e+01 1.083864e+01 1.500667e+00 -1.140838e+01 9.359310e+00 -3.377835e+00 -1.113024e+01 6.044074e+00 -4.088247e-01 -3.646332e+00 -1.380477e-02 1.475701e-03 -1.072459e-03 -5.524765e-03 -3.099398e-03 2.005852e-03 8.190720e-04 -5.087083e-03 2.488556e-03 5.650900e-03 -1.806995e-03 5.936168e-04 1.443354e-03 -1.213556e-03 -1.404243e-04 -1.926630e-04 -5.029775e-04 -4.298560e-04 2.249404e-04 5.535607e-04 -2.933974e-04 7.204357e-05 8.173331e-04 -1.603794e-04 -1.434907e-04 3.551734e-04
<VARIANCE> 39
 2.696502e+02 1.642264e+02 1.776205e+02 1.699619e+02 1.712323e+02 1.501611e+02 1.653076e+02 1.112998e+02 8.102897e+01 1.132308e+02 1.038732e+02 3.576029e+01 7.139818e+01 2.864393e+00 3.049235e+00 2.950589e+00 2.442850e+00 2.488132e+00 2.882445e+00 3.574063e+00 2.837703e+00 2.254665e+00 3.083899e+00 2.848865e+00 1.410452e+00 1.706605e+00 2.059384e-01 2.861855e-01 3.165202e-01 2.798763e-01 2.958655e-01 3.292713e-01 4.082396e-01 3.875320e-01 3.475762e-01 4.161765e-01 3.917231e-01 2.236369e-01 2.362328e-01
<GCONST> 1.313330e+02
<MIXTURE> 2 5.000000e-01
<MEAN> 39
 5.098849e+00 -6.514025e+00 2.430083e+00 1.092778e+01 1.083864e+01 1.500667e+00 -1.140838e+01 9.359310e+00 -3.377835e+00 -1.113024e+01 6.044074e+00 -4.088247e-01 -3.646332e+00 -1.380477e-02 1.475701e-03 -1.072459e-03 -5.524765e-03 -3.099398e-03 2.005852e-03 8.190720e-04 -5.087083e-03 2.488556e-03 5.650900e-03 -1.806995e-03 5.936168e-04 1.443354e-03 -1.213556e-03 -1.404243e-04 -1.926630e-04 -5.029775e-04 -4.298560e-04 2.249404e-04 5.535607e-04 -2.933974e-04 7.204357e-05 8.173331e-04 -1.603794e-04 -1.434907e-04 3.551734e-04
<VARIANCE> 39
 2.696502e+02 1.642264e+02 1.776205e+02 1.699619e+02 1.712323e+02 1.501611e+02 1.653076e+02 1.112998e+02 8.102897e+01 1.132308e+02 1.038732e+02 3.576029e+01 7.139818e+01 2.864393e+00 3.049235e+00 2.950589e+00 2.442850e+00 2.488132e+00 2.882445e+00 3.574063e+00 2.837703e+00 2.254665e+00 3.083899e+00 2.848865e+00 1.410452e+00 1.706605e+00 2.059384e-01 2.861855e-01 3.165202e-01 2.798763e-01 2.958655e-01 3.292713e-01 4.082396e-01 3.875320e-01 3.475762e-01 4.161765e-01 3.917231e-01 2.236369e-01 2.362328e-01
<GCONST> 1.313330e+02
<STATE> 3
<NUMMIXES> 2
<MIXTURE> 1 5.000000e-01
<MEAN> 39
 5.098849e+00 -6.514025e+00 2.430083e+00 1.092778e+01 1.083864e+01 1.500667e+00 -1.140838e+01 9.359310e+00 -3.377835e+00 -1.113024e+01 6.044074e+00 -4.088247e-01 -3.646332e+00 -1.380477e-02 1.475701e-03 -1.072459e-03 -5.524765e-03 -3.099398e-03 2.005852e-03 8.190720e-04 -5.087083e-03 2.488556e-03 5.650900e-03 -1.806995e-03 5.936168e-04 1.443354e-03 -1.213556e-03 -1.404243e-04 -1.926630e-04 -5.029775e-04 -4.298560e-04 2.249404e-04 5.535607e-04 -2.933974e-04 7.204357e-05 8.173331e-04 -1.603794e-04 -1.434907e-04 3.551734e-04
<VARIANCE> 39
 2.696502e+02 1.642264e+02 1.776205e+02 1.699619e+02 1.712323e+02 1.501611e+02 1.653076e+02 1.112998e+02 8.102897e+01 1.132308e+02 1.038732e+02 3.576029e+01 7.139818e+01 2.864393e+00 3.049235e+00 2.950589e+00 2.442850e+00 2.488132e+00 2.882445e+00 3.574063e+00 2.837703e+00 2.254665e+00 3.083899e+00 2.848865e+00 1.410452e+00 1.706605e+00 2.059384e-01 2.861855e-01 3.165202e-01 2.798763e-01 2.958655e-01 3.292713e-01 4.082396e-01 3.875320e-01 3.475762e-01 4.161765e-01 3.917231e-01 2.236369e-01 2.362328e-01
<GCONST> 1.313330e+02
<MIXTURE> 2 5.000000e-01
<MEAN> 39
 5.098849e+00 -6.514025e+00 2.430083e+00 1.092778e+01 1.083864e+01 1.500667e+00 -1.140838e+01 9.359310e+00 -3.377835e+00 -1.113024e+01 6.044074e+00 -4.088247e-01 -3.646332e+00 -1.380477e-02 1.475701e-03 -1.072459e-03 -5.524765e-03 -3.099398e-03 2.005852e-03 8.190720e-04 -5.087083e-03 2.488556e-03 5.650900e-03 -1.806995e-03 5.936168e-04 1.443354e-03 -1.213556e-03 -1.404243e-04 -1.926630e-04 -5.029775e-04 -4.298560e-04 2.249404e-04 5.535607e-04 -2.933974e-04 7.204357e-05 8.173331e-04 -1.603794e-04 -1.434907e-04 3.551734e-04
<VARIANCE> 39
 2.696502e+02 1.642264e+02 1.776205e+02 1.699619e+02 1.712323e+02 1.501611e+02 1.653076e+02 1.112998e+02 8.102897e+01 1.132308e+02 1.038732e+02 3.576029e+01 7.139818e+01 2.864393e+00 3.049235e+00 2.950589e+00 2.442850e+00 2.488132e+00 2.882445e+00 3.574063e+00 2.837703e+00 2.254665e+00 3.083899e+00 2.848865e+00 1.410452e+00 1.706605e+00 2.059384e-01 2.861855e-01 3.165202e-01 2.798763e-01 2.958655e-01 3.292713e-01 4.082396e-01 3.875320e-01 3.475762e-01 4.161765e-01 3.917231e-01 2.236369e-01 2.362328e-01
<GCONST> 1.313330e+02
<STATE> 4
<NUMMIXES> 2
<MIXTURE> 1 5.000000e-01
<MEAN> 39
 5.098849e+00 -6.514025e+00 2.430083e+00 1.092778e+01 1.083864e+01 1.500667e+00 -1.140838e+01 9.359310e+00 -3.377835e+00 -1.113024e+01 6.044074e+00 -4.088247e-01 -3.646332e+00 -1.380477e-02 1.475701e-03 -1.072459e-03 -5.524765e-03 -3.099398e-03 2.005852e-03 8.190720e-04 -5.087083e-03 2.488556e-03 5.650900e-03 -1.806995e-03 5.936168e-04 1.443354e-03 -1.213556e-03 -1.404243e-04 -1.926630e-04 -5.029775e-04 -4.298560e-04 2.249404e-04 5.535607e-04 -2.933974e-04 7.204357e-05 8.173331e-04 -1.603794e-04 -1.434907e-04 3.551734e-04
<VARIANCE> 39
 2.696502e+02 1.642264e+02 1.776205e+02 1.699619e+02 1.712323e+02 1.501611e+02 1.653076e+02 1.112998e+02 8.102897e+01 1.132308e+02 1.038732e+02 3.576029e+01 7.139818e+01 2.864393e+00 3.049235e+00 2.950589e+00 2.442850e+00 2.488132e+00 2.882445e+00 3.574063e+00 2.837703e+00 2.254665e+00 3.083899e+00 2.848865e+00 1.410452e+00 1.706605e+00 2.059384e-01 2.861855e-01 3.165202e-01 2.798763e-01 2.958655e-01 3.292713e-01 4.082396e-01 3.875320e-01 3.475762e-01 4.161765e-01 3.917231e-01 2.236369e-01 2.362328e-01
<GCONST> 1.313330e+02
<MIXTURE> 2 5.000000e-01
<MEAN> 39
 5.098849e+00 -6.514025e+00 2.430083e+00 1.092778e+01 1.083864e+01 1.500667e+00 -1.140838e+01 9.359310e+00 -3.377835e+00 -1.113024e+01 6.044074e+00 -4.088247e-01 -3.646332e+00 -1.380477e-02 1.475701e-03 -1.072459e-03 -5.524765e-03 -3.099398e-03 2.005852e-03 8.190720e-04 -5.087083e-03 2.488556e-03 5.650900e-03 -1.806995e-03 5.936168e-04 1.443354e-03 -1.213556e-03 -1.404243e-04 -1.926630e-04 -5.029775e-04 -4.298560e-04 2.249404e-04 5.535607e-04 -2.933974e-04 7.204357e-05 8.173331e-04 -1.603794e-04 -1.434907e-04 3.551734e-04
<VARIANCE> 39
 2.696502e+02 1.642264e+02 1.776205e+02 1.699619e+02 1.712323e+02 1.501611e+02 1.653076e+02 1.112998e+02 8.102897e+01 1.132308e+02 1.038732e+02 3.576029e+01 7.139818e+01 2.864393e+00 3.049235e+00 2.950589e+00 2.442850e+00 2.488132e+00 2.882445e+00 3.574063e+00 2.837703e+00 2.254665e+00 3.083899e+00 2.848865e+00 1.410452e+00 1.706605e+00 2.059384e-01 2.861855e-01 3.165202e-01 2.798763e-01 2.958655e-01 3.292713e-01 4.082396e-01 3.875320e-01 3.475762e-01 4.161765e-01 3.917231e-01 2.236369e-01 2.362328e-01
<GCONST> 1.313330e+02
<TRANSP> 5
 0.000000e+00 1.000000e+00 0.000000e+00 0.000000e+00 0.000000e+00
 0.000000e+00 6.000000e-01 4.000000e-01 0.000000e+00 0.000000e+00
 0.000000e+00 0.000000e+00 6.000000e-01 4.000000e-01 0.000000e+00
 0.000000e+00 0.000000e+00 0.000000e+00 6.000000e-01 4.000000e-01
 0.000000e+00 0.000000e+00 0.000000e+00 0.000000e+00 0.000000e+00
<ENDHMM>
~h "sx"
<BEGINHMM>
<NUMSTATES> 5
<STATE> 2
<NUMMIXES> 2
<MIXTURE> 1 6.590329e-01
<MEAN> 39
 4.855526e+00 -2.408036e+01 6.952034e+00 1.945032e+01 1.025132e+01 2.146750e+01 -3.086501e+00 -3.740978e+00 1.459818e+00 -5.885669e+00 3.667214e-01 3.368447e+00 3.103360e+00 -2.166009e+00 -4.872537e+00 1.844108e+00 5.206302e-01 -9.352652e-01 3.045214e+00 1.522962e+00 4.513131e-01 1.680883e+00 6.089978e-01 1.387219e-01 5.266052e-01 3.247336e-01 -1.368221e-01 -2.511307e-01 -5.430078e-01 -5.669627e-01 1.579119e-01 -4.710429e-01 -5.041032e-01 4.611632e-01 -8.272697e-02 -2.262684e-01 3.196564e-01 -4.671416e-02 -1.517482e-01
<VARIANCE> 39
 5.489612e+01 1.418386e+02 1.016988e+02 9.888374e+01 6.591862e+01 4.698888e+01 8.104275e+01 3.259566e+01 2.705398e+01 2.501683e+01 3.202240e+01 2.367664e+01 4.649438e+01 1.395157e+00 1.938721e+00 2.581752e+00 3.798109e+00 1.870370e+00 2.405927e+00 2.562873e+00 2.822022e+00 1.913971e+00 1.884161e+00 1.835830e+00 9.865572e-01 2.016887e+00 1.119626e-01 6.758991e-01 2.874743e-01 1.606645e-01 2.590521e-01 4.250329e-01 3.674120e-01 5.346414e-01 3.297020e-01 3.784239e-01 3.569225e-01 2.112863e-01 3.004125e-01
<GCONST> 1.167385e+02
<MIXTURE> 2 3.409671e-01
<MEAN> 39
 -3.790659e+00 -4.264677e+01 1.068583e+01 1.794336e+01 8.038622e+00 2.968640e+01 7.654071e-03 1.271247e+00 8.243550e+00 -3.226838e+00 3.044394e+00 5.019111e+00 4.172430e+00 -2.044374e+00 -3.482401e+00 -9.062088e-01 -2.441044e+00 -1.536946e+00 -6.138846e-01 -1.359672e+00 1.399489e-01 1.991941e-01 4.163834e-01 2.492931e-01 -1.272953e-01 5.004950e-01 2.275809e-01 6.924090e-01 -1.563447e-01 -2.539101e-01 -2.086416e-01 -7.270530e-01 -4.375062e-01 -4.514580e-01 -6.075100e-01 -2.181960e-01 -3.095074e-01 -2.985124e-01 -1.621217e-02
<VARIANCE> 39
 1.571669e+01 2.608748e+01 3.954352e+01 2.013698e+01 2.390552e+01 2.237269e+01 9.291737e+01 2.274123e+01 2.021640e+01 1.701736e+01 1.946335e+01 1.940304e+01 2.258075e+01 5.280589e-01 1.432079e+00 6.316548e-01 7.323412e-01 8.192379e-01 1.734045e+00 1.353557e+00 1.792333e+00 1.259502e+00 1.741890e+00 1.270067e+00 1.109369e+00 8.336315e-01 7.421422e-02 1.585686e-01 1.098956e-01 1.733138e-01 1.538106e-01 2.752226e-01 3.214905e-01 2.090313e-01 2.324052e-01 2.464599e-01 1.223501e-01 1.390683e-01 1.742756e-01
<GCONST> 9.139043e+01
<STATE> 3
<NUMMIXES> 2
<MIXTURE> 1 0.000000e+00
<MEAN> 39
 -2.589639e+01 -8.086056e+00 -5.842546e+00 -8.568189e-01 -1.132706e+00 3.758358e+00 -1.747407e+00 1.918359e-01 -6.092826e+00 -6.091179e+00 1.424222e+00 3.768395e+00 2.979695e+00 -8.323479e-02 1.047209e-01 -1.360199e-01 -2.555425e-01 -5.355441e-01 -6.853368e-01 -3.608705e-01 5.298619e-01 1.221652e+00 9.246182e-01 7.676374e-01 2.320677e-01 -1.368400e-01 1.882693e-01 1.151544e-01 2.240881e-02 -1.060433e-01 -1.462484e-01 -2.573616e-01 -1.659429e-01 2.528915e-02 -1.167465e-01 2.891361e-01 2.165567e-02 -2.161635e-01 -3.127986e-01
<VARIANCE> 39
 1.924733e+00 6.048767e+00 3.232208e+00 4.033120e+00 1.022189e+01 1.084621e+01 4.412310e+00 5.510023e+00 1.363655e+01 1.911531e+01 8.857162e+00 2.420563e+01 2.668977e+00 1.241993e-01 4.406725e-01 7.311630e-01 1.078301e+00 8.011302e-01 7.876549e-01 8.789538e-01 2.311564e+00 2.261892e+00 1.462139e+00 1.491107e+00 1.320726e+00 1.260225e+00 7.360157e-02 9.111705e-02 1.334201e-01 2.809681e-01 3.253425e-01 1.084391e-01 1.206654e-01 2.485622e-01 1.709281e-01 1.943447e-01 3.101693e-01 2.409264e-01 2.716875e-01
<GCONST> 7.328081e+01
<MIXTURE> 2 1.000000e+00
<MEAN> 39
 -1.110887e+01 -5.049816e+01 8.568081e+00 7.358549e+00 1.786188e+00 2.149902e+01 -1.276495e+01 -3.514827e+00 4.684777e+00 -4.078536e+00 1.684955e+00 1.931417e+00 3.808431e+00 -3.003106e-01 -2.987065e-01 1.117302e-01 -5.606089e-01 -3.809832e-01 -3.773330e-01 -4.193428e-01 -1.014549e-01 -4.412225e-01 -2.771460e-01 -3.377762e-01 -2.643590e-01 9.620121e-02 1.338702e-01 2.675667e-01 7.952073e-03 1.526119e-01 1.104924e-01 6.514199e-02 1.402001e-01 6.217542e-02 1.219953e-02 -4.708362e-02 -4.225171e-02 3.514096e-02 8.819197e-03
<VARIANCE> 39
 1.159307e+01 2.215774e+01 3.075277e+01 1.418093e+01 1.522541e+01 2.115257e+01 6.621368e+01 2.585168e+01 1.674784e+01 1.937134e+01 2.158079e+01 1.921509e+01 1.630416e+01 1.122303e+00 2.172652e+00 1.595014e+00 1.054498e+00 9.235507e-01 2.039148e+00 1.672674e+00 1.406796e+00 1.539548e+00 1.546679e+00 1.426982e+00 1.172002e+00 7.430974e-01 1.499308e-01 3.865108e-01 2.127476e-01 1.381838e-01 1.492588e-01 2.846574e-01 1.924171e-01 2.343531e-01 2.696500e-01 3.006611e-01 2.693649e-01 2.020794e-01 1.360635e-01
<GCONST> 9.505923e+01
<STATE> 4
<NUMMIXES> 2
<MIXTURE> 1 4.245855e-01
<MEAN> 39
 -6.495770e+00 -2.617005e+01 4.135417e+00 1.094632e+01 1.922795e+00 1.433767e+01 -5.288626e+00 7.498248e-01 5.130106e+00 -5.882409e+00 -3.058275e+00 3.503098e+00 6.739846e+00 1.321748e+00 4.966968e+00 -1.374452e+00 1.967122e-01 1.058363e+00 -2.024559e+00 2.437279e-01 7.080954e-01 -4.992552e-01 6.116897e-02 5.635402e-02 -2.447793e-01 -1.166389e-01 -2.188993e-02 -2.037039e-01 -3.080469e-01 -4.142377e-01 1.142130e-01 -3.418610e-01 -4.331154e-01 1.421568e-01 -3.065262e-01 -2.009123e-01 1.962778e-01 -1.218412e-01 -1.735010e-01
<VARIANCE> 39
 1.800118e+02 1.477139e+02 7.271989e+01 3.099374e+01 3.917428e+01 1.218592e+02 5.536840e+01 2.496290e+01 4.448995e+01 4.028790e+01 3.430125e+01 2.261623e+01 1.563852e+01 8.569304e+00 4.804496e+00 4.123687e+00 3.060088e+00 1.648495e+00 2.975751e+00 4.645170e+00 1.771939e+00 2.395937e+00 2.184530e+00 2.123075e+00 1.392250e+00 1.696075e+00 3.924242e-01 1.025213e+00 7.850237e-01 3.373151e-01 2.967722e-01 6.500803e-01 5.017178e-01 3.507022e-01 2.810691e-01 3.722525e-01 2.794622e-01 2.355536e-01 2.993704e-01
<GCONST> 1.235952e+02
<MIXTURE> 2 5.754144e-01
<MEAN> 39
 -1.128902e+01 -5.059435e+01 7.591730e+00 5.958056e+00 -1.135925e+00 1.990331e+01 -7.497241e+00 -1.279545e+00 6.226754e-01 -6.351521e+00 -3.904926e+00 -2.951968e-01 7.771409e+00 2.350198e-01 9.669534e-01 7.757217e-03 3.357345e-01 2.587816e-03 -1.893774e-01 1.634068e-01 8.680263e-02 3.054704e-01 -9.656414e-02 -3.257297e-02 3.316993e-01 7.032620e-02 2.009185e-01 5.025924e-01 -4.352771e-02 1.423407e-01 4.964659e-02 -6.532262e-02 1.363133e-01 2.730352e-02 1.394787e-01 8.425921e-02 5.800246e-02 9.501082e-02 -1.963929e-02
<VARIANCE> 39
 1.679463e+01 2.262305e+01 4.579545e+01 1.618914e+01 7.301727e+00 2.493394e+01 5.785087e+01 1.537113e+01 2.239701e+01 2.149030e+01 1.757131e+01 1.898821e+01 9.562169e+00 1.431896e+00 3.653790e+00 1.611252e+00 6.339176e-01 5.911715e-01 1.429728e+00 1.706887e+00 1.146289e+00 1.439305e+00 1.470522e+00 1.524243e+00 1.444498e+00 8.401198e-01 1.997461e-01 5.292884e-01 2.753767e-01 1.333794e-01 9.593168e-02 2.202519e-01 1.957095e-01 2.140253e-01 2.345572e-01 2.740366e-01 3.065525e-01 2.763470e-01 1.538711e-01
<GCONST> 9.434306e+01
<TRANSP> 5
 0.000000e+00 1.000000e+00 0.000000e+00 0.000000e+00 0.000000e+00
 0.000000e+00 8.594040e-01 1.405959e-01 0.000000e+00 0.000000e+00
 0.000000e+00 0.000000e+00 9.029268e-01 9.707321e-02 0.000000e+00
 0.000000e+00 0.000000e+00 0.000000e+00 9.291161e-01 7.088393e-02
 0.000000e+00 0.000000e+00 0.000000e+00 0.000000e+00 0.000000e+00
<ENDHMM>
~h "th"
<BEGINHMM>
<NUMSTATES> 5
<STATE> 2
<NUMMIXES> 2
<MIXTURE> 1 0.000000e+00
<MEAN> 39
 -3.886223e-05 -1.931190e-05 5.215406e-07 8.761883e-06 -2.145767e-06 5.111098e-06 8.314848e-06 2.488494e-06 -7.539988e-06 1.132488e-06 -3.003515e-07 5.424023e-06 -4.022149e-08 1.873821e-06 -4.437752e-07 5.909242e-07 1.825392e-07 -4.018657e-07 -3.222376e-07 3.189780e-07 -5.820766e-11 -6.482005e-07 -5.755574e-07 -2.846355e-08 6.949995e-08 9.033829e-08 -3.673423e-02 3.657988e-03 -6.203171e-03 1.457151e-03 -7.559096e-04 -1.241736e-03 -9.468020e-04 -1.675523e-03 -7.280131e-04 -1.245679e-03 7.821736e-05 -6.539826e-04 -5.843351e-06
<VARIANCE> 39
 6.791949e-05 0.000000e+00 1.187436e-07 1.545995e-06 3.539026e-07 4.889444e-07 7.301569e-06 3.557652e-07 0.000000e+00 0.000000e+00 0.000000e+00 3.034249e-06 1.224976e-10 0.000000e+00 0.000000e+00 8.043571e-09 0.000000e+00 0.000000e+00 0.000000e+00 2.622983e-09 1.563194e-12 0.000000e+00 0.000000e+00 0.000000e+00 0.000000e+00 0.000000e+00 2.939744e-02 1.510691e-03 1.924523e-03 1.205781e-03 1.539571e-03 1.394400e-03 1.598690e-03 1.480532e-03 1.398113e-03 1.215753e-03 1.174650e-03 9.854551e-04 6.629324e-04
<GCONST> -1.400000e+11
<MIXTURE> 2 1.000000e+00
<MEAN> 39
 -2.229324e+01 -4.214704e+00 -3.155511e+00 -7.654596e-01 -8.798031e-01 2.869874e+00 -3.041740e+00 1.969130e+00 -2.126101e+00 -1.643363e+00 1.249509e+00 -4.208334e-01 1.106562e+00 -4.281880e-01 -1.350281e-02 -2.088261e-01 4.788660e-02 -1.994013e-01 -1.773433e-01 2.412372e-01 -1.132828e-01 2.357462e-01 3.605377e-01 -1.821328e-01 4.127100e-02 1.635769e-01 1.677762e-01 -1.393939e-01 6.847167e-02 5.672338e-02 1.472218e-01 1.528176e-01 -9.469412e-03 1.541517e-01 2.671407e-02 -4.769418e-02 6.958811e-02 7.408401e-02 1.292909e-01
<VARIANCE> 39
 1.019577e+02 3.598704e+01 2.611591e+01 3.368829e+01 3.705340e+01 2.144053e+01 1.402296e+01 1.540678e+01 1.537646e+01 1.368361e+01 1.189623e+01 1.012569e+01 8.850112e+00 1.862728e+00 9.077441e-01 1.263404e+00 1.362622e+00 1.615126e+00 1.693226e+00 2.134448e+00 1.396464e+00 1.534014e+00 1.579966e+00 1.387285e+00 1.180686e+00 1.392726e+00 1.145117e-01 2.465742e-01 2.528339e-01 1.812344e-01 2.376876e-01 3.048150e-01 2.825724e-01 2.815010e-01 2.851903e-01 2.698095e-01 3.071890e-01 2.231593e-01 2.418336e-01
<GCONST> 9.744444e+01
<STATE> 3
<NUMMIXES> 2
<MIXTURE> 1 0.000000e+00
<MEAN> 39
 0.000000e+00 0.000000e+00 0.000000e+00 0.000000e+00 0.000000e+00 0.000000e+00 0.000000e+00 0.000000e+00 0.000000e+00 0.000000e+00 0.000000e+00 0.000000e+00 0.000000e+00 7.602786e-28 -6.781300e-28 2.817260e-28 -2.260459e-29 5.468585e-29 -1.506301e-28 1.148696e-28 -2.120465e-29 7.979356e-30 -5.320312e-29 5.792728e-29 -1.833769e-29 3.866608e-31 -4.988265e-02 4.965165e-03 -7.294576e-03 2.466788e-03 2.788171e-04 -1.618284e-03 -9.823618e-04 -1.922494e-03 -5.035132e-04 -1.812430e-03 -3.375670e-05 -6.368760e-04 -8.684045e-05
<VARIANCE> 39
 0.000000e+00 0.000000e+00 0.000000e+00 0.000000e+00 0.000000e+00 0.000000e+00 0.000000e+00 0.000000e+00 0.000000e+00 0.000000e+00 0.000000e+00 0.000000e+00 0.000000e+00 8.953985e-28 7.123556e-28 1.229489e-28 7.915240e-31 4.632556e-30 3.514752e-29 2.044002e-29 6.965190e-31 9.862945e-32 4.384753e-30 5.198011e-30 5.209071e-31 2.315961e-34 4.486060e-02 3.359458e-03 3.289693e-03 2.491937e-03 2.905590e-03 2.327311e-03 2.783720e-03 2.963404e-03 2.648251e-03 2.054753e-03 2.260878e-03 1.761504e-03 1.385205e-03
<GCONST> -1.300000e+11
<MIXTURE> 2 1.000000e+00
<MEAN> 39
 -1.012417e+01 -2.387102e+00 1.565873e+00 7.447216e+00 6.153518e+00 8.923835e+00 6.687297e-01 7.438171e+00 2.988102e+00 7.846768e-01 1.221797e+00 4.136614e-01 7.335585e+00 8.938572e-01 -2.169119e+00 -4.650214e-01 -7.266407e-01 -1.145545e+00 1.404331e-02 -4.214795e-01 4.045454e-01 4.968176e-01 6.226747e-01 7.301246e-01 -4.800512e-01 3.632611e-01 6.323993e-01 -2.605860e-01 8.836865e-02 -3.052412e-01 -2.325293e-01 1.959021e-02 -3.801448e-01 -1.552489e-01 -5.866341e-01 -3.533485e-01 4.837586e-01 -1.157799e-01 -3.101659e-01
<VARIANCE> 39
 6.023664e+01 6.065284e+01 2.882158e+01 3.045941e+01 3.846434e+01 2.654787e+01 2.492085e+01 2.850955e+01 3.625107e+01 2.780470e+01 2.004276e+01 2.311045e+01 2.793304e+01 8.511991e+00 2.841419e+00 2.458979e+00 3.528050e+00 3.448228e+00 2.256751e+00 3.233083e+00 3.126673e+00 5.405948e+00 2.867215e+00 3.661544e+00 2.387245e+00 4.062827e+00 3.346640e-01 3.620151e-01 4.345289e-01 4.747402e-01 5.052745e-01 4.096534e-01 4.022952e-01 5.853814e-01 1.072696e+00 5.722197e-01 4.582254e-01 4.602363e-01 6.657560e-01
<GCONST> 1.233970e+02
<STATE> 4
<NUMMIXES> 2
<MIXTURE> 1 4.780063e-01
<MEAN> 39
 6.318436e+00 -1.675611e+01 1.009793e+00 -1.550377e-01 -1.773554e+00 8.147639e+00 -8.845813e+00 7.021337e+00 -7.802860e+00 -6.178136e+00 1.531848e+01 -9.116614e-01 4.051601e+00 1.109726e+00 -9.066721e-01 2.858248e-01 -5.566111e-01 -5.390110e-01 5.223296e-01 -1.748576e-01 -3.536439e-01 -1.627672e+00 -7.786126e-01 1.681248e+00 7.551919e-01 4.065008e-02 -6.071768e-01 4.962603e-01 -2.128116e-01 5.258766e-01 4.614495e-01 -2.035028e-02 6.409283e-01 1.651521e-01 6.956912e-01 4.587250e-01 -5.057850e-01 2.972459e-01 2.217952e-01
<VARIANCE> 39
 7.446562e+01 2.770967e+01 4.452664e+01 5.582558e+01 7.184084e+01 1.074437e+02 9.159875e+01 9.457621e+01 3.997129e+01 1.429074e+02 4.133048e+01 2.706287e+01 3.729737e+01 3.271221e+00 2.348073e+00 1.965298e+00 3.467095e+00 2.456629e+00 3.532929e+00 5.235229e+00 2.847432e+00 7.012968e+00 5.521981e+00 5.328666e+00 1.637235e+00 1.574627e+00 2.953404e-01 2.267193e-01 3.079134e-01 4.406749e-01 3.192331e-01 4.226854e-01 5.434298e-01 4.552248e-01 8.129548e-01 7.483481e-01 5.303127e-01 3.431524e-01 3.594700e-01
<GCONST> 1.282073e+02
<MIXTURE> 2 5.219938e-01
<MEAN> 39
 5.599634e+00 -1.357158e+01 -3.260169e+00 7.646791e-01 -4.717350e+00 9.856129e+00 4.291651e+00 7.889314e+00 -3.617941e+00 2.615830e+00 1.590828e+01 3.610700e+00 7.083022e+00 7.457674e-01 1.608428e+00 -2.952928e-01 9.806368e-01 8.287063e-01 -6.746100e-01 8.221386e-01 7.440554e-01 5.967433e-01 -8.827585e-02 -5.653424e-01 -4.704631e-02 -6.458538e-01 2.199624e-01 1.541530e-01 1.894116e-01 -2.071267e-03 7.313787e-02 -2.839516e-01 -4.837082e-01 1.279665e-01 -1.251353e-01 -3.819580e-01 -5.507025e-02 -2.613778e-01 -2.435944e-01
<VARIANCE> 39
 8.661993e+01 4.960653e+01 5.479563e+01 5.091369e+01 1.031331e+02 8.450008e+01 4.182318e+01 4.641676e+01 3.765364e+01 4.602056e+01 4.871755e+01 3.130877e+01 2.129670e+01 1.269431e+00 2.952825e+00 2.559004e+00 2.685540e+00 3.777478e+00 2.520442e+00 3.676898e+00 2.285788e+00 2.355492e+00 3.058192e+00 2.563576e+00 2.307378e+00 1.689531e+00 1.370920e-01 3.089962e-01 3.272237e-01 2.590846e-01 4.092063e-01 4.679193e-01 4.930085e-01 4.377472e-01 3.796935e-01 3.858113e-01 3.687179e-01 3.375217e-01 2.545840e-01
<GCONST> 1.201858e+02
<TRANSP> 5
 0.000000e+00 1.000000e+00 0.000000e+00 0.000000e+00 0.000000e+00
 0.000000e+00 7.861591e-01 2.138409e-01 0.000000e+00 0.000000e+00
 0.000000e+00 0.000000e+00 8.528718e-01 1.471281e-01 0.000000e+00
 0.000000e+00 0.000000e+00 0.000000e+00 9.095472e-01 9.045286e-02
 0.000000e+00 0.000000e+00 0.000000e+00 0.000000e+00 0.000000e+00
<ENDHMM>
~h "tx"
<BEGINHMM>
<NUMSTATES> 5
<STATE> 2
<NUMMIXES> 2
<MIXTURE> 1 5.832300e-01
<MEAN> 39
 -1.808605e+01 -5.274656e+00 2.873260e+00 4.865561e+00 2.009569e+00 6.220087e+00 -2.674729e+00 4.187226e+00 -1.141198e+00 -4.384824e+00 -1.132836e+00 -8.815662e-01 3.447082e+00 -2.240463e-01 -7.661831e-01 -1.581411e+00 7.828842e-01 1.048625e+00 3.626843e-02 5.314010e-01 5.649330e-01 1.145895e+00 6.070166e-01 -4.634925e-01 3.477122e-01 1.304976e+00 6.117209e-01 -5.702790e-01 2.395202e-01 6.843148e-02 1.639378e-02 2.272391e-01 -6.309476e-02 2.886023e-01 2.446513e-01 1.328204e-01 3.835164e-02 -1.024258e-01 1.602571e-01
<VARIANCE> 39
 9.609717e+01 1.194278e+02 6.879436e+01 6.949134e+01 8.052904e+01 2.878453e+01 3.209221e+01 2.915053e+01 3.072702e+01 2.622878e+01 3.132729e+01 1.980951e+01 2.071192e+01 5.297285e+00 7.921729e+00 7.036870e+00 4.179567e+00 5.432123e+00 3.468214e+00 2.769974e+00 3.050519e+00 2.827869e+00 2.254620e+00 2.308303e+00 1.604871e+00 3.175667e+00 2.729553e-01 5.190018e-01 8.862647e-01 4.421625e-01 5.367888e-01 3.900584e-01 3.436679e-01 4.133163e-01 4.154970e-01 3.473400e-01 4.552161e-01 2.716756e-01 4.414886e-01
<GCONST> 1.254966e+02
<MIXTURE> 2 4.167699e-01
<MEAN> 39
 -2.657061e+01 -6.379383e+00 -4.912851e+00 -2.804491e+00 -3.661085e+00 8.825194e-01 -3.585388e+00 9.773343e-01 -1.620017e+00 -7.491826e-01 4.889153e-01 -1.053414e+00 5.692698e-01 4.976064e-03 -2.054157e-02 -9.103477e-02 1.689893e-01 1.448576e-01 -9.701122e-02 -1.537638e-02 9.129836e-02 1.480132e-01 5.640198e-02 -1.496865e-01 -1.766960e-02 1.032905e-01 2.093845e-01 -9.534823e-02 1.491590e-01 2.567806e-01 2.692557e-01 2.881299e-01 1.126108e-01 1.107007e-01 2.079474e-03 -7.326873e-02 3.652230e-02 1.374665e-01 2.187472e-01
<VARIANCE> 39
 5.677480e-01 1.389397e+00 1.925282e+00 2.607797e+00 3.625041e+00 5.241357e+00 5.982722e+00 5.895505e+00 7.798067e+00 7.214874e+00 6.468503e+00 6.403832e+00 5.034251e+00 1.823752e-01 4.599844e-01 5.457434e-01 6.224029e-01 8.904206e-01 1.015472e+00 1.046982e+00 1.039636e+00 1.314874e+00 1.200252e+00 1.121055e+00 1.118450e+00 9.142271e-01 9.019884e-02 1.453136e-01 1.990068e-01 2.068434e-01 2.814827e-01 2.969770e-01 2.487676e-01 2.716220e-01 3.252158e-01 2.645209e-01 2.616354e-01 2.369016e-01 2.162204e-01
<GCONST> 6.648344e+01
<STATE> 3
<NUMMIXES> 2
<MIXTURE> 1 6.166599e-01
<MEAN> 39
 -1.102713e+01 -1.237904e+01 1.437205e+00 1.050606e+01 5.789658e+00 9.587794e+00 -1.358785e+00 8.144192e+00 6.592886e+00 3.723797e-01 -2.311159e+00 -2.087970e+00 8.767943e+00 2.489668e+00 -3.375186e+00 6.479540e-01 -6.705184e-02 -1.280683e+00 6.072404e-01 -7.058233e-01 1.989624e-01 1.972718e-01 -1.675245e-01 1.387372e+00 -1.415247e-01 -8.049619e-01 2.145461e-01 -4.334314e-01 6.264734e-01 -4.543478e-01 -5.408858e-01 1.732789e-01 -2.870214e-01 -2.351443e-01 -9.326485e-01 -7.573111e-01 7.263590e-01 2.310636e-01 -8.147522e-01
<VARIANCE> 39
 3.417012e+01 3.993808e+01 2.482244e+01 2.915965e+01 4.044193e+01 2.047355e+01 2.820344e+01 2.172971e+01 3.340067e+01 2.161189e+01 3.162196e+01 2.307861e+01 2.913972e+01 2.788875e+00 4.006058e+00 3.685850e+00 4.003460e+00 4.325589e+00 2.383613e+00 2.340087e+00 2.552202e+00 5.720904e+00 4.027594e+00 4.843722e+00 2.969944e+00 6.051707e+00 3.925382e-01 3.700905e-01 4.645167e-01 4.348104e-01 7.997457e-01 5.902227e-01 4.197043e-01 4.128181e-01 6.090918e-01 6.495885e-01 4.400304e-01 5.711571e-01 7.950998e-01
<GCONST> 1.234236e+02
<MIXTURE> 2 3.833402e-01
<MEAN> 39
 -1.222777e-01 -3.022511e+01 1.214089e+01 8.931981e+00 -2.056958e+00 1.681616e+01 -5.589805e+00 6.486106e+00 -2.572604e+00 -8.779809e+00 1.034448e+01 1.334718e+00 4.330949e-01 1.798779e+00 -2.266857e+00 3.231833e+00 2.919520e-01 -2.859622e-01 2.400018e+00 -1.055085e+00 -5.881345e-01 -2.551903e+00 -2.468471e+00 2.036783e+00 8.950981e-01 -5.013129e-01 -2.254805e-01 1.574537e+00 -4.495252e-01 4.745197e-01 9.875008e-01 -3.984560e-01 8.845975e-02 -1.928587e-01 3.568503e-01 4.609363e-01 -9.134268e-01 -2.553690e-01 5.565528e-01
<VARIANCE> 39
 2.113821e+01 3.300776e+01 7.368452e+01 3.173381e+01 3.526551e+01 5.538983e+01 3.668061e+01 2.904386e+01 6.659681e+01 4.077662e+01 6.487190e+01 3.489462e+01 3.451364e+01 1.646122e+00 1.060072e+01 3.033468e+00 2.416374e+00 3.076051e+00 3.891084e+00 1.951931e+00 2.911539e+00 3.466775e+00 4.685760e+00 4.604621e+00 2.424411e+00 2.451188e+00 2.360702e-01 9.006394e-01 1.447430e+00 3.030933e-01 3.619880e-01 1.448538e+00 4.930987e-01 5.448588e-01 6.517690e-01 7.914643e-01 5.953348e-01 3.778468e-01 4.634214e-01
<GCONST> 1.276165e+02
<STATE> 4
<NUMMIXES> 2
<MIXTURE> 1 8.717250e-01
<MEAN> 39
 -5.043627e+00 -2.234259e+01 1.193239e+01 7.523915e+00 2.805897e+00 1.771757e+01 -3.056851e+00 7.774493e+00 -2.488243e+00 -9.342229e+00 5.516640e+00 3.115139e+00 5.231428e+00 5.444714e-01 2.090671e+00 -6.378358e-01 6.301272e-01 1.029360e+00 -7.494626e-01 2.539067e-01 -2.447598e-01 -1.926879e-01 1.583128e-01 -2.365325e-01 6.375144e-02 -1.454046e-01 4.812441e-02 3.786441e-01 -4.846952e-01 -3.434409e-02 1.555334e-01 -4.943894e-01 -1.658226e-01 4.393566e-02 6.652204e-02 3.197015e-02 -7.220468e-02 -8.157785e-02 -1.408449e-01
<VARIANCE> 39
 9.958305e+01 2.160477e+02 1.459441e+02 1.200227e+02 8.690456e+01 1.079105e+02 9.267786e+01 6.886983e+01 9.822417e+01 6.336761e+01 6.875948e+01 4.397658e+01 5.179907e+01 5.021240e+00 1.094136e+01 8.374378e+00 3.477160e+00 4.489185e+00 7.412112e+00 5.470375e+00 3.787953e+00 4.497407e+00 5.152261e+00 3.417314e+00 2.356814e+00 2.762978e+00 3.546098e-01 1.288323e+00 1.400814e+00 4.524773e-01 5.208675e-01 9.444293e-01 8.459015e-01 6.631396e-01 7.765375e-01 9.289638e-01 5.946323e-01 3.816139e-01 4.079483e-01
<GCONST> 1.449556e+02
<MIXTURE> 2 1.282753e-01
<MEAN> 39
 1.717371e+01 -7.926638e+00 -2.722220e+00 1.537190e+01 1.986963e+01 -2.308319e+00 -2.168472e+01 7.788208e+00 -1.073607e+01 -2.036168e+01 1.172378e+01 1.689401e+00 -5.743652e+00 -9.280076e-02 3.974228e-01 1.944377e-02 5.662041e-02 1.075411e-01 -1.218892e-01 1.247693e-01 6.534982e-02 -1.335407e-01 -1.079877e-02 -7.679090e-04 -4.962574e-02 -5.328111e-02 -1.238804e-01 1.290726e-02 1.749559e-01 -2.081027e-03 -1.500863e-01 2.207530e-01 2.150836e-01 -1.188397e-01 1.087256e-01 1.860816e-01 -1.547410e-01 -2.182549e-02 9.491325e-02
<VARIANCE> 39
 2.160611e+01 4.957869e+01 6.448403e+01 1.134030e+02 6.245925e+01 3.214909e+01 6.735442e+01 9.955141e+01 5.392482e+01 9.596021e+01 6.427757e+01 3.095785e+01 8.200673e+01 6.791276e-01 9.408962e-01 1.457286e+00 1.266280e+00 1.549344e+00 2.128811e+00 3.509962e+00 3.170865e+00 1.451048e+00 2.423296e+00 2.174562e+00 1.164918e+00 9.619118e-01 1.253756e-01 1.093835e-01 2.598020e-01 1.460481e-01 1.995681e-01 2.208322e-01 3.421540e-01 4.325462e-01 2.331325e-01 3.825700e-01 3.082818e-01 1.643099e-01 1.568932e-01
<GCONST> 1.105912e+02
<TRANSP> 5
 0.000000e+00 1.000000e+00 0.000000e+00 0.000000e+00 0.000000e+00
 0.000000e+00 8.140443e-01 1.859557e-01 0.000000e+00 0.000000e+00
 0.000000e+00 0.000000e+00 8.525947e-01 1.474053e-01 0.000000e+00
 0.000000e+00 0.000000e+00 0.000000e+00 8.527426e-01 1.472574e-01
 0.000000e+00 0.000000e+00 0.000000e+00 0.000000e+00 0.000000e+00
<ENDHMM>
~h "uu"
<BEGINHMM>
<NUMSTATES> 7
<STATE> 2
<NUMMIXES> 2
<MIXTURE> 1 8.085748e-01
<MEAN> 39
 1.682167e+01 3.506372e+00 5.013746e+00 1.499270e+01 1.142074e+01 -2.634949e+00 -1.027617e+01 1.494159e+01 1.174511e+00 -2.245973e+01 -6.184971e+00 -4.812025e+00 -1.354643e+01 1.250641e-01 7.084507e-01 3.088900e-01 -3.325543e-01 -1.209079e+00 -1.598855e+00 -4.185165e-02 1.157283e+00 1.196582e+00 4.508006e-01 -6.288899e-01 -6.301571e-01 -2.730273e-01 -6.013124e-02 -6.687159e-02 3.261161e-02 9.647522e-02 7.880784e-02 7.465520e-02 -1.077932e-02 -1.309084e-01 -7.647234e-02 1.298289e-01 1.595284e-01 8.984364e-02 4.864728e-02
<VARIANCE> 39
 4.159285e+00 3.243779e+01 1.252664e+01 5.724133e+01 5.170971e+01 4.105694e+01 4.047369e+01 3.578745e+01 4.098051e+01 9.843276e+01 2.302777e+01 4.863250e+01 1.322733e+01 2.003597e-01 4.763544e-01 4.315999e-01 1.045567e+00 1.148135e+00 1.033835e+00 2.531213e+00 1.251102e+00 8.753268e-01 1.538522e+00 1.447767e+00 9.791367e-01 9.349034e-01 3.465736e-02 4.442209e-02 7.159817e-02 8.339658e-02 8.910062e-02 1.423043e-01 1.809172e-01 1.823206e-01 1.233721e-01 2.346198e-01 1.154032e-01 1.144886e-01 1.049918e-01
<GCONST> 8.526069e+01
<MIXTURE> 2 1.914251e-01
<MEAN> 39
 8.233604e+00 -2.962579e+00 7.269241e+00 1.143552e+01 5.202061e+00 7.090868e+00 2.770005e+00 1.314745e+01 -4.877995e+00 -1.254940e+01 -1.058460e+00 -4.317334e+00 -1.925422e+00 1.494477e+00 1.037933e+00 -8.393750e-02 6.420363e-01 6.980959e-02 -2.330300e+00 -1.200360e+00 7.196922e-01 2.232667e-01 -9.145298e-01 -5.978428e-01 -6.781725e-01 -1.343002e+00 -2.495180e-01 -9.331002e-02 2.881374e-02 1.039062e-02 9.474085e-02 -1.306965e-01 -3.277930e-01 4.001049e-02 3.788312e-01 1.637918e-01 -7.464750e-02 4.929651e-02 -6.361580e-02
<VARIANCE> 39
 1.184713e+02 1.960012e+02 1.048887e+02 7.796886e+01 4.628545e+01 1.053265e+02 7.236682e+01 5.085842e+01 9.803288e+01 6.600062e+01 1.030823e+02 3.364593e+01 2.952572e+01 3.368936e+00 7.027687e+00 3.459008e+00 2.987280e+00 2.298679e+00 1.025004e+01 4.779106e+00 3.891494e+00 6.517710e+00 4.887060e+00 5.146151e+00 1.761251e+00 2.558264e+00 2.300729e-01 1.154146e+00 4.796457e-01 3.277637e-01 3.082215e-01 1.054317e+00 5.899605e-01 4.575991e-01 9.938514e-01 6.316695e-01 9.018953e-01 2.691672e-01 2.822429e-01
<GCONST> 1.371848e+02
<STATE> 3
<NUMMIXES> 2
<MIXTURE> 1 9.458122e-01
<MEAN> 39
 1.674841e+01 9.392552e+00 9.282901e+00 1.457784e+01 1.353984e+00 -1.509490e+01 -1.006877e+01 1.914759e+01 6.540871e+00 -1.565344e+01 -5.768298e+00 -3.734038e+00 -1.289346e+01 -4.636905e-02 3.133865e-01 2.068810e-01 -5.739552e-02 -4.047696e-01 -2.892350e-01 1.016003e-01 -2.193647e-01 -2.375349e-01 2.595255e-01 3.140619e-01 4.230112e-01 2.085716e-01 4.860453e-03 -2.107385e-02 -7.062121e-02 -5.210891e-02 7.740407e-02 1.965125e-01 5.497655e-02 -9.503782e-02 -8.113883e-02 -1.766282e-02 -3.280707e-02 -4.534963e-02 5.154374e-02
<VARIANCE> 39
 1.920437e+00 9.836777e+00 7.907643e+00 1.160670e+01 1.594004e+01 2.209440e+01 2.778560e+01 2.044619e+01 1.866150e+01 2.301096e+01 1.400874e+01 2.245003e+01 9.520067e+00 1.024898e-01 3.297991e-01 3.957094e-01 5.433877e-01 4.245468e-01 8.882475e-01 7.999142e-01 1.134930e+00 5.725015e-01 1.265266e+00 6.124412e-01 9.101279e-01 3.645636e-01 1.589392e-02 3.950671e-02 3.741984e-02 6.294773e-02 6.301067e-02 1.005201e-01 1.186900e-01 1.513698e-01 8.210337e-02 1.277284e-01 7.235252e-02 8.742016e-02 6.083674e-02
<GCONST> 6.257076e+01
<MIXTURE> 2 5.418774e-02
<MEAN> 39
 1.271914e+01 8.791676e+00 8.524122e+00 1.486575e+01 8.835674e+00 -5.296676e+00 -1.213991e+01 1.460032e+01 1.708666e+00 -1.564062e+01 6.433581e-01 -1.538340e+00 -9.716737e+00 2.495180e-01 3.997551e-01 2.896197e-02 3.446811e-02 -4.945228e-01 -9.974424e-01 -3.106835e-01 -1.153786e-01 3.569900e-01 6.660526e-01 -2.340198e-01 -1.820934e-01 3.163621e-02 -1.288150e-01 -1.784550e-01 -1.607232e-01 -6.546053e-02 1.441565e-01 3.448934e-01 1.974832e-01 -4.114747e-01 -1.730857e-01 2.241343e-01 3.423341e-03 6.833147e-02 1.756593e-01
<VARIANCE> 39
 7.376733e+01 6.665213e+01 4.256189e+01 4.216752e+01 6.597309e+01 8.854198e+01 6.357409e+01 1.017175e+02 3.876092e+01 1.862583e+02 4.103532e+01 3.238961e+01 5.410334e+01 9.457462e-01 5.443687e-01 9.231418e-01 1.337034e+00 1.062304e+00 1.645320e+00 3.004059e+00 1.484224e+00 1.275173e+00 2.271791e+00 1.178768e+00 1.289845e+00 8.143544e-01 7.139618e-02 8.761024e-02 1.222180e-01 1.504709e-01 1.554935e-01 4.376437e-01 2.717242e-01 3.718138e-01 1.465796e-01 3.165672e-01 2.269462e-01 1.132893e-01 1.315286e-01
<GCONST> 1.052522e+02
<STATE> 4
<NUMMIXES> 2
<MIXTURE> 1 1.000000e+00
<MEAN> 39
 1.621971e+01 1.108533e+01 1.061157e+01 1.380446e+01 4.131488e-01 -1.446369e+01 -1.317193e+01 1.251090e+01 3.123332e+00 -1.159662e+01 9.773965e-01 9.085198e-01 -8.847836e+00 7.486116e-03 -7.668956e-02 -2.320417e-01 -2.145308e-01 4.484924e-02 3.289742e-01 1.829025e-01 -1.080111e-01 3.196900e-02 1.840826e-01 -2.152808e-01 -3.782358e-01 4.801685e-02 -4.021756e-02 -3.927771e-02 -6.446668e-02 -4.318496e-02 9.716393e-02 2.170083e-01 9.489369e-02 -3.294519e-02 -1.082963e-02 1.276200e-02 -7.563902e-02 -9.474283e-02 3.896948e-02
<VARIANCE> 39
 1.307174e+01 2.870683e+01 2.295627e+01 2.371088e+01 4.489090e+01 7.779155e+01 5.387681e+01 6.811435e+01 2.321760e+01 5.554215e+01 4.072733e+01 3.797195e+01 2.627680e+01 2.884077e-01 5.301226e-01 5.099342e-01 5.945581e-01 4.926522e-01 1.309055e+00 1.259168e+00 1.494080e+00 6.722269e-01 1.326900e+00 7.780576e-01 8.567575e-01 6.215030e-01 3.024794e-02 5.162146e-02 5.616286e-02 7.652408e-02 8.220339e-02 1.742007e-01 1.477898e-01 1.945566e-01 9.415079e-02 1.515310e-01 9.863437e-02 1.051924e-01 8.763216e-02
<GCONST> 8.321174e+01
<MIXTURE> 2 0.000000e+00
<MEAN> 39
 1.461647e+01 1.566086e+00 4.283029e+00 1.047744e+00 6.502785e+00 -3.856531e+00 -1.250123e+01 2.030444e+01 -1.960878e+01 -2.413631e+01 2.176554e+01 -7.722874e+00 -7.521120e+00 -4.162222e-01 2.032520e+00 -5.039091e-01 1.759992e+00 1.890749e+00 1.935911e+00 3.822842e+00 1.088910e+00 2.521060e-02 7.017113e-01 -2.663080e+00 -9.208404e-01 -1.433905e+00 1.389438e-01 8.101916e-02 -2.536862e-01 6.819131e-01 -1.020201e-01 -2.967118e-01 -8.747735e-03 1.133121e-01 1.003956e+00 3.701299e-01 -5.309095e-01 6.789156e-01 3.156795e-01
<VARIANCE> 39
 4.115295e-02 2.975082e-01 4.843025e-01 9.611969e-01 1.559830e-01 5.576782e-01 4.045944e-01 3.110657e-01 3.703461e+00 5.259857e-01 7.216492e+00 1.791811e-01 4.307785e-01 1.492903e-03 6.646347e-02 1.838729e-03 5.336142e-02 5.822301e-02 8.217597e-02 2.733870e-01 1.406014e-02 6.674170e-03 3.956914e-03 1.246338e-01 3.787160e-03 1.335406e-02 3.626533e-04 7.911138e-04 1.759008e-04 2.990633e-03 4.511999e-03 3.617913e-03 2.029712e-03 2.319252e-03 9.037256e-03 5.548552e-03 1.611993e-03 2.322674e-03 1.445673e-03
<GCONST> -7.153688e+01
<STATE> 5
<NUMMIXES> 2
<MIXTURE> 1 4.581951e-01
<MEAN> 39
 1.599423e+01 1.187716e+01 5.932158e+00 8.532263e+00 3.250247e+00 -4.443057e+00 -6.966374e+00 1.130006e+01 4.605831e+00 -9.377623e+00 -7.302759e+00 -8.667391e+00 -9.952905e+00 -4.922291e-01 2.598505e-01 -6.751574e-01 -9.120901e-01 6.120529e-01 2.514390e+00 1.636906e+00 -7.551509e-01 -5.512250e-01 5.784105e-01 -6.808277e-01 -7.956381e-01 8.915544e-01 -2.633616e-01 -1.289776e-02 1.246167e-01 1.361657e-01 9.367379e-02 1.767917e-01 3.009613e-01 2.417130e-01 -2.016826e-02 -1.016045e-01 2.462265e-02 1.509032e-01 1.059025e-01
<VARIANCE> 39
 2.365058e+01 1.591651e+01 2.207365e+01 2.155261e+01 3.827219e+01 5.664124e+01 3.719117e+01 2.893604e+01 2.275434e+01 3.113296e+01 5.288689e+01 6.646700e+01 2.032168e+01 7.338929e-01 5.131229e-01 7.069477e-01 8.917637e-01 9.669434e-01 1.484511e+00 1.899407e+00 1.995276e+00 8.964257e-01 1.545451e+00 9.912886e-01 1.112328e+00 8.533219e-01 6.155812e-02 6.859892e-02 1.191617e-01 1.816602e-01 1.511419e-01 1.952845e-01 2.489349e-01 2.562187e-01 1.425816e-01 2.092753e-01 1.660679e-01 2.310673e-01 1.309817e-01
<GCONST> 9.231559e+01
<MIXTURE> 2 5.418049e-01
<MEAN> 39
 1.683745e+01 3.202693e+00 4.963318e+00 1.632362e+01 1.093291e+01 -4.816055e+00 -8.784130e+00 1.841933e+01 1.382914e+00 -2.427725e+01 -8.707772e+00 -5.264503e+00 -1.079473e+01 -1.292112e-01 -2.732495e-01 -1.764762e-01 1.644623e-01 6.963788e-01 1.174757e+00 3.123021e-01 -6.529337e-01 -3.675031e-01 1.812001e-01 -3.151496e-01 -2.815986e-01 6.213790e-01 -1.316460e-01 7.110150e-02 1.215167e-01 -1.545384e-02 -2.361403e-02 2.226893e-01 1.521602e-01 -1.930337e-01 -8.370604e-02 1.991379e-01 8.006997e-02 4.650894e-02 1.323356e-01
<VARIANCE> 39
 3.779812e+00 1.511067e+01 1.876881e+01 2.187008e+01 4.686298e+01 4.150036e+01 2.868830e+01 4.226681e+01 2.992026e+01 4.679953e+01 1.919530e+01 2.835885e+01 1.446961e+01 2.222038e-01 5.499318e-01 7.862167e-01 1.168064e+00 6.090438e-01 1.204267e+00 1.275670e+00 1.117649e+00 6.332059e-01 1.695047e+00 9.641654e-01 1.034290e+00 5.187592e-01 4.561938e-02 8.160683e-02 1.170512e-01 1.356819e-01 1.164643e-01 1.807101e-01 2.471711e-01 1.823533e-01 1.352967e-01 2.708964e-01 1.110943e-01 1.057550e-01 8.818215e-02
<GCONST> 8.302312e+01
<STATE> 6
<NUMMIXES> 2
<MIXTURE> 1 1.870014e-01
<MEAN> 39
 -2.658768e+01 -6.024622e+00 -4.689398e+00 -2.720509e+00 -3.989394e+00 2.521170e-01 -3.832679e+00 1.234504e+00 -1.135370e+00 -5.182388e-01 -5.954956e-02 -1.472508e+00 4.146467e-01 -2.622123e-02 -3.060691e-02 -2.159661e-02 -1.262763e-02 -1.307815e-02 2.876609e-02 2.926217e-02 -3.629597e-03 2.487959e-03 1.707742e-02 4.815345e-02 6.623770e-02 3.335940e-02 4.267775e-02 3.409446e-02 3.763807e-02 3.720002e-02 2.790163e-02 2.506459e-02 1.073180e-02 2.406748e-03 -1.638990e-02 -1.728533e-02 -8.452004e-03 -1.363482e-02 -4.791253e-03
<VARIANCE> 39
 5.525801e-01 8.504939e-01 1.591947e+00 3.062892e+00 4.364933e+00 5.315252e+00 5.515868e+00 6.589330e+00 8.129004e+00 8.274997e+00 7.325517e+00 6.768933e+00 5.815530e+00 1.127834e-01 1.589726e-01 2.564430e-01 5.059287e-01 7.778648e-01 8.620144e-01 7.592135e-01 1.136441e+00 1.713830e+00 1.572083e+00 1.306446e+00 9.806442e-01 9.708083e-01 4.744777e-02 5.179507e-02 7.861941e-02 1.559779e-01 2.055698e-01 1.828104e-01 1.637359e-01 2.650479e-01 4.339282e-01 3.568704e-01 3.285263e-01 2.276936e-01 2.293701e-01
<GCONST> 6.095615e+01
<MIXTURE> 2 8.129988e-01
<MEAN> 39
 7.845511e+00 1.059119e+01 7.425944e+00 1.137578e+01 8.843959e+00 6.811057e+00 1.254429e+00 1.050628e+01 -2.265314e-01 -1.085537e+01 -8.671451e+00 -7.472201e+00 -3.609994e+00 -2.033097e+00 2.218947e-01 9.799148e-01 4.786586e-01 4.178037e-01 1.442755e+00 9.147415e-01 -5.985346e-01 -1.066262e-01 1.147088e+00 2.874042e-01 3.154618e-01 1.041115e+00 -1.622128e-01 -2.847848e-01 7.222340e-02 1.414537e-01 1.642337e-02 -2.146614e-01 -3.407296e-01 -3.272153e-02 1.026709e-01 -7.653729e-03 1.238631e-01 1.307308e-01 4.865205e-03
<VARIANCE> 39
 7.157758e+01 4.156266e+01 3.919614e+01 4.829683e+01 6.621019e+01 8.047748e+01 6.125684e+01 5.586305e+01 3.414760e+01 5.784400e+01 4.749646e+01 4.272842e+01 2.306673e+01 9.919851e-01 2.898308e+00 2.129434e+00 2.141418e+00 1.845466e+00 3.063314e+00 2.839731e+00 2.165729e+00 1.477725e+00 3.287944e+00 1.738703e+00 1.655293e+00 1.307163e+00 9.828913e-02 4.326838e-01 3.795411e-01 3.128894e-01 1.983439e-01 2.812292e-01 3.336021e-01 3.391697e-01 2.497613e-01 3.808393e-01 2.778730e-01 2.170730e-01 1.950426e-01
<GCONST> 1.141611e+02
<TRANSP> 7
 0.000000e+00 1.000000e+00 0.000000e+00 0.000000e+00 0.000000e+00 0.000000e+00 0.000000e+00
 0.000000e+00 8.775243e-01 1.224757e-01 0.000000e+00 0.000000e+00 0.000000e+00 0.000000e+00
 0.000000e+00 0.000000e+00 8.681611e-01 1.318389e-01 0.000000e+00 0.000000e+00 0.000000e+00
 0.000000e+00 0.000000e+00 0.000000e+00 7.558314e-01 2.441686e-01 0.000000e+00 0.000000e+00
 0.000000e+00 0.000000e+00 0.000000e+00 0.000000e+00 7.956261e-01 2.043739e-01 0.000000e+00
 0.000000e+00 0.000000e+00 0.000000e+00 0.000000e+00 0.000000e+00 8.417662e-01 1.582338e-01
 0.000000e+00 0.000000e+00 0.000000e+00 0.000000e+00 0.000000e+00 0.000000e+00 0.000000e+00
<ENDHMM>
~h "SIL"
<BEGINHMM>
<NUMSTATES> 5
<STATE> 2
<NUMMIXES> 2
<MIXTURE> 1 6.343535e-01
<MEAN> 39
 -9.558927e+00 -2.955737e+00 -2.506285e+00 4.132630e+00 -4.022208e-01 3.377083e+00 4.130420e+00 3.240064e-02 1.627516e+00 6.109094e-01 -1.318923e-01 4.498853e+00 -8.942712e-01 -6.928948e-02 3.829870e-02 -6.734582e-04 6.790166e-03 1.340300e-02 1.375837e-02 2.232590e-02 1.784532e-02 1.971374e-02 1.640245e-02 -5.062588e-03 -1.623879e-03 2.044486e-02 -2.696889e-03 4.180977e-03 1.697672e-02 -6.120666e-03 -4.228717e-03 6.320278e-04 -1.656370e-03 -2.444819e-03 6.286830e-03 -8.582719e-03 -1.216181e-02 -5.073556e-03 -4.548995e-03
<VARIANCE> 39
 4.186462e+01 7.402940e+01 3.099679e+01 3.340697e+01 4.645889e+01 4.345008e+01 2.968412e+01 3.228226e+01 3.052909e+01 2.290461e+01 1.840874e+01 1.938979e+01 2.506889e+01 1.440693e-01 3.649671e-01 4.392949e-01 5.817301e-01 7.149680e-01 8.990549e-01 1.019488e+00 1.134216e+00 1.207672e+00 1.148922e+00 1.105158e+00 1.056239e+00 9.328530e-01 2.465242e-02 5.432563e-02 8.521398e-02 1.176557e-01 1.502030e-01 1.916525e-01 2.139053e-01 2.402989e-01 2.571377e-01 2.458468e-01 2.369102e-01 2.262610e-01 2.008634e-01
<GCONST> 8.756295e+01
<MIXTURE> 2 3.656465e-01
<MEAN> 39
 -1.142323e+01 1.189757e+00 -1.150043e+00 2.073591e+00 1.984568e+00 1.458758e+00 4.666055e+00 1.247311e+00 2.303590e+00 6.847165e-01 -4.941858e-01 4.576219e+00 -1.241537e+00 -2.383977e-01 3.311241e-02 -1.279305e-02 2.437228e-02 2.793390e-02 1.407799e-01 9.608070e-02 8.677866e-02 1.114440e-01 1.082627e-01 3.608481e-02 3.226501e-02 6.382274e-02 1.940947e-02 3.630415e-03 8.181022e-03 2.361297e-02 2.753633e-02 -1.779759e-02 -3.005121e-02 -1.506858e-02 -2.992165e-02 -1.730591e-02 -1.236073e-02 -2.410082e-02 -2.872620e-03
<VARIANCE> 39
 4.480489e+01 6.668343e+01 4.001367e+01 5.130425e+01 5.788618e+01 6.144305e+01 5.531167e+01 4.810794e+01 4.128096e+01 3.064755e+01 2.747056e+01 2.852841e+01 3.160432e+01 1.514161e+00 2.485977e+00 2.332164e+00 2.129232e+00 2.084023e+00 2.247124e+00 2.255863e+00 2.281002e+00 2.357451e+00 2.077529e+00 1.851172e+00 1.746888e+00 1.433622e+00 2.191909e-01 3.888186e-01 4.058700e-01 3.762366e-01 3.878883e-01 4.263409e-01 4.298833e-01 4.452224e-01 4.540788e-01 4.104838e-01 3.682645e-01 3.519675e-01 2.906989e-01
<GCONST> 1.171093e+02
<STATE> 3
<NUMMIXES> 2
<MIXTURE> 1 6.952365e-01
<MEAN> 39
 -4.614826e-36 4.088473e-39 7.546833e-41 -2.003180e-38 -1.016468e-37 1.405099e-39 -7.973388e-43 7.664946e-39 -1.286953e-38 1.415171e-41 6.993320e-41 6.165994e-41 1.993908e-41 5.552645e-41 1.641061e-40 1.461414e-41 6.268008e-42 1.373272e-43 -2.054304e-42 1.018744e-41 -2.522337e-44 -2.642154e-39 1.558244e-42 1.841306e-42 3.833953e-42 -1.401298e-45 -1.041492e-02 1.165869e-03 -4.681267e-04 1.067939e-03 -3.674125e-04 -4.449329e-04 -4.800549e-04 -8.346118e-04 -4.919678e-04 -6.385805e-04 -4.974747e-04 3.757836e-04 -7.628010e-04
<VARIANCE> 39
 1.000000e-02 1.000000e-02 1.000000e-02 1.000000e-02 1.000000e-02 1.000000e-02 1.000000e-02 1.000000e-02 1.000000e-02 1.000000e-02 1.000000e-02 1.000000e-02 1.000000e-02 1.000000e-02 1.000000e-02 1.000000e-02 1.000000e-02 1.000000e-02 1.000000e-02 1.000000e-02 1.000000e-02 1.000000e-02 1.000000e-02 1.000000e-02 1.000000e-02 1.000000e-02 1.000000e-02 1.000000e-02 1.000000e-02 1.000000e-02 1.000000e-02 1.000000e-02 1.000000e-02 1.000000e-02 1.000000e-02 1.000000e-02 1.000000e-02 1.000000e-02 1.000000e-02
<GCONST> -1.079245e+02
<MIXTURE> 2 3.047635e-01
<MEAN> 39
 -3.073403e+01 1.425273e+01 -6.347635e+00 2.336389e+00 -7.483404e-01 1.066642e+01 -1.116233e+01 5.172227e+00 2.572465e-01 4.570226e-01 -1.853601e+00 4.806254e-01 3.082728e+00 -1.703352e-02 1.551152e-02 3.685159e-02 3.168634e-02 1.600667e-02 2.196852e-03 1.066339e-02 1.046215e-02 6.194680e-03 -2.002487e-03 -2.168891e-02 -2.960364e-02 -1.420306e-02 6.402527e-02 -2.888847e-02 1.946194e-02 2.577228e-02 -3.223030e-03 -2.393205e-02 1.966219e-02 7.751088e-04 -1.281637e-02 -3.375708e-03 5.767592e-03 -3.608371e-03 -2.195551e-02
<VARIANCE> 39
 7.722108e+01 3.633752e+01 1.621295e+01 8.805264e+00 1.116743e+01 2.184221e+01 5.614600e+01 9.989722e+00 7.891666e+00 5.587424e+00 5.826734e+00 7.160335e+00 7.011834e+00 2.358004e-01 2.073665e-01 2.922952e-01 2.998027e-01 3.982294e-01 4.320155e-01 5.057585e-01 5.343324e-01 5.329021e-01 5.498871e-01 5.658979e-01 5.152957e-01 4.229449e-01 9.825453e-02 6.422583e-02 7.037972e-02 7.732156e-02 9.463117e-02 1.049519e-01 1.273331e-01 1.155301e-01 1.163909e-01 1.174336e-01 1.189772e-01 1.076718e-01 9.144803e-02
<GCONST> 6.387524e+01
<STATE> 4
<NUMMIXES> 2
<MIXTURE> 1 5.103472e-01
<MEAN> 39
 -1.256804e+01 6.479373e+00 2.038786e+00 8.567524e+00 2.427899e+00 5.176943e+00 4.114543e-01 4.024741e+00 1.021508e+00 1.262775e+00 -1.256009e+00 9.477930e-01 3.137723e-02 -8.586787e-02 3.690922e-02 2.457621e-01 1.594240e-01 1.689443e-01 5.045222e-02 3.103973e-02 6.963865e-02 1.091670e-01 7.266748e-02 3.943156e-02 6.249414e-03 -1.648775e-02 1.051229e-02 -3.655927e-02 1.203187e-02 -3.837839e-02 1.769672e-03 -1.438639e-02 9.163395e-03 8.845959e-03 -7.347676e-03 -3.171584e-02 -5.209196e-03 1.373672e-02 -1.236865e-02
<VARIANCE> 39
 7.612381e+01 6.791934e+01 3.206618e+01 5.097443e+01 4.710615e+01 4.857334e+01 4.886001e+01 4.522910e+01 3.813118e+01 2.496777e+01 2.466132e+01 2.227277e+01 1.953887e+01 6.615518e-01 8.886616e-01 9.175950e-01 1.017072e+00 1.108420e+00 1.194592e+00 1.274129e+00 1.362965e+00 1.347271e+00 1.241394e+00 1.154082e+00 1.094268e+00 9.258087e-01 1.785030e-01 2.040161e-01 1.926394e-01 2.249779e-01 2.455316e-01 2.707347e-01 2.889727e-01 3.002017e-01 2.985176e-01 2.784478e-01 2.593574e-01 2.391664e-01 2.035334e-01
<GCONST> 1.016392e+02
<MIXTURE> 2 4.896528e-01
<MEAN> 39
 -1.020193e+01 3.199551e+00 2.373005e+00 5.452412e+00 2.385052e+00 2.486034e+00 1.580645e+00 3.328131e+00 1.332066e+00 -7.191740e-01 -2.476467e+00 1.183569e+00 -1.171889e+00 1.273982e+00 -3.833585e-01 4.658445e-01 1.614458e-01 4.792918e-02 -5.415885e-01 -1.025224e-01 -1.463170e-02 -2.565329e-01 -5.430909e-01 -4.399176e-01 -3.804746e-01 -3.820809e-01 6.029564e-02 -8.747855e-02 5.094163e-03 -3.020878e-02 5.573182e-03 -8.083791e-02 -5.798243e-02 -1.463480e-02 1.865065e-03 -3.867018e-02 -9.503978e-03 -1.724554e-02 6.533443e-03
<VARIANCE> 39
 9.643607e+01 9.792954e+01 6.559746e+01 7.856171e+01 8.060581e+01 7.181393e+01 7.312693e+01 5.997856e+01 4.726611e+01 4.559750e+01 3.356037e+01 3.527980e+01 2.955104e+01 5.178400e+00 5.150322e+00 3.770604e+00 3.737880e+00 3.884596e+00 3.836053e+00 4.076818e+00 3.454412e+00 3.297246e+00 2.993804e+00 2.481349e+00 2.278534e+00 1.766467e+00 7.921278e-01 8.026540e-01 6.029379e-01 5.582282e-01 6.184182e-01 6.333398e-01 6.467891e-01 5.800772e-01 5.622950e-01 5.424428e-01 4.485731e-01 3.958752e-01 3.163141e-01
<GCONST> 1.329065e+02
<TRANSP> 5
 0.000000e+00 1.000000e+00 0.000000e+00 0.000000e+00 0.000000e+00
 0.000000e+00 9.535479e-01 4.645211e-02 0.000000e+00 0.000000e+00
 0.000000e+00 0.000000e+00 9.280416e-01 7.195845e-02 0.000000e+00
 0.000000e+00 0.000000e+00 0.000000e+00 9.013939e-01 9.860607e-02
 0.000000e+00 0.000000e+00 0.000000e+00 0.000000e+00 0.000000e+00
<ENDHMM>
~h "dxhq"
<BEGINHMM>
<NUMSTATES> 5
<STATE> 2
<NUMMIXES> 2
<MIXTURE> 1 5.000000e-01
<MEAN> 39
 2.378333e+01 -2.214370e+00 -2.032920e+01 -5.072968e+00 8.159956e+00 -3.257632e+00 -1.585579e+01 8.172637e+00 1.046266e+01 -3.157824e+00 -1.540367e+00 -1.640296e+00 1.531969e+00 -9.648564e-02 4.475473e-01 3.371617e-01 1.240287e-01 -5.847324e-02 6.615173e-01 6.995139e-01 -5.239558e-01 -6.411038e-01 2.748024e-01 7.844006e-02 -4.598204e-01 -2.891691e-01 -1.545567e-02 -4.747093e-03 1.266428e-01 9.428757e-02 -1.010414e-01 -1.234809e-01 2.411529e-02 1.090688e-01 -5.575970e-02 -1.208572e-02 1.213667e-01 -1.559135e-02 -4.438898e-02
<VARIANCE> 39
 1.080231e+01 1.163009e+01 2.529095e+01 1.408384e+01 8.411965e+00 3.107778e+01 2.357998e+01 2.672016e+01 1.791251e+01 1.599958e+01 8.467121e+00 1.269239e+01 9.100401e+00 4.315474e-01 4.295516e-01 9.421501e-01 4.854946e-01 5.503495e-01 6.653451e-01 5.666460e-01 1.798802e+00 2.959497e-01 1.080669e+00 3.910518e-01 7.038507e-01 7.651120e-01 5.574442e-02 6.897934e-02 7.345036e-02 6.510148e-02 1.073534e-01 1.304084e-01 9.885157e-02 2.654554e-01 4.079957e-02 1.581579e-01 7.102531e-02 1.054055e-01 8.514965e-02
<GCONST> 6.957634e+01
<MIXTURE> 2 5.000000e-01
<MEAN> 39
 2.378333e+01 -2.214370e+00 -2.032920e+01 -5.072968e+00 8.159956e+00 -3.257632e+00 -1.585579e+01 8.172637e+00 1.046266e+01 -3.157824e+00 -1.540367e+00 -1.640296e+00 1.531969e+00 -9.648564e-02 4.475473e-01 3.371617e-01 1.240287e-01 -5.847324e-02 6.615173e-01 6.995139e-01 -5.239558e-01 -6.411038e-01 2.748024e-01 7.844006e-02 -4.598204e-01 -2.891691e-01 -1.545567e-02 -4.747093e-03 1.266428e-01 9.428757e-02 -1.010414e-01 -1.234809e-01 2.411529e-02 1.090688e-01 -5.575970e-02 -1.208572e-02 1.213667e-01 -1.559135e-02 -4.438898e-02
<VARIANCE> 39
 1.080231e+01 1.163009e+01 2.529095e+01 1.408384e+01 8.411965e+00 3.107778e+01 2.357998e+01 2.672016e+01 1.791251e+01 1.599958e+01 8.467121e+00 1.269239e+01 9.100401e+00 4.315474e-01 4.295516e-01 9.421501e-01 4.854946e-01 5.503495e-01 6.653451e-01 5.666460e-01 1.798802e+00 2.959497e-01 1.080669e+00 3.910518e-01 7.038507e-01 7.651120e-01 5.574442e-02 6.897934e-02 7.345036e-02 6.510148e-02 1.073534e-01 1.304084e-01 9.885157e-02 2.654554e-01 4.079957e-02 1.581579e-01 7.102531e-02 1.054055e-01 8.514965e-02
<GCONST> 6.957634e+01
<STATE> 3
<NUMMIXES> 2
<MIXTURE> 1 5.000000e-01
<MEAN> 39
 2.063785e+01 3.213798e+00 -9.988582e+00 1.184170e+00 4.928586e+00 -2.578148e-01 -7.393140e+00 7.049006e+00 2.496960e+00 -2.013500e+00 1.284015e+00 -6.698291e+00 -2.516645e+00 -3.488784e-01 -4.814973e-01 1.214419e+00 1.264423e+00 -2.423239e+00 -1.521954e+00 2.732608e+00 1.926027e+00 -8.160719e-01 9.744862e-02 9.463854e-01 6.373129e-01 2.605055e-01 -7.998229e-02 -5.216092e-01 -2.661863e-01 -9.518219e-02 -2.091338e-01 2.438592e-01 5.823187e-01 1.446572e-01 8.656906e-02 3.425710e-01 2.447878e-01 3.278615e-01 4.202523e-01
<VARIANCE> 39
 1.297816e+01 4.359522e+00 2.853451e+01 3.905928e+01 3.806571e+01 3.032250e+01 2.409682e+01 1.930781e+01 2.489060e+01 3.621508e+01 1.539135e+01 2.544119e+01 9.223942e+00 1.532509e-01 8.723903e-01 6.957110e-01 6.043252e-01 7.911765e-01 1.265812e+00 1.021792e+00 1.374053e+00 5.247695e-01 1.843828e+00 7.179798e-01 5.079858e-01 6.062168e-01 2.825649e-02 5.769840e-02 1.417874e-01 3.993657e-02 2.032858e-01 2.527917e-01 2.364116e-01 5.837453e-01 9.070195e-02 2.127526e-01 6.919556e-02 2.067745e-01 1.791502e-01
<GCONST> 8.038289e+01
<MIXTURE> 2 5.000000e-01
<MEAN> 39
 2.063785e+01 3.213798e+00 -9.988582e+00 1.184170e+00 4.928586e+00 -2.578148e-01 -7.393140e+00 7.049006e+00 2.496960e+00 -2.013500e+00 1.284015e+00 -6.698291e+00 -2.516645e+00 -3.488784e-01 -4.814973e-01 1.214419e+00 1.264423e+00 -2.423239e+00 -1.521954e+00 2.732608e+00 1.926027e+00 -8.160719e-01 9.744862e-02 9.463854e-01 6.373129e-01 2.605055e-01 -7.998229e-02 -5.216092e-01 -2.661863e-01 -9.518219e-02 -2.091338e-01 2.438592e-01 5.823187e-01 1.446572e-01 8.656906e-02 3.425710e-01 2.447878e-01 3.278615e-01 4.202523e-01
<VARIANCE> 39
 1.297816e+01 4.359522e+00 2.853451e+01 3.905928e+01 3.806571e+01 3.032250e+01 2.409682e+01 1.930781e+01 2.489060e+01 3.621508e+01 1.539135e+01 2.544119e+01 9.223942e+00 1.532509e-01 8.723903e-01 6.957110e-01 6.043252e-01 7.911765e-01 1.265812e+00 1.021792e+00 1.374053e+00 5.247695e-01 1.843828e+00 7.179798e-01 5.079858e-01 6.062168e-01 2.825649e-02 5.769840e-02 1.417874e-01 3.993657e-02 2.032858e-01 2.527917e-01 2.364116e-01 5.837453e-01 9.070195e-02 2.127526e-01 6.919556e-02 2.067745e-01 1.791502e-01
<GCONST> 8.038289e+01
<STATE> 4
<NUMMIXES> 2
<MIXTURE> 1 5.000000e-01
<MEAN> 39
 1.895318e+01 -3.218148e+00 -8.329944e+00 4.882607e+00 -1.920277e+00 4.606307e-02 4.545302e+00 1.231195e+01 6.423714e-01 1.782323e+00 6.611290e+00 -3.611713e+00 1.655716e+00 -9.172816e-01 -1.764803e+00 8.839299e-01 8.121492e-01 -8.170196e-01 1.528646e+00 2.628183e+00 6.000956e-01 1.086787e-01 1.279660e+00 8.512172e-01 4.806796e-01 1.098319e+00 -1.513576e-01 -3.701706e-02 1.888527e-01 -2.469304e-01 3.587644e-01 5.521887e-01 -3.978827e-01 -3.157338e-01 4.030627e-01 1.555557e-01 -2.855025e-01 -1.600583e-01 -2.845566e-02
<VARIANCE> 39
 1.057623e+01 1.323512e+01 2.443946e+01 1.460607e+01 3.263497e+01 5.226425e+01 2.173666e+01 2.728192e+01 2.826802e+01 3.427287e+01 3.206099e+00 2.297198e+01 1.196601e+01 3.534517e-01 8.003646e-01 1.464470e+00 7.683066e-01 9.666196e-01 1.845744e+00 2.080430e+00 1.777793e+00 9.114599e-01 9.409050e-01 8.254297e-01 1.139564e+00 1.499102e+00 2.934970e-02 1.057793e-01 9.235548e-02 1.217552e-01 1.206092e-01 2.720031e-01 1.552884e-01 2.478728e-01 6.025679e-02 2.210907e-01 1.045426e-01 2.446971e-01 1.576077e-01
<GCONST> 8.414384e+01
<MIXTURE> 2 5.000000e-01
<MEAN> 39
 1.895318e+01 -3.218148e+00 -8.329944e+00 4.882607e+00 -1.920277e+00 4.606307e-02 4.545302e+00 1.231195e+01 6.423714e-01 1.782323e+00 6.611290e+00 -3.611713e+00 1.655716e+00 -9.172816e-01 -1.764803e+00 8.839299e-01 8.121492e-01 -8.170196e-01 1.528646e+00 2.628183e+00 6.000956e-01 1.086787e-01 1.279660e+00 8.512172e-01 4.806796e-01 1.098319e+00 -1.513576e-01 -3.701706e-02 1.888527e-01 -2.469304e-01 3.587644e-01 5.521887e-01 -3.978827e-01 -3.157338e-01 4.030627e-01 1.555557e-01 -2.855025e-01 -1.600583e-01 -2.845566e-02
<VARIANCE> 39
 1.057623e+01 1.323512e+01 2.443946e+01 1.460607e+01 3.263497e+01 5.226425e+01 2.173666e+01 2.728192e+01 2.826802e+01 3.427287e+01 3.206099e+00 2.297198e+01 1.196601e+01 3.534517e-01 8.003646e-01 1.464470e+00 7.683066e-01 9.666196e-01 1.845744e+00 2.080430e+00 1.777793e+00 9.114599e-01 9.409050e-01 8.254297e-01 1.139564e+00 1.499102e+00 2.934970e-02 1.057793e-01 9.235548e-02 1.217552e-01 1.206092e-01 2.720031e-01 1.552884e-01 2.478728e-01 6.025679e-02 2.210907e-01 1.045426e-01 2.446971e-01 1.576077e-01
<GCONST> 8.414384e+01
<TRANSP> 5
 0.000000e+00 1.000000e+00 0.000000e+00 0.000000e+00 0.000000e+00
 0.000000e+00 9.130552e-01 8.694478e-02 0.000000e+00 0.000000e+00
 0.000000e+00 0.000000e+00 5.934898e-01 4.065102e-01 0.000000e+00
 0.000000e+00 0.000000e+00 0.000000e+00 7.466001e-01 2.533999e-01
 0.000000e+00 0.000000e+00 0.000000e+00 0.000000e+00 0.000000e+00
<ENDHMM>
~h "dxh"
<BEGINHMM>
<NUMSTATES> 5
<STATE> 2
<NUMMIXES> 2
<MIXTURE> 1 5.000000e-01
<MEAN> 39
 2.577358e+00 1.927003e+01 1.703124e+01 1.775410e+01 1.680856e+01 1.738402e+01 9.121073e+00 1.023837e+01 1.615732e-01 -3.530272e+00 -2.288556e+00 -4.624211e+00 -5.004878e+00 -4.166318e-01 -2.405463e-01 6.609369e-02 8.033887e-02 -3.062751e-01 -3.993729e-01 -8.428127e-02 5.078290e-01 6.691108e-01 5.367222e-01 2.161768e-01 2.627267e-01 8.263824e-02 4.068574e-02 -3.174399e-01 -2.038341e-01 -1.315619e-02 1.630802e-02 -1.484118e-01 -1.544444e-01 6.304632e-02 1.700146e-02 2.360632e-02 -4.183364e-02 7.166773e-03 3.108117e-01
<VARIANCE> 39
 2.987405e+00 3.080734e+00 3.482344e+00 7.005627e+00 2.911460e+00 1.555453e+01 1.791733e+01 1.542470e+01 2.718932e+01 1.646452e+01 4.269723e+00 5.405904e+00 6.343253e+00 2.530133e-01 6.837087e-01 8.534291e-01 6.924041e-01 4.205318e-01 9.017923e-01 1.704221e+00 3.954936e-01 1.093479e+00 8.759627e-01 3.061006e-01 6.625764e-01 1.429395e+00 1.821782e-02 2.133794e-01 8.976556e-02 8.920629e-02 6.480967e-02 1.779670e-01 2.147490e-01 6.977746e-02 1.776251e-01 1.614349e-01 4.339599e-02 7.542846e-02 1.941467e-01
<GCONST> 6.273699e+01
<MIXTURE> 2 5.000000e-01
<MEAN> 39
 2.577358e+00 1.927003e+01 1.703124e+01 1.775410e+01 1.680856e+01 1.738402e+01 9.121073e+00 1.023837e+01 1.615732e-01 -3.530272e+00 -2.288556e+00 -4.624211e+00 -5.004878e+00 -4.166318e-01 -2.405463e-01 6.609369e-02 8.033887e-02 -3.062751e-01 -3.993729e-01 -8.428127e-02 5.078290e-01 6.691108e-01 5.367222e-01 2.161768e-01 2.627267e-01 8.263824e-02 4.068574e-02 -3.174399e-01 -2.038341e-01 -1.315619e-02 1.630802e-02 -1.484118e-01 -1.544444e-01 6.304632e-02 1.700146e-02 2.360632e-02 -4.183364e-02 7.166773e-03 3.108117e-01
<VARIANCE> 39
 2.987405e+00 3.080734e+00 3.482344e+00 7.005627e+00 2.911460e+00 1.555453e+01 1.791733e+01 1.542470e+01 2.718932e+01 1.646452e+01 4.269723e+00 5.405904e+00 6.343253e+00 2.530133e-01 6.837087e-01 8.534291e-01 6.924041e-01 4.205318e-01 9.017923e-01 1.704221e+00 3.954936e-01 1.093479e+00 8.759627e-01 3.061006e-01 6.625764e-01 1.429395e+00 1.821782e-02 2.133794e-01 8.976556e-02 8.920629e-02 6.480967e-02 1.779670e-01 2.147490e-01 6.977746e-02 1.776251e-01 1.614349e-01 4.339599e-02 7.542846e-02 1.941467e-01
<GCONST> 6.273699e+01
<STATE> 3
<NUMMIXES> 2
<MIXTURE> 1 5.000000e-01
<MEAN> 39
 2.351882e+00 1.794087e+01 1.755778e+01 2.044587e+01 1.707895e+01 1.314593e+01 4.531672e+00 9.920588e+00 3.041341e-01 -5.059798e+00 -4.386074e+00 -7.317978e+00 -6.000501e+00 -8.238757e-01 -1.662245e+00 -7.088150e-01 -5.558865e-01 5.088516e-02 1.063679e-01 6.228870e-01 1.058217e+00 7.852893e-01 1.056959e+00 1.661500e-01 7.417461e-01 2.097942e+00 -1.629696e-02 -7.439365e-01 -4.676726e-01 -3.880377e-01 -3.736662e-01 2.197597e-01 5.004799e-01 2.398719e-01 2.081320e-02 1.685080e-01 1.927651e-01 1.582319e-01 3.670774e-01
<VARIANCE> 39
 1.643360e+01 1.228865e+01 2.590383e+01 8.118360e+00 1.109339e+01 3.385421e+01 2.486157e+01 1.172209e+01 8.683086e+00 1.712162e+01 1.874953e+01 1.563679e+01 2.030396e+01 3.016413e-03 2.523624e+00 2.886479e-02 1.158323e+00 5.254680e-01 5.627633e-01 1.027849e+00 2.366079e-01 1.264061e-01 2.294766e-02 1.012816e-01 5.602196e-01 1.208865e+00 3.675788e-02 5.432642e-02 2.047798e-01 1.397591e-01 1.754530e-03 7.375542e-02 3.317555e-01 5.725527e-02 1.065825e-01 2.130321e-01 1.821130e-01 1.079224e-01 2.897828e-01
<GCONST> 5.656030e+01
<MIXTURE> 2 5.000000e-01
<MEAN> 39
 2.351882e+00 1.794087e+01 1.755778e+01 2.044587e+01 1.707895e+01 1.314593e+01 4.531672e+00 9.920588e+00 3.041341e-01 -5.059798e+00 -4.386074e+00 -7.317978e+00 -6.000501e+00 -8.238757e-01 -1.662245e+00 -7.088150e-01 -5.558865e-01 5.088516e-02 1.063679e-01 6.228870e-01 1.058217e+00 7.852893e-01 1.056959e+00 1.661500e-01 7.417461e-01 2.097942e+00 -1.629696e-02 -7.439365e-01 -4.676726e-01 -3.880377e-01 -3.736662e-01 2.197597e-01 5.004799e-01 2.398719e-01 2.081320e-02 1.685080e-01 1.927651e-01 1.582319e-01 3.670774e-01
<VARIANCE> 39
 1.643360e+01 1.228865e+01 2.590383e+01 8.118360e+00 1.109339e+01 3.385421e+01 2.486157e+01 1.172209e+01 8.683086e+00 1.712162e+01 1.874953e+01 1.563679e+01 2.030396e+01 3.016413e-03 2.523624e+00 2.886479e-02 1.158323e+00 5.254680e-01 5.627633e-01 1.027849e+00 2.366079e-01 1.264061e-01 2.294766e-02 1.012816e-01 5.602196e-01 1.208865e+00 3.675788e-02 5.432642e-02 2.047798e-01 1.397591e-01 1.754530e-03 7.375542e-02 3.317555e-01 5.725527e-02 1.065825e-01 2.130321e-01 1.821130e-01 1.079224e-01 2.897828e-01
<GCONST> 5.656030e+01
<STATE> 4
<NUMMIXES> 2
<MIXTURE> 1 5.000000e-01
<MEAN> 39
 1.846430e+00 1.568394e+01 1.539528e+01 1.851733e+01 1.617701e+01 1.119657e+01 3.196304e+00 1.016800e+01 6.674410e-01 -2.146134e+00 -3.018308e+00 -5.208508e+00 -1.209663e+00 -7.917261e-01 -2.448502e+00 -1.365162e+00 -9.463475e-01 -5.050325e-01 6.017712e-01 1.708263e+00 1.679682e+00 1.005420e+00 9.447119e-01 1.299044e-01 5.252790e-01 1.924233e+00 4.614611e-02 -5.994965e-01 -3.450353e-01 -2.330774e-01 -6.217935e-01 1.238842e-01 3.608277e-01 -6.742692e-02 -3.205543e-01 -1.736074e-01 3.772716e-01 3.287666e-02 -1.487402e-01
<VARIANCE> 39
 2.303849e+00 1.840389e+01 2.855798e+00 1.562244e+01 3.650769e+00 8.026039e+00 1.072283e+01 1.285441e+01 2.100509e+01 2.047672e+01 1.574522e+01 1.834328e+01 2.498022e+01 1.396511e-02 3.162461e+00 1.431232e-01 1.508774e+00 6.226153e-01 1.762309e+00 3.255424e+00 9.595589e-01 4.271959e-01 9.867757e-01 1.081993e+00 8.685569e-01 6.224998e-01 3.602142e-02 9.020543e-02 2.626969e-02 5.795005e-02 1.974429e-01 9.523590e-02 3.437571e-01 1.286546e-01 5.271355e-02 1.381351e-01 7.881783e-01 1.721884e-02 4.669255e-01
<GCONST> 6.836060e+01
<MIXTURE> 2 5.000000e-01
<MEAN> 39
 1.846430e+00 1.568394e+01 1.539528e+01 1.851733e+01 1.617701e+01 1.119657e+01 3.196304e+00 1.016800e+01 6.674410e-01 -2.146134e+00 -3.018308e+00 -5.208508e+00 -1.209663e+00 -7.917261e-01 -2.448502e+00 -1.365162e+00 -9.463475e-01 -5.050325e-01 6.017712e-01 1.708263e+00 1.679682e+00 1.005420e+00 9.447119e-01 1.299044e-01 5.252790e-01 1.924233e+00 4.614611e-02 -5.994965e-01 -3.450353e-01 -2.330774e-01 -6.217935e-01 1.238842e-01 3.608277e-01 -6.742692e-02 -3.205543e-01 -1.736074e-01 3.772716e-01 3.287666e-02 -1.487402e-01
<VARIANCE> 39
 2.303849e+00 1.840389e+01 2.855798e+00 1.562244e+01 3.650769e+00 8.026039e+00 1.072283e+01 1.285441e+01 2.100509e+01 2.047672e+01 1.574522e+01 1.834328e+01 2.498022e+01 1.396511e-02 3.162461e+00 1.431232e-01 1.508774e+00 6.226153e-01 1.762309e+00 3.255424e+00 9.595589e-01 4.271959e-01 9.867757e-01 1.081993e+00 8.685569e-01 6.224998e-01 3.602142e-02 9.020543e-02 2.626969e-02 5.795005e-02 1.974429e-01 9.523590e-02 3.437571e-01 1.286546e-01 5.271355e-02 1.381351e-01 7.881783e-01 1.721884e-02 4.669255e-01
<GCONST> 6.836060e+01
<TRANSP> 5
 0.000000e+00 1.000000e+00 0.000000e+00 0.000000e+00 0.000000e+00
 0.000000e+00 8.235325e-01 1.764675e-01 0.000000e+00 0.000000e+00
 0.000000e+00 0.000000e+00 2.522337e-44 1.000000e+00 0.000000e+00
 0.000000e+00 0.000000e+00 0.000000e+00 5.257333e-06 9.999948e-01
 0.000000e+00 0.000000e+00 0.000000e+00 0.000000e+00 0.000000e+00
<ENDHMM>
~h "dxq"
<BEGINHMM>
<NUMSTATES> 5
<STATE> 2
<NUMMIXES> 2
<MIXTURE> 1 5.000000e-01
<MEAN> 39
 2.246247e+01 8.011061e+00 -8.688912e+00 -4.646741e+00 6.443576e+00 7.453455e-01 -1.669453e+01 -9.098259e-01 3.878586e+00 -6.764822e-01 8.016044e-01 -9.629574e+00 -8.771238e+00 1.106321e-01 2.850408e-01 -4.084888e-01 -9.862349e-01 -3.610103e-01 1.582098e+00 2.141458e+00 2.048086e-01 -1.472919e+00 -1.204086e+00 -2.292838e-01 3.252277e-01 2.065504e-01 -6.449117e-02 -7.434279e-03 1.174969e-01 1.559207e-01 -1.076541e-01 -1.224139e-01 2.511944e-01 3.247817e-01 -2.518626e-02 -2.433481e-01 -1.932140e-01 1.051588e-01 1.856275e-01
<VARIANCE> 39
 6.850581e+00 3.935857e+01 6.104319e+01 2.530081e+01 3.783424e+01 2.620322e+01 4.846491e+01 2.118592e+01 2.899722e+01 3.315081e+01 1.568139e+01 3.122539e+01 3.636167e+01 4.287738e-01 3.466847e-01 1.088934e+00 1.535533e+00 7.579050e-01 1.246475e+00 2.987212e+00 1.362783e+00 7.253118e-01 1.587756e+00 9.819810e-01 1.052505e+00 1.070300e+00 5.816739e-02 5.361432e-02 1.030532e-01 1.069833e-01 1.011593e-01 1.087253e-01 2.772821e-01 1.579637e-01 9.638400e-02 1.459216e-01 1.367767e-01 8.833802e-02 8.766907e-02
<GCONST> 8.627209e+01
<MIXTURE> 2 5.000000e-01
<MEAN> 39
 2.246247e+01 8.011061e+00 -8.688912e+00 -4.646741e+00 6.443576e+00 7.453455e-01 -1.669453e+01 -9.098259e-01 3.878586e+00 -6.764822e-01 8.016044e-01 -9.629574e+00 -8.771238e+00 1.106321e-01 2.850408e-01 -4.084888e-01 -9.862349e-01 -3.610103e-01 1.582098e+00 2.141458e+00 2.048086e-01 -1.472919e+00 -1.204086e+00 -2.292838e-01 3.252277e-01 2.065504e-01 -6.449117e-02 -7.434279e-03 1.174969e-01 1.559207e-01 -1.076541e-01 -1.224139e-01 2.511944e-01 3.247817e-01 -2.518626e-02 -2.433481e-01 -1.932140e-01 1.051588e-01 1.856275e-01
<VARIANCE> 39
 6.850581e+00 3.935857e+01 6.104319e+01 2.530081e+01 3.783424e+01 2.620322e+01 4.846491e+01 2.118592e+01 2.899722e+01 3.315081e+01 1.568139e+01 3.122539e+01 3.636167e+01 4.287738e-01 3.466847e-01 1.088934e+00 1.535533e+00 7.579050e-01 1.246475e+00 2.987212e+00 1.362783e+00 7.253118e-01 1.587756e+00 9.819810e-01 1.052505e+00 1.070300e+00 5.816739e-02 5.361432e-02 1.030532e-01 1.069833e-01 1.011593e-01 1.087253e-01 2.772821e-01 1.579637e-01 9.638400e-02 1.459216e-01 1.367767e-01 8.833802e-02 8.766907e-02
<GCONST> 8.627209e+01
<STATE> 3
<NUMMIXES> 2
<MIXTURE> 1 5.000000e-01
<MEAN> 39
 2.246045e+01 5.726071e+00 -1.196585e+01 -5.888610e+00 7.938601e+00 7.185542e+00 -6.702299e+00 3.382925e+00 -4.417242e+00 -1.004535e+01 -4.861142e-01 -5.677307e+00 -4.572012e+00 -4.446828e-01 1.156045e-01 8.452693e-01 8.127387e-01 -6.410921e-01 1.531031e-01 2.206996e+00 1.378306e+00 -8.138584e-01 -1.355491e+00 -9.516099e-01 1.409628e-01 4.681309e-01 -1.265761e-01 -3.308322e-01 2.432416e-01 5.553538e-01 1.012043e-01 -6.037957e-01 -5.677140e-01 2.485351e-01 4.512708e-01 1.277182e-01 1.081888e-02 -8.224978e-02 1.120938e-01
<VARIANCE> 39
 1.153924e+01 5.051942e+01 2.888307e+01 6.172361e+01 6.550407e+01 3.771740e+01 6.390188e+01 3.058070e+01 3.008801e+01 2.330923e+01 3.408124e+01 1.571757e+01 1.292121e+01 7.371631e-01 7.789400e-01 1.756008e+00 1.599180e+00 7.509034e-01 1.707974e+00 3.513587e+00 1.607142e+00 1.192895e+00 1.628489e+00 2.253521e+00 1.323233e+00 2.141375e+00 1.342554e-01 1.574733e-01 2.694579e-01 3.096270e-01 1.605898e-01 1.971084e-01 5.125588e-01 2.788386e-01 2.142765e-01 3.328246e-01 3.343499e-01 2.375391e-01 1.107548e-01
<GCONST> 1.021796e+02
<MIXTURE> 2 5.000000e-01
<MEAN> 39
 2.246045e+01 5.726071e+00 -1.196585e+01 -5.888610e+00 7.938601e+00 7.185542e+00 -6.702299e+00 3.382925e+00 -4.417242e+00 -1.004535e+01 -4.861142e-01 -5.677307e+00 -4.572012e+00 -4.446828e-01 1.156045e-01 8.452693e-01 8.127387e-01 -6.410921e-01 1.531031e-01 2.206996e+00 1.378306e+00 -8.138584e-01 -1.355491e+00 -9.516099e-01 1.409628e-01 4.681309e-01 -1.265761e-01 -3.308322e-01 2.432416e-01 5.553538e-01 1.012043e-01 -6.037957e-01 -5.677140e-01 2.485351e-01 4.512708e-01 1.277182e-01 1.081888e-02 -8.224978e-02 1.120938e-01
<VARIANCE> 39
 1.153924e+01 5.051942e+01 2.888307e+01 6.172361e+01 6.550407e+01 3.771740e+01 6.390188e+01 3.058070e+01 3.008801e+01 2.330923e+01 3.408124e+01 1.571757e+01 1.292121e+01 7.371631e-01 7.789400e-01 1.756008e+00 1.599180e+00 7.509034e-01 1.707974e+00 3.513587e+00 1.607142e+00 1.192895e+00 1.628489e+00 2.253521e+00 1.323233e+00 2.141375e+00 1.342554e-01 1.574733e-01 2.694579e-01 3.096270e-01 1.605898e-01 1.971084e-01 5.125588e-01 2.788386e-01 2.142765e-01 3.328246e-01 3.343499e-01 2.375391e-01 1.107548e-01
<GCONST> 1.021796e+02
<STATE> 4
<NUMMIXES> 2
<MIXTURE> 1 5.000000e-01
<MEAN> 39
 2.035953e+01 3.160147e+00 -6.458148e+00 1.769495e+00 5.404872e+00 2.944978e+00 -2.171391e+00 1.062013e+01 -4.784197e+00 -1.552086e+01 -4.867238e+00 -6.807542e+00 -1.776490e+00 -2.284795e-01 -1.480726e+00 3.178361e-01 1.866255e+00 4.326859e-01 -1.506138e+00 -8.828911e-01 1.181362e+00 1.221960e-01 -7.737271e-01 4.299089e-01 1.853944e-01 2.851219e-01 6.986845e-03 -1.098862e-01 -7.343777e-02 -4.991375e-02 8.828440e-02 -1.291906e-01 -3.975817e-01 -7.456081e-02 1.248483e-01 1.723018e-01 3.200117e-01 5.217740e-02 -1.122345e-01
<VARIANCE> 39
 8.623980e+00 5.452430e+01 2.397818e+01 6.389781e+01 2.992656e+01 6.134065e+01 5.888171e+01 4.922291e+01 2.752921e+01 2.997829e+01 4.472482e+01 1.981306e+01 1.281951e+01 1.027145e+00 2.249814e+00 1.661662e+00 1.586740e+00 1.539105e+00 2.826961e+00 4.627683e+00 2.152060e+00 1.898364e+00 2.081091e+00 3.680333e+00 1.013812e+00 1.434289e+00 2.017562e-01 4.908245e-01 2.458446e-01 2.857692e-01 2.385425e-01 5.722344e-01 8.953609e-01 3.434683e-01 2.717451e-01 3.151525e-01 6.115056e-01 1.598778e-01 2.267852e-01
<GCONST> 1.109277e+02
<MIXTURE> 2 5.000000e-01
<MEAN> 39
 2.035953e+01 3.160147e+00 -6.458148e+00 1.769495e+00 5.404872e+00 2.944978e+00 -2.171391e+00 1.062013e+01 -4.784197e+00 -1.552086e+01 -4.867238e+00 -6.807542e+00 -1.776490e+00 -2.284795e-01 -1.480726e+00 3.178361e-01 1.866255e+00 4.326859e-01 -1.506138e+00 -8.828911e-01 1.181362e+00 1.221960e-01 -7.737271e-01 4.299089e-01 1.853944e-01 2.851219e-01 6.986845e-03 -1.098862e-01 -7.343777e-02 -4.991375e-02 8.828440e-02 -1.291906e-01 -3.975817e-01 -7.456081e-02 1.248483e-01 1.723018e-01 3.200117e-01 5.217740e-02 -1.122345e-01
<VARIANCE> 39
 8.623980e+00 5.452430e+01 2.397818e+01 6.389781e+01 2.992656e+01 6.134065e+01 5.888171e+01 4.922291e+01 2.752921e+01 2.997829e+01 4.472482e+01 1.981306e+01 1.281951e+01 1.027145e+00 2.249814e+00 1.661662e+00 1.586740e+00 1.539105e+00 2.826961e+00 4.627683e+00 2.152060e+00 1.898364e+00 2.081091e+00 3.680333e+00 1.013812e+00 1.434289e+00 2.017562e-01 4.908245e-01 2.458446e-01 2.857692e-01 2.385425e-01 5.722344e-01 8.953609e-01 3.434683e-01 2.717451e-01 3.151525e-01 6.115056e-01 1.598778e-01 2.267852e-01
<GCONST> 1.109277e+02
<TRANSP> 5
 0.000000e+00 1.000000e+00 0.000000e+00 0.000000e+00 0.000000e+00
 0.000000e+00 8.262548e-01 1.737452e-01 0.000000e+00 0.000000e+00
 0.000000e+00 0.000000e+00 5.050801e-01 4.949199e-01 0.000000e+00
 0.000000e+00 0.000000e+00 0.000000e+00 8.396708e-01 1.603292e-01
 0.000000e+00 0.000000e+00 0.000000e+00 0.000000e+00 0.000000e+00
<ENDHMM>
~h "khq"
<BEGINHMM>
<NUMSTATES> 5
<STATE> 2
<NUMMIXES> 2
<MIXTURE> 1 5.000000e-01
<MEAN> 39
 5.098849e+00 -6.514025e+00 2.430083e+00 1.092778e+01 1.083864e+01 1.500667e+00 -1.140838e+01 9.359310e+00 -3.377835e+00 -1.113024e+01 6.044074e+00 -4.088247e-01 -3.646332e+00 -1.380477e-02 1.475701e-03 -1.072459e-03 -5.524765e-03 -3.099398e-03 2.005852e-03 8.190720e-04 -5.087083e-03 2.488556e-03 5.650900e-03 -1.806995e-03 5.936168e-04 1.443354e-03 -1.213556e-03 -1.404243e-04 -1.926630e-04 -5.029775e-04 -4.298560e-04 2.249404e-04 5.535607e-04 -2.933974e-04 7.204357e-05 8.173331e-04 -1.603794e-04 -1.434907e-04 3.551734e-04
<VARIANCE> 39
 2.696502e+02 1.642264e+02 1.776205e+02 1.699619e+02 1.712323e+02 1.501611e+02 1.653076e+02 1.112998e+02 8.102897e+01 1.132308e+02 1.038732e+02 3.576029e+01 7.139818e+01 2.864393e+00 3.049235e+00 2.950589e+00 2.442850e+00 2.488132e+00 2.882445e+00 3.574063e+00 2.837703e+00 2.254665e+00 3.083899e+00 2.848865e+00 1.410452e+00 1.706605e+00 2.059384e-01 2.861855e-01 3.165202e-01 2.798763e-01 2.958655e-01 3.292713e-01 4.082396e-01 3.875320e-01 3.475762e-01 4.161765e-01 3.917231e-01 2.236369e-01 2.362328e-01
<GCONST> 1.313330e+02
<MIXTURE> 2 5.000000e-01
<MEAN> 39
 5.098849e+00 -6.514025e+00 2.430083e+00 1.092778e+01 1.083864e+01 1.500667e+00 -1.140838e+01 9.359310e+00 -3.377835e+00 -1.113024e+01 6.044074e+00 -4.088247e-01 -3.646332e+00 -1.380477e-02 1.475701e-03 -1.072459e-03 -5.524765e-03 -3.099398e-03 2.005852e-03 8.190720e-04 -5.087083e-03 2.488556e-03 5.650900e-03 -1.806995e-03 5.936168e-04 1.443354e-03 -1.213556e-03 -1.404243e-04 -1.926630e-04 -5.029775e-04 -4.298560e-04 2.249404e-04 5.535607e-04 -2.933974e-04 7.204357e-05 8.173331e-04 -1.603794e-04 -1.434907e-04 3.551734e-04
<VARIANCE> 39
 2.696502e+02 1.642264e+02 1.776205e+02 1.699619e+02 1.712323e+02 1.501611e+02 1.653076e+02 1.112998e+02 8.102897e+01 1.132308e+02 1.038732e+02 3.576029e+01 7.139818e+01 2.864393e+00 3.049235e+00 2.950589e+00 2.442850e+00 2.488132e+00 2.882445e+00 3.574063e+00 2.837703e+00 2.254665e+00 3.083899e+00 2.848865e+00 1.410452e+00 1.706605e+00 2.059384e-01 2.861855e-01 3.165202e-01 2.798763e-01 2.958655e-01 3.292713e-01 4.082396e-01 3.875320e-01 3.475762e-01 4.161765e-01 3.917231e-01 2.236369e-01 2.362328e-01
<GCONST> 1.313330e+02
<STATE> 3
<NUMMIXES> 2
<MIXTURE> 1 5.000000e-01
<MEAN> 39
 5.098849e+00 -6.514025e+00 2.430083e+00 1.092778e+01 1.083864e+01 1.500667e+00 -1.140838e+01 9.359310e+00 -3.377835e+00 -1.113024e+01 6.044074e+00 -4.088247e-01 -3.646332e+00 -1.380477e-02 1.475701e-03 -1.072459e-03 -5.524765e-03 -3.099398e-03 2.005852e-03 8.190720e-04 -5.087083e-03 2.488556e-03 5.650900e-03 -1.806995e-03 5.936168e-04 1.443354e-03 -1.213556e-03 -1.404243e-04 -1.926630e-04 -5.029775e-04 -4.298560e-04 2.249404e-04 5.535607e-04 -2.933974e-04 7.204357e-05 8.173331e-04 -1.603794e-04 -1.434907e-04 3.551734e-04
<VARIANCE> 39
 2.696502e+02 1.642264e+02 1.776205e+02 1.699619e+02 1.712323e+02 1.501611e+02 1.653076e+02 1.112998e+02 8.102897e+01 1.132308e+02 1.038732e+02 3.576029e+01 7.139818e+01 2.864393e+00 3.049235e+00 2.950589e+00 2.442850e+00 2.488132e+00 2.882445e+00 3.574063e+00 2.837703e+00 2.254665e+00 3.083899e+00 2.848865e+00 1.410452e+00 1.706605e+00 2.059384e-01 2.861855e-01 3.165202e-01 2.798763e-01 2.958655e-01 3.292713e-01 4.082396e-01 3.875320e-01 3.475762e-01 4.161765e-01 3.917231e-01 2.236369e-01 2.362328e-01
<GCONST> 1.313330e+02
<MIXTURE> 2 5.000000e-01
<MEAN> 39
 5.098849e+00 -6.514025e+00 2.430083e+00 1.092778e+01 1.083864e+01 1.500667e+00 -1.140838e+01 9.359310e+00 -3.377835e+00 -1.113024e+01 6.044074e+00 -4.088247e-01 -3.646332e+00 -1.380477e-02 1.475701e-03 -1.072459e-03 -5.524765e-03 -3.099398e-03 2.005852e-03 8.190720e-04 -5.087083e-03 2.488556e-03 5.650900e-03 -1.806995e-03 5.936168e-04 1.443354e-03 -1.213556e-03 -1.404243e-04 -1.926630e-04 -5.029775e-04 -4.298560e-04 2.249404e-04 5.535607e-04 -2.933974e-04 7.204357e-05 8.173331e-04 -1.603794e-04 -1.434907e-04 3.551734e-04
<VARIANCE> 39
 2.696502e+02 1.642264e+02 1.776205e+02 1.699619e+02 1.712323e+02 1.501611e+02 1.653076e+02 1.112998e+02 8.102897e+01 1.132308e+02 1.038732e+02 3.576029e+01 7.139818e+01 2.864393e+00 3.049235e+00 2.950589e+00 2.442850e+00 2.488132e+00 2.882445e+00 3.574063e+00 2.837703e+00 2.254665e+00 3.083899e+00 2.848865e+00 1.410452e+00 1.706605e+00 2.059384e-01 2.861855e-01 3.165202e-01 2.798763e-01 2.958655e-01 3.292713e-01 4.082396e-01 3.875320e-01 3.475762e-01 4.161765e-01 3.917231e-01 2.236369e-01 2.362328e-01
<GCONST> 1.313330e+02
<STATE> 4
<NUMMIXES> 2
<MIXTURE> 1 5.000000e-01
<MEAN> 39
 5.098849e+00 -6.514025e+00 2.430083e+00 1.092778e+01 1.083864e+01 1.500667e+00 -1.140838e+01 9.359310e+00 -3.377835e+00 -1.113024e+01 6.044074e+00 -4.088247e-01 -3.646332e+00 -1.380477e-02 1.475701e-03 -1.072459e-03 -5.524765e-03 -3.099398e-03 2.005852e-03 8.190720e-04 -5.087083e-03 2.488556e-03 5.650900e-03 -1.806995e-03 5.936168e-04 1.443354e-03 -1.213556e-03 -1.404243e-04 -1.926630e-04 -5.029775e-04 -4.298560e-04 2.249404e-04 5.535607e-04 -2.933974e-04 7.204357e-05 8.173331e-04 -1.603794e-04 -1.434907e-04 3.551734e-04
<VARIANCE> 39
 2.696502e+02 1.642264e+02 1.776205e+02 1.699619e+02 1.712323e+02 1.501611e+02 1.653076e+02 1.112998e+02 8.102897e+01 1.132308e+02 1.038732e+02 3.576029e+01 7.139818e+01 2.864393e+00 3.049235e+00 2.950589e+00 2.442850e+00 2.488132e+00 2.882445e+00 3.574063e+00 2.837703e+00 2.254665e+00 3.083899e+00 2.848865e+00 1.410452e+00 1.706605e+00 2.059384e-01 2.861855e-01 3.165202e-01 2.798763e-01 2.958655e-01 3.292713e-01 4.082396e-01 3.875320e-01 3.475762e-01 4.161765e-01 3.917231e-01 2.236369e-01 2.362328e-01
<GCONST> 1.313330e+02
<MIXTURE> 2 5.000000e-01
<MEAN> 39
 5.098849e+00 -6.514025e+00 2.430083e+00 1.092778e+01 1.083864e+01 1.500667e+00 -1.140838e+01 9.359310e+00 -3.377835e+00 -1.113024e+01 6.044074e+00 -4.088247e-01 -3.646332e+00 -1.380477e-02 1.475701e-03 -1.072459e-03 -5.524765e-03 -3.099398e-03 2.005852e-03 8.190720e-04 -5.087083e-03 2.488556e-03 5.650900e-03 -1.806995e-03 5.936168e-04 1.443354e-03 -1.213556e-03 -1.404243e-04 -1.926630e-04 -5.029775e-04 -4.298560e-04 2.249404e-04 5.535607e-04 -2.933974e-04 7.204357e-05 8.173331e-04 -1.603794e-04 -1.434907e-04 3.551734e-04
<VARIANCE> 39
 2.696502e+02 1.642264e+02 1.776205e+02 1.699619e+02 1.712323e+02 1.501611e+02 1.653076e+02 1.112998e+02 8.102897e+01 1.132308e+02 1.038732e+02 3.576029e+01 7.139818e+01 2.864393e+00 3.049235e+00 2.950589e+00 2.442850e+00 2.488132e+00 2.882445e+00 3.574063e+00 2.837703e+00 2.254665e+00 3.083899e+00 2.848865e+00 1.410452e+00 1.706605e+00 2.059384e-01 2.861855e-01 3.165202e-01 2.798763e-01 2.958655e-01 3.292713e-01 4.082396e-01 3.875320e-01 3.475762e-01 4.161765e-01 3.917231e-01 2.236369e-01 2.362328e-01
<GCONST> 1.313330e+02
<TRANSP> 5
 0.000000e+00 1.000000e+00 0.000000e+00 0.000000e+00 0.000000e+00
 0.000000e+00 6.000000e-01 4.000000e-01 0.000000e+00 0.000000e+00
 0.000000e+00 0.000000e+00 6.000000e-01 4.000000e-01 0.000000e+00
 0.000000e+00 0.000000e+00 0.000000e+00 6.000000e-01 4.000000e-01
 0.000000e+00 0.000000e+00 0.000000e+00 0.000000e+00 0.000000e+00
<ENDHMM>
~h "txh"
<BEGINHMM>
<NUMSTATES> 5
<STATE> 2
<NUMMIXES> 2
<MIXTURE> 1 6.640411e-01
<MEAN> 39
 2.331511e+00 3.227475e+00 -4.298922e+00 5.596195e+00 1.378310e+01 1.304778e+01 -9.934250e-01 2.671497e+00 -4.143544e+00 -3.472380e+00 6.638055e+00 8.132276e+00 6.811222e+00 -3.275384e+00 -4.766135e-02 1.407250e+00 3.750764e-01 -1.269986e+00 3.153658e-02 1.273795e+00 5.760937e-02 5.555589e-01 1.042177e+00 -8.730215e-01 -3.114382e-01 8.873752e-01 -4.045501e-03 -5.567412e-01 -1.423499e-01 -1.179545e-01 -1.684569e-01 -2.473101e-01 -3.035903e-01 2.084168e-01 1.321492e-01 -1.551716e-01 3.801675e-02 -2.573211e-01 -1.205540e-01
<VARIANCE> 39
 1.479241e+02 2.675190e+01 4.682536e+01 2.353067e+01 3.025929e+01 3.156497e+01 4.230988e+01 2.313561e+01 2.418703e+01 3.350753e+01 2.757442e+01 1.755448e+01 2.818431e+01 7.082497e-01 4.433933e+00 2.896765e+00 1.456386e+00 1.452843e+00 2.969685e+00 2.715701e+00 1.886381e+00 1.804139e+00 1.814367e+00 1.981481e+00 1.840599e+00 2.794791e+00 2.033536e-01 5.650563e-01 2.996437e-01 1.669497e-01 2.457518e-01 4.031782e-01 3.003388e-01 3.969262e-01 4.192415e-01 2.832331e-01 3.329677e-01 2.953805e-01 3.338319e-01
<GCONST> 1.109745e+02
<MIXTURE> 2 3.359590e-01
<MEAN> 39
 -2.653392e+01 -6.370080e+00 -5.064007e+00 -3.005274e+00 -3.424227e+00 9.769138e-01 -3.491716e+00 1.203174e+00 -1.544517e+00 -4.887850e-01 6.177587e-01 -1.128867e+00 2.259948e-01 2.870261e-02 1.419012e-03 1.292111e-02 1.571395e-01 8.986846e-02 -1.588414e-01 -1.315526e-01 1.008376e-01 2.504417e-01 1.035850e-01 -1.286988e-01 -1.550737e-01 2.406961e-03 2.691762e-01 3.560330e-02 1.725591e-01 3.404668e-01 3.798772e-01 3.644809e-01 2.274073e-01 2.076720e-01 9.506102e-02 3.556087e-02 1.106194e-01 2.048671e-01 2.502973e-01
<VARIANCE> 39
 5.476429e-01 1.484112e+00 2.511142e+00 2.793019e+00 2.606633e+00 3.998937e+00 5.629080e+00 5.952188e+00 8.168621e+00 9.395391e+00 7.217525e+00 6.171499e+00 4.047906e+00 4.165992e-01 6.571024e-01 6.470385e-01 1.110809e+00 1.360646e+00 1.665102e+00 1.404983e+00 1.446699e+00 1.781352e+00 1.334386e+00 1.177382e+00 1.492780e+00 1.115837e+00 1.412579e-01 1.137737e-01 1.191011e-01 1.889775e-01 3.128140e-01 4.186218e-01 3.201793e-01 3.962176e-01 4.378137e-01 2.981808e-01 2.368500e-01 2.511945e-01 2.450251e-01
<GCONST> 7.196295e+01
<STATE> 3
<NUMMIXES> 2
<MIXTURE> 1 6.974623e-01
<MEAN> 39
 -1.217175e+01 -8.292336e+00 4.894611e-01 1.067793e+01 8.092896e+00 1.042877e+01 1.963907e+00 8.813259e+00 4.334464e+00 1.360467e+00 1.221322e+00 1.004170e+00 9.435966e+00 1.456725e+00 -3.145403e+00 5.860499e-01 1.028021e+00 -5.316513e-01 4.683248e-01 1.567304e-01 1.293868e+00 1.295179e+00 6.759671e-01 7.324204e-01 -1.006800e+00 -3.938582e-01 7.326915e-01 -4.474722e-01 6.230229e-02 -3.530537e-01 -3.649465e-01 8.690368e-03 -3.224076e-01 -2.841823e-01 -6.912261e-01 -4.177299e-01 8.120412e-01 3.086227e-01 -7.551489e-01
<VARIANCE> 39
 4.865258e+01 3.376878e+01 1.681613e+01 1.982654e+01 2.331524e+01 2.577771e+01 1.928824e+01 3.010564e+01 2.885390e+01 1.969301e+01 1.769895e+01 2.032019e+01 2.871853e+01 5.335475e+00 4.970478e+00 1.710568e+00 3.241764e+00 6.160439e+00 2.966691e+00 2.708331e+00 3.482615e+00 4.113669e+00 2.633685e+00 4.133168e+00 3.068717e+00 5.599238e+00 4.300843e-01 2.157061e-01 2.753231e-01 3.306640e-01 6.111201e-01 5.692338e-01 3.876538e-01 5.372816e-01 8.450726e-01 4.739587e-01 6.008413e-01 7.896817e-01 7.464954e-01
<GCONST> 1.206732e+02
<MIXTURE> 2 3.025376e-01
<MEAN> 39
 -4.565736e+00 -2.237581e+01 6.369949e+00 1.073829e+01 1.375998e+00 1.327518e+01 -7.397934e-01 6.726170e+00 2.369562e+00 -5.766910e-01 7.583139e+00 -1.786422e-01 1.740273e+00 2.014694e+00 -5.274894e+00 2.646845e+00 -1.534074e-01 -1.653525e+00 1.861324e+00 -8.229746e-01 -4.806114e-01 -3.384150e+00 -2.520742e+00 4.095735e+00 1.849527e+00 -2.375725e+00 -2.927288e-01 1.610573e-01 5.217367e-01 8.254227e-02 5.419381e-01 9.107313e-01 9.308299e-02 -8.836195e-02 -8.898441e-01 -4.587287e-01 3.900394e-01 5.391548e-01 8.286560e-01
<VARIANCE> 39
 7.678784e+00 2.768095e+01 1.431117e+01 1.418348e+01 1.416810e+01 2.128250e+01 1.707628e+01 2.585830e+01 3.563076e+01 3.157199e+01 2.713807e+01 3.671052e+01 1.507127e+01 6.777361e-01 6.050830e-01 1.100380e+00 8.974591e-01 1.374051e+00 2.672152e+00 1.588481e+00 2.667037e+00 2.980455e+00 2.574795e+00 1.834603e+00 2.090668e+00 2.303109e+00 3.488756e-01 3.613802e-01 2.620934e-01 1.220991e-01 1.703211e-01 2.821520e-01 2.401921e-01 4.597940e-01 8.532006e-01 6.174868e-01 3.969326e-01 5.167477e-01 3.095054e-01
<GCONST> 1.026985e+02
<STATE> 4
<NUMMIXES> 2
<MIXTURE> 1 4.246392e-01
<MEAN> 39
 1.773607e+00 -1.766751e+01 -9.832297e+00 4.463260e+00 -9.458762e-01 7.616280e+00 7.689501e+00 1.395485e+01 2.418922e+00 3.709641e+00 1.425857e+01 7.510858e+00 9.106575e+00 -3.460234e-01 1.744698e+00 -5.194528e-01 -6.962788e-01 -6.421276e-01 -1.388421e+00 -1.123441e-01 -7.263816e-03 5.921876e-01 2.203746e-01 -1.389809e+00 -5.918539e-01 -5.702325e-02 -1.002673e-01 -1.549083e-01 2.481947e-01 -2.878362e-02 -7.590119e-02 7.901512e-03 -1.934376e-01 -2.973250e-02 -6.622619e-02 -1.638980e-01 -2.579603e-02 -7.771078e-02 -2.193942e-01
<VARIANCE> 39
 9.352370e+01 6.898111e+01 6.755078e+01 5.411628e+01 1.414338e+02 1.243732e+02 4.269200e+01 6.053617e+01 6.426035e+01 7.336520e+01 9.194665e+01 4.875027e+01 1.962480e+01 1.719211e+00 3.972600e+00 2.864146e+00 1.986960e+00 2.891757e+00 3.187465e+00 1.984836e+00 1.876034e+00 2.044809e+00 2.447475e+00 2.164801e+00 2.164318e+00 1.886453e+00 1.577719e-01 3.330331e-01 2.569022e-01 2.433407e-01 3.726737e-01 3.888902e-01 2.826427e-01 3.311715e-01 3.313634e-01 4.120972e-01 3.693503e-01 3.598782e-01 2.798589e-01
<GCONST> 1.218130e+02
<MIXTURE> 2 5.753611e-01
<MEAN> 39
 -3.263348e+00 -3.369015e+01 1.030085e+01 1.205456e+01 3.858660e+00 2.292265e+01 4.010292e-01 6.101895e+00 -6.635002e+00 -3.743828e+00 1.895730e+01 5.190289e+00 2.512742e+00 1.154605e-01 6.203239e-01 -8.291144e-01 3.545756e-01 9.499153e-01 3.520787e-01 5.980091e-01 -6.169469e-02 -2.807785e-01 3.490736e-01 7.269922e-01 6.263839e-01 4.393224e-01 -1.418139e-01 9.448230e-01 -4.649888e-01 2.256502e-02 1.869314e-01 -5.253295e-01 6.828313e-02 2.329831e-02 4.928923e-01 3.017626e-01 -6.151644e-01 -1.773386e-01 1.607825e-01
<VARIANCE> 39
 2.586173e+01 6.966311e+01 8.056481e+01 3.983698e+01 4.644042e+01 6.588587e+01 4.378154e+01 6.283947e+01 3.159427e+01 5.103328e+01 5.728696e+01 4.924711e+01 2.694288e+01 1.760890e+00 9.792512e+00 7.565408e+00 1.610966e+00 2.186713e+00 5.856065e+00 2.433122e+00 2.517211e+00 4.573378e+00 3.865231e+00 5.433968e+00 2.196408e+00 1.381615e+00 3.453878e-01 5.128363e-01 1.080654e+00 2.332322e-01 4.028372e-01 6.375012e-01 4.651076e-01 4.818729e-01 7.904959e-01 8.083695e-01 5.096803e-01 3.847261e-01 3.375224e-01
<GCONST> 1.280754e+02
<TRANSP> 5
 0.000000e+00 1.000000e+00 0.000000e+00 0.000000e+00 0.000000e+00
 0.000000e+00 9.016693e-01 9.833071e-02 0.000000e+00 0.000000e+00
 0.000000e+00 0.000000e+00 8.385500e-01 1.614500e-01 0.000000e+00
 0.000000e+00 0.000000e+00 0.000000e+00 9.234385e-01 7.656153e-02
 0.000000e+00 0.000000e+00 0.000000e+00 0.000000e+00 0.000000e+00
<ENDHMM>
