~o
<STREAMINFO> 1 39
<VECSIZE> 39<NULLD><MFCC_D_A><DIAGC>
~h "a"
<BEGINHMM>
<NUMSTATES> 7
<STATE> 2
<NUMMIXES> 2
<MIXTURE> 1 6.539760e-01
<MEAN> 39
 1.018454e+01 -4.425018e+00 -3.962732e+00 3.475307e+00 5.132103e-01 -4.777972e+00 -6.618037e+00 1.488500e+01 -9.610077e-01 -1.079408e+01 5.335816e+00 1.558946e+00 3.654368e-01 1.876297e+00 -4.317181e-01 -1.409411e+00 1.164414e-01 3.941421e-01 -1.774161e+00 -1.310810e+00 1.108180e+00 -9.670937e-02 -1.351370e+00 6.648391e-01 1.988411e-01 -7.081930e-01 -1.966868e-01 -2.451474e-01 -1.048765e-01 -8.424061e-02 1.288033e-01 1.157266e-01 -4.159629e-04 1.598604e-01 -1.043050e-01 -1.212292e-01 1.804356e-01 2.281063e-02 -7.461805e-03
<VARIANCE> 39
 2.260411e+02 3.729459e+01 5.093703e+01 4.292427e+01 6.784387e+01 1.145858e+02 9.186575e+01 1.572316e+02 8.352882e+01 5.568151e+01 5.950274e+01 2.484100e+01 2.738746e+01 4.262357e+00 2.079388e+00 4.134083e+00 2.886029e+00 2.964235e+00 4.968513e+00 4.233378e+00 3.632467e+00 2.505028e+00 3.909841e+00 2.813037e+00 1.728240e+00 1.847498e+00 3.797538e-01 3.187737e-01 4.774169e-01 5.167815e-01 3.617434e-01 5.841267e-01 4.237918e-01 5.556738e-01 3.754149e-01 4.166420e-01 4.567121e-01 2.484716e-01 2.440697e-01
<GCONST> 1.286043e+02
<MIXTURE> 2 3.460215e-01
<MEAN> 39
 2.050297e+01 -1.113426e+01 -5.336647e+00 8.592975e+00 1.274426e+01 -2.919952e-01 -1.613618e+01 1.137722e+01 -1.113883e+01 -2.116823e+01 1.322031e+01 2.914195e+00 -2.545414e+00 1.741344e+00 -4.470956e-01 -2.947118e+00 4.236917e-02 1.540252e+00 -3.054436e+00 -2.293199e+00 2.202342e+00 -1.131068e+00 -2.675745e+00 2.292646e+00 6.610246e-01 -1.066366e+00 -7.484297e-01 -1.152453e-01 5.802408e-01 -4.063388e-01 -3.493261e-01 5.872947e-01 3.675237e-01 -1.285011e-01 2.774842e-01 6.333414e-01 -1.607749e-01 -1.029049e-01 3.444748e-01
<VARIANCE> 39
 7.376554e+00 1.436339e+01 3.488105e+01 3.568918e+01 3.675777e+01 3.561721e+01 3.332094e+01 3.753756e+01 3.258365e+01 2.594428e+01 4.707136e+01 1.476735e+01 2.026464e+01 1.251743e+00 2.170675e+00 2.918811e+00 1.970174e+00 1.302749e+00 2.015656e+00 2.674325e+00 1.826528e+00 1.353944e+00 2.131205e+00 1.925123e+00 1.085711e+00 1.071657e+00 2.121933e-01 2.527287e-01 4.831197e-01 4.068770e-01 2.285428e-01 2.197116e-01 2.744819e-01 3.824108e-01 2.132473e-01 3.375831e-01 3.630145e-01 1.605652e-01 1.522073e-01
<GCONST> 1.040808e+02
<STATE> 3
<NUMMIXES> 2
<MIXTURE> 1 6.556301e-01
<MEAN> 39
 2.231044e+01 -7.739337e+00 -1.083232e+01 4.514571e+00 2.583128e+00 -1.485436e+01 -1.050271e+01 2.617029e+01 2.371959e+00 -1.871243e+01 6.609448e+00 2.904634e+00 -2.588900e+00 4.098275e-02 -2.550955e-01 -1.512570e-01 -1.009267e-01 3.588418e-01 -1.506837e-01 -5.844634e-01 -8.694456e-03 -1.381140e-01 -3.837516e-01 1.175117e-01 6.142111e-02 2.085769e-02 -4.345590e-02 1.183394e-01 1.622175e-01 6.233123e-02 2.866348e-02 1.328714e-01 5.959654e-03 -6.316404e-02 -6.429923e-02 2.388619e-02 2.269863e-02 -6.298623e-02 -1.559490e-02
<VARIANCE> 39
 8.685052e+00 1.486303e+01 3.124727e+01 1.288476e+01 2.803352e+01 3.605189e+01 6.254744e+01 4.696141e+01 3.932239e+01 3.321064e+01 4.957055e+01 1.082237e+01 1.435800e+01 6.141763e-01 7.600949e-01 9.509125e-01 7.069715e-01 8.321734e-01 1.305955e+00 1.459949e+00 1.748955e+00 1.030434e+00 1.055899e+00 1.962082e+00 5.981930e-01 4.861874e-01 1.087919e-01 7.825055e-02 1.092239e-01 1.011846e-01 9.313539e-02 1.226371e-01 1.676608e-01 2.327363e-01 8.757843e-02 1.557704e-01 1.904279e-01 9.362916e-02 7.007211e-02
<GCONST> 8.498147e+01
<MIXTURE> 2 3.443719e-01
<MEAN> 39
 2.143695e+01 -1.067146e+01 -7.714672e+00 6.144460e+00 1.230550e+01 -6.342641e+00 -1.924370e+01 1.993408e+01 -9.049564e+00 -2.336526e+01 1.720813e+01 2.169270e+00 -4.261993e+00 5.322071e-01 -5.338061e-01 -8.427904e-01 -4.656061e-01 4.244936e-01 -9.039478e-01 -1.207982e+00 1.028238e+00 -1.098436e-01 -8.034024e-01 1.014058e+00 2.087759e-01 -6.629467e-02 -4.099780e-01 2.486312e-01 3.503078e-01 6.437141e-03 -2.659946e-01 4.087601e-01 5.803437e-01 -5.524555e-01 2.891276e-01 6.316862e-01 -6.050100e-01 -7.408487e-03 2.978982e-01
<VARIANCE> 39
 2.889479e+01 2.385061e+01 4.878751e+01 3.993370e+01 6.280165e+01 6.067198e+01 6.671867e+01 9.464955e+01 6.038787e+01 4.551270e+01 6.840826e+01 2.401762e+01 2.604891e+01 7.409107e-01 1.023350e+00 1.185131e+00 1.363775e+00 1.005482e+00 1.512033e+00 2.007595e+00 2.259366e+00 1.256004e+00 1.621847e+00 2.390216e+00 9.857447e-01 8.604712e-01 1.614504e-01 1.531911e-01 2.477962e-01 2.678409e-01 1.936720e-01 2.782406e-01 3.281768e-01 4.187034e-01 2.094253e-01 3.170131e-01 3.276535e-01 2.036594e-01 1.535441e-01
<GCONST> 1.063082e+02
<STATE> 4
<NUMMIXES> 2
<MIXTURE> 1 1.111913e-01
<MEAN> 39
 -3.275039e+00 -2.106532e+01 1.763816e+01 3.892817e+00 3.911959e+00 1.823658e+01 -1.195385e+01 2.474670e+00 -3.238108e+00 -4.729746e+00 2.585653e+00 -5.805676e+00 1.201262e+00 6.359011e-01 1.348476e+00 7.225360e-01 3.866088e+00 1.830040e+00 -4.126459e-01 9.771940e-01 3.247752e-01 9.615520e-01 -4.127136e-01 -6.136911e-01 2.916786e-01 -3.544416e-01 7.178524e-02 1.479542e-01 -1.846725e-01 1.131390e-01 1.194701e-01 -4.347284e-01 6.932542e-03 -1.523886e-02 -3.118984e-01 -2.211061e-01 -4.523300e-02 7.749551e-02 -6.335286e-02
<VARIANCE> 39
 1.411180e+02 1.282105e+02 1.599405e+02 2.425759e+02 6.686935e+01 1.001795e+02 8.321712e+01 5.099633e+01 6.964306e+01 3.039633e+01 3.097479e+01 4.295875e+01 2.911096e+01 4.770613e+00 5.494156e+00 6.047730e+00 1.209642e+01 4.014591e+00 5.727746e+00 4.366168e+00 2.878304e+00 4.974418e+00 3.636184e+00 2.773792e+00 1.588920e+00 1.858459e+00 5.522023e-01 5.908345e-01 8.617900e-01 1.077878e+00 4.234482e-01 6.355078e-01 9.133794e-01 5.405557e-01 7.902866e-01 4.456637e-01 4.095253e-01 3.537904e-01 2.533352e-01
<GCONST> 1.380945e+02
<MIXTURE> 2 8.888108e-01
<MEAN> 39
 2.256567e+01 -1.078098e+01 -1.023197e+01 4.939421e+00 1.294344e+01 -8.556830e+00 -2.071011e+01 2.050410e+01 -8.779129e+00 -2.427360e+01 1.692360e+01 3.304357e+00 -2.914781e+00 -2.088359e-01 3.524382e-01 -9.406711e-02 -1.348634e-01 -1.158484e-01 2.775976e-02 2.221225e-01 -7.647439e-01 1.788006e-01 5.675826e-01 -5.158930e-01 2.151227e-01 3.328821e-01 -1.828126e-01 2.276286e-01 1.658210e-01 1.406604e-01 -1.190586e-01 2.451755e-01 4.219766e-01 -4.467288e-01 1.303950e-01 3.645611e-01 -4.787306e-01 -3.532177e-02 5.499285e-02
<VARIANCE> 39
 6.008502e+00 1.636359e+01 2.467897e+01 2.123288e+01 4.606936e+01 4.102759e+01 5.023209e+01 5.770765e+01 6.897333e+01 3.036844e+01 7.487024e+01 1.685483e+01 2.282821e+01 4.547457e-01 4.678682e-01 8.088245e-01 9.205411e-01 8.357034e-01 1.239476e+00 1.526359e+00 1.949256e+00 1.065008e+00 1.129628e+00 1.875110e+00 7.801059e-01 7.123712e-01 6.893276e-02 6.190959e-02 1.236553e-01 9.891187e-02 9.405999e-02 1.236105e-01 1.636807e-01 1.944189e-01 1.004463e-01 1.437562e-01 1.713455e-01 1.125864e-01 7.688104e-02
<GCONST> 8.695405e+01
<STATE> 5
<NUMMIXES> 2
<MIXTURE> 1 5.645720e-01
<MEAN> 39
 2.097195e+01 -1.030374e+01 -1.254577e+01 5.242504e+00 1.313733e+01 -7.893461e+00 -1.895373e+01 1.286915e+01 -8.027867e+00 -1.976513e+01 1.272810e+01 6.196762e+00 7.188386e-01 5.100439e-02 2.991785e-01 -1.884913e-01 -7.266416e-02 6.581917e-02 2.099428e-01 1.832389e-01 -3.282185e-01 1.687505e-01 3.079699e-01 -3.601702e-01 -3.063445e-02 8.356906e-02 1.332667e-01 1.201685e-02 5.982281e-02 7.626007e-02 1.727412e-01 1.282279e-01 -1.284168e-01 2.796365e-01 -1.093847e-01 -2.296074e-01 1.727828e-01 -2.043578e-01 -1.752310e-01
<VARIANCE> 39
 9.402205e+00 1.234295e+01 2.243807e+01 1.778808e+01 2.824408e+01 2.272120e+01 3.158645e+01 4.189224e+01 4.263463e+01 2.651552e+01 5.665423e+01 1.342073e+01 1.801016e+01 5.870757e-01 4.130056e-01 6.454613e-01 7.713762e-01 8.367675e-01 9.782803e-01 1.458785e+00 2.517840e+00 1.207726e+00 1.247592e+00 2.377971e+00 8.075643e-01 7.465695e-01 9.160697e-02 5.055454e-02 8.237053e-02 8.641428e-02 7.217140e-02 8.589616e-02 1.629292e-01 2.242235e-01 8.218466e-02 1.262762e-01 1.997730e-01 8.581000e-02 6.792133e-02
<GCONST> 8.234779e+01
<MIXTURE> 2 4.354256e-01
<MEAN> 39
 2.180645e+01 -7.626091e+00 -9.350086e+00 6.656796e+00 1.140497e+01 -8.060079e+00 -1.650029e+01 1.926941e+01 -6.493355e+00 -2.199864e+01 1.138320e+01 2.082651e+00 -3.400347e+00 -6.566802e-01 1.300923e+00 8.238196e-01 7.364954e-01 1.465038e-01 1.046738e+00 1.263482e+00 -1.247330e+00 3.181158e-01 9.591873e-01 -1.584341e+00 -4.153500e-01 -5.308695e-02 -4.439929e-01 3.288585e-01 4.022211e-01 1.640552e-01 -4.982642e-02 4.017694e-01 4.791606e-01 -4.624858e-01 2.551401e-01 5.284333e-01 -5.342304e-01 -5.185447e-02 1.981477e-01
<VARIANCE> 39
 2.439924e+01 2.399150e+01 5.673683e+01 3.624728e+01 6.012033e+01 9.234956e+01 5.569028e+01 8.067743e+01 1.038058e+02 3.651596e+01 1.159525e+02 2.200231e+01 2.218265e+01 1.253835e+00 1.027724e+00 1.660213e+00 1.297688e+00 1.375718e+00 2.271636e+00 2.645566e+00 3.282658e+00 1.705880e+00 2.403565e+00 3.290309e+00 1.018565e+00 1.083564e+00 1.048924e-01 1.370924e-01 2.030328e-01 1.999083e-01 2.031934e-01 2.686159e-01 2.803327e-01 3.453875e-01 2.453469e-01 2.310053e-01 3.369471e-01 2.080418e-01 1.788840e-01
<GCONST> 1.089787e+02
<STATE> 6
<NUMMIXES> 2
<MIXTURE> 1 3.516776e-01
<MEAN> 39
 1.318079e+01 1.933545e+00 -1.963417e+00 9.642541e+00 9.963258e+00 -1.175447e-01 -6.230939e+00 1.072707e+01 -3.972362e+00 -1.355293e+01 2.059466e+00 1.933836e+00 8.241057e-02 -2.052517e+00 2.034317e+00 2.001441e+00 7.456620e-01 3.137107e-02 1.812235e+00 1.648377e+00 -1.532113e+00 5.767244e-01 1.560843e+00 -1.866260e+00 -3.054464e-01 7.783695e-01 -7.865957e-02 -2.172815e-01 6.473151e-02 -4.540819e-02 2.969320e-02 -6.517823e-02 -2.375285e-01 1.159694e-01 -2.090912e-01 -1.780001e-01 3.466462e-01 -2.119629e-02 -7.701284e-02
<VARIANCE> 39
 6.080291e+01 5.301034e+01 5.032022e+01 3.788769e+01 5.413818e+01 1.035611e+02 4.542128e+01 9.621120e+01 9.942852e+01 4.404439e+01 8.839729e+01 3.338001e+01 3.929934e+01 1.287229e+00 2.158068e+00 1.880316e+00 1.951874e+00 1.839747e+00 2.443039e+00 2.383856e+00 2.655107e+00 2.170253e+00 2.315088e+00 3.174566e+00 1.807034e+00 2.013481e+00 1.113724e-01 2.553147e-01 2.390776e-01 2.159490e-01 2.471927e-01 3.117309e-01 3.163392e-01 3.369625e-01 3.462837e-01 3.149867e-01 3.356036e-01 2.129315e-01 2.282664e-01
<GCONST> 1.164419e+02
<MIXTURE> 2 6.483213e-01
<MEAN> 39
 2.037062e+01 -8.888777e+00 -5.938155e+00 5.363826e+00 1.196094e+01 -4.674032e+00 -1.848168e+01 1.673289e+01 -1.027274e+01 -1.980126e+01 2.101836e+01 2.882195e+00 -4.143987e+00 5.178447e-02 1.264732e-01 3.332148e-02 7.000700e-02 5.074792e-02 1.121459e-01 8.633342e-02 -4.268690e-02 -1.576357e-01 -3.001503e-02 -3.066358e-02 -1.893391e-01 -1.002866e-01 -3.115694e-02 4.046617e-02 1.763475e-02 5.642780e-02 2.544640e-03 6.884947e-02 9.808228e-02 -1.013878e-01 1.831403e-02 3.678342e-02 -1.481338e-01 1.184674e-02 2.272362e-02
<VARIANCE> 39
 7.057331e+00 1.847482e+01 3.378550e+01 2.464851e+01 4.690081e+01 3.213200e+01 8.265033e+01 4.469513e+01 4.788513e+01 7.104800e+01 6.456152e+01 1.813637e+01 2.610655e+01 4.134358e-01 5.634646e-01 8.445280e-01 8.482940e-01 9.539084e-01 1.134258e+00 2.064216e+00 1.942267e+00 1.038113e+00 1.639581e+00 1.903472e+00 8.350869e-01 7.157505e-01 5.730514e-02 8.049256e-02 1.111985e-01 1.194344e-01 1.180275e-01 1.504873e-01 2.642141e-01 2.762168e-01 1.474872e-01 2.205761e-01 2.599553e-01 1.363324e-01 1.043095e-01
<GCONST> 9.222807e+01
<TRANSP> 7
 0.000000e+00 1.000000e+00 0.000000e+00 0.000000e+00 0.000000e+00 0.000000e+00 0.000000e+00
 0.000000e+00 6.816089e-01 3.183911e-01 0.000000e+00 0.000000e+00 0.000000e+00 0.000000e+00
 0.000000e+00 0.000000e+00 7.925482e-01 2.074517e-01 0.000000e+00 0.000000e+00 0.000000e+00
 0.000000e+00 0.000000e+00 0.000000e+00 5.490463e-01 4.509537e-01 0.000000e+00 0.000000e+00
 0.000000e+00 0.000000e+00 0.000000e+00 0.000000e+00 7.247815e-01 2.752186e-01 0.000000e+00
 0.000000e+00 0.000000e+00 0.000000e+00 0.000000e+00 0.000000e+00 7.798576e-01 2.201423e-01
 0.000000e+00 0.000000e+00 0.000000e+00 0.000000e+00 0.000000e+00 0.000000e+00 0.000000e+00
<ENDHMM>
~h "b"
<BEGINHMM>
<NUMSTATES> 5
<STATE> 2
<NUMMIXES> 2
<MIXTURE> 1 5.000000e-01
<MEAN> 39
 5.173785e+00 1.796910e+01 1.450061e+01 1.569401e+01 1.209475e+01 1.047967e+01 4.444624e+00 1.023650e+01 1.535585e+00 -4.410658e+00 -4.533850e+00 -6.005528e+00 -5.356737e+00 -4.763357e-01 2.695276e-01 3.896980e-01 1.134948e-01 2.196520e-01 5.725492e-01 3.529789e-01 -6.510819e-02 1.067721e-01 4.750966e-01 1.884187e-01 -2.650460e-02 1.107276e-01 6.297540e-02 -2.345080e-01 -2.135127e-01 8.864335e-03 2.461040e-02 -1.700386e-01 -1.551949e-01 1.049518e-01 1.127991e-01 -6.689143e-02 -3.907014e-02 4.784159e-02 1.006846e-01
<VARIANCE> 39
 2.317068e+01 1.797083e+01 1.874990e+01 1.105645e+01 1.124947e+01 2.870556e+01 1.572783e+01 1.441574e+01 1.373175e+01 2.422332e+01 1.440037e+01 1.382222e+01 1.446133e+01 5.391216e-01 1.174793e+00 1.423763e+00 6.586068e-01 6.304768e-01 1.248399e+00 9.024467e-01 1.059291e+00 9.083492e-01 9.129789e-01 8.403482e-01 8.073356e-01 1.007516e+00 4.426945e-02 1.122830e-01 1.486371e-01 9.305381e-02 8.779696e-02 1.345798e-01 1.253331e-01 1.380585e-01 1.128531e-01 1.309110e-01 1.262520e-01 1.111285e-01 1.202714e-01
<GCONST> 7.796344e+01
<MIXTURE> 2 5.000000e-01
<MEAN> 39
 5.173785e+00 1.796910e+01 1.450061e+01 1.569401e+01 1.209475e+01 1.047967e+01 4.444624e+00 1.023650e+01 1.535585e+00 -4.410658e+00 -4.533850e+00 -6.005528e+00 -5.356737e+00 -4.763357e-01 2.695276e-01 3.896980e-01 1.134948e-01 2.196520e-01 5.725492e-01 3.529789e-01 -6.510819e-02 1.067721e-01 4.750966e-01 1.884187e-01 -2.650460e-02 1.107276e-01 6.297540e-02 -2.345080e-01 -2.135127e-01 8.864335e-03 2.461040e-02 -1.700386e-01 -1.551949e-01 1.049518e-01 1.127991e-01 -6.689143e-02 -3.907014e-02 4.784159e-02 1.006846e-01
<VARIANCE> 39
 2.317068e+01 1.797083e+01 1.874990e+01 1.105645e+01 1.124947e+01 2.870556e+01 1.572783e+01 1.441574e+01 1.373175e+01 2.422332e+01 1.440037e+01 1.382222e+01 1.446133e+01 5.391216e-01 1.174793e+00 1.423763e+00 6.586068e-01 6.304768e-01 1.248399e+00 9.024467e-01 1.059291e+00 9.083492e-01 9.129789e-01 8.403482e-01 8.073356e-01 1.007516e+00 4.426945e-02 1.122830e-01 1.486371e-01 9.305381e-02 8.779696e-02 1.345798e-01 1.253331e-01 1.380585e-01 1.128531e-01 1.309110e-01 1.262520e-01 1.111285e-01 1.202714e-01
<GCONST> 7.796344e+01
<STATE> 3
<NUMMIXES> 2
<MIXTURE> 1 5.000000e-01
<MEAN> 39
 2.505239e+00 1.125127e+01 1.282815e+01 1.317761e+01 1.076905e+01 1.073643e+01 3.592668e+00 1.348782e+01 2.467009e+00 -5.266573e+00 -2.443501e+00 -4.141611e+00 -2.908743e+00 4.810866e-02 -4.766997e-01 -4.564673e-01 2.972725e-01 3.610850e-01 -1.464774e-01 -2.484045e-01 2.709970e-01 3.550159e-01 -7.191560e-02 -1.559268e-01 1.066872e-01 4.461406e-01 1.412849e-01 -2.530277e-01 -2.348481e-01 -8.753973e-02 -4.229392e-02 -1.804707e-01 -2.082120e-01 -2.481405e-03 -1.292793e-03 -1.044407e-01 4.019015e-02 5.378305e-02 4.935268e-02
<VARIANCE> 39
 6.879377e+01 1.581277e+02 8.457233e+01 6.521462e+01 4.743958e+01 8.764886e+01 6.635359e+01 4.794073e+01 4.687395e+01 5.147836e+01 5.434217e+01 2.251589e+01 3.722496e+01 2.022224e+00 4.548456e+00 3.624119e+00 2.138694e+00 1.726258e+00 3.177448e+00 2.587080e+00 2.315470e+00 2.021176e+00 2.416622e+00 1.884652e+00 1.153068e+00 2.021196e+00 2.031909e-01 3.031914e-01 4.001739e-01 3.158565e-01 2.543713e-01 4.220245e-01 3.436295e-01 2.985060e-01 2.769710e-01 3.263528e-01 2.559282e-01 1.863130e-01 2.304700e-01
<GCONST> 1.190462e+02
<MIXTURE> 2 5.000000e-01
<MEAN> 39
 2.505239e+00 1.125127e+01 1.282815e+01 1.317761e+01 1.076905e+01 1.073643e+01 3.592668e+00 1.348782e+01 2.467009e+00 -5.266573e+00 -2.443501e+00 -4.141611e+00 -2.908743e+00 4.810866e-02 -4.766997e-01 -4.564673e-01 2.972725e-01 3.610850e-01 -1.464774e-01 -2.484045e-01 2.709970e-01 3.550159e-01 -7.191560e-02 -1.559268e-01 1.066872e-01 4.461406e-01 1.412849e-01 -2.530277e-01 -2.348481e-01 -8.753973e-02 -4.229392e-02 -1.804707e-01 -2.082120e-01 -2.481405e-03 -1.292793e-03 -1.044407e-01 4.019015e-02 5.378305e-02 4.935268e-02
<VARIANCE> 39
 6.879377e+01 1.581277e+02 8.457233e+01 6.521462e+01 4.743958e+01 8.764886e+01 6.635359e+01 4.794073e+01 4.687395e+01 5.147836e+01 5.434217e+01 2.251589e+01 3.722496e+01 2.022224e+00 4.548456e+00 3.624119e+00 2.138694e+00 1.726258e+00 3.177448e+00 2.587080e+00 2.315470e+00 2.021176e+00 2.416622e+00 1.884652e+00 1.153068e+00 2.021196e+00 2.031909e-01 3.031914e-01 4.001739e-01 3.158565e-01 2.543713e-01 4.220245e-01 3.436295e-01 2.985060e-01 2.769710e-01 3.263528e-01 2.559282e-01 1.863130e-01 2.304700e-01
<GCONST> 1.190462e+02
<STATE> 4
<NUMMIXES> 2
<MIXTURE> 1 5.000000e-01
<MEAN> 39
 7.537929e+00 7.855369e+00 5.357095e+00 1.538381e+01 1.275407e+01 3.102230e+00 -3.108561e+00 1.473365e+01 7.131996e+00 -6.366302e+00 -5.481753e+00 -4.211761e+00 -3.190820e-01 1.967531e+00 -2.693265e+00 -2.925931e+00 -1.487646e+00 -1.539015e+00 -3.420359e+00 -2.597299e+00 8.472361e-01 1.133844e-01 -1.614898e+00 7.041696e-01 8.353583e-01 3.338207e-01 5.222086e-01 3.040934e-02 -1.023954e-01 -3.426401e-01 -5.551063e-01 -6.645564e-01 -2.472235e-01 9.130430e-02 -3.283193e-01 -3.937593e-01 2.410561e-01 4.690260e-02 -4.035209e-01
<VARIANCE> 39
 2.761770e+01 3.492834e+01 3.073752e+01 2.100047e+01 3.058705e+01 7.232125e+01 4.093775e+01 1.785520e+01 2.316564e+01 2.116856e+01 1.829550e+01 1.495609e+01 1.429125e+01 2.030902e+00 1.389757e+00 1.825017e+00 1.941588e+00 3.581398e+00 5.670582e+00 2.557658e+00 2.493562e+00 1.972095e+00 2.391768e+00 1.524611e+00 1.078632e+00 1.217630e+00 1.074651e-01 2.043717e-01 2.116607e-01 3.999348e-01 4.957307e-01 3.877426e-01 2.556342e-01 3.999327e-01 2.922571e-01 2.945132e-01 2.978265e-01 1.741969e-01 2.023413e-01
<GCONST> 1.059673e+02
<MIXTURE> 2 5.000000e-01
<MEAN> 39
 7.537929e+00 7.855369e+00 5.357095e+00 1.538381e+01 1.275407e+01 3.102230e+00 -3.108561e+00 1.473365e+01 7.131996e+00 -6.366302e+00 -5.481753e+00 -4.211761e+00 -3.190820e-01 1.967531e+00 -2.693265e+00 -2.925931e+00 -1.487646e+00 -1.539015e+00 -3.420359e+00 -2.597299e+00 8.472361e-01 1.133844e-01 -1.614898e+00 7.041696e-01 8.353583e-01 3.338207e-01 5.222086e-01 3.040934e-02 -1.023954e-01 -3.426401e-01 -5.551063e-01 -6.645564e-01 -2.472235e-01 9.130430e-02 -3.283193e-01 -3.937593e-01 2.410561e-01 4.690260e-02 -4.035209e-01
<VARIANCE> 39
 2.761770e+01 3.492834e+01 3.073752e+01 2.100047e+01 3.058705e+01 7.232125e+01 4.093775e+01 1.785520e+01 2.316564e+01 2.116856e+01 1.829550e+01 1.495609e+01 1.429125e+01 2.030902e+00 1.389757e+00 1.825017e+00 1.941588e+00 3.581398e+00 5.670582e+00 2.557658e+00 2.493562e+00 1.972095e+00 2.391768e+00 1.524611e+00 1.078632e+00 1.217630e+00 1.074651e-01 2.043717e-01 2.116607e-01 3.999348e-01 4.957307e-01 3.877426e-01 2.556342e-01 3.999327e-01 2.922571e-01 2.945132e-01 2.978265e-01 1.741969e-01 2.023413e-01
<GCONST> 1.059673e+02
<TRANSP> 5
 0.000000e+00 1.000000e+00 0.000000e+00 0.000000e+00 0.000000e+00
 0.000000e+00 8.861924e-01 1.138076e-01 0.000000e+00 0.000000e+00
 0.000000e+00 0.000000e+00 7.085119e-01 2.914882e-01 0.000000e+00
 0.000000e+00 0.000000e+00 0.000000e+00 6.718615e-01 3.281385e-01
 0.000000e+00 0.000000e+00 0.000000e+00 0.000000e+00 0.000000e+00
<ENDHMM>
~h "c"
<BEGINHMM>
<NUMSTATES> 5
<STATE> 2
<NUMMIXES> 2
<MIXTURE> 1 6.140746e-01
<MEAN> 39
 -1.070416e+01 -3.437340e+00 5.916637e+00 1.134379e+01 5.706996e+00 8.058319e+00 -2.167491e-01 5.650174e+00 -1.197521e+00 -5.171279e+00 -6.221920e-01 -6.342715e-02 3.373127e+00 -1.716803e+00 -2.296179e+00 -1.190759e-01 -6.985453e-01 -1.515370e+00 -2.613165e-01 -2.972369e-01 -1.955701e-01 3.557985e-01 1.233914e-01 1.081849e-01 5.905955e-02 -6.037609e-02 1.257364e-01 -2.898414e-01 7.630377e-02 -1.357491e-01 -2.036454e-01 -1.244289e-01 -1.756789e-01 3.157055e-02 -2.655824e-02 -1.245416e-01 1.438384e-01 4.900341e-02 -1.618985e-01
<VARIANCE> 39
 1.473998e+02 1.926680e+02 9.134800e+01 6.470312e+01 6.263958e+01 6.173566e+01 4.538603e+01 5.093513e+01 4.699234e+01 4.721741e+01 4.053503e+01 2.268591e+01 2.854539e+01 2.620009e+00 1.069620e+01 4.084050e+00 3.536772e+00 3.508362e+00 3.130470e+00 2.880902e+00 2.531877e+00 2.321320e+00 2.649784e+00 2.596044e+00 1.703224e+00 2.215738e+00 2.326268e-01 6.839859e-01 5.313315e-01 4.258069e-01 3.451292e-01 4.666660e-01 3.425793e-01 3.601222e-01 3.785521e-01 3.664890e-01 3.648339e-01 2.842884e-01 3.414723e-01
<GCONST> 1.264288e+02
<MIXTURE> 2 3.859245e-01
<MEAN> 39
 -1.644609e+01 -4.051635e+01 2.236783e+01 8.786759e+00 -1.277426e+01 8.144730e+00 -9.246254e+00 6.495380e+00 1.215543e+00 -1.048569e+01 4.949365e+00 2.576479e+00 2.931327e-01 1.342088e-01 -1.813127e+00 1.483228e+00 -1.501251e-01 -2.284598e-01 2.922040e-01 -1.043701e+00 -1.686229e-01 -2.556019e-01 7.065140e-03 8.117518e-01 2.404113e-01 -1.741298e-01 1.388350e-01 6.563734e-01 -4.658897e-01 1.824433e-01 6.290455e-01 2.009843e-01 1.807261e-01 -1.773754e-01 -2.467895e-02 2.720721e-01 -1.584690e-01 -5.681527e-02 2.170861e-01
<VARIANCE> 39
 1.455817e+01 4.627419e+01 7.693767e+01 2.656128e+01 3.088877e+01 2.016446e+01 3.325273e+01 2.800353e+01 3.977473e+01 2.051080e+01 3.214780e+01 1.498290e+01 8.691392e+00 1.880430e+00 6.328104e+00 7.663601e+00 1.473944e+00 4.162480e+00 2.260977e+00 1.897850e+00 2.109178e+00 1.729561e+00 2.324299e+00 1.639924e+00 1.762399e+00 1.251354e+00 3.993270e-01 6.949643e-01 8.948107e-01 2.480158e-01 3.489494e-01 3.906318e-01 2.672084e-01 3.235840e-01 2.906047e-01 3.124537e-01 2.340150e-01 3.269299e-01 1.824920e-01
<GCONST> 1.114350e+02
<STATE> 3
<NUMMIXES> 2
<MIXTURE> 1 6.252746e-01
<MEAN> 39
 -1.538903e+01 -3.800265e+01 1.242195e+01 1.129123e+01 -2.577904e+00 1.009290e+01 -1.210968e+01 1.133293e+00 4.632987e+00 -5.139041e+00 8.957313e-01 2.827541e+00 3.573437e+00 1.287235e+00 -6.375636e-02 5.240530e-01 8.448071e-01 7.077072e-01 1.099705e+00 1.986045e-01 -3.177073e-01 3.097264e-01 1.237836e-01 1.390755e-01 2.327221e-01 2.122605e-02 2.642688e-01 5.568166e-01 -2.189010e-02 2.566494e-02 1.781603e-02 -5.018170e-02 1.299855e-01 5.686340e-03 -3.251512e-02 -6.383689e-02 -3.999764e-02 -5.122461e-02 -1.238561e-01
<VARIANCE> 39
 3.400512e+01 1.468598e+02 1.397724e+02 3.130290e+01 3.586539e+01 7.189740e+01 4.813999e+01 3.188202e+01 3.631100e+01 2.521120e+01 5.071789e+01 2.435354e+01 1.744469e+01 2.841648e+00 1.202120e+01 5.567190e+00 2.183046e+00 2.784830e+00 2.079238e+00 3.219091e+00 1.637836e+00 2.078868e+00 2.115914e+00 1.986511e+00 1.584867e+00 1.618117e+00 3.912524e-01 7.359462e-01 5.658925e-01 2.735163e-01 3.342401e-01 4.654424e-01 4.293243e-01 2.891060e-01 3.149862e-01 3.832891e-01 3.449667e-01 3.035967e-01 2.834732e-01
<GCONST> 1.204332e+02
<MIXTURE> 2 3.747256e-01
<MEAN> 39
 -2.657955e+01 -6.520409e+00 -5.189804e+00 -2.619991e+00 -3.426391e+00 5.368218e-01 -3.615486e+00 1.493793e+00 -1.313296e+00 -6.259170e-01 4.026267e-01 -8.014253e-01 6.462397e-01 2.352918e-02 -3.267565e-01 -1.066552e-01 2.024377e-01 1.059395e-01 -1.451657e-01 -1.261701e-01 5.653172e-02 2.333013e-02 -1.293852e-01 -1.571481e-01 6.004255e-02 1.721414e-01 1.116891e-01 -1.701970e-01 2.299573e-02 2.290298e-01 1.545889e-01 4.798232e-02 -1.021320e-02 6.117618e-02 6.202144e-02 -6.982591e-02 -1.034797e-01 5.474288e-02 1.545213e-01
<VARIANCE> 39
 5.926929e-01 1.684381e+00 1.736248e+00 3.405171e+00 4.256847e+00 5.438982e+00 6.303843e+00 6.282198e+00 7.446934e+00 7.584177e+00 6.930304e+00 6.235791e+00 5.636485e+00 1.620824e-01 8.109173e-01 3.780763e-01 9.729443e-01 8.891798e-01 8.919439e-01 1.056324e+00 1.087724e+00 1.272783e+00 1.274011e+00 1.165998e+00 9.754930e-01 1.153056e+00 4.481953e-02 1.897395e-01 1.051565e-01 1.952128e-01 1.867051e-01 1.978488e-01 2.235928e-01 2.469321e-01 2.654250e-01 2.676463e-01 2.460313e-01 1.955874e-01 2.042612e-01
<GCONST> 6.532007e+01
<STATE> 4
<NUMMIXES> 2
<MIXTURE> 1 9.962255e-01
<MEAN> 39
 6.732659e+00 -1.908186e+01 1.204316e+01 1.653108e+01 4.780973e+00 1.221847e+01 -8.867217e+00 1.536564e+00 1.998282e+00 -9.374883e+00 2.069124e+00 3.838659e+00 1.427741e+00 4.176527e+00 3.685088e+00 -3.589794e+00 4.414765e-01 1.843137e+00 -3.143714e+00 -1.262523e+00 9.389622e-01 -9.742160e-01 -2.051641e+00 -3.656256e-01 -1.132425e-01 -5.099961e-01 -3.987648e-01 -8.464504e-01 -5.327701e-01 -3.503076e-01 -4.297508e-03 -8.098686e-01 -5.731036e-01 5.563604e-01 -2.508828e-01 -3.576194e-01 3.296508e-01 -6.235484e-03 -4.740805e-02
<VARIANCE> 39
 1.066295e+02 9.346682e+01 8.336362e+01 2.954661e+01 4.101862e+01 8.457172e+01 4.106972e+01 3.446178e+01 2.045370e+01 3.963994e+01 3.365907e+01 1.613630e+01 1.316558e+01 4.057524e+00 6.164436e+00 7.584241e+00 1.733555e+00 2.016301e+00 5.540171e+00 3.149040e+00 4.412603e+00 1.899272e+00 3.129066e+00 2.112558e+00 1.093847e+00 1.156287e+00 5.031647e-01 4.101202e-01 7.585628e-01 1.422813e-01 2.069741e-01 7.672852e-01 6.706015e-01 3.686244e-01 2.839786e-01 4.824317e-01 2.827345e-01 1.701247e-01 1.130459e-01
<GCONST> 1.190343e+02
<MIXTURE> 2 3.774439e-03
<MEAN> 39
 -1.599701e+01 -4.374181e+01 2.025485e+01 6.677375e+00 -9.292363e+00 1.116259e+01 -1.405912e+01 9.189826e-01 4.429343e+00 -6.095317e+00 6.408140e+00 1.156688e+00 -3.023296e+00 1.347372e-01 3.673019e-01 -1.392776e+00 -2.326460e-01 1.981023e-01 1.420125e-01 4.731985e-01 -1.398648e+00 -3.260958e-02 5.409135e-01 4.861317e-03 9.575608e-02 -7.089074e-01 -5.905841e-02 -9.152668e-03 -8.964045e-02 -2.338581e-02 5.493328e-02 -1.003478e-01 1.790632e-01 1.625067e-01 -6.963670e-03 1.217043e-01 1.544087e-01 2.944911e-01 1.435357e-01
<VARIANCE> 39
 8.598517e-01 1.539330e+01 3.906894e+00 3.784820e+00 4.660553e+00 2.020233e+00 3.888264e-01 2.029369e+00 5.522993e+00 2.004001e-01 1.278381e+01 1.675965e+01 2.284902e-02 6.659715e-02 3.534035e+00 4.374012e-01 4.516262e-01 4.517537e-01 9.363236e-02 3.176186e-01 1.951818e+00 1.680985e-01 1.086072e-02 2.146290e-01 4.220408e-01 9.291827e-03 1.904628e-03 7.996178e-04 5.540152e-03 4.462673e-03 7.569444e-04 5.904941e-03 1.107467e-03 3.232404e-02 9.535490e-03 8.520070e-02 1.836672e-02 9.824396e-02 1.283813e-02
<GCONST> -3.793111e+00
<TRANSP> 5
 0.000000e+00 1.000000e+00 0.000000e+00 0.000000e+00 0.000000e+00
 0.000000e+00 9.157168e-01 8.428318e-02 0.000000e+00 0.000000e+00
 0.000000e+00 0.000000e+00 9.345993e-01 6.540073e-02 0.000000e+00
 0.000000e+00 0.000000e+00 0.000000e+00 7.112511e-01 2.887489e-01
 0.000000e+00 0.000000e+00 0.000000e+00 0.000000e+00 0.000000e+00
<ENDHMM>
~h "d"
<BEGINHMM>
<NUMSTATES> 5
<STATE> 2
<NUMMIXES> 2
<MIXTURE> 1 5.000000e-01
<MEAN> 39
 1.915549e+00 1.603943e+01 1.450804e+01 1.713275e+01 1.403599e+01 1.241056e+01 5.098540e+00 9.734199e+00 -1.553484e-01 -5.307718e+00 -3.226457e+00 -3.284496e+00 -1.637751e+00 -4.400232e-01 2.281796e-02 2.583112e-01 1.818474e-01 2.166106e-01 5.479344e-01 3.263817e-01 -3.537960e-02 3.405581e-01 5.652633e-01 8.047889e-02 2.513823e-02 2.208833e-01 5.776750e-02 -3.933000e-01 -2.462370e-01 1.030148e-02 1.046252e-02 -1.096654e-01 -1.266755e-01 6.047320e-02 3.711518e-02 -3.733259e-03 8.797877e-02 -2.865792e-03 6.190525e-02
<VARIANCE> 39
 3.971431e+01 2.766937e+01 2.467315e+01 1.786995e+01 2.108517e+01 3.505862e+01 1.634233e+01 2.321788e+01 2.160530e+01 3.892101e+01 2.101254e+01 1.212550e+01 1.412937e+01 7.629556e-01 2.908542e+00 1.914748e+00 1.008423e+00 1.051834e+00 1.420543e+00 1.069296e+00 1.417751e+00 1.097869e+00 1.378659e+00 9.870698e-01 8.950453e-01 1.269249e+00 6.516783e-02 2.391921e-01 2.257044e-01 1.620356e-01 1.605235e-01 1.506068e-01 1.580635e-01 1.500649e-01 1.593112e-01 1.968865e-01 1.884772e-01 1.331350e-01 1.607576e-01
<GCONST> 9.112859e+01
<MIXTURE> 2 5.000000e-01
<MEAN> 39
 1.915549e+00 1.603943e+01 1.450804e+01 1.713275e+01 1.403599e+01 1.241056e+01 5.098540e+00 9.734199e+00 -1.553484e-01 -5.307718e+00 -3.226457e+00 -3.284496e+00 -1.637751e+00 -4.400232e-01 2.281796e-02 2.583112e-01 1.818474e-01 2.166106e-01 5.479344e-01 3.263817e-01 -3.537960e-02 3.405581e-01 5.652633e-01 8.047889e-02 2.513823e-02 2.208833e-01 5.776750e-02 -3.933000e-01 -2.462370e-01 1.030148e-02 1.046252e-02 -1.096654e-01 -1.266755e-01 6.047320e-02 3.711518e-02 -3.733259e-03 8.797877e-02 -2.865792e-03 6.190525e-02
<VARIANCE> 39
 3.971431e+01 2.766937e+01 2.467315e+01 1.786995e+01 2.108517e+01 3.505862e+01 1.634233e+01 2.321788e+01 2.160530e+01 3.892101e+01 2.101254e+01 1.212550e+01 1.412937e+01 7.629556e-01 2.908542e+00 1.914748e+00 1.008423e+00 1.051834e+00 1.420543e+00 1.069296e+00 1.417751e+00 1.097869e+00 1.378659e+00 9.870698e-01 8.950453e-01 1.269249e+00 6.516783e-02 2.391921e-01 2.257044e-01 1.620356e-01 1.605235e-01 1.506068e-01 1.580635e-01 1.500649e-01 1.593112e-01 1.968865e-01 1.884772e-01 1.331350e-01 1.607576e-01
<GCONST> 9.112859e+01
<STATE> 3
<NUMMIXES> 2
<MIXTURE> 1 5.000000e-01
<MEAN> 39
 8.027713e-01 1.620713e+00 6.412882e+00 1.703366e+01 1.374022e+01 1.153005e+01 3.131597e+00 1.065008e+01 1.760631e+00 -2.146028e+00 1.504409e-01 -3.331818e+00 2.974561e+00 1.450143e+00 -3.638190e+00 -2.111508e+00 -9.169425e-01 -1.134443e+00 -1.141775e+00 -1.219000e+00 2.357874e-01 -1.203360e+00 -7.862890e-01 1.935947e+00 -2.749656e-01 -2.521335e-01 5.555364e-01 1.388321e-01 1.330336e-01 -2.221996e-01 -1.857874e-01 -2.849844e-01 -3.515977e-01 -7.234158e-02 -7.185025e-01 -7.453414e-01 3.241620e-01 4.130886e-02 -4.425996e-01
<VARIANCE> 39
 3.385907e+01 7.821996e+01 3.923568e+01 4.129820e+01 3.931502e+01 2.640633e+01 3.158523e+01 3.520233e+01 4.830675e+01 3.395350e+01 4.404093e+01 2.917886e+01 2.839660e+01 1.994615e+00 3.379162e+00 2.080353e+00 2.341241e+00 3.206602e+00 2.349099e+00 3.159466e+00 1.869780e+00 5.699229e+00 4.844812e+00 3.745245e+00 1.907743e+00 2.468925e+00 1.476168e-01 6.121973e-01 4.066983e-01 4.675652e-01 6.464121e-01 3.813850e-01 3.824839e-01 3.456300e-01 7.262356e-01 6.592460e-01 7.698026e-01 3.694298e-01 3.583747e-01
<GCONST> 1.217834e+02
<MIXTURE> 2 5.000000e-01
<MEAN> 39
 8.027713e-01 1.620713e+00 6.412882e+00 1.703366e+01 1.374022e+01 1.153005e+01 3.131597e+00 1.065008e+01 1.760631e+00 -2.146028e+00 1.504409e-01 -3.331818e+00 2.974561e+00 1.450143e+00 -3.638190e+00 -2.111508e+00 -9.169425e-01 -1.134443e+00 -1.141775e+00 -1.219000e+00 2.357874e-01 -1.203360e+00 -7.862890e-01 1.935947e+00 -2.749656e-01 -2.521335e-01 5.555364e-01 1.388321e-01 1.330336e-01 -2.221996e-01 -1.857874e-01 -2.849844e-01 -3.515977e-01 -7.234158e-02 -7.185025e-01 -7.453414e-01 3.241620e-01 4.130886e-02 -4.425996e-01
<VARIANCE> 39
 3.385907e+01 7.821996e+01 3.923568e+01 4.129820e+01 3.931502e+01 2.640633e+01 3.158523e+01 3.520233e+01 4.830675e+01 3.395350e+01 4.404093e+01 2.917886e+01 2.839660e+01 1.994615e+00 3.379162e+00 2.080353e+00 2.341241e+00 3.206602e+00 2.349099e+00 3.159466e+00 1.869780e+00 5.699229e+00 4.844812e+00 3.745245e+00 1.907743e+00 2.468925e+00 1.476168e-01 6.121973e-01 4.066983e-01 4.675652e-01 6.464121e-01 3.813850e-01 3.824839e-01 3.456300e-01 7.262356e-01 6.592460e-01 7.698026e-01 3.694298e-01 3.583747e-01
<GCONST> 1.217834e+02
<STATE> 4
<NUMMIXES> 2
<MIXTURE> 1 5.000000e-01
<MEAN> 39
 1.358187e+01 -4.843494e+00 2.266151e+00 1.235969e+01 4.349152e+00 2.058937e+00 1.380240e+00 1.559441e+01 -7.666658e+00 -1.277942e+01 7.817512e+00 -1.174618e+00 1.847676e+00 1.429732e+00 -2.717877e-01 -2.036410e-01 -1.571955e-01 -1.343082e-02 -1.190058e+00 -1.377075e+00 2.546889e-01 -6.351588e-01 -1.650858e+00 1.295163e-01 1.942625e-01 -4.397980e-01 -1.722385e-01 4.428542e-01 1.682595e-01 2.508044e-01 4.403925e-01 -9.761599e-02 -2.889357e-01 5.755816e-02 4.987742e-01 4.718898e-02 -4.359146e-01 2.824840e-02 -7.288356e-02
<VARIANCE> 39
 2.897601e+01 5.502182e+01 2.124782e+01 2.418039e+01 7.229277e+01 5.576057e+01 6.970429e+01 5.322783e+01 3.627298e+01 4.211656e+01 5.669527e+01 3.577201e+01 2.803063e+01 2.665132e+00 3.945542e+00 1.706253e+00 1.179952e+00 1.863773e+00 3.263260e+00 4.839007e+00 2.238993e+00 6.498059e+00 5.765906e+00 6.783831e+00 1.939584e+00 1.623626e+00 1.312010e-01 5.567849e-01 3.737356e-01 3.376215e-01 4.119951e-01 3.641008e-01 4.068973e-01 3.702600e-01 9.984627e-01 4.859635e-01 8.358062e-01 2.805357e-01 2.216721e-01
<GCONST> 1.218627e+02
<MIXTURE> 2 5.000000e-01
<MEAN> 39
 1.358187e+01 -4.843494e+00 2.266151e+00 1.235969e+01 4.349152e+00 2.058937e+00 1.380240e+00 1.559441e+01 -7.666658e+00 -1.277942e+01 7.817512e+00 -1.174618e+00 1.847676e+00 1.429732e+00 -2.717877e-01 -2.036410e-01 -1.571955e-01 -1.343082e-02 -1.190058e+00 -1.377075e+00 2.546889e-01 -6.351588e-01 -1.650858e+00 1.295163e-01 1.942625e-01 -4.397980e-01 -1.722385e-01 4.428542e-01 1.682595e-01 2.508044e-01 4.403925e-01 -9.761599e-02 -2.889357e-01 5.755816e-02 4.987742e-01 4.718898e-02 -4.359146e-01 2.824840e-02 -7.288356e-02
<VARIANCE> 39
 2.897601e+01 5.502182e+01 2.124782e+01 2.418039e+01 7.229277e+01 5.576057e+01 6.970429e+01 5.322783e+01 3.627298e+01 4.211656e+01 5.669527e+01 3.577201e+01 2.803063e+01 2.665132e+00 3.945542e+00 1.706253e+00 1.179952e+00 1.863773e+00 3.263260e+00 4.839007e+00 2.238993e+00 6.498059e+00 5.765906e+00 6.783831e+00 1.939584e+00 1.623626e+00 1.312010e-01 5.567849e-01 3.737356e-01 3.376215e-01 4.119951e-01 3.641008e-01 4.068973e-01 3.702600e-01 9.984627e-01 4.859635e-01 8.358062e-01 2.805357e-01 2.216721e-01
<GCONST> 1.218627e+02
<TRANSP> 5
 0.000000e+00 1.000000e+00 0.000000e+00 0.000000e+00 0.000000e+00
 0.000000e+00 9.092544e-01 9.074555e-02 0.000000e+00 0.000000e+00
 0.000000e+00 0.000000e+00 7.711056e-01 2.288944e-01 0.000000e+00
 0.000000e+00 0.000000e+00 0.000000e+00 7.201941e-01 2.798059e-01
 0.000000e+00 0.000000e+00 0.000000e+00 0.000000e+00 0.000000e+00
<ENDHMM>
~h "f"
<BEGINHMM>
<NUMSTATES> 5
<STATE> 2
<NUMMIXES> 2
<MIXTURE> 1 1.000000e+00
<MEAN> 39
 2.158750e+01 -5.293841e+00 -1.262331e+01 7.855199e+00 -1.864535e+00 -2.886207e+01 -1.786226e+01 2.571913e+01 1.837827e+01 -9.033669e+00 -3.298157e+00 2.811869e+00 -6.572413e-01 -5.017909e-01 1.406633e-02 2.732669e-01 -7.780003e-01 -4.651465e-01 7.358026e-03 3.152997e-01 -3.276337e-01 4.302503e-01 7.221071e-01 -1.605202e-01 5.163910e-02 1.203064e-01 6.275843e-01 -1.024647e-03 -3.595229e-01 1.660245e-01 1.357325e-01 -1.733587e-01 -9.966281e-02 6.052448e-01 -3.065918e-01 -6.482466e-01 4.036211e-01 1.512483e-01 -1.935607e-01
<VARIANCE> 39
 1.512431e+01 8.648261e+00 8.285818e+01 4.462570e+00 1.937515e+01 1.518908e+01 8.941138e+00 1.766278e+01 7.296784e+00 1.389921e+01 5.089213e+00 2.657184e+00 6.208320e+00 2.017777e+00 1.006117e-02 1.746851e+00 2.891142e-01 1.022470e+00 8.979978e-01 1.072919e+00 3.899051e+00 3.848964e-01 1.403571e+00 2.229784e+00 9.382495e-02 1.424742e+00 4.292480e-02 3.111880e-02 1.300362e-01 7.394241e-03 2.955751e-01 2.103309e-02 1.826001e-01 1.093328e-01 2.554670e-02 1.509516e-01 7.084774e-03 1.610325e-02 4.483375e-02
<GCONST> 5.689839e+01
<MIXTURE> 2 0.000000e+00
<MEAN> 39
 -1.585175e+01 -1.551351e+00 7.729309e+00 -7.243529e+00 1.722945e+01 -4.595492e+00 8.562895e+00 -3.340965e+00 3.503048e+00 -4.349793e+00 2.257324e+00 -9.441703e-01 1.405435e+00 -2.463601e+00 -8.618322e-01 -7.031665e-01 -4.471729e-01 2.791805e-01 3.659815e-01 -1.137626e-01 -3.731829e-01 -3.769362e-02 -3.910118e-02 3.242532e-01 -1.921992e-02 3.981748e-01 4.077158e-01 -1.006740e-01 -2.800901e-01 -9.457918e-02 -3.625076e-01 -3.459834e-01 -2.940953e-01 2.188951e-02 -1.688870e-01 -1.846896e-01 -1.475902e-01 -2.191112e-03 -1.261082e-01
<VARIANCE> 39
 3.794474e+01 3.006912e+01 3.696891e+01 3.629724e+01 4.906600e+01 3.866109e+01 4.917469e+01 3.866268e+01 3.933981e+01 3.216502e+01 2.111969e+01 2.085070e+01 1.584314e+01 1.946436e+00 1.199190e+00 1.955029e+00 2.033741e+00 2.686450e+00 2.348367e+00 2.500819e+00 2.211571e+00 1.997479e+00 1.933216e+00 1.770481e+00 1.567442e+00 1.408696e+00 2.019766e-01 2.254066e-01 2.903521e-01 2.933460e-01 3.599655e-01 3.714276e-01 4.149454e-01 4.019520e-01 3.977194e-01 3.726283e-01 3.362232e-01 2.893453e-01 2.591272e-01
<GCONST> 1.105595e+02
<STATE> 3
<NUMMIXES> 2
<MIXTURE> 1 1.000000e+00
<MEAN> 39
 1.928523e+01 -5.579307e+00 -1.087395e+01 5.830176e+00 -4.413071e+00 -2.812620e+01 -1.622672e+01 2.376480e+01 1.961165e+01 -6.791782e+00 -5.180827e+00 2.531221e+00 7.921568e-01 5.281041e-01 -2.628323e-01 -1.437618e-01 -2.060122e-01 -6.764184e-01 -1.407370e-01 3.494206e-01 4.159498e-01 -3.587296e-01 -2.653607e-01 4.089535e-01 -3.738101e-02 -1.598128e-01 7.643754e-01 -1.118598e-01 -3.349532e-01 3.880204e-01 1.350370e-01 -1.943354e-01 -1.447725e-01 6.270168e-01 -4.420382e-01 -6.139072e-01 5.405294e-01 -2.846200e-02 -2.254505e-01
<VARIANCE> 39
 4.871970e+00 7.483769e+00 5.545139e+01 2.364177e+01 1.250270e+01 5.364648e+01 3.286335e+01 3.402816e+00 6.021397e+00 2.314575e+00 1.318522e+01 5.476328e+00 4.229480e-01 1.203933e+00 1.834290e-01 9.284735e-01 3.274143e-01 1.374275e+00 1.272750e+00 1.256018e+00 2.515780e+00 3.282565e-01 7.501765e-01 1.902340e+00 1.385088e-01 1.166435e+00 1.801740e-01 3.145225e-02 3.230571e-01 1.587198e-02 3.645662e-01 3.597050e-02 1.425861e-01 3.507901e-01 1.635070e-03 2.107834e-01 1.122442e-01 4.398661e-03 1.529415e-01
<GCONST> 6.091825e+01
<MIXTURE> 2 0.000000e+00
<MEAN> 39
 -2.546515e+01 -5.316592e+00 5.182599e-01 -1.014452e+01 1.336730e+01 -4.508892e+00 4.143860e+00 -4.057298e+00 1.675601e+00 -5.046123e+00 2.272683e+00 -1.283370e+00 2.229477e+00 -1.519309e-01 -3.431510e-01 -2.302347e-01 -2.690792e-01 -1.743130e-01 -7.424696e-02 -3.065879e-02 -5.297905e-02 3.275013e-02 -3.512295e-02 8.244935e-02 3.946884e-02 7.528704e-02 2.312994e-01 2.895865e-02 1.394252e-01 3.060656e-02 6.189735e-02 -5.252600e-03 9.213040e-02 -9.943989e-03 4.179194e-02 1.035141e-04 3.644056e-02 5.465960e-03 1.392528e-02
<VARIANCE> 39
 1.176915e+01 2.009933e+01 2.096771e+01 2.293049e+01 2.208943e+01 2.328727e+01 2.455520e+01 2.513758e+01 2.492216e+01 2.296042e+01 1.801677e+01 1.398869e+01 1.294775e+01 9.981425e-01 6.281391e-01 9.135668e-01 1.018384e+00 1.192862e+00 1.366520e+00 1.546908e+00 1.590251e+00 1.575584e+00 1.404581e+00 1.335052e+00 1.189907e+00 1.009449e+00 1.105499e-01 1.091064e-01 1.587749e-01 1.862282e-01 2.259963e-01 2.640838e-01 2.930050e-01 3.118650e-01 3.037787e-01 2.800012e-01 2.679037e-01 2.386677e-01 2.069542e-01
<GCONST> 9.260374e+01
<STATE> 4
<NUMMIXES> 2
<MIXTURE> 1 1.000000e+00
<MEAN> 39
 2.338786e+01 -6.100574e+00 -1.236170e+01 7.244890e+00 -4.747549e+00 -2.850686e+01 -1.545530e+01 2.639698e+01 1.658602e+01 -9.187890e+00 -1.677852e+00 2.252721e+00 -4.320854e-01 1.185277e+00 -4.051069e-01 -3.116805e-01 1.158219e-01 -4.225091e-01 -2.799303e-01 1.574167e-02 9.294319e-01 -5.261788e-01 -7.447152e-01 7.456731e-01 -1.201931e-01 -1.856655e-01 4.193090e-01 -4.740271e-02 -2.021371e-01 2.786858e-01 1.374099e-01 -9.920473e-02 -1.046979e-01 3.069890e-01 -2.815611e-01 -2.860802e-01 3.096482e-01 -1.084658e-01 -1.527175e-01
<VARIANCE> 39
 4.138215e+00 1.100303e+01 6.025445e+01 2.493550e+01 5.196934e+01 7.940556e+01 3.275834e+01 1.187030e+01 3.894186e+00 6.521821e+00 2.430513e+01 4.931417e+00 2.553037e+00 4.646601e-01 2.371110e-01 5.521440e-01 2.243439e-01 1.923101e+00 7.663381e-01 9.394143e-01 8.889082e-01 4.943813e-01 4.096272e-01 1.134104e+00 2.905424e-01 4.134944e-01 9.082368e-02 9.331767e-04 2.075403e-01 1.755052e-02 1.613735e-01 1.817034e-02 2.525442e-02 1.679956e-01 1.228849e-02 8.487949e-02 1.019219e-01 2.757648e-03 1.219986e-01
<GCONST> 5.494859e+01
<MIXTURE> 2 0.000000e+00
<MEAN> 39
 -1.919306e+01 -9.236015e+00 3.689552e+00 -1.223476e+01 1.489335e+01 -6.318414e+00 7.143879e+00 -6.103525e+00 3.174531e+00 -6.095226e+00 4.311400e+00 -2.684157e-01 3.222131e+00 2.403928e+00 6.682029e-01 1.196788e+00 8.050752e-01 2.333375e-01 1.086554e-01 -3.363338e-03 2.492941e-01 -2.023524e-01 1.609932e-01 -2.533848e-01 3.826904e-02 -4.694991e-01 5.983038e-01 5.120639e-01 1.572707e-01 3.195376e-01 -1.208165e-01 -2.085501e-01 -3.490097e-01 1.940116e-01 -1.673514e-01 -7.740311e-02 -3.054772e-01 -1.087985e-01 -3.564875e-01
<VARIANCE> 39
 3.042087e+01 2.921870e+01 3.283026e+01 3.405130e+01 4.104346e+01 3.583276e+01 4.287782e+01 3.903381e+01 3.163493e+01 3.066770e+01 2.307189e+01 1.659729e+01 1.461290e+01 2.254787e+00 2.112019e+00 1.727328e+00 2.238523e+00 2.263419e+00 2.361685e+00 2.342651e+00 2.605778e+00 2.095444e+00 2.131377e+00 2.099487e+00 1.836933e+00 1.663770e+00 2.622992e-01 2.496722e-01 3.391603e-01 3.445290e-01 4.448123e-01 5.514072e-01 5.425829e-01 4.482497e-01 4.572209e-01 4.257733e-01 3.892074e-01 3.408262e-01 2.868415e-01
<GCONST> 1.128664e+02
<TRANSP> 5
 0.000000e+00 1.000000e+00 0.000000e+00 0.000000e+00 0.000000e+00
 0.000000e+00 2.499999e-01 7.500001e-01 0.000000e+00 0.000000e+00
 0.000000e+00 0.000000e+00 2.802597e-43 1.000000e+00 0.000000e+00
 0.000000e+00 0.000000e+00 0.000000e+00 2.256466e-24 1.000000e+00
 0.000000e+00 0.000000e+00 0.000000e+00 0.000000e+00 0.000000e+00
<ENDHMM>
~h "g"
<BEGINHMM>
<NUMSTATES> 5
<STATE> 2
<NUMMIXES> 2
<MIXTURE> 1 5.000000e-01
<MEAN> 39
 4.677030e+00 1.848498e+01 1.529299e+01 1.683307e+01 1.393720e+01 1.158588e+01 2.077677e+00 5.508900e+00 -2.727959e+00 -5.941573e+00 -4.713950e+00 -6.855743e+00 -5.572247e+00 -7.494414e-01 9.359278e-02 3.446585e-01 -1.685214e-01 9.392403e-02 8.821943e-01 7.278947e-01 1.804482e-01 1.755857e-01 3.241452e-01 -8.228064e-03 -2.572446e-01 1.541695e-03 7.257622e-02 -3.131534e-01 -3.155981e-01 -1.809831e-01 -1.755186e-01 -2.197543e-01 -4.695830e-02 2.820655e-01 1.443677e-01 -2.609585e-02 1.797799e-01 1.361913e-01 3.727255e-02
<VARIANCE> 39
 1.539839e+01 1.181188e+01 1.662804e+01 9.239753e+00 1.595145e+01 2.217103e+01 2.396982e+01 2.304507e+01 2.150465e+01 2.266974e+01 1.366180e+01 1.603436e+01 1.195861e+01 3.472435e-01 1.224611e+00 1.496622e+00 9.644716e-01 1.163252e+00 1.725020e+00 1.069428e+00 1.513067e+00 1.040000e+00 1.023021e+00 1.280240e+00 1.423494e+00 8.214339e-01 4.321446e-02 1.579226e-01 2.104288e-01 1.674511e-01 1.783102e-01 2.016246e-01 1.365205e-01 1.685050e-01 1.385118e-01 1.551600e-01 1.728295e-01 1.439346e-01 1.160738e-01
<GCONST> 8.419492e+01
<MIXTURE> 2 5.000000e-01
<MEAN> 39
 4.677030e+00 1.848498e+01 1.529299e+01 1.683307e+01 1.393720e+01 1.158588e+01 2.077677e+00 5.508900e+00 -2.727959e+00 -5.941573e+00 -4.713950e+00 -6.855743e+00 -5.572247e+00 -7.494414e-01 9.359278e-02 3.446585e-01 -1.685214e-01 9.392403e-02 8.821943e-01 7.278947e-01 1.804482e-01 1.755857e-01 3.241452e-01 -8.228064e-03 -2.572446e-01 1.541695e-03 7.257622e-02 -3.131534e-01 -3.155981e-01 -1.809831e-01 -1.755186e-01 -2.197543e-01 -4.695830e-02 2.820655e-01 1.443677e-01 -2.609585e-02 1.797799e-01 1.361913e-01 3.727255e-02
<VARIANCE> 39
 1.539839e+01 1.181188e+01 1.662804e+01 9.239753e+00 1.595145e+01 2.217103e+01 2.396982e+01 2.304507e+01 2.150465e+01 2.266974e+01 1.366180e+01 1.603436e+01 1.195861e+01 3.472435e-01 1.224611e+00 1.496622e+00 9.644716e-01 1.163252e+00 1.725020e+00 1.069428e+00 1.513067e+00 1.040000e+00 1.023021e+00 1.280240e+00 1.423494e+00 8.214339e-01 4.321446e-02 1.579226e-01 2.104288e-01 1.674511e-01 1.783102e-01 2.016246e-01 1.365205e-01 1.685050e-01 1.385118e-01 1.551600e-01 1.728295e-01 1.439346e-01 1.160738e-01
<GCONST> 8.419492e+01
<STATE> 3
<NUMMIXES> 2
<MIXTURE> 1 5.000000e-01
<MEAN> 39
 4.011730e+00 1.072011e+01 5.777970e+00 6.787456e+00 8.176375e+00 1.179562e+01 5.496277e+00 1.358559e+01 2.592148e-01 -7.239939e+00 -1.079249e+00 -5.361705e+00 -4.184079e+00 5.435334e-01 -1.737450e+00 -2.028884e+00 -1.675327e+00 -8.880839e-01 -3.415752e-01 -8.553235e-02 1.121783e+00 6.262709e-02 -7.375219e-01 7.805709e-01 4.172308e-01 3.645955e-01 2.351077e-01 -5.452792e-02 -9.217367e-03 2.005013e-01 1.123567e-01 -3.168874e-01 -4.881054e-01 -2.819629e-01 -2.064071e-01 -8.681256e-02 1.769471e-01 1.285758e-01 -3.729859e-02
<VARIANCE> 39
 4.949957e+01 6.748404e+01 8.003007e+01 1.223561e+02 1.003618e+02 5.115287e+01 5.096786e+01 9.599451e+01 7.291932e+01 7.761160e+01 3.405515e+01 2.677108e+01 2.642380e+01 2.106239e+00 2.685075e+00 3.864098e+00 9.697654e+00 7.474667e+00 4.394299e+00 3.679492e+00 5.638569e+00 4.355357e+00 3.899876e+00 2.749561e+00 1.770219e+00 1.948287e+00 2.039342e-01 3.680450e-01 7.116561e-01 1.593973e+00 1.197706e+00 6.696878e-01 4.276631e-01 8.036495e-01 6.246724e-01 5.568128e-01 4.442017e-01 2.566014e-01 2.715502e-01
<GCONST> 1.334291e+02
<MIXTURE> 2 5.000000e-01
<MEAN> 39
 4.011730e+00 1.072011e+01 5.777970e+00 6.787456e+00 8.176375e+00 1.179562e+01 5.496277e+00 1.358559e+01 2.592148e-01 -7.239939e+00 -1.079249e+00 -5.361705e+00 -4.184079e+00 5.435334e-01 -1.737450e+00 -2.028884e+00 -1.675327e+00 -8.880839e-01 -3.415752e-01 -8.553235e-02 1.121783e+00 6.262709e-02 -7.375219e-01 7.805709e-01 4.172308e-01 3.645955e-01 2.351077e-01 -5.452792e-02 -9.217367e-03 2.005013e-01 1.123567e-01 -3.168874e-01 -4.881054e-01 -2.819629e-01 -2.064071e-01 -8.681256e-02 1.769471e-01 1.285758e-01 -3.729859e-02
<VARIANCE> 39
 4.949957e+01 6.748404e+01 8.003007e+01 1.223561e+02 1.003618e+02 5.115287e+01 5.096786e+01 9.599451e+01 7.291932e+01 7.761160e+01 3.405515e+01 2.677108e+01 2.642380e+01 2.106239e+00 2.685075e+00 3.864098e+00 9.697654e+00 7.474667e+00 4.394299e+00 3.679492e+00 5.638569e+00 4.355357e+00 3.899876e+00 2.749561e+00 1.770219e+00 1.948287e+00 2.039342e-01 3.680450e-01 7.116561e-01 1.593973e+00 1.197706e+00 6.696878e-01 4.276631e-01 8.036495e-01 6.246724e-01 5.568128e-01 4.442017e-01 2.566014e-01 2.715502e-01
<GCONST> 1.334291e+02
<STATE> 4
<NUMMIXES> 2
<MIXTURE> 1 5.000000e-01
<MEAN> 39
 8.668475e-01 1.117126e+01 9.866168e+00 1.201115e+01 1.069000e+01 1.079107e+01 3.108128e+00 1.053008e+01 1.810617e-01 -4.975939e+00 -5.868722e-01 -4.296539e+00 -3.300089e+00 1.737178e-01 -1.770328e+00 -1.543323e+00 -1.108574e+00 -1.135480e+00 -1.355198e+00 -8.623698e-01 9.884729e-01 2.508847e-01 -1.625297e-01 1.468768e+00 7.496717e-01 1.911000e-01 3.510597e-01 -6.455125e-02 -1.334090e-01 -1.924455e-01 -2.189755e-01 -3.566683e-01 -3.866611e-01 1.392309e-02 -1.167954e-01 -1.382849e-01 2.456540e-01 -8.614977e-02 -2.495114e-01
<VARIANCE> 39
 7.275227e+01 4.958255e+01 5.683388e+01 8.658762e+01 6.402360e+01 3.735528e+01 5.137156e+01 6.037436e+01 4.479062e+01 4.080513e+01 2.488565e+01 2.427555e+01 1.817995e+01 2.011244e+00 2.823582e+00 3.054063e+00 6.821168e+00 6.945578e+00 4.685121e+00 3.189928e+00 4.609083e+00 3.114480e+00 2.137331e+00 3.193834e+00 1.569019e+00 1.286260e+00 1.491606e-01 1.348996e-01 2.160246e-01 4.639421e-01 4.372139e-01 2.952102e-01 2.647534e-01 3.277883e-01 2.874416e-01 2.048061e-01 2.498457e-01 2.104148e-01 2.137962e-01
<GCONST> 1.176875e+02
<MIXTURE> 2 5.000000e-01
<MEAN> 39
 8.668475e-01 1.117126e+01 9.866168e+00 1.201115e+01 1.069000e+01 1.079107e+01 3.108128e+00 1.053008e+01 1.810617e-01 -4.975939e+00 -5.868722e-01 -4.296539e+00 -3.300089e+00 1.737178e-01 -1.770328e+00 -1.543323e+00 -1.108574e+00 -1.135480e+00 -1.355198e+00 -8.623698e-01 9.884729e-01 2.508847e-01 -1.625297e-01 1.468768e+00 7.496717e-01 1.911000e-01 3.510597e-01 -6.455125e-02 -1.334090e-01 -1.924455e-01 -2.189755e-01 -3.566683e-01 -3.866611e-01 1.392309e-02 -1.167954e-01 -1.382849e-01 2.456540e-01 -8.614977e-02 -2.495114e-01
<VARIANCE> 39
 7.275227e+01 4.958255e+01 5.683388e+01 8.658762e+01 6.402360e+01 3.735528e+01 5.137156e+01 6.037436e+01 4.479062e+01 4.080513e+01 2.488565e+01 2.427555e+01 1.817995e+01 2.011244e+00 2.823582e+00 3.054063e+00 6.821168e+00 6.945578e+00 4.685121e+00 3.189928e+00 4.609083e+00 3.114480e+00 2.137331e+00 3.193834e+00 1.569019e+00 1.286260e+00 1.491606e-01 1.348996e-01 2.160246e-01 4.639421e-01 4.372139e-01 2.952102e-01 2.647534e-01 3.277883e-01 2.874416e-01 2.048061e-01 2.498457e-01 2.104148e-01 2.137962e-01
<GCONST> 1.176875e+02
<TRANSP> 5
 0.000000e+00 1.000000e+00 0.000000e+00 0.000000e+00 0.000000e+00
 0.000000e+00 8.377347e-01 1.622653e-01 0.000000e+00 0.000000e+00
 0.000000e+00 0.000000e+00 6.326368e-01 3.673632e-01 0.000000e+00
 0.000000e+00 0.000000e+00 0.000000e+00 4.314526e-01 5.685474e-01
 0.000000e+00 0.000000e+00 0.000000e+00 0.000000e+00 0.000000e+00
<ENDHMM>
~h "h"
<BEGINHMM>
<NUMSTATES> 5
<STATE> 2
<NUMMIXES> 2
<MIXTURE> 1 6.402216e-01
<MEAN> 39
 1.380486e+01 -6.548115e+00 -5.667095e+00 1.044367e+01 9.924327e+00 5.355651e+00 -4.722368e+00 7.384337e+00 -1.177225e+00 5.506131e+00 2.374109e+01 4.770919e+00 -3.813547e+00 -3.407500e-01 4.303078e-02 1.064182e-01 1.565069e-01 6.148817e-02 2.693879e-01 1.644240e-01 -1.422578e-01 3.741297e-01 7.092274e-01 2.235848e-01 1.107976e-01 -1.895576e-02 -1.220502e-02 4.845734e-02 4.127070e-02 1.009204e-02 3.396558e-02 -5.236058e-02 -7.322425e-02 3.479058e-02 -1.771123e-02 -1.380891e-01 -1.044344e-01 -2.392114e-02 1.850773e-02
<VARIANCE> 39
 1.036992e+01 2.230252e+01 5.822348e+01 5.741065e+01 5.595021e+01 2.511802e+01 6.759620e+01 5.002632e+01 4.363968e+01 1.269295e+02 5.456386e+01 3.486253e+01 3.513866e+01 2.572461e-01 7.680083e-01 8.975347e-01 1.074370e+00 1.255924e+00 1.276827e+00 2.692600e+00 1.819072e+00 1.685975e+00 2.408438e+00 2.472077e+00 1.127215e+00 1.288065e+00 2.808276e-02 8.211061e-02 9.576041e-02 1.273282e-01 1.435738e-01 1.780372e-01 2.593780e-01 2.425129e-01 2.407842e-01 2.726657e-01 2.868010e-01 1.832376e-01 1.898288e-01
<GCONST> 9.917854e+01
<MIXTURE> 2 3.597778e-01
<MEAN> 39
 -1.666515e+01 -5.213510e+00 -5.742114e+00 -2.780385e+00 -3.104630e+00 1.807861e+00 -4.575532e-01 5.910304e+00 -1.937631e+00 -3.789320e+00 1.354885e+00 1.437941e+00 2.078180e+00 8.731139e-02 -2.589295e-01 -3.658894e-01 -2.974406e-01 -4.805735e-01 -2.271574e-01 3.721101e-01 5.939550e-01 3.068351e-01 -7.466334e-02 -2.596187e-01 -1.262551e-01 -2.631135e-02 1.076453e-01 -2.053646e-02 -1.565367e-02 2.162228e-02 -2.442597e-02 -3.931982e-02 1.123415e-02 3.843251e-02 -2.430563e-02 -1.430810e-02 5.608644e-02 1.808510e-02 -1.369721e-02
<VARIANCE> 39
 1.998698e+02 5.173970e+01 5.508405e+01 6.421931e+01 5.703504e+01 6.355091e+01 4.966935e+01 9.433513e+01 4.881470e+01 4.235910e+01 3.110604e+01 2.356439e+01 1.808776e+01 3.048532e+00 9.680662e-01 1.494087e+00 1.615974e+00 1.639384e+00 1.839106e+00 2.112085e+00 2.992435e+00 2.181733e+00 2.187068e+00 1.814229e+00 1.414537e+00 1.295094e+00 1.119867e-01 9.715182e-02 1.478418e-01 1.939768e-01 2.073436e-01 2.433857e-01 2.961726e-01 3.546086e-01 3.213593e-01 2.786061e-01 2.528391e-01 2.119313e-01 2.168197e-01
<GCONST> 1.103605e+02
<STATE> 3
<NUMMIXES> 2
<MIXTURE> 1 3.940932e-01
<MEAN> 39
 5.847975e+00 -4.171647e-01 9.219933e+00 2.643582e+01 1.880014e+01 2.110535e+00 -1.095548e+01 1.001761e+01 3.800102e+00 7.251847e-01 1.214071e+01 -6.303288e+00 -1.128601e+01 -1.504924e-01 1.566695e-01 9.350188e-03 -2.634803e-01 -3.474942e-01 -1.000843e-01 2.440986e-01 4.625693e-01 5.442789e-01 2.375881e-01 -5.939630e-02 1.331065e-01 1.854540e-02 8.313446e-02 -1.063344e-02 -3.390434e-02 -6.764098e-02 7.566168e-03 -3.346900e-02 -1.277006e-01 -3.473167e-02 -1.297154e-01 -1.721483e-01 8.553624e-02 9.443600e-02 -1.588679e-02
<VARIANCE> 39
 1.077032e+01 2.837375e+01 3.121707e+01 3.733421e+01 2.109277e+01 2.788230e+01 2.831548e+01 3.120303e+01 4.156626e+01 5.107183e+01 3.865256e+01 2.110764e+01 2.859035e+01 3.405868e-01 5.067971e-01 1.056549e+00 1.560126e+00 1.224462e+00 1.165443e+00 1.733402e+00 1.765311e+00 2.106997e+00 2.713008e+00 2.124292e+00 1.254001e+00 1.414850e+00 2.445385e-02 7.673410e-02 1.044163e-01 1.965396e-01 1.832062e-01 1.795270e-01 2.494181e-01 2.691270e-01 2.717923e-01 3.018229e-01 2.896778e-01 1.881676e-01 2.266040e-01
<GCONST> 9.545120e+01
<MIXTURE> 2 6.059086e-01
<MEAN> 39
 1.316013e+01 -4.478328e-01 -1.947686e+00 5.101438e+00 -5.283350e+00 -1.252737e+00 1.065617e+01 2.587829e+01 6.196962e+00 -5.503616e+00 4.344569e+00 3.263749e+00 2.087835e+00 4.691172e-02 1.345790e-01 8.828498e-02 -7.018520e-02 -3.470730e-01 -2.705734e-01 1.614642e-01 1.541037e-01 -1.061214e-01 -1.812117e-01 -1.198901e-01 -1.158021e-02 -4.345108e-02 6.221798e-02 -1.432321e-02 -2.625781e-02 1.875393e-02 8.432851e-02 -9.704316e-02 -2.241774e-01 -9.462083e-02 -6.538510e-02 -5.799393e-02 6.597511e-02 -6.002722e-03 -7.795291e-02
<VARIANCE> 39
 4.211650e+01 7.554840e+01 5.864531e+01 2.333222e+01 8.445309e+01 8.093311e+01 9.184014e+01 8.396462e+01 4.716905e+01 7.719972e+01 5.482080e+01 2.381460e+01 2.514575e+01 8.078865e-01 9.731109e-01 9.985085e-01 9.182655e-01 1.520111e+00 2.045244e+00 3.065663e+00 2.263505e+00 1.528255e+00 1.903859e+00 1.500410e+00 1.068488e+00 1.153955e+00 4.130118e-02 9.119746e-02 1.132374e-01 1.285238e-01 1.581743e-01 2.094725e-01 2.327427e-01 2.737791e-01 2.158143e-01 2.443378e-01 2.087547e-01 1.827006e-01 1.595817e-01
<GCONST> 1.037543e+02
<STATE> 4
<NUMMIXES> 2
<MIXTURE> 1 4.653038e-01
<MEAN> 39
 9.891061e+00 -1.004771e+00 3.806827e+00 2.050510e+01 1.892100e+01 5.094229e-02 -1.735243e+01 9.498464e+00 1.074976e+00 -2.202321e+00 1.932256e+01 -1.427221e+00 -1.284039e+01 6.446745e-01 -2.801056e-01 -5.878541e-01 -2.151178e-01 5.488406e-01 -4.099651e-01 -1.286034e+00 -2.893202e-01 -8.935164e-01 -1.252100e+00 3.612689e-01 3.243439e-01 -1.154535e-01 4.716283e-02 -1.171331e-01 -1.971026e-01 -2.929879e-02 1.056423e-01 2.064086e-02 -5.981922e-02 -6.130444e-02 -2.890771e-02 -8.219174e-03 -4.047942e-02 1.287175e-02 6.515248e-02
<VARIANCE> 39
 1.105674e+01 2.161135e+01 3.694167e+01 2.695694e+01 2.145429e+01 2.434515e+01 4.081043e+01 3.389013e+01 3.906963e+01 6.117312e+01 4.374560e+01 2.098514e+01 2.518227e+01 2.719421e-01 7.739426e-01 1.459036e+00 1.442229e+00 1.140607e+00 1.416615e+00 1.879912e+00 1.835181e+00 1.459381e+00 1.996700e+00 1.940066e+00 1.124344e+00 1.309489e+00 3.622449e-02 9.401419e-02 1.568025e-01 1.846295e-01 1.917167e-01 2.396911e-01 3.462479e-01 3.024880e-01 2.490359e-01 3.269834e-01 3.358155e-01 1.963802e-01 2.334496e-01
<GCONST> 9.715491e+01
<MIXTURE> 2 5.346956e-01
<MEAN> 39
 3.616384e+00 -1.130194e+01 -7.443295e+00 -4.917690e-01 -8.785784e+00 -2.332704e+00 3.452760e+00 1.592741e+01 -8.801842e-01 -5.680718e+00 6.824375e+00 3.026116e+00 2.649705e+00 8.962162e-01 3.699962e-01 3.030233e-01 6.324867e-01 3.359679e-01 -2.513222e-01 -1.921757e-01 5.705811e-02 1.871989e-01 2.915256e-01 4.465249e-01 1.010091e-01 -1.309084e-01 2.409318e-02 6.882080e-02 6.755538e-02 1.151203e-01 2.129927e-01 1.020782e-02 -1.238400e-01 -1.184003e-02 -4.378040e-04 -5.278463e-02 1.642523e-03 -2.417765e-02 -8.289647e-02
<VARIANCE> 39
 1.083447e+02 1.408568e+02 1.599142e+02 1.714362e+02 1.654290e+02 1.166759e+02 1.463491e+02 2.001612e+02 7.358671e+01 1.117835e+02 1.267263e+02 3.218365e+01 2.855153e+01 2.025970e+00 2.942419e+00 3.730088e+00 2.955050e+00 3.905384e+00 3.575089e+00 3.085790e+00 2.652336e+00 2.730350e+00 2.870755e+00 2.370045e+00 1.539732e+00 1.637319e+00 1.183603e-01 2.603588e-01 4.157291e-01 3.672272e-01 4.038997e-01 5.002550e-01 4.590006e-01 4.262050e-01 4.256362e-01 4.677368e-01 3.157807e-01 2.638200e-01 2.628250e-01
<GCONST> 1.311073e+02
<TRANSP> 5
 0.000000e+00 1.000000e+00 0.000000e+00 0.000000e+00 0.000000e+00
 0.000000e+00 8.387742e-01 1.612258e-01 0.000000e+00 0.000000e+00
 0.000000e+00 0.000000e+00 8.620416e-01 1.379583e-01 0.000000e+00
 0.000000e+00 0.000000e+00 0.000000e+00 8.058993e-01 1.941007e-01
 0.000000e+00 0.000000e+00 0.000000e+00 0.000000e+00 0.000000e+00
<ENDHMM>
~h "i"
<BEGINHMM>
<NUMSTATES> 7
<STATE> 2
<NUMMIXES> 2
<MIXTURE> 1 7.482271e-01
<MEAN> 39
 2.741017e+00 -5.313293e+00 2.973521e+00 1.710856e+01 1.577074e+01 2.638127e+00 -1.209785e+01 5.011524e+00 -7.278080e+00 -1.220192e+01 6.385908e+00 -1.686857e+00 -6.669183e+00 1.373407e+00 -6.154239e-01 1.284625e-01 8.873672e-01 1.587599e+00 -3.945314e-01 -2.243223e+00 2.037750e-01 -5.732789e-01 -1.529291e+00 1.239972e+00 5.034398e-03 -1.491917e+00 -8.733532e-02 -1.229969e-02 6.115803e-02 1.554677e-02 1.049528e-01 1.051351e-03 -1.471128e-01 6.752311e-02 1.094529e-01 -1.020294e-01 -5.288553e-02 -1.457530e-03 -7.697334e-02
<VARIANCE> 39
 2.224753e+02 4.708456e+01 5.545232e+01 1.717227e+02 1.242799e+02 4.498382e+01 8.082255e+01 5.766628e+01 4.835954e+01 8.724909e+01 7.881579e+01 4.017487e+01 4.720087e+01 3.205653e+00 2.460743e+00 2.204536e+00 3.243831e+00 3.370050e+00 2.006113e+00 4.653078e+00 3.026393e+00 2.529768e+00 3.520989e+00 4.092252e+00 1.811334e+00 2.798369e+00 2.038693e-01 2.982800e-01 3.815331e-01 3.963839e-01 3.728609e-01 2.565149e-01 3.447905e-01 4.259620e-01 4.232030e-01 4.065484e-01 4.900899e-01 2.602070e-01 3.020954e-01
<GCONST> 1.272704e+02
<MIXTURE> 2 2.517718e-01
<MEAN> 39
 1.090580e+01 -1.299623e+01 1.249353e+01 2.917584e+01 2.145207e+01 5.928869e+00 -1.858332e+01 2.506534e+00 -5.471062e+00 -1.480786e+01 6.698125e+00 -4.502033e+00 -1.066299e+01 1.889701e+00 2.239100e-01 -1.495529e+00 1.045012e+00 3.568998e+00 -1.781278e+00 -4.396807e+00 7.983992e-02 -5.420134e-01 -3.496628e+00 3.148212e-01 8.517002e-01 -2.677847e+00 -5.743676e-01 -5.531216e-01 -2.260684e-01 -6.271330e-01 -4.294029e-01 -1.099489e-01 1.451325e-01 7.289814e-01 6.038146e-02 -4.199067e-02 3.833668e-01 1.342766e-01 1.349712e-01
<VARIANCE> 39
 1.177384e+01 1.769013e+01 3.829778e+01 9.091283e+01 3.108146e+01 4.238512e+01 3.404447e+01 3.549654e+01 3.782143e+01 2.760134e+01 3.326735e+01 1.595697e+01 2.279021e+01 1.127691e+00 1.771176e+00 3.875499e+00 2.073145e+00 1.750033e+00 2.695855e+00 2.680430e+00 3.710131e+00 2.003015e+00 2.408494e+00 3.008717e+00 1.150258e+00 1.676016e+00 1.474056e-01 2.304221e-01 5.013331e-01 2.368080e-01 2.668420e-01 2.671612e-01 4.404531e-01 3.186944e-01 2.385560e-01 4.547768e-01 2.552129e-01 1.806392e-01 2.465811e-01
<GCONST> 1.089430e+02
<STATE> 3
<NUMMIXES> 2
<MIXTURE> 1 5.110914e-01
<MEAN> 39
 1.581182e+01 -1.137589e+01 2.698236e+00 2.215586e+01 2.742348e+01 1.375758e+00 -2.669643e+01 8.219231e+00 -1.123071e+01 -2.465194e+01 1.552916e+01 3.401666e-01 -1.526025e+01 3.770144e-01 -6.936836e-01 1.288037e-01 -8.092117e-02 1.181192e+00 -3.723229e-01 -2.259328e+00 7.703575e-01 -1.131674e-01 -1.408359e+00 1.131030e+00 -4.516764e-02 -1.454453e+00 -3.138013e-01 2.134986e-01 1.809650e-01 -1.605132e-01 -4.078138e-01 1.676996e-01 6.414964e-01 -1.038355e-01 2.391899e-01 5.491163e-01 -4.040072e-01 -1.248299e-01 3.662194e-01
<VARIANCE> 39
 1.618041e+01 1.838591e+01 5.122837e+01 9.405801e+01 3.105975e+01 2.224029e+01 5.369891e+01 4.401852e+01 3.952119e+01 4.183758e+01 6.794651e+01 2.095830e+01 3.076831e+01 6.450046e-01 8.766662e-01 1.321308e+00 1.321659e+00 1.152494e+00 1.243844e+00 2.119714e+00 2.045987e+00 1.246120e+00 1.926358e+00 1.973771e+00 9.936959e-01 1.074602e+00 1.173779e-01 1.367625e-01 1.947631e-01 2.229668e-01 2.349682e-01 1.510187e-01 3.774722e-01 4.296966e-01 2.022955e-01 3.668817e-01 3.264487e-01 1.568263e-01 2.092948e-01
<GCONST> 1.021299e+02
<MIXTURE> 2 4.889065e-01
<MEAN> 39
 1.721951e+01 -1.231026e+01 1.043571e+00 1.644868e+01 2.671736e+01 1.515741e+00 -2.987424e+01 9.640368e+00 -1.268428e+01 -2.801729e+01 2.058753e+01 1.187810e+00 -1.883675e+01 -2.800102e-01 -3.154279e-03 4.947534e-01 1.288146e-01 5.463015e-02 1.573202e-01 -5.990938e-02 -3.147214e-01 -7.435808e-02 1.694860e-01 8.575520e-02 -2.845471e-01 -4.798113e-01 -1.586834e-02 8.788821e-02 -5.721580e-02 6.432308e-02 -5.854786e-02 8.225096e-02 2.991547e-01 -1.055142e-01 -4.268025e-02 1.568235e-01 -1.525610e-01 -1.397403e-04 1.733015e-01
<VARIANCE> 39
 5.372749e+00 1.099853e+01 2.059618e+01 2.398241e+01 1.735611e+01 1.541513e+01 3.068200e+01 3.550502e+01 2.243629e+01 2.067826e+01 3.591123e+01 1.070196e+01 2.453309e+01 3.573508e-01 3.841362e-01 6.300035e-01 8.705095e-01 4.885138e-01 6.203777e-01 1.290370e+00 1.247689e+00 5.455480e-01 1.056478e+00 1.244743e+00 4.900045e-01 8.648563e-01 4.970030e-02 5.616140e-02 7.459009e-02 7.062007e-02 6.487438e-02 8.047083e-02 1.799494e-01 1.838672e-01 7.639304e-02 1.667641e-01 1.682587e-01 6.924316e-02 9.934639e-02
<GCONST> 7.442210e+01
<STATE> 4
<NUMMIXES> 2
<MIXTURE> 1 7.546457e-01
<MEAN> 39
 1.352504e+01 -1.383803e+01 5.012065e+00 2.771654e+01 3.340483e+01 -4.101468e-02 -3.189324e+01 7.815789e+00 -7.435706e+00 -2.330954e+01 1.141469e+01 -2.186918e+00 -1.658102e+01 7.582821e-02 4.329556e-02 -1.810375e-01 -2.267634e-01 8.449519e-02 6.308382e-02 -1.060407e-01 2.145131e-02 -1.350124e-01 -1.395023e-01 1.871246e-01 6.927297e-02 -5.755430e-02 -2.108964e-02 8.169636e-02 -3.604337e-03 2.062063e-02 -1.284256e-01 6.922284e-02 2.216697e-01 -8.625638e-02 1.210938e-02 1.042181e-01 -6.737174e-02 1.504779e-02 8.271533e-02
<VARIANCE> 39
 1.101426e+01 1.059987e+01 3.591527e+01 6.975812e+01 2.792351e+01 1.696034e+01 4.639717e+01 3.090183e+01 3.305609e+01 2.883221e+01 3.996521e+01 1.298032e+01 1.965620e+01 4.670739e-01 4.236432e-01 6.023526e-01 9.571598e-01 8.856303e-01 7.527709e-01 1.881591e+00 1.720654e+00 9.535962e-01 1.411088e+00 1.299368e+00 5.986165e-01 7.620744e-01 7.109554e-02 7.318000e-02 9.056021e-02 1.198880e-01 1.413186e-01 1.111831e-01 2.984299e-01 2.714942e-01 1.300666e-01 2.361752e-01 2.110704e-01 8.724163e-02 1.288112e-01
<GCONST> 8.617899e+01
<MIXTURE> 2 2.453519e-01
<MEAN> 39
 1.016880e+01 -1.202052e+01 1.228260e+01 3.588782e+01 2.932681e+01 6.455233e-01 -2.635660e+01 5.341986e+00 2.006970e+00 -1.812862e+01 1.456057e+00 -4.414826e+00 -1.574077e+01 -1.444543e-02 -9.875537e-02 1.697710e-02 -2.869642e-01 7.213442e-02 2.814360e-02 -3.765196e-01 1.566309e-01 1.341677e-01 -3.033376e-01 -1.299299e-02 9.081066e-02 -9.523208e-02 4.211760e-02 -4.031059e-02 -4.014238e-02 1.001548e-02 7.068949e-02 1.864601e-02 -3.552026e-02 5.148154e-02 -1.777023e-01 -7.409886e-02 1.517089e-01 2.459837e-03 1.773637e-02
<VARIANCE> 39
 5.025248e+00 1.257425e+01 1.527355e+01 2.179312e+01 1.991604e+01 1.720549e+01 3.405798e+01 2.001445e+01 1.645338e+01 3.164437e+01 2.460957e+01 1.727927e+01 2.124591e+01 2.416676e-01 4.109483e-01 5.553925e-01 8.806017e-01 8.024610e-01 7.523902e-01 1.336981e+00 8.917363e-01 9.321860e-01 9.972764e-01 8.717386e-01 6.823617e-01 7.554181e-01 3.850132e-02 6.253537e-02 7.340270e-02 1.247956e-01 1.221508e-01 1.085783e-01 2.040992e-01 1.288986e-01 1.212949e-01 1.647773e-01 1.258071e-01 1.132155e-01 1.177185e-01
<GCONST> 7.614363e+01
<STATE> 5
<NUMMIXES> 2
<MIXTURE> 1 7.391368e-01
<MEAN> 39
 1.537496e+01 -1.054572e+01 2.837285e+00 2.180729e+01 2.911205e+01 3.318928e+00 -2.722869e+01 6.733666e+00 -1.310993e+01 -2.431556e+01 1.824527e+01 -3.418034e-01 -1.782118e+01 -5.592888e-01 1.278768e+00 3.570714e-01 1.695584e-01 -9.818445e-01 9.989245e-01 2.407045e+00 -1.298563e+00 4.278283e-01 1.773449e+00 -1.558723e+00 -8.657336e-02 1.230540e+00 -2.649906e-01 3.898135e-01 2.872469e-01 -1.545600e-01 -4.139228e-01 1.785697e-01 5.339332e-01 -2.625602e-01 3.507736e-01 6.005840e-01 -6.523902e-01 -7.372027e-02 5.342868e-01
<VARIANCE> 39
 9.801352e+00 1.891076e+01 3.629459e+01 5.340531e+01 3.900238e+01 3.235168e+01 6.023750e+01 4.187449e+01 3.636961e+01 3.638949e+01 4.902108e+01 1.822859e+01 3.194859e+01 6.870954e-01 1.930919e+00 1.363427e+00 1.287626e+00 1.599682e+00 1.574661e+00 2.688353e+00 2.689564e+00 1.579137e+00 3.215232e+00 2.824252e+00 8.862806e-01 1.816150e+00 7.560572e-02 1.708133e-01 2.046887e-01 1.851903e-01 1.832745e-01 1.959247e-01 3.423007e-01 3.890136e-01 2.332813e-01 3.144009e-01 2.585841e-01 1.552948e-01 1.983450e-01
<GCONST> 1.033660e+02
<MIXTURE> 2 2.608606e-01
<MEAN> 39
 1.135905e+01 -9.143998e+00 9.227598e+00 2.748620e+01 2.757357e+01 8.001689e-01 -2.734594e+01 3.203615e+00 -6.672824e+00 -1.904339e+01 8.386898e+00 -2.235637e+00 -1.523691e+01 3.096144e-02 4.707134e-01 -1.564210e-01 -6.554659e-02 -2.370293e-01 2.114906e-01 5.185692e-01 -2.196791e-01 -1.873612e-01 2.931716e-01 1.937188e-01 1.614563e-01 2.046310e-01 8.226390e-02 -5.158345e-02 -6.510170e-02 -9.292443e-03 8.237883e-02 3.768236e-02 -7.934442e-02 1.879274e-01 -6.675974e-02 -1.622070e-01 1.623767e-01 2.425028e-02 -1.957801e-02
<VARIANCE> 39
 1.257415e+01 2.319843e+01 5.356592e+01 6.828081e+01 3.896533e+01 3.141723e+01 5.882606e+01 4.321824e+01 5.363312e+01 3.196547e+01 5.161793e+01 2.483940e+01 3.481284e+01 4.304637e-01 1.071079e+00 1.127480e+00 1.529859e+00 1.529219e+00 1.338059e+00 2.911594e+00 1.971734e+00 1.368993e+00 2.249098e+00 1.821313e+00 1.092177e+00 1.307639e+00 6.389751e-02 1.203278e-01 1.435438e-01 1.961582e-01 2.338650e-01 2.066700e-01 3.754283e-01 3.324871e-01 2.105142e-01 3.086377e-01 2.263348e-01 1.392343e-01 1.618612e-01
<GCONST> 1.014160e+02
<STATE> 6
<NUMMIXES> 2
<MIXTURE> 1 6.867290e-01
<MEAN> 39
 6.366154e+00 7.825400e-01 9.469213e+00 1.969130e+01 2.030177e+01 1.088733e+01 -9.971455e+00 1.792617e+00 -5.661862e+00 -8.685631e+00 5.887039e+00 -2.126750e+00 -6.777180e+00 -1.711815e+00 1.575520e+00 1.506910e+00 -9.719085e-01 -1.766115e+00 1.346255e+00 2.427275e+00 -5.874192e-01 1.035848e+00 2.228680e+00 -1.902732e+00 -2.033489e-01 1.985958e+00 -7.169054e-02 -3.779898e-01 5.228014e-02 -1.504007e-01 5.603893e-02 -1.219648e-01 -3.569779e-01 2.477347e-01 -2.069159e-01 -3.322159e-01 3.650541e-01 5.064049e-02 -2.041073e-01
<VARIANCE> 39
 6.091752e+01 1.038109e+02 6.050069e+01 5.325358e+01 4.898857e+01 6.993938e+01 6.865592e+01 5.406077e+01 5.028178e+01 5.427874e+01 4.733899e+01 1.848095e+01 3.102313e+01 1.064680e+00 4.375627e+00 3.316519e+00 2.015347e+00 1.738283e+00 3.059458e+00 2.802984e+00 3.828846e+00 2.711246e+00 2.758715e+00 3.355970e+00 1.271272e+00 2.183315e+00 1.266083e-01 2.572133e-01 3.002613e-01 2.290342e-01 2.604743e-01 2.083051e-01 3.105589e-01 4.209017e-01 2.925367e-01 2.881204e-01 2.848726e-01 1.897862e-01 2.184603e-01
<GCONST> 1.167501e+02
<MIXTURE> 2 3.132693e-01
<MEAN> 39
 8.137773e-01 -7.898696e+00 3.103476e+00 1.553422e+01 1.728337e+01 3.598299e+00 -1.495154e+01 4.948870e+00 -6.667252e+00 -1.515796e+01 5.732637e+00 3.396668e-01 -8.055709e+00 -9.649947e-02 2.330608e-01 -1.091490e-01 -2.168661e-01 -3.084728e-01 5.656367e-02 3.827381e-01 1.120682e-01 4.629762e-02 4.651254e-02 -2.207898e-01 3.791751e-02 2.363279e-01 1.630677e-02 -1.005572e-02 2.783808e-02 3.987605e-02 4.539154e-02 3.032854e-03 -6.517043e-02 3.843304e-02 1.044882e-02 -1.030852e-02 4.524168e-02 -2.129636e-02 -3.078167e-02
<VARIANCE> 39
 3.371695e+02 7.012813e+01 1.291381e+02 2.562645e+02 2.001743e+02 5.006008e+01 1.636809e+02 5.148931e+01 5.449834e+01 1.449346e+02 7.569005e+01 3.426579e+01 7.544205e+01 4.387188e-01 6.831660e-01 5.665302e-01 9.126616e-01 9.268924e-01 7.881781e-01 1.493774e+00 1.567506e+00 8.712691e-01 1.299321e+00 1.526325e+00 9.046425e-01 8.381605e-01 4.773985e-02 5.349488e-02 6.630092e-02 8.938543e-02 1.018011e-01 9.978502e-02 1.464365e-01 1.607641e-01 1.187387e-01 1.527461e-01 1.797290e-01 1.438561e-01 1.206557e-01
<GCONST> 1.012911e+02
<TRANSP> 7
 0.000000e+00 1.000000e+00 0.000000e+00 0.000000e+00 0.000000e+00 0.000000e+00 0.000000e+00
 0.000000e+00 6.483331e-01 3.516669e-01 0.000000e+00 0.000000e+00 0.000000e+00 0.000000e+00
 0.000000e+00 0.000000e+00 8.089895e-01 1.910104e-01 0.000000e+00 0.000000e+00 0.000000e+00
 0.000000e+00 0.000000e+00 0.000000e+00 8.714275e-01 1.285724e-01 0.000000e+00 0.000000e+00
 0.000000e+00 0.000000e+00 0.000000e+00 0.000000e+00 7.287875e-01 2.712124e-01 0.000000e+00
 0.000000e+00 0.000000e+00 0.000000e+00 0.000000e+00 0.000000e+00 6.973140e-01 3.026861e-01
 0.000000e+00 0.000000e+00 0.000000e+00 0.000000e+00 0.000000e+00 0.000000e+00 0.000000e+00
<ENDHMM>
~h "j"
<BEGINHMM>
<NUMSTATES> 5
<STATE> 2
<NUMMIXES> 2
<MIXTURE> 1 6.200245e-01
<MEAN> 39
 2.709167e+00 1.936246e+01 1.764798e+01 1.800050e+01 1.460320e+01 1.334595e+01 4.401843e+00 7.460119e+00 -5.661439e-01 -4.660495e+00 -4.703762e+00 -5.794159e+00 -3.745425e+00 -1.507319e-01 -1.979254e-01 6.653724e-02 2.069351e-01 2.731895e-02 1.324546e-01 2.244038e-01 2.136141e-01 2.922134e-01 1.936706e-01 -7.216235e-02 6.121654e-02 2.035292e-01 -1.438359e-01 -3.324964e-01 -3.888078e-02 9.701043e-02 -6.688082e-02 -4.437166e-02 -4.006465e-02 2.380949e-02 1.464434e-01 8.689089e-02 2.238070e-02 9.663950e-02 1.786195e-01
<VARIANCE> 39
 1.034933e+01 5.650045e+00 1.041906e+01 7.910047e+00 4.076692e+00 6.989342e+00 7.994173e+00 1.290781e+01 1.341859e+01 1.211272e+01 8.953041e+00 7.362489e+00 5.180491e+00 7.807167e-01 1.041440e+00 1.192493e+00 1.077875e+00 5.568613e-01 5.256384e-01 5.697820e-01 5.561092e-01 8.040457e-01 9.886039e-01 8.315256e-01 6.964632e-01 7.397094e-01 5.859242e-02 1.977186e-01 2.215520e-01 1.905407e-01 8.380811e-02 7.986654e-02 8.630941e-02 8.387856e-02 1.213853e-01 1.207162e-01 1.245651e-01 1.015048e-01 1.231630e-01
<GCONST> 6.741111e+01
<MIXTURE> 2 3.799753e-01
<MEAN> 39
 -2.499144e+00 4.021514e+00 9.186250e+00 1.476964e+01 1.232365e+01 8.406862e+00 -1.731811e+00 8.459115e+00 -1.193746e+00 -6.046254e+00 2.013052e+00 -9.560230e-01 -8.952748e-01 7.565681e-01 1.695364e+00 1.425965e+00 7.189112e-01 3.161888e-01 8.151340e-01 7.360251e-01 -7.696169e-02 7.062650e-02 1.296913e-01 -6.177355e-01 -3.890372e-01 -1.138356e-01 -4.318115e-03 -1.070922e-01 7.691985e-02 -1.369500e-02 -8.929146e-02 3.028798e-02 1.510711e-02 -4.477131e-02 -3.604026e-02 -3.996104e-02 -2.811063e-02 -4.679677e-02 -5.378845e-02
<VARIANCE> 39
 1.714906e+02 1.511971e+02 9.741199e+01 7.203329e+01 8.024423e+01 6.068873e+01 1.091730e+02 4.734069e+01 5.384262e+01 1.021707e+02 5.048186e+01 1.775972e+01 3.237024e+01 4.339819e+00 3.125165e+00 2.875065e+00 2.339377e+00 2.770325e+00 2.108109e+00 2.977310e+00 1.812599e+00 2.029745e+00 3.201897e+00 2.040189e+00 1.106867e+00 1.346360e+00 2.068314e-01 3.819812e-01 3.118557e-01 2.899626e-01 3.037889e-01 2.278879e-01 2.773007e-01 2.510699e-01 2.406652e-01 2.991340e-01 2.721525e-01 1.483241e-01 1.553179e-01
<GCONST> 1.195938e+02
<STATE> 3
<NUMMIXES> 2
<MIXTURE> 1 4.325202e-01
<MEAN> 39
 -2.256624e+00 4.065500e+00 1.934039e+01 2.444098e+01 1.186515e+01 1.485132e+01 4.809278e+00 9.029335e+00 6.447904e+00 -1.776666e+00 -4.781775e+00 -1.949744e+00 3.442562e+00 -1.488785e+00 -5.305341e+00 1.086341e+00 9.755518e-01 -1.416316e+00 1.111887e+00 -3.395398e-01 1.685659e-01 1.611940e+00 -8.376026e-02 7.385142e-01 1.166229e+00 8.335019e-01 -1.018290e-01 -9.218822e-01 1.562717e-01 -3.671121e-01 -3.668750e-01 7.395610e-02 -2.750481e-01 1.413537e-01 -6.183799e-02 -4.670374e-01 5.134847e-01 3.477774e-01 -3.647389e-01
<VARIANCE> 39
 1.751752e+01 7.916721e+01 2.452598e+01 2.201657e+01 2.768730e+01 2.155955e+01 2.034318e+01 1.877078e+01 4.357615e+01 2.820886e+01 2.595261e+01 1.949072e+01 1.825822e+01 5.969357e-01 4.054778e+00 2.505541e+00 2.120588e+00 1.973000e+00 1.913477e+00 1.959145e+00 1.525739e+00 1.701114e+00 2.514403e+00 2.807168e+00 1.869590e+00 2.217052e+00 6.578674e-02 4.292519e-01 2.181822e-01 4.099644e-01 2.460257e-01 3.702077e-01 2.427741e-01 2.302296e-01 2.786909e-01 3.155960e-01 3.031326e-01 2.563954e-01 2.802836e-01
<GCONST> 1.051513e+02
<MIXTURE> 2 5.674778e-01
<MEAN> 39
 -1.038129e+01 -2.888111e+01 2.601475e+01 1.991654e+01 -5.321471e-01 1.865075e+01 -1.032066e+00 9.803611e+00 9.446965e+00 -6.840301e+00 4.535622e+00 6.299509e+00 2.909737e+00 -5.257882e-01 -3.615131e+00 1.967984e+00 -4.573455e-01 -1.385224e+00 5.927605e-01 -1.564534e+00 -2.130350e-01 5.265554e-02 -7.679046e-01 1.192446e+00 3.549832e-01 -5.424384e-01 4.810692e-01 9.453176e-01 -9.670754e-02 2.352931e-01 6.355329e-01 5.240887e-02 -2.048587e-01 -3.612148e-01 -3.251469e-01 1.103742e-01 -3.563932e-01 -4.988794e-01 -3.539272e-02
<VARIANCE> 39
 2.383919e+01 1.177172e+02 9.077535e+01 5.998269e+01 6.038410e+01 5.050501e+01 6.729062e+01 3.688928e+01 8.046905e+01 3.279755e+01 3.823491e+01 2.693866e+01 2.268510e+01 1.972371e+00 9.867826e+00 5.324234e+00 3.918313e+00 6.262338e+00 4.561386e+00 4.531305e+00 2.396882e+00 2.605310e+00 2.918881e+00 2.197584e+00 3.227174e+00 1.414093e+00 2.688746e-01 5.494146e-01 9.236538e-01 6.459175e-01 8.645714e-01 7.915441e-01 6.391403e-01 4.061870e-01 4.216417e-01 4.122181e-01 3.317563e-01 4.273933e-01 2.265098e-01
<GCONST> 1.287293e+02
<STATE> 4
<NUMMIXES> 2
<MIXTURE> 1 4.020140e-01
<MEAN> 39
 -5.732298e+00 -3.348503e+01 3.572328e+01 2.487438e+01 2.131875e+00 2.309410e+01 -9.694047e+00 4.199572e+00 7.430133e+00 -1.023042e+01 4.691651e+00 1.740370e+00 -2.013614e+00 2.566401e+00 1.618784e+00 -1.369525e+00 2.288112e-01 1.985747e+00 2.379114e-01 -1.335395e+00 -2.842244e+00 -1.831885e+00 -6.384693e-01 -1.203229e+00 -9.988470e-01 -7.254458e-01 5.597916e-01 9.374414e-01 -1.327389e+00 -2.853302e-01 2.869972e-01 -5.980000e-01 1.670457e-01 -2.507082e-01 -1.351083e-01 -4.802968e-03 -4.014606e-01 1.487436e-01 7.326458e-02
<VARIANCE> 39
 2.113707e+01 2.841795e+01 2.659889e+01 3.235632e+01 3.902708e+01 2.300932e+01 3.167028e+01 4.564752e+01 6.708238e+01 2.511834e+01 3.380180e+01 2.015821e+01 1.676228e+01 1.350609e+00 3.277772e+00 4.159013e+00 1.715718e+00 1.400695e+00 2.678498e+00 1.993233e+00 1.638777e+00 1.501179e+00 1.141999e+00 1.372153e+00 1.005906e+00 8.419487e-01 1.620671e-01 6.731181e-01 5.332890e-01 2.296017e-01 4.585276e-01 2.901409e-01 3.858266e-01 4.749769e-01 3.299187e-01 2.883652e-01 3.266990e-01 2.323773e-01 1.551512e-01
<GCONST> 1.075066e+02
<MIXTURE> 2 5.979858e-01
<MEAN> 39
 1.021967e+01 -2.112076e+01 1.608444e+01 2.265084e+01 1.237212e+01 1.605556e+01 -1.612881e+01 -3.680091e+00 3.355665e-01 -1.535868e+01 -1.236004e+00 2.321465e-01 -3.723655e+00 2.593271e+00 2.025469e+00 -4.475150e+00 -5.436019e-01 2.064730e+00 -2.930762e+00 -1.522910e+00 1.021366e+00 -7.004740e-01 -1.493402e+00 -2.355349e-01 3.816079e-02 -3.208667e-01 -3.596214e-01 -1.255123e-01 8.916321e-02 -1.021776e-01 -1.050627e-01 -3.970382e-01 4.165867e-02 9.202305e-01 1.928356e-01 -1.320574e-01 4.049518e-01 7.394810e-02 7.735402e-05
<VARIANCE> 39
 3.859324e+01 3.228847e+01 9.872200e+01 3.599918e+01 3.611385e+01 6.330979e+01 4.228872e+01 3.359498e+01 3.377129e+01 2.648648e+01 3.350820e+01 1.363750e+01 1.796123e+01 1.802816e+00 9.333490e-01 2.846949e+00 8.457588e-01 1.685807e+00 2.821289e+00 1.991299e+00 6.133497e+00 1.216884e+00 1.454703e+00 1.842643e+00 1.414826e+00 7.110084e-01 1.305098e-01 1.311508e-01 4.242950e-01 1.139494e-01 1.811351e-01 3.658419e-01 2.189636e-01 4.906440e-01 2.036528e-01 2.181077e-01 1.877093e-01 1.669162e-01 9.925431e-02
<GCONST> 1.035035e+02
<TRANSP> 5
 0.000000e+00 1.000000e+00 0.000000e+00 0.000000e+00 0.000000e+00
 0.000000e+00 9.072246e-01 9.277536e-02 0.000000e+00 0.000000e+00
 0.000000e+00 0.000000e+00 8.923181e-01 1.076818e-01 0.000000e+00
 0.000000e+00 0.000000e+00 0.000000e+00 8.853179e-01 1.146822e-01
 0.000000e+00 0.000000e+00 0.000000e+00 0.000000e+00 0.000000e+00
<ENDHMM>
~h "k"
<BEGINHMM>
<NUMSTATES> 5
<STATE> 2
<NUMMIXES> 2
<MIXTURE> 1 5.349056e-01
<MEAN> 39
 -2.657407e+01 -6.359693e+00 -5.068926e+00 -2.870870e+00 -3.582881e+00 8.522568e-01 -3.474304e+00 1.227912e+00 -1.746302e+00 -8.041042e-01 6.500477e-01 -7.132638e-01 5.806560e-01 3.454283e-02 -9.328543e-02 -9.655815e-02 6.679042e-03 5.679744e-02 -4.440193e-03 -3.379111e-02 1.519639e-02 5.092833e-03 -5.561118e-02 -5.195879e-02 1.632476e-02 6.519642e-02 1.020622e-01 -2.830948e-02 -1.449250e-02 6.389903e-02 8.793692e-02 4.444616e-02 2.376823e-02 7.317967e-02 2.489132e-02 -3.219251e-02 -1.357636e-02 3.730682e-02 7.668263e-02
<VARIANCE> 39
 5.689624e-01 1.448418e+00 2.011153e+00 2.817437e+00 3.874444e+00 5.221086e+00 6.159021e+00 6.702124e+00 8.711530e+00 7.973480e+00 6.562380e+00 7.118154e+00 5.902101e+00 1.130816e-01 2.482943e-01 3.414570e-01 4.670851e-01 6.627815e-01 7.622388e-01 9.718231e-01 9.755615e-01 1.179166e+00 1.119951e+00 9.568908e-01 9.435087e-01 8.961688e-01 6.281869e-02 6.365854e-02 7.885515e-02 1.165681e-01 1.636507e-01 1.826375e-01 2.179971e-01 2.273598e-01 2.424614e-01 2.331856e-01 2.077733e-01 1.903770e-01 1.902069e-01
<GCONST> 5.923892e+01
<MIXTURE> 2 4.650942e-01
<MEAN> 39
 -1.083540e+01 2.788111e+00 3.599029e+00 9.860008e+00 1.090754e+01 1.011696e+01 -3.163326e-01 3.657620e+00 -3.345076e+00 -3.748121e+00 1.973136e+00 1.617014e+00 2.172768e+00 -1.801500e+00 -1.389114e+00 -1.128414e+00 -1.364841e+00 -1.283147e+00 -3.830294e-01 3.133937e-01 1.991008e-01 8.473910e-02 2.178664e-02 -2.293406e-01 -2.345756e-02 3.434715e-01 1.680528e-01 -3.674608e-01 -3.931511e-01 -1.960669e-01 -1.719620e-01 -2.986388e-01 -2.507611e-01 7.238904e-02 5.293160e-02 -4.593488e-02 6.802669e-02 -8.473288e-02 -1.041590e-01
<VARIANCE> 39
 9.642960e+01 7.209630e+01 7.095135e+01 6.924831e+01 5.210326e+01 4.141256e+01 5.402779e+01 4.880238e+01 7.559731e+01 5.644447e+01 4.412822e+01 4.957659e+01 3.444885e+01 2.154639e+00 3.209857e+00 3.417224e+00 2.460622e+00 2.657758e+00 2.864598e+00 3.090612e+00 2.658364e+00 2.915047e+00 2.499197e+00 1.935630e+00 1.704435e+00 1.812442e+00 1.541085e-01 2.562708e-01 3.275435e-01 2.769856e-01 3.149903e-01 3.338670e-01 3.338932e-01 3.649592e-01 4.048083e-01 3.550478e-01 3.181454e-01 2.535036e-01 2.668859e-01
<GCONST> 1.203728e+02
<STATE> 3
<NUMMIXES> 2
<MIXTURE> 1 6.712218e-01
<MEAN> 39
 -1.713923e+01 -8.893158e+00 -6.879845e+00 1.515908e+00 2.603769e+00 3.596176e+00 -2.774881e+00 6.040621e+00 -3.813076e-01 -3.717227e+00 -8.295484e-01 -5.830916e-01 4.340472e+00 2.193154e+00 -1.735223e+00 -1.489872e+00 -6.985301e-01 -7.064446e-01 -8.920831e-01 -7.959574e-01 7.686362e-01 -2.059919e-01 -5.444944e-01 6.573099e-01 -6.950405e-01 -2.717561e-01 7.167349e-01 1.100927e-01 3.549824e-01 6.752300e-02 -7.649207e-03 1.651720e-01 -3.852378e-02 9.332909e-02 -4.438079e-01 -2.525232e-01 5.778435e-01 -2.404135e-01 -4.941451e-01
<VARIANCE> 39
 5.171793e+01 4.227346e+01 3.184157e+01 4.573383e+01 4.577069e+01 3.592816e+01 3.966959e+01 2.869945e+01 2.543871e+01 2.386639e+01 2.310042e+01 2.397809e+01 1.983317e+01 4.652112e+00 3.757984e+00 3.727487e+00 5.140435e+00 5.365648e+00 4.274915e+00 3.706844e+00 3.356427e+00 3.514141e+00 3.319601e+00 4.394644e+00 2.895952e+00 3.728719e+00 2.772452e-01 2.805226e-01 3.100905e-01 4.346200e-01 4.657642e-01 4.881177e-01 4.655195e-01 4.918755e-01 7.219145e-01 5.839589e-01 4.928286e-01 3.666475e-01 4.701996e-01
<GCONST> 1.237480e+02
<MIXTURE> 2 3.287784e-01
<MEAN> 39
 -3.178969e+00 -1.789929e+01 -1.192286e+01 -1.038476e+00 1.305463e+00 2.782691e+00 -6.793163e+00 9.460009e+00 -7.027480e+00 -1.002911e+01 7.402648e+00 -5.907294e+00 -1.846424e+00 3.333285e+00 -1.806196e+00 -1.730432e-01 -6.866328e-01 -2.333168e-01 7.674579e-01 -6.052126e-01 7.562489e-01 -3.509079e+00 -3.044330e+00 3.074232e+00 -7.673905e-01 -1.663867e+00 -4.569810e-01 6.956743e-01 8.863714e-01 7.824724e-01 4.639569e-01 2.298213e-01 2.708052e-01 -7.438773e-02 2.430611e-01 8.047559e-02 -4.655948e-01 4.182384e-01 5.244472e-01
<VARIANCE> 39
 4.568057e+01 6.414011e+01 3.583137e+01 1.057364e+02 7.884539e+01 8.820985e+01 8.351897e+01 6.711315e+01 6.551765e+01 7.172646e+01 5.797067e+01 4.108019e+01 2.903366e+01 1.559160e+00 1.784062e+00 2.400985e+00 4.664598e+00 2.952624e+00 3.293199e+00 3.284729e+00 3.672213e+00 3.857191e+00 3.216692e+00 3.278488e+00 1.934683e+00 2.225155e+00 2.421759e-01 4.007496e-01 3.865545e-01 6.693208e-01 4.972951e-01 7.304612e-01 5.889018e-01 5.625635e-01 1.167681e+00 9.923282e-01 8.099041e-01 2.790601e-01 3.330137e-01
<GCONST> 1.301051e+02
<STATE> 4
<NUMMIXES> 2
<MIXTURE> 1 6.719567e-01
<MEAN> 39
 -1.335799e+00 -1.366865e+01 2.835937e+00 1.401616e+01 6.466265e+00 3.690549e+00 -6.125956e+00 9.740594e+00 -5.009953e+00 -9.139765e+00 7.725259e+00 -4.127065e+00 -8.340553e-01 1.253041e+00 1.449235e+00 2.183432e+00 2.761181e+00 1.865333e+00 -2.456153e-01 -7.308283e-01 -1.316846e-01 1.064850e+00 3.268707e-01 -8.260790e-03 6.627345e-01 -5.165430e-01 3.406046e-01 -1.235605e-01 -6.076421e-01 -3.039276e-01 3.095658e-01 -2.688277e-01 -6.751331e-01 -1.181301e-01 -3.227123e-01 -5.745530e-01 9.891915e-02 1.816445e-02 -4.575045e-01
<VARIANCE> 39
 1.083823e+02 1.228356e+02 7.722260e+01 1.749805e+02 7.937291e+01 5.678334e+01 5.219825e+01 5.734892e+01 4.972096e+01 4.372888e+01 3.968712e+01 3.809342e+01 2.595354e+01 3.588550e+00 2.852065e+00 4.968475e+00 6.573789e+00 5.991493e+00 5.732230e+00 5.658866e+00 4.383157e+00 4.093658e+00 4.346636e+00 3.039170e+00 2.269555e+00 2.814008e+00 2.045903e-01 4.782382e-01 5.488998e-01 5.654572e-01 5.161541e-01 4.723512e-01 6.449247e-01 5.195098e-01 6.510989e-01 7.830666e-01 4.237535e-01 2.801510e-01 3.444827e-01
<GCONST> 1.338990e+02
<MIXTURE> 2 3.280427e-01
<MEAN> 39
 3.222439e+00 -1.927481e+01 -1.008474e+01 -3.349033e-01 1.890572e+00 4.391006e+00 -7.834076e+00 1.058304e+01 -1.475613e+01 -1.718929e+01 1.201735e+01 -6.831731e+00 -3.578244e+00 1.192725e+00 1.109262e+00 2.754879e+00 2.583229e+00 8.182804e-01 5.875935e-02 1.125516e-01 1.777964e-01 3.992641e-01 2.996830e-01 9.790542e-02 2.202108e-01 3.809154e-01 -5.963823e-01 8.470370e-01 8.401915e-01 1.271029e+00 6.468081e-01 -3.129801e-01 8.165441e-02 -1.737201e-01 1.506051e+00 1.204201e+00 -8.207510e-01 4.285148e-01 3.737202e-01
<VARIANCE> 39
 4.993849e+01 7.343420e+01 4.860151e+01 1.547309e+02 1.147491e+02 9.853566e+01 1.110291e+02 1.081988e+02 6.766647e+01 7.479257e+01 6.765269e+01 6.529499e+01 4.349474e+01 1.351880e+00 1.991491e+00 2.705570e+00 3.096487e+00 2.949710e+00 2.755268e+00 3.218308e+00 2.793898e+00 4.505921e+00 4.119951e+00 2.864618e+00 1.704215e+00 1.568243e+00 1.584585e-01 3.668047e-01 4.880241e-01 7.677898e-01 7.735088e-01 1.105002e+00 1.027378e+00 9.545970e-01 7.799515e-01 7.556701e-01 7.460548e-01 4.695063e-01 5.131842e-01
<GCONST> 1.343481e+02
<TRANSP> 5
 0.000000e+00 1.000000e+00 0.000000e+00 0.000000e+00 0.000000e+00
 0.000000e+00 8.371457e-01 1.628542e-01 0.000000e+00 0.000000e+00
 0.000000e+00 0.000000e+00 8.123577e-01 1.876423e-01 0.000000e+00
 0.000000e+00 0.000000e+00 0.000000e+00 7.581644e-01 2.418356e-01
 0.000000e+00 0.000000e+00 0.000000e+00 0.000000e+00 0.000000e+00
<ENDHMM>
~h "l"
<BEGINHMM>
<NUMSTATES> 5
<STATE> 2
<NUMMIXES> 2
<MIXTURE> 1 6.371179e-01
<MEAN> 39
 1.346996e+01 -5.862094e+00 4.208920e+00 3.110081e+01 2.056480e+01 -4.804942e+00 -5.417220e+00 1.943318e+01 -9.565261e+00 -3.042318e+01 -4.821442e+00 3.906299e-02 -3.586914e+00 -2.451846e-01 -1.755444e-02 5.813551e-01 1.120445e+00 8.512624e-02 -5.452262e-01 4.406453e-01 7.704282e-01 2.162496e-02 -7.101200e-01 -6.338774e-01 -3.111367e-02 -7.367265e-02 2.991649e-02 -3.772022e-03 -9.174652e-02 -2.332386e-01 -3.126451e-02 8.451501e-02 -1.682623e-01 -2.299451e-01 6.912037e-02 3.135319e-01 1.848444e-01 -3.189455e-02 -1.327075e-02
<VARIANCE> 39
 1.764739e+01 2.427399e+01 3.877306e+01 8.863094e+01 5.557264e+01 5.127603e+01 4.750498e+01 6.690887e+01 3.991486e+01 7.927238e+01 7.446526e+01 2.906755e+01 2.733937e+01 4.598555e-01 6.437743e-01 1.045625e+00 2.028951e+00 1.122045e+00 1.492374e+00 1.892204e+00 2.667866e+00 1.366245e+00 3.523613e+00 2.533582e+00 1.002633e+00 8.697843e-01 5.254479e-02 7.091056e-02 1.171237e-01 2.488934e-01 1.585468e-01 2.051853e-01 2.499473e-01 3.710336e-01 1.873420e-01 4.433571e-01 2.557886e-01 1.500354e-01 1.222777e-01
<GCONST> 1.021990e+02
<MIXTURE> 2 3.628811e-01
<MEAN> 39
 1.008463e+01 -6.814036e+00 1.019662e+01 4.139725e+01 2.303349e+01 -6.643048e+00 -5.329165e+00 1.794751e+01 -6.622806e+00 -2.452197e+01 -4.265149e+00 -1.306140e-02 -5.446529e+00 -1.569950e-01 2.435209e-01 2.772467e-01 -1.013485e-02 -3.265012e-01 2.746711e-02 3.133881e-01 -2.692298e-02 2.408216e-01 4.577454e-01 -4.391365e-02 6.729715e-02 8.891648e-02 1.321265e-02 1.062555e-02 -5.535251e-02 -1.389384e-01 2.485556e-02 1.674623e-01 -2.401460e-02 -1.330152e-01 -9.827995e-02 3.385424e-02 1.023464e-01 -1.343188e-02 -1.532094e-02
<VARIANCE> 39
 4.563724e+00 1.074941e+01 1.594579e+01 1.407336e+01 2.054343e+01 1.379862e+01 2.909501e+01 3.439890e+01 2.700079e+01 6.059196e+01 1.899004e+01 2.443125e+01 1.908029e+01 1.630110e-01 3.162260e-01 4.527222e-01 1.005535e+00 7.966091e-01 9.274617e-01 9.025402e-01 1.253972e+00 9.935663e-01 1.544215e+00 1.025911e+00 8.416792e-01 7.439225e-01 2.545800e-02 4.889281e-02 7.648909e-02 1.680886e-01 1.223107e-01 1.502780e-01 1.350372e-01 1.997413e-01 1.569927e-01 2.214637e-01 1.672460e-01 1.245766e-01 1.150467e-01
<GCONST> 7.803748e+01
<STATE> 3
<NUMMIXES> 2
<MIXTURE> 1 7.395178e-01
<MEAN> 39
 1.102081e+01 -3.525989e+00 6.708920e+00 3.058141e+01 1.893899e+01 -2.613554e+00 -3.848406e+00 1.733089e+01 -6.087163e+00 -2.362540e+01 -5.442066e+00 -2.055462e+00 -4.094604e+00 3.246449e-01 1.877229e-02 -7.269014e-01 -1.305506e+00 8.826516e-02 9.586040e-01 -6.443941e-01 -1.386019e+00 1.195676e-02 1.385372e+00 9.685208e-01 -3.438490e-01 -3.680664e-01 1.410689e-01 -2.164807e-01 -3.176396e-01 -3.250210e-01 7.340531e-02 6.058725e-02 -3.585195e-01 -2.027499e-01 -1.180026e-01 1.720076e-02 3.915956e-01 9.387378e-02 -7.623314e-02
<VARIANCE> 39
 3.532291e+01 2.813378e+01 4.995929e+01 9.762055e+01 4.100119e+01 5.574016e+01 4.873639e+01 5.520688e+01 5.259157e+01 1.088316e+02 4.139175e+01 5.155030e+01 3.273021e+01 8.899164e-01 1.153578e+00 1.417435e+00 3.681138e+00 1.672678e+00 2.714894e+00 3.583109e+00 3.826850e+00 2.096496e+00 5.067276e+00 3.000183e+00 1.562250e+00 1.250088e+00 9.792442e-02 1.592344e-01 2.055701e-01 4.088339e-01 2.714557e-01 2.841666e-01 4.807698e-01 5.354904e-01 2.943532e-01 5.437576e-01 3.597477e-01 1.953165e-01 1.930561e-01
<GCONST> 1.157610e+02
<MIXTURE> 2 2.604809e-01
<MEAN> 39
 1.096384e+01 -8.871586e+00 9.033796e+00 4.167424e+01 2.509748e+01 -6.096480e+00 -1.086929e+01 1.012334e+01 -5.481676e+00 -1.634595e+01 -5.562360e-01 -3.525846e+00 -9.720155e+00 8.032494e-02 -1.166738e-01 -3.003389e-01 -5.880402e-01 1.232720e-01 8.626049e-01 -2.190455e-01 -1.130329e+00 -3.305787e-01 7.774082e-01 5.877869e-01 -6.462981e-02 -5.117911e-02 9.023540e-02 -1.307322e-01 -1.808368e-01 -9.752622e-02 2.410239e-01 1.908136e-01 -2.161991e-01 -1.868098e-01 -2.221268e-01 -1.363852e-01 1.834349e-01 4.313628e-02 -1.564695e-02
<VARIANCE> 39
 6.542031e+00 7.835001e+00 1.476166e+01 1.201166e+01 1.158125e+01 1.163739e+01 1.903115e+01 4.401915e+01 2.193687e+01 5.823104e+01 1.486528e+01 1.420395e+01 9.780925e+00 2.643786e-01 3.555201e-01 5.475991e-01 1.039106e+00 8.989170e-01 1.101177e+00 9.607331e-01 1.429366e+00 1.024566e+00 1.163827e+00 1.082282e+00 6.674367e-01 7.123705e-01 4.734749e-02 6.023196e-02 9.116086e-02 1.631612e-01 1.427436e-01 1.283252e-01 1.959531e-01 2.386953e-01 1.522932e-01 1.627576e-01 1.775647e-01 1.080442e-01 1.073431e-01
<GCONST> 7.708892e+01
<STATE> 4
<NUMMIXES> 2
<MIXTURE> 1 2.983770e-01
<MEAN> 39
 4.487777e+00 2.935185e+00 2.427414e+00 1.320752e+01 1.118762e+01 5.335930e+00 -8.095541e-01 1.000585e+01 -2.735101e+00 -1.307959e+01 -7.054560e+00 -5.138678e+00 -2.186153e+00 -8.641907e-01 4.640182e-01 2.526411e-01 -6.569678e-01 -4.283170e-01 4.697612e-01 4.311219e-01 -1.629255e-01 4.210669e-01 8.366541e-01 2.251547e-01 2.621469e-01 2.263704e-01 2.236081e-02 -7.270417e-02 1.149150e-02 6.047515e-02 -4.974975e-02 -2.176553e-01 -6.318239e-02 1.712786e-01 -5.192621e-03 -1.555788e-01 9.880213e-03 3.881802e-02 -2.379034e-02
<VARIANCE> 39
 1.980533e+02 5.724981e+01 7.534562e+01 1.609810e+02 9.609275e+01 8.740960e+01 8.821561e+01 8.233088e+01 7.165117e+01 9.846050e+01 6.374511e+01 7.289391e+01 4.910054e+01 2.142940e+00 1.261514e+00 1.510849e+00 2.699164e+00 1.912269e+00 1.929013e+00 2.719418e+00 2.579637e+00 1.459265e+00 2.799975e+00 1.898259e+00 1.627766e+00 1.295297e+00 9.065610e-02 7.607959e-02 1.495722e-01 1.693979e-01 1.712349e-01 2.227277e-01 3.034948e-01 2.454004e-01 1.917822e-01 2.603565e-01 1.820611e-01 1.590452e-01 1.408380e-01
<GCONST> 1.149750e+02
<MIXTURE> 2 7.016220e-01
<MEAN> 39
 1.243436e+01 -8.198761e+00 4.956794e+00 3.122016e+01 2.330326e+01 1.498630e-01 -1.124337e+01 7.061441e+00 -9.633583e+00 -1.768881e+01 3.979541e+00 -1.416257e+00 -7.750682e+00 1.039136e+00 -1.392954e+00 -1.717611e+00 -1.410942e+00 1.177795e+00 5.904304e-01 -3.029827e+00 -2.114358e+00 -9.650972e-01 3.106990e-01 2.472488e+00 6.200664e-02 -1.106355e+00 5.855998e-02 -1.008892e-01 1.334064e-01 3.791847e-01 2.387438e-01 -4.204704e-01 -4.049303e-01 5.313743e-01 1.806511e-01 -5.522051e-01 -1.608211e-01 6.410633e-03 -1.560124e-01
<VARIANCE> 39
 1.275670e+01 1.327432e+01 2.785129e+01 7.448548e+01 3.254853e+01 3.340858e+01 2.814094e+01 5.875268e+01 2.496395e+01 5.982685e+01 3.498084e+01 1.734423e+01 1.860058e+01 4.942839e-01 8.266165e-01 1.133823e+00 3.303400e+00 1.353377e+00 1.488872e+00 2.791198e+00 2.443372e+00 1.797778e+00 2.314037e+00 3.284903e+00 1.012805e+00 1.257622e+00 7.250988e-02 1.485685e-01 1.772109e-01 2.409329e-01 2.031176e-01 2.410007e-01 3.271020e-01 4.563961e-01 3.099481e-01 3.277226e-01 3.512263e-01 2.003216e-01 1.594437e-01
<GCONST> 1.020113e+02
<TRANSP> 5
 0.000000e+00 1.000000e+00 0.000000e+00 0.000000e+00 0.000000e+00
 0.000000e+00 9.089889e-01 9.101116e-02 0.000000e+00 0.000000e+00
 0.000000e+00 0.000000e+00 7.526142e-01 2.473858e-01 0.000000e+00
 0.000000e+00 0.000000e+00 0.000000e+00 5.968229e-01 4.031772e-01
 0.000000e+00 0.000000e+00 0.000000e+00 0.000000e+00 0.000000e+00
<ENDHMM>
~h "m"
<BEGINHMM>
<NUMSTATES> 5
<STATE> 2
<NUMMIXES> 2
<MIXTURE> 1 3.721436e-01
<MEAN> 39
 1.618018e+01 4.573038e+00 9.213688e-01 1.524066e+01 1.104420e+01 -4.963951e+00 -6.292934e+00 1.651318e+01 3.943720e+00 -1.368100e+01 -5.662711e+00 -4.839763e+00 -9.010870e+00 -6.403002e-01 9.717859e-01 1.445019e+00 1.852570e+00 1.804228e+00 1.440365e+00 -7.766718e-02 -1.826643e+00 -5.734137e-01 8.055277e-01 -7.094268e-01 -1.568912e+00 -1.002417e+00 1.393276e-01 -2.727695e-01 -1.918076e-01 -1.284600e-01 -5.561084e-02 -2.534997e-01 -3.063010e-01 5.354843e-02 -1.172053e-01 -1.562301e-01 3.462326e-01 1.890694e-01 -6.132420e-03
<VARIANCE> 39
 3.847905e+01 2.595063e+01 3.088638e+01 3.069962e+01 4.823500e+01 4.759658e+01 1.984832e+01 6.569450e+01 2.830193e+01 2.976387e+01 2.688908e+01 2.178128e+01 1.833192e+01 5.764760e-01 1.094222e+00 1.246286e+00 1.355730e+00 1.928114e+00 2.092443e+00 1.829010e+00 2.637378e+00 1.091549e+00 2.082948e+00 1.629336e+00 1.343489e+00 8.877416e-01 6.295768e-02 9.527009e-02 1.320654e-01 1.909413e-01 3.281961e-01 2.595331e-01 2.820542e-01 3.233671e-01 1.590036e-01 2.556525e-01 2.248313e-01 2.045528e-01 1.420137e-01
<GCONST> 9.899748e+01
<MIXTURE> 2 6.278554e-01
<MEAN> 39
 1.567626e+01 5.532826e+00 4.612686e+00 2.211615e+01 1.745986e+01 -2.691395e+00 -9.341723e+00 8.926774e+00 3.570243e-01 -1.127731e+01 -4.734908e+00 -7.949214e+00 -1.295693e+01 -1.789147e-01 3.034190e-01 4.628960e-01 1.559144e-01 1.009882e-01 2.116948e-01 -2.122513e-01 -7.433560e-01 -2.941265e-01 3.514075e-01 1.750228e-01 -7.349847e-02 3.960015e-02 7.371555e-03 3.922931e-02 -2.893174e-02 -1.802457e-01 -1.735042e-01 -2.048809e-02 7.126165e-02 9.367941e-02 4.681193e-02 -1.884009e-02 -9.167017e-03 9.182404e-02 1.475929e-01
<VARIANCE> 39
 3.158174e+00 1.210825e+01 2.163638e+01 1.179639e+01 2.323355e+01 2.670471e+01 2.522860e+01 6.490733e+01 2.967348e+01 2.468531e+01 2.240749e+01 1.619556e+01 1.353208e+01 1.289235e-01 3.412310e-01 4.635928e-01 5.837635e-01 5.765027e-01 5.267311e-01 6.765904e-01 1.104536e+00 4.952948e-01 7.295386e-01 5.659195e-01 5.238825e-01 5.311433e-01 2.093021e-02 3.997599e-02 6.169697e-02 1.139874e-01 1.155270e-01 8.494572e-02 1.070989e-01 1.507978e-01 7.404904e-02 1.215678e-01 9.395865e-02 8.928520e-02 7.888241e-02
<GCONST> 6.818605e+01
<STATE> 3
<NUMMIXES> 2
<MIXTURE> 1 1.943575e-01
<MEAN> 39
 -1.061844e+00 1.272588e+01 1.231071e+01 1.421975e+01 9.911965e+00 7.482266e+00 -7.499205e-01 4.104568e+00 -3.182861e+00 -5.514990e+00 -3.155916e+00 -5.316661e+00 -3.935528e+00 -9.746290e-01 -1.443881e-01 1.321417e-01 -1.794798e-01 -1.468683e-01 4.208901e-01 4.301201e-01 2.028600e-01 2.609788e-01 3.136423e-01 1.687949e-01 2.792210e-01 3.150359e-01 -1.380001e-02 -1.867493e-01 -5.064506e-02 6.633018e-02 6.211086e-02 -7.069348e-02 -1.920065e-01 -9.038766e-02 3.306951e-03 -4.129483e-02 -3.550622e-02 -6.298762e-02 -3.505472e-02
<VARIANCE> 39
 1.167618e+02 7.748709e+01 5.028615e+01 5.366888e+01 2.931092e+01 1.552142e+01 1.222102e+01 2.266991e+01 2.102276e+01 1.939236e+01 1.401690e+01 1.442831e+01 1.627557e+01 3.456338e+00 1.775499e+00 2.081306e+00 2.299217e+00 1.545080e+00 1.026203e+00 1.492470e+00 1.535610e+00 1.418938e+00 1.411670e+00 1.283288e+00 1.272130e+00 1.270593e+00 1.422643e-01 1.684900e-01 2.777236e-01 2.523286e-01 1.949067e-01 1.434143e-01 1.665226e-01 1.918936e-01 1.929726e-01 2.171265e-01 1.926081e-01 1.758509e-01 1.536047e-01
<GCONST> 9.879559e+01
<MIXTURE> 2 8.056428e-01
<MEAN> 39
 1.274504e+01 1.265770e+01 1.105232e+01 2.018004e+01 1.623234e+01 2.958033e+00 -8.617147e+00 4.838370e-01 -2.686781e+00 -6.893683e+00 -5.153658e+00 -9.294954e+00 -9.393592e+00 -1.888360e-01 2.839155e-01 2.391274e-01 -1.962596e-01 -1.964653e-01 2.716684e-01 2.380588e-01 -1.953831e-01 -1.721409e-01 8.254708e-02 -4.803674e-02 1.188190e-02 1.775662e-01 -1.191337e-02 -9.558250e-02 -9.875281e-02 -7.307218e-02 -6.838080e-02 -3.289314e-02 8.406141e-02 2.157308e-01 3.344713e-02 -1.383122e-01 1.524910e-02 1.245256e-01 7.307104e-02
<VARIANCE> 39
 4.382964e+00 1.193621e+01 1.496786e+01 1.101855e+01 1.871476e+01 1.988849e+01 3.294755e+01 4.895026e+01 2.376791e+01 2.163438e+01 1.469937e+01 1.613767e+01 1.716865e+01 2.997194e-01 5.192151e-01 5.790412e-01 6.923069e-01 8.692600e-01 7.150412e-01 1.433649e+00 1.426048e+00 6.649058e-01 1.002558e+00 6.150039e-01 8.094061e-01 7.237012e-01 2.762857e-02 6.548640e-02 6.937088e-02 1.139857e-01 1.274299e-01 9.825869e-02 1.642528e-01 1.564762e-01 9.421126e-02 1.647411e-01 9.003274e-02 1.206660e-01 9.829728e-02
<GCONST> 7.443446e+01
<STATE> 4
<NUMMIXES> 2
<MIXTURE> 1 0.000000e+00
<MEAN> 39
 -3.465476e+01 1.675967e+01 -7.743439e+00 1.826633e+00 -1.155705e+00 1.236522e+01 -1.445375e+01 5.846484e+00 -1.598039e-01 2.253834e-01 -2.058068e+00 -9.824362e-02 3.765816e+00 -1.362455e-01 8.215038e-02 1.575990e-02 -2.231550e-02 5.907191e-02 6.852118e-02 -5.401044e-02 8.545254e-03 3.942942e-02 2.500927e-04 -6.214541e-04 1.159003e-02 3.031951e-02 2.616155e-01 -1.072249e-01 2.894851e-02 8.718687e-02 -5.242795e-02 -9.323000e-02 1.351443e-01 9.685402e-03 -5.067167e-02 2.049104e-02 2.124489e-02 -7.652363e-03 -4.976257e-02
<VARIANCE> 39
 4.483082e-01 6.496472e-01 1.372011e+00 1.126045e+00 1.920628e+00 1.941905e+00 2.517905e+00 2.499093e+00 2.399876e+00 2.720778e+00 3.064659e+00 2.732042e+00 2.229308e+00 1.086354e+00 3.270376e-01 2.173789e-01 2.914865e-01 3.910311e-01 4.624964e-01 5.924420e-01 3.902425e-01 4.446459e-01 4.080288e-01 4.378160e-01 3.926591e-01 3.533571e-01 2.683040e-01 8.656988e-02 6.370471e-02 7.948849e-02 7.781372e-02 1.027722e-01 1.615612e-01 9.150107e-02 9.617190e-02 9.459341e-02 9.706742e-02 8.784577e-02 8.113205e-02
<GCONST> 3.729400e+01
<MIXTURE> 2 1.000000e+00
<MEAN> 39
 1.316777e+01 6.314751e+00 4.485024e+00 1.679129e+01 1.371041e+01 -8.329560e-02 -7.484868e+00 8.362789e+00 -7.923489e-01 -1.168417e+01 -3.873286e+00 -4.491597e+00 -7.809724e+00 6.571144e-01 -1.385713e+00 -1.306772e+00 -1.180450e+00 -8.909941e-01 -9.740843e-01 -4.299428e-01 1.587995e+00 -1.781566e-01 -1.883663e+00 8.219121e-01 1.566941e+00 7.642312e-01 1.717900e-01 -3.543773e-01 -2.216985e-01 -8.470438e-02 9.417890e-03 -2.292755e-01 -3.481322e-01 2.282603e-01 -1.055109e-01 -3.323379e-01 4.075541e-01 2.550656e-01 -1.272744e-01
<VARIANCE> 39
 6.812849e+01 4.341936e+01 5.276066e+01 2.734855e+01 4.096312e+01 6.382798e+01 2.632435e+01 7.640131e+01 4.620160e+01 4.968815e+01 2.206084e+01 2.612297e+01 2.517888e+01 1.238933e+00 2.453889e+00 2.535325e+00 2.096519e+00 3.178229e+00 2.601801e+00 2.037514e+00 3.476184e+00 1.458204e+00 4.941393e+00 2.094834e+00 2.323771e+00 1.174342e+00 1.021079e-01 1.952759e-01 2.926918e-01 2.565686e-01 3.351642e-01 2.498862e-01 3.087081e-01 4.331224e-01 1.910476e-01 5.002115e-01 3.060691e-01 2.477752e-01 1.786695e-01
<GCONST> 1.126662e+02
<TRANSP> 5
 0.000000e+00 1.000000e+00 0.000000e+00 0.000000e+00 0.000000e+00
 0.000000e+00 8.849149e-01 1.150851e-01 0.000000e+00 0.000000e+00
 0.000000e+00 0.000000e+00 8.652423e-01 1.347577e-01 0.000000e+00
 0.000000e+00 0.000000e+00 0.000000e+00 6.057012e-01 3.942988e-01
 0.000000e+00 0.000000e+00 0.000000e+00 0.000000e+00 0.000000e+00
<ENDHMM>
~h "n"
<BEGINHMM>
<NUMSTATES> 5
<STATE> 2
<NUMMIXES> 2
<MIXTURE> 1 6.248873e-01
<MEAN> 39
 1.312919e+01 8.430937e+00 3.828206e+00 1.626595e+01 1.919431e+01 7.674579e+00 -8.091574e+00 3.993860e-01 -5.847182e+00 -1.212371e+01 -5.612281e+00 -5.498692e+00 -2.965650e+00 -2.252898e-02 8.323303e-01 8.976291e-01 1.017227e+00 6.234580e-01 -7.522020e-02 -8.329667e-01 -1.665276e+00 -3.314955e-01 6.078804e-01 -5.705752e-01 -6.190365e-01 -5.576459e-02 1.564988e-01 -3.601902e-01 -2.700704e-01 -1.570204e-01 1.161276e-02 -1.470494e-01 -2.813160e-01 1.204408e-01 6.028822e-03 -6.977011e-02 3.847968e-01 1.620358e-01 -7.434691e-02
<VARIANCE> 39
 3.461736e+01 2.757761e+01 3.155392e+01 2.740116e+01 3.208274e+01 3.083851e+01 4.531292e+01 4.150696e+01 2.253489e+01 2.889031e+01 3.340137e+01 2.216226e+01 1.608729e+01 7.216268e-01 1.530033e+00 2.019918e+00 1.851205e+00 1.757547e+00 1.174035e+00 2.242893e+00 1.855103e+00 1.144564e+00 2.265472e+00 2.035298e+00 1.308773e+00 1.115104e+00 5.972533e-02 1.454551e-01 1.606244e-01 1.839078e-01 2.371118e-01 1.624380e-01 3.516968e-01 2.805614e-01 1.618318e-01 2.711301e-01 2.496701e-01 1.549538e-01 1.676466e-01
<GCONST> 9.920545e+01
<MIXTURE> 2 3.751110e-01
<MEAN> 39
 1.396435e+01 1.019845e+01 8.748874e+00 2.020276e+01 1.788326e+01 2.539368e+00 -1.062394e+01 -8.555225e-01 -4.741239e+00 -1.114722e+01 -7.006270e+00 -6.920453e+00 -4.339520e+00 -2.639417e-02 2.342282e-01 1.850319e-01 1.876071e-01 2.363335e-01 5.509135e-02 -4.183017e-01 -6.690423e-01 -4.095562e-02 4.206039e-01 2.691575e-02 -1.452089e-01 9.258828e-02 2.269273e-02 -6.246143e-03 -9.883440e-02 -1.361402e-01 -2.987958e-03 1.134600e-01 3.535190e-02 1.631596e-02 5.979749e-03 8.465649e-03 1.493440e-02 -2.420427e-02 1.604027e-02
<VARIANCE> 39
 3.259168e+00 1.386809e+01 1.608977e+01 1.546311e+01 2.043929e+01 2.010662e+01 2.536290e+01 2.682147e+01 1.682164e+01 2.493535e+01 1.837224e+01 1.738082e+01 1.419973e+01 1.309778e-01 3.834458e-01 3.747800e-01 6.104125e-01 6.855074e-01 4.930588e-01 9.277008e-01 6.668074e-01 4.850494e-01 8.519129e-01 4.791099e-01 5.270805e-01 4.399342e-01 1.382474e-02 4.182658e-02 5.222652e-02 8.058535e-02 8.382436e-02 5.788702e-02 1.166582e-01 7.674203e-02 5.938819e-02 9.926797e-02 6.487495e-02 6.077554e-02 5.431814e-02
<GCONST> 6.233924e+01
<STATE> 3
<NUMMIXES> 2
<MIXTURE> 1 7.126282e-01
<MEAN> 39
 1.475149e+01 1.022401e+01 5.965036e+00 1.988124e+01 2.324300e+01 7.363746e+00 -1.475561e+01 -8.900254e+00 -6.898803e+00 -7.259501e+00 -4.767118e+00 -7.080001e+00 -2.964295e+00 5.586547e-02 -3.566789e-02 -4.628685e-02 -6.789064e-02 -1.137298e-02 -3.812094e-03 -4.630646e-02 -5.919738e-02 -9.670751e-04 2.064307e-02 -2.614569e-02 -6.198638e-02 8.570110e-03 -3.825025e-02 -1.023483e-01 -2.735097e-02 -8.653452e-02 -1.306725e-01 -2.475940e-02 1.775156e-01 3.400450e-01 1.213591e-02 -1.973457e-01 7.820169e-02 1.027472e-01 -4.896110e-02
<VARIANCE> 39
 3.048311e+00 9.843084e+00 1.737441e+01 1.110294e+01 1.967171e+01 2.253438e+01 2.120384e+01 2.265234e+01 1.647248e+01 2.785792e+01 1.659628e+01 1.551565e+01 1.227910e+01 1.627645e-01 4.506177e-01 5.056655e-01 5.894141e-01 1.102593e+00 5.769807e-01 1.444055e+00 1.302901e+00 6.592572e-01 1.334708e+00 6.356892e-01 7.104056e-01 5.007580e-01 2.328968e-02 7.141303e-02 7.669910e-02 1.113433e-01 1.808707e-01 9.775072e-02 2.007390e-01 1.761025e-01 1.176462e-01 2.225530e-01 1.116261e-01 1.152495e-01 9.027405e-02
<GCONST> 7.259873e+01
<MIXTURE> 2 2.873713e-01
<MEAN> 39
 2.793889e+00 -5.365164e-01 2.469053e+00 1.192120e+01 1.226873e+01 9.086854e+00 -3.647490e+00 3.070971e+00 -7.471816e+00 -9.734264e+00 2.061003e+00 -2.045825e+00 -1.862944e+00 5.058831e-01 6.345726e-01 2.758324e-01 2.278403e-01 2.693669e-01 1.516944e-01 1.538995e-01 1.019975e-01 -1.161676e-01 -2.612239e-01 -2.585500e-01 -1.121594e-01 -1.650633e-02 -2.897700e-02 5.892380e-02 8.672924e-02 6.843298e-02 5.476119e-02 -3.004443e-02 -1.558348e-01 -1.730527e-01 3.161363e-02 1.275689e-01 5.220753e-03 -1.870565e-02 1.206130e-02
<VARIANCE> 39
 1.930444e+02 1.739494e+02 1.113389e+02 1.097842e+02 8.526373e+01 5.978841e+01 5.562442e+01 5.767886e+01 5.960293e+01 6.865558e+01 1.104964e+02 3.850062e+01 3.319571e+01 2.874687e+00 4.453584e+00 4.310148e+00 4.315727e+00 3.017164e+00 2.964744e+00 4.643297e+00 4.806532e+00 3.444125e+00 4.138363e+00 3.951451e+00 1.871377e+00 1.542335e+00 2.427929e-01 4.267905e-01 5.214925e-01 5.443285e-01 3.876676e-01 4.152973e-01 5.360495e-01 6.484051e-01 5.723348e-01 6.495028e-01 4.950144e-01 2.612693e-01 2.459064e-01
<GCONST> 1.333082e+02
<STATE> 4
<NUMMIXES> 2
<MIXTURE> 1 5.014774e-01
<MEAN> 39
 1.551272e+01 4.842369e+00 2.276865e+00 1.749833e+01 2.212172e+01 6.212169e+00 -1.330904e+01 -4.223677e-01 -7.114449e+00 -1.375243e+01 -1.540516e+00 -3.851443e+00 -3.731241e+00 6.487626e-01 -2.564588e+00 -1.470959e+00 -1.066311e+00 -6.163038e-01 -1.217465e+00 -6.635365e-01 3.209514e+00 -2.311298e-01 -2.433956e+00 2.640912e+00 1.503991e+00 -9.715654e-01 1.815559e-01 -5.640900e-01 -3.074484e-01 -1.899729e-01 1.272297e-02 -2.549330e-01 -4.291457e-01 4.726265e-01 -1.433980e-01 -4.339585e-01 7.233271e-01 2.713957e-01 -2.707512e-01
<VARIANCE> 39
 9.237676e+00 2.332275e+01 2.866293e+01 2.840553e+01 2.533875e+01 1.647060e+01 2.908142e+01 5.517366e+01 2.160905e+01 3.308507e+01 4.759523e+01 1.846222e+01 1.595555e+01 5.917934e-01 2.007079e+00 1.995389e+00 2.562749e+00 1.976865e+00 1.295647e+00 2.502468e+00 2.975632e+00 1.698009e+00 2.814903e+00 3.497387e+00 1.593524e+00 1.767586e+00 5.546496e-02 1.893880e-01 2.095162e-01 2.200964e-01 2.682878e-01 1.631207e-01 3.300060e-01 4.296262e-01 2.053175e-01 3.899361e-01 2.633372e-01 2.232982e-01 2.038398e-01
<GCONST> 1.022273e+02
<MIXTURE> 2 4.985218e-01
<MEAN> 39
 8.649032e+00 1.562504e+01 1.326737e+01 1.737038e+01 1.461751e+01 7.339066e+00 -5.284666e+00 -1.704639e+00 -5.780590e+00 -7.727565e+00 -6.015893e+00 -7.441509e+00 -4.051854e+00 -9.218563e-01 2.488506e-01 3.883411e-01 -2.997485e-01 -4.998334e-01 3.213982e-01 7.664666e-01 4.451237e-01 7.162975e-02 1.786849e-01 1.894552e-01 2.137985e-01 1.703474e-02 -1.579339e-02 -1.168565e-01 -9.607860e-02 1.604695e-02 7.355716e-02 -1.244565e-02 -8.216004e-02 2.055331e-02 1.900855e-02 -4.140209e-02 1.692153e-02 1.843897e-02 7.766419e-03
<VARIANCE> 39
 3.753471e+01 1.052864e+01 1.153596e+01 1.195173e+01 1.664992e+01 1.274288e+01 2.970465e+01 2.294122e+01 1.400058e+01 1.834929e+01 9.998264e+00 1.246243e+01 8.448919e+00 7.773768e-01 7.266305e-01 7.963546e-01 8.784255e-01 8.693185e-01 5.688751e-01 1.273678e+00 8.407707e-01 8.239545e-01 1.225530e+00 6.106354e-01 6.821786e-01 5.268611e-01 4.499621e-02 6.793700e-02 9.780645e-02 1.206981e-01 1.162008e-01 6.905373e-02 1.455843e-01 1.078669e-01 1.112420e-01 1.396027e-01 7.952908e-02 9.405501e-02 6.697932e-02
<GCONST> 7.292880e+01
<TRANSP> 5
 0.000000e+00 1.000000e+00 0.000000e+00 0.000000e+00 0.000000e+00
 0.000000e+00 7.892203e-01 2.107796e-01 0.000000e+00 0.000000e+00
 0.000000e+00 0.000000e+00 9.037209e-01 9.627906e-02 0.000000e+00
 0.000000e+00 0.000000e+00 0.000000e+00 7.842636e-01 2.157364e-01
 0.000000e+00 0.000000e+00 0.000000e+00 0.000000e+00 0.000000e+00
<ENDHMM>
~h "o"
<BEGINHMM>
<NUMSTATES> 7
<STATE> 2
<NUMMIXES> 2
<MIXTURE> 1 5.318004e-01
<MEAN> 39
 4.381733e+00 7.984494e+00 2.845390e+00 -4.388053e+00 -1.326621e+01 -1.065736e+01 -5.404164e+00 1.810492e+01 4.848683e+00 -4.501091e+00 7.770068e+00 -3.235797e-01 -4.266087e+00 2.396876e+00 7.502040e-01 6.382267e-01 1.142521e+00 5.940379e-01 -7.851802e-01 -5.996329e-01 6.951022e-01 3.199356e-01 -6.838012e-01 -1.695431e-01 -2.994214e-01 -8.431453e-01 -1.392531e-01 -1.387337e-01 1.138260e-01 7.291919e-01 6.878213e-01 1.227419e-01 -7.442719e-02 -2.799414e-01 -1.192926e-01 -2.018763e-01 -4.213837e-01 -2.328246e-02 -2.669832e-02
<VARIANCE> 39
 4.559678e+01 3.085627e+01 2.725952e+01 6.415977e+01 9.039178e+01 6.800266e+01 5.592665e+01 7.307787e+01 3.061179e+01 4.902720e+01 4.174753e+01 3.015303e+01 3.458015e+01 2.366686e+00 1.946322e+00 1.815606e+00 1.163277e+01 1.479386e+01 8.134279e+00 4.707389e+00 5.436895e+00 2.077244e+00 3.152724e+00 5.021962e+00 1.835363e+00 2.158974e+00 3.271217e-01 2.512771e-01 2.868295e-01 1.159300e+00 1.861464e+00 1.697530e+00 9.421851e-01 8.147552e-01 4.019433e-01 7.725751e-01 6.308953e-01 3.534690e-01 4.307192e-01
<GCONST> 1.326818e+02
<MIXTURE> 2 4.681982e-01
<MEAN> 39
 1.720303e+01 2.835675e+00 4.709813e+00 1.275668e+01 2.775863e+00 -1.071605e+01 -1.038054e+01 1.816296e+01 1.745288e+00 -1.611839e+01 -5.321589e-01 -3.434284e+00 -6.770452e+00 1.599842e+00 2.454262e-01 -4.108115e-01 8.575220e-01 4.617261e-01 -3.449512e+00 -2.737950e+00 1.802369e+00 8.593519e-01 -2.477432e+00 -9.811026e-01 -1.059182e-01 -1.352802e+00 -4.242857e-01 -3.539401e-01 -1.438133e-01 -4.873734e-01 -3.624174e-01 1.141320e-01 5.624530e-02 1.730364e-01 1.596982e-01 2.753507e-01 4.143213e-01 2.815344e-02 1.802492e-02
<VARIANCE> 39
 1.197828e+01 9.618494e+01 2.922043e+01 2.666619e+01 4.778784e+01 6.544080e+01 4.009110e+01 4.322783e+01 4.460042e+01 6.129663e+01 3.425943e+01 2.958476e+01 2.515672e+01 8.470261e-01 1.991118e+00 1.452237e+00 2.886803e+00 1.823807e+00 1.804664e+00 2.336578e+00 2.907022e+00 2.447473e+00 2.553193e+00 2.956860e+00 1.055827e+00 8.748167e-01 1.248732e-01 1.383575e-01 2.892398e-01 3.886561e-01 3.957318e-01 6.527330e-01 4.478710e-01 4.577046e-01 2.508027e-01 4.117012e-01 3.378504e-01 1.612448e-01 1.590462e-01
<GCONST> 1.106490e+02
<STATE> 3
<NUMMIXES> 2
<MIXTURE> 1 8.538599e-01
<MEAN> 39
 2.043311e+01 -2.575796e+00 -6.570559e-01 1.072244e+01 7.249605e+00 -1.494478e+01 -1.909498e+01 2.407405e+01 5.157211e+00 -2.348538e+01 -2.016235e+00 -6.348486e+00 -9.944311e+00 -2.618201e-03 5.085779e-01 3.139240e-01 -9.310758e-02 -6.420792e-01 -1.548694e+00 -7.468905e-01 9.519311e-01 1.100421e+00 1.579463e-01 2.343345e-02 -4.907762e-02 -5.002019e-01 -1.323534e-01 -1.107191e-02 1.640137e-01 8.852745e-02 -1.083578e-01 2.418803e-01 2.479128e-01 -3.190723e-01 -8.768933e-02 3.016885e-01 5.210351e-02 7.955092e-02 1.335119e-01
<VARIANCE> 39
 6.453275e+00 2.631269e+01 2.432441e+01 2.865232e+01 3.246841e+01 5.131528e+01 3.387939e+01 5.473108e+01 3.444741e+01 3.949778e+01 4.058738e+01 1.432619e+01 1.314602e+01 4.281799e-01 6.825655e-01 7.219236e-01 9.595264e-01 8.076374e-01 8.600259e-01 1.613926e+00 1.931884e+00 6.836300e-01 1.762265e+00 1.159888e+00 6.892757e-01 5.321858e-01 9.413067e-02 6.047739e-02 1.065327e-01 1.069923e-01 1.121376e-01 1.500860e-01 2.414916e-01 2.669279e-01 1.028123e-01 2.453604e-01 2.146696e-01 9.332785e-02 6.928200e-02
<GCONST> 8.623769e+01
<MIXTURE> 2 1.461392e-01
<MEAN> 39
 1.575276e+01 1.448689e+01 1.022226e+01 1.276848e+01 -4.547783e+00 -2.066011e+01 -1.363621e+01 1.694597e+01 7.249803e+00 -8.037290e+00 2.411381e+00 4.832951e+00 -4.739030e+00 7.299721e-01 -9.442326e-01 -5.131103e-01 6.576177e-01 -5.108573e-03 -1.891783e+00 -1.304153e+00 8.446888e-01 6.186392e-01 -8.409618e-01 -3.411999e-01 -3.364167e-02 -5.091414e-01 -1.351195e-01 -1.130466e-01 -1.089682e-01 -8.695220e-02 1.562797e-01 3.209926e-01 1.345988e-01 3.517874e-03 8.676608e-02 9.641145e-02 -4.137175e-02 -1.719918e-01 3.311215e-02
<VARIANCE> 39
 5.269505e+00 1.214848e+01 8.474840e+00 1.674216e+01 7.624485e+00 3.970985e+01 3.285373e+01 3.134261e+01 1.683349e+01 1.919437e+01 1.363217e+01 1.845672e+01 1.059454e+01 2.524251e-01 4.791073e-01 4.107513e-01 5.988923e-01 6.085928e-01 1.786048e+00 1.103913e+00 1.701009e+00 8.526818e-01 9.882032e-01 4.856979e-01 7.114653e-01 3.519929e-01 4.416918e-02 7.555053e-02 6.696575e-02 1.090025e-01 8.572889e-02 2.554529e-01 1.735268e-01 2.754872e-01 1.474598e-01 1.614407e-01 8.929172e-02 9.417918e-02 6.230776e-02
<GCONST> 7.325171e+01
<STATE> 4
<NUMMIXES> 2
<MIXTURE> 1 1.626195e-01
<MEAN> 39
 1.755805e+01 7.444314e+00 7.565049e+00 1.140721e+01 -3.545441e+00 -2.070690e+01 -1.362581e+01 1.984500e+01 7.411310e+00 -1.516702e+01 -2.576327e+00 -1.809975e+00 -1.052922e+01 2.310917e-01 -3.730146e-01 -4.222382e-01 -9.844694e-02 3.842005e-01 1.345752e-01 -2.272048e-01 4.386955e-01 1.901836e-02 -4.835834e-01 -7.844660e-02 -5.186137e-01 -3.181254e-01 6.506946e-02 -3.611705e-02 -7.259482e-02 6.551242e-03 1.751720e-01 1.387444e-01 -9.003373e-02 1.393954e-01 -6.090885e-02 -1.453658e-01 1.074783e-01 -4.276170e-02 1.077395e-02
<VARIANCE> 39
 4.652030e+00 2.227191e+01 1.841516e+01 2.384948e+01 2.221508e+01 4.628246e+01 2.659305e+01 3.470732e+01 2.446167e+01 3.242765e+01 2.353289e+01 2.587948e+01 1.566684e+01 2.700481e-01 6.328580e-01 6.034966e-01 9.152637e-01 6.475187e-01 1.602356e+00 1.493321e+00 1.853918e+00 7.780156e-01 1.754720e+00 9.192700e-01 1.009470e+00 5.437565e-01 3.912673e-02 5.974981e-02 5.406165e-02 9.718683e-02 7.447850e-02 1.441503e-01 1.449929e-01 2.504905e-01 1.090008e-01 1.597170e-01 1.223383e-01 9.780679e-02 6.477443e-02
<GCONST> 7.995749e+01
<MIXTURE> 2 8.373796e-01
<MEAN> 39
 1.894786e+01 3.672075e+00 7.228944e+00 1.559422e+01 -1.702407e+00 -2.770039e+01 -2.067051e+01 2.522886e+01 9.462745e+00 -1.827025e+01 5.350757e-01 -1.882849e+00 -1.224741e+01 -8.382460e-02 1.830472e-01 2.219547e-01 6.073440e-02 -2.245687e-01 -1.507309e-01 5.860442e-02 -1.208076e-01 -6.688701e-02 1.387216e-01 1.672851e-01 1.727459e-01 -6.557482e-02 -2.276586e-02 2.826061e-02 -7.281182e-03 -4.656307e-02 1.489582e-02 1.374168e-01 1.085182e-01 -4.705470e-02 -8.329258e-02 1.423038e-02 1.712986e-02 -5.456723e-03 2.258228e-02
<VARIANCE> 39
 3.199261e+00 1.331861e+01 1.707121e+01 9.762662e+00 1.092124e+01 1.680142e+01 1.611896e+01 2.281555e+01 1.090378e+01 1.622638e+01 2.342204e+01 1.758270e+01 1.049798e+01 2.301879e-01 3.893407e-01 5.318514e-01 4.942734e-01 4.180360e-01 7.580943e-01 9.657115e-01 1.242711e+00 4.983522e-01 8.507823e-01 8.448269e-01 6.031219e-01 3.117351e-01 3.895517e-02 3.835733e-02 6.491955e-02 6.675778e-02 5.674884e-02 9.734457e-02 1.417584e-01 1.922519e-01 6.723000e-02 1.286465e-01 1.141457e-01 7.761820e-02 5.135356e-02
<GCONST> 6.460529e+01
<STATE> 5
<NUMMIXES> 2
<MIXTURE> 1 2.603131e-01
<MEAN> 39
 2.011330e+01 -2.949157e+00 -8.635716e-01 1.158162e+01 6.956679e+00 -1.551966e+01 -1.710713e+01 2.649388e+01 2.760569e+00 -2.782337e+01 -2.908366e+00 -5.496697e+00 -9.821284e+00 1.061000e-01 -5.659111e-01 -5.155904e-01 4.596433e-02 9.507109e-01 1.215978e+00 4.557175e-01 -1.749572e-01 -1.282385e+00 -9.312525e-01 3.178979e-01 2.787192e-02 1.945099e-01 -4.678399e-02 1.070778e-01 1.037851e-01 1.186087e-01 -2.306835e-02 2.729895e-02 1.158390e-01 -1.078770e-01 -2.793249e-02 1.618352e-01 2.902582e-02 4.585332e-02 7.860076e-03
<VARIANCE> 39
 4.406235e+00 1.752184e+01 1.340862e+01 1.874479e+01 3.433784e+01 4.132438e+01 2.830478e+01 2.924312e+01 4.579319e+01 3.236370e+01 3.613705e+01 1.385358e+01 1.325138e+01 3.330261e-01 3.904027e-01 6.474519e-01 7.821973e-01 7.683563e-01 1.126765e+00 1.386518e+00 2.048198e+00 6.291307e-01 1.394290e+00 1.188975e+00 8.393604e-01 4.849098e-01 5.843690e-02 5.025823e-02 7.394043e-02 7.266346e-02 8.046565e-02 9.942150e-02 1.876999e-01 2.659701e-01 1.029726e-01 1.724353e-01 1.909151e-01 8.196063e-02 6.495553e-02
<GCONST> 7.914534e+01
<MIXTURE> 2 7.396867e-01
<MEAN> 39
 1.739719e+01 7.788066e+00 8.502662e+00 1.266440e+01 -1.175357e+00 -1.962150e+01 -1.620512e+01 2.123029e+01 5.603182e+00 -1.553052e+01 4.272975e+00 -6.696473e-01 -1.272692e+01 -5.104132e-01 7.109610e-01 2.429358e-01 -9.838884e-02 2.577675e-01 1.520670e+00 1.165077e+00 -1.256492e+00 -5.074524e-01 1.170766e+00 -1.103004e-01 -7.200212e-02 5.289056e-01 -1.495146e-01 5.900507e-02 1.806756e-02 -4.481699e-02 1.313933e-01 3.994619e-01 2.234839e-01 -2.801846e-01 8.499902e-04 2.402885e-01 -2.056892e-01 -6.632885e-02 2.089820e-01
<VARIANCE> 39
 7.549830e+00 3.328806e+01 3.835287e+01 2.814634e+01 3.587808e+01 6.092814e+01 4.671400e+01 6.675555e+01 3.023807e+01 6.298730e+01 6.079621e+01 3.936830e+01 2.250325e+01 4.874270e-01 9.060139e-01 9.636481e-01 1.060487e+00 9.976874e-01 2.564554e+00 2.392311e+00 2.307225e+00 1.079085e+00 2.323395e+00 1.485210e+00 1.254762e+00 8.328298e-01 5.264418e-02 8.672541e-02 1.270061e-01 1.289394e-01 1.515941e-01 2.820485e-01 2.806540e-01 3.411018e-01 1.786524e-01 2.872743e-01 1.975462e-01 1.734529e-01 1.170558e-01
<GCONST> 9.809222e+01
<STATE> 6
<NUMMIXES> 2
<MIXTURE> 1 6.510098e-01
<MEAN> 39
 1.716005e+00 1.256450e+01 1.084728e+01 1.105200e+01 4.116718e+00 1.413081e+00 -4.873241e-01 1.198507e+01 3.925759e+00 -2.246197e+00 1.948172e+00 -8.956780e-01 -4.151298e+00 -1.951719e+00 -2.204711e-01 -3.174300e-02 -3.560270e-01 5.416574e-01 1.963829e+00 1.081207e+00 -9.683089e-01 -2.490502e-01 8.530720e-01 -4.443870e-01 -2.777668e-01 8.357700e-01 8.060010e-03 -1.845305e-01 -3.484816e-02 1.406775e-02 -7.144815e-02 -2.628021e-01 -2.102376e-01 1.360731e-01 -1.041530e-02 -2.279741e-01 4.227823e-02 4.458887e-03 -1.001105e-01
<VARIANCE> 39
 1.438592e+02 5.317767e+01 3.996273e+01 2.746339e+01 2.951886e+01 8.818552e+01 4.927378e+01 3.259525e+01 2.366032e+01 5.968822e+01 4.287298e+01 2.536457e+01 2.589496e+01 1.030381e+00 2.465815e+00 2.459911e+00 1.514802e+00 2.290117e+00 5.350529e+00 3.238552e+00 2.014732e+00 1.923631e+00 2.547084e+00 1.351224e+00 9.918972e-01 1.165292e+00 1.078352e-01 1.435242e-01 2.153760e-01 1.997133e-01 2.061352e-01 3.027407e-01 2.366318e-01 2.681629e-01 2.494939e-01 2.327413e-01 1.741275e-01 1.380195e-01 1.364603e-01
<GCONST> 1.076170e+02
<MIXTURE> 2 3.489891e-01
<MEAN> 39
 -1.478656e+01 -4.368331e+00 -3.673320e+00 6.968099e-01 -1.633836e+00 -3.511784e+00 -6.725998e+00 6.261751e+00 5.292201e-02 -5.132474e+00 1.544733e-01 -1.837017e+00 -1.774034e+00 -9.500849e-03 -1.228778e-02 -3.355888e-02 3.354041e-03 4.900166e-02 1.337480e-01 5.500909e-02 -1.316637e-01 -1.158402e-01 5.912795e-02 2.460815e-02 -1.761724e-02 3.525831e-02 3.268927e-02 4.744646e-02 5.592260e-02 5.761541e-02 3.710996e-02 2.331201e-02 2.960812e-02 4.759278e-02 2.653086e-02 1.345600e-02 2.347778e-02 1.548662e-02 -4.805386e-03
<VARIANCE> 39
 4.084033e+02 2.304167e+01 2.079315e+01 4.665932e+01 2.809418e+01 7.094860e+01 4.343709e+01 1.007864e+02 2.599010e+01 1.045845e+02 1.671844e+01 1.783548e+01 2.999850e+01 1.345077e-01 2.369934e-01 3.730290e-01 4.421088e-01 6.221880e-01 7.533886e-01 9.541274e-01 1.237776e+00 8.987871e-01 1.146412e+00 1.039261e+00 8.373857e-01 6.884587e-01 2.776819e-02 4.777328e-02 7.381223e-02 9.500234e-02 1.286280e-01 1.480203e-01 1.916688e-01 2.093706e-01 1.850557e-01 1.938299e-01 1.988908e-01 1.635715e-01 1.356120e-01
<GCONST> 8.685740e+01
<TRANSP> 7
 0.000000e+00 1.000000e+00 0.000000e+00 0.000000e+00 0.000000e+00 0.000000e+00 0.000000e+00
 0.000000e+00 7.748025e-01 2.251976e-01 0.000000e+00 0.000000e+00 0.000000e+00 0.000000e+00
 0.000000e+00 0.000000e+00 8.204076e-01 1.795924e-01 0.000000e+00 0.000000e+00 0.000000e+00
 0.000000e+00 0.000000e+00 0.000000e+00 9.163175e-01 8.368252e-02 0.000000e+00 0.000000e+00
 0.000000e+00 0.000000e+00 0.000000e+00 0.000000e+00 8.037068e-01 1.962932e-01 0.000000e+00
 0.000000e+00 0.000000e+00 0.000000e+00 0.000000e+00 0.000000e+00 8.179125e-01 1.820875e-01
 0.000000e+00 0.000000e+00 0.000000e+00 0.000000e+00 0.000000e+00 0.000000e+00 0.000000e+00
<ENDHMM>
~h "p"
<BEGINHMM>
<NUMSTATES> 5
<STATE> 2
<NUMMIXES> 2
<MIXTURE> 1 3.005679e-01
<MEAN> 39
 -2.507528e+01 -8.776017e+00 -7.758944e+00 -3.924010e+00 -1.966112e+00 4.182980e+00 -6.524854e-01 6.936249e-01 -6.975643e+00 -4.726081e+00 2.911757e+00 3.679943e+00 2.073601e+00 -4.735824e-02 -3.701219e-02 -9.267917e-02 -8.760871e-02 -2.100184e-02 -4.162624e-02 -9.580041e-02 -9.796549e-02 -8.280095e-02 3.296190e-03 2.377839e-02 4.084705e-02 3.981686e-02 4.375836e-02 2.599832e-02 5.793839e-02 7.421838e-02 6.345337e-02 6.652255e-02 5.340446e-02 5.721905e-02 2.975730e-02 2.521641e-02 -2.692431e-03 -6.446071e-03 2.170389e-02
<VARIANCE> 39
 2.587495e+00 1.231298e+01 1.316899e+01 1.517265e+01 1.342100e+01 2.065901e+01 1.566238e+01 1.649740e+01 4.659227e+01 2.481743e+01 1.751878e+01 3.059622e+01 1.153404e+01 1.576995e-01 5.091181e-01 6.818607e-01 7.596136e-01 8.103426e-01 1.170438e+00 1.268473e+00 1.259774e+00 1.614602e+00 1.237170e+00 1.168366e+00 1.108026e+00 8.283796e-01 3.586568e-02 7.549225e-02 1.014740e-01 1.043200e-01 1.314362e-01 2.193895e-01 2.351625e-01 2.103390e-01 2.466603e-01 1.789898e-01 1.870643e-01 1.728320e-01 1.243554e-01
<GCONST> 7.974631e+01
<MIXTURE> 2 6.994317e-01
<MEAN> 39
 -5.023420e+00 1.020765e+01 8.470250e+00 1.055525e+01 7.632189e+00 6.813311e+00 1.671192e+00 9.672497e+00 2.264453e+00 -2.429972e+00 -7.251570e-01 -6.297340e-01 6.486474e-01 -2.644763e+00 -1.331614e+00 -4.449109e-01 -7.824934e-01 -5.762684e-01 6.588367e-01 5.623370e-01 -4.013452e-01 -1.419490e-01 5.899938e-01 3.292619e-01 8.942619e-02 4.032638e-01 1.151991e-01 -6.373962e-01 -5.394896e-01 -1.280635e-01 -1.135667e-02 -1.401250e-01 -9.628078e-02 1.063417e-01 -3.927616e-02 -2.125851e-01 4.137662e-02 9.008016e-02 6.676420e-02
<VARIANCE> 39
 7.704592e+01 2.593264e+01 4.401427e+01 4.092271e+01 5.152532e+01 6.483447e+01 3.165322e+01 4.738248e+01 6.976131e+01 4.794394e+01 2.444085e+01 1.999118e+01 1.703183e+01 8.602268e-01 4.043905e+00 3.464354e+00 1.264585e+00 1.998996e+00 2.602187e+00 1.714629e+00 1.666747e+00 1.615207e+00 1.845970e+00 1.388729e+00 1.150820e+00 1.496269e+00 1.286234e-01 2.181651e-01 2.147551e-01 2.099346e-01 3.834472e-01 3.468437e-01 2.451525e-01 2.745159e-01 2.921126e-01 3.077963e-01 2.967700e-01 2.184382e-01 2.464529e-01
<GCONST> 1.087951e+02
<STATE> 3
<NUMMIXES> 2
<MIXTURE> 1 4.946810e-01
<MEAN> 39
 -1.822387e+01 -1.727323e+00 7.420343e-02 4.213752e+00 3.839773e+00 6.894527e+00 1.453292e+00 6.508306e+00 8.020461e-01 -1.121531e+00 2.816618e-01 1.544099e-01 2.723012e+00 1.145234e+00 -1.234885e+00 -7.957892e-01 4.963144e-01 1.147417e+00 1.036132e+00 5.912964e-01 1.011680e+00 3.378598e-01 -5.046664e-01 -1.731113e-01 3.887642e-01 1.155419e+00 8.846422e-01 1.184093e-01 1.534416e-01 2.520110e-01 2.208963e-01 3.171677e-02 -1.538251e-01 1.843200e-01 4.199735e-03 -2.049341e-01 -3.912165e-02 -1.550993e-01 -4.636780e-02
<VARIANCE> 39
 4.845861e+01 3.472205e+01 2.897344e+01 3.211190e+01 3.826753e+01 3.863639e+01 2.511440e+01 2.803968e+01 2.714282e+01 2.431706e+01 1.587860e+01 1.270590e+01 1.537064e+01 5.476248e+00 6.495110e+00 5.277033e+00 4.473411e+00 4.901419e+00 3.891940e+00 3.660385e+00 3.618700e+00 3.345507e+00 2.995318e+00 2.446401e+00 2.220510e+00 2.323816e+00 2.438087e-01 2.873934e-01 3.963299e-01 3.368638e-01 3.952349e-01 3.843125e-01 4.013876e-01 3.707901e-01 3.536704e-01 3.737690e-01 3.679436e-01 3.356645e-01 4.145285e-01
<GCONST> 1.179769e+02
<MIXTURE> 2 5.053194e-01
<MEAN> 39
 -2.661152e+01 -6.072945e+00 -4.985260e+00 -2.961651e+00 -3.725692e+00 5.921671e-01 -3.562055e+00 9.215145e-01 -1.712554e+00 -4.828036e-01 3.813966e-01 -1.101906e+00 3.066739e-01 1.168478e-01 3.997200e-02 5.526749e-02 1.614884e-01 2.164042e-01 1.395548e-01 7.279022e-02 1.225013e-01 6.390053e-02 2.388403e-02 -6.635302e-03 6.529002e-02 1.367817e-01 2.658648e-01 9.983051e-02 1.437726e-01 2.250918e-01 2.666266e-01 2.442236e-01 1.863493e-01 1.963675e-01 8.683266e-02 -2.530944e-02 -1.100150e-03 6.415883e-02 1.213198e-01
<VARIANCE> 39
 4.329785e-01 9.632474e-01 1.811628e+00 2.800083e+00 3.498499e+00 5.024254e+00 5.140135e+00 5.621349e+00 6.439553e+00 6.853723e+00 6.154661e+00 5.878146e+00 5.114079e+00 2.316568e-01 2.981912e-01 4.247105e-01 6.631262e-01 8.653689e-01 1.005139e+00 9.529345e-01 1.070275e+00 1.036995e+00 1.010548e+00 9.522510e-01 9.526778e-01 8.531410e-01 1.731871e-01 9.575771e-02 1.277869e-01 2.246814e-01 2.734804e-01 2.813877e-01 2.521010e-01 2.623091e-01 2.585571e-01 2.236541e-01 2.182277e-01 2.227747e-01 2.033684e-01
<GCONST> 6.299837e+01
<STATE> 4
<NUMMIXES> 2
<MIXTURE> 1 4.378208e-01
<MEAN> 39
 -8.972397e+00 -3.376221e+00 -1.742809e+00 8.851537e+00 1.027650e+01 9.733254e+00 1.634581e+00 1.015857e+01 2.796190e+00 -2.934539e+00 -7.597727e-01 7.579298e-01 6.583415e+00 3.815977e+00 -6.905956e-01 -8.274086e-01 4.493108e-01 7.075219e-01 -1.890428e-01 -1.029247e+00 7.993478e-01 1.857048e-02 -9.289903e-01 3.298583e-01 -7.843595e-01 -3.884100e-01 3.699659e-01 2.630036e-02 -7.204051e-02 -4.797775e-01 -5.789684e-01 -5.425261e-01 -4.619707e-01 -1.348835e-01 -3.864714e-01 -2.976884e-01 3.526824e-01 -2.540070e-01 -6.558806e-01
<VARIANCE> 39
 3.706865e+01 1.527262e+01 1.142465e+01 1.806329e+01 3.043608e+01 4.407188e+01 3.970890e+01 2.427336e+01 2.817742e+01 2.359397e+01 1.957741e+01 1.807557e+01 1.292782e+01 1.081726e+00 1.011430e+00 8.166355e-01 1.880808e+00 2.530684e+00 3.211244e+00 2.559134e+00 2.072801e+00 2.223662e+00 2.178991e+00 2.457704e+00 1.829044e+00 2.266525e+00 1.785962e-01 2.181442e-01 2.575292e-01 2.589241e-01 3.982336e-01 4.892315e-01 4.324117e-01 3.923579e-01 4.296312e-01 4.642558e-01 3.655446e-01 3.395362e-01 2.571785e-01
<GCONST> 1.061086e+02
<MIXTURE> 2 5.621781e-01
<MEAN> 39
 2.211346e+00 -7.375171e+00 -4.142811e+00 3.535857e+00 6.052178e+00 9.093219e+00 -3.340494e-01 1.252231e+01 -1.503785e+00 -7.994462e+00 3.147421e+00 -3.353192e+00 1.927008e+00 2.399675e+00 2.744619e-01 -1.497496e-01 -2.757882e-01 -2.836553e-01 -7.912539e-01 -6.478521e-01 4.435969e-01 -4.626215e-01 -1.056273e+00 3.990194e-01 1.562115e-02 -5.971213e-01 -2.500690e-01 2.675118e-01 5.894960e-02 1.848352e-01 -3.571051e-02 -4.319487e-01 -2.326332e-02 -2.392862e-02 2.368215e-01 1.016822e-01 -2.508846e-01 2.926623e-01 6.299094e-02
<VARIANCE> 39
 1.154706e+02 7.524037e+01 7.764411e+01 4.695665e+01 6.343082e+01 1.206640e+02 8.459921e+01 6.583412e+01 6.515789e+01 5.106496e+01 4.061654e+01 3.238768e+01 2.068269e+01 5.832518e+00 3.638762e+00 2.662181e+00 1.947164e+00 2.640434e+00 7.417877e+00 3.496351e+00 3.557447e+00 4.033404e+00 3.912134e+00 3.160859e+00 1.777475e+00 1.556664e+00 2.207142e-01 3.817753e-01 4.770627e-01 3.233382e-01 2.964933e-01 6.721733e-01 5.155537e-01 4.614949e-01 5.512231e-01 5.563882e-01 5.364886e-01 3.098626e-01 2.476366e-01
<GCONST> 1.281972e+02
<TRANSP> 5
 0.000000e+00 1.000000e+00 0.000000e+00 0.000000e+00 0.000000e+00
 0.000000e+00 7.133506e-01 2.866494e-01 0.000000e+00 0.000000e+00
 0.000000e+00 0.000000e+00 8.138899e-01 1.861102e-01 0.000000e+00
 0.000000e+00 0.000000e+00 0.000000e+00 8.341486e-01 1.658513e-01
 0.000000e+00 0.000000e+00 0.000000e+00 0.000000e+00 0.000000e+00
<ENDHMM>
~h "q"
<BEGINHMM>
<NUMSTATES> 5
<STATE> 2
<NUMMIXES> 2
<MIXTURE> 1 6.110933e-01
<MEAN> 39
 1.049090e+01 3.605911e+00 4.811523e+00 2.043864e+01 1.953542e+01 1.480616e+00 -1.274302e+01 5.795716e+00 -2.958101e+00 -1.071935e+01 2.834001e+00 -2.711967e+00 -7.685286e+00 -6.148777e-01 1.059449e+00 1.005116e+00 8.115209e-01 4.062654e-01 6.769784e-01 4.613600e-01 -1.069886e+00 -1.472079e-01 5.853276e-01 -1.036268e+00 -4.905811e-01 3.273898e-01 2.821846e-02 -2.402101e-01 -1.507531e-01 -2.422502e-01 -1.677775e-01 -1.339478e-01 -1.004339e-01 1.939022e-01 2.302203e-03 -1.169038e-01 2.269504e-01 1.063278e-01 3.422488e-03
<VARIANCE> 39
 1.009349e+02 5.884453e+01 4.939280e+01 5.600027e+01 6.056794e+01 5.980054e+01 1.072092e+02 1.027864e+02 5.505132e+01 7.714481e+01 9.160161e+01 3.038665e+01 3.410906e+01 9.836128e-01 1.725880e+00 1.406291e+00 2.569106e+00 2.655277e+00 1.674765e+00 3.497345e+00 3.183810e+00 1.585654e+00 2.287367e+00 2.472569e+00 1.240898e+00 1.742458e+00 7.560420e-02 1.754575e-01 1.954653e-01 2.138235e-01 2.489451e-01 2.350340e-01 4.054778e-01 3.631270e-01 2.134093e-01 3.176486e-01 3.341956e-01 1.994521e-01 1.832234e-01
<GCONST> 1.149413e+02
<MIXTURE> 2 3.889062e-01
<MEAN> 39
 1.520256e+01 5.348788e+00 5.778182e+00 2.331030e+01 1.467416e+01 -7.422923e+00 -9.586834e+00 1.543408e+01 5.240661e+00 -1.132825e+01 -5.908647e+00 -8.683075e+00 -1.370846e+01 -1.765840e-01 3.286093e-01 4.965402e-01 1.960581e-01 3.122352e-02 1.310872e-01 -6.619404e-02 -4.030990e-01 -1.410184e-01 2.637955e-01 3.451288e-02 -1.924101e-01 -6.529449e-02 2.975422e-03 3.953914e-02 -2.029519e-02 -1.290776e-01 -9.371936e-02 3.407917e-02 5.376829e-02 5.678750e-03 -8.809644e-04 -1.918090e-03 -1.091893e-02 3.999644e-02 9.919170e-02
<VARIANCE> 39
 3.755294e+00 1.279917e+01 2.229758e+01 1.308882e+01 1.956879e+01 1.953620e+01 3.049892e+01 3.880672e+01 2.782692e+01 1.792743e+01 3.612342e+01 2.325552e+01 1.189329e+01 1.030969e-01 3.103321e-01 3.818496e-01 7.675545e-01 6.989204e-01 6.405641e-01 7.923632e-01 1.044470e+00 6.232940e-01 6.368632e-01 5.922510e-01 6.242754e-01 6.734402e-01 1.748128e-02 4.194267e-02 5.628871e-02 1.195689e-01 1.046764e-01 1.067669e-01 1.286616e-01 1.400153e-01 1.049394e-01 1.113534e-01 9.521104e-02 1.163413e-01 1.051609e-01
<GCONST> 6.975935e+01
<STATE> 3
<NUMMIXES> 2
<MIXTURE> 1 6.453409e-01
<MEAN> 39
 3.214782e+00 1.196772e+01 1.293827e+01 1.982735e+01 1.614938e+01 6.617866e+00 -5.574962e+00 3.001451e+00 -3.584720e+00 -6.208835e+00 -1.460563e-01 -4.467466e+00 -5.545777e+00 -1.126048e+00 3.682956e-01 4.692923e-01 -5.053566e-01 -6.389291e-01 7.674976e-01 1.442410e+00 6.236278e-01 3.441002e-01 4.381816e-01 -1.372553e-01 1.557932e-01 4.492874e-01 -5.005848e-02 -2.226312e-01 -1.650785e-01 -5.015739e-02 2.000928e-02 -3.667263e-02 -9.579889e-02 6.998795e-02 1.013183e-01 6.959470e-02 1.842858e-01 1.272100e-01 3.173809e-02
<VARIANCE> 39
 7.436460e+01 4.262013e+01 2.319896e+01 2.698191e+01 3.020933e+01 3.449442e+01 6.451377e+01 5.840012e+01 3.402884e+01 4.290456e+01 4.915948e+01 2.348163e+01 1.778251e+01 8.530295e-01 1.018151e+00 1.057411e+00 1.225930e+00 1.369429e+00 1.122467e+00 1.735597e+00 1.921937e+00 1.583753e+00 1.813726e+00 1.650615e+00 1.159623e+00 9.241410e-01 5.670716e-02 1.082520e-01 1.368630e-01 1.883750e-01 2.007064e-01 1.596503e-01 2.412243e-01 2.319394e-01 1.966674e-01 2.422010e-01 2.103220e-01 1.784037e-01 1.413624e-01
<GCONST> 9.859660e+01
<MIXTURE> 2 3.546551e-01
<MEAN> 39
 1.436517e+01 9.977434e+00 7.954448e+00 2.213667e+01 2.143136e+01 3.113840e+00 -1.548180e+01 -6.061353e+00 -5.055987e+00 -7.439248e+00 -4.512061e+00 -6.839730e+00 -4.759143e+00 -2.448505e-01 5.989804e-01 5.424942e-01 -1.828966e-01 -3.396921e-01 3.442932e-01 4.556145e-01 -1.672625e-01 -9.674761e-02 1.971060e-01 -3.271705e-01 -4.120821e-01 4.206371e-02 -5.194015e-02 -1.127557e-02 3.263330e-02 -3.459992e-02 -7.260428e-02 1.363920e-02 1.122782e-01 1.889465e-01 -2.441750e-02 -1.103100e-01 5.853720e-02 3.599222e-02 -5.368428e-02
<VARIANCE> 39
 2.891985e+00 1.691529e+01 1.976948e+01 1.606649e+01 3.056310e+01 2.905952e+01 3.636620e+01 4.963003e+01 1.861018e+01 3.286943e+01 3.141882e+01 2.267641e+01 1.741419e+01 1.122511e-01 3.221178e-01 3.072586e-01 5.357991e-01 7.764910e-01 5.038123e-01 1.076652e+00 7.190259e-01 4.908064e-01 7.285513e-01 5.434298e-01 6.207347e-01 3.889077e-01 1.717766e-02 5.244117e-02 4.147403e-02 1.020528e-01 1.458804e-01 6.843963e-02 1.732051e-01 1.066920e-01 8.232238e-02 1.288461e-01 7.965808e-02 9.791225e-02 6.540260e-02
<GCONST> 6.887777e+01
<STATE> 4
<NUMMIXES> 2
<MIXTURE> 1 5.684331e-01
<MEAN> 39
 -2.661619e+01 -6.368459e+00 -5.148509e+00 -2.941588e+00 -3.682597e+00 8.159595e-01 -3.477535e+00 1.043529e+00 -1.808348e+00 -6.898028e-01 6.257232e-01 -7.470947e-01 5.496140e-01 -1.729021e-02 -1.525845e-02 -2.626731e-02 -2.629538e-02 -3.078779e-02 -1.960690e-02 -9.369293e-03 -1.610328e-02 -6.735415e-03 6.917983e-03 -2.081754e-02 -1.697525e-02 5.998841e-03 3.474915e-02 3.049308e-02 3.869415e-02 4.805351e-02 5.014900e-02 4.583305e-02 4.144901e-02 3.579012e-02 1.690136e-02 1.176788e-02 2.004789e-02 1.941307e-02 8.419765e-03
<VARIANCE> 39
 5.782760e-01 1.436834e+00 1.946921e+00 2.759430e+00 3.832490e+00 5.227752e+00 5.829186e+00 6.194023e+00 8.984461e+00 8.746608e+00 6.696229e+00 7.384619e+00 5.527161e+00 8.504951e-02 1.750517e-01 2.894183e-01 4.222222e-01 5.722477e-01 7.461321e-01 8.565767e-01 9.038463e-01 1.102002e+00 1.080841e+00 9.647880e-01 9.496979e-01 7.837027e-01 2.893306e-02 4.611367e-02 7.627542e-02 1.115566e-01 1.455102e-01 1.798543e-01 2.035150e-01 2.106686e-01 2.359852e-01 2.311758e-01 2.058854e-01 2.009880e-01 1.675361e-01
<GCONST> 5.610067e+01
<MIXTURE> 2 4.315681e-01
<MEAN> 39
 -1.171586e+01 4.230548e+00 7.767547e+00 1.329432e+01 1.202407e+01 1.060463e+01 2.831476e+00 1.016057e+01 3.258804e+00 1.556371e+00 6.094091e+00 2.161582e+00 -8.555098e-02 -1.041679e+00 -6.596378e-01 -7.695482e-01 -1.182805e+00 -1.096791e+00 -3.275957e-01 -5.372335e-02 -4.488957e-01 -1.724920e-01 8.290651e-02 -2.545488e-01 -3.783671e-02 2.911688e-01 2.570550e-02 -6.623514e-02 -5.761150e-02 -1.793757e-02 -4.076052e-02 -1.396933e-01 -1.876890e-01 -1.242859e-01 -1.080586e-01 -1.159680e-01 -7.301354e-02 -7.960326e-02 -7.056105e-02
<VARIANCE> 39
 1.062487e+02 5.208791e+01 5.210844e+01 7.557984e+01 6.751018e+01 4.531196e+01 5.684699e+01 5.717436e+01 5.212119e+01 5.766011e+01 4.007554e+01 3.020418e+01 2.352621e+01 1.266247e+00 1.355512e+00 1.822570e+00 2.259970e+00 2.532695e+00 2.548190e+00 2.534667e+00 2.418255e+00 1.993281e+00 1.994218e+00 1.723046e+00 1.335712e+00 9.605164e-01 1.190286e-01 1.397360e-01 1.912132e-01 2.563003e-01 3.057822e-01 2.843390e-01 2.755300e-01 2.689006e-01 2.395713e-01 2.463545e-01 2.293648e-01 1.748360e-01 1.313976e-01
<GCONST> 1.105258e+02
<TRANSP> 5
 0.000000e+00 1.000000e+00 0.000000e+00 0.000000e+00 0.000000e+00
 0.000000e+00 6.914517e-01 3.085483e-01 0.000000e+00 0.000000e+00
 0.000000e+00 0.000000e+00 8.107839e-01 1.892161e-01 0.000000e+00
 0.000000e+00 0.000000e+00 0.000000e+00 9.079171e-01 9.208294e-02
 0.000000e+00 0.000000e+00 0.000000e+00 0.000000e+00 0.000000e+00
<ENDHMM>
~h "r"
<BEGINHMM>
<NUMSTATES> 5
<STATE> 2
<NUMMIXES> 2
<MIXTURE> 1 8.389155e-01
<MEAN> 39
 2.189614e+01 -4.511138e+00 -1.325171e+01 3.259486e+00 1.546375e+01 7.505963e-01 -1.649317e+01 6.853142e+00 -6.402072e+00 -1.599680e+01 6.079546e+00 1.915084e+00 1.651070e+00 -9.641377e-01 1.611344e+00 6.245283e-01 3.540428e-01 1.108734e-01 1.921381e+00 2.084789e+00 -1.679935e+00 3.765843e-01 1.199110e+00 -2.275623e+00 -1.110565e-01 6.317077e-01 -4.078729e-01 2.005537e-01 5.745816e-01 2.109925e-01 -3.607199e-01 1.319566e-02 5.527986e-01 2.424117e-01 6.682058e-02 1.642393e-01 -1.031919e-01 -6.998394e-02 -2.112815e-02
<VARIANCE> 39
 1.307405e+01 2.190004e+01 3.989200e+01 3.016902e+01 3.816909e+01 2.577339e+01 5.004446e+01 4.204837e+01 3.232570e+01 4.867943e+01 5.159198e+01 3.470471e+01 2.288646e+01 1.365922e+00 1.041277e+00 2.339756e+00 1.110015e+00 1.581131e+00 1.535148e+00 3.516572e+00 2.571404e+00 1.608078e+00 2.079569e+00 2.098080e+00 1.151019e+00 9.935000e-01 1.393927e-01 1.320378e-01 2.199145e-01 1.715475e-01 1.457885e-01 2.135907e-01 3.872524e-01 4.895704e-01 1.697725e-01 3.545558e-01 3.924447e-01 1.925437e-01 1.582813e-01
<GCONST> 1.037890e+02
<MIXTURE> 2 1.610836e-01
<MEAN> 39
 1.911155e+01 -3.565854e+00 -5.254383e+00 7.496828e+00 1.180508e+01 3.667140e+00 -8.989030e+00 8.617707e+00 -1.005228e+01 -1.812200e+01 7.077141e+00 -5.964387e-01 -3.916335e+00 3.882146e-01 5.976153e-02 -7.619532e-01 -1.232893e-01 8.209926e-01 -3.787828e-02 -5.993424e-01 -2.826331e-01 -9.356660e-02 -4.143987e-01 -2.402066e-01 1.983311e-01 4.595811e-02 -1.508999e-02 7.046652e-02 -6.557625e-02 -2.311187e-02 1.114303e-01 8.782645e-02 -4.915116e-02 -5.494971e-02 9.838398e-02 2.889059e-02 -1.549177e-01 2.598550e-02 1.114790e-01
<VARIANCE> 39
 1.814723e+01 4.373463e+01 4.183594e+01 5.753565e+01 4.933495e+01 8.419586e+01 9.740550e+01 5.260195e+01 2.984860e+01 5.907278e+01 6.610104e+01 2.907672e+01 3.614288e+01 4.516891e-01 6.381624e-01 7.319726e-01 7.641402e-01 8.677195e-01 1.018887e+00 1.925177e+00 1.559435e+00 8.842708e-01 1.315984e+00 1.589405e+00 8.732526e-01 6.989099e-01 5.775344e-02 6.957395e-02 7.155402e-02 8.851151e-02 6.920674e-02 1.125454e-01 1.877529e-01 1.598269e-01 9.850375e-02 1.439951e-01 1.693589e-01 8.774167e-02 7.761423e-02
<GCONST> 9.094842e+01
<STATE> 3
<NUMMIXES> 2
<MIXTURE> 1 8.702808e-01
<MEAN> 39
 1.580094e+01 3.079583e+00 -6.202954e+00 6.092592e+00 1.238476e+01 6.955112e+00 -4.553926e+00 4.278052e+00 -5.599736e+00 -1.181105e+01 -1.570936e+00 5.463287e-01 3.018175e+00 -2.742921e-01 3.262455e-01 6.159371e-01 4.627492e-01 -1.220982e-01 4.854424e-01 8.050231e-01 2.773608e-01 -8.709384e-01 -6.860579e-01 3.132166e-01 1.531148e-01 -4.117304e-01 4.711497e-01 -6.597444e-01 -4.728209e-01 -9.175077e-02 2.626201e-01 -4.016432e-01 -8.454322e-01 2.586178e-01 -3.682582e-01 -6.061874e-01 7.742737e-01 1.528876e-01 -2.960661e-01
<VARIANCE> 39
 1.200840e+01 1.652994e+01 2.236937e+01 3.638910e+01 2.967305e+01 1.995321e+01 3.384041e+01 2.514788e+01 2.555504e+01 2.864446e+01 2.662824e+01 1.924456e+01 1.625353e+01 2.468244e+00 3.280957e+00 3.782357e+00 1.832509e+00 2.349096e+00 2.465799e+00 5.620720e+00 2.471779e+00 2.787926e+00 4.121762e+00 4.305151e+00 1.785547e+00 1.824690e+00 3.491793e-01 3.272865e-01 4.614955e-01 2.558937e-01 2.472699e-01 2.738549e-01 4.916565e-01 4.728663e-01 5.212316e-01 6.230577e-01 5.372958e-01 2.380625e-01 2.416098e-01
<GCONST> 1.128632e+02
<MIXTURE> 2 1.297178e-01
<MEAN> 39
 6.222214e+00 -1.312464e+01 7.025271e+00 1.030138e+01 5.081941e+00 1.047370e+01 -1.935208e+00 7.268938e+00 -1.123480e+01 -1.546413e+01 5.307356e+00 1.473238e+00 2.277836e+00 -6.000848e-01 -3.822699e-01 1.138765e+00 -8.238890e-02 -4.927016e-01 7.271796e-01 3.495460e-01 -1.869827e-01 2.502098e-01 3.993664e-01 -4.177933e-01 -4.662722e-02 4.585869e-01 -2.688648e-01 2.380960e-01 1.152081e-01 -2.736603e-01 1.906782e-01 2.399876e-01 -4.246685e-02 -9.415156e-02 3.521935e-01 4.064607e-01 -2.589201e-01 -7.261963e-02 9.443353e-02
<VARIANCE> 39
 2.201290e+02 2.059296e+02 1.857750e+02 1.383376e+02 8.595487e+01 1.147878e+02 9.084318e+01 5.997286e+01 7.536440e+01 7.288048e+01 5.577385e+01 2.815463e+01 4.474924e+01 3.890978e+00 4.916125e+00 7.426580e+00 3.213743e+00 3.084328e+00 5.676728e+00 2.804940e+00 3.982890e+00 3.580974e+00 4.574410e+00 4.181263e+00 1.562449e+00 1.847656e+00 4.000842e-01 3.931160e-01 5.340823e-01 4.123714e-01 3.577406e-01 4.927620e-01 3.767735e-01 4.310508e-01 7.242319e-01 7.176443e-01 4.865819e-01 2.877247e-01 2.135057e-01
<GCONST> 1.357303e+02
<STATE> 4
<NUMMIXES> 2
<MIXTURE> 1 5.155545e-01
<MEAN> 39
 6.262491e+00 6.044646e+00 1.454527e-01 6.705845e+00 9.965753e+00 9.893905e+00 8.343473e-01 6.398477e+00 -5.102886e+00 -9.960625e+00 -1.258440e+00 4.103581e-01 2.879428e+00 -2.049712e+00 5.801694e-01 1.231544e+00 4.641113e-02 -3.064277e-01 6.417296e-01 7.153327e-01 -1.631794e-01 6.785632e-01 1.070712e+00 -4.120069e-01 -5.292078e-02 3.079221e-01 4.671523e-02 -2.041669e-01 -1.094226e-01 -6.309066e-02 -8.616937e-03 -1.050763e-01 -1.819656e-01 4.679895e-02 -1.704959e-01 -1.945332e-01 1.881500e-01 2.508151e-02 -6.784303e-02
<VARIANCE> 39
 1.451353e+02 4.740065e+01 5.934803e+01 4.976760e+01 4.617856e+01 3.959817e+01 4.637040e+01 3.486383e+01 3.715860e+01 3.976574e+01 3.611526e+01 3.581643e+01 3.475127e+01 2.664363e+00 2.271375e+00 2.870692e+00 1.642973e+00 1.594346e+00 2.037648e+00 2.502105e+00 1.751176e+00 2.546793e+00 2.866237e+00 2.149706e+00 1.331986e+00 1.447876e+00 2.098555e-01 1.817583e-01 2.741126e-01 1.885224e-01 1.569028e-01 1.856740e-01 2.309529e-01 2.559103e-01 3.370057e-01 3.532721e-01 2.438000e-01 1.731191e-01 1.674790e-01
<GCONST> 1.111585e+02
<MIXTURE> 2 4.844425e-01
<MEAN> 39
 2.035993e+01 -3.085497e+00 -1.036571e+01 6.734406e+00 1.912713e+01 5.964713e+00 -1.421361e+01 6.268555e+00 -1.245754e+01 -2.139426e+01 8.566188e+00 2.629308e+00 -3.119201e+00 4.541730e-01 -8.998550e-01 -4.296958e-01 1.313483e-01 7.367880e-01 -6.024997e-01 -1.464001e+00 4.169829e-01 -4.683056e-01 -7.999098e-01 1.354295e+00 2.701629e-01 -6.062866e-01 -3.473393e-01 2.228236e-01 3.456428e-01 1.317761e-02 -2.124759e-01 2.098809e-02 2.785823e-01 -4.981910e-03 4.357219e-01 5.134472e-01 -3.238014e-01 -1.450046e-01 1.704060e-01
<VARIANCE> 39
 1.132644e+01 2.286099e+01 2.790892e+01 7.193007e+01 4.467014e+01 3.580027e+01 6.273214e+01 3.997386e+01 3.122153e+01 3.205259e+01 5.566770e+01 1.566180e+01 2.789582e+01 1.518894e+00 1.706219e+00 1.800838e+00 1.310090e+00 1.648231e+00 1.524505e+00 3.585629e+00 2.543680e+00 2.396433e+00 3.569951e+00 3.388920e+00 1.061503e+00 1.557987e+00 2.163322e-01 1.915800e-01 2.432951e-01 1.323334e-01 1.859815e-01 1.964331e-01 4.166361e-01 3.318805e-01 2.921863e-01 4.521288e-01 3.384521e-01 1.638218e-01 1.557132e-01
<GCONST> 1.071794e+02
<TRANSP> 5
 0.000000e+00 1.000000e+00 0.000000e+00 0.000000e+00 0.000000e+00
 0.000000e+00 6.973957e-01 3.026043e-01 0.000000e+00 0.000000e+00
 0.000000e+00 0.000000e+00 7.348094e-01 2.651905e-01 0.000000e+00
 0.000000e+00 0.000000e+00 0.000000e+00 7.747082e-01 2.252919e-01
 0.000000e+00 0.000000e+00 0.000000e+00 0.000000e+00 0.000000e+00
<ENDHMM>
~h "s"
<BEGINHMM>
<NUMSTATES> 5
<STATE> 2
<NUMMIXES> 2
<MIXTURE> 1 5.931301e-01
<MEAN> 39
 -2.795491e+00 -1.637758e+01 2.709649e+01 2.835236e+00 4.122747e+00 2.384163e+01 -4.012872e+00 3.810376e+00 -1.140091e+01 -8.126817e+00 6.989667e+00 -1.906516e+00 1.166645e+00 -2.768251e+00 -2.172619e+00 2.771253e+00 -1.725230e+00 -6.567340e-01 1.430380e+00 7.461923e-01 1.134834e+00 -5.176051e-01 1.034620e+00 9.298065e-01 5.721616e-01 1.032655e+00 -9.383741e-02 -6.921162e-02 -3.558393e-01 -1.314789e-01 -2.129422e-02 -4.235235e-01 -2.042540e-01 1.536594e-01 7.454864e-02 -1.918349e-03 1.385978e-01 5.704128e-02 -7.536280e-02
<VARIANCE> 39
 1.207696e+02 1.108186e+02 2.761057e+02 1.305307e+02 8.029648e+01 1.265460e+02 7.712175e+01 1.210682e+02 6.102635e+01 6.220732e+01 5.604823e+01 2.713531e+01 4.244518e+01 3.359101e+00 3.056115e+00 7.416533e+00 3.013706e+00 2.695285e+00 3.792994e+00 2.878322e+00 3.972937e+00 2.823231e+00 2.889244e+00 2.377654e+00 1.674533e+00 1.548877e+00 3.045903e-01 3.513619e-01 8.924896e-01 3.367799e-01 4.304225e-01 4.986321e-01 3.673185e-01 6.433433e-01 4.205219e-01 4.285477e-01 3.902392e-01 2.812723e-01 2.122434e-01
<GCONST> 1.315803e+02
<MIXTURE> 2 4.068707e-01
<MEAN> 39
 -2.016510e+01 -2.901262e+01 3.876575e+01 -1.131863e+01 -2.032940e+00 2.573699e+01 -4.712273e+00 9.823469e+00 -1.244998e+01 -2.658162e-01 1.358596e+01 1.587138e+00 6.632844e+00 -1.586656e+00 -8.433769e-01 -6.808464e-01 -2.331851e+00 -1.985573e+00 -1.958767e+00 -1.316339e+00 -1.282602e-01 -2.185954e-01 -1.069571e-01 -4.743241e-01 -4.650423e-01 -6.135948e-03 3.938242e-01 3.309215e-01 -8.629109e-02 2.510799e-01 6.930074e-02 -5.024692e-02 -8.934769e-02 -3.074563e-01 -1.638401e-01 -3.126882e-01 -3.013625e-01 -2.327407e-01 -2.015565e-01
<VARIANCE> 39
 1.598769e+01 2.758500e+01 2.611634e+01 4.721740e+01 4.659051e+01 5.282014e+01 3.794381e+01 4.189725e+01 3.175490e+01 2.447252e+01 2.131430e+01 1.820040e+01 1.416467e+01 1.392551e+00 1.810892e+00 1.718232e+00 1.705204e+00 1.421399e+00 1.766411e+00 1.267574e+00 2.045736e+00 1.980810e+00 1.953689e+00 1.918710e+00 1.746082e+00 1.202746e+00 1.571188e-01 2.020453e-01 3.332061e-01 2.765772e-01 3.509783e-01 4.859117e-01 3.133413e-01 3.252920e-01 2.946109e-01 2.891990e-01 3.070798e-01 2.914633e-01 1.877633e-01
<GCONST> 1.055153e+02
<STATE> 3
<NUMMIXES> 2
<MIXTURE> 1 1.824681e-01
<MEAN> 39
 -2.366254e+01 -2.713518e+01 1.882662e+01 -6.780394e+00 -7.760982e+00 1.189820e+01 -3.251961e+00 8.273831e+00 -1.253759e+01 -7.420553e+00 8.317133e+00 2.036844e+00 4.281757e+00 -2.084882e-02 -1.517769e-01 3.332843e-01 -1.542657e-01 -1.379123e-01 4.401225e-02 -1.920182e-01 2.738436e-02 -3.928181e-02 -1.079544e-02 3.136960e-02 -4.293088e-03 3.820655e-02 1.679223e-01 3.120759e-01 -9.729287e-02 4.260627e-02 5.773208e-02 -1.175210e-02 3.586883e-02 -2.849480e-02 1.871750e-01 1.100131e-01 -1.067954e-01 -1.104430e-01 -4.531471e-02
<VARIANCE> 39
 2.970988e+01 1.823571e+02 3.304389e+02 3.771047e+01 3.440899e+01 8.156260e+01 2.616748e+01 7.103647e+01 7.033196e+01 4.282817e+01 4.233428e+01 2.191964e+01 1.840865e+01 1.382495e+00 2.726286e+00 7.552770e+00 1.764514e+00 1.297277e+00 2.439960e+00 1.688767e+00 2.081599e+00 2.764272e+00 2.129468e+00 1.759881e+00 1.765551e+00 1.128315e+00 2.550056e-01 3.498601e-01 4.543821e-01 1.619015e-01 1.711787e-01 3.062865e-01 2.408829e-01 3.251166e-01 3.546924e-01 3.453976e-01 2.908745e-01 2.999540e-01 2.180077e-01
<GCONST> 1.156984e+02
<MIXTURE> 2 8.175320e-01
<MEAN> 39
 -2.388716e+01 -2.948005e+01 3.742239e+01 -1.805181e+01 -8.426968e+00 1.859866e+01 -9.594371e+00 8.525607e+00 -1.439252e+01 -2.597225e+00 9.834315e+00 -1.929492e+00 5.527384e+00 -2.960524e-02 -1.037837e-01 -9.036092e-02 -1.489255e-01 6.288532e-02 -3.662406e-02 -9.386124e-02 -5.509469e-02 -1.387283e-01 4.368289e-02 -1.081523e-02 -9.126461e-02 1.561440e-03 5.207830e-02 -6.299338e-02 -9.112000e-02 1.257513e-01 1.434564e-01 1.511329e-01 9.745225e-02 -4.036951e-03 1.473865e-02 4.812200e-02 9.528594e-02 1.034108e-01 4.549814e-02
<VARIANCE> 39
 1.018367e+01 2.632900e+01 1.247927e+01 2.879843e+01 2.131163e+01 2.504834e+01 3.011984e+01 2.084642e+01 3.810812e+01 2.190081e+01 2.435764e+01 1.963899e+01 1.074259e+01 1.075958e+00 1.337789e+00 1.005644e+00 6.524556e-01 5.625466e-01 8.286402e-01 6.022568e-01 9.424203e-01 1.642983e+00 1.608894e+00 1.889471e+00 1.693213e+00 9.449165e-01 1.972527e-01 2.021363e-01 1.772511e-01 1.181959e-01 9.932065e-02 1.455370e-01 1.193774e-01 1.717879e-01 2.889375e-01 3.040073e-01 3.556733e-01 3.266385e-01 1.793373e-01
<GCONST> 9.032381e+01
<STATE> 4
<NUMMIXES> 2
<MIXTURE> 1 5.129647e-01
<MEAN> 39
 -1.111087e+01 -2.224444e+01 2.299418e+01 -5.616468e+00 6.409556e-01 2.170613e+01 -3.690155e+00 4.898661e+00 -1.034176e+01 -1.446351e+00 8.913111e+00 -8.449458e-01 4.927656e+00 3.412929e+00 3.178226e+00 -2.796315e+00 2.848929e+00 1.172986e+00 -1.130497e+00 -1.383690e-01 1.130079e-02 1.727405e+00 -7.217548e-01 -8.993698e-01 -4.217778e-01 -7.915596e-01 1.719236e-01 -1.008256e-01 -4.308591e-01 -3.015943e-03 -3.269120e-02 -5.744771e-01 -5.634764e-01 1.940982e-01 -1.361779e-01 -5.580510e-01 9.045867e-02 -6.731290e-02 -2.514235e-01
<VARIANCE> 39
 1.037085e+02 9.734691e+01 8.279976e+01 9.895740e+01 6.851270e+01 7.023711e+01 8.794580e+01 9.808256e+01 7.394994e+01 4.855472e+01 3.252991e+01 2.167787e+01 2.511917e+01 8.508795e+00 3.264835e+00 4.910907e+00 2.806847e+00 1.837430e+00 4.656590e+00 4.637252e+00 3.072664e+00 3.472092e+00 4.084231e+00 1.601322e+00 1.567825e+00 1.590425e+00 6.155252e-01 8.622930e-01 7.581517e-01 3.439482e-01 2.259923e-01 7.375857e-01 6.406977e-01 4.717826e-01 6.348547e-01 6.319943e-01 4.430932e-01 2.847138e-01 2.640958e-01
<GCONST> 1.309248e+02
<MIXTURE> 2 4.870341e-01
<MEAN> 39
 -2.219189e+01 -3.311898e+01 3.250099e+01 -1.839195e+01 -2.496546e+00 2.413120e+01 -1.095104e+01 3.136040e+00 -1.645656e+01 6.338764e-01 1.243559e+01 -1.128679e+00 5.813307e+00 1.109059e+00 1.051897e-01 -1.137964e+00 1.021822e+00 9.495572e-01 6.104089e-01 5.699421e-01 -8.442780e-01 -1.577065e-01 3.438026e-01 2.598453e-01 2.868207e-01 8.299624e-02 5.265512e-01 6.446297e-01 -1.768114e-01 5.002342e-01 1.283640e-01 -1.178894e-01 1.796366e-01 -5.936498e-03 3.183080e-01 -3.276008e-02 -1.943508e-01 -6.010228e-02 -1.067953e-01
<VARIANCE> 39
 1.662581e+01 2.879432e+01 2.071872e+01 2.649761e+01 2.311609e+01 1.981956e+01 3.752231e+01 3.592246e+01 3.508736e+01 2.564227e+01 2.109220e+01 1.576872e+01 1.423850e+01 2.329566e+00 2.905788e+00 1.351815e+00 1.824190e+00 1.323912e+00 1.648357e+00 1.555637e+00 1.538771e+00 2.089728e+00 1.555700e+00 1.596752e+00 1.514186e+00 1.025626e+00 3.153777e-01 4.330942e-01 2.800092e-01 2.469499e-01 1.691839e-01 2.470312e-01 2.365775e-01 2.738686e-01 4.014015e-01 2.802183e-01 2.932214e-01 2.806061e-01 1.865383e-01
<GCONST> 1.023746e+02
<TRANSP> 5
 0.000000e+00 1.000000e+00 0.000000e+00 0.000000e+00 0.000000e+00
 0.000000e+00 9.012533e-01 9.874675e-02 0.000000e+00 0.000000e+00
 0.000000e+00 0.000000e+00 9.223664e-01 7.763367e-02 0.000000e+00
 0.000000e+00 0.000000e+00 0.000000e+00 8.656787e-01 1.343213e-01
 0.000000e+00 0.000000e+00 0.000000e+00 0.000000e+00 0.000000e+00
<ENDHMM>
~h "t"
<BEGINHMM>
<NUMSTATES> 5
<STATE> 2
<NUMMIXES> 2
<MIXTURE> 1 5.892217e-01
<MEAN> 39
 -2.657541e+01 -6.255998e+00 -5.093335e+00 -3.003889e+00 -3.615926e+00 8.591326e-01 -3.563060e+00 1.125700e+00 -1.640719e+00 -6.063952e-01 5.443177e-01 -8.948631e-01 4.694320e-01 6.212677e-02 -3.587008e-02 -4.716783e-02 4.378370e-02 1.231526e-01 1.186971e-01 5.067648e-02 2.349378e-02 -6.009970e-03 -3.640422e-02 -5.094121e-02 1.681866e-02 8.689727e-02 2.201037e-01 5.628454e-02 9.346204e-02 2.019699e-01 2.453371e-01 2.095422e-01 1.224069e-01 9.919823e-02 1.793760e-02 -2.499967e-02 1.566421e-03 8.008599e-02 1.408330e-01
<VARIANCE> 39
 5.471085e-01 1.298084e+00 1.874962e+00 2.861494e+00 3.654502e+00 4.791120e+00 5.724912e+00 7.045394e+00 8.423960e+00 7.318978e+00 6.334977e+00 6.314516e+00 5.711449e+00 1.744292e-01 2.442808e-01 3.368389e-01 5.184378e-01 7.087377e-01 8.804068e-01 9.238136e-01 1.018499e+00 1.130860e+00 1.085361e+00 1.003000e+00 9.553235e-01 8.964632e-01 1.363909e-01 5.711751e-02 9.044158e-02 1.915759e-01 2.473983e-01 2.318381e-01 2.015568e-01 2.331476e-01 2.434371e-01 2.270135e-01 2.005643e-01 1.935825e-01 2.098441e-01
<GCONST> 6.121501e+01
<MIXTURE> 2 4.107784e-01
<MEAN> 39
 -6.097103e+00 2.792738e+00 4.826446e+00 9.329774e+00 6.255590e+00 4.623490e+00 -1.680153e+00 7.150898e+00 -2.951521e+00 -6.047331e+00 2.602973e+00 9.261953e-01 1.735330e+00 -1.449655e+00 -8.646818e-01 -6.098291e-01 -7.096194e-01 -6.456600e-01 -2.343486e-01 -7.764114e-02 -3.123633e-01 1.711391e-01 3.406415e-01 -1.998658e-01 -6.040308e-02 1.448802e-01 1.804505e-01 -2.238590e-01 -1.963039e-01 -1.863647e-02 1.351644e-02 -1.012133e-01 -1.068339e-01 9.673126e-02 7.478113e-02 -5.265837e-03 2.455263e-02 -6.318247e-02 -2.297949e-02
<VARIANCE> 39
 1.825489e+02 9.185715e+01 4.604753e+01 5.035925e+01 6.110500e+01 1.432051e+02 8.965859e+01 1.013934e+02 7.673851e+01 7.907098e+01 5.829117e+01 3.433055e+01 6.070964e+01 2.729640e+00 3.919859e+00 2.935197e+00 1.887267e+00 2.365519e+00 3.255367e+00 2.980888e+00 3.008105e+00 3.115392e+00 2.690218e+00 2.513620e+00 1.739821e+00 1.916982e+00 2.306356e-01 3.046088e-01 2.794585e-01 2.392540e-01 2.877286e-01 3.786182e-01 3.561321e-01 3.940744e-01 4.389692e-01 3.895453e-01 3.770131e-01 2.437271e-01 2.576906e-01
<GCONST> 1.252820e+02
<STATE> 3
<NUMMIXES> 2
<MIXTURE> 1 4.523950e-02
<MEAN> 39
 1.305972e+01 -1.291313e+01 5.532111e+00 1.625784e+01 2.716070e+00 1.938068e+00 1.807357e+00 1.265965e+01 -1.311414e+01 -1.193493e+01 1.012190e+01 -8.191822e+00 -1.519115e+00 2.145995e+00 2.768893e+00 8.513972e-02 -5.609513e-02 5.648497e-01 -3.091248e+00 -2.905926e+00 8.909315e-01 1.728663e+00 -2.725716e+00 -3.171341e+00 -2.266171e-01 -1.063537e+00 2.162395e-01 -2.053011e-01 -6.812350e-01 -1.996337e-01 2.971430e-01 -7.476183e-01 -6.939347e-01 7.921209e-01 3.245974e-01 -6.433015e-01 -8.048475e-03 9.771912e-02 -4.035237e-01
<VARIANCE> 39
 1.774384e+01 7.953253e+01 1.938686e+01 1.160565e+01 2.210848e+01 2.720265e+01 2.379583e+01 2.749443e+01 2.722290e+01 1.564124e+01 5.045851e+01 2.447252e+01 9.376109e+00 1.822592e+00 1.346166e+00 1.251116e+00 9.805682e-01 1.603502e+00 3.065332e+00 3.226551e+00 2.284775e+00 2.746443e+00 2.076201e+00 1.852810e+00 1.667662e+00 1.296957e+00 1.008444e-01 1.234863e-01 9.303226e-02 6.081386e-02 9.732658e-02 1.956703e-01 1.740828e-01 1.884479e-01 1.182650e-01 1.522009e-01 2.172386e-01 1.294951e-01 6.923851e-02
<GCONST> 9.326290e+01
<MIXTURE> 2 9.547604e-01
<MEAN> 39
 -1.753088e+01 -4.675486e+00 -2.374969e+00 4.396569e+00 4.909165e+00 7.034586e+00 -5.492396e-01 4.284787e+00 -4.805352e-01 -1.720768e+00 -2.704511e-01 9.776562e-01 5.621630e+00 2.941873e+00 -6.618066e-01 3.153005e-02 1.327907e+00 1.242069e+00 7.378513e-01 -6.016157e-02 7.185862e-01 5.554159e-01 2.578724e-01 1.968459e-01 -1.186790e-01 1.039549e+00 6.443831e-01 -2.168763e-01 5.476948e-02 -1.152903e-01 -3.091125e-01 -1.635388e-01 -2.767899e-01 1.565751e-02 -8.666581e-02 1.183267e-01 4.460148e-01 -3.596698e-01 -3.369913e-01
<VARIANCE> 39
 4.327038e+01 1.369962e+01 1.255902e+01 2.950342e+01 3.414321e+01 2.360446e+01 1.840798e+01 2.106633e+01 2.032385e+01 1.634463e+01 1.306563e+01 1.206306e+01 2.096678e+01 2.683045e+00 2.223660e+00 2.021289e+00 2.986249e+00 4.681410e+00 3.560676e+00 3.099421e+00 2.699069e+00 2.799258e+00 2.912480e+00 2.273406e+00 2.354155e+00 2.443796e+00 3.407083e-01 2.531320e-01 2.842967e-01 6.704899e-01 8.460729e-01 5.587441e-01 4.494019e-01 4.286274e-01 5.399390e-01 4.326421e-01 4.301777e-01 3.558993e-01 5.884191e-01
<GCONST> 1.133637e+02
<STATE> 4
<NUMMIXES> 2
<MIXTURE> 1 5.880426e-01
<MEAN> 39
 -2.039923e+00 -9.295114e+00 -2.079237e+00 6.738141e+00 4.881654e+00 7.486869e+00 -2.766251e+00 6.846277e+00 1.735990e-01 -1.153018e-01 4.669514e+00 -3.265229e+00 5.239050e+00 3.375499e+00 -1.514634e+00 -2.025917e-01 -5.070513e-01 -4.577315e-01 3.632267e-03 -1.139300e+00 2.949913e-01 -1.626975e+00 -1.049774e+00 2.364197e+00 -9.260555e-01 -1.193666e+00 1.013035e-02 1.065636e-01 1.405570e-01 -4.798543e-03 3.187389e-01 2.265827e-01 -4.085388e-02 -8.519997e-02 -8.168386e-01 -8.046662e-01 2.986189e-01 2.944162e-01 -1.267890e-01
<VARIANCE> 39
 5.203948e+01 3.130996e+01 1.792428e+01 2.276358e+01 3.615614e+01 5.387005e+01 3.823975e+01 3.824732e+01 4.254601e+01 4.170254e+01 2.824086e+01 2.936415e+01 2.724492e+01 3.547641e+00 3.043390e+00 1.386069e+00 1.600617e+00 2.572877e+00 3.867713e+00 3.022592e+00 2.556277e+00 5.789577e+00 4.385624e+00 4.464768e+00 2.277040e+00 1.821434e+00 1.574520e-01 3.101140e-01 2.761208e-01 3.296112e-01 4.246592e-01 4.699113e-01 4.139583e-01 4.050950e-01 7.353538e-01 4.941580e-01 4.837830e-01 3.125062e-01 3.575431e-01
<GCONST> 1.183814e+02
<MIXTURE> 2 4.119565e-01
<MEAN> 39
 7.449091e+00 -1.600916e+01 -1.157161e+00 5.331007e+00 5.079674e+00 1.195896e+01 -5.586466e+00 6.366131e+00 -1.087489e+01 -7.070653e+00 1.496395e+01 -4.887074e+00 3.006038e+00 2.910221e+00 4.656429e-01 1.089482e+00 1.289977e+00 1.735423e+00 3.033801e-01 -8.468661e-01 -1.498367e-01 -1.801140e+00 -1.964555e+00 1.094437e+00 2.502294e-01 -7.386750e-01 -4.728649e-01 8.514903e-01 -7.900980e-02 6.158462e-01 6.780038e-01 -9.359255e-01 -4.232441e-01 5.555835e-02 8.519303e-01 1.562715e-02 -1.009716e+00 3.042193e-01 -1.844146e-01
<VARIANCE> 39
 1.694915e+01 1.856031e+01 2.573225e+01 3.664669e+01 6.328601e+01 6.013171e+01 4.961743e+01 5.297293e+01 3.526006e+01 3.030568e+01 2.849286e+01 2.541331e+01 3.504385e+01 1.735609e+00 2.892708e+00 1.439105e+00 2.454392e+00 2.933223e+00 4.409150e+00 3.440691e+00 2.471804e+00 5.231732e+00 3.208271e+00 5.106878e+00 1.526409e+00 2.083492e+00 1.033269e-01 3.544081e-01 4.382718e-01 3.828093e-01 3.573189e-01 4.863138e-01 7.143658e-01 4.414456e-01 6.757681e-01 5.837681e-01 5.288960e-01 3.577272e-01 4.592357e-01
<GCONST> 1.193257e+02
<TRANSP> 5
 0.000000e+00 1.000000e+00 0.000000e+00 0.000000e+00 0.000000e+00
 0.000000e+00 8.472591e-01 1.527408e-01 0.000000e+00 0.000000e+00
 0.000000e+00 0.000000e+00 7.352123e-01 2.647877e-01 0.000000e+00
 0.000000e+00 0.000000e+00 0.000000e+00 7.916028e-01 2.083972e-01
 0.000000e+00 0.000000e+00 0.000000e+00 0.000000e+00 0.000000e+00
<ENDHMM>
~h "u"
<BEGINHMM>
<NUMSTATES> 7
<STATE> 2
<NUMMIXES> 2
<MIXTURE> 1 6.597921e-01
<MEAN> 39
 4.027780e+00 6.101495e+00 5.153928e+00 4.213189e+00 -5.646612e+00 -8.598799e+00 -6.426620e+00 1.344963e+01 7.384261e-01 -9.174075e+00 1.677163e+00 -2.059614e+00 -5.468692e+00 2.052230e+00 3.423226e-01 2.048074e-01 8.707416e-01 2.781915e-01 -1.568385e+00 -1.044589e+00 1.122341e+00 3.189625e-01 -1.365955e+00 -2.111010e-01 -1.034655e-01 -1.024225e+00 -1.597966e-01 -2.431528e-01 -7.419518e-02 6.220608e-02 1.990732e-01 8.446015e-02 -8.528656e-02 2.553299e-02 -2.801205e-02 -1.930642e-01 -6.759972e-02 -4.218767e-02 -6.460024e-02
<VARIANCE> 39
 1.813405e+02 4.627561e+01 3.372479e+01 8.659261e+01 8.602486e+01 9.968095e+01 3.917638e+01 1.041928e+02 4.701448e+01 5.914783e+01 5.462116e+01 4.019617e+01 2.510919e+01 4.217869e+00 2.442851e+00 2.784773e+00 4.770204e+00 7.425081e+00 8.073899e+00 3.599060e+00 3.916678e+00 2.184000e+00 4.439174e+00 3.593205e+00 2.048471e+00 1.741795e+00 3.280606e-01 2.622391e-01 2.892880e-01 7.823272e-01 1.081332e+00 1.065704e+00 5.328010e-01 5.626238e-01 3.397138e-01 5.303232e-01 5.625682e-01 3.224013e-01 2.493651e-01
<GCONST> 1.315799e+02
<MIXTURE> 2 3.402065e-01
<MEAN> 39
 1.809262e+01 7.991604e+00 8.018402e+00 1.058192e+01 -3.728288e+00 -1.881855e+01 -1.212741e+01 2.108994e+01 3.908808e+00 -1.638525e+01 2.113718e+00 -8.628969e-01 -1.182304e+01 3.229973e-02 -1.228213e-01 4.140474e-02 -5.181123e-02 -6.604768e-02 -2.427462e-01 -1.832139e-01 6.062092e-01 5.756890e-01 -1.754029e-01 -1.775608e-01 -3.384599e-01 -4.693451e-01 -3.856333e-02 -4.379875e-02 -7.447192e-02 -3.137179e-02 9.461750e-02 1.852568e-01 6.278796e-02 -4.573556e-02 -5.105783e-02 1.389363e-02 -1.643923e-02 -8.552700e-02 5.124680e-02
<VARIANCE> 39
 6.042850e+00 3.886522e+01 4.863082e+01 2.789546e+01 2.282292e+01 8.019853e+01 1.738663e+01 6.918952e+01 1.742750e+01 3.841933e+01 4.862752e+01 4.964943e+01 2.325314e+01 3.101887e-01 8.057045e-01 8.545595e-01 8.076283e-01 7.212119e-01 1.354656e+00 1.084751e+00 2.085757e+00 7.924945e-01 1.342324e+00 1.194034e+00 1.206517e+00 5.914531e-01 4.405806e-02 4.053947e-02 7.337529e-02 8.352367e-02 8.530188e-02 1.706282e-01 1.428055e-01 2.481287e-01 9.244584e-02 1.760240e-01 1.454312e-01 1.145786e-01 7.539161e-02
<GCONST> 8.554314e+01
<STATE> 3
<NUMMIXES> 2
<MIXTURE> 1 7.911033e-01
<MEAN> 39
 1.939327e+01 3.506123e+00 2.327335e+00 1.316423e+01 -1.687490e+00 -2.495843e+01 -1.700820e+01 2.464726e+01 1.075034e+01 -1.559579e+01 -3.116995e+00 -2.357348e+00 -8.763904e+00 1.227358e-01 -1.497596e-01 1.084706e-03 -8.311104e-04 3.706701e-01 1.310841e-01 -4.027967e-01 8.105668e-02 7.220563e-02 -3.595873e-01 -1.200599e-01 -4.265167e-01 -3.287310e-01 -9.693264e-02 7.084758e-03 -2.636677e-02 -8.548802e-02 1.329814e-01 3.821182e-01 1.602384e-01 -1.655426e-01 -2.220246e-01 3.140748e-02 1.448652e-01 4.294679e-02 1.042733e-01
<VARIANCE> 39
 7.726820e+00 2.319184e+01 3.065552e+01 1.805691e+01 3.576707e+01 7.734879e+01 3.467122e+01 3.891605e+01 2.753183e+01 2.907058e+01 2.320081e+01 2.155525e+01 2.221740e+01 5.195286e-01 1.225909e+00 1.337894e+00 9.869300e-01 9.895366e-01 2.026709e+00 1.249880e+00 2.586026e+00 8.428761e-01 2.062121e+00 1.076364e+00 9.293326e-01 4.506096e-01 8.573025e-02 4.567060e-02 9.867510e-02 1.233656e-01 1.157051e-01 2.251900e-01 1.591215e-01 2.513858e-01 1.016168e-01 1.759775e-01 1.537452e-01 8.854563e-02 7.648515e-02
<GCONST> 8.805821e+01
<MIXTURE> 2 2.088961e-01
<MEAN> 39
 1.960032e+01 -3.472209e+00 -2.074941e-01 1.365815e+01 1.370325e+01 -4.568751e+00 -1.642859e+01 1.873512e+01 -1.553776e+00 -2.741057e+01 3.975856e-02 -2.913771e+00 -1.061497e+01 5.219288e-01 1.508071e-01 -6.890824e-01 -3.716519e-01 5.742094e-01 -1.656659e+00 -1.735265e+00 1.666092e+00 4.642994e-01 -1.683761e+00 1.559624e-01 -2.673054e-01 -1.228510e+00 -4.003657e-01 -8.242919e-02 3.314018e-01 -1.258688e-01 -3.859974e-01 5.782868e-01 5.644456e-01 -6.346069e-01 1.082299e-01 8.123370e-01 -1.121759e-01 5.039862e-02 4.142611e-01
<VARIANCE> 39
 4.517410e+00 1.603902e+01 1.910885e+01 2.404322e+01 7.461594e+01 7.196726e+01 2.673940e+01 7.846146e+01 2.947387e+01 1.980829e+01 3.885613e+01 2.203470e+01 2.154296e+01 3.658012e-01 9.271609e-01 1.077550e+00 7.142498e-01 1.583085e+00 2.198817e+00 1.932730e+00 2.013884e+00 1.150233e+00 3.510057e+00 1.565981e+00 7.372502e-01 1.130544e+00 1.275528e-01 9.344609e-02 1.921281e-01 1.792869e-01 1.177837e-01 3.042926e-01 2.000996e-01 2.963899e-01 1.617968e-01 1.648315e-01 3.773345e-01 1.578495e-01 1.106865e-01
<GCONST> 9.484709e+01
<STATE> 4
<NUMMIXES> 2
<MIXTURE> 1 1.000000e+00
<MEAN> 39
 1.967305e+01 -8.764334e-01 1.609736e+00 9.683542e+00 4.920574e+00 -1.189380e+01 -1.417176e+01 2.480106e+01 1.356414e+00 -2.632982e+01 1.096966e+00 -3.935221e+00 -1.219174e+01 5.061508e-02 -6.175871e-01 -4.961796e-01 1.494894e-01 1.086228e+00 1.064696e+00 2.310620e-01 -3.576127e-01 -1.265455e+00 -9.414930e-01 3.495909e-01 1.475262e-01 1.853668e-01 -8.577772e-02 1.585785e-01 7.029016e-02 1.209812e-01 -8.425785e-02 1.258518e-01 3.506904e-01 -2.068106e-01 -1.016609e-01 3.081216e-01 -4.338193e-02 6.549849e-02 1.542551e-01
<VARIANCE> 39
 7.858917e+00 2.575238e+01 2.318432e+01 1.995033e+01 6.080585e+01 8.863031e+01 3.735582e+01 5.772200e+01 4.264471e+01 9.805370e+01 2.969369e+01 2.727606e+01 2.747507e+01 3.526465e-01 8.064488e-01 7.040730e-01 9.181581e-01 6.933716e-01 1.121639e+00 1.677767e+00 1.822112e+00 8.304943e-01 1.858249e+00 1.198733e+00 1.093542e+00 5.713557e-01 5.909720e-02 5.986033e-02 1.026447e-01 1.020701e-01 8.054289e-02 1.461935e-01 2.124939e-01 2.862892e-01 1.317294e-01 2.191117e-01 1.825005e-01 1.041514e-01 1.131985e-01
<GCONST> 8.992730e+01
<MIXTURE> 2 0.000000e+00
<MEAN> 39
 3.417223e+00 7.293330e+00 8.330730e+00 -9.710498e+00 -1.625434e-01 -2.035127e+01 -9.064593e-01 1.561739e+00 -1.227357e+01 -1.039749e+01 -7.147142e+00 -1.017353e+01 -1.074242e+01 -2.990634e-02 2.168149e-01 1.001392e-02 -4.689300e-02 -1.589202e-01 -7.911995e-03 6.217949e-02 3.558638e-02 5.552286e-02 3.114433e-03 -1.407267e-01 -1.060831e-01 -1.548424e-01 -5.462008e-03 -1.843423e-02 -2.657526e-02 6.268177e-02 6.855920e-02 9.713328e-02 -2.289386e-02 -5.790818e-02 2.742950e-02 2.240322e-02 1.946409e-02 5.355634e-02 3.129942e-02
<VARIANCE> 39
 6.075173e+00 4.578182e+01 2.743917e+01 3.471677e+01 5.041447e+01 4.296664e+01 3.941714e+01 4.597451e+01 8.174229e+01 6.164312e+01 4.850667e+01 5.474281e+01 4.559898e+01 9.210440e-02 5.496898e-01 4.708762e-01 6.562652e-01 8.952708e-01 9.710231e-01 9.655682e-01 1.150128e+00 1.134475e+00 1.179296e+00 1.051585e+00 1.147964e+00 1.009993e+00 1.406629e-02 4.912791e-02 6.224088e-02 9.069604e-02 1.023018e-01 1.395229e-01 1.419330e-01 1.569344e-01 1.592698e-01 1.563243e-01 1.508348e-01 1.450534e-01 1.304802e-01
<GCONST> 8.581348e+01
<STATE> 5
<NUMMIXES> 2
<MIXTURE> 1 3.124026e-01
<MEAN> 39
 -2.860028e+00 -1.474084e+01 1.309835e+01 1.139275e+01 -2.283792e-01 6.483678e+00 -8.548103e+00 1.782047e+00 -4.740255e+00 -1.246084e+01 -1.537265e+00 1.196504e+00 3.355644e+00 -7.992592e-01 -1.244893e-01 -7.966076e-02 -4.031061e-01 -4.502776e-01 -6.607705e-02 -1.229557e-01 -4.261178e-01 1.045585e-01 5.526035e-01 1.326454e-01 7.001469e-03 8.226532e-02 4.621951e-02 -8.870272e-02 -1.006623e-01 -3.374919e-02 1.399602e-02 -3.165292e-02 -1.743853e-02 1.219403e-01 -1.784855e-03 -1.061749e-01 8.629702e-02 3.777312e-02 -9.284409e-02
<VARIANCE> 39
 1.380550e+02 3.630883e+02 1.558966e+02 6.215186e+01 7.029091e+01 1.131403e+02 1.008948e+02 9.261656e+01 6.020840e+01 3.866661e+01 3.460147e+01 2.916469e+01 2.555293e+01 6.709978e+00 1.291070e+01 7.410233e+00 3.286249e+00 3.926127e+00 5.655205e+00 4.112924e+00 3.442571e+00 3.829088e+00 3.924490e+00 2.711318e+00 2.692121e+00 3.065524e+00 2.893499e-01 1.023306e+00 9.248368e-01 4.752276e-01 3.694552e-01 6.719570e-01 5.776495e-01 5.187992e-01 5.706479e-01 5.245140e-01 3.606386e-01 4.649462e-01 5.286460e-01
<GCONST> 1.386683e+02
<MIXTURE> 2 6.875980e-01
<MEAN> 39
 1.873236e+01 1.290136e+00 1.418590e+00 1.092242e+01 7.244540e+00 -7.214578e+00 -1.099086e+01 1.957487e+01 -1.683187e+00 -2.303106e+01 6.598555e-01 -4.004026e+00 -1.063341e+01 -7.419214e-01 6.395690e-01 2.060938e-01 1.166551e-01 3.307166e-01 1.976379e+00 2.056093e+00 -1.207979e+00 -5.272424e-01 1.173622e+00 -8.468069e-01 -1.182994e-01 1.064784e+00 -3.305000e-01 2.895047e-01 3.040109e-01 2.449234e-02 -1.001733e-01 1.901511e-01 2.589980e-01 -1.175463e-01 3.420455e-01 4.767700e-01 -3.409841e-01 -7.981190e-02 2.816890e-01
<VARIANCE> 39
 7.611955e+00 4.704088e+01 3.918061e+01 5.040057e+01 7.068707e+01 1.300258e+02 4.969188e+01 7.367401e+01 7.552825e+01 1.430385e+02 4.887188e+01 5.936589e+01 2.429045e+01 8.293272e-01 1.148049e+00 1.404836e+00 1.556345e+00 1.266414e+00 2.603987e+00 2.440710e+00 2.780881e+00 1.900101e+00 3.579848e+00 2.054124e+00 1.248217e+00 1.377760e+00 8.224229e-02 1.545138e-01 1.584448e-01 1.743123e-01 1.723111e-01 3.554347e-01 2.864598e-01 4.683746e-01 3.810100e-01 6.941608e-01 3.686158e-01 2.590275e-01 1.913599e-01
<GCONST> 1.118602e+02
<STATE> 6
<NUMMIXES> 2
<MIXTURE> 1 2.573748e-01
<MEAN> 39
 -2.599123e+01 -7.306362e+00 -6.186966e+00 -3.640840e+00 -3.673554e+00 1.528801e+00 -2.072656e+00 1.624324e+00 -3.885863e+00 -2.774157e+00 5.155451e-01 8.355814e-01 1.341471e+00 -5.086585e-02 -8.678502e-02 -8.994851e-02 2.585080e-03 2.904461e-02 1.670357e-02 4.748764e-02 1.107368e-01 9.183787e-02 8.053110e-02 3.865125e-02 -7.121908e-02 -2.593083e-03 8.604861e-02 4.837958e-02 4.719086e-02 5.788795e-02 6.282723e-02 1.837911e-02 -3.132408e-02 -4.098266e-02 -4.152371e-02 -4.379041e-02 2.827227e-02 4.957595e-02 4.322822e-02
<VARIANCE> 39
 1.465876e+00 3.597732e+00 4.742146e+00 2.938485e+00 3.458647e+00 9.581343e+00 9.687897e+00 4.957129e+00 1.976098e+01 2.794500e+01 8.139001e+00 1.609527e+01 7.969598e+00 1.040627e-01 1.755601e-01 3.750228e-01 4.314522e-01 6.750174e-01 8.122313e-01 7.226424e-01 8.246207e-01 1.131821e+00 1.508742e+00 1.141201e+00 9.787542e-01 6.543831e-01 6.927595e-02 4.246989e-02 9.036089e-02 1.014424e-01 1.755926e-01 2.003354e-01 1.821140e-01 1.886131e-01 2.278151e-01 2.740614e-01 2.584815e-01 2.054449e-01 1.426606e-01
<GCONST> 6.499483e+01
<MIXTURE> 2 7.426252e-01
<MEAN> 39
 1.098836e+01 8.968480e+00 6.347158e+00 1.151553e+01 6.112253e+00 -6.322148e-01 -1.890360e+00 1.546009e+01 1.250717e+00 -1.235168e+01 -3.253109e+00 -4.104602e+00 -5.477847e+00 -1.789772e+00 8.126358e-01 9.118202e-01 2.331154e-01 7.149337e-01 2.230413e+00 1.381206e+00 -1.027973e+00 -3.051439e-02 1.252288e+00 -5.552511e-01 -1.911035e-01 8.779398e-01 -1.038107e-01 -2.160749e-01 4.687385e-02 5.958382e-02 -4.409486e-02 -2.707361e-01 -3.431384e-01 2.232237e-02 2.877431e-03 -1.046888e-01 1.245740e-01 2.367717e-02 -7.200137e-02
<VARIANCE> 39
 6.692412e+01 6.834014e+01 5.734882e+01 3.546423e+01 4.645641e+01 1.122037e+02 7.480138e+01 4.929332e+01 4.146738e+01 1.092335e+02 4.428856e+01 3.904286e+01 2.419064e+01 1.314876e+00 2.074929e+00 1.535399e+00 1.458158e+00 1.644524e+00 4.209524e+00 2.852666e+00 2.508853e+00 2.253538e+00 4.040981e+00 2.004969e+00 1.402279e+00 1.465145e+00 5.759413e-02 2.141774e-01 1.726727e-01 1.491216e-01 1.669482e-01 2.336312e-01 2.939898e-01 2.687096e-01 2.527664e-01 2.743737e-01 2.312731e-01 1.663706e-01 1.473258e-01
<GCONST> 1.112129e+02
<TRANSP> 7
 0.000000e+00 1.000000e+00 0.000000e+00 0.000000e+00 0.000000e+00 0.000000e+00 0.000000e+00
 0.000000e+00 8.742459e-01 1.257541e-01 0.000000e+00 0.000000e+00 0.000000e+00 0.000000e+00
 0.000000e+00 0.000000e+00 7.921867e-01 2.078133e-01 0.000000e+00 0.000000e+00 0.000000e+00
 0.000000e+00 0.000000e+00 0.000000e+00 7.471235e-01 2.528765e-01 0.000000e+00 0.000000e+00
 0.000000e+00 0.000000e+00 0.000000e+00 0.000000e+00 7.289159e-01 2.710841e-01 0.000000e+00
 0.000000e+00 0.000000e+00 0.000000e+00 0.000000e+00 0.000000e+00 6.898313e-01 3.101687e-01
 0.000000e+00 0.000000e+00 0.000000e+00 0.000000e+00 0.000000e+00 0.000000e+00 0.000000e+00
<ENDHMM>
~h "w"
<BEGINHMM>
<NUMSTATES> 5
<STATE> 2
<NUMMIXES> 2
<MIXTURE> 1 1.000000e+00
<MEAN> 39
 6.868258e+00 1.508803e+01 1.028713e+01 1.387950e+01 1.060623e+01 7.300202e+00 4.289110e+00 1.666029e+01 4.439804e+00 -8.058667e+00 -6.582486e+00 -6.319629e+00 -6.649710e+00 -5.644783e-01 5.067267e-01 8.044153e-01 1.996171e-01 1.035759e-01 5.775405e-01 3.184479e-01 -1.950929e-01 1.171821e-01 5.762775e-01 2.106950e-01 -1.887501e-01 -5.491775e-02 1.622324e-02 -2.135236e-01 -1.406799e-01 3.922092e-02 7.049443e-02 -2.540928e-02 -1.025335e-01 -5.013737e-03 -9.098839e-03 -4.347553e-02 3.302995e-02 6.199573e-02 1.270473e-01
<VARIANCE> 39
 2.235864e+01 2.145116e+01 2.776932e+01 1.628201e+01 2.152545e+01 4.033876e+01 1.822042e+01 4.326965e+01 2.921706e+01 3.900387e+01 2.032068e+01 1.670014e+01 1.448398e+01 8.067881e-01 8.673810e-01 1.178959e+00 6.498624e-01 7.195902e-01 1.351600e+00 1.003193e+00 1.608464e+00 9.686714e-01 1.672327e+00 1.118846e+00 9.847036e-01 9.689360e-01 4.676193e-02 1.015552e-01 1.367819e-01 8.715530e-02 9.245200e-02 1.469745e-01 1.415510e-01 2.344173e-01 1.369619e-01 2.248146e-01 1.492429e-01 1.264495e-01 1.211629e-01
<GCONST> 8.626951e+01
<MIXTURE> 2 0.000000e+00
<MEAN> 39
 1.378911e+01 -5.882964e+00 5.711132e+00 9.465131e+00 -1.243303e+01 8.746708e+00 5.601330e-01 -7.174479e+00 2.589908e+00 -1.117520e+01 -1.118331e+01 1.178023e-01 -6.158607e+00 -1.288440e-01 1.712742e-02 2.953843e-01 2.247112e-02 -1.709286e-01 2.319557e-01 7.940844e-02 2.872613e-02 2.858532e-01 -3.339471e-02 -1.537790e-01 2.861512e-02 -6.112367e-02 4.143821e-02 -1.702908e-01 -5.036233e-02 -1.903104e-02 -4.757323e-02 -1.118162e-01 -1.095709e-01 -5.744234e-02 -1.100288e-01 -7.373928e-02 7.590093e-02 2.229727e-02 -1.457045e-03
<VARIANCE> 39
 5.693203e+00 3.076212e+01 1.764848e+01 2.169621e+01 3.926045e+01 3.001332e+01 2.751151e+01 3.213239e+01 3.717189e+01 2.692718e+01 1.927668e+01 1.926764e+01 1.896693e+01 1.228157e-01 5.694669e-01 4.044106e-01 4.887558e-01 7.384183e-01 9.813446e-01 7.732689e-01 8.090994e-01 9.743630e-01 8.385676e-01 6.937302e-01 6.511840e-01 6.163760e-01 1.787036e-02 5.931752e-02 6.642151e-02 7.853088e-02 1.136717e-01 1.498673e-01 1.329894e-01 1.448491e-01 1.629503e-01 1.434017e-01 1.325567e-01 1.232411e-01 1.184856e-01
<GCONST> 7.573148e+01
<STATE> 3
<NUMMIXES> 2
<MIXTURE> 1 9.020421e-01
<MEAN> 39
 2.930570e+00 9.149040e+00 8.424598e+00 1.403067e+01 1.233504e+01 9.637333e+00 2.748526e+00 1.552260e+01 4.471547e+00 -6.735010e+00 -3.805552e+00 -4.910128e+00 -2.310265e+00 1.074530e+00 -1.786080e+00 -1.652611e+00 -3.662294e-01 -2.415768e-02 -1.206777e+00 -1.589072e+00 3.943439e-01 -3.422051e-02 -1.049043e+00 3.158618e-01 2.954786e-01 5.723740e-01 4.541915e-01 -2.780171e-01 -4.183603e-01 -1.841224e-01 -1.681427e-01 -5.603912e-01 -4.658556e-01 2.397661e-02 -1.499806e-01 -3.762420e-01 8.872388e-02 1.590936e-01 -7.496850e-02
<VARIANCE> 39
 6.125344e+01 6.474861e+01 4.003867e+01 3.654217e+01 3.714595e+01 4.287421e+01 2.692109e+01 3.923050e+01 4.301075e+01 3.245034e+01 3.149016e+01 2.143797e+01 1.790722e+01 1.569405e+00 3.203567e+00 2.414614e+00 1.620341e+00 1.575664e+00 3.354773e+00 2.602781e+00 1.919583e+00 2.204633e+00 2.378957e+00 2.260627e+00 1.354722e+00 1.376897e+00 1.079059e-01 2.476173e-01 2.581204e-01 2.316504e-01 2.253751e-01 3.058494e-01 2.704169e-01 3.556643e-01 2.976711e-01 3.180932e-01 3.410508e-01 2.318311e-01 2.410464e-01
<GCONST> 1.098041e+02
<MIXTURE> 2 9.795795e-02
<MEAN> 39
 1.732444e+01 6.368982e+00 1.621222e-01 1.134806e+01 4.087701e+00 -1.089807e+01 -7.197288e+00 2.188600e+01 5.899576e+00 -1.750470e+01 -7.396284e+00 -2.965973e+00 -7.341842e+00 4.850047e-01 -7.631296e-01 -5.706679e-01 5.400357e-02 4.194238e-02 -1.313309e+00 -1.389557e+00 3.720389e-01 2.287687e-01 -6.702141e-01 2.445170e-01 2.318200e-01 -2.617785e-01 3.874929e-02 -1.726389e-01 -8.295152e-02 -3.064333e-02 7.981353e-02 8.391603e-02 -1.353386e-01 -1.744289e-01 -1.915699e-01 -2.074233e-02 1.807748e-01 2.459366e-02 1.055700e-01
<VARIANCE> 39
 5.538628e+00 1.497787e+01 1.334425e+01 1.845840e+01 1.043464e+01 3.314561e+01 2.122070e+01 2.190943e+01 2.082764e+01 2.940342e+01 3.680577e+01 8.056067e+00 2.369489e+01 2.949192e-01 1.060353e+00 9.768073e-01 3.680135e-01 7.896289e-01 1.539854e+00 1.205898e+00 1.533828e+00 1.377524e+00 2.183851e+00 6.262321e-01 5.992250e-01 5.511178e-01 4.272468e-02 4.551381e-02 1.055721e-01 4.505812e-02 6.888636e-02 1.353186e-01 1.556547e-01 2.538985e-01 9.580559e-02 2.285310e-01 1.140445e-01 1.000191e-01 5.926315e-02
<GCONST> 7.639707e+01
<STATE> 4
<NUMMIXES> 2
<MIXTURE> 1 5.427066e-03
<MEAN> 39
 2.002090e+01 -3.923228e-01 -3.158336e+00 9.110309e+00 6.457551e+00 -9.058710e+00 -8.714835e+00 1.753958e+01 -9.112782e+00 -2.585571e+01 1.206597e+00 8.226854e-02 -8.650863e+00 1.698212e-01 -1.110129e+00 -4.949282e-01 2.713066e-01 6.674122e-01 2.619582e-01 -5.713853e-01 -1.192336e+00 -1.788367e+00 -7.097883e-01 1.365783e+00 1.187611e+00 7.069704e-01 -7.904136e-02 7.968453e-02 6.170813e-02 -2.306186e-02 -3.489492e-02 6.935230e-02 1.117116e-02 -1.522784e-01 3.515478e-02 1.906404e-02 1.934500e-01 1.777589e-01 -6.914287e-02
<VARIANCE> 39
 8.296619e-01 5.151350e+00 2.851132e+00 1.844134e+00 2.715661e+01 3.422185e+01 2.654168e+00 3.187915e+01 6.220634e+00 1.012182e+01 2.635493e+01 7.671502e+00 5.130275e+01 7.078411e-03 2.555969e-01 1.020477e-01 1.685668e-01 2.376364e-01 1.607348e-01 1.719625e-01 1.043892e-01 3.661646e-01 5.475724e-01 8.923634e-01 1.742097e-01 6.713639e-02 1.359725e-02 1.182634e-02 1.722072e-02 2.535342e-02 4.104599e-02 3.163116e-02 2.018588e-02 8.953431e-02 3.931192e-02 1.415520e-02 1.029286e-01 8.350483e-02 2.455851e-02
<GCONST> 3.022790e+01
<MIXTURE> 2 9.945728e-01
<MEAN> 39
 1.794027e+01 -1.835547e-01 -4.587790e+00 1.024026e+01 5.437725e+00 -1.344711e+01 -1.409130e+01 2.145249e+01 8.203160e+00 -1.592526e+01 -5.130882e+00 -2.203804e+00 -9.516549e-01 1.684648e+00 -1.513058e+00 -1.881962e+00 -5.615687e-01 -4.423722e-01 -2.458638e+00 -1.971808e+00 2.449198e-01 -2.854878e-01 -1.205583e+00 5.170735e-01 9.087043e-01 2.977411e-01 -2.377180e-01 1.818262e-01 1.843201e-01 5.401184e-02 2.285916e-01 3.895634e-01 2.794786e-01 4.792711e-03 5.654743e-03 1.720425e-01 7.044592e-02 1.211638e-02 3.318275e-03
<VARIANCE> 39
 1.969850e+01 1.805124e+01 2.858829e+01 1.459747e+01 3.676857e+01 1.308490e+02 4.595641e+01 3.793530e+01 5.411702e+01 2.843189e+01 3.594623e+01 1.508381e+01 1.348234e+01 1.726412e+00 8.577041e-01 1.413473e+00 9.330464e-01 1.651756e+00 3.860007e+00 2.774976e+00 2.199312e+00 1.732734e+00 2.775321e+00 1.699507e+00 1.163861e+00 7.454271e-01 1.490842e-01 9.283759e-02 1.536140e-01 1.522085e-01 1.827471e-01 3.988907e-01 2.820150e-01 3.286448e-01 1.705660e-01 3.169616e-01 2.353758e-01 1.641646e-01 1.276739e-01
<GCONST> 1.007895e+02
<TRANSP> 5
 0.000000e+00 1.000000e+00 0.000000e+00 0.000000e+00 0.000000e+00
 0.000000e+00 8.539280e-01 1.460720e-01 0.000000e+00 0.000000e+00
 0.000000e+00 0.000000e+00 8.313593e-01 1.686408e-01 0.000000e+00
 0.000000e+00 0.000000e+00 0.000000e+00 7.805712e-01 2.194288e-01
 0.000000e+00 0.000000e+00 0.000000e+00 0.000000e+00 0.000000e+00
<ENDHMM>
~h "y"
<BEGINHMM>
<NUMSTATES> 5
<STATE> 2
<NUMMIXES> 2
<MIXTURE> 1 1.000000e+00
<MEAN> 39
 5.500441e+00 -1.582073e+00 1.557127e+01 3.504385e+01 1.864685e+01 -1.922154e+00 -5.744167e+00 1.696527e+01 -2.804017e+00 -1.803712e+01 7.089853e-01 -8.503267e-01 -8.260324e+00 4.243988e-01 -5.679350e-01 -1.274713e-01 3.436325e-01 5.114659e-01 -9.310059e-02 -8.110278e-01 -1.780301e-01 -1.186384e-01 -4.737657e-01 9.880768e-02 -6.025852e-02 -2.464435e-01 2.001381e-02 -5.385992e-02 -9.448483e-02 -1.163365e-01 6.425107e-02 8.055712e-03 -1.531330e-01 -1.445222e-02 -6.258775e-03 -5.870370e-02 6.538959e-02 3.411695e-02 -3.039701e-02
<VARIANCE> 39
 2.359552e+01 8.565124e+01 3.568327e+01 5.967540e+01 4.534840e+01 5.207682e+01 8.405797e+01 7.321137e+01 2.640017e+01 6.243775e+01 4.022310e+01 2.965244e+01 3.667200e+01 9.521906e-01 2.298318e+00 1.546958e+00 2.892607e+00 2.187244e+00 1.908761e+00 3.612171e+00 2.478993e+00 1.070357e+00 3.542511e+00 1.627214e+00 1.424556e+00 1.607491e+00 6.716479e-02 1.736792e-01 1.687664e-01 3.873167e-01 2.143116e-01 2.322317e-01 2.171389e-01 3.240167e-01 1.497923e-01 3.944727e-01 2.160763e-01 1.972243e-01 1.621768e-01
<GCONST> 1.094520e+02
<MIXTURE> 2 0.000000e+00
<MEAN> 39
 1.077002e+01 -1.956420e+01 1.628934e+01 2.477308e+01 -1.067274e+01 -2.976494e-01 -1.631964e+01 -1.125875e+01 8.065402e+00 -1.447605e+01 -1.309809e+01 -1.712498e+00 -8.394070e+00 6.742813e-02 -9.836404e-02 -1.169972e-01 -9.043243e-02 -7.185069e-02 -4.700645e-02 -1.383417e-01 -1.586409e-01 -4.520181e-02 8.582173e-02 1.406730e-01 1.323300e-02 -1.787742e-02 1.718775e-02 -1.453367e-03 -6.490878e-02 -5.673794e-02 8.897717e-03 2.129654e-02 3.349083e-04 -4.583070e-02 -3.346105e-02 4.537795e-02 5.137637e-02 4.648509e-03 -1.070770e-02
<VARIANCE> 39
 4.835891e+00 1.564970e+01 1.978276e+01 2.057377e+01 2.182557e+01 2.436750e+01 2.886898e+01 3.342552e+01 2.415036e+01 3.267395e+01 2.042847e+01 2.264841e+01 1.821476e+01 1.990445e-01 2.737281e-01 3.442593e-01 4.312418e-01 5.640050e-01 5.272828e-01 3.877100e-01 4.964686e-01 5.398856e-01 5.405872e-01 4.196366e-01 3.762387e-01 3.816764e-01 2.946622e-02 3.539984e-02 2.297077e-02 5.282143e-02 8.965132e-02 8.030171e-02 5.395827e-02 6.092423e-02 8.503931e-02 7.202144e-02 5.072999e-02 5.755227e-02 6.090007e-02
<GCONST> 6.119115e+01
<STATE> 3
<NUMMIXES> 2
<MIXTURE> 1 4.511466e-01
<MEAN> 39
 1.199963e+01 -1.001463e+01 6.073884e+00 3.433781e+01 3.395062e+01 3.706132e+00 -2.324225e+01 4.042191e+00 -6.686711e+00 -2.061497e+01 9.010543e+00 -2.528848e-01 -1.814816e+01 1.597871e-01 1.968170e-01 -7.202565e-02 -6.800817e-01 -2.392273e-01 6.659100e-02 -1.949198e-01 -8.555081e-02 -2.569207e-02 -5.712169e-01 -1.512229e-01 3.882112e-01 -8.606376e-02 3.533407e-02 5.284882e-02 -8.892135e-03 -1.618725e-01 -1.832343e-01 8.343436e-03 1.242072e-01 1.660893e-01 1.093388e-02 -9.011927e-02 -5.643024e-02 7.900931e-04 1.003391e-01
<VARIANCE> 39
 5.015333e+00 1.262346e+01 1.307716e+01 3.338200e+01 2.095432e+01 3.691638e+01 3.235921e+01 3.450822e+01 2.357142e+01 2.921727e+01 2.616193e+01 1.966760e+01 1.657127e+01 2.757476e-01 4.280402e-01 5.257695e-01 1.443994e+00 1.303490e+00 1.152009e+00 1.870687e+00 1.333846e+00 9.529737e-01 1.898207e+00 1.073578e+00 7.105358e-01 8.920023e-01 3.868512e-02 4.639270e-02 6.228849e-02 1.427830e-01 1.588949e-01 1.507695e-01 2.238866e-01 1.883510e-01 1.529325e-01 2.435803e-01 1.667483e-01 1.160307e-01 1.207864e-01
<GCONST> 8.298349e+01
<MIXTURE> 2 5.488512e-01
<MEAN> 39
 1.425917e+01 -1.399254e+01 5.054017e+00 2.716569e+01 3.019650e+01 6.105345e-01 -2.956783e+01 9.261804e+00 -6.725806e+00 -2.591857e+01 1.030757e+01 -1.644945e-01 -1.383604e+01 8.711215e-01 -1.629307e-01 -1.155247e+00 -1.496123e+00 4.838479e-01 -8.225449e-01 -2.039577e+00 6.109271e-01 -4.535197e-01 -1.406245e+00 1.237892e+00 7.287994e-01 -5.468502e-01 -1.632792e-01 1.546984e-01 5.879833e-02 -1.294315e-01 -4.636856e-01 -2.255313e-02 5.773299e-01 -7.184608e-02 6.863961e-02 4.522085e-01 -1.726136e-01 -2.521104e-02 3.739504e-01
<VARIANCE> 39
 1.065410e+01 1.521047e+01 3.223503e+01 5.153072e+01 3.232853e+01 4.607781e+01 5.432968e+01 4.132598e+01 2.069893e+01 3.678186e+01 4.651390e+01 1.495112e+01 3.205526e+01 7.710144e-01 1.034656e+00 1.465428e+00 2.349425e+00 1.999486e+00 1.294407e+00 3.010721e+00 1.869919e+00 9.396879e-01 2.518856e+00 1.696195e+00 8.074645e-01 1.774042e+00 1.005909e-01 1.313998e-01 1.225687e-01 1.839785e-01 1.873763e-01 1.857691e-01 3.216125e-01 3.037575e-01 1.583275e-01 2.795997e-01 2.539333e-01 1.300658e-01 1.568705e-01
<GCONST> 9.910678e+01
<STATE> 4
<NUMMIXES> 2
<MIXTURE> 1 9.640455e-01
<MEAN> 39
 1.769063e+01 -1.085708e+01 -1.393347e+00 1.526245e+01 2.262146e+01 -1.955687e+00 -2.728964e+01 1.058713e+01 -8.034144e+00 -2.542559e+01 1.464873e+01 4.927359e+00 -9.370360e+00 2.352685e-01 4.978836e-01 -5.403373e-01 -1.235772e+00 -1.466004e+00 -3.461280e-01 1.140117e+00 5.204287e-01 2.298402e-01 4.834482e-01 5.580768e-02 3.117163e-01 8.265230e-01 -3.979390e-02 1.315014e-03 7.262020e-02 1.179097e-01 -3.758838e-02 8.851379e-03 1.404254e-01 7.598703e-02 1.021787e-01 1.274382e-01 -7.940574e-02 -1.279022e-01 -2.487564e-02
<VARIANCE> 39
 1.102644e+01 2.710505e+01 3.393549e+01 4.306026e+01 4.029430e+01 3.550360e+01 7.884588e+01 3.930751e+01 2.177765e+01 5.169060e+01 8.382431e+01 1.528830e+01 4.189602e+01 5.526947e-01 5.788110e-01 1.150912e+00 1.017160e+00 9.526727e-01 1.287850e+00 1.988701e+00 2.326252e+00 1.043432e+00 2.285081e+00 2.851637e+00 1.037416e+00 8.479785e-01 6.966785e-02 7.085355e-02 1.023053e-01 1.103054e-01 1.086984e-01 1.313932e-01 2.770787e-01 2.757671e-01 1.283974e-01 2.685095e-01 2.396625e-01 1.325990e-01 1.108830e-01
<GCONST> 9.479737e+01
<MIXTURE> 2 3.595418e-02
<MEAN> 39
 1.635845e+01 -1.125896e+01 5.600568e+00 2.030285e+01 2.506901e+01 -1.334706e+00 -3.181326e+01 1.084399e+01 -7.269452e+00 -2.555339e+01 2.193273e+01 1.403340e+00 -2.284443e+01 2.627241e-01 -1.936484e-01 -5.092848e-01 -7.634954e-01 -3.255096e-01 2.853408e-01 3.274606e-01 3.393437e-01 -3.358353e-01 -1.958228e-01 4.425340e-01 1.298369e-01 1.927813e-01 3.327322e-02 4.546103e-02 -6.756501e-02 8.399815e-02 -2.397053e-02 4.616125e-02 2.177528e-01 -1.036765e-01 -1.340248e-01 3.146665e-02 -6.723120e-02 3.284661e-02 9.104007e-02
<VARIANCE> 39
 3.101393e+00 5.072713e+00 1.208959e+01 2.708476e+01 1.211120e+01 1.014733e+01 2.010452e+01 1.302294e+01 2.319015e+01 1.895923e+01 2.600077e+01 6.676303e+00 9.352936e+00 1.542836e-01 1.714001e-01 3.920253e-01 5.227036e-01 3.281162e-01 4.316479e-01 9.025028e-01 6.325886e-01 5.178331e-01 6.122388e-01 6.276420e-01 3.002848e-01 3.913260e-01 2.429716e-02 3.724717e-02 4.510844e-02 3.859905e-02 4.732932e-02 5.108858e-02 9.223612e-02 1.060285e-01 7.379402e-02 8.595093e-02 9.062109e-02 5.043259e-02 7.233440e-02
<GCONST> 5.550479e+01
<TRANSP> 5
 0.000000e+00 1.000000e+00 0.000000e+00 0.000000e+00 0.000000e+00
 0.000000e+00 8.876694e-01 1.123305e-01 0.000000e+00 0.000000e+00
 0.000000e+00 0.000000e+00 8.702087e-01 1.297912e-01 0.000000e+00
 0.000000e+00 0.000000e+00 0.000000e+00 8.383519e-01 1.616481e-01
 0.000000e+00 0.000000e+00 0.000000e+00 0.000000e+00 0.000000e+00
<ENDHMM>
~h "z"
<BEGINHMM>
<NUMSTATES> 5
<STATE> 2
<NUMMIXES> 2
<MIXTURE> 1 5.688322e-01
<MEAN> 39
 -1.949658e+00 -1.173509e+01 3.866792e+01 3.119748e+00 1.291615e+01 3.891243e+01 -1.358815e+01 -2.693229e+00 -1.446584e+01 -1.402805e+01 5.869729e+00 -2.259842e+00 1.212897e+00 -2.540580e+00 -2.667394e-01 3.337645e+00 -1.610569e+00 -1.168678e+00 1.423373e+00 1.588199e+00 2.050767e+00 5.254099e-01 5.849076e-01 -7.999854e-02 5.651032e-01 9.732829e-01 7.162881e-02 -6.056196e-02 -9.025118e-01 3.165246e-01 1.007175e-01 -7.074865e-01 3.802679e-01 3.873848e-01 3.897268e-01 5.596147e-02 2.999096e-01 2.437975e-01 -3.846700e-01
<VARIANCE> 39
 1.903704e+01 1.381824e+01 3.335176e+01 4.730768e+01 3.447797e+01 2.720909e+01 2.838740e+01 6.205358e+01 4.314214e+01 3.306882e+01 3.517038e+01 2.657640e+01 2.150969e+01 9.505322e-01 7.711143e-01 3.724509e+00 1.410039e+00 1.344093e+00 2.792087e+00 2.177974e+00 1.604411e+00 2.231472e+00 1.842960e+00 1.318336e+00 1.681229e+00 1.581773e+00 3.945360e-02 1.008925e-01 2.371228e-01 1.873139e-01 2.651137e-01 2.345490e-01 2.935259e-01 3.244915e-01 5.086755e-01 2.922464e-01 2.579326e-01 2.966509e-01 2.308936e-01
<GCONST> 1.029814e+02
<MIXTURE> 2 4.311681e-01
<MEAN> 39
 1.017612e+01 -9.403431e+00 1.689701e+01 1.036410e+01 1.702083e+01 2.418134e+01 -1.585416e+01 -2.792920e+00 -1.374951e+01 -1.807869e+01 8.690347e+00 -2.476671e+00 -4.869170e+00 -2.155183e+00 -2.007374e-01 4.577277e+00 -2.144794e+00 -1.410397e+00 3.337913e+00 2.122904e-01 -4.549340e-01 6.414187e-01 9.740105e-01 -1.667409e+00 -1.792512e-01 1.882042e+00 -3.763346e-01 -1.101957e-02 5.586023e-01 -2.396425e-01 -1.581582e-01 1.473611e-01 1.866653e-01 4.355753e-01 -4.267915e-02 2.656688e-02 4.750279e-02 -8.886263e-03 7.760762e-02
<VARIANCE> 39
 1.954713e+01 2.321199e+01 6.536505e+01 7.542442e+01 5.932168e+01 9.022579e+01 2.843124e+01 9.593719e+01 2.721312e+01 2.220355e+01 4.206673e+01 1.566371e+01 3.938571e+01 8.022573e-01 5.437988e-01 2.908804e+00 1.362122e+00 1.830554e+00 1.693934e+00 1.725970e+00 8.153495e-01 1.984175e+00 1.316577e+00 1.817870e+00 8.037334e-01 1.210879e+00 3.456242e-02 7.927897e-02 1.730340e-01 7.622644e-02 8.716928e-02 1.757684e-01 2.557329e-01 2.068779e-01 1.515162e-01 2.025378e-01 1.942059e-01 1.024684e-01 8.664909e-02
<GCONST> 9.572095e+01
<STATE> 3
<NUMMIXES> 2
<MIXTURE> 1 9.623468e-01
<MEAN> 39
 -1.217181e+01 -1.398089e+01 4.410131e+01 -1.861666e+00 6.894721e+00 3.838934e+01 -3.852774e+00 8.598704e+00 -5.185126e+00 -9.162849e+00 6.879088e+00 1.655966e+00 2.326766e+00 -1.677094e+00 -1.352056e+00 9.895992e-02 -1.363783e+00 -1.055690e+00 -2.582336e-01 1.023307e+00 1.577774e+00 1.652402e+00 1.849204e+00 8.710350e-01 6.266305e-01 6.758793e-01 3.197653e-01 -2.206847e-01 -4.388312e-01 -1.259914e-01 8.546750e-02 -1.388308e-01 -5.179607e-01 -3.934690e-01 -3.253767e-01 4.080261e-02 1.227507e-01 -6.148436e-02 2.419110e-01
<VARIANCE> 39
 2.484377e+01 2.317806e+01 3.872696e+01 3.238667e+01 2.019721e+01 3.647433e+01 1.552578e+01 3.497538e+01 3.394773e+01 4.500880e+01 4.227765e+01 1.708679e+01 1.741114e+01 8.220871e-01 7.959043e-01 1.810078e+00 1.730826e+00 1.951245e+00 2.278496e+00 1.927665e+00 2.625202e+00 3.192242e+00 1.302330e+00 1.365141e+00 1.636995e+00 1.597413e+00 8.288614e-02 9.837511e-02 2.892506e-01 2.215794e-01 2.911631e-01 3.883997e-01 2.120849e-01 3.033197e-01 5.336797e-01 2.815515e-01 2.370798e-01 2.430639e-01 2.204400e-01
<GCONST> 1.026252e+02
<MIXTURE> 2 3.765309e-02
<MEAN> 39
 5.614203e-01 -1.031646e+00 3.054697e+01 -1.373701e+00 6.131958e+00 2.822702e+01 -6.657142e+00 1.706296e+01 -6.947106e+00 -2.251350e+01 -3.169981e+00 -1.509630e+01 6.024837e+00 -8.830885e-01 -2.972542e-01 -3.645054e-01 2.469069e+00 1.092309e-01 -2.685338e-01 1.293466e+00 4.760260e-01 1.198668e+00 -1.139092e+00 -4.464777e-01 1.320398e+00 -6.936674e-01 3.685875e-02 -3.427455e-01 -2.204951e-01 -7.968996e-02 -1.985071e-01 -2.240202e-01 1.386893e-02 -5.857373e-01 2.292136e-01 6.725489e-01 5.340142e-01 6.394420e-01 -2.778102e-01
<VARIANCE> 39
 1.978190e+01 5.778662e+01 1.230638e+01 4.370176e+00 6.786977e+00 2.357460e+00 1.184228e+01 8.023587e+01 5.244557e+00 3.095677e+01 1.732346e+01 4.337589e+01 4.184568e-01 4.640940e+00 3.922840e-01 5.382555e+00 7.683694e-02 1.987099e+00 5.125330e+00 6.139453e+00 3.174617e+00 1.582641e+00 4.123071e+00 1.059011e+00 7.533904e-01 9.950969e-02 1.986804e-02 1.419556e-01 1.556622e-01 2.619095e-01 1.867460e-01 3.592931e-01 1.798331e-01 4.171865e-01 2.663432e-01 5.418630e-01 1.195160e-01 2.136215e-01 6.996316e-02
<GCONST> 8.489720e+01
<STATE> 4
<NUMMIXES> 2
<MIXTURE> 1 5.586175e-01
<MEAN> 39
 -1.643268e+01 -2.321524e+01 4.159315e+01 -9.637250e+00 4.200218e+00 3.690632e+01 -5.306791e+00 9.027363e+00 -5.394140e+00 -1.565225e+00 1.164769e+01 4.078414e+00 8.290367e+00 1.107020e+00 -2.728808e-01 -8.159206e-01 -4.659902e-02 1.460630e-01 -2.512126e-01 -5.608532e-01 -1.011369e+00 -7.204374e-01 5.652907e-02 -4.385296e-01 -3.960813e-01 3.606728e-01 7.047137e-01 5.494049e-01 -2.738844e-01 4.707630e-01 1.011838e-01 -2.533813e-01 -1.201397e-01 -3.594718e-01 -1.300993e-01 -3.971288e-01 -4.325933e-01 -2.574281e-01 -2.889727e-01
<VARIANCE> 39
 1.904566e+01 1.888590e+01 1.451914e+01 2.915913e+01 2.482614e+01 3.371152e+01 1.657560e+01 1.776815e+01 2.925365e+01 2.426884e+01 2.080650e+01 1.938179e+01 1.216358e+01 2.965613e+00 2.744108e+00 1.517247e+00 2.857316e+00 1.925260e+00 3.205319e+00 1.441157e+00 1.666847e+00 2.561674e+00 1.762766e+00 1.826068e+00 1.688461e+00 1.465700e+00 1.467206e-01 2.134312e-01 3.822275e-01 2.844645e-01 3.924243e-01 8.006136e-01 2.672544e-01 2.643796e-01 5.335259e-01 3.275654e-01 2.494099e-01 2.753877e-01 2.070794e-01
<GCONST> 1.048770e+02
<MIXTURE> 2 4.413821e-01
<MEAN> 39
 3.102118e+00 -1.531659e+01 2.759532e+01 -1.563293e+00 5.570743e+00 2.751238e+01 -1.057314e+01 1.329822e+00 -8.157643e+00 -9.473962e+00 3.326790e+00 -6.730901e-01 5.269790e+00 4.465998e+00 1.379147e+00 -5.143649e+00 2.042545e+00 4.591298e-01 -4.031584e+00 -1.622689e+00 -1.013904e-01 -3.942164e-01 -2.921592e+00 -2.519124e-01 5.110960e-02 -1.279839e+00 -9.592247e-02 -2.623556e-01 -6.158855e-01 1.255060e-01 3.286634e-01 -5.172635e-01 -1.367146e-01 8.230348e-01 -1.462086e-01 -5.554520e-01 9.329640e-01 3.145347e-01 -3.523529e-01
<VARIANCE> 39
 6.147843e+01 1.270392e+01 9.157305e+01 2.396584e+01 1.171682e+01 6.059748e+01 1.582482e+01 1.868912e+01 2.283342e+01 3.984037e+01 2.143798e+01 1.054710e+01 1.253129e+01 1.026751e+00 1.242391e+00 2.994655e+00 1.048528e+00 1.142911e+00 1.827714e+00 9.332288e-01 3.193124e+00 1.374514e+00 2.151961e+00 4.057367e+00 1.478516e+00 1.201350e+00 3.685185e-01 1.666183e-01 5.643157e-01 1.837261e-01 1.221796e-01 3.092405e-01 1.871632e-01 2.075308e-01 3.229439e-01 2.806816e-01 4.059930e-01 2.022707e-01 1.222614e-01
<GCONST> 1.007415e+02
<TRANSP> 5
 0.000000e+00 1.000000e+00 0.000000e+00 0.000000e+00 0.000000e+00
 0.000000e+00 8.564246e-01 1.435754e-01 0.000000e+00 0.000000e+00
 0.000000e+00 0.000000e+00 7.891432e-01 2.108569e-01 0.000000e+00
 0.000000e+00 0.000000e+00 0.000000e+00 9.067347e-01 9.326530e-02
 0.000000e+00 0.000000e+00 0.000000e+00 0.000000e+00 0.000000e+00
<ENDHMM>
~h "aa"
<BEGINHMM>
<NUMSTATES> 7
<STATE> 2
<NUMMIXES> 2
<MIXTURE> 1 3.900438e-01
<MEAN> 39
 2.253025e+01 -1.292368e+01 -1.414272e+01 7.405819e+00 1.350071e+01 -9.980963e+00 -2.022748e+01 1.617545e+01 -6.393129e+00 -1.910215e+01 1.605230e+01 7.246809e+00 1.339820e-01 6.783348e-02 -8.138131e-02 -1.032488e+00 -8.609387e-01 -6.764942e-01 -6.143011e-01 5.333918e-01 5.556746e-01 1.081893e+00 8.634939e-01 -4.067060e-01 2.588049e-01 5.789139e-01 -1.516044e-01 6.869787e-02 1.917722e-01 7.879628e-02 -9.430816e-02 1.902363e-01 2.046414e-01 -1.617592e-01 1.298496e-01 2.001398e-01 -2.840808e-01 -1.669549e-01 -2.751452e-02
<VARIANCE> 39
 7.614290e+00 8.276052e+00 2.072704e+01 2.083801e+01 2.163708e+01 1.652856e+01 3.877389e+01 5.042766e+01 2.200645e+01 2.848890e+01 4.235938e+01 1.550660e+01 2.036877e+01 6.301144e-01 3.764372e-01 6.871020e-01 6.885472e-01 5.069975e-01 6.030584e-01 1.401319e+00 1.904829e+00 7.461018e-01 1.018184e+00 1.680366e+00 8.310115e-01 5.515816e-01 9.916189e-02 6.725648e-02 1.013190e-01 8.726510e-02 7.839400e-02 1.085126e-01 1.765957e-01 2.349782e-01 9.750621e-02 1.768190e-01 1.966933e-01 1.053737e-01 7.931110e-02
<GCONST> 8.020371e+01
<MIXTURE> 2 6.099569e-01
<MEAN> 39
 1.727122e+01 -7.201728e+00 -9.527905e+00 5.314167e+00 4.188508e+00 -7.952569e+00 -1.058079e+01 1.621326e+01 -1.296706e+00 -1.247083e+01 7.922496e+00 2.737083e+00 5.928127e-01 1.495761e+00 -7.670436e-01 -2.062578e+00 -3.455613e-01 1.211318e-01 -2.146552e+00 -1.084680e+00 1.510654e+00 2.122109e-01 -1.002744e+00 8.023347e-01 7.002841e-01 -1.752263e-01 -4.807482e-01 -6.894363e-02 2.339968e-01 -9.302206e-02 -2.174816e-02 4.299979e-01 2.882561e-01 -1.181823e-01 2.161291e-01 3.874170e-01 -1.779458e-01 -1.270946e-01 1.216719e-01
<VARIANCE> 39
 1.220096e+02 3.329295e+01 4.265995e+01 4.545663e+01 7.898811e+01 9.336243e+01 7.020280e+01 9.322977e+01 1.022678e+02 6.958005e+01 7.635461e+01 2.154863e+01 2.154079e+01 3.253860e+00 1.644655e+00 3.080294e+00 2.262433e+00 2.581955e+00 3.910229e+00 3.027189e+00 3.631619e+00 2.289845e+00 2.881208e+00 2.608903e+00 1.622365e+00 1.277538e+00 4.158835e-01 3.129432e-01 4.634940e-01 4.222999e-01 3.773598e-01 4.732095e-01 4.079980e-01 5.726176e-01 3.853546e-01 4.744893e-01 4.434438e-01 2.384222e-01 2.041757e-01
<GCONST> 1.241157e+02
<STATE> 3
<NUMMIXES> 2
<MIXTURE> 1 1.676879e-02
<MEAN> 39
 2.170074e+01 -7.442911e+00 -1.205490e+01 6.554622e+00 -6.392446e+00 -2.337200e+01 -2.299280e+00 3.082254e+01 9.945998e+00 -1.441561e+01 -9.483606e-01 5.656922e+00 -3.975203e+00 1.000587e-02 -7.553817e-01 -4.586788e-01 7.441610e-02 1.802129e-01 3.215564e-01 4.379165e-01 -3.695036e-02 -2.437969e-01 8.650590e-02 -9.843975e-02 -4.456510e-01 1.972930e-01 1.159151e-01 2.221504e-02 -4.669948e-03 9.390903e-02 1.176170e-01 -6.261513e-03 -1.452202e-01 1.469743e-02 -1.303464e-01 -8.524728e-02 1.351819e-01 -2.047637e-02 -5.955388e-02
<VARIANCE> 39
 9.595695e+00 8.266015e+00 6.043416e+00 5.043488e+00 3.278753e+00 6.792579e+00 9.248511e+00 1.153924e+01 9.248016e+00 6.426716e+00 8.175952e+00 4.220889e+00 2.163599e+00 5.424995e-01 2.613855e-01 2.608344e-01 3.266394e-01 2.081889e-01 2.342809e-01 2.549272e-01 4.624724e-01 1.436284e-01 2.543367e-01 3.616999e-01 1.979470e-01 1.042178e-01 1.005327e-01 3.727124e-02 4.883230e-02 6.647141e-02 4.239243e-02 4.345641e-02 6.083316e-02 8.017497e-02 3.696648e-02 5.212007e-02 7.274366e-02 4.437108e-02 2.498139e-02
<GCONST> 3.924232e+01
<MIXTURE> 2 9.832309e-01
<MEAN> 39
 2.203172e+01 -1.075315e+01 -1.609534e+01 3.195623e+00 6.625269e+00 -1.271290e+01 -1.461827e+01 2.177864e+01 3.165590e+00 -1.349511e+01 8.537828e+00 3.940291e+00 1.578867e+00 -9.311256e-02 -1.542724e-01 -3.769284e-01 -1.806246e-01 -4.320144e-01 -3.682021e-01 4.570889e-01 3.594056e-01 7.802848e-01 5.599957e-01 -5.089922e-01 -1.223541e-01 4.980475e-02 -5.510066e-02 6.915906e-02 1.397041e-01 6.988934e-02 1.319461e-02 1.295459e-01 7.871238e-02 -1.118850e-01 -9.001087e-02 2.816572e-03 -3.635403e-02 -4.361029e-02 -2.473231e-02
<VARIANCE> 39
 1.150643e+01 1.500687e+01 2.673540e+01 2.153636e+01 3.764951e+01 4.839228e+01 4.184164e+01 7.291487e+01 5.761535e+01 4.005631e+01 6.888976e+01 2.258597e+01 1.939201e+01 8.651613e-01 6.402888e-01 8.701195e-01 7.627322e-01 8.535572e-01 8.786378e-01 1.597883e+00 2.449655e+00 1.061795e+00 1.376679e+00 2.040100e+00 9.691303e-01 6.164126e-01 1.672977e-01 9.985779e-02 1.580990e-01 1.314220e-01 1.367481e-01 1.691218e-01 2.603823e-01 3.895436e-01 1.484342e-01 2.357035e-01 3.173134e-01 1.627148e-01 1.083509e-01
<GCONST> 9.486786e+01
<STATE> 4
<NUMMIXES> 2
<MIXTURE> 1 1.864406e-01
<MEAN> 39
 1.397331e+01 -3.971808e+00 -1.182312e+01 3.401467e-01 -3.844804e+00 -6.141421e+00 1.544607e+00 2.058072e+01 9.794525e+00 6.573199e-01 6.561574e+00 6.681335e+00 7.665159e+00 -2.281712e-01 2.200878e-01 1.748997e-01 -9.435476e-02 -1.189059e-02 3.686828e-01 5.419034e-01 2.298701e-01 9.937886e-02 1.609662e-01 -3.356536e-02 -1.129627e-01 -6.911977e-02 9.196365e-02 -7.554163e-02 -6.082926e-02 4.444374e-02 1.290658e-01 -1.526394e-02 -1.463030e-01 2.692565e-02 -1.146012e-01 -1.453831e-01 9.395804e-02 -1.814868e-02 -7.576772e-02
<VARIANCE> 39
 3.869098e+01 5.728790e+01 2.879235e+01 3.270536e+01 6.796510e+01 6.457510e+01 1.118406e+02 6.727584e+01 3.438258e+01 4.426888e+01 4.570857e+01 5.117787e+01 2.648005e+01 1.017949e+00 1.162297e+00 1.420238e+00 1.453462e+00 1.924762e+00 1.977462e+00 2.999269e+00 1.988488e+00 1.498295e+00 1.932877e+00 1.655519e+00 1.346842e+00 1.092540e+00 1.298946e-01 1.255419e-01 1.838343e-01 2.032917e-01 2.249699e-01 2.640875e-01 3.400330e-01 3.767597e-01 2.438833e-01 2.969084e-01 2.882365e-01 2.372224e-01 1.691257e-01
<GCONST> 1.085058e+02
<MIXTURE> 2 8.135628e-01
<MEAN> 39
 2.285623e+01 -1.162473e+01 -1.881506e+01 4.373971e+00 8.935943e-01 -1.808952e+01 -9.211526e+00 2.397176e+01 9.950081e+00 -9.509814e+00 1.394546e+00 2.258002e+00 4.590037e-01 -1.376799e-02 -1.193254e-01 -5.973180e-02 -3.290254e-02 -5.787191e-02 7.072436e-02 1.959388e-01 1.815921e-02 -3.799285e-02 9.426346e-02 1.654447e-02 -7.880162e-02 -2.764595e-03 1.171568e-02 3.442485e-02 7.187151e-02 1.030360e-02 4.317214e-02 4.799605e-02 -5.695152e-02 1.691426e-02 -1.176868e-01 -7.226785e-02 1.197807e-01 -1.822998e-02 -1.534190e-02
<VARIANCE> 39
 1.071076e+01 1.034753e+01 1.414351e+01 1.056331e+01 2.221379e+01 3.110362e+01 2.265405e+01 3.358321e+01 3.212328e+01 1.892349e+01 3.007363e+01 9.939688e+00 1.092919e+01 8.962501e-01 4.439407e-01 4.800465e-01 4.693910e-01 4.253348e-01 4.753951e-01 6.321599e-01 1.074839e+00 6.825823e-01 5.934764e-01 1.058436e+00 4.264328e-01 2.913605e-01 1.309504e-01 5.713349e-02 6.684736e-02 7.109202e-02 5.100555e-02 5.665516e-02 9.163971e-02 1.429287e-01 6.041804e-02 8.845625e-02 1.370703e-01 5.909804e-02 4.279589e-02
<GCONST> 6.811162e+01
<STATE> 5
<NUMMIXES> 2
<MIXTURE> 1 5.382525e-01
<MEAN> 39
 2.395372e+01 -1.351667e+01 -1.797329e+01 3.956278e+00 5.671636e+00 -1.407525e+01 -1.213034e+01 2.427817e+01 1.444036e+00 -1.310686e+01 1.039750e+01 1.888712e+00 1.058059e-01 -2.267557e-02 4.962155e-02 2.783661e-01 -4.296300e-02 4.063437e-01 4.160102e-01 -3.420785e-01 -2.754944e-01 -7.202125e-01 -1.903313e-01 6.709687e-01 5.751379e-03 4.075554e-02 -2.031275e-01 1.749802e-01 1.477758e-01 -2.860843e-02 -4.665848e-02 1.169293e-01 9.407769e-02 -3.126394e-01 5.488282e-02 1.436576e-01 -2.045956e-01 6.625053e-02 6.287172e-02
<VARIANCE> 39
 5.939229e+00 8.046803e+00 1.551925e+01 1.240748e+01 2.976837e+01 2.310841e+01 3.030600e+01 4.903558e+01 4.554765e+01 2.630354e+01 4.713298e+01 2.103129e+01 1.448510e+01 1.010835e+00 5.279219e-01 6.053721e-01 5.786806e-01 7.071961e-01 5.833570e-01 1.088743e+00 2.147048e+00 9.641469e-01 9.340522e-01 1.892361e+00 8.044466e-01 4.228884e-01 9.064340e-02 5.718033e-02 7.880829e-02 7.919326e-02 6.096210e-02 6.695724e-02 1.145166e-01 1.680748e-01 8.396259e-02 9.863213e-02 1.648726e-01 9.051716e-02 5.625492e-02
<GCONST> 7.737718e+01
<MIXTURE> 2 4.617467e-01
<MEAN> 39
 2.008820e+01 -1.138927e+01 -1.405049e+01 3.233135e+00 9.292192e+00 -1.081120e+01 -1.572424e+01 2.052396e+01 -5.995263e-01 -1.349304e+01 1.170211e+01 3.826368e+00 1.946447e+00 -7.508166e-03 -2.196579e-02 3.750954e-01 2.754867e-01 7.264178e-01 4.179042e-01 -5.979222e-01 -3.374158e-01 -1.023605e+00 -3.741343e-01 9.744102e-01 -6.925228e-02 -2.732303e-01 1.323614e-01 -4.517638e-02 -3.036683e-02 7.755578e-02 5.443985e-02 -1.584654e-02 -7.059016e-02 9.494280e-02 -7.140753e-02 -1.054545e-01 1.185255e-01 -5.466281e-02 -9.794477e-02
<VARIANCE> 39
 1.308996e+01 1.253148e+01 2.554786e+01 2.897516e+01 5.303127e+01 3.210777e+01 6.983977e+01 8.374370e+01 8.068580e+01 4.657913e+01 9.555177e+01 3.342554e+01 2.543523e+01 7.469120e-01 4.808176e-01 8.304447e-01 9.378660e-01 1.066776e+00 9.602014e-01 1.901930e+00 2.994777e+00 1.298388e+00 1.451798e+00 2.260648e+00 1.127241e+00 8.310778e-01 1.689055e-01 8.936867e-02 1.272406e-01 1.339680e-01 1.677474e-01 1.589228e-01 3.348427e-01 5.262588e-01 2.239033e-01 2.752493e-01 4.324491e-01 1.982117e-01 1.160610e-01
<GCONST> 9.988625e+01
<STATE> 6
<NUMMIXES> 2
<MIXTURE> 1 4.981093e-01
<MEAN> 39
 2.177289e+01 -9.043138e+00 -1.213658e+01 3.204590e+00 2.891836e+00 -1.112800e+01 -8.557052e+00 2.259253e+01 -8.386898e-02 -1.286910e+01 9.539990e+00 7.131378e-01 -1.195460e+00 -1.611354e-01 6.066101e-01 4.879323e-01 1.721984e-01 8.612081e-02 5.680572e-01 2.111015e-01 -7.003956e-01 -3.602535e-01 5.184187e-02 -4.574908e-02 2.898520e-02 -1.168254e-01 -7.625548e-02 1.025845e-01 4.600180e-02 4.222972e-02 2.372431e-02 8.530452e-02 6.683573e-02 -7.820516e-02 8.655278e-02 6.978983e-02 -1.488187e-01 1.300357e-02 2.707287e-02
<VARIANCE> 39
 7.070601e+00 1.931030e+01 2.489342e+01 2.610352e+01 5.699801e+01 5.458211e+01 6.067843e+01 7.576867e+01 8.710822e+01 4.925111e+01 8.389975e+01 2.871765e+01 2.659394e+01 6.455517e-01 6.944001e-01 7.259338e-01 7.877167e-01 8.682474e-01 1.073555e+00 1.482751e+00 1.936692e+00 9.479002e-01 1.007646e+00 1.731892e+00 8.309558e-01 5.571629e-01 9.589820e-02 7.236379e-02 1.037401e-01 1.120825e-01 9.575336e-02 1.358627e-01 1.772877e-01 2.308952e-01 1.344602e-01 1.577813e-01 2.289249e-01 1.275084e-01 8.092361e-02
<GCONST> 9.147093e+01
<MIXTURE> 2 5.018902e-01
<MEAN> 39
 1.264898e+00 -6.332518e-01 -5.105912e+00 2.061479e+00 3.029046e+00 2.068506e+00 -7.303165e-01 1.155899e+01 1.313904e-01 -4.967200e+00 4.414128e+00 2.602857e+00 2.942748e+00 -1.497975e+00 7.664838e-01 1.012153e+00 5.366994e-02 -2.595191e-02 1.004321e+00 5.562636e-01 -8.052430e-01 2.442751e-01 5.350119e-01 -8.488809e-01 -4.628842e-02 3.127824e-01 -8.113623e-02 -7.555182e-02 5.253772e-02 -1.640223e-02 -2.461890e-02 -9.876783e-03 4.436232e-03 4.893582e-02 3.546327e-04 1.063638e-02 2.405282e-02 -3.335738e-03 1.932111e-02
<VARIANCE> 39
 3.215048e+02 5.381493e+01 6.112536e+01 4.718828e+01 6.509830e+01 1.050030e+02 9.537099e+01 9.160114e+01 7.146883e+01 5.738836e+01 5.910667e+01 3.520737e+01 3.404051e+01 2.532193e+00 2.500833e+00 2.189778e+00 1.511378e+00 1.755842e+00 3.438859e+00 3.127733e+00 3.013852e+00 2.313902e+00 2.189895e+00 2.934506e+00 1.496863e+00 1.392128e+00 2.151275e-01 1.881368e-01 2.370721e-01 1.859977e-01 2.340711e-01 3.283122e-01 3.643061e-01 3.570993e-01 3.578838e-01 3.261620e-01 3.914936e-01 2.154852e-01 2.088195e-01
<GCONST> 1.201921e+02
<TRANSP> 7
 0.000000e+00 1.000000e+00 0.000000e+00 0.000000e+00 0.000000e+00 0.000000e+00 0.000000e+00
 0.000000e+00 8.106114e-01 1.893886e-01 0.000000e+00 0.000000e+00 0.000000e+00 0.000000e+00
 0.000000e+00 0.000000e+00 8.006325e-01 1.993675e-01 0.000000e+00 0.000000e+00 0.000000e+00
 0.000000e+00 0.000000e+00 0.000000e+00 8.735587e-01 1.264413e-01 0.000000e+00 0.000000e+00
 0.000000e+00 0.000000e+00 0.000000e+00 0.000000e+00 8.601686e-01 1.398314e-01 0.000000e+00
 0.000000e+00 0.000000e+00 0.000000e+00 0.000000e+00 0.000000e+00 8.552462e-01 1.447537e-01
 0.000000e+00 0.000000e+00 0.000000e+00 0.000000e+00 0.000000e+00 0.000000e+00 0.000000e+00
<ENDHMM>
~h "ax"
<BEGINHMM>
<NUMSTATES> 7
<STATE> 2
<NUMMIXES> 2
<MIXTURE> 1 4.406918e-01
<MEAN> 39
 -7.411893e+00 -3.600947e+00 2.438078e+00 2.719565e+00 -3.380595e+00 1.796415e+00 1.764976e+00 1.496657e+01 4.372752e+00 -2.777594e+00 1.601587e+00 2.185078e+00 6.266783e+00 3.887921e+00 5.238342e-01 6.695066e-02 -5.532652e-02 -1.391330e+00 -1.596321e+00 1.647003e-01 2.193781e+00 2.972898e-01 -1.396152e+00 4.183168e-02 -4.791479e-01 -3.442454e-01 2.057791e-01 -2.404886e-01 -3.036213e-01 -5.932226e-01 -7.128708e-01 -5.887155e-01 -3.514917e-01 7.172550e-02 -3.168719e-01 -3.908692e-01 1.653358e-01 -4.542642e-01 -6.048636e-01
<VARIANCE> 39
 9.170936e+01 9.541399e+01 3.561973e+01 1.928946e+01 4.071432e+01 3.976511e+01 4.848033e+01 3.604349e+01 2.343925e+01 3.705490e+01 2.027022e+01 2.131678e+01 1.765750e+01 1.735440e+00 2.971330e+00 2.528063e+00 5.868433e+00 7.224830e+00 5.498121e+00 3.548350e+00 3.987222e+00 3.184744e+00 2.880945e+00 2.262260e+00 3.617777e+00 4.654038e+00 1.738532e-01 3.457692e-01 3.075764e-01 5.352290e-01 7.179694e-01 5.598484e-01 4.036877e-01 5.093304e-01 4.298807e-01 4.093079e-01 3.458253e-01 4.264888e-01 5.744165e-01
<GCONST> 1.230591e+02
<MIXTURE> 2 5.593078e-01
<MEAN> 39
 1.318655e+01 -4.534382e-01 2.019564e-01 3.039031e-01 -1.195152e+01 -1.147488e+01 -2.770741e+00 2.391019e+01 5.084120e+00 -9.860434e+00 3.284758e+00 -3.310199e+00 -9.306644e-01 2.465370e+00 -1.442100e-01 -4.746569e-01 1.763027e+00 8.204266e-01 -2.316955e+00 -1.680379e+00 1.493574e-01 6.551756e-01 -3.405781e-01 -4.591776e-01 3.265911e-02 -7.233465e-01 -4.077287e-01 -2.044016e-01 -2.452900e-01 4.334834e-01 6.787906e-01 4.280467e-02 -2.790948e-01 -4.193060e-01 1.346653e-01 2.759153e-01 -6.980977e-02 4.366913e-01 1.789775e-01
<VARIANCE> 39
 3.740673e+01 1.701932e+01 1.533516e+01 8.260109e+01 7.845845e+01 1.309160e+02 9.972635e+01 5.530252e+01 4.744518e+01 5.934821e+01 3.169340e+01 4.689278e+01 1.635503e+01 1.938818e+00 8.835674e-01 2.196703e+00 7.303129e+00 8.662429e+00 5.474117e+00 3.300055e+00 7.798795e+00 2.900852e+00 5.482478e+00 2.839518e+00 2.867996e+00 1.457112e+00 3.245905e-01 1.741546e-01 3.005445e-01 1.593164e+00 1.412433e+00 8.780501e-01 4.553828e-01 1.397113e+00 5.508029e-01 1.074702e+00 6.364443e-01 3.505466e-01 3.002436e-01
<GCONST> 1.297582e+02
<STATE> 3
<NUMMIXES> 2
<MIXTURE> 1 9.351840e-01
<MEAN> 39
 2.278629e+01 -4.902050e+00 -8.261789e+00 9.987837e+00 -5.144843e-01 -2.162796e+01 -1.493822e+01 2.255192e+01 8.647496e+00 -1.235768e+01 1.273279e+00 7.764887e-01 -3.658551e+00 7.517679e-01 -6.679533e-01 -1.640329e+00 -7.491915e-02 4.682387e-01 -1.788031e+00 -1.346253e+00 6.487812e-01 1.085036e+00 5.157288e-03 3.073695e-01 8.584918e-01 -5.236046e-01 -4.381585e-01 1.170843e-01 2.764318e-01 -4.041413e-01 -2.819084e-01 5.428641e-01 4.821056e-01 -1.070162e-01 7.334676e-02 3.055619e-01 -8.805354e-02 -1.479109e-01 2.052341e-01
<VARIANCE> 39
 9.163691e+00 1.337467e+01 2.495882e+01 8.112217e+00 2.820244e+01 5.383815e+01 3.773438e+01 2.371466e+01 3.169763e+01 2.716838e+01 2.545824e+01 1.237111e+01 1.493114e+01 1.224799e+00 5.214741e-01 1.042582e+00 8.505535e-01 1.377943e+00 2.080266e+00 1.870424e+00 2.082916e+00 6.680041e-01 1.783249e+00 1.309234e+00 1.069476e+00 7.296074e-01 1.880040e-01 8.491877e-02 1.539599e-01 2.786708e-01 2.396046e-01 2.525391e-01 2.784812e-01 4.550777e-01 1.502282e-01 2.987976e-01 2.764352e-01 1.799751e-01 1.389784e-01
<GCONST> 9.293898e+01
<MIXTURE> 2 6.481602e-02
<MEAN> 39
 2.215728e+01 -9.141081e+00 -1.282438e+01 7.482545e+00 7.413999e+00 -1.754241e+01 -1.832495e+01 1.934499e+01 -3.350435e+00 -2.310831e+01 6.778501e+00 6.160665e+00 -2.108154e+00 2.311903e-01 4.324800e-01 -9.213042e-01 -1.997616e-01 -1.337770e+00 -1.235192e+00 9.989777e-01 3.432765e-01 1.910247e+00 1.533561e+00 -1.425498e+00 2.437755e-01 1.987382e-01 5.348187e-02 4.517484e-02 4.783076e-02 1.121054e-02 5.000148e-02 2.338593e-02 -2.324112e-01 1.149075e-01 1.959658e-02 -1.839429e-02 2.035249e-01 -9.368577e-02 -1.337787e-01
<VARIANCE> 39
 8.283507e+00 3.212874e+00 1.211991e+01 2.105175e+00 2.023652e+01 1.586363e+01 7.459920e+00 2.250555e+01 4.323585e+01 1.793360e+01 2.043428e+01 5.145741e+00 3.155555e+00 3.229063e-01 4.817002e-02 2.081522e-01 5.303949e-02 5.397143e-01 2.165425e-01 8.055419e-01 1.179778e+00 2.378841e-01 4.879959e-01 6.564813e-01 3.080598e-01 4.654135e-01 3.068689e-02 1.633768e-02 3.839182e-02 1.207296e-02 8.845831e-02 3.326331e-02 3.997655e-02 1.005428e-01 6.338473e-02 2.111895e-02 9.687956e-02 2.738133e-02 3.988702e-02
<GCONST> 4.377676e+01
<STATE> 4
<NUMMIXES> 2
<MIXTURE> 1 9.124001e-01
<MEAN> 39
 2.278798e+01 -6.411184e+00 -1.307210e+01 7.876450e+00 -1.428142e+00 -2.816676e+01 -1.981907e+01 2.163956e+01 1.557435e+01 -7.706299e+00 -5.613481e-01 3.407594e+00 -1.827825e+00 -2.946140e-02 -1.008449e-01 -2.577737e-01 -2.622120e-01 -3.431825e-02 3.462161e-02 3.767778e-02 -3.123542e-03 3.914157e-01 3.853647e-01 -1.044546e-01 -7.184929e-02 5.353791e-02 -1.389360e-02 5.712672e-02 6.503221e-02 6.445218e-03 3.233013e-02 1.633463e-01 8.296518e-02 1.988254e-03 -1.222016e-01 -7.652063e-02 9.077297e-03 -5.556161e-02 -3.569602e-03
<VARIANCE> 39
 9.986975e+00 6.410707e+00 1.608983e+01 8.432788e+00 1.045062e+01 1.872730e+01 1.939253e+01 1.710841e+01 1.375661e+01 1.470698e+01 1.832258e+01 4.820302e+00 8.207024e+00 1.032631e+00 3.180042e-01 5.120761e-01 5.173810e-01 5.829393e-01 8.816937e-01 8.250341e-01 1.345084e+00 6.554142e-01 9.661826e-01 8.895707e-01 3.934501e-01 3.740125e-01 1.513541e-01 4.443323e-02 6.779471e-02 5.965767e-02 6.153617e-02 5.557200e-02 9.935472e-02 1.632835e-01 4.506128e-02 1.204019e-01 1.168157e-01 4.316986e-02 4.426654e-02
<GCONST> 6.429446e+01
<MIXTURE> 2 8.760004e-02
<MEAN> 39
 2.274062e+01 -6.547109e+00 -1.161475e+01 7.773461e+00 -5.354177e-01 -2.264209e+01 -1.256182e+01 2.094218e+01 9.301968e+00 -9.023684e+00 4.070719e+00 4.942123e+00 -6.419284e+00 -3.137721e-02 -7.518356e-02 -9.655829e-01 -7.240913e-01 -6.846653e-03 -8.800839e-01 -5.411081e-01 2.085170e-01 1.246805e+00 5.768805e-01 -2.788603e-01 5.894926e-01 2.073535e-01 6.307137e-02 -3.319319e-02 1.721082e-01 -3.271349e-02 -4.032534e-02 3.163520e-01 5.237765e-02 2.547177e-01 -2.406899e-01 -2.012396e-01 1.530171e-01 -4.346869e-01 8.434522e-02
<VARIANCE> 39
 7.373919e+00 2.965301e+00 8.432068e+00 1.877110e+00 7.044219e+00 1.442918e+01 9.857010e+00 9.591609e+00 9.736391e+00 7.110223e+00 5.786618e+00 1.188017e+00 1.170659e+00 3.768754e-01 3.203070e-01 1.177506e-01 1.258594e-01 2.366449e-01 3.106785e-01 3.191556e-01 8.435715e-01 3.035489e-01 2.564073e-01 4.212347e-01 5.226389e-01 1.932246e-01 4.718164e-02 3.456425e-02 4.251856e-02 1.802061e-02 2.810551e-02 7.166912e-02 4.807288e-02 8.258191e-02 1.934688e-02 6.530614e-02 6.777931e-02 5.403728e-02 4.518889e-02
<GCONST> 3.634864e+01
<STATE> 5
<NUMMIXES> 2
<MIXTURE> 1 8.039174e-01
<MEAN> 39
 2.397840e+01 -5.154325e+00 -1.373293e+01 4.924727e+00 -4.724853e-01 -2.205470e+01 -1.482986e+01 2.436403e+01 1.288605e+01 -9.008188e+00 4.411752e+00 5.077956e+00 -5.711934e+00 -6.879767e-02 3.829420e-01 3.164335e-01 2.744426e-02 -1.053309e-02 2.149992e-01 1.604756e-01 -1.966057e-01 -2.437055e-01 -2.319551e-02 8.975400e-02 2.012012e-01 -3.858372e-02 -1.362632e-01 7.644794e-02 1.616433e-01 5.620037e-02 4.506195e-03 1.025979e-01 1.242700e-01 -1.964334e-01 -7.853410e-02 7.705010e-02 -1.116738e-01 -4.086273e-02 1.231853e-02
<VARIANCE> 39
 9.199290e+00 1.243280e+01 2.155710e+01 9.900562e+00 1.148733e+01 1.424312e+01 1.669524e+01 2.624284e+01 1.342367e+01 2.034258e+01 2.448482e+01 2.138130e+01 1.638470e+01 9.404928e-01 3.594631e-01 7.827672e-01 7.441441e-01 6.767172e-01 8.623407e-01 8.291816e-01 1.713888e+00 7.392505e-01 1.036716e+00 1.096508e+00 6.808771e-01 3.685515e-01 1.210228e-01 4.961976e-02 8.150931e-02 8.791272e-02 9.385386e-02 1.137825e-01 1.110710e-01 2.047848e-01 7.375941e-02 1.426052e-01 1.519586e-01 1.100045e-01 5.918770e-02
<GCONST> 7.440858e+01
<MIXTURE> 2 1.960824e-01
<MEAN> 39
 2.023060e+01 -4.592363e+00 -1.226310e+01 2.799292e+00 -3.277227e+00 -2.112631e+01 -1.061561e+01 2.091166e+01 1.301624e+01 -6.590542e+00 1.921190e+00 6.276469e+00 -5.393090e+00 2.084969e-01 4.018890e-01 1.065114e-01 -1.626075e-01 -1.253339e-02 7.145853e-02 -6.726836e-02 3.177156e-01 -2.701277e-01 -4.245577e-01 4.399907e-01 4.177232e-01 -2.183519e-01 4.000872e-01 -5.971115e-02 -1.358093e-01 2.186194e-01 2.672478e-01 -9.981956e-02 -3.499601e-01 4.336402e-01 -9.044752e-02 -3.717392e-01 3.506433e-01 3.065584e-02 -1.385207e-01
<VARIANCE> 39
 6.106203e+00 3.353076e+00 7.026169e+00 6.237370e+00 5.294410e+00 5.407133e+00 6.547042e+00 8.520541e+00 5.756512e+00 9.318949e+00 8.450623e+00 6.602216e+00 3.089411e+00 7.059709e-01 2.668064e-01 6.172184e-01 4.274425e-01 4.161886e-01 4.563901e-01 6.937399e-01 9.403605e-01 4.258897e-01 6.242349e-01 6.670520e-01 2.892326e-01 2.074908e-01 7.221405e-02 3.528500e-02 6.394282e-02 6.735662e-02 3.702952e-02 4.269652e-02 6.321339e-02 7.600132e-02 4.663872e-02 5.212981e-02 7.450184e-02 5.330621e-02 3.198207e-02
<GCONST> 4.715308e+01
<STATE> 6
<NUMMIXES> 2
<MIXTURE> 1 5.933369e-01
<MEAN> 39
 1.863040e+01 -4.130915e-02 -3.101489e+00 9.688943e+00 -3.241134e+00 -2.393397e+01 -1.402348e+01 2.477553e+01 1.187336e+01 -1.035130e+01 -3.972486e-02 2.451838e+00 -3.531916e-01 -5.838004e-01 5.344843e-01 6.549171e-01 -9.294351e-02 2.589030e-01 1.440778e+00 8.910283e-01 -4.773531e-01 -3.751371e-01 2.365365e-01 -2.048455e-01 -2.968916e-01 6.891177e-02 -9.980621e-02 -1.269104e-02 6.212392e-02 6.493458e-03 1.181284e-02 1.601382e-01 1.199664e-01 -4.619027e-02 -6.993291e-02 -1.164231e-02 9.902405e-03 -9.598923e-03 -3.347252e-02
<VARIANCE> 39
 3.577274e+01 3.671083e+01 6.364143e+01 3.282450e+01 7.929156e+01 2.276530e+02 5.734697e+01 8.881318e+01 6.943301e+01 6.256140e+01 3.318096e+01 2.291097e+01 2.145890e+01 2.259135e+00 2.005764e+00 1.589857e+00 1.219444e+00 1.189303e+00 2.773234e+00 1.378235e+00 2.697197e+00 1.840452e+00 2.310884e+00 1.995212e+00 8.287563e-01 6.882510e-01 2.983413e-01 2.828899e-01 1.608171e-01 1.328790e-01 1.711002e-01 2.920080e-01 2.009783e-01 3.971071e-01 1.559500e-01 2.405711e-01 2.765742e-01 1.527707e-01 1.221938e-01
<GCONST> 1.087794e+02
<MIXTURE> 2 4.066633e-01
<MEAN> 39
 1.914532e+01 2.402214e+00 -8.887815e-01 1.414675e+01 4.363626e+00 -1.488133e+01 -8.727761e+00 2.160474e+01 3.538007e+00 -1.395689e+01 2.977400e+00 2.828244e+00 -8.893869e+00 -6.813737e-01 3.318524e-01 1.127521e+00 1.761785e+00 1.528195e+00 1.257644e+00 7.244105e-01 -2.429543e-01 -7.158559e-01 -2.739732e-01 -5.679865e-01 -1.009942e+00 -6.340456e-01 2.049570e-02 -7.521683e-02 -9.627461e-02 -5.369849e-02 -6.235368e-02 -1.201858e-01 -8.515096e-02 9.303162e-02 1.507667e-01 4.397577e-02 -5.806509e-03 -8.107276e-03 3.081595e-02
<VARIANCE> 39
 9.514780e+00 2.042452e+01 3.679711e+01 4.641325e+01 3.233044e+01 3.139483e+01 2.283826e+01 3.750696e+01 3.337988e+01 5.020600e+01 6.447678e+01 3.462522e+01 2.300593e+01 3.257629e-01 4.611353e-01 8.951347e-01 1.256720e+00 1.021662e+00 1.515771e+00 1.140003e+00 2.321997e+00 1.069877e+00 1.880768e+00 1.404754e+00 1.146756e+00 5.939072e-01 5.999538e-02 6.608824e-02 9.617437e-02 1.992622e-01 1.638298e-01 2.605291e-01 1.557763e-01 4.005541e-01 1.692045e-01 3.430667e-01 2.274516e-01 2.094035e-01 1.026466e-01
<GCONST> 9.304359e+01
<TRANSP> 7
 0.000000e+00 1.000000e+00 0.000000e+00 0.000000e+00 0.000000e+00 0.000000e+00 0.000000e+00
 0.000000e+00 8.823583e-01 1.176417e-01 0.000000e+00 0.000000e+00 0.000000e+00 0.000000e+00
 0.000000e+00 0.000000e+00 7.702028e-01 2.297972e-01 0.000000e+00 0.000000e+00 0.000000e+00
 0.000000e+00 0.000000e+00 0.000000e+00 8.504001e-01 1.495999e-01 0.000000e+00 0.000000e+00
 0.000000e+00 0.000000e+00 0.000000e+00 0.000000e+00 9.004598e-01 9.954024e-02 0.000000e+00
 0.000000e+00 0.000000e+00 0.000000e+00 0.000000e+00 0.000000e+00 8.824645e-01 1.175354e-01
 0.000000e+00 0.000000e+00 0.000000e+00 0.000000e+00 0.000000e+00 0.000000e+00 0.000000e+00
<ENDHMM>
~h "bh"
<BEGINHMM>
<NUMSTATES> 5
<STATE> 2
<NUMMIXES> 2
<MIXTURE> 1 5.000000e-01
<MEAN> 39
 5.803852e+00 1.577192e+01 1.317794e+01 1.673936e+01 1.306946e+01 1.034452e+01 4.246087e+00 1.117145e+01 1.061993e+00 -6.742103e+00 -5.444911e+00 -4.522301e+00 -3.329756e+00 -2.508892e-01 -1.294682e-01 1.094909e-01 1.830880e-01 3.676434e-01 6.506028e-01 3.093898e-01 -1.783542e-01 -2.069823e-01 2.588794e-01 3.766923e-01 -1.005850e-02 1.708226e-02 1.445158e-01 -3.494139e-01 -3.482168e-01 -7.234437e-02 4.750004e-02 -1.050679e-01 -1.707627e-01 4.333548e-02 -3.697288e-02 -1.608717e-01 9.356176e-02 9.824732e-02 7.108139e-02
<VARIANCE> 39
 2.290903e+01 4.564829e+01 1.945915e+01 1.071076e+01 1.387818e+01 3.522457e+01 1.353292e+01 1.741571e+01 1.273155e+01 3.279248e+01 3.055361e+01 1.780095e+01 1.487782e+01 7.057840e-01 3.564720e+00 3.199258e+00 8.204378e-01 9.981432e-01 1.541848e+00 1.083968e+00 1.407262e+00 1.023794e+00 1.649683e+00 1.233151e+00 1.091426e+00 1.125545e+00 6.434657e-02 1.838429e-01 2.169069e-01 1.496122e-01 1.536004e-01 1.713029e-01 1.433665e-01 2.022912e-01 1.965387e-01 2.370265e-01 1.803527e-01 1.446963e-01 1.582010e-01
<GCONST> 9.073759e+01
<MIXTURE> 2 5.000000e-01
<MEAN> 39
 5.803852e+00 1.577192e+01 1.317794e+01 1.673936e+01 1.306946e+01 1.034452e+01 4.246087e+00 1.117145e+01 1.061993e+00 -6.742103e+00 -5.444911e+00 -4.522301e+00 -3.329756e+00 -2.508892e-01 -1.294682e-01 1.094909e-01 1.830880e-01 3.676434e-01 6.506028e-01 3.093898e-01 -1.783542e-01 -2.069823e-01 2.588794e-01 3.766923e-01 -1.005850e-02 1.708226e-02 1.445158e-01 -3.494139e-01 -3.482168e-01 -7.234437e-02 4.750004e-02 -1.050679e-01 -1.707627e-01 4.333548e-02 -3.697288e-02 -1.608717e-01 9.356176e-02 9.824732e-02 7.108139e-02
<VARIANCE> 39
 2.290903e+01 4.564829e+01 1.945915e+01 1.071076e+01 1.387818e+01 3.522457e+01 1.353292e+01 1.741571e+01 1.273155e+01 3.279248e+01 3.055361e+01 1.780095e+01 1.487782e+01 7.057840e-01 3.564720e+00 3.199258e+00 8.204378e-01 9.981432e-01 1.541848e+00 1.083968e+00 1.407262e+00 1.023794e+00 1.649683e+00 1.233151e+00 1.091426e+00 1.125545e+00 6.434657e-02 1.838429e-01 2.169069e-01 1.496122e-01 1.536004e-01 1.713029e-01 1.433665e-01 2.022912e-01 1.965387e-01 2.370265e-01 1.803527e-01 1.446963e-01 1.582010e-01
<GCONST> 9.073759e+01
<STATE> 3
<NUMMIXES> 2
<MIXTURE> 1 5.000000e-01
<MEAN> 39
 1.087210e+01 5.304610e-01 2.231139e+00 2.017405e+01 2.359493e+01 1.283421e+01 -4.367631e+00 7.611072e+00 -6.107105e+00 -1.549091e+01 1.517430e+00 -5.654209e-02 -2.453606e+00 8.992253e-01 -1.838604e+00 -6.679563e-01 1.026465e+00 1.593964e+00 -3.165760e-01 -2.486921e+00 -7.460430e-01 -5.016082e-01 -9.901073e-01 1.300564e+00 2.934543e-01 -8.944867e-01 -1.799949e-01 3.381706e-01 5.737916e-01 1.685430e-01 -1.673645e-01 -1.425215e-01 -9.130013e-02 1.102606e-02 3.689311e-01 3.788483e-01 -3.288100e-02 -2.315554e-01 -2.400645e-01
<VARIANCE> 39
 1.573115e+01 3.974088e+01 1.945305e+01 3.378575e+01 5.464188e+01 3.097546e+01 7.132150e+01 2.901009e+01 3.015529e+01 6.259082e+01 3.032489e+01 3.050245e+01 2.680239e+01 1.050578e+00 1.902861e+00 3.822157e+00 2.987449e+00 2.411141e+00 1.979130e+00 2.292993e+00 1.789812e+00 3.424368e+00 5.078220e+00 1.628278e+00 1.826951e+00 2.190364e+00 1.624991e-01 1.945995e-01 2.675453e-01 4.720056e-01 5.174667e-01 2.960309e-01 4.876892e-01 3.705444e-01 4.903406e-01 6.599756e-01 3.312887e-01 2.766638e-01 2.826382e-01
<GCONST> 1.142745e+02
<MIXTURE> 2 5.000000e-01
<MEAN> 39
 1.087210e+01 5.304610e-01 2.231139e+00 2.017405e+01 2.359493e+01 1.283421e+01 -4.367631e+00 7.611072e+00 -6.107105e+00 -1.549091e+01 1.517430e+00 -5.654209e-02 -2.453606e+00 8.992253e-01 -1.838604e+00 -6.679563e-01 1.026465e+00 1.593964e+00 -3.165760e-01 -2.486921e+00 -7.460430e-01 -5.016082e-01 -9.901073e-01 1.300564e+00 2.934543e-01 -8.944867e-01 -1.799949e-01 3.381706e-01 5.737916e-01 1.685430e-01 -1.673645e-01 -1.425215e-01 -9.130013e-02 1.102606e-02 3.689311e-01 3.788483e-01 -3.288100e-02 -2.315554e-01 -2.400645e-01
<VARIANCE> 39
 1.573115e+01 3.974088e+01 1.945305e+01 3.378575e+01 5.464188e+01 3.097546e+01 7.132150e+01 2.901009e+01 3.015529e+01 6.259082e+01 3.032489e+01 3.050245e+01 2.680239e+01 1.050578e+00 1.902861e+00 3.822157e+00 2.987449e+00 2.411141e+00 1.979130e+00 2.292993e+00 1.789812e+00 3.424368e+00 5.078220e+00 1.628278e+00 1.826951e+00 2.190364e+00 1.624991e-01 1.945995e-01 2.675453e-01 4.720056e-01 5.174667e-01 2.960309e-01 4.876892e-01 3.705444e-01 4.903406e-01 6.599756e-01 3.312887e-01 2.766638e-01 2.826382e-01
<GCONST> 1.142745e+02
<STATE> 4
<NUMMIXES> 2
<MIXTURE> 1 5.000000e-01
<MEAN> 39
 1.007461e+01 -5.574707e+00 1.190123e+01 3.005435e+01 2.619087e+01 9.289016e+00 -1.691200e+01 5.157964e+00 7.695899e-01 -1.306186e+01 5.888391e+00 -3.893699e+00 -1.118493e+01 -3.002528e-02 -3.341296e-01 7.548119e-01 1.889396e-01 -5.924075e-01 -6.346405e-01 -7.601579e-01 3.470562e-02 5.970263e-01 -6.410585e-02 -4.823898e-02 -1.518441e-01 -3.803609e-01 9.817522e-02 -1.817640e-02 -1.975541e-01 -1.258836e-01 7.341365e-03 -4.431503e-02 1.705060e-03 1.576106e-02 -1.299866e-01 -1.745888e-01 -6.740518e-02 1.248946e-01 8.253004e-02
<VARIANCE> 39
 4.515586e+00 2.142666e+01 2.593313e+01 3.464787e+01 3.529568e+01 2.217931e+01 5.027164e+01 2.022910e+01 2.049723e+01 3.847572e+01 2.846014e+01 2.423353e+01 2.343428e+01 4.652109e-01 8.569778e-01 1.852570e+00 1.299698e+00 1.534934e+00 1.463526e+00 1.878864e+00 1.731610e+00 1.647107e+00 2.227700e+00 1.645953e+00 1.371797e+00 1.422875e+00 3.687296e-02 1.431175e-01 1.355620e-01 1.776543e-01 3.208598e-01 2.090760e-01 3.230067e-01 3.136856e-01 2.213164e-01 3.096095e-01 2.874273e-01 2.099405e-01 2.048073e-01
<GCONST> 9.637778e+01
<MIXTURE> 2 5.000000e-01
<MEAN> 39
 1.007461e+01 -5.574707e+00 1.190123e+01 3.005435e+01 2.619087e+01 9.289016e+00 -1.691200e+01 5.157964e+00 7.695899e-01 -1.306186e+01 5.888391e+00 -3.893699e+00 -1.118493e+01 -3.002528e-02 -3.341296e-01 7.548119e-01 1.889396e-01 -5.924075e-01 -6.346405e-01 -7.601579e-01 3.470562e-02 5.970263e-01 -6.410585e-02 -4.823898e-02 -1.518441e-01 -3.803609e-01 9.817522e-02 -1.817640e-02 -1.975541e-01 -1.258836e-01 7.341365e-03 -4.431503e-02 1.705060e-03 1.576106e-02 -1.299866e-01 -1.745888e-01 -6.740518e-02 1.248946e-01 8.253004e-02
<VARIANCE> 39
 4.515586e+00 2.142666e+01 2.593313e+01 3.464787e+01 3.529568e+01 2.217931e+01 5.027164e+01 2.022910e+01 2.049723e+01 3.847572e+01 2.846014e+01 2.423353e+01 2.343428e+01 4.652109e-01 8.569778e-01 1.852570e+00 1.299698e+00 1.534934e+00 1.463526e+00 1.878864e+00 1.731610e+00 1.647107e+00 2.227700e+00 1.645953e+00 1.371797e+00 1.422875e+00 3.687296e-02 1.431175e-01 1.355620e-01 1.776543e-01 3.208598e-01 2.090760e-01 3.230067e-01 3.136856e-01 2.213164e-01 3.096095e-01 2.874273e-01 2.099405e-01 2.048073e-01
<GCONST> 9.637778e+01
<TRANSP> 5
 0.000000e+00 1.000000e+00 0.000000e+00 0.000000e+00 0.000000e+00
 0.000000e+00 9.167098e-01 8.329020e-02 0.000000e+00 0.000000e+00
 0.000000e+00 0.000000e+00 8.128396e-01 1.871604e-01 0.000000e+00
 0.000000e+00 0.000000e+00 0.000000e+00 8.790087e-01 1.209913e-01
 0.000000e+00 0.000000e+00 0.000000e+00 0.000000e+00 0.000000e+00
<ENDHMM>
~h "ch"
<BEGINHMM>
<NUMSTATES> 5
<STATE> 2
<NUMMIXES> 2
<MIXTURE> 1 4.410855e-01
<MEAN> 39
 9.886630e-01 3.697534e+00 9.524555e+00 1.745895e+01 1.211563e+01 9.589066e+00 7.087084e-01 1.030537e+01 -8.354492e-01 -1.148236e+01 -4.229625e+00 -9.310344e-01 1.714511e+00 -2.922005e+00 -1.354285e+00 1.323723e+00 1.835491e-01 -1.413806e+00 9.658971e-01 -1.126844e-01 -1.585945e+00 1.589125e+00 2.120164e+00 -1.461252e+00 -8.722394e-01 1.215264e+00 -6.818686e-02 -1.521719e+00 -2.052346e-01 -2.788382e-01 -3.651703e-01 -1.515524e-01 -5.227667e-01 2.621642e-01 -1.852439e-01 -7.905400e-01 6.546236e-01 2.866340e-01 -5.758984e-01
<VARIANCE> 39
 5.332138e+01 2.613316e+01 3.838631e+01 3.512421e+01 2.521340e+01 2.419454e+01 3.923273e+01 4.659806e+01 3.399833e+01 5.094257e+01 4.452335e+01 2.521539e+01 2.494651e+01 5.777923e-01 1.524177e+01 1.941353e+00 1.805135e+00 2.200543e+00 2.229578e+00 2.775892e+00 2.534974e+00 2.604836e+00 6.666141e+00 4.078328e+00 2.007289e+00 3.239363e+00 1.061265e-01 8.798934e-01 3.085523e-01 2.914081e-01 2.976506e-01 4.238065e-01 3.079334e-01 4.318601e-01 3.170362e-01 5.919864e-01 6.568164e-01 3.900751e-01 4.147696e-01
<GCONST> 1.180660e+02
<MIXTURE> 2 5.589135e-01
<MEAN> 39
 -1.740466e+01 -2.398508e+01 6.673702e+00 1.049084e+01 -2.487828e+00 5.778996e+00 -7.166786e+00 4.797066e+00 4.742300e+00 -7.194277e+00 -2.291418e+00 8.868436e-01 1.917228e+00 -5.311874e-01 -4.551039e+00 1.341125e+00 -5.201243e-01 -2.058977e+00 -5.074337e-01 -1.445551e+00 2.028947e-01 6.053027e-01 -5.974301e-01 9.920339e-01 1.100940e+00 -3.214009e-01 2.338952e-01 3.395365e-01 4.675947e-01 -4.866872e-02 1.072447e-01 3.776192e-02 -7.802346e-02 -2.751802e-02 -1.755068e-01 7.932777e-02 2.746075e-02 -1.550680e-02 8.911051e-02
<VARIANCE> 39
 4.571233e+01 1.424846e+02 9.561111e+01 5.473645e+01 3.543870e+01 4.959539e+01 2.202121e+01 2.515899e+01 2.869642e+01 3.711535e+01 2.150701e+01 2.272575e+01 1.831037e+01 3.049518e+00 8.798531e+00 4.529945e+00 4.969062e+00 4.553128e+00 2.971853e+00 1.589864e+00 1.630595e+00 1.990567e+00 2.269786e+00 3.471769e+00 2.045007e+00 2.170394e+00 2.791967e-01 7.083412e-01 4.368831e-01 4.302641e-01 5.838115e-01 6.826667e-01 2.569605e-01 3.396057e-01 3.691543e-01 5.178637e-01 4.611283e-01 5.796351e-01 4.238328e-01
<GCONST> 1.226016e+02
<STATE> 3
<NUMMIXES> 2
<MIXTURE> 1 9.877727e-01
<MEAN> 39
 -1.601629e+01 -4.565802e+01 2.148659e+01 8.419460e+00 -8.116311e+00 9.932969e+00 -1.557289e+01 3.909088e+00 4.949956e+00 -7.502545e+00 2.270756e+00 1.572634e+00 8.078357e-01 1.946149e-01 -1.063295e+00 -1.280282e-01 -7.135779e-01 4.483003e-01 8.533229e-01 -6.284445e-01 -7.636869e-01 -6.263071e-01 4.759933e-01 3.480524e-01 -4.293049e-01 -1.005006e-01 2.102697e-01 5.634543e-01 -6.323047e-01 -1.657049e-02 2.083904e-01 4.573393e-02 2.619635e-01 -1.918923e-01 -1.684915e-01 -1.457259e-01 -1.904849e-01 -1.958386e-02 -3.337295e-02
<VARIANCE> 39
 1.612507e+01 6.523154e+01 3.400763e+01 3.167530e+01 2.217776e+01 1.673151e+01 1.941628e+01 2.848638e+01 2.840029e+01 2.024869e+01 2.366019e+01 1.630868e+01 1.054670e+01 1.859432e+00 4.916648e+00 5.240431e+00 9.830186e-01 1.540232e+00 1.406090e+00 1.780444e+00 1.655507e+00 1.485601e+00 1.287158e+00 1.767614e+00 1.242658e+00 1.046429e+00 2.856496e-01 7.428090e-01 5.461599e-01 1.748854e-01 4.423794e-01 2.860626e-01 2.563240e-01 2.550930e-01 2.504377e-01 2.807197e-01 3.328668e-01 2.791911e-01 1.676463e-01
<GCONST> 1.041917e+02
<MIXTURE> 2 1.222722e-02
<MEAN> 39
 -2.560884e+01 -8.382984e+00 -5.717333e+00 -2.253226e+00 -2.172648e+00 8.112718e-01 -4.051126e+00 1.691892e+00 5.286902e-01 1.633919e+00 7.549711e-01 -2.058377e+00 -1.201897e-01 9.229656e-01 -8.106112e-01 -8.218658e-01 4.680029e-01 2.062779e+00 5.373946e-01 -5.888633e-01 -1.898689e-01 -9.169772e-01 -7.753654e-01 1.175532e-01 9.507306e-01 -2.328437e-01 3.286462e-01 -1.438597e-01 -3.293488e-01 3.557479e-01 7.371517e-01 2.641233e-01 -7.369929e-02 1.350699e-01 -2.759022e-01 -3.683388e-01 4.489162e-01 7.546723e-01 6.382962e-01
<VARIANCE> 39
 6.293234e-01 1.780369e+00 4.034299e-01 3.803960e+00 2.876590e+00 1.365254e+00 4.594613e+00 2.131229e+00 1.911225e-01 2.230860e+00 7.009813e-01 1.888956e+00 1.858416e+00 3.772954e-01 5.569842e-01 9.836108e-02 1.527637e+00 2.638602e+00 6.633414e-02 1.066128e+00 4.613262e-02 1.647684e-02 2.635252e-01 7.870659e-01 8.299205e-01 2.403764e+00 4.281599e-02 1.556234e-02 8.396693e-03 1.272086e-01 2.755653e-01 1.963687e-03 3.763413e-02 3.231696e-02 3.368270e-02 3.842177e-02 8.598799e-02 4.989440e-02 5.385367e-02
<GCONST> 1.930596e+01
<STATE> 4
<NUMMIXES> 2
<MIXTURE> 1 6.372483e-01
<MEAN> 39
 -4.416612e+00 -1.885766e+01 1.341314e+00 6.635820e+00 2.257898e-01 1.203506e+01 -3.166386e+00 2.629359e+00 9.737198e-01 -5.422580e+00 1.106125e+00 2.760166e+00 5.970642e+00 5.538460e-01 2.748662e+00 -4.588062e-01 7.760932e-01 1.104277e+00 -5.518982e-01 1.159558e+00 1.203555e+00 4.977984e-01 9.437253e-01 3.633747e-01 2.181950e-02 2.208575e-01 -3.659131e-02 -2.090833e-02 1.778600e-01 -2.651309e-02 -3.017753e-02 -1.297204e-01 -2.116988e-01 -2.666679e-02 -4.796984e-02 -7.641388e-02 -1.076024e-02 -8.364988e-02 -1.410301e-01
<VARIANCE> 39
 1.029627e+02 2.856072e+02 9.943732e+01 8.475792e+01 9.285130e+01 1.339091e+02 1.139649e+02 8.535522e+01 5.264322e+01 6.113055e+01 7.110861e+01 3.084370e+01 3.713898e+01 2.393375e+00 4.391487e+00 2.401249e+00 3.616115e+00 3.064932e+00 4.003098e+00 4.138424e+00 3.512706e+00 3.170373e+00 3.079622e+00 1.639748e+00 1.664582e+00 2.383765e+00 1.239326e-01 3.442006e-01 2.330821e-01 3.941696e-01 3.643066e-01 4.605211e-01 3.787548e-01 3.859689e-01 3.752103e-01 4.719300e-01 2.903639e-01 2.735814e-01 3.085049e-01
<GCONST> 1.281599e+02
<MIXTURE> 2 3.627502e-01
<MEAN> 39
 -1.024273e+01 -4.482556e+01 1.101485e+01 2.462198e+00 -7.650176e+00 1.399073e+01 -1.673312e+01 -5.816108e+00 -1.844457e+00 -1.133796e+01 5.760455e-01 8.388202e-01 1.469852e-01 1.237783e+00 1.155443e+00 -1.584832e+00 -6.948163e-01 -2.773342e-01 4.127922e-01 4.623035e-01 -7.334744e-01 -7.640823e-01 -8.842352e-01 -3.743046e-01 2.070833e-01 3.330581e-01 4.618293e-02 2.413144e-01 1.017020e-01 3.122703e-01 1.228013e-01 2.152528e-02 2.995286e-01 4.371132e-01 2.990327e-01 2.013405e-01 1.461532e-01 9.668043e-02 1.458182e-01
<VARIANCE> 39
 1.872035e+01 1.576684e+01 3.808451e+01 3.901517e+01 2.828995e+01 3.592053e+01 3.120921e+01 4.146803e+01 3.329367e+01 2.794591e+01 2.189297e+01 1.645346e+01 1.570792e+01 6.945762e-01 1.324789e+00 1.269618e+00 1.651253e+00 1.517439e+00 1.883524e+00 2.164022e+00 1.994294e+00 1.893763e+00 2.028719e+00 1.506848e+00 1.279065e+00 8.594719e-01 1.062811e-01 2.498663e-01 1.584758e-01 2.088147e-01 3.016740e-01 2.331476e-01 2.757841e-01 2.234956e-01 2.475753e-01 3.510328e-01 1.825266e-01 2.133052e-01 1.698622e-01
<GCONST> 9.931507e+01
<TRANSP> 5
 0.000000e+00 1.000000e+00 0.000000e+00 0.000000e+00 0.000000e+00
 0.000000e+00 8.828635e-01 1.171366e-01 0.000000e+00 0.000000e+00
 0.000000e+00 0.000000e+00 8.410471e-01 1.589528e-01 0.000000e+00
 0.000000e+00 0.000000e+00 0.000000e+00 9.210909e-01 7.890907e-02
 0.000000e+00 0.000000e+00 0.000000e+00 0.000000e+00 0.000000e+00
<ENDHMM>
~h "dh"
<BEGINHMM>
<NUMSTATES> 5
<STATE> 2
<NUMMIXES> 2
<MIXTURE> 1 5.000000e-01
<MEAN> 39
 3.162749e+00 1.490904e+01 1.360794e+01 1.735736e+01 1.518948e+01 1.430557e+01 5.222764e+00 8.564796e+00 -8.264911e-01 -5.193797e+00 -3.741086e+00 -3.358913e+00 3.837834e-01 -1.632418e-01 -1.362364e+00 -3.583927e-01 -1.518859e-01 -4.662198e-01 5.849838e-02 -5.916349e-02 3.001952e-01 6.418740e-01 8.480944e-01 8.729092e-01 -3.842475e-01 -2.764366e-01 1.988610e-01 -4.765528e-01 -3.173878e-01 -2.320321e-01 -1.972858e-01 -1.147718e-01 -2.255093e-01 -1.670456e-02 -1.721130e-01 -9.783228e-02 3.803183e-01 4.374338e-02 -5.079296e-02
<VARIANCE> 39
 1.506628e+01 2.872682e+01 1.554374e+01 7.785186e+00 8.476223e+00 9.776442e+00 1.233285e+01 1.222336e+01 2.755466e+01 3.166563e+01 1.741873e+01 1.292111e+01 1.758420e+01 7.298848e-01 5.281417e+00 2.801052e+00 1.866090e+00 1.809143e+00 1.244188e+00 1.617965e+00 8.085975e-01 1.651873e+00 1.578728e+00 2.784172e+00 1.044968e+00 1.557164e+00 9.268073e-02 2.639345e-01 1.970509e-01 3.318653e-01 2.521034e-01 1.567873e-01 1.613519e-01 1.486441e-01 4.161336e-01 3.433211e-01 3.998688e-01 1.902870e-01 2.686335e-01
<GCONST> 9.434839e+01
<MIXTURE> 2 5.000000e-01
<MEAN> 39
 3.162749e+00 1.490904e+01 1.360794e+01 1.735736e+01 1.518948e+01 1.430557e+01 5.222764e+00 8.564796e+00 -8.264911e-01 -5.193797e+00 -3.741086e+00 -3.358913e+00 3.837834e-01 -1.632418e-01 -1.362364e+00 -3.583927e-01 -1.518859e-01 -4.662198e-01 5.849838e-02 -5.916349e-02 3.001952e-01 6.418740e-01 8.480944e-01 8.729092e-01 -3.842475e-01 -2.764366e-01 1.988610e-01 -4.765528e-01 -3.173878e-01 -2.320321e-01 -1.972858e-01 -1.147718e-01 -2.255093e-01 -1.670456e-02 -1.721130e-01 -9.783228e-02 3.803183e-01 4.374338e-02 -5.079296e-02
<VARIANCE> 39
 1.506628e+01 2.872682e+01 1.554374e+01 7.785186e+00 8.476223e+00 9.776442e+00 1.233285e+01 1.222336e+01 2.755466e+01 3.166563e+01 1.741873e+01 1.292111e+01 1.758420e+01 7.298848e-01 5.281417e+00 2.801052e+00 1.866090e+00 1.809143e+00 1.244188e+00 1.617965e+00 8.085975e-01 1.651873e+00 1.578728e+00 2.784172e+00 1.044968e+00 1.557164e+00 9.268073e-02 2.639345e-01 1.970509e-01 3.318653e-01 2.521034e-01 1.567873e-01 1.613519e-01 1.486441e-01 4.161336e-01 3.433211e-01 3.998688e-01 1.902870e-01 2.686335e-01
<GCONST> 9.434839e+01
<STATE> 3
<NUMMIXES> 2
<MIXTURE> 1 5.000000e-01
<MEAN> 39
 8.942902e+00 -8.501395e+00 6.163000e+00 1.444570e+01 1.006439e+01 1.266590e+01 -5.309251e+00 6.998351e+00 -4.304437e+00 -6.221096e+00 1.283880e+01 -4.606983e+00 -4.098439e+00 1.169096e+00 -1.085615e+00 3.324603e-02 8.628629e-03 -4.537505e-02 -2.666904e-01 -1.528863e+00 -8.743342e-01 -1.493908e+00 -1.296010e+00 1.792388e+00 7.043197e-01 -6.646394e-01 -1.289584e-01 7.454653e-01 4.499613e-01 5.039558e-01 4.649863e-01 -1.446224e-01 -3.636703e-02 6.644514e-02 2.409735e-01 -8.260727e-02 -5.115688e-01 1.429734e-01 1.152695e-01
<VARIANCE> 39
 1.691866e+01 3.037446e+01 3.400153e+01 8.551955e+01 9.324213e+01 3.526373e+01 6.457305e+01 3.773700e+01 6.349992e+01 3.983177e+01 3.300381e+01 2.048721e+01 3.193973e+01 1.182434e+00 5.830281e+00 3.749262e+00 6.913980e+00 7.097760e+00 3.078907e+00 3.002530e+00 2.728483e+00 4.705974e+00 2.924284e+00 5.937587e+00 2.025545e+00 2.203310e+00 1.496094e-01 5.813354e-01 5.500123e-01 9.189340e-01 9.185612e-01 5.212100e-01 5.042094e-01 5.797681e-01 9.206302e-01 6.605428e-01 6.390447e-01 3.047431e-01 3.340130e-01
<GCONST> 1.275581e+02
<MIXTURE> 2 5.000000e-01
<MEAN> 39
 8.942902e+00 -8.501395e+00 6.163000e+00 1.444570e+01 1.006439e+01 1.266590e+01 -5.309251e+00 6.998351e+00 -4.304437e+00 -6.221096e+00 1.283880e+01 -4.606983e+00 -4.098439e+00 1.169096e+00 -1.085615e+00 3.324603e-02 8.628629e-03 -4.537505e-02 -2.666904e-01 -1.528863e+00 -8.743342e-01 -1.493908e+00 -1.296010e+00 1.792388e+00 7.043197e-01 -6.646394e-01 -1.289584e-01 7.454653e-01 4.499613e-01 5.039558e-01 4.649863e-01 -1.446224e-01 -3.636703e-02 6.644514e-02 2.409735e-01 -8.260727e-02 -5.115688e-01 1.429734e-01 1.152695e-01
<VARIANCE> 39
 1.691866e+01 3.037446e+01 3.400153e+01 8.551955e+01 9.324213e+01 3.526373e+01 6.457305e+01 3.773700e+01 6.349992e+01 3.983177e+01 3.300381e+01 2.048721e+01 3.193973e+01 1.182434e+00 5.830281e+00 3.749262e+00 6.913980e+00 7.097760e+00 3.078907e+00 3.002530e+00 2.728483e+00 4.705974e+00 2.924284e+00 5.937587e+00 2.025545e+00 2.203310e+00 1.496094e-01 5.813354e-01 5.500123e-01 9.189340e-01 9.185612e-01 5.212100e-01 5.042094e-01 5.797681e-01 9.206302e-01 6.605428e-01 6.390447e-01 3.047431e-01 3.340130e-01
<GCONST> 1.275581e+02
<STATE> 4
<NUMMIXES> 2
<MIXTURE> 1 5.000000e-01
<MEAN> 39
 1.378314e+01 -3.973145e+00 7.361480e+00 1.530836e+01 1.337766e+01 7.339936e+00 -1.167637e+01 7.761247e+00 -6.923419e+00 -1.428262e+01 1.694686e+01 3.790891e+00 -5.709949e+00 9.576236e-02 4.584675e-01 -1.454381e-01 -1.468510e-01 1.761839e-01 -6.450264e-01 -3.824083e-01 5.867322e-01 2.144802e-01 -3.675391e-01 8.069056e-02 3.293878e-01 -2.565650e-01 -5.506484e-02 -7.506456e-02 -9.361072e-02 -1.220543e-01 -7.093829e-02 9.130482e-02 1.873052e-01 1.185961e-01 4.570005e-02 5.799647e-02 -8.482707e-02 -1.023697e-01 2.008405e-02
<VARIANCE> 39
 1.335134e+01 3.468904e+01 2.297721e+01 2.476246e+01 3.267109e+01 2.161726e+01 8.037423e+01 3.216653e+01 4.033266e+01 5.271204e+01 5.506971e+01 1.977527e+01 3.611374e+01 9.706478e-01 6.474099e-01 1.272563e+00 1.488606e+00 1.395930e+00 1.728901e+00 2.975924e+00 1.207102e+00 2.033028e+00 2.147318e+00 2.150518e+00 1.408593e+00 1.221294e+00 6.693415e-02 1.195170e-01 1.432589e-01 1.520882e-01 1.665344e-01 2.415818e-01 3.067498e-01 1.920902e-01 4.025143e-01 3.024153e-01 3.305675e-01 1.681872e-01 1.471215e-01
<GCONST> 1.003230e+02
<MIXTURE> 2 5.000000e-01
<MEAN> 39
 1.378314e+01 -3.973145e+00 7.361480e+00 1.530836e+01 1.337766e+01 7.339936e+00 -1.167637e+01 7.761247e+00 -6.923419e+00 -1.428262e+01 1.694686e+01 3.790891e+00 -5.709949e+00 9.576236e-02 4.584675e-01 -1.454381e-01 -1.468510e-01 1.761839e-01 -6.450264e-01 -3.824083e-01 5.867322e-01 2.144802e-01 -3.675391e-01 8.069056e-02 3.293878e-01 -2.565650e-01 -5.506484e-02 -7.506456e-02 -9.361072e-02 -1.220543e-01 -7.093829e-02 9.130482e-02 1.873052e-01 1.185961e-01 4.570005e-02 5.799647e-02 -8.482707e-02 -1.023697e-01 2.008405e-02
<VARIANCE> 39
 1.335134e+01 3.468904e+01 2.297721e+01 2.476246e+01 3.267109e+01 2.161726e+01 8.037423e+01 3.216653e+01 4.033266e+01 5.271204e+01 5.506971e+01 1.977527e+01 3.611374e+01 9.706478e-01 6.474099e-01 1.272563e+00 1.488606e+00 1.395930e+00 1.728901e+00 2.975924e+00 1.207102e+00 2.033028e+00 2.147318e+00 2.150518e+00 1.408593e+00 1.221294e+00 6.693415e-02 1.195170e-01 1.432589e-01 1.520882e-01 1.665344e-01 2.415818e-01 3.067498e-01 1.920902e-01 4.025143e-01 3.024153e-01 3.305675e-01 1.681872e-01 1.471215e-01
<GCONST> 1.003230e+02
<TRANSP> 5
 0.000000e+00 1.000000e+00 0.000000e+00 0.000000e+00 0.000000e+00
 0.000000e+00 8.943661e-01 1.056340e-01 0.000000e+00 0.000000e+00
 0.000000e+00 0.000000e+00 8.502932e-01 1.497069e-01 0.000000e+00
 0.000000e+00 0.000000e+00 0.000000e+00 8.727639e-01 1.272361e-01
 0.000000e+00 0.000000e+00 0.000000e+00 0.000000e+00 0.000000e+00
<ENDHMM>
~h "dx"
<BEGINHMM>
<NUMSTATES> 5
<STATE> 2
<NUMMIXES> 2
<MIXTURE> 1 5.000000e-01
<MEAN> 39
 3.105226e+00 1.636321e+01 1.366979e+01 1.746897e+01 1.736339e+01 1.620254e+01 5.493423e+00 6.700337e+00 -2.611763e+00 -5.595411e+00 -3.062343e+00 -3.276206e+00 -2.456279e+00 -5.802873e-01 -6.110135e-01 9.796315e-02 4.751938e-01 3.973398e-03 -1.383086e-01 1.959651e-01 5.494560e-01 5.920832e-01 4.420956e-01 1.711050e-01 3.767360e-02 2.367510e-01 5.798475e-02 -4.998333e-01 -2.805736e-01 1.421585e-01 1.155492e-01 -1.322586e-01 -1.842893e-01 2.058705e-02 -1.652397e-02 -1.763619e-02 1.506867e-01 1.250564e-02 1.481436e-04
<VARIANCE> 39
 1.657150e+01 1.177388e+01 1.171273e+01 1.832357e+01 1.321082e+01 2.153900e+01 2.384166e+01 2.075403e+01 2.917631e+01 2.619203e+01 1.450176e+01 1.263350e+01 1.287013e+01 3.313303e-01 2.497048e+00 1.185901e+00 1.552511e+00 1.456436e+00 1.345019e+00 1.602606e+00 1.055345e+00 1.532043e+00 1.188815e+00 9.496545e-01 9.113554e-01 9.296045e-01 4.791945e-02 2.630380e-01 1.624192e-01 1.587717e-01 2.035064e-01 1.527383e-01 1.542324e-01 1.343988e-01 2.557686e-01 1.836085e-01 2.518197e-01 1.541511e-01 1.439641e-01
<GCONST> 8.695555e+01
<MIXTURE> 2 5.000000e-01
<MEAN> 39
 3.105226e+00 1.636321e+01 1.366979e+01 1.746897e+01 1.736339e+01 1.620254e+01 5.493423e+00 6.700337e+00 -2.611763e+00 -5.595411e+00 -3.062343e+00 -3.276206e+00 -2.456279e+00 -5.802873e-01 -6.110135e-01 9.796315e-02 4.751938e-01 3.973398e-03 -1.383086e-01 1.959651e-01 5.494560e-01 5.920832e-01 4.420956e-01 1.711050e-01 3.767360e-02 2.367510e-01 5.798475e-02 -4.998333e-01 -2.805736e-01 1.421585e-01 1.155492e-01 -1.322586e-01 -1.842893e-01 2.058705e-02 -1.652397e-02 -1.763619e-02 1.506867e-01 1.250564e-02 1.481436e-04
<VARIANCE> 39
 1.657150e+01 1.177388e+01 1.171273e+01 1.832357e+01 1.321082e+01 2.153900e+01 2.384166e+01 2.075403e+01 2.917631e+01 2.619203e+01 1.450176e+01 1.263350e+01 1.287013e+01 3.313303e-01 2.497048e+00 1.185901e+00 1.552511e+00 1.456436e+00 1.345019e+00 1.602606e+00 1.055345e+00 1.532043e+00 1.188815e+00 9.496545e-01 9.113554e-01 9.296045e-01 4.791945e-02 2.630380e-01 1.624192e-01 1.587717e-01 2.035064e-01 1.527383e-01 1.542324e-01 1.343988e-01 2.557686e-01 1.836085e-01 2.518197e-01 1.541511e-01 1.439641e-01
<GCONST> 8.695555e+01
<STATE> 3
<NUMMIXES> 2
<MIXTURE> 1 5.000000e-01
<MEAN> 39
 2.736113e+00 -2.244196e+00 5.627556e+00 2.425864e+01 2.083945e+01 1.254424e+01 1.553154e+00 8.342977e+00 -3.997339e+00 -5.656586e+00 3.876807e+00 -2.633079e+00 -2.459481e+00 8.683824e-01 -3.882730e+00 -1.802711e+00 4.080398e-01 7.125683e-02 -6.186243e-01 -8.400016e-01 5.061513e-02 -1.709535e+00 -8.770692e-01 2.705345e+00 4.196397e-01 -9.763702e-01 3.306074e-01 3.500537e-01 2.366337e-01 -2.244978e-01 -8.855928e-02 -1.275183e-01 -3.822973e-01 -2.242032e-01 -2.960823e-01 -3.381198e-01 1.325625e-01 4.489741e-02 -3.385271e-01
<VARIANCE> 39
 3.410112e+01 9.320966e+01 4.421556e+01 4.470094e+01 6.062303e+01 4.553897e+01 4.791153e+01 3.977668e+01 1.031976e+02 6.076288e+01 8.883138e+01 3.785182e+01 3.658424e+01 1.293486e+00 4.946463e+00 2.810061e+00 2.770415e+00 3.900497e+00 3.316701e+00 2.909865e+00 2.683043e+00 6.377880e+00 4.410534e+00 4.839878e+00 2.426317e+00 2.293848e+00 2.286198e-01 1.108801e+00 5.862436e-01 5.762596e-01 9.397748e-01 4.337361e-01 4.538943e-01 4.120768e-01 1.761810e+00 9.646211e-01 1.451523e+00 3.527679e-01 5.216931e-01
<GCONST> 1.326024e+02
<MIXTURE> 2 5.000000e-01
<MEAN> 39
 2.736113e+00 -2.244196e+00 5.627556e+00 2.425864e+01 2.083945e+01 1.254424e+01 1.553154e+00 8.342977e+00 -3.997339e+00 -5.656586e+00 3.876807e+00 -2.633079e+00 -2.459481e+00 8.683824e-01 -3.882730e+00 -1.802711e+00 4.080398e-01 7.125683e-02 -6.186243e-01 -8.400016e-01 5.061513e-02 -1.709535e+00 -8.770692e-01 2.705345e+00 4.196397e-01 -9.763702e-01 3.306074e-01 3.500537e-01 2.366337e-01 -2.244978e-01 -8.855928e-02 -1.275183e-01 -3.822973e-01 -2.242032e-01 -2.960823e-01 -3.381198e-01 1.325625e-01 4.489741e-02 -3.385271e-01
<VARIANCE> 39
 3.410112e+01 9.320966e+01 4.421556e+01 4.470094e+01 6.062303e+01 4.553897e+01 4.791153e+01 3.977668e+01 1.031976e+02 6.076288e+01 8.883138e+01 3.785182e+01 3.658424e+01 1.293486e+00 4.946463e+00 2.810061e+00 2.770415e+00 3.900497e+00 3.316701e+00 2.909865e+00 2.683043e+00 6.377880e+00 4.410534e+00 4.839878e+00 2.426317e+00 2.293848e+00 2.286198e-01 1.108801e+00 5.862436e-01 5.762596e-01 9.397748e-01 4.337361e-01 4.538943e-01 4.120768e-01 1.761810e+00 9.646211e-01 1.451523e+00 3.527679e-01 5.216931e-01
<GCONST> 1.326024e+02
<STATE> 4
<NUMMIXES> 2
<MIXTURE> 1 5.000000e-01
<MEAN> 39
 3.809940e-01 -1.109102e+00 6.270390e+00 1.873051e+01 1.666570e+01 1.345332e+01 2.679252e+00 8.065597e+00 -3.862416e+00 -4.056127e+00 7.316329e+00 4.563668e-01 -2.271359e+00 -1.258127e-01 -1.005049e-01 4.174484e-01 -3.808181e-01 -6.431096e-01 -7.044206e-01 -8.436650e-01 -9.823278e-02 4.842910e-02 -2.564507e-01 1.785326e-01 4.181249e-02 -2.267739e-01 -1.552198e-02 1.509910e-01 1.331672e-01 1.670601e-01 3.068804e-01 2.757687e-02 -2.219658e-01 -7.989459e-02 -8.285519e-02 -2.330231e-01 -1.902704e-01 -4.617801e-02 -2.271411e-02
<VARIANCE> 39
 6.314447e+01 1.683066e+02 5.402351e+01 6.614639e+01 6.417892e+01 5.471690e+01 6.244374e+01 3.376092e+01 5.079004e+01 4.839835e+01 6.592625e+01 3.994859e+01 4.440758e+01 4.222950e+00 7.855010e+00 2.722898e+00 3.805367e+00 4.294526e+00 2.877084e+00 4.355676e+00 2.236426e+00 8.098084e+00 5.889262e+00 5.501052e+00 1.589616e+00 3.912527e+00 1.484381e-01 6.765403e-01 3.598305e-01 3.005161e-01 5.556396e-01 3.725570e-01 3.468600e-01 2.668870e-01 7.247892e-01 4.191122e-01 6.808103e-01 2.186217e-01 3.402798e-01
<GCONST> 1.297996e+02
<MIXTURE> 2 5.000000e-01
<MEAN> 39
 3.809940e-01 -1.109102e+00 6.270390e+00 1.873051e+01 1.666570e+01 1.345332e+01 2.679252e+00 8.065597e+00 -3.862416e+00 -4.056127e+00 7.316329e+00 4.563668e-01 -2.271359e+00 -1.258127e-01 -1.005049e-01 4.174484e-01 -3.808181e-01 -6.431096e-01 -7.044206e-01 -8.436650e-01 -9.823278e-02 4.842910e-02 -2.564507e-01 1.785326e-01 4.181249e-02 -2.267739e-01 -1.552198e-02 1.509910e-01 1.331672e-01 1.670601e-01 3.068804e-01 2.757687e-02 -2.219658e-01 -7.989459e-02 -8.285519e-02 -2.330231e-01 -1.902704e-01 -4.617801e-02 -2.271411e-02
<VARIANCE> 39
 6.314447e+01 1.683066e+02 5.402351e+01 6.614639e+01 6.417892e+01 5.471690e+01 6.244374e+01 3.376092e+01 5.079004e+01 4.839835e+01 6.592625e+01 3.994859e+01 4.440758e+01 4.222950e+00 7.855010e+00 2.722898e+00 3.805367e+00 4.294526e+00 2.877084e+00 4.355676e+00 2.236426e+00 8.098084e+00 5.889262e+00 5.501052e+00 1.589616e+00 3.912527e+00 1.484381e-01 6.765403e-01 3.598305e-01 3.005161e-01 5.556396e-01 3.725570e-01 3.468600e-01 2.668870e-01 7.247892e-01 4.191122e-01 6.808103e-01 2.186217e-01 3.402798e-01
<GCONST> 1.297996e+02
<TRANSP> 5
 0.000000e+00 1.000000e+00 0.000000e+00 0.000000e+00 0.000000e+00
 0.000000e+00 8.540834e-01 1.459166e-01 0.000000e+00 0.000000e+00
 0.000000e+00 0.000000e+00 7.537600e-01 2.462400e-01 0.000000e+00
 0.000000e+00 0.000000e+00 0.000000e+00 6.665549e-01 3.334451e-01
 0.000000e+00 0.000000e+00 0.000000e+00 0.000000e+00 0.000000e+00
<ENDHMM>
~h "ee"
<BEGINHMM>
<NUMSTATES> 7
<STATE> 2
<NUMMIXES> 2
<MIXTURE> 1 7.524284e-01
<MEAN> 39
 2.628334e+00 -8.034876e+00 4.659047e+00 1.527928e+01 1.496579e+01 5.469536e+00 -1.364548e+01 3.996794e+00 -6.163556e+00 -1.083620e+01 6.372367e+00 -2.193936e+00 -4.427900e+00 2.134660e+00 -2.353703e-01 -7.724432e-01 1.312024e+00 2.096627e+00 -1.168825e+00 -2.401523e+00 6.501372e-01 -6.296641e-01 -2.126155e+00 1.372379e+00 2.668773e-01 -1.680708e+00 -1.528812e-01 -2.273182e-01 -5.219710e-02 -1.760085e-01 1.696276e-02 -1.130270e-01 -2.500344e-01 1.237539e-01 -1.042714e-01 -1.473328e-01 2.457198e-01 6.819009e-03 -1.626822e-01
<VARIANCE> 39
 1.647390e+02 9.214737e+01 6.525076e+01 1.017552e+02 9.580466e+01 7.681972e+01 7.866548e+01 6.342698e+01 7.265847e+01 6.301285e+01 6.648405e+01 2.828734e+01 4.992552e+01 3.992636e+00 4.790504e+00 5.668898e+00 4.201977e+00 4.506895e+00 4.291390e+00 6.555683e+00 4.052319e+00 3.960087e+00 6.478391e+00 4.662888e+00 2.099100e+00 4.239174e+00 4.568869e-01 4.763247e-01 5.811761e-01 5.818106e-01 4.840813e-01 4.091589e-01 5.755107e-01 6.150207e-01 6.013319e-01 6.779475e-01 5.962284e-01 3.057085e-01 4.135945e-01
<GCONST> 1.379879e+02
<MIXTURE> 2 2.475711e-01
<MEAN> 39
 3.380370e-01 -3.913383e+00 -9.418070e-03 1.144281e+01 1.252981e+01 -2.577752e-01 -1.440414e+01 3.224301e+00 -7.320365e+00 -1.274707e+01 4.721468e+00 -6.967209e-01 -6.393101e+00 -9.648630e-02 -5.162144e-01 -2.142337e-01 -1.178087e-01 1.992316e-01 -1.229993e-01 -5.511624e-01 2.541066e-02 -7.184961e-02 -1.724061e-01 3.900184e-01 9.742104e-02 -1.641183e-01 -9.696516e-03 -2.263080e-02 4.842746e-02 3.549353e-02 3.592110e-02 3.082608e-02 -1.645539e-02 9.948960e-02 5.374955e-02 -4.268619e-03 4.150518e-02 -2.609180e-02 -1.672292e-03
<VARIANCE> 39
 3.570249e+02 7.940556e+01 6.539320e+01 1.291579e+02 1.665153e+02 3.422024e+01 1.506331e+02 8.582585e+01 5.444353e+01 1.323341e+02 8.299194e+01 4.206584e+01 5.401455e+01 1.152307e+00 9.580496e-01 9.770511e-01 1.104846e+00 1.095738e+00 8.988781e-01 1.897742e+00 1.772757e+00 1.182047e+00 1.439720e+00 2.075521e+00 1.008460e+00 1.094838e+00 1.078856e-01 9.893224e-02 1.264971e-01 1.483500e-01 1.645553e-01 1.373711e-01 2.154805e-01 3.100542e-01 2.044334e-01 2.748263e-01 2.063472e-01 1.877803e-01 1.752170e-01
<GCONST> 1.099674e+02
<STATE> 3
<NUMMIXES> 2
<MIXTURE> 1 6.788291e-01
<MEAN> 39
 1.620768e+01 -1.216504e+01 8.036979e-01 1.937475e+01 2.689626e+01 6.329580e-01 -2.891970e+01 8.973601e+00 -1.178326e+01 -2.450311e+01 1.807302e+01 -4.515879e-01 -1.467781e+01 5.119560e-01 -8.392412e-01 -4.467490e-01 3.162305e-02 1.294147e+00 -1.098811e+00 -2.532990e+00 8.716757e-01 -3.346783e-01 -1.585503e+00 1.448054e+00 1.901598e-01 -1.334551e+00 -4.623874e-01 2.339523e-01 3.166980e-01 -2.021770e-01 -5.063740e-01 2.547106e-01 6.855185e-01 -2.860272e-01 3.317523e-01 7.648361e-01 -6.030440e-01 -1.546583e-01 5.114523e-01
<VARIANCE> 39
 2.867734e+01 1.970762e+01 4.202124e+01 5.772904e+01 3.707054e+01 2.718778e+01 5.933161e+01 4.336031e+01 3.886507e+01 4.652240e+01 5.148463e+01 2.619239e+01 3.107821e+01 1.119370e+00 1.318705e+00 1.694565e+00 1.292269e+00 1.589226e+00 1.718575e+00 2.792264e+00 2.587112e+00 1.331737e+00 2.858002e+00 2.833531e+00 9.906201e-01 1.535846e+00 1.381241e-01 1.872691e-01 2.654470e-01 2.465537e-01 2.107300e-01 1.926361e-01 3.538083e-01 3.986777e-01 2.289136e-01 3.485587e-01 3.217817e-01 1.864046e-01 2.380586e-01
<GCONST> 1.073516e+02
<MIXTURE> 2 3.211676e-01
<MEAN> 39
 1.324298e+01 -1.266175e+01 9.891388e+00 2.513864e+01 2.870313e+01 -1.969324e+00 -3.607145e+01 4.138059e+00 -1.631913e+00 -2.031646e+01 3.998405e+00 -1.393192e+00 -1.251428e+01 4.430618e-02 -1.344579e-01 -7.038112e-02 -3.244144e-01 -2.444465e-02 2.730230e-04 -1.498726e-01 -4.261573e-02 7.008604e-02 1.304813e-01 -7.849982e-02 -1.445962e-02 9.994913e-02 -4.661501e-03 1.695173e-02 -1.473445e-02 4.534283e-02 1.865715e-02 -3.008773e-04 5.182620e-02 4.962800e-02 -4.459910e-02 1.623788e-02 7.117830e-02 -3.019556e-02 -1.823981e-02
<VARIANCE> 39
 4.694709e+00 1.183599e+01 1.659441e+01 1.927462e+01 1.473664e+01 1.165051e+01 1.920727e+01 1.951485e+01 2.371786e+01 1.999196e+01 1.617275e+01 7.069094e+00 1.830866e+01 2.989418e-01 4.147951e-01 5.463489e-01 8.159336e-01 5.278032e-01 6.336306e-01 1.096747e+00 9.750179e-01 8.443874e-01 8.943802e-01 6.960265e-01 4.490664e-01 7.684618e-01 5.055823e-02 6.267334e-02 7.665151e-02 8.351906e-02 7.944683e-02 9.780089e-02 1.763317e-01 1.624389e-01 1.074205e-01 1.447909e-01 9.795591e-02 7.290404e-02 1.107499e-01
<GCONST> 7.019028e+01
<STATE> 4
<NUMMIXES> 2
<MIXTURE> 1 9.791849e-01
<MEAN> 39
 1.619851e+01 -1.431225e+01 1.372568e+00 1.870362e+01 2.882812e+01 -2.051238e+00 -3.409044e+01 1.101480e+01 -1.021200e+01 -2.585058e+01 1.928735e+01 -6.801866e-01 -1.724566e+01 -9.979817e-02 -2.353109e-02 1.205515e-01 1.117947e-01 1.218073e-01 -2.631311e-02 -1.017915e-01 -1.675715e-04 5.044313e-03 7.522711e-02 7.260185e-02 -1.217520e-01 -1.588038e-01 -3.109700e-03 7.386001e-02 -1.029654e-02 4.829307e-02 -4.354256e-02 7.593996e-02 1.807339e-01 -6.138628e-02 -2.783960e-02 6.350075e-02 -6.862966e-02 -2.624859e-04 5.768883e-02
<VARIANCE> 39
 7.978359e+00 8.677470e+00 2.693974e+01 2.782933e+01 2.607827e+01 1.250241e+01 3.314092e+01 3.818994e+01 2.959077e+01 2.532565e+01 4.818301e+01 1.565384e+01 2.575474e+01 4.727048e-01 3.156972e-01 5.855505e-01 6.804558e-01 5.890396e-01 5.551916e-01 1.544735e+00 1.797266e+00 6.266496e-01 1.261997e+00 1.425887e+00 5.138419e-01 7.188208e-01 6.388403e-02 5.258040e-02 7.263776e-02 7.907088e-02 8.335353e-02 8.245631e-02 2.197073e-01 2.427892e-01 8.414274e-02 1.914862e-01 1.947805e-01 7.392696e-02 9.862556e-02
<GCONST> 7.871136e+01
<MIXTURE> 2 2.081482e-02
<MEAN> 39
 -1.935552e+01 -2.462224e+00 7.982554e-02 5.348110e+00 4.669162e+00 3.838344e+00 -3.588340e+00 3.466049e+00 -1.346041e+00 -1.110542e+00 3.801147e+00 1.212345e+00 3.914843e-01 -1.586438e+00 -1.693147e+00 -1.991719e+00 -2.038972e+00 -1.938858e+00 -1.721528e+00 -1.552008e+00 -1.592000e+00 -1.246704e+00 -1.015605e+00 -9.079908e-01 -4.966668e-01 -3.255775e-01 1.359904e-01 2.398570e-01 2.490370e-01 8.674640e-02 1.565818e-02 1.835716e-01 2.943331e-01 1.634903e-01 2.347755e-01 2.324502e-01 -7.280171e-02 -5.593321e-02 6.052759e-02
<VARIANCE> 39
 1.109636e+02 2.314372e+01 2.947133e+01 1.206984e+02 1.524921e+02 3.141079e+01 1.390555e+02 4.211681e+01 6.497109e+01 7.887459e+01 2.594206e+01 1.552304e+01 2.734819e+01 6.130083e-01 8.517508e-01 1.186417e+00 1.561105e+00 1.704349e+00 1.646768e+00 2.145643e+00 1.797994e+00 1.603568e+00 1.531178e+00 1.346665e+00 9.476240e-01 7.529857e-01 1.941582e-01 2.029591e-01 2.468575e-01 5.262443e-01 8.749063e-01 3.666897e-01 6.712767e-01 4.274421e-01 5.541344e-01 5.422897e-01 4.942654e-01 2.694365e-01 1.985341e-01
<GCONST> 1.134147e+02
<STATE> 5
<NUMMIXES> 2
<MIXTURE> 1 5.420081e-01
<MEAN> 39
 1.584874e+01 -1.204788e+01 1.425098e+00 2.155744e+01 3.004952e+01 -5.306863e-01 -3.159576e+01 9.659198e+00 -1.194273e+01 -2.488167e+01 1.946049e+01 -1.377449e+00 -1.746790e+01 -4.885580e-01 1.214228e+00 3.070222e-02 3.748801e-01 -6.426141e-01 4.934810e-01 2.130850e+00 -9.316550e-01 3.084005e-01 1.311594e+00 -1.447625e+00 -1.161813e-01 7.206671e-01 -2.959046e-01 4.494410e-01 1.619461e-01 -9.817351e-02 -3.888296e-01 9.286181e-02 6.070820e-01 -3.133419e-01 3.415321e-01 6.104058e-01 -6.625609e-01 -4.574696e-02 4.336504e-01
<VARIANCE> 39
 1.363182e+01 1.654404e+01 4.674498e+01 5.926662e+01 3.873668e+01 2.329672e+01 6.364208e+01 4.996040e+01 3.917972e+01 4.032551e+01 5.971534e+01 2.927849e+01 3.896270e+01 8.337093e-01 1.360628e+00 1.048234e+00 1.205500e+00 1.600814e+00 1.099425e+00 3.535577e+00 2.808241e+00 1.501416e+00 3.284858e+00 3.221216e+00 9.558987e-01 1.666473e+00 8.223784e-02 1.157005e-01 1.720775e-01 2.048174e-01 1.703036e-01 1.529870e-01 3.117679e-01 3.629287e-01 2.195942e-01 3.049313e-01 2.544630e-01 1.647412e-01 2.144406e-01
<GCONST> 1.035958e+02
<MIXTURE> 2 4.579899e-01
<MEAN> 39
 1.303011e+01 -1.188270e+01 3.725628e+00 2.041263e+01 2.897068e+01 -2.261839e+00 -3.287057e+01 6.351015e+00 -1.078460e+01 -2.043675e+01 1.552719e+01 -2.453128e+00 -1.431887e+01 8.896280e-02 1.558726e-01 -3.112632e-02 2.536671e-01 5.856995e-02 1.203910e-01 1.406431e-01 1.332580e-01 -4.707698e-02 -1.297611e-01 2.424511e-01 3.561834e-03 -2.203455e-01 1.359525e-01 -4.070351e-02 -2.029396e-02 1.562864e-02 1.087566e-01 6.775236e-02 -1.083764e-01 2.541628e-01 -5.315110e-02 -2.216918e-01 2.182517e-01 -6.084708e-04 -1.086401e-01
<VARIANCE> 39
 3.282288e+01 1.414620e+01 6.708144e+01 5.246797e+01 5.404967e+01 2.113467e+01 6.916745e+01 4.740994e+01 3.628723e+01 3.704635e+01 6.181181e+01 2.216655e+01 3.678773e+01 4.866634e-01 5.377995e-01 8.747919e-01 1.039091e+00 1.050251e+00 8.142970e-01 1.940769e+00 2.039088e+00 1.029329e+00 1.568796e+00 1.557732e+00 8.290891e-01 9.835249e-01 7.916609e-02 8.214101e-02 1.112169e-01 1.327817e-01 1.579149e-01 1.333156e-01 2.991642e-01 3.366888e-01 1.559634e-01 2.340896e-01 2.325594e-01 1.199980e-01 1.302808e-01
<GCONST> 9.531920e+01
<STATE> 6
<NUMMIXES> 2
<MIXTURE> 1 4.906413e-01
<MEAN> 39
 3.886743e+00 -5.292316e-02 5.641770e+00 2.056053e+01 2.109316e+01 4.168141e+00 -1.406707e+01 3.380571e+00 -5.076159e+00 -9.783092e+00 5.485091e+00 -2.076674e+00 -7.307529e+00 -1.468948e+00 1.397761e+00 6.638222e-01 -5.860346e-01 -1.166129e+00 6.514865e-01 1.828545e+00 -1.972124e-01 8.107429e-01 1.433918e+00 -1.333796e+00 -9.880851e-02 1.193728e+00 -4.532091e-02 -2.021984e-01 2.515079e-02 -5.674543e-02 5.149095e-02 -3.942217e-02 -2.622975e-01 6.177704e-02 -1.416228e-01 -2.225232e-01 2.295978e-01 2.343009e-02 -1.374041e-01
<VARIANCE> 39
 1.194396e+02 8.517630e+01 5.478558e+01 8.896513e+01 8.590314e+01 5.145491e+01 1.258827e+02 6.172821e+01 5.806990e+01 8.558838e+01 7.186836e+01 2.992746e+01 4.857887e+01 1.924889e+00 3.446947e+00 2.112659e+00 2.350331e+00 2.778360e+00 1.800019e+00 4.332804e+00 3.360871e+00 2.891484e+00 3.706502e+00 4.174307e+00 1.385700e+00 2.381631e+00 1.335764e-01 2.230279e-01 2.213452e-01 2.867567e-01 3.784020e-01 2.126721e-01 4.608283e-01 4.248765e-01 4.169254e-01 4.197420e-01 3.834066e-01 2.094849e-01 2.599086e-01
<GCONST> 1.235608e+02
<MIXTURE> 2 5.093598e-01
<MEAN> 39
 -2.582766e+01 -8.420240e+00 -6.633374e+00 -2.310296e+00 -1.971077e+00 1.818761e+00 -3.181744e+00 9.103969e-01 -4.693522e+00 -3.164850e+00 2.245387e+00 2.106132e+00 1.048549e+00 -8.055198e-03 -4.114073e-03 -6.502602e-03 -9.495444e-03 -3.959842e-03 -4.149556e-04 4.593697e-04 -9.507734e-04 3.604032e-05 -1.014529e-03 -1.728023e-03 1.485729e-03 2.931204e-05 1.163755e-02 1.126054e-02 1.462077e-02 1.758586e-02 1.612066e-02 1.099368e-02 5.607278e-03 5.135810e-03 5.566283e-03 4.367227e-03 4.107218e-03 1.637114e-03 -2.541939e-04
<VARIANCE> 39
 1.729483e+00 1.235961e+01 7.884650e+00 6.604146e+00 1.174080e+01 1.038443e+01 8.246118e+00 8.896991e+00 2.601305e+01 2.057067e+01 1.363458e+01 2.485139e+01 6.924985e+00 9.267453e-02 2.722596e-01 3.794175e-01 4.725603e-01 6.708239e-01 8.985884e-01 8.932102e-01 1.029222e+00 1.403597e+00 1.179047e+00 1.090266e+00 1.174980e+00 7.841401e-01 2.226384e-02 4.860963e-02 7.739443e-02 1.034306e-01 1.413064e-01 1.836439e-01 1.908288e-01 2.198774e-01 2.794336e-01 2.373015e-01 2.278196e-01 2.326057e-01 1.672924e-01
<GCONST> 7.043549e+01
<TRANSP> 7
 0.000000e+00 1.000000e+00 0.000000e+00 0.000000e+00 0.000000e+00 0.000000e+00 0.000000e+00
 0.000000e+00 7.532865e-01 2.467135e-01 0.000000e+00 0.000000e+00 0.000000e+00 0.000000e+00
 0.000000e+00 0.000000e+00 7.778189e-01 2.221812e-01 0.000000e+00 0.000000e+00 0.000000e+00
 0.000000e+00 0.000000e+00 0.000000e+00 8.821424e-01 1.178577e-01 0.000000e+00 0.000000e+00
 0.000000e+00 0.000000e+00 0.000000e+00 0.000000e+00 8.521755e-01 1.478245e-01 0.000000e+00
 0.000000e+00 0.000000e+00 0.000000e+00 0.000000e+00 0.000000e+00 8.871305e-01 1.128694e-01
 0.000000e+00 0.000000e+00 0.000000e+00 0.000000e+00 0.000000e+00 0.000000e+00 0.000000e+00
<ENDHMM>
~h "ei"
<BEGINHMM>
<NUMSTATES> 7
<STATE> 2
<NUMMIXES> 2
<MIXTURE> 1 6.227625e-01
<MEAN> 39
 2.044311e+01 -1.340277e+01 -1.363021e+01 8.291691e+00 2.164645e+01 -4.424637e+00 -2.671631e+01 9.597392e+00 -9.714060e+00 -1.447138e+01 2.242859e+01 4.107890e+00 -3.177551e+00 -1.391479e-01 -1.210313e-01 -5.528826e-02 1.476636e-01 3.868235e-01 5.351399e-02 -3.645891e-01 -4.841131e-01 -3.214008e-01 -7.943326e-02 1.139299e-01 1.195415e-01 4.233249e-03 -1.424480e-01 1.683941e-01 1.872195e-01 1.032707e-01 -1.111807e-01 7.629245e-02 1.985887e-01 -1.398311e-01 4.739478e-02 1.316433e-01 -1.366827e-01 7.581118e-03 -1.513282e-02
<VARIANCE> 39
 1.120850e+01 1.295378e+01 3.078575e+01 2.852702e+01 2.275133e+01 1.538714e+01 3.541257e+01 5.393084e+01 2.601484e+01 4.497141e+01 3.963031e+01 1.915176e+01 2.702242e+01 8.329192e-01 7.000748e-01 1.055134e+00 7.831340e-01 8.802506e-01 7.007766e-01 1.879204e+00 2.543293e+00 7.975098e-01 1.431110e+00 2.297835e+00 8.808996e-01 7.436071e-01 1.161883e-01 8.247368e-02 1.132139e-01 1.047132e-01 1.070839e-01 1.002319e-01 2.297350e-01 3.317039e-01 1.170287e-01 2.062852e-01 2.952882e-01 1.309370e-01 8.435863e-02
<GCONST> 8.909065e+01
<MIXTURE> 2 3.772360e-01
<MEAN> 39
 1.496920e+01 -6.113891e+00 -7.942835e+00 1.096732e+01 1.538740e+01 -6.167290e-01 -1.699337e+01 4.681451e+00 -4.639800e+00 -2.482564e+00 2.168668e+01 5.479527e+00 -4.110413e+00 8.502604e-01 -2.649337e-01 -5.338416e-01 1.708716e-01 1.461844e+00 -4.768910e-01 -1.745745e+00 3.544920e-01 -1.081068e+00 -2.118709e+00 6.565943e-02 -1.986772e-01 -3.469856e-01 9.455992e-03 -2.196921e-01 -2.055648e-01 -1.215540e-01 2.717350e-02 4.282428e-02 -8.181648e-02 1.423340e-02 4.693599e-03 6.421324e-02 8.357061e-02 -1.873661e-03 1.079066e-01
<VARIANCE> 39
 2.136195e+01 2.441847e+01 4.618610e+01 4.547808e+01 4.793208e+01 2.006953e+01 5.508762e+01 4.133323e+01 3.020909e+01 9.096938e+01 5.284951e+01 2.515492e+01 2.655958e+01 8.480211e-01 1.637357e+00 2.872909e+00 1.961376e+00 1.285005e+00 1.598147e+00 1.958622e+00 2.560950e+00 1.492599e+00 2.245912e+00 2.870252e+00 1.447209e+00 1.015759e+00 1.919096e-01 1.967990e-01 3.459694e-01 2.813529e-01 2.426082e-01 2.911105e-01 3.842667e-01 5.036225e-01 2.738490e-01 4.423712e-01 4.419057e-01 2.562924e-01 1.740985e-01
<GCONST> 1.096774e+02
<STATE> 3
<NUMMIXES> 2
<MIXTURE> 1 9.886898e-01
<MEAN> 39
 1.332986e+01 -5.155882e+00 -8.237888e+00 1.790120e+01 2.688022e+01 -1.031734e+00 -2.924598e+01 -5.419747e+00 -1.235044e+01 -1.045184e+01 1.864092e+01 7.274878e+00 -3.587216e+00 -7.645792e-01 6.265996e-01 5.090098e-01 4.431248e-01 -1.722698e-01 1.098684e-01 1.819804e-01 -1.369766e+00 -2.020115e-01 4.225251e-01 -9.231849e-01 3.179725e-01 5.607232e-01 -2.350530e-01 1.989775e-01 2.682066e-01 -6.878781e-02 -3.019592e-01 4.599311e-02 3.763258e-01 1.281567e-01 2.534465e-01 2.161592e-01 -2.755320e-01 -6.860928e-02 1.304211e-01
<VARIANCE> 39
 1.672395e+01 2.087162e+01 3.253316e+01 3.222338e+01 2.602382e+01 1.937331e+01 5.202001e+01 8.014286e+01 4.116863e+01 4.036587e+01 4.378785e+01 3.342406e+01 3.493632e+01 1.494599e+00 2.065507e+00 3.180900e+00 1.755076e+00 3.929380e+00 1.746117e+00 6.056131e+00 3.196498e+00 3.075548e+00 3.196375e+00 4.492034e+00 1.602590e+00 1.516220e+00 3.222378e-01 3.622103e-01 6.243973e-01 2.987910e-01 7.750955e-01 2.930978e-01 1.277833e+00 6.921358e-01 7.128422e-01 6.422713e-01 9.088417e-01 3.155292e-01 3.117249e-01
<GCONST> 1.210874e+02
<MIXTURE> 2 1.131013e-02
<MEAN> 39
 7.397550e+00 4.638573e+00 6.210762e+00 2.437394e+01 1.714582e+01 -7.007356e+00 -1.821770e+01 9.167090e+00 3.515128e+00 -1.596767e+00 1.263420e+01 -4.062880e-01 -1.054782e+01 -3.844774e-01 4.996319e-01 9.572832e-02 -3.465862e-01 6.053180e-02 7.056593e-01 4.913422e-01 -9.313326e-01 -7.701858e-01 -2.143945e-01 -4.656852e-01 6.794754e-01 7.302525e-01 -1.380208e-01 7.562272e-02 -7.022008e-02 -1.837035e-01 7.601482e-02 4.517076e-01 3.342880e-01 -2.837293e-01 -1.990159e-01 4.843543e-02 -2.206834e-01 4.629139e-02 2.442293e-01
<VARIANCE> 39
 3.303158e+00 9.201058e+00 1.318849e+01 2.536890e+01 3.641639e+01 1.204854e+01 3.117951e+01 3.900993e+01 7.722066e+01 7.857578e+01 1.403326e+01 2.361713e+01 1.036196e+01 2.018835e-01 3.705627e-01 4.004413e-01 7.701902e-01 1.219681e+00 2.140236e+00 2.167621e+00 2.552484e+00 1.617660e+00 1.774982e+00 1.849099e+00 9.978729e-01 1.438333e+00 3.530348e-02 8.925037e-02 9.887801e-02 1.097645e-01 2.178232e-01 1.905189e-01 3.471995e-01 2.495152e-01 3.042117e-01 2.861026e-01 2.665165e-01 1.916093e-01 1.269180e-01
<GCONST> 8.848421e+01
<STATE> 4
<NUMMIXES> 2
<MIXTURE> 1 1.000000e+00
<MEAN> 39
 1.601285e+00 3.662742e+00 3.144419e+00 1.991998e+01 2.022197e+01 1.075120e+00 -1.946115e+01 -7.246514e+00 -9.083313e+00 -4.353673e+00 1.136915e+01 7.294430e+00 1.663150e-01 -1.359788e+00 6.713860e-01 1.206154e+00 1.538560e-01 -4.301949e-01 8.113106e-01 1.712794e+00 8.719711e-01 8.543687e-01 7.006015e-01 -4.958977e-01 -1.374703e-01 2.527707e-01 4.597260e-02 -1.509938e-01 -9.102754e-02 -8.935700e-04 1.369343e-01 9.495880e-02 3.305716e-02 2.304994e-01 5.182249e-02 -2.495115e-02 1.958217e-01 -1.944688e-02 -1.105119e-01
<VARIANCE> 39
 4.254238e+01 2.656142e+01 4.014194e+01 2.786937e+01 3.628064e+01 4.273169e+01 6.308347e+01 6.568490e+01 4.320456e+01 3.338558e+01 4.154762e+01 3.231709e+01 2.762149e+01 1.355108e+00 1.633648e+00 2.051304e+00 2.135511e+00 2.896305e+00 2.759286e+00 4.889377e+00 5.377123e+00 3.938341e+00 2.537128e+00 3.529731e+00 2.005864e+00 1.711332e+00 1.665186e-01 1.522959e-01 2.348479e-01 3.826476e-01 4.876249e-01 3.746088e-01 7.042029e-01 6.416749e-01 6.031407e-01 4.067254e-01 5.845137e-01 3.484550e-01 2.531280e-01
<GCONST> 1.186649e+02
<MIXTURE> 2 0.000000e+00
<MEAN> 39
 2.451241e-05 -3.945827e-05 -6.578863e-06 -7.152557e-07 -2.774596e-05 1.187921e-04 -1.449883e-05 1.633167e-05 -6.984919e-06 -4.756451e-05 -2.284069e-07 1.892447e-05 7.908791e-06 -7.654307e-09 2.645538e-08 3.352761e-08 1.137960e-07 9.124051e-09 1.990702e-07 1.084991e-07 -6.868504e-08 -1.708395e-08 1.569279e-07 2.568122e-07 2.303568e-08 -8.591451e-08 -1.363271e-02 1.440285e-03 -1.899552e-03 5.156639e-04 -4.873953e-04 -4.111854e-04 -4.649502e-04 -8.853489e-04 -2.279049e-04 -6.240061e-04 -1.173968e-04 -5.409846e-04 -2.049126e-04
<VARIANCE> 39
 9.626150e-06 2.426654e-05 3.815629e-06 1.000000e-30 1.000000e-30 1.000000e-30 2.935529e-06 1.000000e-30 1.143431e-06 1.000000e-30 1.000000e-30 1.000000e-30 1.000000e-30 1.686828e-11 1.000000e-30 1.923581e-10 1.000000e-30 1.000000e-30 2.846718e-10 1.000000e-30 1.000000e-30 2.116707e-11 1.000000e-30 1.000000e-30 1.000000e-30 8.787993e-11 8.329379e-03 3.102372e-04 3.842243e-04 2.258328e-04 2.910108e-04 3.261111e-04 3.767133e-04 3.033899e-04 2.445394e-04 2.236361e-04 1.965368e-04 1.861692e-04 1.587977e-04
<GCONST> -1.600000e+11
<STATE> 5
<NUMMIXES> 2
<MIXTURE> 1 1.000000e+00
<MEAN> 39
 -2.032032e+01 -3.062791e+00 -7.664911e-01 4.603597e+00 4.513015e+00 4.809814e+00 -2.767184e+00 3.583588e+00 3.087346e-01 1.159493e+00 4.116800e+00 9.554406e-01 4.860551e-01 -5.986698e-01 -2.096153e-01 -1.890824e-01 -5.826439e-01 -6.256132e-01 -1.859631e-02 3.710114e-01 1.288139e-01 9.602775e-02 2.947273e-02 -3.012882e-01 -1.864626e-01 -7.724048e-03 4.750042e-02 -8.804710e-03 -1.774877e-02 2.578354e-03 -1.374356e-02 -9.221871e-02 -1.298013e-01 -1.018076e-01 -1.231505e-01 -9.765194e-02 1.162398e-02 2.250033e-02 4.339488e-03
<VARIANCE> 39
 9.352982e+01 3.012084e+01 4.081768e+01 1.056025e+02 1.234209e+02 4.461943e+01 2.833846e+01 3.190485e+01 3.220173e+01 3.144414e+01 3.203897e+01 1.534674e+01 8.784777e+00 8.724845e-01 6.614509e-01 1.283649e+00 1.923463e+00 2.383009e+00 2.118547e+00 2.302380e+00 2.199988e+00 2.041887e+00 1.846306e+00 1.617984e+00 1.189123e+00 8.705674e-01 6.115448e-02 9.018103e-02 1.262153e-01 2.010745e-01 2.892264e-01 2.837209e-01 3.007738e-01 3.249812e-01 3.151894e-01 2.968451e-01 2.521378e-01 2.176684e-01 1.690191e-01
<GCONST> 1.033906e+02
<MIXTURE> 2 0.000000e+00
<MEAN> 39
 -1.609325e-06 -8.135103e-07 4.749745e-07 -6.807968e-07 -4.202593e-08 -3.618188e-07 2.407432e-09 2.424931e-07 1.277658e-07 -1.313165e-07 1.412118e-07 2.625166e-07 -2.114102e-07 1.533401e-01 -5.503851e-03 3.785035e-02 1.390424e-03 1.759262e-02 1.390478e-02 1.895499e-02 1.250848e-02 7.013478e-03 6.770252e-03 6.135121e-03 5.650446e-03 4.476010e-03 -1.806013e-01 2.015203e-02 -3.495460e-02 2.499425e-02 1.963463e-02 -3.039902e-02 -3.971753e-02 -2.047334e-02 -8.192796e-04 8.419420e-03 5.635804e-03 4.006127e-03 -1.858771e-03
<VARIANCE> 39
 1.000000e-30 1.000000e-30 1.000000e-30 1.000000e-30 4.588401e-10 1.000000e-30 9.299506e-14 1.000000e-30 1.959961e-10 7.395329e-10 9.354153e-10 1.000000e-30 1.000000e-30 5.519691e-01 1.833294e-02 3.783517e-02 1.655615e-02 2.303718e-02 2.295028e-02 2.466567e-02 1.928537e-02 1.440313e-02 1.338319e-02 1.233723e-02 1.081821e-02 9.576578e-03 1.242094e-01 1.541650e-02 1.599239e-02 1.925049e-02 2.621124e-02 3.162269e-02 3.145853e-02 1.910103e-02 1.752691e-02 1.237346e-02 1.492543e-02 9.388872e-03 1.088586e-02
<GCONST> -8.000000e+10
<STATE> 6
<NUMMIXES> 2
<MIXTURE> 1 1.000000e+00
<MEAN> 39
 -8.111400e+00 1.925547e+00 8.067565e+00 1.486312e+01 1.533790e+01 1.041211e+01 -2.440501e+00 7.299416e+00 4.030772e-01 5.943998e-01 9.552302e+00 3.742482e+00 -4.125279e-01 -7.448130e-01 2.210088e-02 5.267714e-01 -7.746521e-02 -2.746005e-01 4.824955e-01 9.195782e-01 4.923952e-01 1.801417e-01 8.082986e-04 -3.597100e-01 -1.723723e-01 5.009890e-02 7.837604e-02 -9.818484e-02 -1.605280e-01 -3.639460e-02 -2.792772e-03 -2.016025e-01 -3.121554e-01 -2.025047e-01 -1.916009e-01 -2.011505e-01 -6.461224e-02 -4.324150e-02 9.080354e-03
<VARIANCE> 39
 1.251426e+02 8.202948e+01 8.070391e+01 1.245196e+02 8.867634e+01 6.965410e+01 8.824265e+01 7.976395e+01 7.235431e+01 8.085238e+01 4.131161e+01 2.674980e+01 2.163591e+01 1.710095e+00 9.214729e-01 1.851161e+00 2.207100e+00 1.888445e+00 1.952375e+00 2.201243e+00 2.414137e+00 1.443894e+00 1.752775e+00 2.031748e+00 1.333245e+00 9.312320e-01 7.338749e-02 1.261518e-01 1.527565e-01 1.717135e-01 2.368288e-01 2.444603e-01 2.803117e-01 3.497007e-01 2.277502e-01 2.218356e-01 2.929424e-01 1.744076e-01 1.147993e-01
<GCONST> 1.115454e+02
<MIXTURE> 2 0.000000e+00
<MEAN> 39
 0.000000e+00 0.000000e+00 0.000000e+00 0.000000e+00 0.000000e+00 0.000000e+00 0.000000e+00 0.000000e+00 0.000000e+00 0.000000e+00 0.000000e+00 0.000000e+00 0.000000e+00 4.237878e-23 -3.786909e-23 1.582470e-23 -1.329638e-24 3.023070e-24 -8.363062e-24 6.443591e-24 -1.243620e-24 4.356885e-25 -2.915257e-24 3.233656e-24 -1.075627e-24 3.332135e-26 -1.259776e-01 9.946360e-03 -3.100975e-02 6.726459e-03 -2.000426e-04 -2.277133e-02 -2.668727e-02 -1.526267e-02 -5.181108e-03 1.760355e-04 -1.211648e-03 -1.074032e-03 -3.869191e-03
<VARIANCE> 39
 1.000000e-30 1.000000e-30 1.000000e-30 1.000000e-30 1.000000e-30 1.000000e-30 1.000000e-30 1.000000e-30 1.000000e-30 1.000000e-30 1.000000e-30 1.000000e-30 1.000000e-30 5.779452e-23 4.550961e-23 7.666999e-24 4.672506e-26 3.242006e-25 2.289604e-24 1.269824e-24 4.119810e-26 1.051707e-26 3.016532e-25 3.258485e-25 3.081342e-26 3.416759e-28 8.857191e-02 9.054033e-03 1.131149e-02 9.210194e-03 1.184606e-02 1.578277e-02 1.645681e-02 1.080695e-02 9.119515e-03 6.624663e-03 7.254379e-03 5.319290e-03 5.618778e-03
<GCONST> -1.300000e+11
<TRANSP> 7
 0.000000e+00 1.000000e+00 0.000000e+00 0.000000e+00 0.000000e+00 0.000000e+00 0.000000e+00
 0.000000e+00 9.179329e-01 8.206706e-02 0.000000e+00 0.000000e+00 0.000000e+00 0.000000e+00
 0.000000e+00 0.000000e+00 8.543162e-01 1.456838e-01 0.000000e+00 0.000000e+00 0.000000e+00
 0.000000e+00 0.000000e+00 0.000000e+00 8.902475e-01 1.097524e-01 0.000000e+00 0.000000e+00
 0.000000e+00 0.000000e+00 0.000000e+00 0.000000e+00 8.745083e-01 1.254918e-01 0.000000e+00
 0.000000e+00 0.000000e+00 0.000000e+00 0.000000e+00 0.000000e+00 4.441279e-01 5.558721e-01
 0.000000e+00 0.000000e+00 0.000000e+00 0.000000e+00 0.000000e+00 0.000000e+00 0.000000e+00
<ENDHMM>
~h "ii"
<BEGINHMM>
<NUMSTATES> 7
<STATE> 2
<NUMMIXES> 2
<MIXTURE> 1 3.684241e-01
<MEAN> 39
 1.671369e+00 -1.719918e+01 1.823372e+01 2.525597e+01 1.457834e+01 1.332402e+01 -9.453176e+00 2.701604e+00 -2.255163e+00 -3.322969e+00 6.882059e+00 -6.854350e+00 -3.349349e+00 3.175591e+00 2.665227e+00 3.518866e-01 3.053802e+00 2.882735e+00 -1.129939e+00 -2.760629e+00 -9.003928e-01 9.722975e-01 -1.813479e+00 -1.657599e+00 -3.527472e-01 -1.951643e+00 -1.343061e-01 -5.021116e-01 -7.203521e-01 -2.672042e-01 3.313982e-01 -4.733776e-01 -1.011136e+00 -8.938631e-02 -1.879332e-01 -8.456315e-01 -7.580791e-02 1.475584e-01 -4.626459e-01
<VARIANCE> 39
 2.911764e+01 6.823969e+01 1.015100e+02 9.797854e+01 3.213909e+01 1.270983e+02 3.784693e+01 9.146667e+01 4.369777e+01 5.994971e+01 2.931277e+01 2.332596e+01 1.971856e+01 1.630281e+00 3.446136e+00 3.451828e+00 4.784548e+00 2.836068e+00 3.111599e+00 4.345042e+00 2.863987e+00 3.215418e+00 4.140870e+00 2.553543e+00 2.109462e+00 1.988219e+00 2.877750e-01 4.992486e-01 4.355035e-01 5.202850e-01 4.342695e-01 3.838376e-01 4.889347e-01 5.125565e-01 6.206799e-01 5.807372e-01 4.662079e-01 3.532152e-01 2.663962e-01
<GCONST> 1.257628e+02
<MIXTURE> 2 6.315759e-01
<MEAN> 39
 1.070293e+01 -1.200085e+01 1.250265e+01 3.255175e+01 2.577390e+01 5.564195e+00 -2.269027e+01 2.083913e+00 -1.823976e+00 -1.547767e+01 4.439131e+00 -5.089497e+00 -1.231745e+01 1.124601e+00 -2.955828e-01 -8.363501e-01 1.169970e+00 2.484806e+00 -1.396180e+00 -3.528229e+00 2.623799e-01 3.219673e-01 -2.537172e+00 8.375821e-02 5.570307e-01 -2.040116e+00 -4.445763e-01 -2.482976e-01 2.247124e-02 -4.903986e-01 -3.899977e-01 9.344177e-02 3.557203e-01 3.400995e-01 1.048297e-01 2.458676e-01 1.637589e-01 1.028954e-01 2.497538e-01
<VARIANCE> 39
 1.156079e+01 2.543548e+01 6.789715e+01 4.692368e+01 3.748086e+01 5.191169e+01 4.524372e+01 5.632560e+01 4.159532e+01 4.149795e+01 4.592232e+01 2.082499e+01 2.191589e+01 7.625712e-01 1.995101e+00 2.208955e+00 2.171579e+00 2.343769e+00 2.345868e+00 3.241868e+00 2.984388e+00 2.501773e+00 2.442752e+00 2.477608e+00 1.641587e+00 1.655418e+00 1.274379e-01 2.974614e-01 2.877329e-01 3.364227e-01 3.465631e-01 2.185378e-01 4.246280e-01 3.487245e-01 2.983454e-01 3.597403e-01 3.572521e-01 2.374167e-01 2.468209e-01
<GCONST> 1.117303e+02
<STATE> 3
<NUMMIXES> 2
<MIXTURE> 1 1.000000e+00
<MEAN> 39
 1.277354e+01 -1.173638e+01 9.695919e+00 3.132384e+01 2.966432e+01 4.296695e-01 -3.010147e+01 7.146770e+00 -2.567223e+00 -2.248637e+01 8.389707e+00 -2.767197e+00 -1.675751e+01 1.600338e-02 -4.360534e-01 6.448022e-02 1.774374e-01 8.116724e-01 -4.951710e-01 -1.517487e+00 3.412579e-01 5.646654e-01 -7.093690e-01 -8.150759e-02 1.179585e-01 -7.474962e-01 -1.875523e-01 1.361085e-01 1.470197e-01 -1.263096e-01 -3.606426e-01 1.547860e-01 5.455294e-01 -1.122453e-01 4.385506e-02 4.066569e-01 -2.217209e-01 -1.275973e-01 3.052184e-01
<VARIANCE> 39
 1.053199e+01 2.327577e+01 5.611681e+01 4.959627e+01 4.153981e+01 3.042026e+01 4.418290e+01 3.950019e+01 5.596819e+01 3.537825e+01 7.052502e+01 1.732900e+01 2.501845e+01 4.831254e-01 8.487276e-01 1.405448e+00 1.198427e+00 1.127238e+00 1.126479e+00 2.100048e+00 1.653397e+00 9.863237e-01 1.722131e+00 1.439528e+00 1.068884e+00 9.797206e-01 6.901430e-02 1.231268e-01 1.277384e-01 1.790598e-01 2.251137e-01 1.426928e-01 3.595979e-01 2.719685e-01 1.756760e-01 3.227932e-01 2.492227e-01 1.665250e-01 1.865664e-01
<GCONST> 9.764972e+01
<MIXTURE> 2 0.000000e+00
<MEAN> 39
 -2.208270e+00 -4.924166e+00 1.908871e+01 1.414313e+01 1.305121e+01 -2.550124e+01 -8.712596e+00 3.256981e+00 -1.020494e+01 -1.600216e+01 -1.043865e+01 -7.724840e+00 -3.884650e+00 -3.069684e-02 5.741307e-02 2.626543e-02 -1.140945e-02 -5.099841e-03 1.462645e-03 -7.175154e-02 2.450622e-02 1.508959e-02 -8.209687e-02 -2.880517e-02 4.053793e-02 1.540386e-02 4.400872e-03 3.426807e-02 -3.873229e-02 -2.918413e-02 4.017396e-02 7.009056e-02 -1.632413e-02 -6.592760e-02 5.973514e-02 5.484207e-02 -7.151864e-03 -6.910361e-03 -2.705606e-03
<VARIANCE> 39
 5.265318e+00 3.126786e+01 2.337614e+01 3.727947e+01 3.152877e+01 2.943056e+01 3.225301e+01 2.729765e+01 2.195340e+01 2.848150e+01 2.092086e+01 3.419135e+01 3.785925e+01 6.421357e-02 2.003726e-01 3.487247e-01 3.611105e-01 4.247755e-01 4.733264e-01 5.225756e-01 5.518345e-01 5.403954e-01 5.455791e-01 4.727846e-01 4.464683e-01 3.817663e-01 9.004888e-03 2.605502e-02 4.109941e-02 5.433235e-02 6.215053e-02 8.339533e-02 8.227700e-02 8.697993e-02 9.257926e-02 8.818587e-02 8.279812e-02 7.263009e-02 6.514387e-02
<GCONST> 6.347967e+01
<STATE> 4
<NUMMIXES> 2
<MIXTURE> 1 6.654755e-01
<MEAN> 39
 1.140709e+01 -1.331334e+01 1.223800e+01 3.261510e+01 3.056544e+01 2.542108e-02 -3.392593e+01 5.877385e+00 2.387765e+00 -2.292241e+01 3.804753e+00 -2.115579e+00 -1.661678e+01 -5.688747e-02 8.542641e-02 5.845429e-02 7.653982e-02 5.600831e-02 -1.128623e-01 -5.992667e-02 -1.260040e-02 1.441528e-01 6.481492e-02 -2.061295e-01 -1.278774e-01 -3.803319e-02 1.836814e-02 6.146665e-02 -3.830433e-02 4.039970e-02 -4.627889e-02 4.243592e-02 1.855377e-01 -2.858320e-02 -9.306974e-02 1.020879e-01 1.222332e-02 -6.361743e-02 6.711631e-02
<VARIANCE> 39
 5.029199e+00 1.212281e+01 2.379378e+01 2.331248e+01 2.284414e+01 1.984563e+01 2.221344e+01 2.106739e+01 2.783847e+01 2.081991e+01 2.403686e+01 9.105476e+00 1.751704e+01 3.263342e-01 3.689943e-01 6.644215e-01 7.294608e-01 7.155724e-01 7.589279e-01 1.259308e+00 9.736252e-01 8.739511e-01 1.060524e+00 9.740866e-01 5.685772e-01 7.292002e-01 5.292750e-02 6.600840e-02 7.277299e-02 1.018248e-01 1.083773e-01 1.126596e-01 2.063346e-01 1.461714e-01 1.112505e-01 1.887818e-01 1.334552e-01 1.003303e-01 1.076321e-01
<GCONST> 7.588071e+01
<MIXTURE> 2 3.345221e-01
<MEAN> 39
 1.041124e+01 -1.001284e+01 1.635418e+01 3.442281e+01 2.450358e+01 1.079922e+00 -2.735038e+01 3.519162e+00 8.960080e+00 -1.667886e+01 -6.728625e+00 -5.926123e+00 -1.248613e+01 -2.703031e-02 2.767242e-01 -1.060672e-01 3.549387e-02 1.434780e-03 -2.755615e-01 1.632863e-01 8.550356e-02 -1.365056e-02 7.715117e-02 -2.501235e-01 -1.555062e-01 9.274771e-02 1.016159e-02 -3.322009e-04 -3.938169e-02 7.198423e-03 6.813531e-02 3.273818e-02 1.135506e-04 2.515716e-02 -1.307824e-01 -2.531988e-02 1.585494e-01 -6.613242e-03 -2.439058e-02
<VARIANCE> 39
 3.401319e+00 1.538798e+01 1.497172e+01 1.835626e+01 1.151412e+01 2.843215e+01 4.485710e+01 3.484257e+01 1.537184e+01 2.458181e+01 2.414356e+01 1.641520e+01 1.781762e+01 1.955161e-01 4.731469e-01 4.821979e-01 9.125512e-01 6.432436e-01 1.041493e+00 1.394469e+00 1.195415e+00 8.540128e-01 1.116297e+00 9.293835e-01 8.446888e-01 7.305080e-01 3.413225e-02 6.934085e-02 7.722427e-02 1.303860e-01 1.057144e-01 1.401197e-01 1.947824e-01 1.408862e-01 1.358351e-01 1.782033e-01 1.191139e-01 1.281617e-01 1.292492e-01
<GCONST> 7.709692e+01
<STATE> 5
<NUMMIXES> 2
<MIXTURE> 1 5.415869e-01
<MEAN> 39
 1.234546e+01 -1.339729e+01 8.389603e+00 3.233491e+01 3.537582e+01 3.894988e-02 -3.391196e+01 1.025312e+01 -5.036671e+00 -2.563775e+01 1.206387e+01 -4.356709e+00 -2.045981e+01 -1.376777e-01 4.089153e-01 -5.817098e-03 3.275111e-01 -3.566653e-02 1.708731e-01 7.089450e-01 -3.451476e-01 -5.278313e-02 4.773448e-01 -3.228979e-01 -1.049219e-01 1.029556e-01 -7.119596e-02 2.202438e-01 -6.759849e-02 -8.457191e-02 -2.731427e-01 -1.053352e-02 4.581056e-01 -1.935326e-01 5.019953e-02 3.642361e-01 -2.458585e-01 2.787220e-02 2.469646e-01
<VARIANCE> 39
 6.537648e+00 1.166470e+01 2.433688e+01 4.621894e+01 2.857766e+01 2.577654e+01 3.008235e+01 3.137896e+01 4.372150e+01 2.309944e+01 4.496700e+01 1.325453e+01 2.328725e+01 4.061331e-01 5.446227e-01 9.012641e-01 1.028919e+00 1.320653e+00 9.582571e-01 2.583563e+00 1.818110e+00 1.199153e+00 1.956108e+00 1.663704e+00 7.947154e-01 9.692538e-01 5.969585e-02 8.697370e-02 9.642846e-02 1.611580e-01 2.110948e-01 1.286271e-01 3.365261e-01 2.464077e-01 1.827308e-01 2.846037e-01 2.262016e-01 1.205542e-01 1.521815e-01
<GCONST> 9.028147e+01
<MIXTURE> 2 4.584103e-01
<MEAN> 39
 1.183312e+01 -8.312181e+00 8.964107e+00 3.598336e+01 2.929935e+01 -3.797303e+00 -2.485881e+01 4.779902e+00 1.351709e+00 -1.597927e+01 -1.454225e+00 -6.680350e+00 -1.490991e+01 9.135983e-02 2.295062e-01 -2.467732e-01 1.396756e-01 7.922880e-02 -1.197404e-01 2.421799e-01 1.418540e-02 -2.999521e-01 1.055960e-01 2.992608e-02 -1.495965e-01 1.642277e-02 3.315733e-02 -1.310736e-02 2.551771e-02 -4.899025e-02 1.336432e-02 1.162177e-01 -6.800962e-02 3.413363e-02 -6.893503e-02 -9.371474e-02 1.436900e-01 4.624312e-02 -2.004876e-02
<VARIANCE> 39
 4.655999e+00 1.540940e+01 1.406162e+01 2.443721e+01 1.903896e+01 2.439735e+01 3.002235e+01 2.376943e+01 2.963880e+01 2.290626e+01 6.551159e+01 1.874596e+01 3.809123e+01 2.249906e-01 3.447558e-01 5.932507e-01 8.778635e-01 7.247139e-01 6.453353e-01 1.140313e+00 8.817481e-01 7.421376e-01 8.361911e-01 9.024543e-01 7.043117e-01 5.672976e-01 4.276837e-02 4.782407e-02 6.552874e-02 1.191240e-01 9.959327e-02 8.981010e-02 1.695604e-01 1.388519e-01 8.341093e-02 1.377309e-01 1.318029e-01 9.191980e-02 8.875690e-02
<GCONST> 7.550196e+01
<STATE> 6
<NUMMIXES> 2
<MIXTURE> 1 4.878696e-01
<MEAN> 39
 -6.762096e+00 2.512928e+00 8.940119e+00 1.639053e+01 1.288596e+01 6.224359e+00 -5.705610e+00 4.375137e+00 6.595544e-01 -2.518298e+00 -8.434209e-01 -4.227577e+00 -3.130028e+00 -1.508645e+00 5.930248e-01 2.317937e-01 -1.408917e+00 -1.135473e+00 7.609193e-01 1.383782e+00 2.126751e-01 1.195693e-01 7.877222e-01 1.207582e-01 3.585218e-01 7.036918e-01 2.366144e-02 -2.720382e-01 -5.246043e-02 1.012464e-01 1.078173e-01 -9.361938e-02 -2.335137e-01 -1.251105e-02 -9.395026e-02 -1.942242e-01 1.241690e-01 8.686198e-03 -1.831039e-01
<VARIANCE> 39
 1.589811e+02 9.530982e+01 9.988383e+01 1.713954e+02 1.241753e+02 7.413643e+01 4.711605e+01 4.981439e+01 5.105396e+01 3.621185e+01 3.293917e+01 2.949704e+01 2.607485e+01 1.253041e+00 2.958714e+00 1.927220e+00 2.370833e+00 2.074594e+00 1.660426e+00 2.545322e+00 1.744912e+00 1.871654e+00 1.957358e+00 1.751433e+00 1.371945e+00 1.650933e+00 8.522024e-02 1.805733e-01 1.825143e-01 2.445020e-01 2.572256e-01 1.706227e-01 2.421043e-01 2.471213e-01 2.586064e-01 2.895996e-01 2.432412e-01 1.825915e-01 2.128081e-01
<GCONST> 1.133565e+02
<MIXTURE> 2 5.121289e-01
<MEAN> 39
 1.031066e+01 -5.687666e+00 9.553021e+00 3.412794e+01 2.804431e+01 -1.492620e-01 -2.200842e+01 4.136058e+00 -3.919687e-01 -1.404703e+01 7.796794e-01 -6.813696e+00 -1.374116e+01 -5.987920e-01 1.614616e+00 5.653501e-02 -9.775653e-01 -1.233556e+00 6.965511e-01 2.246535e+00 -2.627342e-01 7.705428e-02 1.678265e+00 -6.913041e-01 -1.899543e-01 1.281568e+00 -1.741406e-01 1.775350e-01 1.716399e-01 -2.609388e-01 -1.756553e-01 1.823516e-01 1.497162e-01 1.088018e-01 1.408866e-01 7.334951e-02 -6.069601e-02 6.118248e-02 1.806911e-01
<VARIANCE> 39
 1.137749e+01 3.271402e+01 2.877844e+01 3.595048e+01 3.252584e+01 5.241492e+01 4.235141e+01 5.411538e+01 3.822537e+01 3.881670e+01 4.114807e+01 2.766258e+01 2.504785e+01 5.358595e-01 1.647765e+00 1.038015e+00 1.782656e+00 1.822070e+00 1.479924e+00 2.903604e+00 1.891628e+00 1.806966e+00 2.174107e+00 1.756025e+00 9.864998e-01 1.406499e+00 6.066734e-02 1.422717e-01 1.400323e-01 2.506588e-01 2.569479e-01 1.731203e-01 2.949111e-01 2.443108e-01 2.155741e-01 2.566925e-01 1.898623e-01 1.606507e-01 1.646885e-01
<GCONST> 1.006893e+02
<TRANSP> 7
 0.000000e+00 1.000000e+00 0.000000e+00 0.000000e+00 0.000000e+00 0.000000e+00 0.000000e+00
 0.000000e+00 7.366227e-01 2.633773e-01 0.000000e+00 0.000000e+00 0.000000e+00 0.000000e+00
 0.000000e+00 0.000000e+00 6.685214e-01 3.314786e-01 0.000000e+00 0.000000e+00 0.000000e+00
 0.000000e+00 0.000000e+00 0.000000e+00 8.738741e-01 1.261260e-01 0.000000e+00 0.000000e+00
 0.000000e+00 0.000000e+00 0.000000e+00 0.000000e+00 8.418874e-01 1.581127e-01 0.000000e+00
 0.000000e+00 0.000000e+00 0.000000e+00 0.000000e+00 0.000000e+00 8.608494e-01 1.391506e-01
 0.000000e+00 0.000000e+00 0.000000e+00 0.000000e+00 0.000000e+00 0.000000e+00 0.000000e+00
<ENDHMM>
~h "jh"
<BEGINHMM>
<NUMSTATES> 5
<STATE> 2
<NUMMIXES> 2
<MIXTURE> 1 4.002103e-01
<MEAN> 39
 1.076168e+01 2.361636e+00 6.859313e+00 2.077919e+01 1.320708e+01 6.736358e+00 2.736130e+00 9.427752e+00 -1.247700e+01 -1.680149e+01 1.265916e+00 9.755462e-03 -3.286330e-01 -1.946985e+00 1.805979e+00 2.834105e+00 4.040549e-01 -1.298489e+00 2.149366e+00 1.783297e+00 -1.464878e+00 1.508520e+00 1.692310e+00 -2.436355e+00 -2.041949e-01 1.486887e+00 -2.723503e-01 -5.841098e-01 6.128666e-01 -7.978682e-02 -3.492270e-01 2.771829e-01 -4.015469e-01 -2.416651e-01 4.023618e-01 1.957033e-01 3.621986e-01 -3.361460e-02 -2.125564e-01
<VARIANCE> 39
 1.253405e+01 5.620782e+01 3.109281e+01 2.299701e+01 1.057626e+01 1.687595e+01 2.707541e+01 1.747523e+01 6.310720e+01 3.200258e+01 8.818748e+01 1.155787e+01 2.066886e+01 5.966058e-01 2.275935e+00 1.654872e+00 1.065947e+00 1.505025e+00 1.727727e+00 2.314716e+00 1.642000e+00 4.624442e+00 3.934482e+00 3.862970e+00 5.677608e-01 1.499127e+00 3.220628e-02 9.071383e-01 1.424281e-01 2.199102e-01 1.851142e-01 2.084200e-01 4.694369e-01 3.228161e-01 8.486794e-01 5.762343e-01 5.837454e-01 9.352513e-02 3.925559e-01
<GCONST> 1.042762e+02
<MIXTURE> 2 5.997899e-01
<MEAN> 39
 -4.129583e-02 -2.027538e+00 2.518120e+01 2.347807e+01 5.086905e+00 1.729385e+01 4.277893e+00 3.915594e+00 -2.009617e+00 -1.095830e+01 -3.109892e+00 -9.005342e-01 -1.931322e-02 -2.626857e+00 -5.142537e+00 3.578981e+00 6.001172e-01 -2.410713e+00 1.198703e+00 -5.652874e-01 1.048973e+00 2.060506e+00 -5.432084e-01 1.655554e+00 8.690979e-01 -9.607125e-01 3.882375e-02 -1.242329e+00 -4.145771e-01 -1.673029e-01 -2.000716e-01 -5.923638e-01 -3.472912e-01 5.999644e-01 -1.042887e-01 -3.421959e-01 6.379815e-01 3.988004e-01 2.754046e-03
<VARIANCE> 39
 1.890951e+01 9.206818e+01 4.738041e+01 2.036236e+01 1.749692e+01 2.133537e+01 1.401815e+01 1.630320e+01 4.523452e+01 3.101945e+01 2.687884e+01 1.589275e+01 2.041990e+01 8.606845e-01 6.869433e+00 1.959189e+00 1.240316e+00 1.010584e+00 4.115564e+00 1.899436e+00 3.436543e+00 1.770706e+00 3.334020e+00 2.457454e+00 1.594166e+00 1.134725e+00 1.397803e-01 8.676263e-01 3.644268e-01 3.502586e-01 1.938433e-01 6.168687e-01 3.096090e-01 5.755491e-01 3.358980e-01 4.372917e-01 3.411239e-01 2.660801e-01 4.209540e-01
<GCONST> 1.097196e+02
<STATE> 3
<NUMMIXES> 2
<MIXTURE> 1 2.408330e-01
<MEAN> 39
 -9.543484e+00 -2.646786e+01 3.195221e+01 2.052821e+01 -6.932651e+00 1.465549e+01 2.086113e+00 1.125479e+01 4.221889e+00 -1.198679e+01 6.326298e+00 4.973876e+00 -1.495944e+00 -1.918785e+00 -6.608327e+00 1.310381e+00 -1.535226e+00 -2.936466e+00 -1.009903e+00 -1.782600e+00 1.370067e+00 8.032401e-01 -8.295912e-01 1.861590e+00 1.882472e+00 2.898924e-01 5.631277e-01 1.003970e+00 -4.984568e-01 -2.101609e-01 6.844485e-01 3.136319e-01 -3.974194e-01 -7.967652e-01 -8.851628e-01 1.173849e-01 -3.798038e-01 -3.942023e-01 4.362317e-01
<VARIANCE> 39
 1.502697e+01 4.944123e+01 9.727663e+00 3.371038e+01 2.285513e+01 2.987412e+01 8.447116e+00 1.044074e+01 2.101401e+01 3.775529e+01 8.446020e+00 1.199800e+01 6.935674e+00 1.152652e+00 9.386699e-01 7.844810e-01 2.525113e+00 1.484806e+00 2.349937e+00 1.084343e+00 1.544920e+00 2.857156e+00 2.200826e+00 1.420020e+00 1.941404e+00 7.300593e-01 1.176736e-01 3.846064e-01 3.735094e-01 4.733940e-01 3.584174e-01 6.268301e-01 1.231065e-01 2.368548e-01 1.913690e-01 3.474801e-01 1.888583e-01 2.368089e-01 6.220634e-02
<GCONST> 9.493253e+01
<MIXTURE> 2 7.591671e-01
<MEAN> 39
 -1.331562e+01 -3.961902e+01 3.127307e+01 1.468326e+01 -8.561667e+00 1.403613e+01 -6.834898e+00 8.426717e+00 3.805354e-01 -1.117453e+01 9.210541e+00 6.199409e+00 9.978416e-01 -8.619557e-02 -1.165548e+00 -2.186468e-01 -3.607058e-01 -1.728224e-02 -2.812839e-02 -8.048068e-01 -5.722681e-01 -5.995685e-01 2.679110e-01 3.056613e-01 -1.245203e-01 2.286049e-01 3.946110e-01 8.706576e-01 -3.033420e-01 1.193234e-01 3.898026e-01 -3.483273e-03 2.403249e-01 -2.014684e-01 -8.828619e-02 1.158176e-01 -3.941718e-01 -2.697396e-01 -9.034295e-02
<VARIANCE> 39
 2.788080e+01 1.015731e+02 3.495756e+01 6.406921e+01 1.528062e+01 2.723510e+01 2.248559e+01 1.123555e+01 2.836572e+01 4.195414e+01 1.484296e+01 1.163703e+01 1.172648e+01 1.168630e+00 4.236691e+00 1.712547e+00 2.759589e+00 1.376195e+00 1.884653e+00 2.648881e+00 1.385601e+00 1.426112e+00 3.245373e+00 2.093807e+00 1.104506e+00 6.806053e-01 1.473832e-01 5.600873e-01 4.920442e-01 2.451562e-01 3.964620e-01 2.762078e-01 1.510564e-01 3.642066e-01 2.548082e-01 5.783452e-01 3.745348e-01 2.410776e-01 1.117459e-01
<GCONST> 1.047578e+02
<STATE> 4
<NUMMIXES> 2
<MIXTURE> 1 9.417077e-01
<MEAN> 39
 1.249081e+00 -2.489842e+01 2.420948e+01 2.250997e+01 2.322467e+00 1.865390e+01 -5.516696e+00 2.202313e+00 -4.784294e-01 -1.323897e+01 6.368485e+00 4.313827e+00 -2.097913e+00 1.772881e+00 2.580313e+00 -2.034976e+00 5.991811e-02 1.564745e+00 -5.170004e-01 -3.432643e-01 -2.799307e-01 -2.428908e-01 3.548322e-01 -2.478411e-02 2.084103e-02 9.218372e-02 4.792772e-05 1.741931e-01 -1.561121e-01 -9.765960e-02 -1.819753e-02 -3.070630e-01 -1.032439e-01 2.683763e-01 6.116612e-02 3.223866e-03 1.385228e-01 3.279451e-02 1.948683e-02
<VARIANCE> 39
 5.024129e+01 1.161114e+02 6.224633e+01 5.835572e+01 8.193626e+01 4.092348e+01 2.539616e+01 4.320299e+01 2.569868e+01 3.608868e+01 1.208215e+01 2.649536e+01 2.858394e+01 7.476213e-01 2.607913e+00 3.321708e+00 3.454719e+00 2.529224e+00 2.863912e+00 1.795186e+00 2.188210e+00 1.836801e+00 2.414428e+00 1.544643e+00 1.352440e+00 1.589138e+00 8.301076e-02 4.394607e-01 1.990776e-01 2.875110e-01 1.559622e-01 2.401662e-01 1.833961e-01 2.099234e-01 2.832178e-01 3.220011e-01 1.977990e-01 1.853141e-01 1.204316e-01
<GCONST> 1.082331e+02
<MIXTURE> 2 5.829232e-02
<MEAN> 39
 -1.027250e+01 -4.749699e+01 2.460014e+01 8.897945e+00 -7.896671e+00 1.196730e+01 -1.391085e+01 -2.208713e+00 1.596857e+00 -5.419079e+00 5.168362e+00 -1.796395e-01 -4.523671e-02 1.539983e+00 -1.889880e-01 -1.570911e+00 -4.227022e-01 1.339399e+00 4.176124e-01 -5.006243e-01 -9.315918e-01 -1.512765e+00 -1.668570e-01 7.680147e-01 -1.132651e+00 -2.316601e-01 1.312069e-01 7.112409e-01 3.351558e-01 8.048995e-01 7.172804e-01 8.666919e-01 7.160521e-01 5.732754e-01 2.954036e-01 1.380308e-01 5.701957e-01 3.927575e-01 -1.128505e-01
<VARIANCE> 39
 2.799867e+00 4.245183e+00 3.185118e+00 2.677319e+00 3.951326e+00 4.452055e+00 1.100474e+00 7.650635e-02 3.918183e+00 9.268271e+00 2.374368e+01 2.479415e+00 7.710907e+00 2.866783e-01 3.903815e-01 4.504161e-01 1.707830e+00 1.096612e+00 1.393211e+00 1.036561e+00 3.334707e-01 1.922970e-01 3.415962e-01 8.947923e-01 7.090274e-01 5.390999e-04 2.018956e-02 1.703870e-02 6.711182e-02 3.987601e-02 7.690733e-02 4.792006e-02 1.897421e-03 2.276347e-02 2.142769e-02 1.341600e-01 2.196656e-01 4.581380e-03 6.287455e-02
<GCONST> 2.753327e+01
<TRANSP> 5
 0.000000e+00 1.000000e+00 0.000000e+00 0.000000e+00 0.000000e+00
 0.000000e+00 8.548234e-01 1.451766e-01 0.000000e+00 0.000000e+00
 0.000000e+00 0.000000e+00 8.524280e-01 1.475721e-01 0.000000e+00
 0.000000e+00 0.000000e+00 0.000000e+00 8.251249e-01 1.748751e-01
 0.000000e+00 0.000000e+00 0.000000e+00 0.000000e+00 0.000000e+00
<ENDHMM>
~h "kh"
<BEGINHMM>
<NUMSTATES> 5
<STATE> 2
<NUMMIXES> 2
<MIXTURE> 1 3.731104e-01
<MEAN> 39
 -2.640363e+01 -6.545115e+00 -5.144168e+00 -2.773537e+00 -3.224145e+00 1.178704e+00 -3.522466e+00 1.401719e+00 -1.359741e+00 -5.496435e-01 3.514837e-01 -1.390782e+00 -4.974011e-02 1.208620e-01 -2.768679e-01 -2.386748e-01 1.084529e-01 1.640833e-01 -6.161790e-02 -1.163824e-01 -6.831419e-03 -1.293045e-01 -3.390973e-01 -1.375240e-01 1.858008e-01 1.715719e-01 2.071516e-01 -3.434366e-02 -4.130721e-02 5.952570e-02 7.947484e-02 2.697857e-02 3.113976e-02 1.748946e-01 1.471251e-02 -8.058501e-02 -1.033680e-02 7.031208e-02 1.228822e-01
<VARIANCE> 39
 7.812321e-01 2.057540e+00 1.993542e+00 3.368328e+00 4.565614e+00 7.585557e+00 7.062441e+00 6.432867e+00 1.376025e+01 1.171414e+01 7.802186e+00 8.634028e+00 7.085063e+00 2.692977e-01 4.550355e-01 4.160861e-01 5.817337e-01 9.865817e-01 1.197809e+00 1.010494e+00 1.342271e+00 1.513205e+00 1.798446e+00 1.407888e+00 1.000494e+00 1.021351e+00 9.744861e-02 1.226000e-01 1.256172e-01 1.220224e-01 2.031858e-01 2.887184e-01 1.926723e-01 3.035812e-01 3.026856e-01 3.667843e-01 3.209847e-01 2.289667e-01 2.375480e-01
<GCONST> 7.046049e+01
<MIXTURE> 2 6.268892e-01
<MEAN> 39
 -3.885843e+00 4.129869e+00 5.433006e+00 1.778240e+01 1.742624e+01 7.058107e+00 -6.802262e+00 3.482142e+00 -2.050408e-01 -2.428732e+00 6.539558e-01 -2.005076e+00 -1.032091e+00 -2.412257e+00 -6.607626e-01 -5.892271e-01 -1.712120e+00 -1.412812e+00 9.951266e-01 1.488436e+00 -5.892966e-01 -5.741481e-01 6.820515e-03 -8.566400e-01 1.837800e-01 1.258337e+00 1.163098e-01 -9.737025e-01 -6.331899e-01 -3.689371e-01 -2.115801e-01 -2.932954e-02 -1.575535e-01 -3.395724e-02 -3.623542e-01 -3.667461e-01 2.877378e-01 -1.306336e-01 -2.248693e-01
<VARIANCE> 39
 5.174485e+01 2.454573e+01 1.959034e+01 5.052508e+01 7.367587e+01 2.542786e+01 3.733321e+01 3.012712e+01 2.920076e+01 3.165804e+01 2.756455e+01 2.404909e+01 2.204641e+01 1.235070e+00 3.492318e+00 1.641567e+00 1.667657e+00 2.289657e+00 2.576109e+00 3.704525e+00 2.064618e+00 2.462772e+00 2.611497e+00 1.994376e+00 1.177036e+00 2.250716e+00 1.321356e-01 3.502596e-01 2.654525e-01 3.275016e-01 4.357726e-01 3.113000e-01 2.952139e-01 3.538229e-01 4.522966e-01 3.539853e-01 3.525270e-01 2.049417e-01 3.337005e-01
<GCONST> 1.111758e+02
<STATE> 3
<NUMMIXES> 2
<MIXTURE> 1 3.976721e-01
<MEAN> 39
 -1.182896e+01 -4.888124e+00 -2.059415e+00 9.437974e+00 1.135327e+01 9.552251e+00 -1.809407e+00 3.986676e+00 -1.752778e+00 -4.018735e+00 -1.799138e+00 -2.255944e+00 2.675341e+00 -5.317153e-02 -3.686397e+00 -3.136051e+00 -2.811774e+00 -2.508293e+00 -5.710245e-01 -1.382139e-01 -9.953633e-02 -5.946519e-01 -1.353670e-01 6.138393e-01 -3.078701e-01 6.806741e-01 9.344995e-01 -3.180960e-01 -1.230113e-01 -1.826528e-01 -3.407539e-01 -4.336460e-01 -8.075718e-01 -3.455321e-01 -4.424441e-01 -7.520039e-02 8.057065e-01 -1.649886e-01 -4.789796e-01
<VARIANCE> 39
 4.488076e+01 4.464596e+01 3.886316e+01 5.140733e+01 5.451064e+01 4.796672e+01 3.293765e+01 4.141800e+01 3.794734e+01 3.125138e+01 4.078411e+01 2.807478e+01 2.724274e+01 3.875346e+00 4.531627e+00 2.886308e+00 4.447827e+00 4.955513e+00 5.024882e+00 5.178895e+00 3.796061e+00 4.163751e+00 3.068321e+00 5.121323e+00 2.591271e+00 2.761612e+00 1.692730e-01 3.900705e-01 5.213854e-01 3.648448e-01 5.156823e-01 4.051552e-01 5.088670e-01 4.398290e-01 6.074402e-01 5.443621e-01 6.108581e-01 3.372634e-01 4.755017e-01
<GCONST> 1.262840e+02
<MIXTURE> 2 6.023276e-01
<MEAN> 39
 -4.861848e+00 -1.938983e+01 -1.146229e+01 -1.052195e+00 -1.699396e+00 2.554853e+00 -9.700830e+00 5.872647e-01 -9.683249e+00 -8.301220e+00 6.029031e+00 -5.611441e+00 -6.846838e-02 2.287589e+00 -2.338707e+00 -6.448390e-02 -1.078513e+00 -1.941076e+00 -2.716510e-01 -1.583592e+00 -1.074788e+00 -2.497069e+00 -1.455652e+00 2.560199e+00 -2.146494e-01 -8.296603e-01 -1.958494e-01 5.541500e-01 9.808682e-01 7.531356e-01 4.196392e-01 3.209812e-01 2.684786e-01 1.039398e-01 3.285079e-01 1.374575e-01 -2.304510e-01 3.121456e-01 2.334473e-01
<VARIANCE> 39
 5.658963e+01 6.203226e+01 2.152092e+01 4.122570e+01 8.001447e+01 1.394357e+02 8.902721e+01 7.170731e+01 7.162241e+01 6.944985e+01 1.009299e+02 4.403012e+01 2.408568e+01 1.818720e+00 2.776130e+00 4.069650e+00 3.588426e+00 2.277725e+00 3.619571e+00 2.867950e+00 2.800209e+00 3.697164e+00 3.201687e+00 4.133060e+00 2.398864e+00 2.503885e+00 4.938278e-01 3.462057e-01 3.837782e-01 4.863822e-01 3.739701e-01 4.796006e-01 4.748416e-01 4.131165e-01 1.087642e+00 8.636599e-01 1.013651e+00 3.314841e-01 5.624707e-01
<GCONST> 1.304590e+02
<STATE> 4
<NUMMIXES> 2
<MIXTURE> 1 5.183454e-01
<MEAN> 39
 -2.689131e+00 -2.932691e+01 1.401571e+00 1.010266e+01 5.569606e-01 8.361115e+00 -1.414867e+01 -5.282203e+00 -1.185749e+01 -7.033664e+00 1.263930e+01 -4.277446e+00 -1.897519e-01 3.968321e-02 3.496061e-01 1.386842e+00 1.406830e+00 1.158324e+00 1.252797e+00 8.252996e-01 3.489259e-01 7.056225e-01 8.599519e-01 5.981786e-01 7.547072e-01 3.754679e-01 -1.271217e-02 3.933395e-01 -1.727718e-01 1.118280e-02 1.703743e-01 -1.245319e-01 1.598469e-01 2.632199e-01 2.652495e-01 1.142969e-01 -1.344866e-01 -1.903391e-02 -2.570036e-02
<VARIANCE> 39
 2.540205e+01 6.036421e+01 5.006014e+01 8.802489e+01 1.050150e+02 2.762769e+02 8.230399e+01 5.421812e+01 4.005954e+01 5.317320e+01 4.328587e+01 5.111185e+01 2.876406e+01 8.734620e-01 3.782369e+00 2.446738e+00 1.443409e+00 2.617399e+00 3.218983e+00 2.126899e+00 3.098494e+00 2.402289e+00 1.988217e+00 1.945426e+00 1.236281e+00 1.335271e+00 1.442750e-01 2.541045e-01 3.711839e-01 2.526025e-01 3.388335e-01 5.761321e-01 4.035456e-01 4.096335e-01 4.307586e-01 4.500434e-01 3.477377e-01 2.032277e-01 2.159091e-01
<GCONST> 1.190813e+02
<MIXTURE> 2 4.816531e-01
<MEAN> 39
 3.552932e+00 -1.670708e+01 -8.679276e+00 -3.594709e+00 -1.101456e+01 4.307475e+00 4.657593e+00 1.026621e+01 -3.506845e+00 -2.031474e+00 1.098525e+01 3.936196e+00 7.293331e+00 5.074148e-01 8.134102e-01 -3.771449e-01 4.047310e-01 -4.150073e-02 -1.034964e+00 4.055716e-01 7.728059e-01 1.215136e+00 7.591729e-01 -5.697266e-01 5.794406e-03 9.520049e-02 8.948490e-02 5.432333e-02 -2.202978e-02 2.380252e-02 1.286761e-01 -7.150707e-02 -1.844447e-01 -5.188458e-02 -1.197403e-01 -1.833989e-01 -1.743649e-02 -7.845305e-02 -1.651651e-01
<VARIANCE> 39
 9.010257e+01 5.536581e+01 7.121447e+01 1.013729e+02 2.485457e+02 1.885011e+02 5.443977e+01 7.254150e+01 6.990663e+01 9.627110e+01 7.753628e+01 3.209888e+01 1.929660e+01 1.227045e+00 2.843720e+00 2.008747e+00 2.525777e+00 4.162649e+00 4.056551e+00 2.216347e+00 1.855364e+00 2.166077e+00 2.176742e+00 2.057714e+00 1.411691e+00 1.589112e+00 6.344808e-02 1.852262e-01 2.852265e-01 3.378354e-01 3.938561e-01 5.932355e-01 4.116963e-01 3.075168e-01 3.356322e-01 3.190197e-01 3.122227e-01 2.367756e-01 1.803282e-01
<GCONST> 1.210451e+02
<TRANSP> 5
 0.000000e+00 1.000000e+00 0.000000e+00 0.000000e+00 0.000000e+00
 0.000000e+00 7.152936e-01 2.847065e-01 0.000000e+00 0.000000e+00
 0.000000e+00 0.000000e+00 8.211986e-01 1.788014e-01 0.000000e+00
 0.000000e+00 0.000000e+00 0.000000e+00 9.095352e-01 9.046480e-02
 0.000000e+00 0.000000e+00 0.000000e+00 0.000000e+00 0.000000e+00
<ENDHMM>
~h "mq"
<BEGINHMM>
<NUMSTATES> 5
<STATE> 2
<NUMMIXES> 2
<MIXTURE> 1 1.000000e+00
<MEAN> 39
 2.180721e+01 -5.800081e+00 -8.956612e+00 -4.272037e+00 2.601547e+00 -1.202324e+00 -2.712975e+00 2.509584e+01 -7.119729e+00 -1.917171e+01 1.417762e+01 -2.077919e+00 -7.870001e+00 -5.520739e-02 6.076293e-02 7.062439e-01 4.251644e-01 4.470809e-01 6.024289e-01 -3.164607e-01 -6.484253e-01 -8.738798e-01 -6.854326e-02 7.971613e-01 -2.457928e-01 -5.448641e-02 -3.403740e-02 7.808692e-02 4.759833e-03 1.571824e-01 3.790034e-02 -3.811209e-02 7.405563e-02 -1.019882e-01 7.759739e-02 6.965397e-02 -2.031632e-01 3.988088e-02 4.075245e-02
<VARIANCE> 39
 5.890372e+00 1.665752e+01 2.818265e+01 3.591442e+01 2.454460e+01 3.581092e+01 3.337961e+01 4.754022e+01 2.467620e+01 2.724601e+01 4.374767e+01 9.948125e+00 7.840407e+00 4.399787e-01 5.306804e-01 4.697853e-01 9.135295e-01 7.156731e-01 6.776146e-01 1.564380e+00 2.159407e+00 4.989552e-01 1.025196e+00 1.326193e+00 5.749744e-01 3.056109e-01 7.871348e-02 1.008198e-01 6.784369e-02 1.057642e-01 8.867447e-02 1.120253e-01 2.718129e-01 2.846381e-01 7.765949e-02 1.555418e-01 2.978441e-01 9.046874e-02 5.291219e-02
<GCONST> 8.012975e+01
<MIXTURE> 2 0.000000e+00
<MEAN> 39
 -9.685755e-07 -6.519258e-07 -1.657754e-07 6.034970e-07 1.440640e-09 1.266599e-07 -8.195639e-08 7.823110e-08 2.533197e-07 1.257285e-08 1.639128e-07 7.078052e-07 2.328306e-08 3.019522e-10 -4.656613e-09 -1.216540e-08 1.164153e-10 1.781154e-08 1.982698e-10 -3.026798e-09 5.587935e-09 -1.746230e-09 4.097819e-08 2.363231e-08 1.315493e-08 -2.043089e-08 -3.744487e-03 2.978991e-04 -4.746468e-04 6.844162e-05 -1.603577e-04 -3.450464e-05 5.754238e-05 -8.061554e-05 1.271995e-04 -1.902887e-04 4.669849e-05 -1.564687e-04 -6.364408e-05
<VARIANCE> 39
 1.000000e-30 1.000000e-30 1.000000e-30 1.000000e-30 1.000000e-30 9.313226e-09 1.000000e-30 3.492460e-10 1.000000e-30 1.473381e-10 1.781154e-08 1.000000e-30 1.000000e-30 1.000000e-30 1.000000e-30 1.000000e-30 2.110312e-12 1.000000e-30 1.000000e-30 1.409717e-11 1.000000e-30 1.318767e-11 3.419700e-10 1.000000e-30 1.000000e-30 1.000000e-30 1.827128e-03 6.024704e-05 5.945166e-05 2.794358e-05 3.412523e-05 3.360989e-05 3.020229e-05 3.188291e-05 2.277736e-05 2.193036e-05 1.852728e-05 2.304439e-05 1.544051e-05
<GCONST> -1.800000e+11
<STATE> 3
<NUMMIXES> 2
<MIXTURE> 1 1.000000e+00
<MEAN> 39
 1.714027e+01 1.571389e+00 -2.375704e-01 7.861979e+00 1.068900e+01 5.657663e+00 -2.246186e+00 1.133794e+01 -1.000452e+01 -1.528592e+01 7.389287e+00 -2.773728e+00 -4.538221e+00 -1.605235e+00 2.730494e+00 1.695065e+00 1.813321e+00 7.916771e-01 1.055624e+00 1.088085e+00 -1.794624e+00 8.659745e-01 8.603199e-01 -3.934634e+00 -2.321204e-01 1.033518e+00 -2.438450e-01 7.222131e-03 2.409378e-01 -1.027544e-01 -2.404157e-01 6.207629e-02 -5.785506e-02 1.205211e-01 1.234752e-01 -5.080612e-02 -1.569545e-01 -4.900195e-02 1.923775e-01
<VARIANCE> 39
 1.447508e+01 3.775372e+01 3.543782e+01 2.101858e+01 3.548938e+01 3.753272e+01 2.450393e+01 5.118726e+01 2.777530e+01 2.086677e+01 8.552741e+01 1.527313e+01 1.329365e+01 6.335602e-01 9.839404e-01 1.218202e+00 7.687741e-01 8.621909e-01 1.189758e+00 1.996116e+00 1.038985e+00 2.160390e+00 8.798010e-01 2.337847e+00 8.307321e-01 4.487069e-01 8.181418e-02 3.754314e-01 1.695112e-01 1.581996e-01 2.627163e-01 1.234230e-01 2.546292e-01 1.623335e-01 4.024874e-01 1.980394e-01 9.463108e-01 1.240951e-01 6.738138e-02
<GCONST> 9.468335e+01
<MIXTURE> 2 0.000000e+00
<MEAN> 39
 1.769513e-08 2.514571e-08 -9.313226e-09 1.443550e-08 7.078052e-08 3.911555e-08 -6.798655e-08 3.725290e-09 -1.192093e-07 4.773028e-08 -2.095476e-08 3.818423e-08 3.492460e-09 -1.477929e-11 -3.783498e-10 1.746230e-10 1.011358e-09 1.149601e-09 4.911271e-10 2.779416e-09 1.760782e-09 3.929017e-10 5.966285e-10 -5.209586e-09 2.590241e-09 4.249159e-09 -2.047057e-02 1.739704e-03 -2.860196e-03 4.944406e-04 -9.179143e-04 -4.275220e-04 -1.494129e-04 -1.110907e-03 -5.215620e-04 -1.377407e-03 -4.617415e-04 -8.713729e-04 -4.312473e-04
<VARIANCE> 39
 1.000000e-30 1.964509e-09 1.000000e-30 3.888090e-11 1.000000e-30 1.000000e-30 1.000000e-30 1.000000e-30 1.804437e-09 3.074092e-10 3.783498e-10 1.000000e-30 3.836931e-13 1.000000e-30 2.060574e-13 1.000000e-30 1.962874e-13 1.108447e-12 1.085798e-13 1.000000e-30 8.490986e-13 1.000000e-30 1.000000e-30 4.021672e-12 1.000000e-30 1.989520e-13 1.418590e-02 4.708500e-04 6.059122e-04 2.832045e-04 2.438255e-04 1.964814e-04 2.386844e-04 2.203498e-04 2.247814e-04 1.830704e-04 2.037936e-04 1.436218e-04 1.237932e-04
<GCONST> -1.300000e+11
<STATE> 4
<NUMMIXES> 2
<MIXTURE> 1 1.000000e+00
<MEAN> 39
 1.013772e+01 1.066154e+01 7.266292e+00 1.306008e+01 1.013095e+01 8.315767e+00 9.068561e-01 6.662341e+00 -6.533516e+00 -1.293925e+01 -6.003450e+00 -3.398127e+00 7.010825e-01 -2.407160e+00 -3.774644e-01 2.762814e+00 9.071858e-01 -1.866940e+00 9.912602e-01 1.027350e+00 -1.063099e+00 1.731189e-01 7.671159e-01 -8.444700e-01 1.304044e-01 1.112498e+00 -3.268933e-01 -1.635350e+00 3.644291e-01 1.021867e-01 -6.129615e-01 -1.195024e-02 -1.903281e-01 4.093488e-01 1.006433e-01 -1.400090e-01 9.041953e-01 9.474713e-02 -1.828103e-01
<VARIANCE> 39
 3.244265e+01 4.075098e+01 5.992499e+01 6.253328e+00 4.195858e+01 8.013651e+01 2.436586e+01 7.321099e+01 1.718825e+01 2.010893e+01 3.721724e+01 1.208476e+01 1.489417e+01 1.311668e+00 3.300179e+00 2.259682e+00 5.173177e-01 2.318619e+00 7.747395e-01 8.363912e-01 1.529550e+00 1.604758e+00 2.226145e+00 2.437870e+00 3.965650e-01 1.097267e+00 8.056299e-02 5.018655e-01 1.899558e-01 9.559651e-02 2.835413e-01 8.536179e-02 2.437364e-01 1.625906e-01 2.555725e-01 3.119597e-01 4.423919e-01 1.048984e-01 1.117419e-01
<GCONST> 9.688095e+01
<MIXTURE> 2 0.000000e+00
<MEAN> 39
 0.000000e+00 0.000000e+00 0.000000e+00 0.000000e+00 0.000000e+00 0.000000e+00 0.000000e+00 0.000000e+00 0.000000e+00 0.000000e+00 0.000000e+00 0.000000e+00 0.000000e+00 0.000000e+00 0.000000e+00 0.000000e+00 0.000000e+00 0.000000e+00 0.000000e+00 0.000000e+00 0.000000e+00 0.000000e+00 0.000000e+00 0.000000e+00 0.000000e+00 0.000000e+00 -7.323198e-02 1.123042e-02 -1.038370e-02 1.682460e-03 -2.594927e-03 -1.410091e-03 -1.503533e-03 -3.022441e-03 -2.858302e-03 -3.888699e-03 -2.411382e-03 -1.670942e-03 -2.166644e-03
<VARIANCE> 39
 1.000000e-30 1.000000e-30 1.000000e-30 1.000000e-30 1.000000e-30 1.000000e-30 1.000000e-30 1.000000e-30 1.000000e-30 1.000000e-30 1.000000e-30 1.000000e-30 1.000000e-30 1.000000e-30 1.000000e-30 1.000000e-30 1.000000e-30 1.000000e-30 1.000000e-30 1.000000e-30 1.000000e-30 1.000000e-30 1.000000e-30 1.000000e-30 1.000000e-30 1.000000e-30 6.110287e-02 6.616157e-03 5.196090e-03 3.621858e-03 3.050250e-03 4.287072e-03 4.344802e-03 3.931833e-03 3.373807e-03 2.996578e-03 2.947920e-03 2.834462e-03 2.042745e-03
<GCONST> -2.600001e+11
<TRANSP> 5
 0.000000e+00 1.000000e+00 0.000000e+00 0.000000e+00 0.000000e+00
 0.000000e+00 9.145293e-01 8.547064e-02 0.000000e+00 0.000000e+00
 0.000000e+00 0.000000e+00 7.718933e-01 2.281067e-01 0.000000e+00
 0.000000e+00 0.000000e+00 0.000000e+00 5.445671e-01 4.554329e-01
 0.000000e+00 0.000000e+00 0.000000e+00 0.000000e+00 0.000000e+00
<ENDHMM>
~h "nj"
<BEGINHMM>
<NUMSTATES> 5
<STATE> 2
<NUMMIXES> 2
<MIXTURE> 1 6.448376e-01
<MEAN> 39
 2.500529e+00 4.883284e+00 9.640644e+00 7.663284e+00 8.983262e+00 1.102280e+00 -1.110930e+01 -4.794134e+00 -1.288087e+00 -5.336167e+00 -8.651181e+00 -5.994543e+00 -4.689224e+00 -8.037093e-03 3.616399e-01 2.282659e-01 1.904264e-01 -7.341486e-02 2.493188e-01 -1.645973e-01 1.039757e-01 1.836264e-01 -2.358938e-02 -1.693905e-01 -2.100465e-01 6.134257e-02 -2.933799e-02 -8.245458e-02 -2.934181e-02 -2.555616e-02 -3.167558e-02 -6.560107e-02 9.943750e-02 4.022849e-02 -2.891495e-02 -3.393753e-02 8.488162e-02 6.642201e-02 -4.307508e-02
<VARIANCE> 39
 2.984620e+01 6.743415e+01 3.440329e+01 6.486826e+01 9.630917e+01 1.111856e+02 7.206052e+01 3.914428e+01 4.361893e+01 6.400179e+01 5.133936e+01 4.753320e+01 6.246100e+01 3.205257e-01 9.356377e-01 8.799419e-01 1.011097e+00 1.131665e+00 1.602336e+00 1.676275e+00 1.622988e+00 1.393007e+00 1.544790e+00 1.534638e+00 1.262773e+00 1.005133e+00 5.129976e-02 1.324087e-01 1.310566e-01 1.649362e-01 1.886846e-01 2.602298e-01 2.799097e-01 2.472048e-01 2.361487e-01 2.447439e-01 2.395605e-01 1.899032e-01 1.721881e-01
<GCONST> 1.035840e+02
<MIXTURE> 2 3.551624e-01
<MEAN> 39
 2.709807e+00 8.928315e+00 1.147999e+01 -1.502002e+00 5.525277e+00 -1.202266e+01 -1.337622e+01 -2.554715e-01 -4.602529e+00 -1.768139e+01 -1.319073e+01 -1.517253e+01 -1.372431e+01 -3.641024e-02 1.717343e-01 7.861748e-02 2.967181e-02 -1.046537e-01 -5.441139e-03 -2.671677e-02 6.079637e-02 1.669364e-01 -1.932618e-01 -2.864245e-01 5.561825e-02 9.325963e-02 -4.810160e-02 -6.521460e-02 -1.482642e-02 1.193514e-02 -1.650132e-02 -1.109369e-02 1.465435e-01 -1.707742e-01 -4.778483e-02 1.308504e-01 6.270327e-02 7.036697e-02 2.437993e-02
<VARIANCE> 39
 2.806140e+00 1.555293e+01 1.314208e+01 1.840736e+01 2.262506e+01 2.127437e+01 3.199649e+01 3.318005e+01 3.093358e+01 4.198512e+01 4.848846e+01 2.774301e+01 2.260729e+01 5.275457e-02 2.340834e-01 2.735551e-01 3.459295e-01 4.041417e-01 4.254854e-01 6.606404e-01 7.842113e-01 6.592637e-01 7.675110e-01 6.076438e-01 6.638942e-01 4.363255e-01 1.427971e-02 5.345663e-02 5.262011e-02 7.491710e-02 9.308103e-02 1.030196e-01 1.470128e-01 1.566586e-01 1.284100e-01 1.334793e-01 1.117656e-01 1.170488e-01 9.097067e-02
<GCONST> 6.805726e+01
<STATE> 3
<NUMMIXES> 2
<MIXTURE> 1 5.768365e-01
<MEAN> 39
 -1.650130e+00 4.293084e+00 1.251531e+01 7.997261e+00 8.073728e+00 -5.246037e-01 -5.022378e+00 -3.656913e+00 -1.169887e+00 -5.260289e+00 -6.472120e+00 -5.230941e+00 -5.362416e+00 -2.457572e-01 -1.055694e+00 5.425199e-02 6.005565e-02 -8.472940e-02 -6.629400e-01 5.229853e-01 -3.181231e-01 -3.388248e-01 -7.298808e-02 3.639769e-01 1.593710e-01 -1.386185e-01 1.520792e-02 -1.310300e-01 -6.702862e-02 -3.907461e-02 5.318189e-02 -1.073812e-01 -1.160357e-01 4.202005e-03 -2.860112e-02 -1.644950e-02 3.863433e-02 3.098836e-02 1.592401e-03
<VARIANCE> 39
 3.918433e+01 6.900724e+01 3.661243e+01 5.426512e+01 7.157546e+01 9.625215e+01 7.617765e+01 5.381805e+01 4.801081e+01 6.558137e+01 4.535140e+01 4.882023e+01 3.880204e+01 1.803826e+00 4.185937e+00 2.995981e+00 3.165112e+00 2.961892e+00 4.166068e+00 5.236826e+00 3.490489e+00 2.493116e+00 2.927037e+00 2.647161e+00 2.256471e+00 1.742612e+00 2.675167e-01 6.951686e-01 5.092847e-01 5.361979e-01 4.958111e-01 6.914724e-01 8.867679e-01 5.816731e-01 4.441610e-01 4.559211e-01 3.934963e-01 3.435938e-01 2.966835e-01
<GCONST> 1.282403e+02
<MIXTURE> 2 4.231635e-01
<MEAN> 39
 1.295004e+01 -1.990565e+00 1.135198e+01 1.051720e+01 -6.057696e+00 5.887888e+00 -1.010513e+01 -1.137384e+01 1.444680e+00 -1.270348e+01 -1.434898e+01 -7.786644e+00 -1.003824e+01 -9.293678e-02 2.690157e-01 1.644063e-01 -4.434790e-02 4.908991e-03 -1.315278e-02 2.359147e-02 2.516896e-02 3.590895e-02 -1.700219e-02 -1.722138e-01 -5.740685e-02 3.323376e-02 -9.219238e-03 -9.527378e-02 1.038478e-02 5.471010e-02 -4.705711e-02 -1.766123e-03 5.385786e-02 9.632568e-03 -1.593223e-02 1.461344e-02 6.699349e-02 4.784431e-02 -4.166522e-02
<VARIANCE> 39
 3.856699e+00 2.329041e+01 2.029645e+01 2.178050e+01 2.279533e+01 2.924805e+01 4.529770e+01 3.117255e+01 4.292793e+01 9.096780e+01 3.922691e+01 2.936979e+01 2.970384e+01 1.036110e-01 3.492112e-01 2.670597e-01 3.809765e-01 4.285590e-01 5.403163e-01 4.986794e-01 4.888597e-01 5.781164e-01 5.797477e-01 5.508767e-01 4.750876e-01 4.293715e-01 1.962212e-02 7.488119e-02 4.759888e-02 7.101423e-02 9.162906e-02 9.864736e-02 9.496345e-02 9.101720e-02 1.042438e-01 1.084253e-01 8.732623e-02 8.894771e-02 7.543494e-02
<GCONST> 6.937938e+01
<STATE> 4
<NUMMIXES> 2
<MIXTURE> 1 6.193125e-01
<MEAN> 39
 1.028075e+01 -1.288878e+01 1.373863e+01 1.291313e+01 -1.063704e+01 3.015265e+00 -1.051210e+01 -9.272548e+00 1.731557e+00 -1.466234e+01 -7.812191e+00 -3.781766e+00 -1.403609e+01 -1.313824e-01 -1.218131e+00 -2.753857e-02 8.111192e-02 -5.507110e-01 -1.762661e-01 1.277021e-02 -2.771645e-02 9.013085e-02 -2.377615e-02 5.405732e-01 4.540587e-01 -2.427453e-01 1.725942e-02 3.638613e-02 -6.293325e-02 -6.635727e-02 3.109851e-02 -2.954077e-03 -4.337660e-02 -9.599536e-03 -1.934156e-02 8.019480e-03 4.517408e-03 -5.125827e-03 2.411142e-02
<VARIANCE> 39
 5.360118e+01 1.147594e+02 5.651950e+01 4.958639e+01 6.452203e+01 8.099206e+01 6.030843e+01 4.255379e+01 4.687903e+01 6.013705e+01 5.901341e+01 4.074115e+01 4.006900e+01 1.196394e+00 4.081296e+00 2.274762e+00 1.764822e+00 2.229019e+00 2.915065e+00 2.342601e+00 1.784886e+00 1.712513e+00 1.735224e+00 1.473653e+00 1.255965e+00 1.251955e+00 1.512755e-01 5.907288e-01 2.923045e-01 2.467913e-01 3.750200e-01 4.103101e-01 3.571459e-01 2.759851e-01 2.797883e-01 2.719341e-01 2.224235e-01 2.094979e-01 1.860853e-01
<GCONST> 1.158219e+02
<MIXTURE> 2 3.806876e-01
<MEAN> 39
 7.986883e-01 -2.793469e+00 4.055068e+00 2.384333e+00 1.088714e+01 -1.595118e+01 -9.973896e+00 -5.408926e+00 -6.926043e+00 -7.952407e+00 -2.742266e+00 -4.678221e+00 -8.477713e+00 1.703769e-01 -3.709843e-01 -7.981473e-01 -6.735662e-01 5.414159e-02 -6.422171e-01 -1.553994e-01 1.988008e-01 -1.845535e-01 -3.992972e-03 4.756051e-01 5.521997e-01 5.975723e-02 -9.899956e-03 9.672721e-02 2.898581e-02 -8.035121e-02 -5.190688e-02 1.995320e-01 1.440018e-01 3.425548e-02 4.790647e-02 -3.596259e-02 -8.568133e-02 2.389571e-02 3.080674e-02
<VARIANCE> 39
 9.078952e+00 3.836557e+01 4.360814e+01 6.360629e+01 1.041817e+02 1.081912e+02 7.833575e+01 4.377275e+01 4.398346e+01 6.020568e+01 4.762598e+01 8.173207e+01 5.883461e+01 1.580081e-01 6.745912e-01 6.551996e-01 1.306109e+00 1.275327e+00 2.599120e+00 1.752467e+00 1.489350e+00 1.622001e+00 1.614136e+00 1.536328e+00 1.120704e+00 1.123707e+00 2.352860e-02 7.751360e-02 8.667944e-02 1.638183e-01 1.665535e-01 2.938957e-01 2.637431e-01 2.522829e-01 2.238973e-01 2.590835e-01 2.209582e-01 1.880653e-01 1.505378e-01
<GCONST> 1.003273e+02
<TRANSP> 5
 0.000000e+00 1.000000e+00 0.000000e+00 0.000000e+00 0.000000e+00
 0.000000e+00 8.560609e-01 1.439391e-01 0.000000e+00 0.000000e+00
 0.000000e+00 0.000000e+00 8.582612e-01 1.417388e-01 0.000000e+00
 0.000000e+00 0.000000e+00 0.000000e+00 8.322633e-01 1.677367e-01
 0.000000e+00 0.000000e+00 0.000000e+00 0.000000e+00 0.000000e+00
<ENDHMM>
~h "nx"
<BEGINHMM>
<NUMSTATES> 5
<STATE> 2
<NUMMIXES> 2
<MIXTURE> 1 1.000000e+00
<MEAN> 39
 2.271791e+01 9.339922e-01 -1.323763e+01 -7.602520e+00 1.517730e+01 1.178137e+01 -1.480621e+01 4.189004e+00 -6.346309e+00 -1.563157e+01 8.024627e+00 -1.177651e+00 -3.565008e+00 -1.430165e-01 3.036460e-01 3.052448e-01 3.110662e-01 -2.122432e-02 1.591003e-01 7.758056e-01 1.487629e-01 -1.996940e-01 -2.239070e-01 -4.141564e-01 -1.149813e-02 -1.102052e-01 -6.290015e-02 1.313197e-02 1.200821e-01 2.253277e-01 1.060472e-02 -7.048423e-02 7.636271e-02 1.522202e-02 -4.530528e-03 -1.373835e-02 -1.068864e-01 -4.675197e-03 5.423017e-03
<VARIANCE> 39
 1.355483e+01 1.091035e+01 2.021343e+01 3.069040e+01 1.671064e+01 1.712093e+01 5.449055e+01 4.020109e+01 1.587645e+01 2.437191e+01 2.603227e+01 8.831278e+00 9.848034e+00 4.138958e-01 3.221100e-01 8.334015e-01 2.077941e+00 6.130852e-01 8.913988e-01 2.600587e+00 1.629291e+00 6.743151e-01 1.381569e+00 1.793262e+00 6.361864e-01 4.205348e-01 6.249021e-02 4.911440e-02 1.309150e-01 1.446472e-01 1.050128e-01 1.278046e-01 3.053370e-01 2.632771e-01 8.609428e-02 2.380462e-01 1.790983e-01 1.273386e-01 6.314580e-02
<GCONST> 8.168845e+01
<MIXTURE> 2 0.000000e+00
<MEAN> 39
 1.361686e+01 -1.383072e+00 7.618060e+00 1.232223e+01 -2.383529e+00 8.959254e+00 -1.035662e+01 -1.021862e+01 8.851387e+00 -8.332142e+00 -1.389112e+01 -1.311377e+00 -7.191798e+00 -1.457334e-01 3.850303e-01 1.832990e-01 7.829956e-02 1.980715e-01 -5.036991e-02 -1.340757e-01 -1.179461e-01 -3.900307e-02 1.584407e-01 2.003755e-02 -8.778737e-02 -5.617338e-02 -8.385319e-04 -4.167615e-02 -5.001837e-02 5.873689e-03 7.726591e-03 -9.950018e-03 4.415042e-02 -3.027088e-03 -5.418176e-02 3.586245e-02 5.732016e-02 -7.334471e-04 -7.240163e-03
<VARIANCE> 39
 2.374427e+00 2.125168e+01 1.217588e+01 1.771664e+01 1.535122e+01 2.714209e+01 2.611153e+01 3.003095e+01 4.948417e+01 3.589555e+01 2.532868e+01 2.865796e+01 2.461707e+01 5.158678e-02 1.692707e-01 2.307495e-01 3.434558e-01 3.976840e-01 4.632231e-01 5.185775e-01 4.969022e-01 5.959083e-01 6.742363e-01 5.816705e-01 4.702742e-01 4.794611e-01 8.847732e-03 2.771878e-02 3.858319e-02 5.424614e-02 6.815128e-02 7.742334e-02 8.735045e-02 8.348746e-02 1.017274e-01 9.737392e-02 8.988705e-02 7.854709e-02 8.157872e-02
<GCONST> 6.095366e+01
<STATE> 3
<NUMMIXES> 2
<MIXTURE> 1 2.447725e-01
<MEAN> 39
 1.479298e+01 8.980700e+00 5.927488e+00 2.188163e+01 2.454163e+01 6.317040e+00 -1.599057e+01 -1.093339e+01 -7.575552e+00 -6.468258e+00 -3.135393e+00 -5.357870e+00 -3.524310e+00 -1.213266e-01 3.532935e-01 2.735977e-01 -2.691478e-01 -4.357037e-01 1.829394e-01 5.035618e-01 -1.351439e-01 -8.215229e-02 3.003825e-01 -2.674184e-01 -3.379940e-01 1.410870e-01 -1.378977e-02 -1.729710e-01 -8.653319e-02 -1.213422e-01 -2.518378e-02 6.564757e-02 1.030773e-01 3.771629e-01 5.059720e-02 -1.987262e-01 8.807854e-02 1.532273e-02 -6.254229e-02
<VARIANCE> 39
 2.399359e+00 1.224083e+01 1.233432e+01 8.394834e+00 1.321164e+01 7.756097e+00 1.300963e+01 1.971691e+01 1.323262e+01 2.623001e+01 1.247466e+01 1.717709e+01 4.800501e+00 1.001722e-01 3.634284e-01 2.697754e-01 6.233912e-01 7.197077e-01 3.241454e-01 6.087567e-01 9.751611e-01 4.295519e-01 8.596870e-01 5.008222e-01 7.347783e-01 3.198368e-01 2.252243e-02 8.175945e-02 3.979463e-02 1.879410e-01 1.295574e-01 8.687253e-02 1.349065e-01 1.982458e-01 8.239739e-02 1.813774e-01 1.054862e-01 1.503219e-01 5.302190e-02
<GCONST> 6.186510e+01
<MIXTURE> 2 7.552268e-01
<MEAN> 39
 1.810102e+01 4.515669e+00 -3.353523e+00 9.682796e+00 1.696824e+01 8.493085e+00 -4.696150e+00 3.967799e+00 -8.678362e+00 -1.725455e+01 -3.551840e+00 -3.297135e+00 -4.165624e+00 -1.711554e-01 -3.783111e-01 6.374866e-01 9.130929e-01 3.287265e-02 -6.379966e-01 -3.340029e-01 1.372931e-01 -3.371465e-02 4.920054e-02 2.744965e-01 -3.297147e-01 -4.028243e-01 2.211132e-01 -2.657405e-01 -3.702655e-01 -5.744362e-01 -1.286759e-01 5.420017e-02 -2.830690e-01 1.111334e-01 -1.423040e-01 -8.344156e-02 6.862282e-01 1.580654e-01 -1.011454e-01
<VARIANCE> 39
 1.905072e+01 1.246553e+01 1.940615e+01 3.772543e+01 2.503456e+01 1.784212e+01 2.855618e+01 4.146518e+01 1.232013e+01 2.134103e+01 2.023904e+01 1.030492e+01 1.417918e+01 6.937907e-01 8.460062e-01 2.245246e+00 5.351928e+00 1.526730e+00 1.177431e+00 2.204733e+00 2.797268e+00 9.122245e-01 2.033800e+00 3.778652e+00 1.117593e+00 6.443073e-01 5.379179e-02 8.872451e-02 1.404317e-01 2.926135e-01 2.045549e-01 1.500940e-01 3.652880e-01 3.803664e-01 1.505914e-01 3.857097e-01 2.652812e-01 1.746729e-01 1.148850e-01
<GCONST> 9.438840e+01
<STATE> 4
<NUMMIXES> 2
<MIXTURE> 1 4.183203e-01
<MEAN> 39
 7.688056e+00 1.488698e+01 1.193132e+01 1.586846e+01 1.360997e+01 8.351445e+00 -3.798705e+00 -2.834842e+00 -1.117095e+01 -9.358171e+00 -6.004148e-01 -4.147352e+00 -4.888372e+00 -1.641299e+00 1.018743e+00 9.075539e-01 -1.101991e-01 -6.255795e-01 3.783061e-01 9.694149e-01 6.180421e-01 1.192105e+00 5.241635e-01 -1.427470e+00 -7.804526e-02 1.199277e+00 2.905373e-02 -3.596992e-01 -2.420507e-01 -1.814119e-01 3.091659e-03 -1.101022e-03 -5.329859e-02 2.709821e-01 -5.722194e-02 -1.456542e-01 4.686875e-01 1.393907e-01 -1.655757e-01
<VARIANCE> 39
 4.198573e+01 1.880269e+01 1.395232e+01 1.298324e+01 1.807152e+01 1.083783e+01 1.976166e+01 2.088736e+01 2.936617e+01 1.563506e+01 2.415397e+01 1.034470e+01 1.754581e+01 4.771112e-01 1.731455e+00 1.294877e+00 1.289404e+00 9.857497e-01 6.009408e-01 7.523977e-01 1.433070e+00 1.414504e+00 1.408991e+00 3.960028e+00 1.199690e+00 9.506825e-01 6.234171e-02 1.017550e-01 1.357033e-01 2.203726e-01 1.841440e-01 9.874000e-02 1.313170e-01 3.186893e-01 2.556390e-01 2.499707e-01 1.805405e-01 1.112770e-01 1.199608e-01
<GCONST> 8.690431e+01
<MIXTURE> 2 5.816782e-01
<MEAN> 39
 1.988800e+01 -4.835006e-01 -3.009374e+00 7.490208e+00 1.489947e+01 6.413163e+00 -8.506142e+00 6.413411e+00 -1.607843e+01 -1.898822e+01 1.519950e+01 -7.702848e-01 -1.239447e+01 -3.530612e-01 2.540586e-01 8.517683e-01 5.059496e-01 4.422802e-02 -9.500325e-02 -4.317693e-01 -6.808441e-01 -7.318617e-01 3.484529e-01 1.106233e+00 1.245282e-01 -3.556715e-01 -2.201905e-01 3.659531e-01 3.068789e-01 2.452990e-01 1.770369e-02 2.272760e-02 1.621889e-01 -1.814623e-01 2.063703e-01 1.657345e-01 -6.518831e-01 -1.261498e-01 2.509021e-01
<VARIANCE> 39
 6.804441e+00 1.376534e+01 2.927259e+01 2.695023e+01 1.299241e+01 1.862695e+01 1.765171e+01 4.485374e+01 2.626523e+01 1.970095e+01 6.273730e+01 1.561398e+01 2.353416e+01 8.548711e-01 2.905071e+00 2.263641e+00 3.020604e+00 1.033439e+00 1.059764e+00 1.423246e+00 3.701722e+00 1.424904e+00 2.199265e+00 9.672974e+00 1.142256e+00 1.840296e+00 4.823236e-02 1.236524e-01 1.700292e-01 2.921146e-01 1.378496e-01 1.722600e-01 1.882932e-01 3.717494e-01 2.151659e-01 2.504459e-01 5.948004e-01 1.498659e-01 2.212928e-01
<GCONST> 9.871383e+01
<TRANSP> 5
 0.000000e+00 1.000000e+00 0.000000e+00 0.000000e+00 0.000000e+00
 0.000000e+00 9.241673e-01 7.583261e-02 0.000000e+00 0.000000e+00
 0.000000e+00 0.000000e+00 8.662868e-01 1.337132e-01 0.000000e+00
 0.000000e+00 0.000000e+00 0.000000e+00 8.923471e-01 1.076529e-01
 0.000000e+00 0.000000e+00 0.000000e+00 0.000000e+00 0.000000e+00
<ENDHMM>
~h "ou"
<BEGINHMM>
<NUMSTATES> 7
<STATE> 2
<NUMMIXES> 2
<MIXTURE> 1 0.000000e+00
<MEAN> 39
 2.950430e-05 -1.596659e-05 2.567470e-05 -3.993511e-06 -5.960464e-07 1.929002e-07 -1.204014e-05 8.247793e-06 -1.933426e-06 2.965331e-06 -1.872890e-06 -3.390014e-05 -2.196059e-06 2.152519e-07 -1.188600e-07 -1.470326e-07 2.579764e-07 1.881272e-07 -7.177005e-08 7.529743e-07 5.150214e-07 -5.541369e-08 5.667098e-07 8.731149e-08 2.587331e-08 -1.939479e-07 -6.008020e-02 6.977572e-03 -1.033811e-02 -1.313004e-03 -2.156086e-03 -2.000537e-03 2.022802e-04 5.487027e-04 1.507605e-03 -2.313650e-03 -2.747252e-04 -8.833668e-04 -1.887041e-04
<VARIANCE> 39
 1.000000e-30 1.000000e-30 1.000000e-30 1.138542e-07 1.933426e-06 1.000000e-30 1.000000e-30 4.717149e-07 1.000000e-30 1.000000e-30 1.000000e-30 1.000000e-30 1.194421e-07 1.000000e-30 5.235279e-10 2.760316e-10 1.000000e-30 1.000000e-30 3.660716e-11 1.359149e-08 8.079951e-09 2.454215e-11 1.000000e-30 1.000000e-30 1.390887e-11 1.000000e-30 5.130608e-02 3.996924e-03 4.374815e-03 3.314181e-03 3.503656e-03 3.531398e-03 3.649473e-03 3.541191e-03 3.137489e-03 2.687086e-03 2.360017e-03 1.943796e-03 1.500225e-03
<GCONST> -1.500000e+11
<MIXTURE> 2 1.000000e+00
<MEAN> 39
 -1.550764e+00 -7.087424e-01 -2.179788e+00 1.239945e+00 -3.927129e+00 -7.480959e+00 -6.656543e+00 1.229294e+01 1.257140e+00 -8.641634e+00 -6.201581e-01 -7.618662e-01 -8.302556e-02 -7.044149e-01 -3.587550e-01 -6.025711e-01 -2.798659e-01 -3.195237e-01 -7.573146e-01 -2.593236e-01 1.393829e-01 3.324254e-01 2.273282e-01 1.402944e-01 1.815847e-01 -1.000535e-02 -2.716649e-02 -2.215893e-02 1.252125e-01 8.798043e-02 2.579349e-02 1.078353e-01 5.194047e-02 -6.987455e-02 7.855444e-02 1.331830e-01 -2.946378e-02 -1.074595e-02 -1.152723e-02
<VARIANCE> 39
 3.382379e+02 8.834325e+01 5.954072e+01 7.808653e+01 8.415428e+01 1.595993e+02 9.393683e+01 1.583101e+02 1.143981e+02 1.111717e+02 2.883036e+01 4.049661e+01 3.957266e+01 4.175341e+00 2.406285e+00 2.259751e+00 2.411315e+00 2.755797e+00 4.184078e+00 2.368486e+00 4.456266e+00 3.204214e+00 2.846001e+00 2.227444e+00 1.908051e+00 1.912046e+00 2.510919e-01 2.011237e-01 2.819901e-01 2.911343e-01 3.391090e-01 3.570718e-01 3.277448e-01 5.083388e-01 3.842708e-01 4.099601e-01 3.367205e-01 2.777941e-01 2.667747e-01
<GCONST> 1.279126e+02
<STATE> 3
<NUMMIXES> 2
<MIXTURE> 1 0.000000e+00
<MEAN> 39
 0.000000e+00 0.000000e+00 0.000000e+00 0.000000e+00 0.000000e+00 0.000000e+00 0.000000e+00 0.000000e+00 0.000000e+00 0.000000e+00 0.000000e+00 0.000000e+00 0.000000e+00 6.126449e-30 -5.464483e-30 2.270194e-30 -1.821515e-31 4.406674e-31 -1.213802e-30 9.256382e-31 -1.708705e-31 6.429896e-32 -4.287194e-31 4.667875e-31 -1.477681e-31 3.115776e-33 -5.948948e-02 7.116884e-03 -1.043719e-02 -1.810754e-03 -2.071288e-03 -1.224210e-03 1.069486e-03 9.119928e-04 2.393554e-03 -1.654138e-03 -8.557731e-05 -5.460818e-04 -2.131514e-04
<VARIANCE> 39
 1.000000e-30 1.000000e-30 1.000000e-30 1.000000e-30 1.000000e-30 1.000000e-30 1.000000e-30 1.000000e-30 1.000000e-30 1.000000e-30 1.000000e-30 1.000000e-30 1.000000e-30 7.215268e-30 5.740278e-30 1.000000e-30 1.000000e-30 1.000000e-30 1.000000e-30 1.000000e-30 1.000000e-30 1.000000e-30 1.000000e-30 1.000000e-30 1.000000e-30 1.000000e-30 5.242730e-02 4.308010e-03 4.828463e-03 3.723914e-03 3.905280e-03 3.459802e-03 3.704401e-03 3.736516e-03 3.287535e-03 2.844681e-03 2.523395e-03 2.245883e-03 1.678810e-03
<GCONST> -1.300000e+11
<MIXTURE> 2 1.000000e+00
<MEAN> 39
 -2.506510e+01 -6.288009e+00 -5.077027e+00 -2.436572e+00 -3.583453e+00 -9.365171e-02 -4.019518e+00 1.809042e+00 -1.318210e+00 -1.158751e+00 2.892408e-01 -7.498686e-01 4.295352e-01 1.898220e-02 7.225269e-03 1.649359e-02 4.300745e-02 -1.024183e-02 -4.854516e-02 -1.766474e-02 2.587628e-02 5.847583e-02 2.873312e-02 -3.540301e-03 8.211493e-03 2.341766e-02 9.104443e-02 7.338686e-02 6.447405e-02 4.530434e-02 8.665835e-03 -1.712257e-02 -2.868404e-03 4.532133e-02 3.103581e-02 1.446337e-02 2.914537e-02 2.396116e-02 6.133500e-03
<VARIANCE> 39
 6.306436e+01 4.688099e+00 3.903301e+00 7.206581e+00 5.415859e+00 2.025689e+01 9.938148e+00 1.738849e+01 1.361864e+01 1.493561e+01 7.136509e+00 8.367035e+00 6.038233e+00 2.459916e-01 2.502782e-01 3.395012e-01 5.089867e-01 6.824870e-01 9.165028e-01 9.320368e-01 1.087595e+00 1.365496e+00 1.152843e+00 9.329209e-01 9.169475e-01 8.149362e-01 6.679709e-02 7.671191e-02 9.142929e-02 1.187495e-01 1.424545e-01 1.770107e-01 2.110759e-01 2.335129e-01 2.926665e-01 2.404334e-01 2.057860e-01 1.929373e-01 1.841495e-01
<GCONST> 7.279074e+01
<STATE> 4
<NUMMIXES> 2
<MIXTURE> 1 1.000000e+00
<MEAN> 39
 -1.682200e+01 -3.500931e+00 -3.326758e+00 5.943444e-01 -2.608653e+00 -3.469741e+00 -5.434079e+00 5.967607e+00 1.558087e+00 -1.904970e+00 1.122409e+00 4.222913e-01 8.311765e-01 2.288698e+00 1.832703e+00 1.647849e+00 1.267828e+00 1.969737e-01 -8.619105e-01 -3.663918e-01 1.169554e+00 1.428875e+00 8.813278e-01 7.071825e-01 7.713810e-01 2.269073e-01 7.385197e-01 3.895173e-01 3.476823e-01 3.579057e-01 -4.148316e-02 -5.133948e-01 -3.073454e-01 4.810108e-01 4.461845e-01 -5.105656e-03 -2.252641e-02 8.820345e-02 4.108192e-02
<VARIANCE> 39
 2.819794e+02 1.956968e+01 2.086867e+01 2.231168e+01 1.627025e+01 1.020215e+02 3.703491e+01 7.768565e+01 2.646511e+01 4.464482e+01 1.105013e+01 9.947661e+00 7.925114e+00 2.331861e+00 1.881196e+00 1.847496e+00 1.369762e+00 1.677410e+00 2.304621e+00 1.623933e+00 1.728863e+00 1.603992e+00 1.597136e+00 1.635836e+00 1.282421e+00 1.088302e+00 2.542602e-01 2.187041e-01 2.271108e-01 2.037608e-01 2.385194e-01 3.468776e-01 2.735817e-01 3.074823e-01 2.888937e-01 2.959291e-01 3.339866e-01 2.448794e-01 1.960850e-01
<GCONST> 1.046952e+02
<MIXTURE> 2 0.000000e+00
<MEAN> 39
 1.208484e-05 -8.553267e-06 -2.384186e-07 -1.952052e-06 -1.340359e-05 -3.114343e-05 -5.429611e-07 -6.236136e-06 2.693385e-06 -4.857779e-06 -7.867813e-06 4.526228e-07 9.596348e-06 -5.797483e-08 -3.934838e-07 1.234002e-08 -5.355105e-09 2.961606e-07 -4.060566e-07 -2.242159e-07 7.650815e-07 -7.157214e-07 2.267188e-08 -1.420267e-08 1.264270e-07 -1.518056e-07 -1.733069e-02 2.135032e-03 -2.558388e-03 2.833310e-04 -6.236576e-04 -1.803544e-04 -3.749149e-05 -4.109075e-04 1.268192e-04 -8.433932e-04 1.034832e-04 -7.428668e-04 1.402625e-04
<VARIANCE> 39
 3.943220e-06 1.306646e-06 2.658926e-07 1.000000e-30 4.642643e-06 1.331419e-05 1.000000e-30 1.000000e-30 1.000000e-30 4.651025e-06 1.906883e-06 1.000000e-30 1.000000e-30 1.000000e-30 1.000000e-30 1.000000e-30 1.000000e-30 2.783054e-10 4.038156e-10 1.000000e-30 1.731314e-08 1.000000e-30 3.075229e-11 7.235030e-10 1.000000e-30 6.684786e-10 1.100459e-02 5.213512e-04 5.872871e-04 3.387984e-04 4.089739e-04 3.906928e-04 4.339819e-04 3.915064e-04 3.306664e-04 3.511715e-04 2.671561e-04 2.600339e-04 1.677476e-04
<GCONST> -1.300000e+11
<STATE> 5
<NUMMIXES> 2
<MIXTURE> 1 3.640139e-01
<MEAN> 39
 -3.471935e+00 5.192465e+00 2.951596e+00 7.132736e+00 -3.242878e+00 -1.217858e+01 -9.395871e+00 1.388650e+01 1.056123e+01 3.632066e-01 9.553684e-01 3.391983e+00 3.003761e+00 4.226507e+00 6.300142e-01 -2.114552e-01 1.097616e+00 -6.735138e-01 -3.446152e+00 -1.308228e+00 2.435940e+00 1.659031e+00 -8.485264e-01 -4.653985e-01 5.016071e-01 2.903701e-02 2.573894e-02 -3.962684e-01 -3.989647e-01 -1.526123e-01 -2.084631e-01 -2.867769e-01 -6.611252e-03 3.702608e-02 -1.832926e-01 -2.515779e-01 -4.318590e-02 -3.900661e-02 -1.567325e-01
<VARIANCE> 39
 9.592319e+01 1.504980e+01 1.355811e+01 1.744974e+01 2.674860e+01 7.418941e+01 2.699040e+01 4.568612e+01 2.897231e+01 1.791562e+01 2.127035e+01 1.364764e+01 1.482988e+01 9.431856e-01 1.725072e+00 2.095289e+00 1.240089e+00 2.435988e+00 2.568559e+00 1.872662e+00 1.839980e+00 1.824673e+00 1.645728e+00 2.010312e+00 1.230197e+00 1.716198e+00 2.101101e-01 1.636774e-01 2.747440e-01 1.914212e-01 4.034935e-01 4.610384e-01 3.833286e-01 3.541135e-01 3.021628e-01 3.210210e-01 4.935266e-01 2.620801e-01 2.891495e-01
<GCONST> 1.051928e+02
<MIXTURE> 2 6.359846e-01
<MEAN> 39
 1.987546e+01 -4.069228e-01 -4.306843e+00 1.108630e+01 -7.855879e+00 -3.358803e+01 -1.691356e+01 2.743723e+01 1.593525e+01 -9.615494e+00 -1.390937e+00 4.675170e+00 2.824241e-01 7.704405e-01 -6.549042e-01 -5.087255e-01 1.841671e-01 -9.203096e-02 -8.226092e-01 -2.825103e-01 4.895529e-01 2.292231e-01 -3.057562e-01 -2.276709e-02 -3.499689e-02 -1.516240e-01 -2.816010e-01 -4.197755e-02 3.803517e-02 -8.906164e-02 2.141028e-01 4.609881e-01 1.066463e-01 -2.318635e-01 -1.388636e-01 7.170081e-02 2.456108e-02 -1.027198e-01 3.799753e-02
<VARIANCE> 39
 1.426775e+01 3.170066e+01 3.214084e+01 1.062062e+01 2.527139e+01 2.530422e+01 1.983948e+01 2.973665e+01 1.582422e+01 2.564225e+01 1.507438e+01 1.712635e+01 7.921864e+00 2.420333e+00 1.040127e+00 7.945490e-01 7.336045e-01 1.380987e+00 3.290606e+00 1.307534e+00 2.487904e+00 9.972562e-01 1.577307e+00 9.795825e-01 7.731757e-01 5.395355e-01 3.599215e-01 1.433262e-01 1.010956e-01 1.210289e-01 2.036698e-01 3.946701e-01 2.034568e-01 4.081301e-01 1.317825e-01 2.159772e-01 1.795554e-01 1.266237e-01 9.591914e-02
<GCONST> 9.066460e+01
<STATE> 6
<NUMMIXES> 2
<MIXTURE> 1 4.016699e-01
<MEAN> 39
 2.256347e+01 -4.080040e+00 -9.079039e+00 2.635850e+00 1.151734e+00 -1.544396e+01 -1.417791e+01 2.151262e+01 5.248984e+00 -1.249039e+01 4.675184e+00 -2.687248e+00 -2.939239e+00 1.288231e-01 5.538798e-01 -3.077427e-01 -1.057980e+00 1.078413e+00 2.693242e+00 3.674385e-01 -1.985806e+00 -1.282188e+00 3.579462e-01 1.347470e-01 -6.406214e-01 1.389782e-01 -7.455041e-02 2.193946e-01 -2.447667e-02 -2.478958e-02 2.138274e-02 2.034134e-01 1.932175e-01 -3.143647e-01 5.679136e-02 1.600600e-01 -3.098969e-01 1.284861e-01 1.631696e-01
<VARIANCE> 39
 1.493400e+01 1.837909e+01 3.426903e+01 2.305419e+01 2.458518e+01 7.125372e+01 3.105749e+01 8.783694e+01 3.189297e+01 3.879706e+01 3.267157e+01 1.543289e+01 1.892479e+01 8.073915e-01 7.436069e-01 7.338834e-01 9.143912e-01 8.802676e-01 1.614871e+00 1.565123e+00 3.183031e+00 9.054846e-01 1.525816e+00 1.937376e+00 9.549314e-01 5.756254e-01 1.490529e-01 8.536553e-02 1.153613e-01 1.384544e-01 1.186012e-01 1.498570e-01 3.027576e-01 4.171351e-01 1.366250e-01 2.460659e-01 3.030521e-01 1.783956e-01 9.816990e-02
<GCONST> 9.383097e+01
<MIXTURE> 2 5.983302e-01
<MEAN> 39
 2.221709e+01 -5.415901e+00 -9.088668e+00 9.568856e+00 -4.738069e+00 -3.008436e+01 -1.572042e+01 2.577184e+01 1.403710e+01 -1.020706e+01 -1.011883e+00 2.824040e+00 -6.221619e-01 7.112513e-02 -2.620569e-01 -2.394408e-01 -4.555841e-01 4.348138e-01 1.004829e+00 3.203881e-01 -2.291454e-01 -6.759650e-01 -3.234579e-01 2.697802e-01 -4.225064e-01 -1.950320e-01 -9.049053e-03 7.692234e-02 3.744438e-02 -5.283302e-02 3.457495e-02 1.378887e-01 1.586678e-02 -3.155031e-02 -1.277084e-01 -4.489325e-02 7.069647e-02 -4.536563e-02 -7.857153e-03
<VARIANCE> 39
 8.227022e+00 9.667094e+00 1.700593e+01 1.116475e+01 1.343418e+01 2.427549e+01 1.627097e+01 2.231482e+01 1.937128e+01 2.314079e+01 1.481522e+01 6.855129e+00 7.128230e+00 7.075761e-01 4.104911e-01 5.746788e-01 5.686417e-01 4.354918e-01 8.172462e-01 5.032759e-01 9.599132e-01 6.925464e-01 6.481614e-01 7.594380e-01 3.539808e-01 2.919237e-01 1.081247e-01 5.143586e-02 6.800930e-02 6.456528e-02 4.321361e-02 6.275997e-02 7.412580e-02 1.305175e-01 5.499645e-02 8.618608e-02 1.003094e-01 4.815966e-02 3.950709e-02
<GCONST> 6.312626e+01
<TRANSP> 7
 0.000000e+00 1.000000e+00 0.000000e+00 0.000000e+00 0.000000e+00 0.000000e+00 0.000000e+00
 0.000000e+00 8.293819e-01 1.706181e-01 0.000000e+00 0.000000e+00 0.000000e+00 0.000000e+00
 0.000000e+00 0.000000e+00 9.041337e-01 9.586626e-02 0.000000e+00 0.000000e+00 0.000000e+00
 0.000000e+00 0.000000e+00 0.000000e+00 5.284372e-01 4.715629e-01 0.000000e+00 0.000000e+00
 0.000000e+00 0.000000e+00 0.000000e+00 0.000000e+00 9.237995e-01 7.620060e-02 0.000000e+00
 0.000000e+00 0.000000e+00 0.000000e+00 0.000000e+00 0.000000e+00 9.352587e-01 6.474123e-02
 0.000000e+00 0.000000e+00 0.000000e+00 0.000000e+00 0.000000e+00 0.000000e+00 0.000000e+00
<ENDHMM>
~h "ph"
<BEGINHMM>
<NUMSTATES> 5
<STATE> 2
<NUMMIXES> 2
<MIXTURE> 1 3.463267e-01
<MEAN> 39
 -2.663959e+01 -6.190382e+00 -4.911749e+00 -2.790961e+00 -3.574918e+00 7.007392e-01 -3.650774e+00 1.158200e+00 -1.553576e+00 -5.233147e-01 5.552514e-01 -8.996808e-01 3.286660e-01 -4.705729e-02 -5.088914e-02 -6.058546e-02 -5.163684e-02 -4.926849e-02 -3.755591e-02 -7.812491e-02 -5.058308e-02 -5.370636e-03 1.831213e-03 8.219648e-03 3.208943e-02 2.867289e-02 1.055118e-01 8.494678e-02 8.621906e-02 1.015822e-01 1.023363e-01 6.608472e-02 4.922419e-02 3.638342e-02 -9.326013e-03 -3.477946e-02 -1.083427e-02 1.307716e-03 1.391505e-02
<VARIANCE> 39
 5.186853e-01 1.000387e+00 1.678265e+00 2.584988e+00 3.622155e+00 4.406350e+00 5.740106e+00 6.452218e+00 6.798977e+00 6.061399e+00 6.665092e+00 6.076343e+00 4.970894e+00 9.575537e-02 1.694798e-01 2.804000e-01 4.338160e-01 5.833611e-01 6.906207e-01 9.646485e-01 1.027357e+00 1.008655e+00 9.796421e-01 1.061030e+00 8.931293e-01 6.921400e-01 5.026307e-02 6.818622e-02 9.827320e-02 1.207518e-01 1.470291e-01 1.718912e-01 2.416784e-01 2.642868e-01 2.628587e-01 2.671122e-01 2.583441e-01 2.121710e-01 1.732468e-01
<GCONST> 5.646278e+01
<MIXTURE> 2 6.536695e-01
<MEAN> 39
 -9.859796e+00 2.113484e-01 3.223723e+00 8.157195e+00 6.619929e+00 6.231974e+00 -4.373388e+00 1.137587e+00 -7.520703e+00 -9.068439e+00 -1.717590e+00 -2.813720e+00 1.079037e+00 -1.469490e+00 -1.295486e+00 -9.883682e-01 -1.016344e+00 -9.036857e-01 -3.345574e-01 -1.406944e-01 -2.941619e-01 -6.258912e-03 3.627190e-01 2.520870e-01 2.154514e-02 6.710344e-02 1.116915e-01 -1.050337e-01 -1.285181e-01 -5.036378e-02 -9.743329e-03 -3.293473e-02 -8.127256e-03 1.009794e-01 7.259302e-02 2.078233e-02 5.788411e-02 1.850194e-02 -1.812772e-02
<VARIANCE> 39
 1.073926e+02 1.051817e+02 5.669185e+01 7.133685e+01 5.454715e+01 5.198168e+01 7.714092e+01 7.758090e+01 8.518829e+01 7.054047e+01 4.373299e+01 3.693715e+01 2.872567e+01 3.752536e+00 5.255289e+00 3.565415e+00 3.368011e+00 2.693994e+00 3.187634e+00 3.240093e+00 4.004110e+00 4.827815e+00 4.109812e+00 3.522023e+00 2.062222e+00 1.899446e+00 3.219409e-01 5.001495e-01 4.541447e-01 4.380079e-01 3.742221e-01 4.082774e-01 4.324135e-01 5.314384e-01 7.322251e-01 6.670500e-01 5.509168e-01 3.143367e-01 3.129438e-01
<GCONST> 1.307780e+02
<STATE> 3
<NUMMIXES> 2
<MIXTURE> 1 6.647809e-01
<MEAN> 39
 -1.031750e+01 -1.944738e+00 6.675463e-01 9.209105e+00 9.456018e+00 9.480210e+00 1.655099e+00 8.549198e+00 -9.153268e-02 -2.887131e+00 3.799345e+00 4.566869e+00 7.227607e+00 3.261988e+00 -9.527279e-02 -8.169872e-02 8.674344e-01 1.026053e+00 4.121007e-01 -2.676293e-01 6.141220e-01 -6.689209e-01 -1.041392e+00 9.771568e-01 7.680348e-01 7.353907e-01 4.999296e-02 -1.843448e-01 -3.276360e-01 -3.990230e-01 -3.963976e-01 -3.112879e-01 -2.618232e-01 -1.962753e-01 -1.935365e-01 -4.984676e-02 1.819333e-01 1.722535e-03 -1.450804e-01
<VARIANCE> 39
 8.399883e+01 2.056715e+01 1.513681e+01 2.260548e+01 2.623772e+01 2.676294e+01 3.109528e+01 2.351545e+01 3.188430e+01 3.442646e+01 2.058237e+01 2.604595e+01 2.180722e+01 1.211089e+00 1.915147e+00 2.515029e+00 3.674087e+00 4.367727e+00 3.998968e+00 3.886386e+00 3.011216e+00 3.145317e+00 2.624185e+00 2.464276e+00 2.247605e+00 2.286244e+00 3.418168e-01 1.483207e-01 2.587747e-01 2.731737e-01 4.015581e-01 5.354704e-01 6.862607e-01 4.794607e-01 6.049141e-01 6.229179e-01 3.426801e-01 3.999473e-01 3.798781e-01
<GCONST> 1.153066e+02
<MIXTURE> 2 3.352203e-01
<MEAN> 39
 -2.647435e+01 -6.080441e+00 -4.782471e+00 -2.633545e+00 -3.534347e+00 7.110527e-01 -3.416693e+00 1.346641e+00 -1.426913e+00 -2.443135e-01 8.889589e-01 -5.912012e-01 8.038048e-01 4.502606e-01 2.291853e-01 4.176449e-01 6.876732e-01 7.926852e-01 6.705258e-01 6.619053e-01 7.656965e-01 4.936374e-01 2.451981e-01 3.781459e-01 4.111453e-01 4.279628e-01 6.328814e-01 4.095152e-01 5.478781e-01 7.598047e-01 8.357037e-01 6.554811e-01 4.685445e-01 4.723288e-01 1.836827e-01 -6.838723e-02 5.407741e-02 2.190985e-01 2.536036e-01
<VARIANCE> 39
 7.316232e-01 1.487294e+00 1.991990e+00 3.537838e+00 4.638965e+00 5.189288e+00 5.766192e+00 6.557941e+00 7.108113e+00 6.557050e+00 5.873780e+00 5.338886e+00 4.981442e+00 1.172778e+00 1.202512e+00 1.694268e+00 2.681154e+00 3.219726e+00 2.833504e+00 2.489185e+00 2.151716e+00 1.710059e+00 1.511213e+00 1.180255e+00 1.298826e+00 1.130250e+00 1.410826e-01 1.212854e-01 1.535979e-01 2.533669e-01 2.973028e-01 3.062232e-01 3.344624e-01 3.290458e-01 3.136624e-01 2.971355e-01 2.510139e-01 2.896849e-01 2.500417e-01
<GCONST> 7.836856e+01
<STATE> 4
<NUMMIXES> 2
<MIXTURE> 1 1.000000e+00
<MEAN> 39
 4.922208e+00 -1.047198e+01 -1.046109e+01 2.727288e+00 3.836398e+00 6.085317e+00 1.368490e-01 1.152768e+01 -6.511840e-02 -6.514959e-01 1.406862e+01 8.624219e+00 7.569456e+00 7.642347e-01 -1.634523e-01 -4.824838e-01 -1.782133e-01 -4.199351e-01 -4.459832e-01 1.557108e-01 3.189478e-01 6.779202e-01 9.000937e-01 4.859914e-01 -1.901531e-02 -3.930229e-01 -9.070008e-02 2.198076e-01 2.546999e-01 1.861373e-01 1.236017e-01 -6.236537e-02 -7.226978e-02 -4.306366e-02 4.429941e-03 -8.612536e-02 -2.290199e-01 -1.779830e-01 -1.332006e-01
<VARIANCE> 39
 7.205361e+01 8.241145e+01 6.468473e+01 5.624870e+01 1.105845e+02 1.132065e+02 6.613794e+01 9.788364e+01 1.138696e+02 1.329553e+02 7.489825e+01 7.535036e+01 3.336879e+01 1.051974e+00 3.115410e+00 3.657293e+00 2.821842e+00 3.244243e+00 3.155867e+00 2.513326e+00 3.247032e+00 4.695677e+00 5.302583e+00 3.052019e+00 3.642263e+00 2.274651e+00 1.436045e-01 2.890504e-01 3.532107e-01 2.761361e-01 3.658606e-01 4.980605e-01 4.333766e-01 4.570608e-01 8.415162e-01 9.952516e-01 3.496683e-01 4.366555e-01 2.986727e-01
<GCONST> 1.308427e+02
<MIXTURE> 2 0.000000e+00
<MEAN> 39
 5.007752e+00 -2.283543e+01 4.224558e+00 7.395911e+00 -1.496770e+01 1.634329e+01 -3.899620e-01 -7.362168e+00 1.045351e+01 -8.315866e+00 -4.072007e+00 7.575201e+00 -7.643221e+00 4.026023e-01 -7.765181e-02 -8.578298e-02 -6.968217e-02 -1.323925e-01 -1.894298e-01 -1.235157e-01 -2.788639e-02 -4.998827e-02 -1.253398e-01 -5.394829e-02 -4.789721e-02 -1.341058e-01 -2.680980e-02 2.108817e-01 -1.997906e-02 -1.188034e-02 7.128937e-02 -1.880370e-01 -1.090263e-02 7.185538e-02 -9.433557e-02 3.775261e-02 -1.023603e-02 -9.081265e-02 7.448491e-03
<VARIANCE> 39
 4.348479e+01 6.712718e+01 3.071273e+01 2.897330e+01 3.015086e+01 3.144908e+01 3.685800e+01 4.986613e+01 2.770036e+01 2.634098e+01 2.861377e+01 1.982357e+01 1.831832e+01 2.071848e+00 4.567060e+00 1.638904e+00 1.625862e+00 2.427497e+00 3.893136e+00 2.698308e+00 2.704647e+00 2.611578e+00 1.984589e+00 1.565095e+00 1.808744e+00 1.519972e+00 2.321895e-01 5.215378e-01 2.863469e-01 2.859152e-01 3.921969e-01 5.372592e-01 4.658649e-01 5.187892e-01 4.154823e-01 3.823926e-01 2.791561e-01 2.746449e-01 2.874104e-01
<GCONST> 1.139793e+02
<TRANSP> 5
 0.000000e+00 1.000000e+00 0.000000e+00 0.000000e+00 0.000000e+00
 0.000000e+00 9.332083e-01 6.679177e-02 0.000000e+00 0.000000e+00
 0.000000e+00 0.000000e+00 8.724299e-01 1.275701e-01 0.000000e+00
 0.000000e+00 0.000000e+00 0.000000e+00 8.936076e-01 1.063925e-01
 0.000000e+00 0.000000e+00 0.000000e+00 0.000000e+00 0.000000e+00
<ENDHMM>
~h "rq"
<BEGINHMM>
<NUMSTATES> 7
<STATE> 2
<NUMMIXES> 2
<MIXTURE> 1 4.004922e-01
<MEAN> 39
 2.640577e+00 -1.671854e+01 1.099195e+01 3.487174e+00 1.879199e+00 2.119439e+01 -1.940599e+00 8.689125e+00 -8.875036e+00 -1.386781e+01 8.420593e+00 2.175439e+00 3.885060e+00 1.945417e+00 9.359511e-01 1.824306e+00 2.234298e+00 -9.611945e-02 -4.634314e-01 8.723532e-01 -5.782791e-01 -6.530219e-01 -1.599973e+00 -6.704523e-01 5.517588e-01 1.668335e-01 2.013073e-01 8.816329e-01 -4.154505e-01 7.564348e-01 3.355947e-01 -9.187104e-01 2.725793e-01 -3.369848e-01 2.648210e-01 2.941113e-01 -9.893717e-01 -5.703728e-01 1.604440e-01
<VARIANCE> 39
 6.515790e+00 9.198604e+00 7.539431e+00 7.460082e+01 3.279960e+00 4.425822e+00 1.394625e+01 2.429008e+00 7.296945e+00 6.188697e+00 2.736517e+01 4.605574e+00 1.261461e+01 1.042361e+00 3.416132e+00 4.172660e-01 2.659867e+00 2.698306e-01 2.381513e+00 2.825342e+00 7.251317e-01 5.621854e-01 1.439633e+00 5.988270e+00 1.061305e+00 1.791141e+00 2.382124e-01 1.703822e-01 2.609239e-01 4.410796e-01 1.887982e-01 1.043131e-01 1.667910e-01 3.304019e-02 1.873153e-01 1.988910e-01 3.264079e-01 2.163915e-01 2.932597e-01
<GCONST> 8.169044e+01
<MIXTURE> 2 5.995077e-01
<MEAN> 39
 9.847027e+00 -1.464292e+01 1.339638e+01 1.086094e+01 7.278888e-01 1.967858e+01 -2.023092e+00 5.139417e+00 -6.047899e+00 -2.132946e+01 2.180592e+00 1.049978e+00 2.854547e-01 2.269102e+00 1.744952e+00 -1.171847e+00 1.924224e+00 1.504237e+00 -2.078457e+00 1.583062e-01 2.499568e-01 -7.574082e-01 -5.652624e-01 -1.365110e+00 -1.179680e+00 -2.854983e-01 -9.605853e-02 -1.193444e-02 -7.468248e-01 -4.994271e-01 1.570483e-01 -4.150514e-01 -4.709886e-01 -7.197420e-02 -2.247055e-01 3.356363e-01 2.823209e-01 -1.037709e-01 -1.548097e-02
<VARIANCE> 39
 2.454285e+01 5.083932e+01 1.314381e+01 3.253688e+01 1.117817e+01 4.857715e+01 3.266433e+01 6.393089e+00 3.227327e+01 6.645446e+00 7.647861e+00 8.050424e+00 8.200229e+00 1.043592e+00 1.602538e+00 3.749787e+00 2.743380e+00 1.977201e+00 4.021037e+00 2.808730e+00 2.034006e+00 9.638889e-01 2.608972e-01 1.240943e+00 1.498481e+00 5.373312e-01 3.513176e-01 6.378919e-01 2.980557e-01 3.964107e-01 3.551204e-01 4.299569e-01 7.840288e-01 1.693027e-01 1.137779e-01 7.707468e-02 2.101967e-01 1.355360e-01 6.806430e-02
<GCONST> 9.486342e+01
<STATE> 3
<NUMMIXES> 2
<MIXTURE> 1 0.000000e+00
<MEAN> 39
 4.792265e+00 -1.912126e+01 8.256557e+00 2.451213e+01 1.160292e+01 1.819415e+01 7.673485e+00 3.453903e+00 4.996493e+00 -4.574647e+00 -3.024233e+00 4.534252e+00 1.549923e+00 -2.303306e+00 -4.620656e+00 1.031160e+00 -1.352414e+00 -1.113822e+00 3.745343e+00 -7.456693e-01 -1.206692e+00 4.268679e+00 -2.608063e-01 -2.248156e+00 2.545908e-02 2.149880e-01 4.363273e-01 -5.970409e-01 -4.939691e-01 -4.104499e-01 4.786224e-01 7.117655e-02 -2.241323e+00 -1.253818e+00 -7.737113e-01 -4.610961e-01 5.581028e-01 -7.018080e-01 -7.416869e-01
<VARIANCE> 39
 1.000000e-30 1.000000e-30 1.000000e-30 1.000000e-30 1.000000e-30 1.000000e-30 1.192093e-07 1.490116e-08 4.768372e-07 1.000000e-30 1.000000e-30 1.000000e-30 1.000000e-30 1.000000e-30 1.000000e-30 1.490116e-08 1.000000e-30 1.000000e-30 1.000000e-30 1.000000e-30 1.000000e-30 1.000000e-30 1.000000e-30 1.000000e-30 1.000000e-30 1.000000e-30 1.862645e-09 1.000000e-30 1.000000e-30 1.000000e-30 1.000000e-30 1.000000e-30 1.000000e-30 1.000000e-30 4.656613e-10 1.000000e-30 1.000000e-30 1.000000e-30 1.000000e-30
<GCONST> -3.300001e+11
<MIXTURE> 2 1.000000e+00
<MEAN> 39
 1.756982e+01 -7.382604e+00 4.968909e+00 1.438797e+01 6.628250e+00 6.181913e+00 -4.656255e+00 4.624333e+00 -1.302007e+01 -2.073498e+01 1.318664e+00 -3.467169e+00 6.617768e-01 9.791232e-01 8.559793e-01 -2.293556e+00 4.666222e-01 2.621183e+00 -2.714811e+00 -2.055813e+00 -1.542727e-01 -1.883039e+00 -8.275919e-01 5.467209e-01 -8.682895e-02 -5.963970e-01 -4.334527e-01 -1.005703e-01 1.191322e-01 -2.673162e-01 2.323689e-01 4.668311e-01 -3.595528e-02 3.526063e-01 7.153684e-02 -4.597621e-01 3.580132e-01 7.372805e-01 -2.199394e-01
<VARIANCE> 39
 3.941572e+00 7.286027e+00 1.111348e+01 9.902205e+00 1.346882e+01 1.887022e+01 3.043360e+01 5.531976e+00 1.749344e+01 7.130607e+00 3.300228e+00 9.838731e+00 1.080378e+00 7.785103e-02 9.496772e-01 9.070858e-02 2.352984e-01 2.519647e-01 1.854004e+00 1.970596e-01 7.301437e-01 6.961600e-01 1.575748e+00 1.658653e+00 1.709106e+00 1.066382e+00 1.507401e-02 1.013057e-01 5.146854e-02 1.034414e-01 1.554070e-01 1.065454e-01 1.145706e-01 3.082537e-02 9.471428e-02 1.240109e-01 3.146274e-02 1.144335e-01 6.673788e-02
<GCONST> 5.658612e+01
<STATE> 4
<NUMMIXES> 2
<MIXTURE> 1 7.416976e-01
<MEAN> 39
 2.007844e+01 -7.177343e+00 -3.644520e+00 1.091631e+01 1.561515e+01 -3.094028e+00 -1.621193e+01 1.131940e+01 -1.907154e+01 -2.921128e+01 1.200475e+01 -3.676933e-01 -6.858328e+00 -1.200052e-01 8.640431e-02 -1.581783e-01 -4.278606e-01 5.130504e-01 1.903342e-01 -4.248991e-01 3.749108e-01 -4.433116e-01 -1.684737e-01 8.639643e-01 -4.899482e-01 -2.756037e-01 -1.338473e-01 -1.029065e-02 2.295794e-01 -1.620088e-02 -1.307575e-01 2.930192e-01 1.773370e-01 -1.487726e-02 1.792642e-01 2.150786e-01 -8.960325e-02 -1.001984e-01 1.378947e-01
<VARIANCE> 39
 7.202554e+00 9.127505e+00 1.590627e+01 8.949150e+00 3.484295e+00 2.973075e+01 2.446050e+01 2.793949e+01 1.314342e+01 1.277830e+01 4.323927e+01 1.550370e+01 1.271186e+01 2.328673e-01 3.839319e-01 7.541199e-01 5.179763e-01 1.064665e+00 2.240781e+00 2.629089e+00 1.492444e+00 3.178052e-01 1.077871e+00 1.881078e+00 1.150891e+00 1.216874e+00 8.120327e-02 1.310470e-01 1.335431e-01 7.823344e-02 8.607908e-02 2.050575e-01 1.695064e-01 3.161669e-01 1.124253e-01 2.088730e-01 2.220078e-01 1.699925e-01 8.279070e-02
<GCONST> 7.935438e+01
<MIXTURE> 2 2.583025e-01
<MEAN> 39
 1.829957e+01 -4.999501e+00 -3.721120e-01 8.719580e+00 1.934176e+01 -1.481857e+00 -1.749028e+01 1.118368e+01 -2.482489e+01 -3.013020e+01 1.521666e+01 1.523545e-01 -7.300557e+00 -3.553981e-02 -2.823202e-01 6.282515e-01 -2.957605e-01 1.042224e+00 -8.198048e-01 -1.635744e+00 1.882222e+00 -1.158835e+00 -9.589512e-01 2.264747e+00 -6.797208e-01 -6.843322e-01 -9.028783e-02 9.393544e-02 3.229812e-01 1.077832e-01 -5.468070e-01 3.270252e-01 4.559439e-01 -2.061894e-01 1.797275e-01 3.282302e-01 -1.146254e-01 -3.298136e-01 5.775039e-02
<VARIANCE> 39
 5.562488e-01 8.657141e-01 7.770451e+00 7.430499e+00 1.652202e+01 6.813176e+00 4.456823e+01 3.065215e+01 2.685499e+01 3.735034e+00 5.662653e+01 1.189587e+01 3.241345e+00 2.905183e-01 5.537634e-01 1.534000e+00 1.504477e-01 2.137500e+00 6.762371e-01 1.158525e+00 6.614085e-01 2.835383e-01 8.177395e-01 3.956030e-01 1.224693e+00 5.816760e-01 3.039967e-02 8.283032e-02 1.087049e-01 1.161241e-01 8.584201e-02 5.588816e-01 1.601595e-01 5.780080e-01 2.120313e-02 7.525014e-02 8.842879e-02 4.596779e-02 5.039071e-02
<GCONST> 6.261605e+01
<STATE> 5
<NUMMIXES> 2
<MIXTURE> 1 5.000004e-01
<MEAN> 39
 1.648311e+01 -8.716846e+00 1.986850e+00 1.490420e+01 1.554052e+01 7.689413e+00 -9.538660e+00 9.317981e+00 -1.512879e+01 -2.395198e+01 5.671816e+00 -7.715473e+00 2.415707e-01 -1.391384e+00 1.747127e+00 5.475766e-01 6.423443e-02 7.018294e-01 1.092762e+00 5.753473e-01 -1.926640e-01 1.005263e+00 9.508844e-01 -1.738835e+00 -1.717543e-01 9.037476e-01 -4.739072e-01 4.447121e-01 3.280790e-01 -1.171053e-01 -4.596630e-01 1.191215e-01 5.410848e-01 -3.841059e-01 6.566612e-01 9.446481e-01 -5.466913e-01 4.013507e-01 -1.198203e-01
<VARIANCE> 39
 4.659817e+00 1.269095e-01 3.219355e+01 5.281556e+01 5.873570e-01 4.019551e+01 1.882051e+01 8.178323e+01 2.090745e+01 3.449270e+01 1.031013e+02 4.923664e-02 1.482097e+01 1.639186e+00 2.142903e-02 2.885228e+00 1.183960e-02 3.465733e-01 3.173444e+00 1.223920e+00 1.006498e-02 1.381541e+00 7.254425e-01 6.514582e-02 5.526661e-01 1.486127e-01 1.923541e-02 3.655277e-02 5.306710e-02 1.433225e-01 3.861380e-02 2.256573e-01 6.444654e-02 5.564118e-01 1.588893e-04 1.258508e-01 3.159105e-01 7.754368e-02 5.251167e-03
<GCONST> 4.374894e+01
<MIXTURE> 2 4.999996e-01
<MEAN> 39
 1.748334e+01 -4.912408e+00 6.519381e+00 7.172498e+00 1.876625e+01 2.960281e+00 -1.890984e+01 1.331033e+01 -3.220710e+01 -2.887740e+01 2.771542e+01 -9.329806e+00 -1.071295e+01 6.647687e-01 -3.381926e-01 3.525429e-01 6.915750e-01 -3.196233e-01 1.935851e+00 1.045099e+00 -1.640531e+00 4.245628e-01 2.374650e+00 5.452880e-01 -1.946172e+00 -1.427778e+00 -1.598011e-01 3.043729e-01 -2.685204e-01 1.269881e-01 1.659334e-01 -1.655996e-01 5.790511e-01 -1.808863e-02 1.157945e+00 6.222216e-01 -1.445170e+00 3.042874e-01 5.446976e-01
<VARIANCE> 39
 1.422229e+00 3.023720e-01 2.461566e-01 4.064646e-01 2.195064e+00 3.879410e+00 5.447817e+00 1.945909e+01 6.212686e+00 6.674846e+00 6.240867e+00 4.603498e-04 8.652864e-01 4.369711e-03 1.781983e-03 1.034947e-02 1.283658e-02 1.614248e-01 5.547156e-01 1.595090e-04 1.202204e-01 1.646673e-01 6.196649e-02 4.493979e-01 1.122476e-02 1.183711e-02 4.694442e-02 4.750057e-02 1.907628e-02 2.191945e-02 7.276125e-03 3.455763e-02 1.179594e-02 1.824279e-01 2.320286e-02 2.791244e-02 4.022333e-02 2.537119e-02 1.728746e-01
<GCONST> -1.951064e+01
<STATE> 6
<NUMMIXES> 2
<MIXTURE> 1 6.317868e-01
<MEAN> 39
 2.607032e+00 5.328075e+00 9.135693e+00 1.481402e+01 1.412765e+01 1.174552e+01 -2.219049e+00 3.498679e+00 -9.638986e+00 -1.490572e+01 -5.881377e+00 -5.823285e+00 2.078094e+00 -2.016751e+00 8.800386e-01 -1.367395e-01 1.093154e-01 -3.818860e-01 -5.417315e-01 3.851503e-01 -9.862968e-01 1.013816e+00 9.305237e-01 -1.950028e+00 3.464678e-01 2.175791e-01 1.778383e-01 -7.125391e-01 -4.352141e-01 -1.976520e-01 -1.335412e-02 -2.451388e-01 -3.656917e-01 2.832228e-01 1.694581e-01 4.305655e-02 5.494766e-01 -4.737258e-02 -9.992450e-02
<VARIANCE> 39
 7.664433e+01 4.582339e+01 8.766308e+00 1.944021e+01 5.302128e+00 4.036232e+00 3.906985e+00 1.223192e+01 8.880429e+00 5.328235e+00 3.017995e+01 5.974266e+00 2.954864e+00 9.656956e-01 4.340379e+00 2.019000e+00 1.051280e+00 1.106147e+00 1.092269e+00 4.737158e-01 1.845426e+00 6.101930e-01 1.414966e+00 4.268056e+00 7.865089e-01 1.138553e+00 1.123596e-01 1.202615e-01 1.005333e-01 1.100584e-01 1.664047e-01 2.811164e-01 1.701476e-01 1.688479e-01 3.556214e-01 5.662397e-01 3.876441e-01 4.281892e-02 3.835597e-01
<GCONST> 8.339925e+01
<MIXTURE> 2 3.682134e-01
<MEAN> 39
 1.378915e+01 -1.852327e+00 5.348828e+00 9.224025e+00 1.674720e+01 7.932290e+00 -1.021504e+01 1.258591e+01 -1.808366e+01 -2.093132e+01 1.426290e+01 -9.968132e+00 -5.139670e+00 -2.202280e+00 2.729695e+00 1.458412e+00 3.970014e-01 -1.021253e+00 2.474123e+00 3.391387e+00 -1.365021e+00 3.072382e+00 2.777488e+00 -4.311570e+00 6.205511e-01 2.134911e+00 -3.126275e-01 5.520499e-01 1.401182e-02 8.138285e-02 -1.303968e-01 -2.967512e-01 4.782117e-02 -3.006880e-01 -1.243128e-01 -2.472527e-01 -6.638406e-01 6.354232e-01 3.637113e-01
<VARIANCE> 39
 1.091394e+01 9.384334e+00 7.016878e+00 1.762190e+00 6.214040e+00 1.334930e+01 2.918618e+01 8.837705e+00 4.824356e+01 1.147835e+01 6.044629e+01 6.493147e+00 3.112879e+01 4.734622e-01 6.735100e-01 9.124923e-01 1.547310e-01 1.476757e-01 9.322984e-01 5.379323e-01 5.469060e-01 8.004592e-01 8.379112e-01 9.425664e-01 1.003203e+00 1.608832e+00 1.408323e-01 1.160206e-01 6.995384e-02 4.403301e-02 7.080318e-02 3.910052e-01 4.710645e-01 1.563715e-01 5.084038e-01 3.597363e-01 4.799570e-01 1.248379e-01 5.332236e-01
<GCONST> 7.699819e+01
<TRANSP> 7
 0.000000e+00 1.000000e+00 0.000000e+00 0.000000e+00 0.000000e+00 0.000000e+00 0.000000e+00
 0.000000e+00 8.500155e-01 1.499845e-01 0.000000e+00 0.000000e+00 0.000000e+00 0.000000e+00
 0.000000e+00 0.000000e+00 5.714762e-01 4.285238e-01 0.000000e+00 0.000000e+00 0.000000e+00
 0.000000e+00 0.000000e+00 0.000000e+00 8.888889e-01 1.111112e-01 0.000000e+00 0.000000e+00
 0.000000e+00 0.000000e+00 0.000000e+00 0.000000e+00 2.499999e-01 7.500001e-01 0.000000e+00
 0.000000e+00 0.000000e+00 0.000000e+00 0.000000e+00 0.000000e+00 8.421944e-01 1.578055e-01
 0.000000e+00 0.000000e+00 0.000000e+00 0.000000e+00 0.000000e+00 0.000000e+00 0.000000e+00
<ENDHMM>
~h "sh"
<BEGINHMM>
<NUMSTATES> 5
<STATE> 2
<NUMMIXES> 2
<MIXTURE> 1 5.867243e-01
<MEAN> 39
 3.747313e+00 -2.116711e+01 4.417982e+00 1.835937e+01 1.013496e+01 1.595417e+01 -4.617404e+00 -1.310351e+00 -1.811652e+00 -9.265584e+00 -1.351148e+00 -3.429270e-02 1.246998e+00 -1.487738e+00 -3.588267e+00 1.122429e+00 1.084372e-01 -1.063292e+00 1.976722e+00 8.026145e-01 -1.424507e-01 1.272370e+00 6.504446e-01 3.098994e-01 7.275652e-01 5.286793e-01 -1.394234e-01 -3.256643e-01 -1.549505e-01 -2.008892e-01 6.042750e-02 -7.561022e-02 -1.891026e-01 2.223146e-01 6.931793e-02 -4.815222e-02 2.073262e-01 4.042599e-02 -2.892645e-02
<VARIANCE> 39
 8.403506e+01 1.441583e+02 1.524718e+02 1.869567e+02 1.261742e+02 1.026767e+02 1.157638e+02 4.801301e+01 6.004469e+01 5.400438e+01 8.517009e+01 3.973287e+01 8.063092e+01 2.402562e+00 5.622654e+00 4.287364e+00 3.682702e+00 2.507731e+00 3.687123e+00 3.937774e+00 3.249313e+00 3.648664e+00 2.972251e+00 3.179457e+00 2.431821e+00 2.027156e+00 1.438273e-01 5.779831e-01 5.608787e-01 3.989078e-01 3.403974e-01 5.243651e-01 4.264325e-01 4.488544e-01 4.527141e-01 4.916934e-01 4.211334e-01 3.530717e-01 2.816520e-01
<GCONST> 1.332654e+02
<MIXTURE> 2 4.132746e-01
<MEAN> 39
 -6.928846e+00 -4.531781e+01 1.091081e+01 1.748260e+01 5.456037e+00 2.672813e+01 -2.986923e+00 6.449447e-01 8.855118e+00 -4.179426e+00 2.457832e+00 4.217090e+00 4.479492e+00 -1.633362e+00 -2.611364e+00 -9.155540e-01 -2.241338e+00 -1.848180e+00 -1.311164e+00 -1.704724e+00 -5.910928e-01 -1.963588e-01 1.490978e-02 -1.149721e-01 -4.314637e-01 1.543151e-01 2.747487e-01 6.639221e-01 -1.158138e-02 5.006165e-02 2.927665e-02 -4.889553e-01 -3.188918e-01 -3.633654e-01 -4.895964e-01 -2.217421e-01 -3.134464e-01 -2.830696e-01 -1.784248e-01
<VARIANCE> 39
 1.669696e+01 3.037027e+01 3.885697e+01 3.971227e+01 3.396274e+01 3.439830e+01 1.123267e+02 2.730067e+01 2.650795e+01 1.683723e+01 2.749842e+01 2.005175e+01 3.295985e+01 8.242230e-01 2.989221e+00 7.966120e-01 1.094053e+00 1.207826e+00 3.158647e+00 1.866474e+00 1.961138e+00 1.920681e+00 1.703422e+00 2.008646e+00 1.800896e+00 1.204634e+00 1.167475e-01 3.362218e-01 1.769408e-01 2.666764e-01 2.963405e-01 6.005819e-01 4.144698e-01 2.650572e-01 2.207902e-01 2.524906e-01 2.674909e-01 2.613796e-01 1.724044e-01
<GCONST> 1.047745e+02
<STATE> 3
<NUMMIXES> 2
<MIXTURE> 1 4.262132e-01
<MEAN> 39
 -9.976673e+00 -5.168123e+01 2.657840e+00 7.040197e+00 -2.451269e+00 2.171278e+01 -1.509127e+00 -3.748744e+00 -1.479529e+00 -7.684240e+00 -5.794262e+00 -1.568412e+00 7.265757e+00 1.135678e-03 -2.006168e-02 -2.389939e-02 -1.335968e-01 2.081466e-02 -5.224933e-02 -7.539068e-02 2.583345e-02 -1.460675e-01 -6.259571e-02 -1.339792e-02 -3.463395e-02 -6.910805e-04 9.384396e-02 1.637629e-01 7.298020e-03 6.773524e-02 3.676306e-02 3.492527e-02 9.556719e-02 8.226452e-02 1.173541e-01 8.875822e-02 1.056325e-01 1.261575e-01 4.488223e-02
<VARIANCE> 39
 1.039792e+01 1.274541e+01 2.295212e+01 1.345141e+01 7.426774e+00 1.305530e+01 2.907096e+01 1.737990e+01 1.777106e+01 1.735527e+01 1.519959e+01 1.511161e+01 9.395017e+00 7.606578e-01 1.356508e+00 1.150284e+00 5.708563e-01 4.503039e-01 1.037224e+00 1.375901e+00 1.249978e+00 1.319931e+00 1.563780e+00 1.660856e+00 1.391635e+00 7.395118e-01 1.378474e-01 2.804938e-01 2.033744e-01 1.040005e-01 8.851690e-02 1.783884e-01 2.167519e-01 2.156523e-01 2.168358e-01 2.664516e-01 2.914059e-01 2.374763e-01 1.407760e-01
<GCONST> 8.535380e+01
<MIXTURE> 2 5.737845e-01
<MEAN> 39
 -1.207201e+01 -4.998165e+01 1.000101e+01 1.146677e+01 7.092025e-01 1.819779e+01 -1.549766e+01 -6.623847e+00 5.574425e+00 -3.293731e+00 1.464074e+00 1.183692e+00 2.233520e+00 -5.809361e-03 -7.948181e-02 -8.165675e-02 -2.104922e-01 5.573772e-02 8.410800e-02 -3.562121e-02 -1.093011e-01 -2.469940e-01 -6.227886e-02 -1.065170e-01 -1.293588e-02 5.486459e-02 7.875471e-02 1.148398e-01 -1.243689e-02 7.423284e-02 1.015682e-01 1.593016e-01 1.863650e-01 8.605058e-02 5.209523e-04 -7.845650e-02 -3.912951e-02 2.347192e-02 5.496192e-03
<VARIANCE> 39
 1.146245e+01 1.694196e+01 2.007887e+01 1.402183e+01 1.130132e+01 1.475905e+01 3.372723e+01 2.656804e+01 1.890935e+01 2.289381e+01 2.319694e+01 1.782522e+01 1.621526e+01 9.506709e-01 1.605211e+00 1.035088e+00 5.419762e-01 6.399166e-01 1.390572e+00 1.286345e+00 1.209065e+00 1.445251e+00 1.723722e+00 1.964963e+00 1.577689e+00 9.461603e-01 1.608364e-01 2.953590e-01 1.775510e-01 1.057120e-01 1.231103e-01 2.080191e-01 1.954909e-01 2.037356e-01 2.675699e-01 3.411140e-01 3.893622e-01 3.164369e-01 1.815903e-01
<GCONST> 9.143647e+01
<STATE> 4
<NUMMIXES> 2
<MIXTURE> 1 4.580496e-01
<MEAN> 39
 6.018683e+00 -1.898614e+01 8.033301e+00 1.517854e+01 6.413602e+00 1.783334e+01 -4.804454e+00 -1.467427e+00 3.099530e+00 -6.639380e+00 -1.370768e+00 3.503604e+00 4.456705e+00 3.956825e+00 5.391568e+00 -1.694718e+00 1.341540e-01 1.577737e+00 -3.361454e+00 -1.551222e+00 1.197880e+00 -8.625946e-01 -1.210522e+00 1.949499e-01 -6.505919e-01 -9.505247e-01 -1.923819e-01 -9.873921e-01 -1.051314e+00 -5.961806e-01 2.958894e-01 -7.008206e-01 -7.506803e-01 5.518414e-01 -3.803598e-01 -6.941754e-01 3.101586e-01 -1.158870e-01 -2.798988e-01
<VARIANCE> 39
 8.854768e+01 8.582771e+01 6.153009e+01 4.663354e+01 2.808376e+01 5.426831e+01 5.787146e+01 3.391220e+01 2.190025e+01 1.985303e+01 2.835783e+01 1.528779e+01 2.173030e+01 3.047412e+00 5.741639e+00 6.426676e+00 3.167044e+00 1.751674e+00 3.690844e+00 3.797062e+00 2.540218e+00 2.088560e+00 3.112431e+00 1.622620e+00 1.058724e+00 1.389573e+00 3.972257e-01 7.504487e-01 5.097648e-01 2.606438e-01 2.128807e-01 5.870551e-01 3.991925e-01 3.085755e-01 2.996881e-01 3.161822e-01 2.478848e-01 2.333843e-01 1.974021e-01
<GCONST> 1.172305e+02
<MIXTURE> 2 5.419503e-01
<MEAN> 39
 -7.831430e+00 -4.459491e+01 5.570846e+00 8.969886e+00 2.089060e+00 2.387212e+01 -4.747762e+00 -2.420382e+00 2.420219e+00 -7.125759e+00 -1.663525e+00 3.025327e+00 5.852859e+00 1.902567e+00 3.873170e+00 4.287106e-01 1.171694e+00 7.703511e-01 2.358551e-01 1.178879e+00 3.738524e-01 4.052093e-01 9.888560e-03 -6.870971e-02 6.305425e-01 2.248192e-01 5.956018e-01 1.086007e+00 2.376507e-01 2.897575e-01 1.425183e-01 -4.901570e-01 -2.435933e-01 -2.535882e-02 2.608835e-02 1.609350e-01 2.063482e-02 -1.367733e-01 -1.109897e-01
<VARIANCE> 39
 1.853721e+01 5.204902e+01 4.441763e+01 4.088871e+01 2.760217e+01 3.591429e+01 8.552081e+01 3.559094e+01 2.465625e+01 1.945095e+01 3.043057e+01 2.051617e+01 1.984495e+01 2.317798e+00 4.607193e+00 1.857097e+00 1.571975e+00 1.120954e+00 1.999153e+00 1.700814e+00 1.552288e+00 1.331994e+00 1.693311e+00 1.374593e+00 1.263465e+00 8.648232e-01 2.126461e-01 4.008200e-01 2.517824e-01 1.793391e-01 1.829334e-01 4.049568e-01 3.644253e-01 2.815866e-01 2.597700e-01 2.563441e-01 2.048892e-01 2.420445e-01 1.627277e-01
<GCONST> 1.050404e+02
<TRANSP> 5
 0.000000e+00 1.000000e+00 0.000000e+00 0.000000e+00 0.000000e+00
 0.000000e+00 8.930057e-01 1.069943e-01 0.000000e+00 0.000000e+00
 0.000000e+00 0.000000e+00 9.445068e-01 5.549317e-02 0.000000e+00
 0.000000e+00 0.000000e+00 0.000000e+00 8.543324e-01 1.456676e-01
 0.000000e+00 0.000000e+00 0.000000e+00 0.000000e+00 0.000000e+00
<ENDHMM>
~h "sp"
<BEGINHMM>
<NUMSTATES> 5
<STATE> 2
<NUMMIXES> 2
<MIXTURE> 1 5.000000e-01
<MEAN> 39
 5.098849e+00 -6.514025e+00 2.430083e+00 1.092778e+01 1.083864e+01 1.500667e+00 -1.140838e+01 9.359310e+00 -3.377835e+00 -1.113024e+01 6.044074e+00 -4.088247e-01 -3.646332e+00 -1.380477e-02 1.475701e-03 -1.072459e-03 -5.524765e-03 -3.099398e-03 2.005852e-03 8.190720e-04 -5.087083e-03 2.488556e-03 5.650900e-03 -1.806995e-03 5.936168e-04 1.443354e-03 -1.213556e-03 -1.404243e-04 -1.926630e-04 -5.029775e-04 -4.298560e-04 2.249404e-04 5.535607e-04 -2.933974e-04 7.204357e-05 8.173331e-04 -1.603794e-04 -1.434907e-04 3.551734e-04
<VARIANCE> 39
 2.696502e+02 1.642264e+02 1.776205e+02 1.699619e+02 1.712323e+02 1.501611e+02 1.653076e+02 1.112998e+02 8.102897e+01 1.132308e+02 1.038732e+02 3.576029e+01 7.139818e+01 2.864393e+00 3.049235e+00 2.950589e+00 2.442850e+00 2.488132e+00 2.882445e+00 3.574063e+00 2.837703e+00 2.254665e+00 3.083899e+00 2.848865e+00 1.410452e+00 1.706605e+00 2.059384e-01 2.861855e-01 3.165202e-01 2.798763e-01 2.958655e-01 3.292713e-01 4.082396e-01 3.875320e-01 3.475762e-01 4.161765e-01 3.917231e-01 2.236369e-01 2.362328e-01
<GCONST> 1.313330e+02
<MIXTURE> 2 5.000000e-01
<MEAN> 39
 5.098849e+00 -6.514025e+00 2.430083e+00 1.092778e+01 1.083864e+01 1.500667e+00 -1.140838e+01 9.359310e+00 -3.377835e+00 -1.113024e+01 6.044074e+00 -4.088247e-01 -3.646332e+00 -1.380477e-02 1.475701e-03 -1.072459e-03 -5.524765e-03 -3.099398e-03 2.005852e-03 8.190720e-04 -5.087083e-03 2.488556e-03 5.650900e-03 -1.806995e-03 5.936168e-04 1.443354e-03 -1.213556e-03 -1.404243e-04 -1.926630e-04 -5.029775e-04 -4.298560e-04 2.249404e-04 5.535607e-04 -2.933974e-04 7.204357e-05 8.173331e-04 -1.603794e-04 -1.434907e-04 3.551734e-04
<VARIANCE> 39
 2.696502e+02 1.642264e+02 1.776205e+02 1.699619e+02 1.712323e+02 1.501611e+02 1.653076e+02 1.112998e+02 8.102897e+01 1.132308e+02 1.038732e+02 3.576029e+01 7.139818e+01 2.864393e+00 3.049235e+00 2.950589e+00 2.442850e+00 2.488132e+00 2.882445e+00 3.574063e+00 2.837703e+00 2.254665e+00 3.083899e+00 2.848865e+00 1.410452e+00 1.706605e+00 2.059384e-01 2.861855e-01 3.165202e-01 2.798763e-01 2.958655e-01 3.292713e-01 4.082396e-01 3.875320e-01 3.475762e-01 4.161765e-01 3.917231e-01 2.236369e-01 2.362328e-01
<GCONST> 1.313330e+02
<STATE> 3
<NUMMIXES> 2
<MIXTURE> 1 5.000000e-01
<MEAN> 39
 5.098849e+00 -6.514025e+00 2.430083e+00 1.092778e+01 1.083864e+01 1.500667e+00 -1.140838e+01 9.359310e+00 -3.377835e+00 -1.113024e+01 6.044074e+00 -4.088247e-01 -3.646332e+00 -1.380477e-02 1.475701e-03 -1.072459e-03 -5.524765e-03 -3.099398e-03 2.005852e-03 8.190720e-04 -5.087083e-03 2.488556e-03 5.650900e-03 -1.806995e-03 5.936168e-04 1.443354e-03 -1.213556e-03 -1.404243e-04 -1.926630e-04 -5.029775e-04 -4.298560e-04 2.249404e-04 5.535607e-04 -2.933974e-04 7.204357e-05 8.173331e-04 -1.603794e-04 -1.434907e-04 3.551734e-04
<VARIANCE> 39
 2.696502e+02 1.642264e+02 1.776205e+02 1.699619e+02 1.712323e+02 1.501611e+02 1.653076e+02 1.112998e+02 8.102897e+01 1.132308e+02 1.038732e+02 3.576029e+01 7.139818e+01 2.864393e+00 3.049235e+00 2.950589e+00 2.442850e+00 2.488132e+00 2.882445e+00 3.574063e+00 2.837703e+00 2.254665e+00 3.083899e+00 2.848865e+00 1.410452e+00 1.706605e+00 2.059384e-01 2.861855e-01 3.165202e-01 2.798763e-01 2.958655e-01 3.292713e-01 4.082396e-01 3.875320e-01 3.475762e-01 4.161765e-01 3.917231e-01 2.236369e-01 2.362328e-01
<GCONST> 1.313330e+02
<MIXTURE> 2 5.000000e-01
<MEAN> 39
 5.098849e+00 -6.514025e+00 2.430083e+00 1.092778e+01 1.083864e+01 1.500667e+00 -1.140838e+01 9.359310e+00 -3.377835e+00 -1.113024e+01 6.044074e+00 -4.088247e-01 -3.646332e+00 -1.380477e-02 1.475701e-03 -1.072459e-03 -5.524765e-03 -3.099398e-03 2.005852e-03 8.190720e-04 -5.087083e-03 2.488556e-03 5.650900e-03 -1.806995e-03 5.936168e-04 1.443354e-03 -1.213556e-03 -1.404243e-04 -1.926630e-04 -5.029775e-04 -4.298560e-04 2.249404e-04 5.535607e-04 -2.933974e-04 7.204357e-05 8.173331e-04 -1.603794e-04 -1.434907e-04 3.551734e-04
<VARIANCE> 39
 2.696502e+02 1.642264e+02 1.776205e+02 1.699619e+02 1.712323e+02 1.501611e+02 1.653076e+02 1.112998e+02 8.102897e+01 1.132308e+02 1.038732e+02 3.576029e+01 7.139818e+01 2.864393e+00 3.049235e+00 2.950589e+00 2.442850e+00 2.488132e+00 2.882445e+00 3.574063e+00 2.837703e+00 2.254665e+00 3.083899e+00 2.848865e+00 1.410452e+00 1.706605e+00 2.059384e-01 2.861855e-01 3.165202e-01 2.798763e-01 2.958655e-01 3.292713e-01 4.082396e-01 3.875320e-01 3.475762e-01 4.161765e-01 3.917231e-01 2.236369e-01 2.362328e-01
<GCONST> 1.313330e+02
<STATE> 4
<NUMMIXES> 2
<MIXTURE> 1 5.000000e-01
<MEAN> 39
 5.098849e+00 -6.514025e+00 2.430083e+00 1.092778e+01 1.083864e+01 1.500667e+00 -1.140838e+01 9.359310e+00 -3.377835e+00 -1.113024e+01 6.044074e+00 -4.088247e-01 -3.646332e+00 -1.380477e-02 1.475701e-03 -1.072459e-03 -5.524765e-03 -3.099398e-03 2.005852e-03 8.190720e-04 -5.087083e-03 2.488556e-03 5.650900e-03 -1.806995e-03 5.936168e-04 1.443354e-03 -1.213556e-03 -1.404243e-04 -1.926630e-04 -5.029775e-04 -4.298560e-04 2.249404e-04 5.535607e-04 -2.933974e-04 7.204357e-05 8.173331e-04 -1.603794e-04 -1.434907e-04 3.551734e-04
<VARIANCE> 39
 2.696502e+02 1.642264e+02 1.776205e+02 1.699619e+02 1.712323e+02 1.501611e+02 1.653076e+02 1.112998e+02 8.102897e+01 1.132308e+02 1.038732e+02 3.576029e+01 7.139818e+01 2.864393e+00 3.049235e+00 2.950589e+00 2.442850e+00 2.488132e+00 2.882445e+00 3.574063e+00 2.837703e+00 2.254665e+00 3.083899e+00 2.848865e+00 1.410452e+00 1.706605e+00 2.059384e-01 2.861855e-01 3.165202e-01 2.798763e-01 2.958655e-01 3.292713e-01 4.082396e-01 3.875320e-01 3.475762e-01 4.161765e-01 3.917231e-01 2.236369e-01 2.362328e-01
<GCONST> 1.313330e+02
<MIXTURE> 2 5.000000e-01
<MEAN> 39
 5.098849e+00 -6.514025e+00 2.430083e+00 1.092778e+01 1.083864e+01 1.500667e+00 -1.140838e+01 9.359310e+00 -3.377835e+00 -1.113024e+01 6.044074e+00 -4.088247e-01 -3.646332e+00 -1.380477e-02 1.475701e-03 -1.072459e-03 -5.524765e-03 -3.099398e-03 2.005852e-03 8.190720e-04 -5.087083e-03 2.488556e-03 5.650900e-03 -1.806995e-03 5.936168e-04 1.443354e-03 -1.213556e-03 -1.404243e-04 -1.926630e-04 -5.029775e-04 -4.298560e-04 2.249404e-04 5.535607e-04 -2.933974e-04 7.204357e-05 8.173331e-04 -1.603794e-04 -1.434907e-04 3.551734e-04
<VARIANCE> 39
 2.696502e+02 1.642264e+02 1.776205e+02 1.699619e+02 1.712323e+02 1.501611e+02 1.653076e+02 1.112998e+02 8.102897e+01 1.132308e+02 1.038732e+02 3.576029e+01 7.139818e+01 2.864393e+00 3.049235e+00 2.950589e+00 2.442850e+00 2.488132e+00 2.882445e+00 3.574063e+00 2.837703e+00 2.254665e+00 3.083899e+00 2.848865e+00 1.410452e+00 1.706605e+00 2.059384e-01 2.861855e-01 3.165202e-01 2.798763e-01 2.958655e-01 3.292713e-01 4.082396e-01 3.875320e-01 3.475762e-01 4.161765e-01 3.917231e-01 2.236369e-01 2.362328e-01
<GCONST> 1.313330e+02
<TRANSP> 5
 0.000000e+00 1.000000e+00 0.000000e+00 0.000000e+00 0.000000e+00
 0.000000e+00 6.000000e-01 4.000000e-01 0.000000e+00 0.000000e+00
 0.000000e+00 0.000000e+00 6.000000e-01 4.000000e-01 0.000000e+00
 0.000000e+00 0.000000e+00 0.000000e+00 6.000000e-01 4.000000e-01
 0.000000e+00 0.000000e+00 0.000000e+00 0.000000e+00 0.000000e+00
<ENDHMM>
~h "sx"
<BEGINHMM>
<NUMSTATES> 5
<STATE> 2
<NUMMIXES> 2
<MIXTURE> 1 6.566769e-01
<MEAN> 39
 1.093625e+00 -2.085164e+01 -3.975555e+00 9.222995e+00 7.321846e+00 1.441226e+01 -4.679157e+00 -9.808193e-02 7.874827e-01 -7.241272e+00 -1.311589e+00 2.414754e+00 4.505559e+00 -7.484528e-01 -3.625295e+00 1.168671e+00 5.119101e-01 -8.769794e-01 2.145069e+00 8.147941e-01 -3.977171e-01 9.536778e-01 3.528128e-01 -1.681007e-01 2.515361e-01 2.036306e-01 -1.393737e-01 -2.661933e-01 7.026127e-03 -1.349349e-01 1.028488e-01 -7.930097e-02 -2.096411e-01 2.584711e-01 1.666499e-02 -4.500657e-02 2.782028e-01 -1.487180e-02 -1.419554e-01
<VARIANCE> 39
 1.537782e+02 1.446738e+02 2.384786e+02 2.299294e+02 1.045783e+02 1.059664e+02 7.969393e+01 6.521799e+01 2.977242e+01 3.150153e+01 7.006934e+01 2.868194e+01 4.114537e+01 4.006569e+00 4.202139e+00 6.242565e+00 4.349501e+00 2.503954e+00 4.256519e+00 4.180614e+00 3.678411e+00 2.829710e+00 2.478212e+00 2.312722e+00 1.292345e+00 2.412796e+00 2.188448e-01 5.195081e-01 7.911648e-01 5.038489e-01 3.671640e-01 6.375430e-01 4.993010e-01 5.867368e-01 3.937062e-01 4.425049e-01 3.354432e-01 1.974061e-01 3.929319e-01
<GCONST> 1.326122e+02
<MIXTURE> 2 3.433227e-01
<MEAN> 39
 -5.381934e+00 -4.277480e+01 9.829908e+00 1.617272e+01 7.244026e+00 2.807981e+01 -1.691722e+00 7.667122e-01 7.684947e+00 -2.883194e+00 3.316478e+00 4.716461e+00 4.300649e+00 -1.830185e+00 -2.940548e+00 -9.678198e-01 -2.342795e+00 -1.527806e+00 -9.755973e-01 -1.366617e+00 -1.326922e-01 -1.734310e-01 1.711624e-01 -3.289659e-02 -2.906680e-01 4.337859e-01 2.544036e-01 5.843874e-01 -2.770732e-02 -7.460286e-02 -7.104421e-02 -5.337170e-01 -3.557741e-01 -3.614274e-01 -4.684363e-01 -2.141301e-01 -2.821469e-01 -2.512749e-01 -4.453401e-02
<VARIANCE> 39
 2.643163e+01 9.021928e+01 4.384254e+01 2.909274e+01 3.016161e+01 2.892994e+01 9.676294e+01 2.531651e+01 2.143082e+01 1.806789e+01 2.046493e+01 1.730770e+01 2.084737e+01 7.342349e-01 2.084868e+00 1.168411e+00 7.545447e-01 8.810428e-01 1.977416e+00 1.353016e+00 1.709581e+00 1.725813e+00 1.830021e+00 1.514380e+00 1.256279e+00 9.026552e-01 1.054203e-01 1.873507e-01 2.114554e-01 2.434012e-01 2.113918e-01 3.013505e-01 3.048526e-01 2.017702e-01 2.330965e-01 2.293500e-01 1.406028e-01 1.531214e-01 1.744969e-01
<GCONST> 9.848418e+01
<STATE> 3
<NUMMIXES> 2
<MIXTURE> 1 0.000000e+00
<MEAN> 39
 -2.460413e+01 -2.528620e+01 9.476417e+00 1.453254e+00 8.121964e+00 -6.020190e+00 2.558741e+00 -3.683615e+00 2.657288e+00 -4.109238e+00 2.908855e+00 4.739001e-02 -7.405792e-01 -1.435858e-01 -1.183302e-01 4.800704e-04 -1.259827e-01 -1.603135e-01 -9.897383e-02 -2.412239e-02 1.340315e-02 5.059737e-02 6.779682e-02 8.571308e-02 1.051517e-01 4.385307e-02 1.701642e-01 1.138292e-01 -9.650642e-03 3.541986e-02 8.229297e-02 5.383232e-02 -1.378253e-02 7.141295e-03 -2.082125e-02 2.484192e-02 -1.483140e-02 1.512020e-02 -1.248819e-02
<VARIANCE> 39
 1.287360e+01 1.845261e+01 3.968744e+01 2.419895e+01 2.596645e+01 2.354561e+01 2.662227e+01 3.145501e+01 2.725155e+01 2.397213e+01 2.824627e+01 2.035361e+01 2.221501e+01 5.440961e-01 4.177724e-01 5.778142e-01 6.248232e-01 8.203446e-01 8.965421e-01 1.009574e+00 1.112690e+00 1.137437e+00 1.150113e+00 1.086122e+00 9.778180e-01 8.340899e-01 5.372016e-02 7.531175e-02 9.407701e-02 1.193896e-01 1.523911e-01 1.770679e-01 2.031044e-01 2.243394e-01 2.324814e-01 2.318604e-01 2.228285e-01 1.993412e-01 1.736224e-01
<GCONST> 8.606846e+01
<MIXTURE> 2 1.000000e+00
<MEAN> 39
 -1.110113e+01 -5.120291e+01 7.469086e+00 6.486506e+00 4.112972e-01 2.102406e+01 -1.019666e+01 -3.061420e+00 2.601351e+00 -5.002650e+00 -9.135439e-01 6.400919e-01 5.438406e+00 -1.574198e-01 -8.405270e-02 2.138104e-01 -1.717740e-01 -1.064482e-01 -1.402147e-01 -2.861881e-01 -5.829097e-02 -2.321362e-01 -1.646838e-01 -1.639093e-01 -1.027501e-01 7.072666e-02 1.005688e-01 2.139161e-01 -5.236229e-02 9.553988e-02 4.602969e-02 4.717720e-02 1.364381e-01 5.709499e-02 7.956241e-02 6.969820e-04 1.625230e-02 8.437824e-02 1.986409e-02
<VARIANCE> 39
 1.055311e+01 1.527010e+01 3.688410e+01 1.196371e+01 1.222006e+01 1.620679e+01 6.826170e+01 2.157504e+01 2.095108e+01 2.089084e+01 2.676847e+01 1.895269e+01 1.720700e+01 8.608361e-01 1.848402e+00 1.459146e+00 7.085750e-01 6.180449e-01 1.453801e+00 1.350164e+00 1.262037e+00 1.358686e+00 1.586724e+00 1.486289e+00 1.258040e+00 7.612571e-01 1.344931e-01 3.492172e-01 2.091697e-01 1.247082e-01 1.088609e-01 2.423977e-01 1.877279e-01 2.296315e-01 2.590322e-01 3.166871e-01 3.022675e-01 2.386151e-01 1.393340e-01
<GCONST> 9.204914e+01
<STATE> 4
<NUMMIXES> 2
<MIXTURE> 1 4.561073e-01
<MEAN> 39
 -2.281109e+00 -2.231668e+01 3.230859e+00 1.186210e+01 5.019014e+00 1.697881e+01 -2.521024e+00 1.644966e+00 4.252644e+00 -4.476652e+00 4.675061e-03 5.240379e+00 7.140110e+00 1.873489e+00 5.163404e+00 -1.283714e+00 3.865039e-02 1.207395e+00 -2.316936e+00 -2.912787e-01 8.009656e-01 -7.163378e-01 -2.270138e-01 2.629467e-01 -2.576292e-01 -3.436329e-01 -7.651610e-02 -4.911684e-01 -5.249980e-01 -5.436326e-01 7.220596e-02 -5.138907e-01 -6.651870e-01 2.070796e-01 -2.603847e-01 -3.785315e-01 1.871761e-01 -1.515885e-01 -2.623821e-01
<VARIANCE> 39
 1.725001e+02 1.390834e+02 5.893690e+01 3.551788e+01 4.487017e+01 8.473706e+01 4.692292e+01 3.145704e+01 5.187905e+01 4.164537e+01 2.449254e+01 1.541329e+01 1.663272e+01 9.189460e+00 5.770093e+00 3.964074e+00 3.841880e+00 2.847204e+00 3.068862e+00 6.110539e+00 2.110395e+00 2.126563e+00 2.614528e+00 1.237639e+00 1.180200e+00 1.973942e+00 3.487065e-01 1.049139e+00 7.076032e-01 3.463340e-01 3.848322e-01 5.689386e-01 5.479975e-01 4.103915e-01 2.608020e-01 3.813496e-01 2.207891e-01 2.181733e-01 2.527229e-01
<GCONST> 1.234264e+02
<MIXTURE> 2 5.438933e-01
<MEAN> 39
 -1.318594e+01 -4.089911e+01 6.318080e+00 7.580711e+00 -1.426960e+00 1.501732e+01 -9.533096e+00 -3.458620e-01 3.541641e+00 -7.414978e+00 -2.790373e+00 2.457370e+00 6.093009e+00 5.879799e-01 3.063592e+00 -5.435370e-01 6.062800e-01 -3.267109e-03 -6.478033e-01 1.020025e+00 3.147840e-01 5.273759e-01 4.882970e-02 -6.715174e-02 6.232676e-01 1.166839e-01 2.426416e-01 6.534501e-01 2.632384e-02 1.779497e-01 2.107214e-01 -1.131937e-01 7.219937e-02 3.025803e-02 -9.902921e-03 1.051024e-01 2.779751e-03 3.992606e-03 1.274885e-02
<VARIANCE> 39
 4.984306e+01 1.476491e+02 8.814378e+01 2.752187e+01 1.332993e+01 1.020369e+02 6.558337e+01 2.515575e+01 3.663127e+01 2.528179e+01 2.462556e+01 2.540833e+01 1.333570e+01 3.264170e+00 3.189350e+00 2.559724e+00 1.344837e+00 1.106452e+00 2.590448e+00 1.540811e+00 1.125896e+00 1.803556e+00 1.321606e+00 1.454885e+00 1.332701e+00 1.085529e+00 3.674074e-01 7.327927e-01 3.142487e-01 1.590669e-01 1.411367e-01 3.095490e-01 2.127275e-01 1.755309e-01 2.731797e-01 1.548171e-01 2.117533e-01 2.470027e-01 1.932305e-01
<GCONST> 1.071704e+02
<TRANSP> 5
 0.000000e+00 1.000000e+00 0.000000e+00 0.000000e+00 0.000000e+00
 0.000000e+00 9.077970e-01 9.220301e-02 0.000000e+00 0.000000e+00
 0.000000e+00 0.000000e+00 9.354479e-01 6.455218e-02 0.000000e+00
 0.000000e+00 0.000000e+00 0.000000e+00 8.793250e-01 1.206750e-01
 0.000000e+00 0.000000e+00 0.000000e+00 0.000000e+00 0.000000e+00
<ENDHMM>
~h "th"
<BEGINHMM>
<NUMSTATES> 5
<STATE> 2
<NUMMIXES> 2
<MIXTURE> 1 0.000000e+00
<MEAN> 39
 -3.886223e-05 -1.931190e-05 5.215406e-07 8.761883e-06 -2.145767e-06 5.111098e-06 8.314848e-06 2.488494e-06 -7.539988e-06 1.132488e-06 -3.003515e-07 5.424023e-06 -4.022149e-08 1.873821e-06 -4.437752e-07 5.909242e-07 1.825392e-07 -4.018657e-07 -3.222376e-07 3.189780e-07 -5.820766e-11 -6.482005e-07 -5.755574e-07 -2.846355e-08 6.949995e-08 9.033829e-08 -3.673423e-02 3.657988e-03 -6.203171e-03 1.457151e-03 -7.559096e-04 -1.241736e-03 -9.468020e-04 -1.675523e-03 -7.280131e-04 -1.245679e-03 7.821736e-05 -6.539826e-04 -5.843351e-06
<VARIANCE> 39
 6.791949e-05 1.000000e-30 1.187436e-07 1.545995e-06 3.539026e-07 4.889444e-07 7.301569e-06 3.557652e-07 1.000000e-30 1.000000e-30 1.000000e-30 3.034249e-06 1.224976e-10 1.000000e-30 1.000000e-30 8.043571e-09 1.000000e-30 1.000000e-30 1.000000e-30 2.622983e-09 1.563194e-12 1.000000e-30 1.000000e-30 1.000000e-30 1.000000e-30 1.000000e-30 2.939744e-02 1.510691e-03 1.924523e-03 1.205781e-03 1.539571e-03 1.394400e-03 1.598690e-03 1.480532e-03 1.398113e-03 1.215753e-03 1.174650e-03 9.854551e-04 6.629324e-04
<GCONST> -1.400000e+11
<MIXTURE> 2 1.000000e+00
<MEAN> 39
 -1.126110e+01 2.339719e+00 2.131583e+00 5.749895e+00 5.891614e+00 6.859527e+00 -1.494220e+00 4.148563e+00 -1.565706e+00 -2.677425e+00 1.007896e+00 8.470094e-01 4.077964e+00 -1.047678e+00 -6.402001e-01 -2.651565e-01 1.133597e-01 -1.865246e-01 2.889095e-01 7.238316e-01 2.044762e-01 6.303900e-01 6.260989e-01 -4.235322e-01 2.343402e-01 9.016116e-01 3.571646e-01 -4.237186e-01 -1.427111e-01 1.027892e-01 9.921651e-02 8.442393e-02 8.172330e-03 3.169968e-01 2.315082e-01 6.624296e-02 1.068055e-01 -3.767314e-02 1.373527e-01
<VARIANCE> 39
 1.610071e+02 6.873726e+01 4.682511e+01 6.319951e+01 6.369755e+01 3.497603e+01 2.675605e+01 2.157862e+01 1.769090e+01 2.111279e+01 2.257012e+01 1.910247e+01 3.607524e+01 3.849840e+00 3.207390e+00 1.888129e+00 1.968394e+00 2.439295e+00 1.626115e+00 1.918454e+00 2.255291e+00 1.985592e+00 1.346725e+00 2.095336e+00 1.301784e+00 1.971387e+00 2.706734e-01 2.487827e-01 2.680571e-01 2.844743e-01 3.586145e-01 2.923207e-01 2.742722e-01 3.146528e-01 2.878717e-01 2.515771e-01 2.861074e-01 2.495337e-01 3.387166e-01
<GCONST> 1.116343e+02
<STATE> 3
<NUMMIXES> 2
<MIXTURE> 1 0.000000e+00
<MEAN> 39
 0.000000e+00 0.000000e+00 0.000000e+00 0.000000e+00 0.000000e+00 0.000000e+00 0.000000e+00 0.000000e+00 0.000000e+00 0.000000e+00 0.000000e+00 0.000000e+00 0.000000e+00 7.602786e-28 -6.781300e-28 2.817260e-28 -2.260459e-29 5.468585e-29 -1.506301e-28 1.148696e-28 -2.120465e-29 7.979356e-30 -5.320312e-29 5.792728e-29 -1.833769e-29 3.866608e-31 -4.988265e-02 4.965165e-03 -7.294576e-03 2.466788e-03 2.788171e-04 -1.618284e-03 -9.823618e-04 -1.922494e-03 -5.035132e-04 -1.812430e-03 -3.375670e-05 -6.368760e-04 -8.684045e-05
<VARIANCE> 39
 1.000000e-30 1.000000e-30 1.000000e-30 1.000000e-30 1.000000e-30 1.000000e-30 1.000000e-30 1.000000e-30 1.000000e-30 1.000000e-30 1.000000e-30 1.000000e-30 1.000000e-30 8.953985e-28 7.123556e-28 1.229489e-28 1.000000e-30 4.632556e-30 3.514752e-29 2.044002e-29 1.000000e-30 1.000000e-30 4.384753e-30 5.198011e-30 1.000000e-30 1.000000e-30 4.486060e-02 3.359458e-03 3.289693e-03 2.491937e-03 2.905590e-03 2.327311e-03 2.783720e-03 2.963404e-03 2.648251e-03 2.054753e-03 2.260878e-03 1.761504e-03 1.385205e-03
<GCONST> -1.300000e+11
<MIXTURE> 2 1.000000e+00
<MEAN> 39
 -8.744688e+00 -6.495839e+00 5.583471e-02 7.361086e+00 5.349175e+00 8.895750e+00 3.913896e-01 8.810086e+00 5.262148e+00 2.505682e+00 1.257975e+00 -7.944547e-01 8.603407e+00 2.670219e+00 -2.350654e+00 -2.539376e-01 -9.443958e-01 -1.472833e+00 -2.524813e-02 -9.001032e-01 4.053988e-01 5.748618e-02 5.899245e-01 1.616860e+00 -8.241648e-01 -1.324320e-02 5.517059e-01 -5.812508e-02 3.063605e-01 -5.116479e-01 -4.344284e-01 1.915896e-02 -5.125786e-01 -4.546688e-01 -1.075993e+00 -5.775355e-01 7.266499e-01 -5.663744e-02 -4.927688e-01
<VARIANCE> 39
 4.689046e+01 3.478121e+01 1.775913e+01 2.311797e+01 2.908694e+01 2.005148e+01 2.684388e+01 2.245533e+01 2.609945e+01 2.150055e+01 2.131148e+01 2.553316e+01 2.102297e+01 3.708850e+00 2.608107e+00 2.187464e+00 3.774740e+00 3.060967e+00 2.165168e+00 3.204529e+00 3.631626e+00 7.796511e+00 3.927737e+00 3.865338e+00 2.423177e+00 4.593017e+00 3.358904e-01 2.250554e-01 2.492763e-01 3.316550e-01 4.219059e-01 4.114155e-01 3.574435e-01 4.730920e-01 7.930235e-01 6.604828e-01 3.654270e-01 5.237985e-01 6.628364e-01
<GCONST> 1.181311e+02
<STATE> 4
<NUMMIXES> 2
<MIXTURE> 1 4.016138e-01
<MEAN> 39
 8.522840e+00 -1.616998e+01 6.023790e-01 4.105226e-01 -7.810949e-01 7.168098e+00 -1.021462e+01 7.853327e+00 -8.608685e+00 -8.173060e+00 1.608039e+01 -1.295989e+00 3.551716e+00 1.251621e+00 -7.619867e-01 2.261939e-01 -6.197225e-01 -5.906513e-01 4.406699e-01 -2.397896e-01 -3.499745e-01 -1.663825e+00 -8.291147e-01 1.825006e+00 7.769746e-01 9.957275e-02 -6.824024e-01 5.533443e-01 -2.575023e-01 5.382087e-01 4.429321e-01 -6.087400e-02 7.230092e-01 1.437471e-01 8.062831e-01 5.890729e-01 -6.090761e-01 2.933880e-01 2.259662e-01
<VARIANCE> 39
 6.296291e+01 2.706744e+01 3.707282e+01 4.620611e+01 6.397320e+01 1.074696e+02 8.898186e+01 1.160168e+02 3.423893e+01 1.605370e+02 3.707142e+01 2.306212e+01 3.966504e+01 2.978341e+00 2.030218e+00 1.369764e+00 2.739776e+00 2.042282e+00 3.304280e+00 5.125520e+00 3.244846e+00 7.068847e+00 5.841392e+00 4.879354e+00 1.394414e+00 1.528208e+00 2.633352e-01 2.276238e-01 2.670220e-01 4.238756e-01 3.209194e-01 4.119176e-01 5.600623e-01 4.993925e-01 7.783707e-01 6.978123e-01 4.926435e-01 3.148343e-01 3.647973e-01
<GCONST> 1.258170e+02
<MIXTURE> 2 5.983859e-01
<MEAN> 39
 6.753634e+00 -1.295253e+01 -3.749418e+00 4.131687e-01 -5.725248e+00 7.979093e+00 2.695824e+00 6.572362e+00 -3.863292e+00 3.169666e+00 1.584962e+01 2.892299e+00 6.751113e+00 6.115637e-01 1.434259e+00 -3.423578e-01 8.388255e-01 6.932548e-01 -7.379624e-01 7.255295e-01 6.569338e-01 5.844530e-01 2.167998e-02 -5.073861e-01 2.099876e-02 -6.261818e-01 2.069122e-01 1.296317e-01 1.223632e-01 -1.543712e-02 8.584310e-02 -2.628039e-01 -4.256319e-01 1.628901e-01 -1.029953e-01 -3.666623e-01 -2.553453e-02 -2.001301e-01 -2.124893e-01
<VARIANCE> 39
 6.725749e+01 6.049028e+01 6.297229e+01 5.053975e+01 1.129989e+02 9.718957e+01 6.317358e+01 6.688193e+01 4.484085e+01 5.699759e+01 5.641063e+01 2.778138e+01 2.296875e+01 1.538981e+00 3.031511e+00 2.412634e+00 2.699247e+00 4.113998e+00 2.964477e+00 3.956661e+00 2.508426e+00 2.380211e+00 3.305248e+00 2.563723e+00 2.268491e+00 1.703496e+00 1.274013e-01 3.424262e-01 3.561105e-01 2.772310e-01 4.360883e-01 5.158547e-01 5.471286e-01 4.201628e-01 3.962070e-01 4.143663e-01 3.709774e-01 3.618285e-01 2.646759e-01
<GCONST> 1.230560e+02
<TRANSP> 5
 0.000000e+00 1.000000e+00 0.000000e+00 0.000000e+00 0.000000e+00
 0.000000e+00 7.347231e-01 2.652768e-01 0.000000e+00 0.000000e+00
 0.000000e+00 0.000000e+00 7.677075e-01 2.322925e-01 0.000000e+00
 0.000000e+00 0.000000e+00 0.000000e+00 9.128869e-01 8.711306e-02
 0.000000e+00 0.000000e+00 0.000000e+00 0.000000e+00 0.000000e+00
<ENDHMM>
~h "tx"
<BEGINHMM>
<NUMSTATES> 5
<STATE> 2
<NUMMIXES> 2
<MIXTURE> 1 5.745027e-01
<MEAN> 39
 -2.005983e+01 -9.863912e+00 7.882853e+00 3.005455e+00 -1.015813e+00 6.981797e+00 -3.728310e+00 5.629537e+00 -1.166386e+00 -4.281213e+00 8.098584e-02 -1.298443e+00 3.528642e+00 -8.488241e-02 -6.730643e-02 -2.470704e+00 1.117251e+00 1.209642e+00 4.977852e-02 4.199060e-01 2.985474e-02 1.304094e+00 4.173205e-01 -7.237108e-01 2.611592e-01 1.145663e+00 5.043761e-01 -4.206970e-01 1.810230e-01 -7.098771e-02 1.976068e-02 1.145875e-01 8.873165e-03 2.460155e-01 1.050663e-01 1.732686e-01 6.384298e-02 -9.804273e-02 1.144859e-01
<VARIANCE> 39
 8.957626e+01 1.422973e+02 1.248560e+02 8.288058e+01 1.012298e+02 2.287789e+01 2.908155e+01 2.125457e+01 2.779045e+01 1.644660e+01 3.601298e+01 1.555217e+01 1.433884e+01 3.937854e+00 7.377105e+00 6.990349e+00 3.078301e+00 3.865011e+00 3.007216e+00 2.322011e+00 3.111158e+00 2.183650e+00 1.698858e+00 1.625203e+00 1.217286e+00 2.904308e+00 3.401091e-01 4.388277e-01 6.738062e-01 3.797571e-01 4.410201e-01 3.427996e-01 2.978590e-01 2.910680e-01 3.650777e-01 2.428563e-01 3.218483e-01 2.306075e-01 3.268743e-01
<GCONST> 1.198510e+02
<MIXTURE> 2 4.254963e-01
<MEAN> 39
 -2.666309e+01 -6.491534e+00 -5.064395e+00 -2.664164e+00 -3.543242e+00 7.232042e-01 -3.711272e+00 1.072690e+00 -1.475476e+00 -5.743042e-01 4.430600e-01 -1.021437e+00 7.568171e-01 2.161362e-01 -1.382750e-01 -8.780088e-02 4.375988e-01 5.057464e-01 1.962229e-01 1.579851e-01 2.130830e-01 1.215273e-01 -8.628169e-02 -1.515822e-01 2.074083e-01 3.870127e-01 2.542171e-01 -1.525097e-01 1.805443e-01 3.482609e-01 3.066627e-01 2.915769e-01 1.470964e-01 2.155243e-01 1.682408e-01 -3.983621e-03 -3.485257e-02 7.357417e-02 2.874639e-01
<VARIANCE> 39
 4.992324e-01 1.366887e+00 1.945276e+00 2.703639e+00 3.789704e+00 4.535698e+00 5.411441e+00 5.744740e+00 6.972157e+00 6.972890e+00 6.682563e+00 5.646596e+00 5.053547e+00 2.459922e-01 5.073493e-01 5.412150e-01 9.509133e-01 1.296687e+00 1.081344e+00 1.049742e+00 1.148737e+00 1.167390e+00 1.057936e+00 1.068238e+00 9.918001e-01 1.175920e+00 1.176600e-01 1.053926e-01 1.807432e-01 2.456560e-01 3.097209e-01 2.438259e-01 2.026477e-01 2.473368e-01 2.430612e-01 2.082713e-01 1.988769e-01 1.693236e-01 2.703612e-01
<GCONST> 6.581803e+01
<STATE> 3
<NUMMIXES> 2
<MIXTURE> 1 6.151229e-01
<MEAN> 39
 -1.135265e+01 -1.266604e+01 1.838545e+00 9.960005e+00 5.182010e+00 9.535861e+00 -1.212520e+00 7.920841e+00 5.943216e+00 2.798325e-01 -2.289090e+00 -2.334096e+00 8.555518e+00 2.475203e+00 -3.208514e+00 6.654258e-01 8.453907e-02 -1.218696e+00 6.536596e-01 -5.791689e-01 1.522784e-01 1.801202e-01 -1.735144e-01 1.361083e+00 -1.323251e-01 -8.025561e-01 1.800268e-01 -4.638338e-01 6.061919e-01 -4.010427e-01 -5.167856e-01 1.844232e-01 -2.692731e-01 -2.267592e-01 -8.961976e-01 -7.468285e-01 7.236289e-01 2.584773e-01 -7.825055e-01
<VARIANCE> 39
 3.856750e+01 4.414615e+01 4.353569e+01 4.198805e+01 4.912212e+01 2.307055e+01 2.799760e+01 2.439747e+01 3.795934e+01 2.298634e+01 3.470865e+01 2.398789e+01 3.063193e+01 2.808352e+00 4.290694e+00 3.650706e+00 4.140991e+00 4.522927e+00 2.471610e+00 2.432919e+00 2.531826e+00 5.400136e+00 3.852303e+00 4.844784e+00 3.026030e+00 5.956616e+00 3.265405e-01 3.284453e-01 4.727127e-01 4.142825e-01 7.753808e-01 6.080861e-01 4.266059e-01 4.086590e-01 6.138277e-01 6.663861e-01 4.439299e-01 5.704145e-01 7.647180e-01
<GCONST> 1.251500e+02
<MIXTURE> 2 3.848755e-01
<MEAN> 39
 -1.320114e+00 -3.057058e+01 1.146320e+01 7.737040e+00 -2.601906e+00 1.603417e+01 -5.472056e+00 6.995057e+00 -2.249815e+00 -9.298370e+00 8.935113e+00 1.560397e+00 9.379708e-01 1.629943e+00 -3.196768e+00 3.625125e+00 9.953383e-02 -6.263751e-01 2.901433e+00 -1.068206e+00 -1.469406e-01 -2.695304e+00 -2.826518e+00 2.372493e+00 1.029337e+00 -3.981657e-01 -3.327613e-01 1.502427e+00 -2.212687e-01 5.173326e-01 8.976533e-01 -1.829296e-01 1.619705e-01 -1.871327e-01 3.795716e-01 5.267135e-01 -8.403390e-01 -2.844519e-01 6.443971e-01
<VARIANCE> 39
 2.359302e+01 3.648394e+01 7.429032e+01 4.518011e+01 4.990353e+01 5.884249e+01 4.139777e+01 3.327283e+01 6.390526e+01 4.812231e+01 7.220107e+01 3.364847e+01 3.941576e+01 1.952614e+00 5.964771e+00 2.648889e+00 2.172744e+00 2.151606e+00 3.142424e+00 2.044013e+00 2.576627e+00 3.374780e+00 4.148294e+00 3.166067e+00 2.461902e+00 2.781128e+00 1.739766e-01 1.007476e+00 1.118450e+00 2.912768e-01 3.625845e-01 1.186580e+00 5.178499e-01 5.585999e-01 6.720496e-01 8.245246e-01 6.538817e-01 3.679769e-01 3.733168e-01
<GCONST> 1.268134e+02
<STATE> 4
<NUMMIXES> 2
<MIXTURE> 1 7.086416e-01
<MEAN> 39
 -1.456166e+00 -2.836713e+01 1.454678e+01 9.207911e+00 1.098597e+00 2.153103e+01 -3.663150e+00 5.788661e+00 -3.881967e+00 -1.148199e+01 7.598756e+00 3.820695e+00 4.586076e+00 1.037242e+00 3.186311e+00 -1.293001e+00 9.624580e-01 1.828726e+00 -1.040476e+00 2.850695e-01 -8.827941e-01 -9.688938e-02 3.073767e-01 -6.946396e-01 1.604543e-01 6.316774e-03 1.103243e-01 7.846093e-01 -1.068636e+00 -8.546490e-02 3.391315e-01 -9.890472e-01 -2.774461e-01 1.025897e-01 2.233697e-01 9.223124e-02 -2.594429e-01 -1.298955e-01 -1.822616e-01
<VARIANCE> 39
 7.314628e+01 1.162473e+02 1.181318e+02 6.607413e+01 6.154688e+01 8.742780e+01 7.488158e+01 7.178770e+01 8.998981e+01 5.554179e+01 8.096718e+01 4.830046e+01 5.468208e+01 4.590562e+00 7.306961e+00 7.662554e+00 2.715352e+00 3.641715e+00 6.306595e+00 5.617550e+00 4.200146e+00 4.149929e+00 5.009843e+00 2.697052e+00 2.248975e+00 2.035981e+00 3.260612e-01 1.396905e+00 1.597286e+00 3.739378e-01 6.151655e-01 9.082966e-01 8.059133e-01 7.580948e-01 6.977842e-01 1.040145e+00 5.994972e-01 3.607878e-01 3.223264e-01
<GCONST> 1.406889e+02
<MIXTURE> 2 2.913539e-01
<MEAN> 39
 -1.136708e+01 -1.054265e+01 1.650670e+00 6.795790e+00 4.390608e+00 9.795784e+00 -1.162443e+00 5.246686e+00 -2.238449e+00 -4.290866e+00 3.576059e+00 3.594757e+00 7.682215e+00 -1.293645e+00 1.573726e+00 -6.491390e-01 -1.234005e-01 5.037654e-02 -1.005960e+00 2.314093e-01 8.320104e-02 3.369859e-01 6.787513e-01 -3.398536e-01 -1.335492e-01 -1.497577e-01 -2.050808e-02 -4.556989e-01 2.421663e-01 -5.651750e-02 -4.305810e-02 2.717578e-01 4.483507e-02 8.114518e-02 -1.256213e-01 -1.622637e-01 1.785756e-01 1.277102e-01 -1.207207e-01
<VARIANCE> 39
 1.153729e+02 1.032582e+02 1.138370e+02 7.265069e+01 7.885976e+01 1.248273e+02 1.448855e+02 1.061379e+02 9.074027e+01 4.837347e+01 7.145849e+01 4.063012e+01 7.116177e+01 1.963124e+00 3.666112e+00 1.600326e+00 1.586869e+00 1.731754e+00 3.001946e+00 1.879809e+00 1.854602e+00 2.661356e+00 1.864892e+00 1.922477e+00 1.517720e+00 1.963569e+00 1.437562e-01 2.509819e-01 1.769887e-01 1.410407e-01 1.981115e-01 2.937936e-01 2.583745e-01 2.074456e-01 3.172389e-01 2.821798e-01 1.960555e-01 2.288554e-01 2.373270e-01
<GCONST> 1.189563e+02
<TRANSP> 5
 0.000000e+00 1.000000e+00 0.000000e+00 0.000000e+00 0.000000e+00
 0.000000e+00 8.018827e-01 1.981173e-01 0.000000e+00 0.000000e+00
 0.000000e+00 0.000000e+00 8.458474e-01 1.541526e-01 0.000000e+00
 0.000000e+00 0.000000e+00 0.000000e+00 7.796689e-01 2.203312e-01
 0.000000e+00 0.000000e+00 0.000000e+00 0.000000e+00 0.000000e+00
<ENDHMM>
~h "uu"
<BEGINHMM>
<NUMSTATES> 7
<STATE> 2
<NUMMIXES> 2
<MIXTURE> 1 6.627812e-01
<MEAN> 39
 1.763688e+01 6.442746e+00 3.244950e+00 1.098292e+01 8.894092e+00 -1.605824e+00 -8.707897e+00 1.409494e+01 4.044480e+00 -1.556599e+01 -7.193916e+00 -9.093275e+00 -1.224196e+01 1.298158e-01 4.763827e-01 4.846322e-01 2.386523e-01 -6.874094e-01 -2.073954e+00 -1.002368e+00 1.164511e+00 1.344859e+00 8.330245e-02 -1.816858e-01 -1.304521e-01 -7.169334e-01 -1.207261e-01 -8.263482e-02 1.013313e-01 6.870450e-02 -4.325016e-02 9.974127e-02 1.381225e-01 -5.683659e-02 -9.642017e-02 3.977575e-02 1.017870e-01 1.533385e-01 1.452548e-01
<VARIANCE> 39
 4.457157e+00 3.866959e+01 1.580470e+01 5.881149e+01 3.621219e+01 6.088137e+01 5.205107e+01 3.424689e+01 5.292923e+01 1.126731e+02 2.538673e+01 5.623752e+01 1.658602e+01 2.857279e-01 6.653984e-01 5.565371e-01 1.253351e+00 1.387523e+00 9.865534e-01 2.867614e+00 1.672046e+00 1.054987e+00 1.590332e+00 1.671125e+00 1.267345e+00 1.192526e+00 4.256552e-02 6.655537e-02 9.560426e-02 1.045353e-01 9.227271e-02 2.276161e-01 1.982731e-01 2.350630e-01 1.405377e-01 2.700129e-01 1.390826e-01 1.130590e-01 1.315541e-01
<GCONST> 9.206283e+01
<MIXTURE> 2 3.372175e-01
<MEAN> 39
 1.191158e+01 3.520141e+00 4.193742e+00 7.366111e+00 4.835529e+00 9.300946e+00 4.952669e+00 1.317232e+01 -2.626381e+00 -1.409043e+01 -7.932509e+00 -7.916006e+00 -1.766214e+00 1.302455e+00 8.472567e-01 -1.110524e-01 1.271540e-01 -1.999490e-01 -1.934773e+00 -1.253517e+00 4.669907e-01 3.778025e-01 -5.132226e-01 -2.738045e-01 -5.160623e-01 -1.304780e+00 -1.366268e-01 -1.341471e-01 -2.358275e-02 9.160569e-02 1.175397e-01 -3.207332e-01 -5.221248e-01 1.151567e-03 4.532632e-01 2.727218e-01 7.437229e-02 3.505433e-03 -2.254895e-01
<VARIANCE> 39
 6.346724e+01 1.378524e+02 7.649001e+01 6.261505e+01 3.267749e+01 9.444521e+01 7.093308e+01 2.612537e+01 4.262236e+01 3.512862e+01 8.361139e+01 4.772733e+01 2.042469e+01 1.146951e+00 4.573429e+00 2.782608e+00 2.711653e+00 1.540201e+00 8.838978e+00 4.509368e+00 3.260910e+00 3.044493e+00 3.020244e+00 4.399289e+00 1.978593e+00 1.840212e+00 2.362585e-01 7.467884e-01 4.246999e-01 2.902513e-01 2.029981e-01 7.266964e-01 5.608869e-01 3.668727e-01 6.348925e-01 4.449793e-01 6.414175e-01 2.879485e-01 2.158281e-01
<GCONST> 1.255679e+02
<STATE> 3
<NUMMIXES> 2
<MIXTURE> 1 4.942317e-01
<MEAN> 39
 1.649644e+01 1.124090e+01 1.108210e+01 1.461085e+01 -9.046605e-01 -1.640951e+01 -1.005284e+01 1.623491e+01 5.134030e+00 -1.300603e+01 -3.428799e+00 -1.029689e+00 -1.099874e+01 -3.149536e-02 1.723066e-01 1.992298e-01 -3.787550e-02 -3.611093e-01 -2.607013e-01 5.645380e-02 -1.387601e-01 -3.274361e-01 -7.889956e-02 2.934430e-01 5.404490e-01 2.006654e-01 8.823050e-03 -1.861229e-02 -7.838307e-02 -5.773602e-02 4.730966e-02 1.172110e-01 2.841818e-02 3.091986e-02 -2.181791e-03 -3.355090e-02 -4.366556e-02 -8.911861e-02 5.527620e-03
<VARIANCE> 39
 1.491192e+00 1.047533e+01 8.786638e+00 1.111639e+01 1.237496e+01 1.594297e+01 2.439847e+01 2.775821e+01 2.103360e+01 1.351991e+01 1.917554e+01 2.889062e+01 1.369389e+01 9.398900e-02 3.529617e-01 3.235974e-01 4.810384e-01 3.303496e-01 8.289596e-01 6.527287e-01 9.755284e-01 4.800333e-01 8.409678e-01 5.715398e-01 7.740239e-01 3.042853e-01 1.485134e-02 3.863658e-02 3.059579e-02 5.899753e-02 5.476297e-02 9.680805e-02 9.095958e-02 1.181604e-01 6.859414e-02 1.071519e-01 6.186841e-02 6.946280e-02 4.410579e-02
<GCONST> 5.843243e+01
<MIXTURE> 2 5.057667e-01
<MEAN> 39
 1.675204e+01 4.249951e+00 6.557045e+00 1.488272e+01 8.163768e+00 -7.110311e+00 -9.796841e+00 1.943607e+01 2.734800e+00 -2.502074e+01 -7.332680e+00 -4.116015e+00 -1.443223e+01 6.139699e-02 7.915499e-01 2.261264e-01 -4.203000e-01 -1.221234e+00 -1.152505e+00 3.844189e-01 6.887761e-01 8.450487e-01 1.002831e+00 -4.220629e-01 -6.493075e-01 -3.012613e-02 -1.292875e-02 -6.589273e-02 -2.753359e-02 7.644590e-02 1.904543e-01 1.894913e-01 -6.904121e-02 -2.874293e-01 -1.660531e-01 1.122088e-01 1.767887e-01 1.118190e-01 4.447572e-02
<VARIANCE> 39
 4.627865e+00 1.468931e+01 8.319379e+00 1.686752e+01 2.902140e+01 3.183483e+01 2.355307e+01 2.231751e+01 2.792410e+01 3.505667e+01 1.306419e+01 1.619728e+01 8.901907e+00 1.534646e-01 2.654863e-01 4.320849e-01 4.464664e-01 6.157151e-01 7.294652e-01 9.023396e-01 1.103357e+00 5.876960e-01 1.048241e+00 1.043869e+00 8.473719e-01 3.965617e-01 2.214046e-02 3.248101e-02 5.391828e-02 5.442215e-02 6.351774e-02 9.188040e-02 1.327910e-01 1.345863e-01 8.045509e-02 1.712070e-01 8.729937e-02 8.519515e-02 6.011387e-02
<GCONST> 6.694356e+01
<STATE> 4
<NUMMIXES> 2
<MIXTURE> 1 1.000000e+00
<MEAN> 39
 1.678151e+01 9.378810e+00 9.802598e+00 1.473912e+01 1.217390e+00 -1.616618e+01 -1.308187e+01 1.783119e+01 6.299551e+00 -1.464278e+01 -1.715672e+00 -6.709591e-01 -1.184359e+01 -2.227398e-02 2.337438e-01 -3.661693e-02 -2.202933e-01 -1.581458e-01 2.293242e-01 2.815097e-01 -3.147303e-01 -1.806097e-01 3.850599e-01 1.089240e-01 -1.444742e-03 1.744744e-01 -1.755497e-02 -1.288982e-02 -8.495950e-02 -6.504294e-02 1.061179e-01 2.582539e-01 1.079179e-01 -1.195238e-01 -5.563980e-02 5.304892e-02 -8.073824e-02 -1.061911e-01 7.087114e-02
<VARIANCE> 39
 4.635235e+00 1.500324e+01 1.171721e+01 1.729706e+01 2.859845e+01 4.298397e+01 4.615421e+01 3.741920e+01 1.928399e+01 3.400772e+01 3.596791e+01 3.474208e+01 1.775831e+01 1.847976e-01 4.125318e-01 4.674858e-01 5.904973e-01 5.371015e-01 1.030577e+00 1.156893e+00 1.516558e+00 7.385989e-01 1.370481e+00 8.360373e-01 1.169537e+00 5.796987e-01 2.507494e-02 4.370061e-02 4.551586e-02 7.654250e-02 7.941642e-02 1.464588e-01 1.607841e-01 1.903021e-01 9.778462e-02 1.513535e-01 9.108295e-02 1.072908e-01 8.494814e-02
<GCONST> 7.612266e+01
<MIXTURE> 2 0.000000e+00
<MEAN> 39
 3.167866e+00 9.785287e+00 1.015721e+01 -1.126460e+01 -1.722803e+00 -2.314090e+01 -2.866014e+00 2.988645e+00 -1.257189e+01 -1.059196e+01 -8.080223e+00 -1.134586e+01 -1.309345e+01 -3.083741e-02 -3.272692e-02 -7.965064e-02 -1.481605e-01 -3.861562e-02 -1.373337e-03 8.863221e-04 1.868999e-02 -7.847838e-02 -1.271299e-01 -1.509936e-01 -7.997945e-02 -7.696240e-02 2.445563e-03 -3.155375e-02 -4.496285e-02 1.969696e-02 5.441263e-02 8.198876e-02 8.278470e-03 -1.894769e-02 -7.840006e-03 -4.695274e-02 -3.333806e-02 3.981774e-02 6.458335e-02
<VARIANCE> 39
 5.315660e+00 3.426040e+01 2.038534e+01 3.630614e+01 3.740158e+01 4.321970e+01 4.220889e+01 4.777325e+01 3.740923e+01 6.335217e+01 4.306703e+01 4.340738e+01 4.843743e+01 6.627245e-02 3.302242e-01 3.574037e-01 4.860166e-01 6.125762e-01 7.172378e-01 7.481684e-01 9.198427e-01 8.672596e-01 1.041075e+00 8.651084e-01 8.226215e-01 8.630548e-01 9.753287e-03 3.193334e-02 4.821209e-02 7.355566e-02 8.457156e-02 1.072942e-01 1.135506e-01 1.351915e-01 1.306799e-01 1.277171e-01 1.218774e-01 1.199830e-01 1.098237e-01
<GCONST> 7.718999e+01
<STATE> 5
<NUMMIXES> 2
<MIXTURE> 1 4.796538e-01
<MEAN> 39
 1.731545e+01 1.094794e+01 5.701405e+00 9.250818e+00 3.803027e+00 -5.738627e+00 -8.330300e+00 1.197225e+01 5.288214e+00 -1.085261e+01 -8.160031e+00 -8.867622e+00 -1.079648e+01 -1.481559e-01 1.932078e-01 -7.803140e-01 -9.147770e-01 6.264117e-01 2.352991e+00 1.322461e+00 -9.406794e-01 -6.042574e-01 5.481375e-01 -6.541373e-01 -8.644467e-01 8.154913e-01 -2.192495e-01 8.571188e-03 7.100833e-02 5.816230e-02 7.206908e-02 2.469144e-01 3.422628e-01 1.778591e-01 -3.522854e-02 -5.489150e-02 -4.927320e-03 1.116364e-01 1.549395e-01
<VARIANCE> 39
 4.446886e+00 1.264054e+01 1.864469e+01 1.279679e+01 3.998895e+01 4.943091e+01 3.249527e+01 2.587206e+01 1.920214e+01 3.349160e+01 4.075526e+01 5.765622e+01 1.782228e+01 3.571074e-01 4.190032e-01 5.863460e-01 7.729042e-01 5.775396e-01 1.013253e+00 1.757903e+00 1.708881e+00 7.322953e-01 1.359906e+00 9.172287e-01 9.639727e-01 6.276184e-01 5.950865e-02 5.575417e-02 1.150771e-01 1.599471e-01 1.312236e-01 1.737718e-01 2.267441e-01 2.457643e-01 1.247775e-01 2.049391e-01 1.245660e-01 1.819283e-01 9.755823e-02
<GCONST> 8.374110e+01
<MIXTURE> 2 5.203457e-01
<MEAN> 39
 1.663297e+01 3.432981e+00 5.753689e+00 1.602660e+01 9.602851e+00 -5.798009e+00 -8.209795e+00 1.978053e+01 1.130837e+00 -2.538900e+01 -8.254252e+00 -4.465778e+00 -1.097351e+01 -5.154171e-02 -3.778965e-01 -1.701532e-01 1.852663e-01 6.265699e-01 9.083844e-01 1.186101e-01 -3.700561e-01 -2.661036e-01 -5.404904e-02 -2.225524e-01 -2.090761e-01 4.825157e-01 -7.983382e-02 1.353371e-03 8.284030e-02 8.186147e-03 9.033765e-03 1.906100e-01 8.699126e-02 -1.635531e-01 -8.660974e-02 1.148307e-01 6.024809e-02 3.092255e-02 8.864293e-02
<VARIANCE> 39
 5.510705e+00 1.666171e+01 1.715064e+01 1.855673e+01 4.676773e+01 3.897236e+01 3.044177e+01 3.882853e+01 2.511070e+01 3.560516e+01 1.809922e+01 2.248939e+01 1.338093e+01 1.775648e-01 4.481390e-01 6.390590e-01 8.361363e-01 5.286739e-01 9.637753e-01 1.179489e+00 1.190395e+00 6.118174e-01 1.477637e+00 8.820061e-01 9.206530e-01 5.225400e-01 2.915880e-02 6.328900e-02 9.051154e-02 1.037463e-01 9.219604e-02 1.481857e-01 2.138747e-01 1.754549e-01 9.957182e-02 2.016083e-01 1.047275e-01 9.050761e-02 8.280043e-02
<GCONST> 7.789325e+01
<STATE> 6
<NUMMIXES> 2
<MIXTURE> 1 4.291595e-01
<MEAN> 39
 6.674445e+00 1.797664e+01 1.375195e+01 1.284996e+01 5.251674e+00 4.013031e-01 -4.290593e+00 6.375206e+00 6.048198e-01 -2.352147e+00 1.935203e+00 2.801393e-01 -2.209929e+00 -1.095696e+00 1.091434e-01 3.834439e-01 2.546257e-01 7.471318e-01 1.263963e+00 4.085724e-01 -5.608561e-01 -2.158726e-01 4.142563e-01 -3.522373e-02 -3.673123e-01 1.837987e-01 -7.778438e-03 -1.123204e-01 -6.234139e-02 -3.955956e-02 -7.040298e-02 -1.302769e-01 -3.842844e-02 7.274048e-02 4.417249e-03 -1.268898e-01 -4.249326e-02 -7.996595e-03 -6.130675e-02
<VARIANCE> 39
 4.709149e+01 1.576510e+01 2.305404e+01 2.694280e+01 2.610738e+01 6.817778e+01 7.204567e+01 5.134324e+01 1.933508e+01 1.940212e+01 1.668821e+01 1.535048e+01 1.996541e+01 1.597264e+00 7.368391e-01 1.011317e+00 1.006219e+00 1.340267e+00 3.422289e+00 2.028086e+00 1.380598e+00 9.059120e-01 1.255991e+00 7.715901e-01 8.993836e-01 5.602145e-01 5.743050e-02 8.387407e-02 1.221378e-01 1.175906e-01 1.157137e-01 2.089231e-01 1.685690e-01 1.427265e-01 1.227784e-01 1.670932e-01 1.190106e-01 1.236321e-01 8.619720e-02
<GCONST> 8.921834e+01
<MIXTURE> 2 5.708394e-01
<MEAN> 39
 1.018854e+01 8.683461e+00 5.658181e+00 1.049060e+01 8.172060e+00 5.418979e+00 2.131256e-01 1.179846e+01 4.226762e-01 -1.307510e+01 -1.001019e+01 -8.319672e+00 -4.644463e+00 -1.816969e+00 4.708007e-01 1.037117e+00 5.230882e-01 3.874912e-01 1.617463e+00 1.378304e+00 -3.758781e-01 -4.433839e-02 1.291698e+00 1.238721e-01 2.373960e-01 1.296332e+00 -2.142051e-01 -8.903160e-02 2.826532e-01 2.647443e-01 8.218759e-02 -1.377511e-01 -2.917987e-01 -7.861827e-02 8.860385e-02 3.635494e-02 8.594604e-02 1.024175e-01 -1.043519e-02
<VARIANCE> 39
 7.671685e+01 4.362465e+01 3.192721e+01 5.245210e+01 7.721019e+01 8.633705e+01 6.643199e+01 5.870434e+01 3.247617e+01 6.002200e+01 3.585317e+01 5.105146e+01 2.640632e+01 8.405815e-01 2.397500e+00 1.967136e+00 2.173994e+00 1.472490e+00 2.617864e+00 2.474931e+00 2.039124e+00 1.466719e+00 3.446103e+00 1.509563e+00 1.675378e+00 1.223145e+00 1.198561e-01 3.771373e-01 2.899326e-01 3.064273e-01 1.910009e-01 2.755854e-01 3.937967e-01 3.316001e-01 2.560375e-01 4.832044e-01 2.874663e-01 2.555454e-01 1.808435e-01
<GCONST> 1.136139e+02
<TRANSP> 7
 0.000000e+00 1.000000e+00 0.000000e+00 0.000000e+00 0.000000e+00 0.000000e+00 0.000000e+00
 0.000000e+00 8.205675e-01 1.794325e-01 0.000000e+00 0.000000e+00 0.000000e+00 0.000000e+00
 0.000000e+00 0.000000e+00 8.862802e-01 1.137198e-01 0.000000e+00 0.000000e+00 0.000000e+00
 0.000000e+00 0.000000e+00 0.000000e+00 7.842200e-01 2.157800e-01 0.000000e+00 0.000000e+00
 0.000000e+00 0.000000e+00 0.000000e+00 0.000000e+00 7.939433e-01 2.060567e-01 0.000000e+00
 0.000000e+00 0.000000e+00 0.000000e+00 0.000000e+00 0.000000e+00 8.427798e-01 1.572202e-01
 0.000000e+00 0.000000e+00 0.000000e+00 0.000000e+00 0.000000e+00 0.000000e+00 0.000000e+00
<ENDHMM>
~h "SIL"
<BEGINHMM>
<NUMSTATES> 5
<STATE> 2
<NUMMIXES> 2
<MIXTURE> 1 6.343535e-01
<MEAN> 39
 -9.558927e+00 -2.955737e+00 -2.506285e+00 4.132630e+00 -4.022208e-01 3.377083e+00 4.130420e+00 3.240064e-02 1.627516e+00 6.109094e-01 -1.318923e-01 4.498853e+00 -8.942712e-01 -6.928948e-02 3.829870e-02 -6.734582e-04 6.790166e-03 1.340300e-02 1.375837e-02 2.232590e-02 1.784532e-02 1.971374e-02 1.640245e-02 -5.062588e-03 -1.623879e-03 2.044486e-02 -2.696889e-03 4.180977e-03 1.697672e-02 -6.120666e-03 -4.228717e-03 6.320278e-04 -1.656370e-03 -2.444819e-03 6.286830e-03 -8.582719e-03 -1.216181e-02 -5.073556e-03 -4.548995e-03
<VARIANCE> 39
 4.186462e+01 7.402940e+01 3.099679e+01 3.340697e+01 4.645889e+01 4.345008e+01 2.968412e+01 3.228226e+01 3.052909e+01 2.290461e+01 1.840874e+01 1.938979e+01 2.506889e+01 1.440693e-01 3.649671e-01 4.392949e-01 5.817301e-01 7.149680e-01 8.990549e-01 1.019488e+00 1.134216e+00 1.207672e+00 1.148922e+00 1.105158e+00 1.056239e+00 9.328530e-01 2.465242e-02 5.432563e-02 8.521398e-02 1.176557e-01 1.502030e-01 1.916525e-01 2.139053e-01 2.402989e-01 2.571377e-01 2.458468e-01 2.369102e-01 2.262610e-01 2.008634e-01
<GCONST> 8.756295e+01
<MIXTURE> 2 3.656465e-01
<MEAN> 39
 -1.142323e+01 1.189757e+00 -1.150043e+00 2.073591e+00 1.984568e+00 1.458758e+00 4.666055e+00 1.247311e+00 2.303590e+00 6.847165e-01 -4.941858e-01 4.576219e+00 -1.241537e+00 -2.383977e-01 3.311241e-02 -1.279305e-02 2.437228e-02 2.793390e-02 1.407799e-01 9.608070e-02 8.677866e-02 1.114440e-01 1.082627e-01 3.608481e-02 3.226501e-02 6.382274e-02 1.940947e-02 3.630415e-03 8.181022e-03 2.361297e-02 2.753633e-02 -1.779759e-02 -3.005121e-02 -1.506858e-02 -2.992165e-02 -1.730591e-02 -1.236073e-02 -2.410082e-02 -2.872620e-03
<VARIANCE> 39
 4.480489e+01 6.668343e+01 4.001367e+01 5.130425e+01 5.788618e+01 6.144305e+01 5.531167e+01 4.810794e+01 4.128096e+01 3.064755e+01 2.747056e+01 2.852841e+01 3.160432e+01 1.514161e+00 2.485977e+00 2.332164e+00 2.129232e+00 2.084023e+00 2.247124e+00 2.255863e+00 2.281002e+00 2.357451e+00 2.077529e+00 1.851172e+00 1.746888e+00 1.433622e+00 2.191909e-01 3.888186e-01 4.058700e-01 3.762366e-01 3.878883e-01 4.263409e-01 4.298833e-01 4.452224e-01 4.540788e-01 4.104838e-01 3.682645e-01 3.519675e-01 2.906989e-01
<GCONST> 1.171093e+02
<STATE> 3
<NUMMIXES> 2
<MIXTURE> 1 6.952365e-01
<MEAN> 39
 -4.614826e-36 4.088473e-39 7.546833e-41 -2.003180e-38 -1.016468e-37 1.405099e-39 -7.973388e-43 7.664946e-39 -1.286953e-38 1.415171e-41 6.993320e-41 6.165994e-41 1.993908e-41 5.552645e-41 1.641061e-40 1.461414e-41 6.268008e-42 1.373272e-43 -2.054304e-42 1.018744e-41 -2.522337e-44 -2.642154e-39 1.558244e-42 1.841306e-42 3.833953e-42 -1.401298e-45 -1.041492e-02 1.165869e-03 -4.681267e-04 1.067939e-03 -3.674125e-04 -4.449329e-04 -4.800549e-04 -8.346118e-04 -4.919678e-04 -6.385805e-04 -4.974747e-04 3.757836e-04 -7.628010e-04
<VARIANCE> 39
 1.000000e-02 1.000000e-02 1.000000e-02 1.000000e-02 1.000000e-02 1.000000e-02 1.000000e-02 1.000000e-02 1.000000e-02 1.000000e-02 1.000000e-02 1.000000e-02 1.000000e-02 1.000000e-02 1.000000e-02 1.000000e-02 1.000000e-02 1.000000e-02 1.000000e-02 1.000000e-02 1.000000e-02 1.000000e-02 1.000000e-02 1.000000e-02 1.000000e-02 1.000000e-02 1.000000e-02 1.000000e-02 1.000000e-02 1.000000e-02 1.000000e-02 1.000000e-02 1.000000e-02 1.000000e-02 1.000000e-02 1.000000e-02 1.000000e-02 1.000000e-02 1.000000e-02
<GCONST> -1.079245e+02
<MIXTURE> 2 3.047635e-01
<MEAN> 39
 -3.073403e+01 1.425273e+01 -6.347635e+00 2.336389e+00 -7.483404e-01 1.066642e+01 -1.116233e+01 5.172227e+00 2.572465e-01 4.570226e-01 -1.853601e+00 4.806254e-01 3.082728e+00 -1.703352e-02 1.551152e-02 3.685159e-02 3.168634e-02 1.600667e-02 2.196852e-03 1.066339e-02 1.046215e-02 6.194680e-03 -2.002487e-03 -2.168891e-02 -2.960364e-02 -1.420306e-02 6.402527e-02 -2.888847e-02 1.946194e-02 2.577228e-02 -3.223030e-03 -2.393205e-02 1.966219e-02 7.751088e-04 -1.281637e-02 -3.375708e-03 5.767592e-03 -3.608371e-03 -2.195551e-02
<VARIANCE> 39
 7.722108e+01 3.633752e+01 1.621295e+01 8.805264e+00 1.116743e+01 2.184221e+01 5.614600e+01 9.989722e+00 7.891666e+00 5.587424e+00 5.826734e+00 7.160335e+00 7.011834e+00 2.358004e-01 2.073665e-01 2.922952e-01 2.998027e-01 3.982294e-01 4.320155e-01 5.057585e-01 5.343324e-01 5.329021e-01 5.498871e-01 5.658979e-01 5.152957e-01 4.229449e-01 9.825453e-02 6.422583e-02 7.037972e-02 7.732156e-02 9.463117e-02 1.049519e-01 1.273331e-01 1.155301e-01 1.163909e-01 1.174336e-01 1.189772e-01 1.076718e-01 9.144803e-02
<GCONST> 6.387524e+01
<STATE> 4
<NUMMIXES> 2
<MIXTURE> 1 5.103472e-01
<MEAN> 39
 -1.256804e+01 6.479373e+00 2.038786e+00 8.567524e+00 2.427899e+00 5.176943e+00 4.114543e-01 4.024741e+00 1.021508e+00 1.262775e+00 -1.256009e+00 9.477930e-01 3.137723e-02 -8.586787e-02 3.690922e-02 2.457621e-01 1.594240e-01 1.689443e-01 5.045222e-02 3.103973e-02 6.963865e-02 1.091670e-01 7.266748e-02 3.943156e-02 6.249414e-03 -1.648775e-02 1.051229e-02 -3.655927e-02 1.203187e-02 -3.837839e-02 1.769672e-03 -1.438639e-02 9.163395e-03 8.845959e-03 -7.347676e-03 -3.171584e-02 -5.209196e-03 1.373672e-02 -1.236865e-02
<VARIANCE> 39
 7.612381e+01 6.791934e+01 3.206618e+01 5.097443e+01 4.710615e+01 4.857334e+01 4.886001e+01 4.522910e+01 3.813118e+01 2.496777e+01 2.466132e+01 2.227277e+01 1.953887e+01 6.615518e-01 8.886617e-01 9.175950e-01 1.017072e+00 1.108420e+00 1.194592e+00 1.274129e+00 1.362965e+00 1.347271e+00 1.241394e+00 1.154082e+00 1.094268e+00 9.258087e-01 1.785030e-01 2.040161e-01 1.926394e-01 2.249779e-01 2.455316e-01 2.707347e-01 2.889727e-01 3.002017e-01 2.985176e-01 2.784478e-01 2.593574e-01 2.391664e-01 2.035334e-01
<GCONST> 1.016392e+02
<MIXTURE> 2 4.896528e-01
<MEAN> 39
 -1.020193e+01 3.199551e+00 2.373005e+00 5.452412e+00 2.385052e+00 2.486034e+00 1.580645e+00 3.328131e+00 1.332066e+00 -7.191740e-01 -2.476467e+00 1.183569e+00 -1.171889e+00 1.273982e+00 -3.833585e-01 4.658445e-01 1.614458e-01 4.792918e-02 -5.415885e-01 -1.025224e-01 -1.463170e-02 -2.565329e-01 -5.430909e-01 -4.399176e-01 -3.804746e-01 -3.820809e-01 6.029564e-02 -8.747855e-02 5.094163e-03 -3.020878e-02 5.573182e-03 -8.083791e-02 -5.798243e-02 -1.463480e-02 1.865065e-03 -3.867018e-02 -9.503978e-03 -1.724554e-02 6.533443e-03
<VARIANCE> 39
 9.643607e+01 9.792954e+01 6.559746e+01 7.856171e+01 8.060581e+01 7.181393e+01 7.312693e+01 5.997856e+01 4.726611e+01 4.559750e+01 3.356037e+01 3.527980e+01 2.955104e+01 5.178400e+00 5.150322e+00 3.770604e+00 3.737880e+00 3.884596e+00 3.836053e+00 4.076818e+00 3.454412e+00 3.297246e+00 2.993804e+00 2.481349e+00 2.278534e+00 1.766467e+00 7.921278e-01 8.026540e-01 6.029379e-01 5.582282e-01 6.184182e-01 6.333398e-01 6.467891e-01 5.800772e-01 5.622950e-01 5.424428e-01 4.485731e-01 3.958752e-01 3.163141e-01
<GCONST> 1.329065e+02
<TRANSP> 5
 0.000000e+00 1.000000e+00 0.000000e+00 0.000000e+00 0.000000e+00
 0.000000e+00 9.535479e-01 4.645211e-02 0.000000e+00 0.000000e+00
 0.000000e+00 0.000000e+00 9.280416e-01 7.195845e-02 0.000000e+00
 0.000000e+00 0.000000e+00 0.000000e+00 9.013939e-01 9.860607e-02
 0.000000e+00 0.000000e+00 0.000000e+00 0.000000e+00 0.000000e+00
<ENDHMM>
~h "dxhq"
<BEGINHMM>
<NUMSTATES> 5
<STATE> 2
<NUMMIXES> 2
<MIXTURE> 1 5.000000e-01
<MEAN> 39
 2.422438e+01 -4.057291e+00 -2.225914e+01 -5.456725e+00 8.598945e+00 -5.509338e+00 -1.833169e+01 9.757435e+00 1.169499e+01 -4.600772e+00 -1.221464e+00 3.769104e-01 2.851681e+00 5.890323e-02 3.744928e-01 -9.962655e-02 -3.229586e-01 2.472225e-01 1.177550e+00 5.826222e-01 -6.396671e-01 -6.812027e-01 2.238903e-02 3.144406e-02 -2.671610e-01 1.318114e-01 -4.756564e-02 1.055990e-01 1.541575e-01 7.612921e-02 -1.216926e-02 2.868413e-02 3.307850e-02 -1.671838e-01 -5.076908e-02 1.285652e-01 -1.612878e-02 -1.179563e-01 -1.093815e-01
<VARIANCE> 39
 8.936786e+00 4.130945e+00 8.898262e+00 6.803052e+00 1.197682e+01 2.987563e+01 1.801207e+01 3.028822e+01 1.319370e+01 1.511692e+01 1.068873e+01 3.039350e+00 7.936491e+00 5.418020e-01 5.315810e-01 7.024435e-01 3.519181e-01 6.084912e-01 4.760244e-01 7.888138e-01 1.695029e+00 2.705794e-01 1.121383e+00 5.711117e-01 5.448220e-01 3.907115e-01 5.962410e-02 3.403588e-02 6.764065e-02 5.213533e-02 6.582101e-02 7.672217e-02 9.309085e-02 2.023614e-01 3.396870e-02 1.263658e-01 8.132800e-02 4.966939e-02 4.591528e-02
<GCONST> 6.037679e+01
<MIXTURE> 2 5.000000e-01
<MEAN> 39
 2.422438e+01 -4.057291e+00 -2.225914e+01 -5.456725e+00 8.598945e+00 -5.509338e+00 -1.833169e+01 9.757435e+00 1.169499e+01 -4.600772e+00 -1.221464e+00 3.769104e-01 2.851681e+00 5.890323e-02 3.744928e-01 -9.962655e-02 -3.229586e-01 2.472225e-01 1.177550e+00 5.826222e-01 -6.396671e-01 -6.812027e-01 2.238903e-02 3.144406e-02 -2.671610e-01 1.318114e-01 -4.756564e-02 1.055990e-01 1.541575e-01 7.612921e-02 -1.216926e-02 2.868413e-02 3.307850e-02 -1.671838e-01 -5.076908e-02 1.285652e-01 -1.612878e-02 -1.179563e-01 -1.093815e-01
<VARIANCE> 39
 8.936786e+00 4.130945e+00 8.898262e+00 6.803052e+00 1.197682e+01 2.987563e+01 1.801207e+01 3.028822e+01 1.319370e+01 1.511692e+01 1.068873e+01 3.039350e+00 7.936491e+00 5.418020e-01 5.315810e-01 7.024435e-01 3.519181e-01 6.084912e-01 4.760244e-01 7.888138e-01 1.695029e+00 2.705794e-01 1.121383e+00 5.711117e-01 5.448220e-01 3.907115e-01 5.962410e-02 3.403588e-02 6.764065e-02 5.213533e-02 6.582101e-02 7.672217e-02 9.309085e-02 2.023614e-01 3.396870e-02 1.263658e-01 8.132800e-02 4.966939e-02 4.591528e-02
<GCONST> 6.037679e+01
<STATE> 3
<NUMMIXES> 2
<MIXTURE> 1 5.000000e-01
<MEAN> 39
 2.203827e+01 1.857333e+00 -1.438261e+01 -2.725168e+00 5.575244e+00 -7.732035e-02 -9.891587e+00 6.267606e+00 5.611754e+00 -3.202727e-01 2.798029e-01 -7.019338e+00 -9.867035e-01 -2.537317e-01 5.079665e-03 1.042413e+00 1.066748e+00 -1.447670e+00 -6.068546e-01 1.906999e+00 8.582023e-01 -7.573687e-01 4.786331e-01 6.479272e-01 -3.625024e-01 -4.587390e-01 -5.799251e-02 -3.313474e-01 -4.976408e-02 1.019938e-01 -2.060860e-01 -5.982345e-02 3.169125e-01 3.891231e-01 5.418644e-02 -7.409999e-02 1.047227e-01 2.539265e-01 2.998436e-01
<VARIANCE> 39
 4.730028e+00 3.712054e+00 1.571051e+01 1.095794e+01 3.061388e+01 2.377551e+01 2.597561e+01 3.514791e+01 9.425657e+00 1.159847e+01 1.372097e+01 5.952258e+00 1.373849e+01 3.232217e-01 1.435379e+00 9.420099e-01 4.088829e-01 1.485916e+00 1.647118e+00 2.257345e+00 3.624621e+00 4.661550e-01 1.711258e+00 8.484516e-01 1.457263e+00 1.296751e+00 4.211327e-02 8.668165e-02 1.327214e-01 6.583213e-02 2.427158e-01 4.767331e-01 1.990253e-01 3.395905e-01 8.638600e-02 2.564780e-01 1.605729e-01 1.466033e-01 1.347180e-01
<GCONST> 8.156889e+01
<MIXTURE> 2 5.000000e-01
<MEAN> 39
 2.203827e+01 1.857333e+00 -1.438261e+01 -2.725168e+00 5.575244e+00 -7.732035e-02 -9.891587e+00 6.267606e+00 5.611754e+00 -3.202727e-01 2.798029e-01 -7.019338e+00 -9.867035e-01 -2.537317e-01 5.079665e-03 1.042413e+00 1.066748e+00 -1.447670e+00 -6.068546e-01 1.906999e+00 8.582023e-01 -7.573687e-01 4.786331e-01 6.479272e-01 -3.625024e-01 -4.587390e-01 -5.799251e-02 -3.313474e-01 -4.976408e-02 1.019938e-01 -2.060860e-01 -5.982345e-02 3.169125e-01 3.891231e-01 5.418644e-02 -7.409999e-02 1.047227e-01 2.539265e-01 2.998436e-01
<VARIANCE> 39
 4.730028e+00 3.712054e+00 1.571051e+01 1.095794e+01 3.061388e+01 2.377551e+01 2.597561e+01 3.514791e+01 9.425657e+00 1.159847e+01 1.372097e+01 5.952258e+00 1.373849e+01 3.232217e-01 1.435379e+00 9.420099e-01 4.088829e-01 1.485916e+00 1.647118e+00 2.257345e+00 3.624621e+00 4.661550e-01 1.711258e+00 8.484516e-01 1.457263e+00 1.296751e+00 4.211327e-02 8.668165e-02 1.327214e-01 6.583213e-02 2.427158e-01 4.767331e-01 1.990253e-01 3.395905e-01 8.638600e-02 2.564780e-01 1.605729e-01 1.466033e-01 1.347180e-01
<GCONST> 8.156889e+01
<STATE> 4
<NUMMIXES> 2
<MIXTURE> 1 5.000000e-01
<MEAN> 39
 1.671292e+01 -1.261726e+01 -7.515658e+00 5.398495e+00 -1.021241e+01 2.198766e+00 1.404342e+01 1.637824e+01 7.379388e+00 9.816881e+00 6.076025e+00 -5.298520e+00 5.072279e+00 4.980500e-02 -2.409036e-01 1.065549e-01 5.737207e-02 -1.691070e-01 -1.646745e-02 1.253237e-01 1.264501e-02 -8.969852e-02 -1.218375e-01 8.868325e-03 1.262481e-01 1.995534e-01 4.845664e-02 5.843543e-02 -8.493036e-02 -7.007971e-02 1.097001e-01 -6.880748e-02 -2.033911e-01 -7.506491e-02 -1.447690e-02 -1.092219e-01 -4.280481e-02 2.756581e-02 -6.125762e-02
<VARIANCE> 39
 1.082824e+01 3.694036e+01 1.183093e+01 8.355591e+00 2.351569e+01 2.297810e+01 4.694026e+01 1.551073e+01 2.097983e+01 2.747208e+01 7.268281e+00 7.724935e+00 8.403196e+00 6.325862e-01 2.329635e+00 1.012560e+00 8.756101e-01 9.598664e-01 2.027085e+00 2.997709e+00 7.727504e-01 1.656404e+00 2.234882e+00 8.739114e-01 9.437061e-01 1.057545e+00 3.071663e-02 1.548862e-01 1.423241e-01 1.324544e-01 1.203327e-01 2.238669e-01 1.257363e-01 1.145434e-01 2.472759e-01 1.993791e-01 1.910736e-01 1.601298e-01 1.267256e-01
<GCONST> 8.486730e+01
<MIXTURE> 2 5.000000e-01
<MEAN> 39
 1.671292e+01 -1.261726e+01 -7.515658e+00 5.398495e+00 -1.021241e+01 2.198766e+00 1.404342e+01 1.637824e+01 7.379388e+00 9.816881e+00 6.076025e+00 -5.298520e+00 5.072279e+00 4.980500e-02 -2.409036e-01 1.065549e-01 5.737207e-02 -1.691070e-01 -1.646745e-02 1.253237e-01 1.264501e-02 -8.969852e-02 -1.218375e-01 8.868325e-03 1.262481e-01 1.995534e-01 4.845664e-02 5.843543e-02 -8.493036e-02 -7.007971e-02 1.097001e-01 -6.880748e-02 -2.033911e-01 -7.506491e-02 -1.447690e-02 -1.092219e-01 -4.280481e-02 2.756581e-02 -6.125762e-02
<VARIANCE> 39
 1.082824e+01 3.694036e+01 1.183093e+01 8.355591e+00 2.351569e+01 2.297810e+01 4.694026e+01 1.551073e+01 2.097983e+01 2.747208e+01 7.268281e+00 7.724935e+00 8.403196e+00 6.325862e-01 2.329635e+00 1.012560e+00 8.756101e-01 9.598664e-01 2.027085e+00 2.997709e+00 7.727504e-01 1.656404e+00 2.234882e+00 8.739114e-01 9.437061e-01 1.057545e+00 3.071663e-02 1.548862e-01 1.423241e-01 1.324544e-01 1.203327e-01 2.238669e-01 1.257363e-01 1.145434e-01 2.472759e-01 1.993791e-01 1.910736e-01 1.601298e-01 1.267256e-01
<GCONST> 8.486730e+01
<TRANSP> 5
 0.000000e+00 1.000000e+00 0.000000e+00 0.000000e+00 0.000000e+00
 0.000000e+00 9.179149e-01 8.208501e-02 0.000000e+00 0.000000e+00
 0.000000e+00 0.000000e+00 8.387079e-01 1.612920e-01 0.000000e+00
 0.000000e+00 0.000000e+00 0.000000e+00 9.346270e-01 6.537303e-02
 0.000000e+00 0.000000e+00 0.000000e+00 0.000000e+00 0.000000e+00
<ENDHMM>
~h "dxh"
<BEGINHMM>
<NUMSTATES> 5
<STATE> 2
<NUMMIXES> 2
<MIXTURE> 1 5.000000e-01
<MEAN> 39
 5.098849e+00 -6.514025e+00 2.430083e+00 1.092778e+01 1.083864e+01 1.500667e+00 -1.140838e+01 9.359310e+00 -3.377835e+00 -1.113024e+01 6.044074e+00 -4.088247e-01 -3.646332e+00 -1.380477e-02 1.475701e-03 -1.072459e-03 -5.524765e-03 -3.099398e-03 2.005852e-03 8.190720e-04 -5.087083e-03 2.488556e-03 5.650900e-03 -1.806995e-03 5.936168e-04 1.443354e-03 -1.213556e-03 -1.404243e-04 -1.926630e-04 -5.029775e-04 -4.298560e-04 2.249404e-04 5.535607e-04 -2.933974e-04 7.204357e-05 8.173331e-04 -1.603794e-04 -1.434907e-04 3.551734e-04
<VARIANCE> 39
 2.696502e+02 1.642264e+02 1.776205e+02 1.699619e+02 1.712323e+02 1.501611e+02 1.653076e+02 1.112998e+02 8.102897e+01 1.132308e+02 1.038732e+02 3.576029e+01 7.139818e+01 2.864393e+00 3.049235e+00 2.950589e+00 2.442850e+00 2.488132e+00 2.882445e+00 3.574063e+00 2.837703e+00 2.254665e+00 3.083899e+00 2.848865e+00 1.410452e+00 1.706605e+00 2.059384e-01 2.861855e-01 3.165202e-01 2.798763e-01 2.958655e-01 3.292713e-01 4.082396e-01 3.875320e-01 3.475762e-01 4.161765e-01 3.917231e-01 2.236369e-01 2.362328e-01
<GCONST> 1.313330e+02
<MIXTURE> 2 5.000000e-01
<MEAN> 39
 5.098849e+00 -6.514025e+00 2.430083e+00 1.092778e+01 1.083864e+01 1.500667e+00 -1.140838e+01 9.359310e+00 -3.377835e+00 -1.113024e+01 6.044074e+00 -4.088247e-01 -3.646332e+00 -1.380477e-02 1.475701e-03 -1.072459e-03 -5.524765e-03 -3.099398e-03 2.005852e-03 8.190720e-04 -5.087083e-03 2.488556e-03 5.650900e-03 -1.806995e-03 5.936168e-04 1.443354e-03 -1.213556e-03 -1.404243e-04 -1.926630e-04 -5.029775e-04 -4.298560e-04 2.249404e-04 5.535607e-04 -2.933974e-04 7.204357e-05 8.173331e-04 -1.603794e-04 -1.434907e-04 3.551734e-04
<VARIANCE> 39
 2.696502e+02 1.642264e+02 1.776205e+02 1.699619e+02 1.712323e+02 1.501611e+02 1.653076e+02 1.112998e+02 8.102897e+01 1.132308e+02 1.038732e+02 3.576029e+01 7.139818e+01 2.864393e+00 3.049235e+00 2.950589e+00 2.442850e+00 2.488132e+00 2.882445e+00 3.574063e+00 2.837703e+00 2.254665e+00 3.083899e+00 2.848865e+00 1.410452e+00 1.706605e+00 2.059384e-01 2.861855e-01 3.165202e-01 2.798763e-01 2.958655e-01 3.292713e-01 4.082396e-01 3.875320e-01 3.475762e-01 4.161765e-01 3.917231e-01 2.236369e-01 2.362328e-01
<GCONST> 1.313330e+02
<STATE> 3
<NUMMIXES> 2
<MIXTURE> 1 5.000000e-01
<MEAN> 39
 5.098849e+00 -6.514025e+00 2.430083e+00 1.092778e+01 1.083864e+01 1.500667e+00 -1.140838e+01 9.359310e+00 -3.377835e+00 -1.113024e+01 6.044074e+00 -4.088247e-01 -3.646332e+00 -1.380477e-02 1.475701e-03 -1.072459e-03 -5.524765e-03 -3.099398e-03 2.005852e-03 8.190720e-04 -5.087083e-03 2.488556e-03 5.650900e-03 -1.806995e-03 5.936168e-04 1.443354e-03 -1.213556e-03 -1.404243e-04 -1.926630e-04 -5.029775e-04 -4.298560e-04 2.249404e-04 5.535607e-04 -2.933974e-04 7.204357e-05 8.173331e-04 -1.603794e-04 -1.434907e-04 3.551734e-04
<VARIANCE> 39
 2.696502e+02 1.642264e+02 1.776205e+02 1.699619e+02 1.712323e+02 1.501611e+02 1.653076e+02 1.112998e+02 8.102897e+01 1.132308e+02 1.038732e+02 3.576029e+01 7.139818e+01 2.864393e+00 3.049235e+00 2.950589e+00 2.442850e+00 2.488132e+00 2.882445e+00 3.574063e+00 2.837703e+00 2.254665e+00 3.083899e+00 2.848865e+00 1.410452e+00 1.706605e+00 2.059384e-01 2.861855e-01 3.165202e-01 2.798763e-01 2.958655e-01 3.292713e-01 4.082396e-01 3.875320e-01 3.475762e-01 4.161765e-01 3.917231e-01 2.236369e-01 2.362328e-01
<GCONST> 1.313330e+02
<MIXTURE> 2 5.000000e-01
<MEAN> 39
 5.098849e+00 -6.514025e+00 2.430083e+00 1.092778e+01 1.083864e+01 1.500667e+00 -1.140838e+01 9.359310e+00 -3.377835e+00 -1.113024e+01 6.044074e+00 -4.088247e-01 -3.646332e+00 -1.380477e-02 1.475701e-03 -1.072459e-03 -5.524765e-03 -3.099398e-03 2.005852e-03 8.190720e-04 -5.087083e-03 2.488556e-03 5.650900e-03 -1.806995e-03 5.936168e-04 1.443354e-03 -1.213556e-03 -1.404243e-04 -1.926630e-04 -5.029775e-04 -4.298560e-04 2.249404e-04 5.535607e-04 -2.933974e-04 7.204357e-05 8.173331e-04 -1.603794e-04 -1.434907e-04 3.551734e-04
<VARIANCE> 39
 2.696502e+02 1.642264e+02 1.776205e+02 1.699619e+02 1.712323e+02 1.501611e+02 1.653076e+02 1.112998e+02 8.102897e+01 1.132308e+02 1.038732e+02 3.576029e+01 7.139818e+01 2.864393e+00 3.049235e+00 2.950589e+00 2.442850e+00 2.488132e+00 2.882445e+00 3.574063e+00 2.837703e+00 2.254665e+00 3.083899e+00 2.848865e+00 1.410452e+00 1.706605e+00 2.059384e-01 2.861855e-01 3.165202e-01 2.798763e-01 2.958655e-01 3.292713e-01 4.082396e-01 3.875320e-01 3.475762e-01 4.161765e-01 3.917231e-01 2.236369e-01 2.362328e-01
<GCONST> 1.313330e+02
<STATE> 4
<NUMMIXES> 2
<MIXTURE> 1 5.000000e-01
<MEAN> 39
 5.098849e+00 -6.514025e+00 2.430083e+00 1.092778e+01 1.083864e+01 1.500667e+00 -1.140838e+01 9.359310e+00 -3.377835e+00 -1.113024e+01 6.044074e+00 -4.088247e-01 -3.646332e+00 -1.380477e-02 1.475701e-03 -1.072459e-03 -5.524765e-03 -3.099398e-03 2.005852e-03 8.190720e-04 -5.087083e-03 2.488556e-03 5.650900e-03 -1.806995e-03 5.936168e-04 1.443354e-03 -1.213556e-03 -1.404243e-04 -1.926630e-04 -5.029775e-04 -4.298560e-04 2.249404e-04 5.535607e-04 -2.933974e-04 7.204357e-05 8.173331e-04 -1.603794e-04 -1.434907e-04 3.551734e-04
<VARIANCE> 39
 2.696502e+02 1.642264e+02 1.776205e+02 1.699619e+02 1.712323e+02 1.501611e+02 1.653076e+02 1.112998e+02 8.102897e+01 1.132308e+02 1.038732e+02 3.576029e+01 7.139818e+01 2.864393e+00 3.049235e+00 2.950589e+00 2.442850e+00 2.488132e+00 2.882445e+00 3.574063e+00 2.837703e+00 2.254665e+00 3.083899e+00 2.848865e+00 1.410452e+00 1.706605e+00 2.059384e-01 2.861855e-01 3.165202e-01 2.798763e-01 2.958655e-01 3.292713e-01 4.082396e-01 3.875320e-01 3.475762e-01 4.161765e-01 3.917231e-01 2.236369e-01 2.362328e-01
<GCONST> 1.313330e+02
<MIXTURE> 2 5.000000e-01
<MEAN> 39
 5.098849e+00 -6.514025e+00 2.430083e+00 1.092778e+01 1.083864e+01 1.500667e+00 -1.140838e+01 9.359310e+00 -3.377835e+00 -1.113024e+01 6.044074e+00 -4.088247e-01 -3.646332e+00 -1.380477e-02 1.475701e-03 -1.072459e-03 -5.524765e-03 -3.099398e-03 2.005852e-03 8.190720e-04 -5.087083e-03 2.488556e-03 5.650900e-03 -1.806995e-03 5.936168e-04 1.443354e-03 -1.213556e-03 -1.404243e-04 -1.926630e-04 -5.029775e-04 -4.298560e-04 2.249404e-04 5.535607e-04 -2.933974e-04 7.204357e-05 8.173331e-04 -1.603794e-04 -1.434907e-04 3.551734e-04
<VARIANCE> 39
 2.696502e+02 1.642264e+02 1.776205e+02 1.699619e+02 1.712323e+02 1.501611e+02 1.653076e+02 1.112998e+02 8.102897e+01 1.132308e+02 1.038732e+02 3.576029e+01 7.139818e+01 2.864393e+00 3.049235e+00 2.950589e+00 2.442850e+00 2.488132e+00 2.882445e+00 3.574063e+00 2.837703e+00 2.254665e+00 3.083899e+00 2.848865e+00 1.410452e+00 1.706605e+00 2.059384e-01 2.861855e-01 3.165202e-01 2.798763e-01 2.958655e-01 3.292713e-01 4.082396e-01 3.875320e-01 3.475762e-01 4.161765e-01 3.917231e-01 2.236369e-01 2.362328e-01
<GCONST> 1.313330e+02
<TRANSP> 5
 0.000000e+00 1.000000e+00 0.000000e+00 0.000000e+00 0.000000e+00
 0.000000e+00 6.000000e-01 4.000000e-01 0.000000e+00 0.000000e+00
 0.000000e+00 0.000000e+00 6.000000e-01 4.000000e-01 0.000000e+00
 0.000000e+00 0.000000e+00 0.000000e+00 6.000000e-01 4.000000e-01
 0.000000e+00 0.000000e+00 0.000000e+00 0.000000e+00 0.000000e+00
<ENDHMM>
~h "dxq"
<BEGINHMM>
<NUMSTATES> 5
<STATE> 2
<NUMMIXES> 2
<MIXTURE> 1 5.000000e-01
<MEAN> 39
 2.184069e+01 7.502303e+00 -6.415035e+00 -1.186568e-01 6.894705e+00 -5.041941e+00 -2.169306e+01 4.652530e-01 8.136530e+00 6.538122e-01 -6.114229e-01 -1.012729e+01 -8.364955e+00 1.669440e-01 2.344980e-01 -4.162731e-01 -9.348195e-01 -8.480543e-02 1.424184e+00 1.294503e+00 -3.291344e-01 -1.173795e+00 -5.442120e-01 1.307419e-01 7.171579e-02 -7.363088e-02 -4.643177e-02 9.395024e-03 4.165724e-02 2.252114e-02 -7.989323e-02 4.401776e-02 2.763385e-01 1.403013e-01 -6.953594e-02 -1.452690e-01 -1.365987e-01 4.195499e-02 7.185201e-02
<VARIANCE> 39
 6.015772e+00 3.853485e+01 7.284974e+01 5.605513e+01 3.285878e+01 7.382088e+01 6.424791e+01 2.481274e+01 5.057774e+01 3.763865e+01 1.765499e+01 3.153296e+01 3.260135e+01 3.648693e-01 2.691878e-01 6.953859e-01 9.274770e-01 7.420733e-01 9.829918e-01 3.295196e+00 1.664270e+00 7.284377e-01 2.122973e+00 1.021236e+00 8.053071e-01 8.400524e-01 5.260741e-02 3.692753e-02 1.002829e-01 9.392777e-02 9.578793e-02 8.938052e-02 2.186547e-01 1.847445e-01 8.247609e-02 1.636826e-01 1.249868e-01 7.574911e-02 9.210322e-02
<GCONST> 8.642921e+01
<MIXTURE> 2 5.000000e-01
<MEAN> 39
 2.184069e+01 7.502303e+00 -6.415035e+00 -1.186568e-01 6.894705e+00 -5.041941e+00 -2.169306e+01 4.652530e-01 8.136530e+00 6.538122e-01 -6.114229e-01 -1.012729e+01 -8.364955e+00 1.669440e-01 2.344980e-01 -4.162731e-01 -9.348195e-01 -8.480543e-02 1.424184e+00 1.294503e+00 -3.291344e-01 -1.173795e+00 -5.442120e-01 1.307419e-01 7.171579e-02 -7.363088e-02 -4.643177e-02 9.395024e-03 4.165724e-02 2.252114e-02 -7.989323e-02 4.401776e-02 2.763385e-01 1.403013e-01 -6.953594e-02 -1.452690e-01 -1.365987e-01 4.195499e-02 7.185201e-02
<VARIANCE> 39
 6.015772e+00 3.853485e+01 7.284974e+01 5.605513e+01 3.285878e+01 7.382088e+01 6.424791e+01 2.481274e+01 5.057774e+01 3.763865e+01 1.765499e+01 3.153296e+01 3.260135e+01 3.648693e-01 2.691878e-01 6.953859e-01 9.274770e-01 7.420733e-01 9.829918e-01 3.295196e+00 1.664270e+00 7.284377e-01 2.122973e+00 1.021236e+00 8.053071e-01 8.400524e-01 5.260741e-02 3.692753e-02 1.002829e-01 9.392777e-02 9.578793e-02 8.938052e-02 2.186547e-01 1.847445e-01 8.247609e-02 1.636826e-01 1.249868e-01 7.574911e-02 9.210322e-02
<GCONST> 8.642921e+01
<STATE> 3
<NUMMIXES> 2
<MIXTURE> 1 5.000000e-01
<MEAN> 39
 2.125527e+01 6.110054e+00 -9.377315e+00 -3.251695e+00 6.839284e+00 6.322166e+00 -3.497365e+00 5.811656e+00 -3.993301e+00 -1.208445e+01 -4.728640e+00 -5.944285e+00 -2.181768e+00 -2.917689e-01 -1.018610e+00 5.666961e-01 1.805760e+00 1.905250e-01 -1.003320e+00 1.132129e-01 1.359150e+00 -4.501985e-02 -1.028742e+00 -2.917085e-01 5.947100e-02 4.181475e-01 6.351359e-02 -4.165413e-01 -2.728720e-02 2.673550e-01 1.033901e-01 -5.152755e-01 -6.958689e-01 1.011072e-01 1.631084e-01 4.326057e-02 4.348652e-01 2.434918e-02 -1.292109e-01
<VARIANCE> 39
 9.276694e+00 4.494913e+01 3.458759e+01 4.906112e+01 5.826145e+01 3.727860e+01 8.165938e+01 3.660228e+01 2.706107e+01 2.616238e+01 4.552685e+01 1.860213e+01 1.354909e+01 7.243284e-01 2.198336e+00 1.780514e+00 1.522085e+00 1.679456e+00 2.712525e+00 7.169081e+00 1.898762e+00 1.611422e+00 1.832886e+00 3.291435e+00 1.277535e+00 1.817099e+00 1.296340e-01 1.754006e-01 2.794288e-01 3.233331e-01 2.185421e-01 1.643060e-01 6.178997e-01 3.326479e-01 2.489097e-01 2.588646e-01 3.853227e-01 1.860612e-01 1.968336e-01
<GCONST> 1.073496e+02
<MIXTURE> 2 5.000000e-01
<MEAN> 39
 2.125527e+01 6.110054e+00 -9.377315e+00 -3.251695e+00 6.839284e+00 6.322166e+00 -3.497365e+00 5.811656e+00 -3.993301e+00 -1.208445e+01 -4.728640e+00 -5.944285e+00 -2.181768e+00 -2.917689e-01 -1.018610e+00 5.666961e-01 1.805760e+00 1.905250e-01 -1.003320e+00 1.132129e-01 1.359150e+00 -4.501985e-02 -1.028742e+00 -2.917085e-01 5.947100e-02 4.181475e-01 6.351359e-02 -4.165413e-01 -2.728720e-02 2.673550e-01 1.033901e-01 -5.152755e-01 -6.958689e-01 1.011072e-01 1.631084e-01 4.326057e-02 4.348652e-01 2.434918e-02 -1.292109e-01
<VARIANCE> 39
 9.276694e+00 4.494913e+01 3.458759e+01 4.906112e+01 5.826145e+01 3.727860e+01 8.165938e+01 3.660228e+01 2.706107e+01 2.616238e+01 4.552685e+01 1.860213e+01 1.354909e+01 7.243284e-01 2.198336e+00 1.780514e+00 1.522085e+00 1.679456e+00 2.712525e+00 7.169081e+00 1.898762e+00 1.611422e+00 1.832886e+00 3.291435e+00 1.277535e+00 1.817099e+00 1.296340e-01 1.754006e-01 2.794288e-01 3.233331e-01 2.185421e-01 1.643060e-01 6.178997e-01 3.326479e-01 2.489097e-01 2.588646e-01 3.853227e-01 1.860612e-01 1.968336e-01
<GCONST> 1.073496e+02
<STATE> 4
<NUMMIXES> 2
<MIXTURE> 1 5.000000e-01
<MEAN> 39
 1.513184e+01 -7.841544e-01 -3.026115e+00 9.680818e+00 6.686661e+00 -2.986947e+00 -6.094226e+00 1.498018e+01 -1.764617e+00 -1.490279e+01 -2.840171e+00 -6.295972e+00 -1.715422e-01 -1.290322e+00 -4.878358e-01 7.001476e-01 6.353697e-01 -4.662425e-02 -5.985352e-01 -4.212559e-01 2.489469e-01 1.122480e-01 1.365601e-01 7.153316e-01 4.805111e-01 2.078618e-01 -1.289290e-01 1.834221e-01 -6.377302e-03 -2.927561e-01 -1.304041e-01 1.876285e-01 2.055670e-01 -1.589590e-01 -1.748475e-02 1.205934e-01 -6.471781e-02 6.446319e-02 -8.903291e-03
<VARIANCE> 39
 9.265908e+01 3.604193e+01 6.554461e+01 2.791162e+01 3.100497e+01 5.270377e+01 6.249834e+01 3.909851e+01 2.433758e+01 3.995882e+01 4.292025e+01 2.017439e+01 2.174353e+01 2.760108e+00 3.971479e+00 1.384695e+00 1.615783e+00 1.453845e+00 4.876752e+00 3.106709e+00 4.399448e+00 2.141939e+00 3.341695e+00 2.982736e+00 9.873594e-01 1.483527e+00 2.274472e-01 3.507873e-01 1.920909e-01 1.479648e-01 1.435279e-01 5.143040e-01 4.301516e-01 3.769180e-01 2.988817e-01 5.281237e-01 3.657518e-01 2.095947e-01 2.356378e-01
<GCONST> 1.140673e+02
<MIXTURE> 2 5.000000e-01
<MEAN> 39
 1.513184e+01 -7.841544e-01 -3.026115e+00 9.680818e+00 6.686661e+00 -2.986947e+00 -6.094226e+00 1.498018e+01 -1.764617e+00 -1.490279e+01 -2.840171e+00 -6.295972e+00 -1.715422e-01 -1.290322e+00 -4.878358e-01 7.001476e-01 6.353697e-01 -4.662425e-02 -5.985352e-01 -4.212559e-01 2.489469e-01 1.122480e-01 1.365601e-01 7.153316e-01 4.805111e-01 2.078618e-01 -1.289290e-01 1.834221e-01 -6.377302e-03 -2.927561e-01 -1.304041e-01 1.876285e-01 2.055670e-01 -1.589590e-01 -1.748475e-02 1.205934e-01 -6.471781e-02 6.446319e-02 -8.903291e-03
<VARIANCE> 39
 9.265908e+01 3.604193e+01 6.554461e+01 2.791162e+01 3.100497e+01 5.270377e+01 6.249834e+01 3.909851e+01 2.433758e+01 3.995882e+01 4.292025e+01 2.017439e+01 2.174353e+01 2.760108e+00 3.971479e+00 1.384695e+00 1.615783e+00 1.453845e+00 4.876752e+00 3.106709e+00 4.399448e+00 2.141939e+00 3.341695e+00 2.982736e+00 9.873594e-01 1.483527e+00 2.274472e-01 3.507873e-01 1.920909e-01 1.479648e-01 1.435279e-01 5.143040e-01 4.301516e-01 3.769180e-01 2.988817e-01 5.281237e-01 3.657518e-01 2.095947e-01 2.356378e-01
<GCONST> 1.140673e+02
<TRANSP> 5
 0.000000e+00 1.000000e+00 0.000000e+00 0.000000e+00 0.000000e+00
 0.000000e+00 9.045283e-01 9.547170e-02 0.000000e+00 0.000000e+00
 0.000000e+00 0.000000e+00 8.468858e-01 1.531142e-01 0.000000e+00
 0.000000e+00 0.000000e+00 0.000000e+00 7.054541e-01 2.945460e-01
 0.000000e+00 0.000000e+00 0.000000e+00 0.000000e+00 0.000000e+00
<ENDHMM>
~h "khq"
<BEGINHMM>
<NUMSTATES> 5
<STATE> 2
<NUMMIXES> 2
<MIXTURE> 1 5.000000e-01
<MEAN> 39
 5.098849e+00 -6.514025e+00 2.430083e+00 1.092778e+01 1.083864e+01 1.500667e+00 -1.140838e+01 9.359310e+00 -3.377835e+00 -1.113024e+01 6.044074e+00 -4.088247e-01 -3.646332e+00 -1.380477e-02 1.475701e-03 -1.072459e-03 -5.524765e-03 -3.099398e-03 2.005852e-03 8.190720e-04 -5.087083e-03 2.488556e-03 5.650900e-03 -1.806995e-03 5.936168e-04 1.443354e-03 -1.213556e-03 -1.404243e-04 -1.926630e-04 -5.029775e-04 -4.298560e-04 2.249404e-04 5.535607e-04 -2.933974e-04 7.204357e-05 8.173331e-04 -1.603794e-04 -1.434907e-04 3.551734e-04
<VARIANCE> 39
 2.696502e+02 1.642264e+02 1.776205e+02 1.699619e+02 1.712323e+02 1.501611e+02 1.653076e+02 1.112998e+02 8.102897e+01 1.132308e+02 1.038732e+02 3.576029e+01 7.139818e+01 2.864393e+00 3.049235e+00 2.950589e+00 2.442850e+00 2.488132e+00 2.882445e+00 3.574063e+00 2.837703e+00 2.254665e+00 3.083899e+00 2.848865e+00 1.410452e+00 1.706605e+00 2.059384e-01 2.861855e-01 3.165202e-01 2.798763e-01 2.958655e-01 3.292713e-01 4.082396e-01 3.875320e-01 3.475762e-01 4.161765e-01 3.917231e-01 2.236369e-01 2.362328e-01
<GCONST> 1.313330e+02
<MIXTURE> 2 5.000000e-01
<MEAN> 39
 5.098849e+00 -6.514025e+00 2.430083e+00 1.092778e+01 1.083864e+01 1.500667e+00 -1.140838e+01 9.359310e+00 -3.377835e+00 -1.113024e+01 6.044074e+00 -4.088247e-01 -3.646332e+00 -1.380477e-02 1.475701e-03 -1.072459e-03 -5.524765e-03 -3.099398e-03 2.005852e-03 8.190720e-04 -5.087083e-03 2.488556e-03 5.650900e-03 -1.806995e-03 5.936168e-04 1.443354e-03 -1.213556e-03 -1.404243e-04 -1.926630e-04 -5.029775e-04 -4.298560e-04 2.249404e-04 5.535607e-04 -2.933974e-04 7.204357e-05 8.173331e-04 -1.603794e-04 -1.434907e-04 3.551734e-04
<VARIANCE> 39
 2.696502e+02 1.642264e+02 1.776205e+02 1.699619e+02 1.712323e+02 1.501611e+02 1.653076e+02 1.112998e+02 8.102897e+01 1.132308e+02 1.038732e+02 3.576029e+01 7.139818e+01 2.864393e+00 3.049235e+00 2.950589e+00 2.442850e+00 2.488132e+00 2.882445e+00 3.574063e+00 2.837703e+00 2.254665e+00 3.083899e+00 2.848865e+00 1.410452e+00 1.706605e+00 2.059384e-01 2.861855e-01 3.165202e-01 2.798763e-01 2.958655e-01 3.292713e-01 4.082396e-01 3.875320e-01 3.475762e-01 4.161765e-01 3.917231e-01 2.236369e-01 2.362328e-01
<GCONST> 1.313330e+02
<STATE> 3
<NUMMIXES> 2
<MIXTURE> 1 5.000000e-01
<MEAN> 39
 5.098849e+00 -6.514025e+00 2.430083e+00 1.092778e+01 1.083864e+01 1.500667e+00 -1.140838e+01 9.359310e+00 -3.377835e+00 -1.113024e+01 6.044074e+00 -4.088247e-01 -3.646332e+00 -1.380477e-02 1.475701e-03 -1.072459e-03 -5.524765e-03 -3.099398e-03 2.005852e-03 8.190720e-04 -5.087083e-03 2.488556e-03 5.650900e-03 -1.806995e-03 5.936168e-04 1.443354e-03 -1.213556e-03 -1.404243e-04 -1.926630e-04 -5.029775e-04 -4.298560e-04 2.249404e-04 5.535607e-04 -2.933974e-04 7.204357e-05 8.173331e-04 -1.603794e-04 -1.434907e-04 3.551734e-04
<VARIANCE> 39
 2.696502e+02 1.642264e+02 1.776205e+02 1.699619e+02 1.712323e+02 1.501611e+02 1.653076e+02 1.112998e+02 8.102897e+01 1.132308e+02 1.038732e+02 3.576029e+01 7.139818e+01 2.864393e+00 3.049235e+00 2.950589e+00 2.442850e+00 2.488132e+00 2.882445e+00 3.574063e+00 2.837703e+00 2.254665e+00 3.083899e+00 2.848865e+00 1.410452e+00 1.706605e+00 2.059384e-01 2.861855e-01 3.165202e-01 2.798763e-01 2.958655e-01 3.292713e-01 4.082396e-01 3.875320e-01 3.475762e-01 4.161765e-01 3.917231e-01 2.236369e-01 2.362328e-01
<GCONST> 1.313330e+02
<MIXTURE> 2 5.000000e-01
<MEAN> 39
 5.098849e+00 -6.514025e+00 2.430083e+00 1.092778e+01 1.083864e+01 1.500667e+00 -1.140838e+01 9.359310e+00 -3.377835e+00 -1.113024e+01 6.044074e+00 -4.088247e-01 -3.646332e+00 -1.380477e-02 1.475701e-03 -1.072459e-03 -5.524765e-03 -3.099398e-03 2.005852e-03 8.190720e-04 -5.087083e-03 2.488556e-03 5.650900e-03 -1.806995e-03 5.936168e-04 1.443354e-03 -1.213556e-03 -1.404243e-04 -1.926630e-04 -5.029775e-04 -4.298560e-04 2.249404e-04 5.535607e-04 -2.933974e-04 7.204357e-05 8.173331e-04 -1.603794e-04 -1.434907e-04 3.551734e-04
<VARIANCE> 39
 2.696502e+02 1.642264e+02 1.776205e+02 1.699619e+02 1.712323e+02 1.501611e+02 1.653076e+02 1.112998e+02 8.102897e+01 1.132308e+02 1.038732e+02 3.576029e+01 7.139818e+01 2.864393e+00 3.049235e+00 2.950589e+00 2.442850e+00 2.488132e+00 2.882445e+00 3.574063e+00 2.837703e+00 2.254665e+00 3.083899e+00 2.848865e+00 1.410452e+00 1.706605e+00 2.059384e-01 2.861855e-01 3.165202e-01 2.798763e-01 2.958655e-01 3.292713e-01 4.082396e-01 3.875320e-01 3.475762e-01 4.161765e-01 3.917231e-01 2.236369e-01 2.362328e-01
<GCONST> 1.313330e+02
<STATE> 4
<NUMMIXES> 2
<MIXTURE> 1 5.000000e-01
<MEAN> 39
 5.098849e+00 -6.514025e+00 2.430083e+00 1.092778e+01 1.083864e+01 1.500667e+00 -1.140838e+01 9.359310e+00 -3.377835e+00 -1.113024e+01 6.044074e+00 -4.088247e-01 -3.646332e+00 -1.380477e-02 1.475701e-03 -1.072459e-03 -5.524765e-03 -3.099398e-03 2.005852e-03 8.190720e-04 -5.087083e-03 2.488556e-03 5.650900e-03 -1.806995e-03 5.936168e-04 1.443354e-03 -1.213556e-03 -1.404243e-04 -1.926630e-04 -5.029775e-04 -4.298560e-04 2.249404e-04 5.535607e-04 -2.933974e-04 7.204357e-05 8.173331e-04 -1.603794e-04 -1.434907e-04 3.551734e-04
<VARIANCE> 39
 2.696502e+02 1.642264e+02 1.776205e+02 1.699619e+02 1.712323e+02 1.501611e+02 1.653076e+02 1.112998e+02 8.102897e+01 1.132308e+02 1.038732e+02 3.576029e+01 7.139818e+01 2.864393e+00 3.049235e+00 2.950589e+00 2.442850e+00 2.488132e+00 2.882445e+00 3.574063e+00 2.837703e+00 2.254665e+00 3.083899e+00 2.848865e+00 1.410452e+00 1.706605e+00 2.059384e-01 2.861855e-01 3.165202e-01 2.798763e-01 2.958655e-01 3.292713e-01 4.082396e-01 3.875320e-01 3.475762e-01 4.161765e-01 3.917231e-01 2.236369e-01 2.362328e-01
<GCONST> 1.313330e+02
<MIXTURE> 2 5.000000e-01
<MEAN> 39
 5.098849e+00 -6.514025e+00 2.430083e+00 1.092778e+01 1.083864e+01 1.500667e+00 -1.140838e+01 9.359310e+00 -3.377835e+00 -1.113024e+01 6.044074e+00 -4.088247e-01 -3.646332e+00 -1.380477e-02 1.475701e-03 -1.072459e-03 -5.524765e-03 -3.099398e-03 2.005852e-03 8.190720e-04 -5.087083e-03 2.488556e-03 5.650900e-03 -1.806995e-03 5.936168e-04 1.443354e-03 -1.213556e-03 -1.404243e-04 -1.926630e-04 -5.029775e-04 -4.298560e-04 2.249404e-04 5.535607e-04 -2.933974e-04 7.204357e-05 8.173331e-04 -1.603794e-04 -1.434907e-04 3.551734e-04
<VARIANCE> 39
 2.696502e+02 1.642264e+02 1.776205e+02 1.699619e+02 1.712323e+02 1.501611e+02 1.653076e+02 1.112998e+02 8.102897e+01 1.132308e+02 1.038732e+02 3.576029e+01 7.139818e+01 2.864393e+00 3.049235e+00 2.950589e+00 2.442850e+00 2.488132e+00 2.882445e+00 3.574063e+00 2.837703e+00 2.254665e+00 3.083899e+00 2.848865e+00 1.410452e+00 1.706605e+00 2.059384e-01 2.861855e-01 3.165202e-01 2.798763e-01 2.958655e-01 3.292713e-01 4.082396e-01 3.875320e-01 3.475762e-01 4.161765e-01 3.917231e-01 2.236369e-01 2.362328e-01
<GCONST> 1.313330e+02
<TRANSP> 5
 0.000000e+00 1.000000e+00 0.000000e+00 0.000000e+00 0.000000e+00
 0.000000e+00 6.000000e-01 4.000000e-01 0.000000e+00 0.000000e+00
 0.000000e+00 0.000000e+00 6.000000e-01 4.000000e-01 0.000000e+00
 0.000000e+00 0.000000e+00 0.000000e+00 6.000000e-01 4.000000e-01
 0.000000e+00 0.000000e+00 0.000000e+00 0.000000e+00 0.000000e+00
<ENDHMM>
~h "txh"
<BEGINHMM>
<NUMSTATES> 5
<STATE> 2
<NUMMIXES> 2
<MIXTURE> 1 6.564595e-01
<MEAN> 39
 7.032546e+00 3.487805e+00 -5.569333e+00 6.086026e+00 1.590490e+01 1.246307e+01 -4.115661e+00 2.240006e+00 -3.628887e+00 -3.019597e+00 8.205393e+00 7.176020e+00 4.209839e+00 -2.897861e+00 3.886713e-01 1.613770e+00 6.797697e-01 -8.888921e-01 5.414069e-01 1.778160e+00 5.663783e-02 4.697165e-01 1.123631e+00 -9.029427e-01 -1.079166e-01 1.090222e+00 -1.629864e-01 -4.934696e-01 -1.293115e-02 -6.527553e-02 -1.774037e-01 -2.080445e-01 -2.172415e-01 2.285526e-01 1.150409e-01 -1.711306e-01 1.186240e-02 -1.659854e-01 2.538849e-02
<VARIANCE> 39
 1.023585e+02 1.872751e+01 5.788001e+01 3.550077e+01 1.965275e+01 3.639952e+01 6.986510e+01 4.885793e+01 3.445488e+01 4.240552e+01 3.127239e+01 1.215098e+01 1.778180e+01 1.383648e+00 2.923681e+00 2.290218e+00 1.237500e+00 2.032108e+00 2.434020e+00 1.622285e+00 1.819585e+00 1.885731e+00 2.059293e+00 1.739153e+00 9.246979e-01 1.495397e+00 1.402210e-01 5.306915e-01 2.975240e-01 1.420789e-01 2.804333e-01 3.935495e-01 2.638239e-01 3.180393e-01 3.754412e-01 3.024676e-01 2.985650e-01 1.970488e-01 2.313637e-01
<GCONST> 1.081156e+02
<MIXTURE> 2 3.435404e-01
<MEAN> 39
 -2.652182e+01 -6.231872e+00 -4.935217e+00 -2.878297e+00 -3.393346e+00 1.045884e+00 -3.474257e+00 1.287307e+00 -1.323392e+00 -3.521592e-01 7.157988e-01 -1.154877e+00 2.322272e-01 1.478443e-01 2.511582e-02 1.796123e-01 3.706186e-01 3.260959e-01 8.460432e-02 -9.473009e-02 2.656362e-02 1.820932e-02 -7.790498e-02 -5.891204e-02 5.049200e-02 2.197137e-01 1.894043e-01 1.600704e-02 1.046723e-01 3.145905e-01 3.253095e-01 1.973256e-01 1.842059e-01 2.479172e-01 1.869483e-01 9.457810e-02 5.734058e-02 1.063903e-01 1.405153e-01
<VARIANCE> 39
 5.781573e-01 1.547152e+00 2.838577e+00 2.972855e+00 2.453126e+00 4.203408e+00 6.093718e+00 6.197117e+00 8.758909e+00 1.051132e+01 6.570078e+00 6.366241e+00 3.620586e+00 3.232915e-01 3.755770e-01 4.303529e-01 1.072649e+00 1.204278e+00 1.089964e+00 1.238881e+00 1.623148e+00 1.742873e+00 1.276007e+00 1.073791e+00 1.213951e+00 9.900763e-01 8.621173e-02 6.033421e-02 6.874640e-02 1.794210e-01 2.346123e-01 2.848659e-01 2.752341e-01 3.928070e-01 4.042054e-01 3.006102e-01 2.118040e-01 1.977862e-01 1.946413e-01
<GCONST> 6.684798e+01
<STATE> 3
<NUMMIXES> 2
<MIXTURE> 1 6.837317e-01
<MEAN> 39
 -1.248046e+01 -7.103123e+00 3.073976e-01 1.029273e+01 8.568035e+00 1.096378e+01 2.486186e+00 8.305004e+00 3.648816e+00 1.092699e+00 1.533807e+00 1.946990e+00 9.394061e+00 9.458053e-01 -3.040194e+00 5.476930e-01 1.055950e+00 -5.667177e-01 3.060288e-01 6.357069e-02 1.029726e+00 1.162377e+00 5.520717e-01 3.435044e-01 -9.958138e-01 -4.913047e-02 7.342783e-01 -5.106270e-01 -5.596081e-03 -3.430566e-01 -3.633788e-01 -4.120693e-02 -3.733464e-01 -2.164107e-01 -5.234521e-01 -3.119831e-01 7.092723e-01 1.731304e-01 -7.121738e-01
<VARIANCE> 39
 5.573851e+01 3.746088e+01 1.672376e+01 2.223046e+01 2.321309e+01 2.710791e+01 1.889038e+01 3.049481e+01 3.284415e+01 1.749407e+01 1.968459e+01 2.024237e+01 2.546036e+01 6.992019e+00 4.187121e+00 1.758348e+00 3.083529e+00 5.959736e+00 3.666150e+00 2.834572e+00 3.659330e+00 3.481534e+00 2.429622e+00 3.991517e+00 2.731860e+00 5.078042e+00 3.629411e-01 2.723401e-01 2.898262e-01 3.721666e-01 6.744605e-01 6.190435e-01 3.939955e-01 6.222100e-01 8.631439e-01 4.505458e-01 6.102132e-01 7.199109e-01 7.215300e-01
<GCONST> 1.213446e+02
<MIXTURE> 2 3.162677e-01
<MEAN> 39
 -4.584886e+00 -2.226997e+01 6.093232e+00 1.089715e+01 1.731997e+00 1.316432e+01 -7.451233e-01 6.643440e+00 1.934302e+00 -1.727249e-01 7.801943e+00 -2.734828e-01 2.143964e+00 1.961294e+00 -5.189017e+00 2.475763e+00 -2.524070e-01 -1.483934e+00 1.741478e+00 -9.653918e-01 -5.503755e-01 -3.381768e+00 -2.318899e+00 4.100794e+00 1.759162e+00 -2.199732e+00 -3.143989e-01 1.542191e-01 4.889119e-01 4.531191e-02 5.373554e-01 8.742564e-01 1.304245e-01 -1.835811e-02 -7.736665e-01 -4.122640e-01 3.787040e-01 5.223473e-01 7.530400e-01
<VARIANCE> 39
 8.577307e+00 3.219472e+01 1.872984e+01 1.696844e+01 1.604594e+01 2.448056e+01 2.023876e+01 2.847834e+01 3.727889e+01 3.393491e+01 3.100085e+01 3.777531e+01 1.635634e+01 9.358314e-01 7.946805e-01 1.831178e+00 1.150434e+00 1.346749e+00 3.066445e+00 1.400141e+00 2.946618e+00 2.970970e+00 3.060045e+00 2.115288e+00 2.293947e+00 2.441421e+00 3.678137e-01 3.596561e-01 2.829834e-01 1.325903e-01 1.681980e-01 3.244393e-01 2.499857e-01 4.981078e-01 9.468245e-01 6.504999e-01 4.454058e-01 5.876948e-01 3.481398e-01
<GCONST> 1.071793e+02
<STATE> 4
<NUMMIXES> 2
<MIXTURE> 1 3.800825e-01
<MEAN> 39
 -7.000413e+00 -1.406938e+01 -4.065959e+00 8.279446e+00 8.416249e+00 1.703489e+01 8.868290e+00 9.594220e+00 -2.679082e+00 -1.118978e+00 1.243627e+01 1.033943e+01 9.511049e+00 -1.170166e+00 2.278336e+00 -7.297862e-01 -5.761647e-01 -2.157633e-01 -1.506760e+00 -1.647659e-01 -4.243927e-02 6.822143e-01 2.475237e-01 -1.371559e+00 -1.243471e-01 3.817930e-01 -8.701482e-02 -3.760782e-01 2.988656e-01 -1.158556e-01 -2.164705e-01 2.399182e-02 -2.120442e-01 6.073206e-02 -1.018124e-01 -1.642933e-01 8.802423e-02 -8.737229e-02 -1.605341e-01
<VARIANCE> 39
 7.790846e+01 8.562601e+01 5.464235e+01 4.329103e+01 4.310096e+01 6.790850e+01 3.511147e+01 4.445641e+01 4.002329e+01 6.883257e+01 8.240430e+01 2.530995e+01 2.043772e+01 1.562346e+00 3.528780e+00 3.025928e+00 1.798576e+00 2.933779e+00 2.413004e+00 1.846169e+00 1.900516e+00 2.950091e+00 2.759456e+00 2.157656e+00 1.909370e+00 2.344470e+00 1.726272e-01 2.433303e-01 2.565495e-01 1.751018e-01 2.865275e-01 4.400177e-01 2.469208e-01 3.155617e-01 4.103725e-01 4.416591e-01 3.409570e-01 2.501027e-01 2.622478e-01
<GCONST> 1.167421e+02
<MIXTURE> 2 6.199155e-01
<MEAN> 39
 -4.348987e+00 -3.612312e+01 1.178839e+01 1.092254e+01 3.106306e+00 2.401426e+01 -2.350479e-01 5.774715e+00 -7.243965e+00 -3.832443e+00 1.912901e+01 4.692448e+00 2.664721e+00 -1.095366e-01 5.013699e-02 -7.486250e-01 3.421874e-01 8.790413e-01 7.453064e-01 8.014873e-01 -1.041119e-03 -2.010841e-01 3.978567e-01 7.829676e-01 5.667403e-01 4.735188e-01 -1.352161e-01 1.019619e+00 -5.827242e-01 9.979216e-02 2.353749e-01 -5.184997e-01 1.824968e-01 3.590678e-03 5.406104e-01 3.394845e-01 -7.044041e-01 -1.973491e-01 1.594313e-01
<VARIANCE> 39
 2.732261e+01 4.531092e+01 7.853478e+01 4.252210e+01 3.420750e+01 5.655147e+01 4.158220e+01 6.243785e+01 3.703281e+01 4.886504e+01 5.676209e+01 4.904106e+01 2.876169e+01 1.420776e+00 7.580874e+00 7.732792e+00 1.667283e+00 2.145336e+00 5.085193e+00 2.365503e+00 2.544171e+00 4.603343e+00 3.597285e+00 4.648716e+00 2.160775e+00 1.242100e+00 3.120616e-01 4.095572e-01 1.027252e+00 2.163780e-01 3.342130e-01 6.048232e-01 4.083929e-01 4.938638e-01 7.938387e-01 7.960467e-01 4.221330e-01 3.873494e-01 3.443565e-01
<GCONST> 1.254848e+02
<TRANSP> 5
 0.000000e+00 1.000000e+00 0.000000e+00 0.000000e+00 0.000000e+00
 0.000000e+00 8.809519e-01 1.190481e-01 0.000000e+00 0.000000e+00
 0.000000e+00 0.000000e+00 8.486232e-01 1.513768e-01 0.000000e+00
 0.000000e+00 0.000000e+00 0.000000e+00 9.001537e-01 9.984630e-02
 0.000000e+00 0.000000e+00 0.000000e+00 0.000000e+00 0.000000e+00
<ENDHMM>
