~o
<STREAMINFO> 1 39
<VECSIZE> 39<NULLD><MFCC_D_A><DIAGC>
~h "a"
<BEGINHMM>
<NUMSTATES> 7
<STATE> 2
<NUMMIXES> 2
<MIXTURE> 1 9.898179e-01
<MEAN> 39
 7.463689e+00 -7.519799e+00 -3.269039e+00 5.024241e+00 5.446617e+00 8.650498e-01 -7.197209e+00 1.275985e+01 -4.718655e+00 -1.246720e+01 7.323985e+00 4.880835e-01 -5.675900e-01 1.758090e+00 -2.443872e-01 -8.739899e-01 2.338230e-01 5.274904e-01 -1.156617e+00 -9.666561e-01 7.897171e-01 -4.276364e-01 -1.119554e+00 7.644648e-01 1.892826e-01 -4.530698e-01 -1.721359e-01 -2.480764e-02 9.212147e-02 -2.065269e-02 -1.616415e-03 3.834604e-02 5.180940e-03 -4.215134e-02 4.587396e-02 7.480945e-02 -3.875767e-02 2.887376e-02 4.003611e-02
<VARIANCE> 39
 2.290545e+02 8.110428e+01 1.079791e+02 1.099383e+02 1.131017e+02 1.188492e+02 1.081149e+02 1.015681e+02 8.692765e+01 9.145247e+01 8.016560e+01 2.696357e+01 4.178975e+01 4.099555e+00 3.102861e+00 4.435096e+00 4.418725e+00 3.504774e+00 4.733020e+00 4.093051e+00 3.746201e+00 4.050836e+00 4.696498e+00 3.929320e+00 1.698107e+00 2.181257e+00 4.342829e-01 4.005836e-01 6.074939e-01 7.135334e-01 4.625603e-01 6.300855e-01 5.476422e-01 5.549520e-01 7.261406e-01 8.066300e-01 6.235302e-01 2.732677e-01 3.754106e-01
<GCONST> 1.384789e+02
<MIXTURE> 2 1.018208e-02
<MEAN> 39
 1.611212e+01 -1.629352e+01 1.284463e+00 8.894895e+00 4.576188e+00 4.071054e+00 -1.464394e+01 8.920591e+00 -3.790803e+00 -1.924251e+01 8.224268e+00 1.564310e+00 -4.290237e+00 9.987575e-01 4.792226e-01 -1.397251e+00 -2.480340e-01 8.115424e-01 -1.464272e+00 -8.067765e-01 9.061028e-01 -5.526283e-01 -8.293070e-01 1.073595e+00 3.609197e-01 -3.952520e-01 -5.100028e-01 2.662526e-01 2.074550e-01 1.110039e-02 2.620963e-01 2.228728e-02 2.625901e-01 1.377743e-01 1.418591e-01 4.242703e-01 -1.320027e-01 -5.320780e-02 2.451958e-01
<VARIANCE> 39
 7.065619e+01 1.035073e+02 6.260860e+01 5.094400e+01 9.293143e+01 1.563795e+02 1.301149e+02 8.258685e+01 6.771569e+01 6.748164e+01 7.671236e+01 2.279862e+01 5.420419e+01 1.537276e+00 2.741773e+00 4.871783e+00 9.870412e-01 1.884190e+00 5.777843e+00 2.607429e+00 2.611748e+00 1.541522e+00 2.283717e+00 2.318742e+00 1.053014e+00 1.224296e+00 2.312467e-01 4.480192e-01 4.632281e-01 2.186695e-01 4.047778e-01 5.406371e-01 3.783309e-01 2.977815e-01 3.100568e-01 4.125981e-01 3.743170e-01 2.056404e-01 1.659117e-01
<GCONST> 1.223874e+02
<STATE> 3
<NUMMIXES> 2
<MIXTURE> 1 5.569221e-01
<MEAN> 39
 2.240422e+01 -1.036322e+01 -1.117172e+01 5.539715e+00 4.714121e+00 -1.261606e+01 -1.222117e+01 2.302831e+01 -9.892757e-01 -1.888050e+01 9.714527e+00 2.997603e+00 -3.030472e+00 -5.813633e-02 -7.556906e-02 -1.386731e-01 -1.423098e-01 1.554781e-01 -1.147012e-01 -2.459154e-01 -1.415810e-01 -5.574648e-02 -3.863421e-02 2.405749e-02 7.974612e-02 7.960868e-02 -7.213376e-02 1.495397e-01 1.457347e-01 4.178726e-02 -8.283630e-04 1.434743e-01 7.753441e-02 -1.287646e-01 -8.215643e-03 8.445560e-02 -9.947918e-02 -4.894253e-02 2.139031e-02
<VARIANCE> 39
 8.859226e+00 1.887949e+01 3.855267e+01 1.895608e+01 6.338791e+01 5.693942e+01 9.651231e+01 6.509491e+01 8.569488e+01 6.460664e+01 7.632245e+01 1.610494e+01 2.441805e+01 5.918862e-01 5.866771e-01 7.203110e-01 5.951265e-01 6.824902e-01 1.072321e+00 1.234485e+00 1.433049e+00 8.717724e-01 8.787454e-01 1.406563e+00 5.240124e-01 4.613370e-01 9.542078e-02 7.149980e-02 1.001910e-01 8.126750e-02 7.646810e-02 1.019667e-01 1.343675e-01 1.661753e-01 7.750574e-02 1.208826e-01 1.605365e-01 7.901306e-02 6.524235e-02
<GCONST> 8.604305e+01
<MIXTURE> 2 4.430781e-01
<MEAN> 39
 1.451509e+01 -7.330029e+00 -3.290246e+00 8.539223e+00 1.235436e+01 -3.293881e+00 -1.583303e+01 1.458843e+01 -7.078611e+00 -1.842692e+01 1.174825e+01 1.707699e+00 -3.728364e+00 1.308813e-01 -1.172802e-01 -4.380127e-01 -3.570803e-01 1.162774e-01 -4.275313e-01 -3.965322e-01 2.346670e-01 3.458920e-02 -8.241805e-02 2.988893e-01 2.166266e-01 1.361149e-01 -1.698585e-01 7.216286e-02 2.208785e-01 4.713101e-02 -1.170927e-01 2.816844e-01 2.723794e-01 -2.332166e-01 1.245418e-01 2.996693e-01 -2.355633e-01 -6.996397e-02 1.004850e-01
<VARIANCE> 39
 1.461800e+02 9.141308e+01 1.246856e+02 1.166578e+02 1.261462e+02 9.564453e+01 1.462072e+02 1.154340e+02 8.942465e+01 1.062371e+02 1.231329e+02 3.309506e+01 5.086875e+01 1.005699e+00 1.132766e+00 1.502240e+00 1.507741e+00 1.490062e+00 2.149803e+00 2.556054e+00 2.599964e+00 1.555840e+00 2.297135e+00 2.453344e+00 1.119066e+00 1.215075e+00 1.512804e-01 1.564608e-01 2.261694e-01 2.190697e-01 2.313572e-01 2.800826e-01 3.880587e-01 4.416527e-01 2.643260e-01 4.333752e-01 4.249865e-01 1.920944e-01 1.910856e-01
<GCONST> 1.202038e+02
<STATE> 4
<NUMMIXES> 2
<MIXTURE> 1 4.380120e-03
<MEAN> 39
 1.585668e+01 -1.768990e+01 2.258406e+00 1.356503e+01 3.685501e+00 5.196147e-01 -1.224428e+01 1.067846e+01 1.030743e+00 -1.587813e+01 3.318891e+00 1.501347e+00 -1.303037e+00 1.957441e+00 1.100721e+00 -2.782665e+00 1.369896e-01 1.033072e+00 -2.586203e+00 -1.496708e-01 1.440739e+00 -8.217803e-01 -2.017578e+00 4.415286e-02 1.640714e-01 -8.881569e-01 -6.400648e-01 4.901276e-01 3.357444e-01 -6.158132e-02 1.792782e-01 -6.798964e-02 -1.710746e-02 1.489365e-02 3.175229e-01 3.338036e-01 -3.430870e-01 -8.335916e-02 1.050216e-01
<VARIANCE> 39
 7.749433e+01 8.536055e+01 1.208792e+02 5.204447e+01 5.021634e+01 2.490262e+02 1.024070e+02 1.238013e+02 9.249440e+01 5.791391e+01 3.210442e+01 9.402544e+00 8.666027e+00 2.983778e+00 6.620062e+00 2.876733e+00 5.768835e-01 1.637183e+00 4.911030e+00 3.489429e+00 3.625510e+00 2.506814e+00 2.725755e+00 1.993725e+00 5.491802e-01 1.813809e+00 5.406824e-01 8.282744e-01 1.950107e-01 2.004170e-01 3.185961e-01 3.397279e-01 3.850853e-01 4.724522e-01 4.400718e-01 4.927138e-01 6.949469e-01 1.807969e-01 1.677732e-01
<GCONST> 1.219171e+02
<MIXTURE> 2 9.956197e-01
<MEAN> 39
 1.457930e+01 -6.601290e+00 -3.615528e+00 8.529389e+00 1.078706e+01 -4.749082e+00 -1.423457e+01 1.441105e+01 -4.983117e+00 -1.674165e+01 9.385795e+00 1.763187e+00 -3.823678e+00 -5.926071e-02 1.838049e-01 5.415698e-02 8.145459e-03 9.967566e-02 1.036079e-01 3.922671e-02 -1.920773e-01 2.262590e-02 1.657712e-01 -1.224706e-01 -1.510714e-02 6.799810e-02 -5.981918e-02 8.314370e-02 1.061066e-01 1.061167e-01 4.209258e-03 1.647687e-01 1.298492e-01 -8.563478e-02 3.927622e-02 9.605885e-02 -1.187050e-01 -6.901161e-02 9.873846e-03
<VARIANCE> 39
 1.510612e+02 9.439181e+01 1.401909e+02 1.193307e+02 1.326727e+02 1.187180e+02 1.363644e+02 1.138458e+02 9.294446e+01 9.850935e+01 1.097575e+02 3.288510e+01 5.617907e+01 7.555329e-01 1.048586e+00 1.212810e+00 1.408960e+00 1.238509e+00 1.710092e+00 1.918633e+00 1.857944e+00 1.449777e+00 1.681255e+00 1.849517e+00 9.191247e-01 1.001047e+00 7.113808e-02 1.062164e-01 1.344185e-01 1.420036e-01 1.584619e-01 1.800411e-01 2.266475e-01 2.694191e-01 1.654076e-01 2.272130e-01 2.430740e-01 1.440993e-01 1.305658e-01
<GCONST> 1.115056e+02
<STATE> 5
<NUMMIXES> 2
<MIXTURE> 1 2.068824e-01
<MEAN> 39
 1.920740e+01 -8.185013e+00 -5.158495e+00 1.205087e+01 1.335686e+01 -2.661247e+00 -1.479933e+01 9.232729e+00 -6.174148e+00 -1.703344e+01 7.882431e+00 1.633598e+00 -4.945374e+00 -9.470376e-02 4.760268e-01 -2.765691e-02 1.003274e-02 2.007477e-01 1.956088e-01 2.342913e-01 -2.861691e-01 9.527274e-02 3.448979e-01 -4.456853e-01 -6.222400e-02 2.184581e-01 -1.374829e-01 1.458202e-01 1.347054e-01 -4.805220e-03 -2.031788e-03 1.048525e-01 9.622299e-02 1.290312e-01 8.862839e-02 5.068210e-02 -5.614297e-02 -6.006376e-02 6.781720e-02
<VARIANCE> 39
 3.181054e+01 7.829965e+01 1.051441e+02 1.034184e+02 8.562012e+01 8.201691e+01 8.871500e+01 7.883862e+01 6.049874e+01 6.336893e+01 8.291678e+01 3.273775e+01 4.983419e+01 1.287344e+00 1.484245e+00 1.658598e+00 1.052935e+00 1.339845e+00 2.007524e+00 2.635436e+00 2.049064e+00 1.169986e+00 1.831767e+00 2.349455e+00 8.256083e-01 1.069253e+00 1.707426e-01 1.665638e-01 2.062791e-01 1.169966e-01 1.403904e-01 2.043917e-01 2.868323e-01 2.861940e-01 2.042923e-01 3.037312e-01 3.046393e-01 1.405139e-01 1.459720e-01
<GCONST> 1.107504e+02
<MIXTURE> 2 7.931173e-01
<MEAN> 39
 1.357106e+01 -5.870442e+00 -2.857365e+00 8.019817e+00 1.042168e+01 -4.837341e+00 -1.430367e+01 1.585408e+01 -4.717076e+00 -1.673681e+01 1.012754e+01 1.370348e+00 -4.048331e+00 -2.212013e-01 3.851003e-01 2.817791e-01 2.621222e-01 1.286048e-01 4.352834e-01 3.532683e-01 -4.765570e-01 1.028470e-01 3.696954e-01 -4.182538e-01 -1.025730e-01 6.499937e-02 -8.205096e-02 9.327082e-02 1.046655e-01 1.177968e-01 -3.299423e-03 1.818047e-01 1.860996e-01 -1.622114e-01 6.223483e-02 1.482079e-01 -2.020336e-01 -5.680938e-02 2.618161e-02
<VARIANCE> 39
 1.742785e+02 9.477709e+01 1.494649e+02 1.187326e+02 1.420602e+02 1.310497e+02 1.477280e+02 1.222256e+02 1.010900e+02 1.091359e+02 1.290333e+02 3.378265e+01 5.985603e+01 9.611604e-01 1.288161e+00 1.320592e+00 1.638204e+00 1.444051e+00 1.900390e+00 2.451435e+00 2.902350e+00 1.584561e+00 2.139318e+00 2.587268e+00 1.107357e+00 1.127790e+00 1.040211e-01 1.286538e-01 1.638560e-01 1.723358e-01 1.892171e-01 2.152801e-01 3.063911e-01 3.732251e-01 2.195929e-01 3.251146e-01 3.511077e-01 1.729848e-01 1.692836e-01
<GCONST> 1.184706e+02
<STATE> 6
<NUMMIXES> 2
<MIXTURE> 1 4.347380e-01
<MEAN> 39
 1.064337e+01 7.470942e-01 -2.638681e+00 8.572989e+00 1.120629e+01 2.806757e+00 -6.448433e+00 9.029734e+00 -5.417332e+00 -1.244673e+01 4.339583e+00 2.223740e+00 4.147092e-01 -1.403643e+00 1.038182e+00 1.127383e+00 4.196605e-01 -1.603952e-02 1.075427e+00 1.080741e+00 -6.636839e-01 4.158912e-01 8.834550e-01 -1.026447e+00 -2.224788e-01 3.851863e-01 -1.095026e-01 -1.084193e-01 4.384084e-02 -1.631068e-02 -5.284277e-02 -7.249101e-02 -8.235840e-02 2.111216e-02 6.482875e-03 1.232482e-02 8.044221e-02 -2.091326e-02 -3.824674e-02
<VARIANCE> 39
 1.461387e+02 8.285717e+01 1.017207e+02 6.767370e+01 8.210033e+01 1.037213e+02 9.891141e+01 1.074762e+02 8.178815e+01 7.165370e+01 9.510509e+01 4.430506e+01 5.516076e+01 2.810808e+00 3.272383e+00 3.013506e+00 2.543923e+00 2.346562e+00 2.932192e+00 3.507481e+00 3.854370e+00 2.767555e+00 3.400684e+00 3.784062e+00 1.842196e+00 2.067050e+00 2.229447e-01 3.303089e-01 4.089961e-01 2.976775e-01 2.817490e-01 3.621474e-01 5.079681e-01 4.640444e-01 4.545397e-01 4.827721e-01 5.047606e-01 2.562101e-01 2.896529e-01
<GCONST> 1.297246e+02
<MIXTURE> 2 5.652619e-01
<MEAN> 39
 1.369576e+01 -2.727748e+00 -3.603224e+00 9.111034e+00 1.014482e+01 -4.173856e+00 -1.188451e+01 1.270383e+01 -3.176581e+00 -1.363398e+01 7.066531e+00 1.171930e+00 -3.495159e+00 -1.300822e-01 2.500162e-01 1.567828e-01 5.663125e-02 1.980332e-02 1.955242e-01 1.367554e-01 -1.967154e-01 1.902469e-02 2.062586e-01 -9.270763e-02 -5.831327e-02 5.624350e-03 -1.503134e-02 1.811624e-02 1.674041e-02 8.053955e-03 1.285940e-02 7.167797e-02 4.934609e-02 -1.330692e-02 -2.456120e-02 -1.362063e-02 -2.457101e-02 -1.279294e-02 -3.387240e-03
<VARIANCE> 39
 1.996303e+02 1.104996e+02 1.336045e+02 8.953314e+01 1.051995e+02 1.107673e+02 1.246349e+02 1.141111e+02 7.252856e+01 9.415433e+01 1.209493e+02 4.255182e+01 4.595230e+01 3.642091e-01 4.645726e-01 6.602729e-01 6.878356e-01 7.840403e-01 1.020271e+00 1.302214e+00 1.518481e+00 9.950592e-01 1.190152e+00 1.409472e+00 7.825161e-01 6.303964e-01 4.561129e-02 6.179751e-02 9.253065e-02 1.032899e-01 1.101338e-01 1.346543e-01 1.892934e-01 2.239162e-01 1.338523e-01 1.829669e-01 1.888968e-01 1.318329e-01 1.017411e-01
<GCONST> 1.013134e+02
<TRANSP> 7
 0.000000e+00 1.000000e+00 0.000000e+00 0.000000e+00 0.000000e+00 0.000000e+00 0.000000e+00
 0.000000e+00 7.134773e-01 2.865227e-01 0.000000e+00 0.000000e+00 0.000000e+00 0.000000e+00
 0.000000e+00 0.000000e+00 6.023695e-01 3.976305e-01 0.000000e+00 0.000000e+00 0.000000e+00
 0.000000e+00 0.000000e+00 0.000000e+00 7.443997e-02 9.255601e-01 0.000000e+00 0.000000e+00
 0.000000e+00 0.000000e+00 0.000000e+00 0.000000e+00 1.016380e-01 8.983620e-01 0.000000e+00
 0.000000e+00 0.000000e+00 0.000000e+00 0.000000e+00 0.000000e+00 7.911538e-01 2.088462e-01
 0.000000e+00 0.000000e+00 0.000000e+00 0.000000e+00 0.000000e+00 0.000000e+00 0.000000e+00
<ENDHMM>
~h "b"
<BEGINHMM>
<NUMSTATES> 5
<STATE> 2
<NUMMIXES> 2
<MIXTURE> 1 5.000000e-01
<MEAN> 39
 9.016595e+00 -7.829953e+00 2.368720e+00 1.067163e+01 1.088253e+01 -5.028892e-02 -1.291503e+01 1.180638e+01 -3.578312e+00 -1.357189e+01 6.804040e+00 -3.949375e-01 -4.165781e+00 3.188656e-02 -6.478798e-02 5.600835e-03 -4.143222e-02 1.712323e-02 4.853194e-03 -5.840175e-02 1.369584e-02 -5.843147e-02 -3.893104e-02 6.895164e-02 1.302466e-02 -5.076504e-03 -1.385414e-02 1.605328e-02 8.818735e-03 3.866773e-03 4.050640e-03 1.358040e-02 1.211871e-02 -1.533246e-02 7.171059e-04 1.481783e-02 -8.170309e-03 -3.795245e-03 1.728032e-03
<VARIANCE> 39
 2.185552e+02 1.489674e+02 2.090910e+02 1.754915e+02 1.638450e+02 1.775349e+02 1.652993e+02 1.200130e+02 8.522755e+01 1.088620e+02 1.064858e+02 3.192085e+01 7.299259e+01 2.804520e+00 3.091299e+00 3.198864e+00 2.324783e+00 2.356370e+00 3.058513e+00 3.594993e+00 3.031020e+00 2.073383e+00 3.171336e+00 3.028141e+00 1.365481e+00 1.665693e+00 2.122575e-01 2.793865e-01 3.126104e-01 2.556362e-01 2.736964e-01 3.266598e-01 3.860986e-01 4.031789e-01 3.047415e-01 4.154434e-01 3.967336e-01 2.101199e-01 2.208101e-01
<GCONST> 1.309634e+02
<MIXTURE> 2 5.000000e-01
<MEAN> 39
 9.016595e+00 -7.829953e+00 2.368720e+00 1.067163e+01 1.088253e+01 -5.028892e-02 -1.291503e+01 1.180638e+01 -3.578312e+00 -1.357189e+01 6.804040e+00 -3.949375e-01 -4.165781e+00 3.188656e-02 -6.478798e-02 5.600835e-03 -4.143222e-02 1.712323e-02 4.853194e-03 -5.840175e-02 1.369584e-02 -5.843147e-02 -3.893104e-02 6.895164e-02 1.302466e-02 -5.076504e-03 -1.385414e-02 1.605328e-02 8.818735e-03 3.866773e-03 4.050640e-03 1.358040e-02 1.211871e-02 -1.533246e-02 7.171059e-04 1.481783e-02 -8.170309e-03 -3.795245e-03 1.728032e-03
<VARIANCE> 39
 2.185552e+02 1.489674e+02 2.090910e+02 1.754915e+02 1.638450e+02 1.775349e+02 1.652993e+02 1.200130e+02 8.522755e+01 1.088620e+02 1.064858e+02 3.192085e+01 7.299259e+01 2.804520e+00 3.091299e+00 3.198864e+00 2.324783e+00 2.356370e+00 3.058513e+00 3.594993e+00 3.031020e+00 2.073383e+00 3.171336e+00 3.028141e+00 1.365481e+00 1.665693e+00 2.122575e-01 2.793865e-01 3.126104e-01 2.556362e-01 2.736964e-01 3.266598e-01 3.860986e-01 4.031789e-01 3.047415e-01 4.154434e-01 3.967336e-01 2.101199e-01 2.208101e-01
<GCONST> 1.309634e+02
<STATE> 3
<NUMMIXES> 2
<MIXTURE> 1 5.000000e-01
<MEAN> 39
 7.953474e+00 -7.537628e+00 2.998899e+00 1.067413e+01 1.117578e+01 1.154749e+00 -1.218112e+01 1.117350e+01 -3.768792e+00 -1.254785e+01 6.656049e+00 -6.429567e-01 -3.680892e+00 -1.704782e-02 6.370967e-03 1.150412e-02 3.127821e-03 6.155718e-03 1.908996e-02 8.626655e-03 -1.536867e-02 -7.144609e-03 2.182830e-02 1.760661e-02 3.837612e-03 3.445852e-03 -3.038968e-03 4.479786e-03 8.781689e-04 1.577121e-03 -4.667268e-05 3.370574e-03 4.633517e-03 -4.672072e-03 1.007645e-03 3.397080e-03 -3.747893e-03 8.137549e-05 9.421722e-04
<VARIANCE> 39
 2.276594e+02 1.654923e+02 2.228741e+02 1.834850e+02 1.627393e+02 1.719959e+02 1.599259e+02 1.139186e+02 8.660613e+01 1.092791e+02 1.098145e+02 3.213794e+01 7.246358e+01 2.969261e+00 3.253009e+00 3.385244e+00 2.384644e+00 2.350254e+00 3.070962e+00 3.608924e+00 2.935636e+00 2.154917e+00 3.142066e+00 3.068413e+00 1.362790e+00 1.677653e+00 2.235853e-01 2.969358e-01 3.354203e-01 2.645808e-01 2.795128e-01 3.338943e-01 4.023590e-01 3.993064e-01 3.220299e-01 4.161036e-01 4.095709e-01 2.139492e-01 2.263165e-01
<GCONST> 1.317790e+02
<MIXTURE> 2 5.000000e-01
<MEAN> 39
 7.953474e+00 -7.537628e+00 2.998899e+00 1.067413e+01 1.117578e+01 1.154749e+00 -1.218112e+01 1.117350e+01 -3.768792e+00 -1.254785e+01 6.656049e+00 -6.429567e-01 -3.680892e+00 -1.704782e-02 6.370967e-03 1.150412e-02 3.127821e-03 6.155718e-03 1.908996e-02 8.626655e-03 -1.536867e-02 -7.144609e-03 2.182830e-02 1.760661e-02 3.837612e-03 3.445852e-03 -3.038968e-03 4.479786e-03 8.781689e-04 1.577121e-03 -4.667268e-05 3.370574e-03 4.633517e-03 -4.672072e-03 1.007645e-03 3.397080e-03 -3.747893e-03 8.137549e-05 9.421722e-04
<VARIANCE> 39
 2.276594e+02 1.654923e+02 2.228741e+02 1.834850e+02 1.627393e+02 1.719959e+02 1.599259e+02 1.139186e+02 8.660613e+01 1.092791e+02 1.098145e+02 3.213794e+01 7.246358e+01 2.969261e+00 3.253009e+00 3.385244e+00 2.384644e+00 2.350254e+00 3.070962e+00 3.608924e+00 2.935636e+00 2.154917e+00 3.142066e+00 3.068413e+00 1.362790e+00 1.677653e+00 2.235853e-01 2.969358e-01 3.354203e-01 2.645808e-01 2.795128e-01 3.338943e-01 4.023590e-01 3.993064e-01 3.220299e-01 4.161036e-01 4.095709e-01 2.139492e-01 2.263165e-01
<GCONST> 1.317790e+02
<STATE> 4
<NUMMIXES> 2
<MIXTURE> 1 5.000000e-01
<MEAN> 39
 8.640885e+00 -7.026616e+00 2.435844e+00 1.147259e+01 1.232649e+01 1.136319e+00 -1.267702e+01 1.087836e+01 -3.897407e+00 -1.234602e+01 7.499723e+00 -3.217624e-01 -3.892215e+00 -5.287291e-02 8.380723e-02 2.123679e-03 2.324776e-02 -3.165306e-03 2.989486e-02 6.827407e-02 -5.230513e-02 1.418913e-02 5.488707e-02 -3.652857e-02 1.999090e-02 2.237480e-02 -8.662831e-03 6.197611e-03 5.205692e-04 -1.907248e-03 -5.248312e-03 2.836371e-03 8.520032e-03 -6.651017e-03 1.557410e-03 7.018006e-03 -7.004919e-03 -1.726236e-03 1.794390e-03
<VARIANCE> 39
 2.083493e+02 1.588903e+02 2.162134e+02 1.708880e+02 1.651670e+02 1.618159e+02 1.667361e+02 1.189116e+02 8.944647e+01 1.129240e+02 1.182429e+02 3.327955e+01 7.249255e+01 2.748007e+00 3.244936e+00 3.284083e+00 2.243069e+00 2.276993e+00 2.983647e+00 3.758105e+00 2.936197e+00 2.125437e+00 3.111332e+00 3.217973e+00 1.334786e+00 1.655990e+00 2.123377e-01 2.965187e-01 3.256406e-01 2.541097e-01 2.714575e-01 3.248876e-01 4.176059e-01 3.886536e-01 3.175439e-01 4.035125e-01 4.224945e-01 2.106988e-01 2.224763e-01
<GCONST> 1.313443e+02
<MIXTURE> 2 5.000000e-01
<MEAN> 39
 8.640885e+00 -7.026616e+00 2.435844e+00 1.147259e+01 1.232649e+01 1.136319e+00 -1.267702e+01 1.087836e+01 -3.897407e+00 -1.234602e+01 7.499723e+00 -3.217624e-01 -3.892215e+00 -5.287291e-02 8.380723e-02 2.123679e-03 2.324776e-02 -3.165306e-03 2.989486e-02 6.827407e-02 -5.230513e-02 1.418913e-02 5.488707e-02 -3.652857e-02 1.999090e-02 2.237480e-02 -8.662831e-03 6.197611e-03 5.205692e-04 -1.907248e-03 -5.248312e-03 2.836371e-03 8.520032e-03 -6.651017e-03 1.557410e-03 7.018006e-03 -7.004919e-03 -1.726236e-03 1.794390e-03
<VARIANCE> 39
 2.083493e+02 1.588903e+02 2.162134e+02 1.708880e+02 1.651670e+02 1.618159e+02 1.667361e+02 1.189116e+02 8.944647e+01 1.129240e+02 1.182429e+02 3.327955e+01 7.249255e+01 2.748007e+00 3.244936e+00 3.284083e+00 2.243069e+00 2.276993e+00 2.983647e+00 3.758105e+00 2.936197e+00 2.125437e+00 3.111332e+00 3.217973e+00 1.334786e+00 1.655990e+00 2.123377e-01 2.965187e-01 3.256406e-01 2.541097e-01 2.714575e-01 3.248876e-01 4.176059e-01 3.886536e-01 3.175439e-01 4.035125e-01 4.224945e-01 2.106988e-01 2.224763e-01
<GCONST> 1.313443e+02
<TRANSP> 5
 0.000000e+00 1.000000e+00 0.000000e+00 0.000000e+00 0.000000e+00
 0.000000e+00 9.767715e-01 2.322855e-02 0.000000e+00 0.000000e+00
 0.000000e+00 0.000000e+00 9.767715e-01 2.322854e-02 0.000000e+00
 0.000000e+00 0.000000e+00 0.000000e+00 9.767715e-01 2.322851e-02
 0.000000e+00 0.000000e+00 0.000000e+00 0.000000e+00 0.000000e+00
<ENDHMM>
~h "c"
<BEGINHMM>
<NUMSTATES> 5
<STATE> 2
<NUMMIXES> 2
<MIXTURE> 1 7.120017e-01
<MEAN> 39
 -1.555747e+01 -1.115542e+01 3.920897e+00 8.228708e+00 1.433527e+00 6.566049e+00 -1.677110e+00 5.462193e+00 -1.368150e-01 -4.818429e+00 -4.543348e-01 4.923314e-01 3.655967e+00 -8.829271e-01 -2.611881e+00 5.443400e-01 -1.873926e-01 -1.338678e+00 -1.220709e-01 -4.916489e-01 -4.096360e-02 3.460242e-01 -2.058471e-01 1.224633e-01 1.520477e-01 6.077737e-04 1.947535e-01 -1.822002e-01 1.999819e-01 -1.240835e-02 -9.487839e-02 -2.244575e-02 -1.451860e-01 2.533576e-02 6.722841e-03 -9.326723e-02 1.004586e-01 9.618041e-03 -1.324693e-01
<VARIANCE> 39
 1.043975e+02 2.552745e+02 1.149650e+02 7.473386e+01 6.785021e+01 5.826805e+01 4.632507e+01 3.983212e+01 3.724609e+01 4.179014e+01 3.267332e+01 2.315288e+01 2.819521e+01 4.144227e+00 7.720559e+00 5.928020e+00 3.929489e+00 3.692243e+00 2.974138e+00 2.805815e+00 2.602596e+00 2.403125e+00 3.333251e+00 2.508696e+00 1.896730e+00 2.587407e+00 2.677345e-01 8.900561e-01 6.169481e-01 4.994012e-01 4.544894e-01 4.806551e-01 4.206795e-01 4.406451e-01 4.154378e-01 5.120749e-01 3.925488e-01 3.389877e-01 4.008090e-01
<GCONST> 1.293395e+02
<MIXTURE> 2 2.879983e-01
<MEAN> 39
 -1.523683e+01 -4.297593e+01 2.099670e+01 1.232203e+01 -1.052282e+01 9.197599e+00 -1.253679e+01 2.709232e+00 5.516343e+00 -8.732062e+00 2.470277e+00 2.434805e+00 3.155699e-01 -4.714239e-02 -1.741885e+00 1.548901e+00 -1.357245e-02 1.233334e-01 8.786484e-01 -9.404593e-01 -2.809915e-01 1.739717e-02 4.342738e-01 9.225684e-01 -1.187048e-01 -2.311433e-01 5.298183e-02 5.735928e-01 -6.278988e-01 1.098613e-01 6.067065e-01 9.366269e-02 2.546515e-01 -5.985511e-02 -1.067070e-01 2.505534e-01 -1.112190e-01 -4.416572e-02 2.308019e-01
<VARIANCE> 39
 1.671436e+01 5.392896e+01 5.376490e+01 2.188171e+01 4.412638e+01 3.005756e+01 3.714431e+01 3.948918e+01 3.690749e+01 3.583083e+01 3.370498e+01 1.677618e+01 1.011871e+01 1.771032e+00 5.826916e+00 6.534651e+00 1.277274e+00 3.661552e+00 2.464788e+00 2.191208e+00 1.699262e+00 1.896529e+00 2.519516e+00 1.530671e+00 1.446130e+00 1.185086e+00 3.771383e-01 8.139078e-01 6.670679e-01 2.239449e-01 3.554375e-01 4.471830e-01 3.220751e-01 2.362856e-01 3.133700e-01 4.104538e-01 2.589165e-01 2.937894e-01 1.872285e-01
<GCONST> 1.125711e+02
<STATE> 3
<NUMMIXES> 2
<MIXTURE> 1 7.796121e-01
<MEAN> 39
 -1.311716e+01 -3.576813e+01 2.139565e+01 7.022204e+00 -4.826807e+00 1.270663e+01 -9.120504e+00 5.133091e+00 -1.150361e+00 -5.664924e+00 7.264596e+00 1.966702e+00 1.692735e+00 1.567705e+00 1.623743e+00 -5.154536e-01 7.380916e-01 1.290917e+00 6.320677e-01 5.081024e-01 -4.536502e-01 1.805401e-02 2.365324e-01 -1.196843e-01 1.923467e-01 1.624185e-02 5.193588e-01 6.989718e-01 -2.335004e-01 1.431749e-01 9.612659e-02 -1.755769e-01 2.994207e-02 -9.875304e-02 -5.904603e-02 -2.162763e-01 -2.753378e-01 -8.482154e-02 -8.497640e-02
<VARIANCE> 39
 1.093320e+02 1.961571e+02 1.468990e+02 1.296890e+02 9.282829e+01 7.642264e+01 4.884550e+01 5.631554e+01 8.876939e+01 4.568399e+01 4.682536e+01 2.847531e+01 2.353103e+01 4.043423e+00 7.973630e+00 3.322887e+00 2.703021e+00 2.203894e+00 2.118776e+00 2.503392e+00 1.941188e+00 1.833886e+00 1.954584e+00 1.845330e+00 1.798068e+00 1.085225e+00 3.258657e-01 5.347779e-01 5.078355e-01 2.342996e-01 2.326548e-01 4.586752e-01 4.379236e-01 3.545344e-01 3.633269e-01 4.102148e-01 3.312976e-01 3.096582e-01 1.731842e-01
<GCONST> 1.243917e+02
<MIXTURE> 2 2.203879e-01
<MEAN> 39
 -2.673987e+01 -6.431715e+00 -5.187538e+00 -2.985081e+00 -3.731000e+00 5.794187e-01 -3.163503e+00 1.473150e+00 -9.652280e-01 -3.910875e-01 3.374870e-01 -1.138479e+00 5.452082e-01 1.505993e-03 -1.579517e-02 -2.843738e-03 2.406301e-02 -2.519071e-02 -2.574997e-02 -1.043621e-02 -2.416185e-02 -3.791355e-02 -1.728422e-02 9.071909e-03 -2.814609e-02 -2.367396e-02 4.748693e-02 1.724594e-02 2.158342e-02 5.316581e-02 5.226536e-02 1.189831e-02 -1.009687e-02 9.540074e-03 -2.208378e-02 -1.700779e-02 2.135668e-03 1.931320e-02 3.615771e-02
<VARIANCE> 39
 5.743190e-01 2.077866e+00 2.560791e+00 3.455773e+00 3.997406e+00 3.730457e+00 5.286995e+00 6.304081e+00 5.895489e+00 7.247416e+00 5.513693e+00 4.269819e+00 5.102277e+00 9.728315e-02 2.166464e-01 2.965392e-01 5.196984e-01 4.882219e-01 4.985561e-01 8.143813e-01 1.093526e+00 1.060840e+00 1.237147e+00 7.700617e-01 7.114552e-01 7.066348e-01 3.581048e-02 6.312203e-02 8.097974e-02 1.380729e-01 1.570432e-01 1.399105e-01 2.062264e-01 2.629796e-01 2.701857e-01 3.056937e-01 1.802678e-01 1.637628e-01 1.760240e-01
<GCONST> 5.577873e+01
<STATE> 4
<NUMMIXES> 2
<MIXTURE> 1 9.999757e-01
<MEAN> 39
 3.736345e+00 -2.109690e+01 1.128709e+01 1.427543e+01 3.280591e+00 1.056591e+01 -1.040697e+01 1.076837e+00 -3.244584e-01 -9.478980e+00 3.260055e+00 1.770608e+00 -4.118333e-01 3.085715e+00 2.718669e+00 -2.861506e+00 3.492672e-01 1.555844e+00 -2.138031e+00 -9.082754e-01 2.992422e-01 -1.050864e+00 -1.395354e+00 -2.526173e-01 -7.698074e-02 -2.913578e-01 -3.350830e-01 -5.081256e-01 -3.347645e-01 -2.507756e-01 1.890454e-02 -5.169647e-01 -2.788559e-01 4.737350e-01 -1.131623e-01 -1.679982e-01 2.995934e-01 8.124571e-02 2.478550e-02
<VARIANCE> 39
 1.586164e+02 1.805699e+02 1.079075e+02 1.116022e+02 9.520695e+01 9.180545e+01 5.003222e+01 6.465900e+01 4.144640e+01 4.405719e+01 3.773668e+01 2.747788e+01 2.566684e+01 5.295706e+00 6.126937e+00 7.035977e+00 2.491819e+00 3.125031e+00 5.910262e+00 3.860590e+00 4.225597e+00 2.460225e+00 3.468576e+00 2.569322e+00 1.341220e+00 1.543419e+00 4.023371e-01 6.222951e-01 6.699696e-01 2.573324e-01 2.358558e-01 6.949073e-01 6.199670e-01 4.078517e-01 3.914883e-01 4.654718e-01 3.120056e-01 1.786682e-01 1.601751e-01
<GCONST> 1.293125e+02
<MIXTURE> 2 2.419550e-05
<MEAN> 39
 -1.130219e+01 -4.289686e+01 1.473107e+01 2.173908e+00 -1.640947e+01 6.734856e+00 -1.801012e+01 -6.959002e+00 1.636254e+00 -8.170412e+00 2.836534e+00 2.933157e+00 -1.356207e+00 1.718053e+00 1.543408e+00 -1.698583e+00 -1.345418e+00 -1.465730e+00 -1.606190e+00 4.302302e-01 -2.055212e+00 -1.353568e+00 -8.152224e-01 -4.155361e-01 7.125574e-01 -6.389564e-01 5.144165e-01 -3.245132e-01 3.212690e-01 -4.916637e-02 2.060626e-01 3.180963e-01 -1.525820e-01 9.781932e-01 -2.988018e-01 -2.859083e-01 3.520432e-01 -3.774700e-01 4.606862e-02
<VARIANCE> 39
 1.099559e+01 2.176384e+00 1.914126e+01 2.271895e+00 3.570198e+01 1.714244e+01 2.653961e+00 1.036049e+01 1.829468e+00 1.303223e+00 1.351271e+01 2.305367e+00 6.584400e+00 6.340020e-01 5.341296e-01 1.344052e+00 3.618162e-01 3.933146e-01 2.292136e+00 4.377079e-01 3.399136e-01 4.910922e-01 4.478413e-02 8.739082e-01 3.840969e-01 3.455167e-01 3.797504e-02 1.324904e-02 3.603332e-02 1.740980e-02 1.877607e-02 1.012399e-01 1.786133e-02 4.501736e-02 2.972622e-01 3.459930e-02 6.884515e-03 1.280378e-01 9.097724e-02
<GCONST> 4.239596e+01
<TRANSP> 5
 0.000000e+00 1.000000e+00 0.000000e+00 0.000000e+00 0.000000e+00
 0.000000e+00 9.108486e-01 8.915136e-02 0.000000e+00 0.000000e+00
 0.000000e+00 0.000000e+00 7.842677e-01 2.157322e-01 0.000000e+00
 0.000000e+00 0.000000e+00 0.000000e+00 6.696550e-01 3.303451e-01
 0.000000e+00 0.000000e+00 0.000000e+00 0.000000e+00 0.000000e+00
<ENDHMM>
~h "d"
<BEGINHMM>
<NUMSTATES> 5
<STATE> 2
<NUMMIXES> 2
<MIXTURE> 1 5.000000e-01
<MEAN> 39
 7.101854e+00 -8.396628e+00 3.556108e+00 1.115344e+01 1.179102e+01 2.221345e+00 -1.265765e+01 9.894643e+00 -4.396606e+00 -1.268346e+01 7.073276e+00 -4.457266e-01 -4.231541e+00 -9.558832e-03 -3.674201e-02 1.938235e-03 -1.597570e-02 1.926546e-02 2.693013e-02 -3.043714e-02 -2.072090e-02 -3.030110e-02 -8.278137e-03 3.521827e-02 7.938388e-03 3.159791e-03 -5.571682e-03 9.127316e-03 2.392992e-03 -1.494917e-03 -3.028706e-03 3.115967e-03 7.097944e-03 -4.748584e-03 4.385810e-03 8.952635e-03 -8.025748e-03 -3.143645e-03 1.307084e-03
<VARIANCE> 39
 2.360194e+02 1.651594e+02 2.048424e+02 1.750089e+02 1.660502e+02 1.663665e+02 1.737220e+02 1.097796e+02 8.342805e+01 1.167576e+02 1.105431e+02 3.305947e+01 7.690847e+01 2.963852e+00 3.325507e+00 3.187504e+00 2.527500e+00 2.512348e+00 2.983936e+00 3.704635e+00 2.996754e+00 2.279932e+00 3.349244e+00 3.107353e+00 1.460894e+00 1.828470e+00 2.155882e-01 3.070427e-01 3.392969e-01 2.798096e-01 2.920259e-01 3.277358e-01 4.037215e-01 4.029441e-01 3.451815e-01 4.345122e-01 4.127944e-01 2.263220e-01 2.411487e-01
<GCONST> 1.325710e+02
<MIXTURE> 2 5.000000e-01
<MEAN> 39
 7.101854e+00 -8.396628e+00 3.556108e+00 1.115344e+01 1.179102e+01 2.221345e+00 -1.265765e+01 9.894643e+00 -4.396606e+00 -1.268346e+01 7.073276e+00 -4.457266e-01 -4.231541e+00 -9.558832e-03 -3.674201e-02 1.938235e-03 -1.597570e-02 1.926546e-02 2.693013e-02 -3.043714e-02 -2.072090e-02 -3.030110e-02 -8.278137e-03 3.521827e-02 7.938388e-03 3.159791e-03 -5.571682e-03 9.127316e-03 2.392992e-03 -1.494917e-03 -3.028706e-03 3.115967e-03 7.097944e-03 -4.748584e-03 4.385810e-03 8.952635e-03 -8.025748e-03 -3.143645e-03 1.307084e-03
<VARIANCE> 39
 2.360194e+02 1.651594e+02 2.048424e+02 1.750089e+02 1.660502e+02 1.663665e+02 1.737220e+02 1.097796e+02 8.342805e+01 1.167576e+02 1.105431e+02 3.305947e+01 7.690847e+01 2.963852e+00 3.325507e+00 3.187504e+00 2.527500e+00 2.512348e+00 2.983936e+00 3.704635e+00 2.996754e+00 2.279932e+00 3.349244e+00 3.107353e+00 1.460894e+00 1.828470e+00 2.155882e-01 3.070427e-01 3.392969e-01 2.798096e-01 2.920259e-01 3.277358e-01 4.037215e-01 4.029441e-01 3.451815e-01 4.345122e-01 4.127944e-01 2.263220e-01 2.411487e-01
<GCONST> 1.325710e+02
<STATE> 3
<NUMMIXES> 2
<MIXTURE> 1 5.000000e-01
<MEAN> 39
 6.925705e+00 -7.504791e+00 2.900042e+00 1.152086e+01 1.195006e+01 2.088636e+00 -1.213848e+01 9.804136e+00 -4.056938e+00 -1.216987e+01 6.799855e+00 -5.274221e-01 -3.879093e+00 4.019984e-03 4.273581e-03 -1.707929e-02 -7.750653e-05 8.822141e-03 -1.299154e-03 -4.941680e-03 -1.064990e-03 2.609694e-03 1.442203e-03 5.108762e-03 2.136590e-03 2.075690e-03 -6.612944e-04 1.307838e-03 1.307478e-04 3.696954e-04 1.231927e-04 6.522795e-04 1.188276e-03 -3.379477e-04 6.939733e-04 9.216446e-04 -7.028686e-04 -1.165344e-04 -1.422302e-04
<VARIANCE> 39
 2.328174e+02 1.676801e+02 1.887657e+02 1.620792e+02 1.669206e+02 1.526688e+02 1.731414e+02 1.061128e+02 8.296445e+01 1.197657e+02 1.101774e+02 3.405461e+01 7.633008e+01 3.004297e+00 3.408593e+00 3.199480e+00 2.501674e+00 2.586545e+00 2.942550e+00 3.791147e+00 2.940128e+00 2.368151e+00 3.411957e+00 3.074364e+00 1.432467e+00 1.790678e+00 2.164935e-01 3.167798e-01 3.380449e-01 2.854779e-01 2.998841e-01 3.279351e-01 4.143530e-01 3.971521e-01 3.570040e-01 4.427752e-01 4.098907e-01 2.244692e-01 2.417024e-01
<GCONST> 1.325207e+02
<MIXTURE> 2 5.000000e-01
<MEAN> 39
 6.925705e+00 -7.504791e+00 2.900042e+00 1.152086e+01 1.195006e+01 2.088636e+00 -1.213848e+01 9.804136e+00 -4.056938e+00 -1.216987e+01 6.799855e+00 -5.274221e-01 -3.879093e+00 4.019984e-03 4.273581e-03 -1.707929e-02 -7.750653e-05 8.822141e-03 -1.299154e-03 -4.941680e-03 -1.064990e-03 2.609694e-03 1.442203e-03 5.108762e-03 2.136590e-03 2.075690e-03 -6.612944e-04 1.307838e-03 1.307478e-04 3.696954e-04 1.231927e-04 6.522795e-04 1.188276e-03 -3.379477e-04 6.939733e-04 9.216446e-04 -7.028686e-04 -1.165344e-04 -1.422302e-04
<VARIANCE> 39
 2.328174e+02 1.676801e+02 1.887657e+02 1.620792e+02 1.669206e+02 1.526688e+02 1.731414e+02 1.061128e+02 8.296445e+01 1.197657e+02 1.101774e+02 3.405461e+01 7.633008e+01 3.004297e+00 3.408593e+00 3.199480e+00 2.501674e+00 2.586545e+00 2.942550e+00 3.791147e+00 2.940128e+00 2.368151e+00 3.411957e+00 3.074364e+00 1.432467e+00 1.790678e+00 2.164935e-01 3.167798e-01 3.380449e-01 2.854779e-01 2.998841e-01 3.279351e-01 4.143530e-01 3.971521e-01 3.570040e-01 4.427752e-01 4.098907e-01 2.244692e-01 2.417024e-01
<GCONST> 1.325207e+02
<STATE> 4
<NUMMIXES> 2
<MIXTURE> 1 5.000000e-01
<MEAN> 39
 8.025181e+00 -7.486059e+00 1.525227e+00 1.228819e+01 1.290630e+01 1.216577e+00 -1.295596e+01 9.964936e+00 -3.979464e+00 -1.233214e+01 7.318875e+00 -4.701975e-01 -3.978436e+00 3.229319e-03 4.946915e-02 -1.173312e-02 2.294162e-02 2.665040e-02 -2.065540e-03 8.947377e-03 -1.732805e-02 -1.416846e-03 1.677941e-02 -1.401486e-03 8.662662e-03 -6.996916e-03 -5.826169e-03 5.148666e-03 4.600680e-03 2.633845e-03 -2.645331e-03 3.546138e-03 7.906348e-03 -4.989137e-03 1.880756e-03 7.512355e-03 -5.090095e-03 -2.323959e-03 1.292246e-03
<VARIANCE> 39
 2.115794e+02 1.545269e+02 1.730040e+02 1.513249e+02 1.840795e+02 1.423417e+02 1.844078e+02 1.083331e+02 8.519413e+01 1.207049e+02 1.110357e+02 3.439395e+01 7.566420e+01 2.729726e+00 3.314958e+00 2.942444e+00 2.297351e+00 2.572432e+00 2.694612e+00 3.926162e+00 2.807779e+00 2.415924e+00 3.405931e+00 3.068559e+00 1.348365e+00 1.690290e+00 2.063826e-01 3.024772e-01 3.121639e-01 2.674428e-01 2.963154e-01 3.015768e-01 4.200150e-01 3.833773e-01 3.569945e-01 4.291250e-01 4.091224e-01 2.130497e-01 2.304186e-01
<GCONST> 1.313536e+02
<MIXTURE> 2 5.000000e-01
<MEAN> 39
 8.025181e+00 -7.486059e+00 1.525227e+00 1.228819e+01 1.290630e+01 1.216577e+00 -1.295596e+01 9.964936e+00 -3.979464e+00 -1.233214e+01 7.318875e+00 -4.701975e-01 -3.978436e+00 3.229319e-03 4.946915e-02 -1.173312e-02 2.294162e-02 2.665040e-02 -2.065540e-03 8.947377e-03 -1.732805e-02 -1.416846e-03 1.677941e-02 -1.401486e-03 8.662662e-03 -6.996916e-03 -5.826169e-03 5.148666e-03 4.600680e-03 2.633845e-03 -2.645331e-03 3.546138e-03 7.906348e-03 -4.989137e-03 1.880756e-03 7.512355e-03 -5.090095e-03 -2.323959e-03 1.292246e-03
<VARIANCE> 39
 2.115794e+02 1.545269e+02 1.730040e+02 1.513249e+02 1.840795e+02 1.423417e+02 1.844078e+02 1.083331e+02 8.519413e+01 1.207049e+02 1.110357e+02 3.439395e+01 7.566420e+01 2.729726e+00 3.314958e+00 2.942444e+00 2.297351e+00 2.572432e+00 2.694612e+00 3.926162e+00 2.807779e+00 2.415924e+00 3.405931e+00 3.068559e+00 1.348365e+00 1.690290e+00 2.063826e-01 3.024772e-01 3.121639e-01 2.674428e-01 2.963154e-01 3.015768e-01 4.200150e-01 3.833773e-01 3.569945e-01 4.291250e-01 4.091224e-01 2.130497e-01 2.304186e-01
<GCONST> 1.313536e+02
<TRANSP> 5
 0.000000e+00 1.000000e+00 0.000000e+00 0.000000e+00 0.000000e+00
 0.000000e+00 9.839584e-01 1.604167e-02 0.000000e+00 0.000000e+00
 0.000000e+00 0.000000e+00 9.839584e-01 1.604166e-02 0.000000e+00
 0.000000e+00 0.000000e+00 0.000000e+00 9.839584e-01 1.604164e-02
 0.000000e+00 0.000000e+00 0.000000e+00 0.000000e+00 0.000000e+00
<ENDHMM>
~h "f"
<BEGINHMM>
<NUMSTATES> 5
<STATE> 2
<NUMMIXES> 2
<MIXTURE> 1 1.000000e+00
<MEAN> 39
 1.546351e+01 8.066363e+00 5.777087e+00 1.156954e+01 -2.031794e-01 -1.079159e+01 -1.021880e+00 1.864639e+01 -1.922363e+00 -1.606913e+01 -5.104381e-02 1.276827e+00 -6.968389e+00 -1.836959e-01 6.602739e-01 1.216616e+00 6.173633e-01 2.267445e-01 -4.482185e-01 -7.131734e-01 -6.100386e-01 -2.123418e-01 -7.455393e-01 -8.407655e-01 -8.039410e-02 3.275328e-01 2.369949e-02 -7.006532e-02 -1.703400e-02 3.457699e-02 1.453621e-01 1.425669e-01 -1.355236e-01 9.006590e-02 7.952839e-02 2.323581e-02 4.793596e-02 -6.882589e-03 -7.256541e-03
<VARIANCE> 39
 5.414076e+01 9.458707e+01 1.386643e+02 3.325119e+01 9.702809e+01 3.356404e+02 1.024571e+02 1.416771e+02 5.809897e+00 7.157748e+01 1.349711e+01 4.928504e+01 6.698755e+00 1.490065e-01 6.276081e-01 7.301825e-01 5.778714e-01 2.355280e-01 1.626453e-01 7.554817e-02 2.389774e-01 1.352700e+00 7.658869e-01 4.312932e-02 1.829380e-01 2.571252e-01 5.078506e-02 1.938759e-02 1.622549e-02 1.085449e-02 4.142914e-04 9.391397e-03 3.138281e-02 1.802034e-02 5.360310e-03 1.327456e-02 5.244710e-02 1.914142e-02 1.035200e-02
<GCONST> 4.985959e+01
<MIXTURE> 2 0.000000e+00
<MEAN> 39
 -1.585175e+01 -1.551351e+00 7.729309e+00 -7.243529e+00 1.722945e+01 -4.595492e+00 8.562895e+00 -3.340965e+00 3.503048e+00 -4.349793e+00 2.257324e+00 -9.441703e-01 1.405435e+00 -2.463601e+00 -8.618322e-01 -7.031665e-01 -4.471729e-01 2.791805e-01 3.659815e-01 -1.137626e-01 -3.731829e-01 -3.769362e-02 -3.910118e-02 3.242532e-01 -1.921992e-02 3.981748e-01 4.077158e-01 -1.006740e-01 -2.800901e-01 -9.457918e-02 -3.625076e-01 -3.459834e-01 -2.940953e-01 2.188951e-02 -1.688870e-01 -1.846896e-01 -1.475902e-01 -2.191112e-03 -1.261082e-01
<VARIANCE> 39
 3.794474e+01 3.006912e+01 3.696891e+01 3.629724e+01 4.906600e+01 3.866109e+01 4.917469e+01 3.866268e+01 3.933981e+01 3.216502e+01 2.111969e+01 2.085070e+01 1.584314e+01 1.946436e+00 1.199190e+00 1.955029e+00 2.033741e+00 2.686450e+00 2.348367e+00 2.500819e+00 2.211571e+00 1.997479e+00 1.933216e+00 1.770481e+00 1.567442e+00 1.408696e+00 2.019766e-01 2.254066e-01 2.903521e-01 2.933460e-01 3.599655e-01 3.714276e-01 4.149454e-01 4.019520e-01 3.977194e-01 3.726283e-01 3.362232e-01 2.893453e-01 2.591272e-01
<GCONST> 1.105595e+02
<STATE> 3
<NUMMIXES> 2
<MIXTURE> 1 8.919221e-01
<MEAN> 39
 1.500954e+01 9.142440e+00 6.355311e+00 1.197602e+01 -1.334961e+00 -1.472364e+01 -3.813130e+00 1.907412e+01 -6.354980e-01 -1.781902e+01 -1.126050e+00 2.508506e+00 -6.637996e+00 4.864054e-01 -4.088012e-01 2.583886e-01 4.272766e-02 2.293494e-01 2.514355e-01 -6.276784e-01 -6.646066e-01 -3.678595e-01 -1.451387e-01 -2.554666e-01 -9.875835e-02 3.912161e-01 2.192714e-01 -3.050057e-01 -3.377043e-01 -5.251335e-02 3.446390e-02 1.141507e-01 1.144046e-01 1.582986e-01 -4.869007e-02 1.122039e-01 1.961473e-01 -3.786321e-02 -1.486335e-01
<VARIANCE> 39
 4.370129e+01 1.076544e+02 1.468279e+02 6.434277e+01 8.194470e+01 3.290909e+02 1.606042e+02 9.139575e+01 1.311644e+01 3.342928e+01 3.378918e+00 3.953448e+01 9.786583e+00 1.753674e-01 2.082657e-01 6.708616e-02 1.825359e-01 6.139955e-02 6.634694e-01 2.727280e-01 1.071117e+00 2.616920e-01 3.528191e-01 2.539771e-01 4.509944e-02 2.758955e-01 7.825337e-02 3.004083e-02 7.387692e-02 1.324296e-01 4.370851e-03 8.534482e-02 6.715350e-02 1.723997e-01 1.375457e-01 9.968465e-02 1.124665e-01 9.031760e-03 9.708385e-03
<GCONST> 6.321039e+01
<MIXTURE> 2 1.080779e-01
<MEAN> 39
 3.639828e+00 2.334219e+01 2.275135e+01 1.852283e+01 1.423527e+01 1.180350e+01 1.503383e+00 3.615908e+00 -5.643132e+00 -7.883940e+00 -4.223375e+00 -8.214487e+00 -1.385839e+00 7.378227e-01 3.235949e-01 3.322033e-01 2.980543e-01 5.087882e-01 -9.404181e-01 -6.376179e-01 -4.802291e-01 -1.009100e+00 -7.107889e-01 -4.104046e-01 7.652082e-02 7.022230e-01 8.588254e-02 -5.611768e-01 -7.325470e-01 -3.333505e-01 -7.526119e-02 1.938971e-01 3.722913e-01 3.623554e-01 5.790925e-01 5.305554e-01 -6.042129e-02 1.178928e-01 -2.853412e-01
<VARIANCE> 39
 -6.103516e-05 6.103516e-05 6.103516e-05 -6.103516e-05 0.000000e+00 0.000000e+00 -4.768372e-07 0.000000e+00 0.000000e+00 0.000000e+00 -3.814697e-06 3.814697e-06 0.000000e+00 5.960464e-08 0.000000e+00 0.000000e+00 2.980232e-08 5.960464e-08 5.960464e-08 -2.980232e-08 1.490116e-08 0.000000e+00 0.000000e+00 2.980232e-08 0.000000e+00 0.000000e+00 1.862645e-09 5.960464e-08 5.960464e-08 -1.490116e-08 -1.862645e-09 3.725290e-09 0.000000e+00 0.000000e+00 0.000000e+00 -2.980232e-08 9.313226e-10 -9.313226e-10 0.000000e+00
<GCONST> -2.500001e+11
<STATE> 4
<NUMMIXES> 2
<MIXTURE> 1 1.000000e+00
<MEAN> 39
 1.563550e+01 9.588035e+00 7.773690e+00 1.376101e+01 1.044673e+00 -1.204077e+01 -4.013489e+00 1.863998e+01 -2.077244e+00 -1.854610e+01 -1.635505e+00 7.408346e-01 -6.078857e+00 5.091181e-01 -2.088434e-01 -1.888148e-01 3.724668e-01 1.810653e-01 -4.214696e-01 -5.951856e-01 -2.476000e-01 -2.037531e-01 -1.716917e-01 -1.606762e-01 -4.892280e-02 1.969808e-02 2.727935e-02 -2.370283e-01 -3.419505e-01 -1.169188e-01 -1.773208e-01 -4.522111e-02 3.143612e-01 2.096903e-01 8.592626e-02 2.407036e-01 1.500352e-01 3.129468e-02 -1.844227e-01
<VARIANCE> 39
 6.774094e+01 1.264858e+02 1.803363e+02 5.068149e+01 1.106631e+02 3.728043e+02 1.160955e+02 1.588104e+02 1.561560e+01 4.872560e+01 2.160502e+01 4.578746e+01 1.917294e+01 2.749257e-01 5.470896e-02 6.130482e-02 1.863509e-01 5.917251e-03 2.000823e-01 6.268883e-02 8.871517e-01 2.993155e-02 3.569007e-01 5.593122e-01 1.814981e-01 2.569032e-01 5.666196e-03 1.077255e-01 1.582292e-01 9.416197e-02 1.022348e-02 5.736048e-02 3.108069e-03 7.746993e-03 1.807400e-01 9.032615e-02 4.878630e-03 1.257257e-02 5.053908e-02
<GCONST> 5.382234e+01
<MIXTURE> 2 0.000000e+00
<MEAN> 39
 -1.919306e+01 -9.236015e+00 3.689552e+00 -1.223476e+01 1.489335e+01 -6.318414e+00 7.143879e+00 -6.103525e+00 3.174531e+00 -6.095226e+00 4.311400e+00 -2.684157e-01 3.222131e+00 2.403928e+00 6.682029e-01 1.196788e+00 8.050752e-01 2.333375e-01 1.086554e-01 -3.363338e-03 2.492941e-01 -2.023524e-01 1.609932e-01 -2.533848e-01 3.826904e-02 -4.694991e-01 5.983038e-01 5.120639e-01 1.572707e-01 3.195376e-01 -1.208165e-01 -2.085501e-01 -3.490097e-01 1.940116e-01 -1.673514e-01 -7.740311e-02 -3.054772e-01 -1.087985e-01 -3.564875e-01
<VARIANCE> 39
 3.042087e+01 2.921870e+01 3.283026e+01 3.405130e+01 4.104346e+01 3.583276e+01 4.287782e+01 3.903381e+01 3.163493e+01 3.066770e+01 2.307189e+01 1.659729e+01 1.461290e+01 2.254787e+00 2.112019e+00 1.727328e+00 2.238523e+00 2.263419e+00 2.361685e+00 2.342651e+00 2.605778e+00 2.095444e+00 2.131377e+00 2.099487e+00 1.836933e+00 1.663770e+00 2.622992e-01 2.496722e-01 3.391603e-01 3.445290e-01 4.448123e-01 5.514072e-01 5.425829e-01 4.482497e-01 4.572209e-01 4.257733e-01 3.892074e-01 3.408262e-01 2.868415e-01
<GCONST> 1.128664e+02
<TRANSP> 5
 0.000000e+00 1.000000e+00 0.000000e+00 0.000000e+00 0.000000e+00
 0.000000e+00 1.056945e-14 1.000000e+00 0.000000e+00 0.000000e+00
 0.000000e+00 0.000000e+00 0.000000e+00 1.000000e+00 0.000000e+00
 0.000000e+00 0.000000e+00 0.000000e+00 1.552542e-11 1.000000e+00
 0.000000e+00 0.000000e+00 0.000000e+00 0.000000e+00 0.000000e+00
<ENDHMM>
~h "g"
<BEGINHMM>
<NUMSTATES> 5
<STATE> 2
<NUMMIXES> 2
<MIXTURE> 1 5.000000e-01
<MEAN> 39
 7.754012e+00 -8.132266e+00 4.044785e+00 1.092090e+01 1.125904e+01 1.595558e+00 -1.271159e+01 1.105523e+01 -4.103239e+00 -1.353069e+01 6.863843e+00 -5.620891e-01 -4.435633e+00 1.321688e-02 -5.327240e-02 2.347218e-04 -1.137827e-02 2.613435e-02 3.370859e-03 -5.251846e-02 -4.456976e-03 -3.608797e-02 -2.033600e-02 5.317743e-02 1.434295e-02 -5.319072e-03 -4.780856e-03 1.103493e-02 2.483323e-03 7.603337e-04 -1.993129e-03 -6.849648e-04 5.926888e-03 -1.578475e-03 5.123591e-03 7.588546e-03 -7.720950e-03 -5.203443e-03 -1.372252e-03
<VARIANCE> 39
 2.264800e+02 1.759278e+02 2.151025e+02 1.835645e+02 1.763106e+02 1.730139e+02 1.767287e+02 1.213310e+02 8.759659e+01 1.118983e+02 1.104581e+02 3.433683e+01 7.691714e+01 2.862028e+00 3.434605e+00 3.166463e+00 2.494630e+00 2.475888e+00 2.995654e+00 3.767422e+00 3.023348e+00 2.177472e+00 3.209717e+00 3.172615e+00 1.439335e+00 1.786584e+00 2.073827e-01 3.036082e-01 3.166443e-01 2.724752e-01 2.760568e-01 3.261615e-01 4.022623e-01 3.972498e-01 3.258156e-01 4.145917e-01 4.077189e-01 2.216468e-01 2.336096e-01
<GCONST> 1.324418e+02
<MIXTURE> 2 5.000000e-01
<MEAN> 39
 7.754012e+00 -8.132266e+00 4.044785e+00 1.092090e+01 1.125904e+01 1.595558e+00 -1.271159e+01 1.105523e+01 -4.103239e+00 -1.353069e+01 6.863843e+00 -5.620891e-01 -4.435633e+00 1.321688e-02 -5.327240e-02 2.347218e-04 -1.137827e-02 2.613435e-02 3.370859e-03 -5.251846e-02 -4.456976e-03 -3.608797e-02 -2.033600e-02 5.317743e-02 1.434295e-02 -5.319072e-03 -4.780856e-03 1.103493e-02 2.483323e-03 7.603337e-04 -1.993129e-03 -6.849648e-04 5.926888e-03 -1.578475e-03 5.123591e-03 7.588546e-03 -7.720950e-03 -5.203443e-03 -1.372252e-03
<VARIANCE> 39
 2.264800e+02 1.759278e+02 2.151025e+02 1.835645e+02 1.763106e+02 1.730139e+02 1.767287e+02 1.213310e+02 8.759659e+01 1.118983e+02 1.104581e+02 3.433683e+01 7.691714e+01 2.862028e+00 3.434605e+00 3.166463e+00 2.494630e+00 2.475888e+00 2.995654e+00 3.767422e+00 3.023348e+00 2.177472e+00 3.209717e+00 3.172615e+00 1.439335e+00 1.786584e+00 2.073827e-01 3.036082e-01 3.166443e-01 2.724752e-01 2.760568e-01 3.261615e-01 4.022623e-01 3.972498e-01 3.258156e-01 4.145917e-01 4.077189e-01 2.216468e-01 2.336096e-01
<GCONST> 1.324418e+02
<STATE> 3
<NUMMIXES> 2
<MIXTURE> 1 5.000000e-01
<MEAN> 39
 7.458842e+00 -7.616378e+00 3.038026e+00 1.146963e+01 1.208088e+01 1.672179e+00 -1.279594e+01 1.020050e+01 -4.117707e+00 -1.297425e+01 6.699971e+00 -6.900674e-01 -4.371788e+00 1.977311e-03 2.213350e-03 -1.288940e-02 1.055818e-02 1.296881e-02 -6.545476e-03 -7.237270e-03 -2.986631e-03 3.916583e-03 7.424051e-03 6.516848e-03 1.255785e-03 -2.034925e-03 -1.507788e-03 2.844464e-03 9.406369e-04 -6.511793e-05 -1.511577e-03 1.454658e-03 3.345472e-03 -8.458633e-04 1.479109e-03 2.117570e-03 -2.385466e-03 -8.707689e-04 1.557783e-04
<VARIANCE> 39
 2.238389e+02 1.784494e+02 1.945401e+02 1.776404e+02 1.684674e+02 1.637274e+02 1.675927e+02 1.116049e+02 8.422214e+01 1.132309e+02 1.119589e+02 3.499087e+01 7.628324e+01 2.987767e+00 3.418391e+00 3.164365e+00 2.651067e+00 2.551275e+00 2.978100e+00 3.778556e+00 2.953368e+00 2.256567e+00 3.252473e+00 3.138505e+00 1.436714e+00 1.849838e+00 2.165999e-01 3.139066e-01 3.249929e-01 2.933781e-01 2.898507e-01 3.265586e-01 4.159384e-01 3.976609e-01 3.435440e-01 4.275768e-01 4.114321e-01 2.241075e-01 2.470831e-01
<GCONST> 1.326648e+02
<MIXTURE> 2 5.000000e-01
<MEAN> 39
 7.458842e+00 -7.616378e+00 3.038026e+00 1.146963e+01 1.208088e+01 1.672179e+00 -1.279594e+01 1.020050e+01 -4.117707e+00 -1.297425e+01 6.699971e+00 -6.900674e-01 -4.371788e+00 1.977311e-03 2.213350e-03 -1.288940e-02 1.055818e-02 1.296881e-02 -6.545476e-03 -7.237270e-03 -2.986631e-03 3.916583e-03 7.424051e-03 6.516848e-03 1.255785e-03 -2.034925e-03 -1.507788e-03 2.844464e-03 9.406369e-04 -6.511793e-05 -1.511577e-03 1.454658e-03 3.345472e-03 -8.458633e-04 1.479109e-03 2.117570e-03 -2.385466e-03 -8.707689e-04 1.557783e-04
<VARIANCE> 39
 2.238389e+02 1.784494e+02 1.945401e+02 1.776404e+02 1.684674e+02 1.637274e+02 1.675927e+02 1.116049e+02 8.422214e+01 1.132309e+02 1.119589e+02 3.499087e+01 7.628324e+01 2.987767e+00 3.418391e+00 3.164365e+00 2.651067e+00 2.551275e+00 2.978100e+00 3.778556e+00 2.953368e+00 2.256567e+00 3.252473e+00 3.138505e+00 1.436714e+00 1.849838e+00 2.165999e-01 3.139066e-01 3.249929e-01 2.933781e-01 2.898507e-01 3.265586e-01 4.159384e-01 3.976609e-01 3.435440e-01 4.275768e-01 4.114321e-01 2.241075e-01 2.470831e-01
<GCONST> 1.326648e+02
<STATE> 4
<NUMMIXES> 2
<MIXTURE> 1 5.000000e-01
<MEAN> 39
 8.499305e+00 -7.231810e+00 2.075814e+00 1.252973e+01 1.342058e+01 1.297624e+00 -1.373808e+01 9.945004e+00 -4.066822e+00 -1.304615e+01 7.404350e+00 -4.265880e-01 -4.686849e+00 -1.320013e-02 7.470059e-02 1.356775e-02 1.921682e-02 6.040042e-03 8.090750e-03 2.510378e-02 -3.420996e-02 1.898402e-02 5.264882e-02 -1.784408e-02 4.998255e-03 8.048416e-03 -4.268847e-03 7.795810e-03 4.692696e-03 -1.035463e-03 -4.466755e-03 3.063360e-03 7.918235e-03 -2.211381e-03 1.873514e-03 4.962880e-03 -5.116272e-03 -1.668511e-03 1.430348e-03
<VARIANCE> 39
 1.967700e+02 1.721053e+02 1.775524e+02 1.652984e+02 1.664577e+02 1.557596e+02 1.704942e+02 1.099903e+02 8.090590e+01 1.174558e+02 1.167384e+02 3.785283e+01 7.673070e+01 2.750988e+00 3.216853e+00 3.020937e+00 2.550137e+00 2.528740e+00 2.900901e+00 3.904341e+00 3.014906e+00 2.279737e+00 3.308260e+00 3.233256e+00 1.432136e+00 1.845123e+00 2.035716e-01 2.982776e-01 3.204396e-01 2.857086e-01 2.901424e-01 3.123171e-01 4.266498e-01 4.133627e-01 3.504709e-01 4.286264e-01 4.234455e-01 2.215499e-01 2.464517e-01
<GCONST> 1.321447e+02
<MIXTURE> 2 5.000000e-01
<MEAN> 39
 8.499305e+00 -7.231810e+00 2.075814e+00 1.252973e+01 1.342058e+01 1.297624e+00 -1.373808e+01 9.945004e+00 -4.066822e+00 -1.304615e+01 7.404350e+00 -4.265880e-01 -4.686849e+00 -1.320013e-02 7.470059e-02 1.356775e-02 1.921682e-02 6.040042e-03 8.090750e-03 2.510378e-02 -3.420996e-02 1.898402e-02 5.264882e-02 -1.784408e-02 4.998255e-03 8.048416e-03 -4.268847e-03 7.795810e-03 4.692696e-03 -1.035463e-03 -4.466755e-03 3.063360e-03 7.918235e-03 -2.211381e-03 1.873514e-03 4.962880e-03 -5.116272e-03 -1.668511e-03 1.430348e-03
<VARIANCE> 39
 1.967700e+02 1.721053e+02 1.775524e+02 1.652984e+02 1.664577e+02 1.557596e+02 1.704942e+02 1.099903e+02 8.090590e+01 1.174558e+02 1.167384e+02 3.785283e+01 7.673070e+01 2.750988e+00 3.216853e+00 3.020937e+00 2.550137e+00 2.528740e+00 2.900901e+00 3.904341e+00 3.014906e+00 2.279737e+00 3.308260e+00 3.233256e+00 1.432136e+00 1.845123e+00 2.035716e-01 2.982776e-01 3.204396e-01 2.857086e-01 2.901424e-01 3.123171e-01 4.266498e-01 4.133627e-01 3.504709e-01 4.286264e-01 4.234455e-01 2.215499e-01 2.464517e-01
<GCONST> 1.321447e+02
<TRANSP> 5
 0.000000e+00 1.000000e+00 0.000000e+00 0.000000e+00 0.000000e+00
 0.000000e+00 9.874594e-01 1.254059e-02 0.000000e+00 0.000000e+00
 0.000000e+00 0.000000e+00 9.874594e-01 1.254059e-02 0.000000e+00
 0.000000e+00 0.000000e+00 0.000000e+00 9.874594e-01 1.254057e-02
 0.000000e+00 0.000000e+00 0.000000e+00 0.000000e+00 0.000000e+00
<ENDHMM>
~h "h"
<BEGINHMM>
<NUMSTATES> 5
<STATE> 2
<NUMMIXES> 2
<MIXTURE> 1 1.940307e-01
<MEAN> 39
 1.105127e+01 -4.381884e+00 -2.845760e+00 1.278870e+01 1.281592e+01 3.865516e+00 -7.099881e+00 1.048108e+01 2.070350e+00 4.840701e+00 2.250385e+01 2.916632e+00 -7.595773e+00 -3.800552e-01 -4.233396e-02 7.248512e-02 -2.844827e-02 -6.236049e-02 2.188766e-01 1.479645e-01 2.832218e-02 6.689413e-01 8.986953e-01 3.435137e-01 1.633493e-01 4.963813e-02 5.923621e-02 7.193968e-02 6.116343e-02 9.151199e-02 4.980038e-02 -1.080233e-01 -1.592949e-01 -9.046589e-02 -1.723504e-01 -3.149499e-01 -2.297386e-01 -2.231799e-02 3.861448e-02
<VARIANCE> 39
 2.448856e+01 4.462793e+01 7.851611e+01 8.415784e+01 9.161118e+01 5.156541e+01 1.392357e+02 5.967216e+01 6.798714e+01 2.252492e+02 8.962671e+01 5.224992e+01 5.640397e+01 2.469386e-01 6.132386e-01 8.279639e-01 1.114113e+00 1.167745e+00 1.023208e+00 1.897923e+00 1.750998e+00 1.563455e+00 2.500254e+00 2.445282e+00 1.222065e+00 1.304749e+00 2.651082e-02 7.679163e-02 9.666937e-02 1.278771e-01 1.595114e-01 1.566220e-01 3.046872e-01 2.621906e-01 2.667899e-01 2.758888e-01 3.066555e-01 2.145371e-01 2.289266e-01
<GCONST> 1.055992e+02
<MIXTURE> 2 8.059692e-01
<MEAN> 39
 -9.065873e+00 -5.896749e+00 -8.007478e-01 2.837888e+00 8.422635e-01 3.167948e+00 -9.451377e-01 9.305752e+00 1.708102e-02 -2.999185e+00 3.898679e+00 1.554169e+00 1.597492e+00 -2.604817e-01 -5.490674e-01 -4.195497e-01 -3.891696e-01 -5.447769e-01 -2.749837e-01 1.695592e-01 2.093783e-01 5.168142e-02 1.328027e-02 2.895061e-03 6.730777e-02 1.212215e-01 9.646905e-02 -5.818091e-03 -1.036178e-02 3.956906e-02 2.379185e-02 -5.172312e-02 -7.353442e-02 -2.216138e-02 -5.088473e-02 -6.310484e-02 1.270970e-02 -1.735067e-02 -4.650753e-02
<VARIANCE> 39
 3.084880e+02 1.344713e+02 1.783053e+02 1.292896e+02 9.074260e+01 1.053480e+02 7.167049e+01 8.966081e+01 5.309455e+01 5.671636e+01 4.663516e+01 2.412191e+01 2.572300e+01 2.771243e+00 2.363124e+00 2.362109e+00 2.246128e+00 2.309568e+00 2.523914e+00 2.615990e+00 2.748321e+00 2.128513e+00 2.315861e+00 1.980479e+00 1.350816e+00 1.315686e+00 1.846942e-01 2.250666e-01 2.982113e-01 3.008558e-01 2.883464e-01 3.322358e-01 3.482521e-01 3.803795e-01 3.706034e-01 3.233977e-01 2.877332e-01 2.337202e-01 2.199012e-01
<GCONST> 1.224155e+02
<STATE> 3
<NUMMIXES> 2
<MIXTURE> 1 1.491469e-01
<MEAN> 39
 3.668725e+00 5.692134e-01 6.365202e+00 2.148750e+01 1.790488e+01 4.292629e+00 -8.408707e+00 1.095252e+01 5.979145e+00 4.061774e+00 1.493920e+01 -1.271363e+00 -8.672889e+00 -1.265103e-02 7.412448e-02 1.719133e-01 8.171023e-02 9.529507e-02 -3.715790e-02 -1.506645e-01 7.065369e-02 -1.766583e-01 -3.681651e-01 7.442307e-02 1.752237e-01 -6.446455e-02 1.233108e-01 3.581286e-02 1.387925e-02 8.119968e-02 6.315688e-02 -1.679114e-01 -3.178734e-01 -2.855591e-01 -4.377655e-01 -4.164577e-01 -1.381709e-01 -4.247732e-02 -5.584049e-02
<VARIANCE> 39
 4.071130e+01 3.713280e+01 4.345708e+01 4.063556e+01 2.431905e+01 3.827689e+01 6.911831e+01 6.212109e+01 5.695559e+01 7.865043e+01 6.894269e+01 3.795455e+01 3.949658e+01 4.582075e-01 7.062871e-01 1.139157e+00 1.410420e+00 1.468199e+00 1.299614e+00 2.101085e+00 1.732381e+00 1.592633e+00 2.089583e+00 2.224237e+00 1.438842e+00 1.192836e+00 2.531473e-02 7.440174e-02 8.679092e-02 1.440376e-01 1.778642e-01 1.557462e-01 2.640853e-01 2.942758e-01 2.312975e-01 2.710023e-01 2.957999e-01 2.409216e-01 2.024277e-01
<GCONST> 1.016488e+02
<MIXTURE> 2 8.508531e-01
<MEAN> 39
 6.971784e+00 -4.674685e+00 -1.717639e+00 4.993951e+00 -2.825754e-01 1.286225e-01 2.015678e+00 1.773288e+01 2.123099e+00 -5.640581e+00 6.171594e+00 2.378418e+00 5.917233e-01 2.752192e-03 -2.793467e-02 -1.768650e-02 -7.211348e-02 -2.356368e-01 -1.599172e-01 1.102811e-01 7.195519e-02 -3.891991e-03 2.226181e-02 -2.727971e-02 -2.425379e-02 -6.771326e-03 5.646440e-02 5.645110e-02 3.647036e-02 9.053172e-02 1.024904e-01 -6.278819e-02 -1.815437e-01 -7.477378e-02 -7.952264e-02 -9.688408e-02 1.473678e-02 -2.530615e-02 -8.310837e-02
<VARIANCE> 39
 1.975367e+02 1.377838e+02 1.420080e+02 1.077712e+02 1.457731e+02 1.084564e+02 2.021945e+02 1.438040e+02 7.985423e+01 1.112696e+02 8.407782e+01 3.030790e+01 5.250844e+01 1.089293e+00 1.179345e+00 1.274097e+00 1.308810e+00 1.520194e+00 1.696478e+00 2.055966e+00 1.929468e+00 1.444503e+00 1.978197e+00 1.758608e+00 1.025084e+00 1.176025e+00 6.870848e-02 1.283534e-01 1.480773e-01 1.616494e-01 1.884846e-01 2.037583e-01 2.803207e-01 2.752213e-01 2.218069e-01 2.561297e-01 2.471157e-01 1.910608e-01 1.780233e-01
<GCONST> 1.153240e+02
<STATE> 4
<NUMMIXES> 2
<MIXTURE> 1 2.536179e-01
<MEAN> 39
 9.977176e+00 8.011398e-01 3.598111e+00 1.681970e+01 1.367348e+01 -9.447737e-01 -1.163881e+01 1.327173e+01 3.464539e+00 -1.695872e+00 1.525221e+01 -1.400945e+00 -1.024636e+01 4.441556e-01 8.807299e-02 -1.136136e-01 -4.091778e-02 1.894855e-01 -5.443462e-01 -1.056342e+00 -3.752609e-01 -7.981099e-01 -9.260206e-01 2.419238e-01 2.380562e-01 -1.125853e-01 5.739730e-02 -7.727513e-02 -1.353008e-01 1.794221e-02 8.025234e-02 -2.593882e-02 -6.069423e-02 -4.609805e-02 -4.685472e-02 -7.524056e-02 -3.613780e-02 6.634913e-02 5.265170e-02
<VARIANCE> 39
 2.850153e+01 5.768083e+01 4.706833e+01 7.256186e+01 1.036094e+02 5.594433e+01 1.080618e+02 7.347324e+01 6.241029e+01 1.337382e+02 8.535811e+01 3.246715e+01 4.713184e+01 2.409477e-01 5.227566e-01 8.454184e-01 1.070531e+00 1.023374e+00 1.309980e+00 1.683957e+00 1.612825e+00 1.237682e+00 1.671411e+00 1.592466e+00 9.865893e-01 9.998066e-01 2.389159e-02 7.613590e-02 1.267663e-01 1.579967e-01 1.524843e-01 1.764817e-01 2.586582e-01 2.505709e-01 2.062525e-01 2.663371e-01 2.797131e-01 1.797163e-01 1.760397e-01
<GCONST> 1.017710e+02
<MIXTURE> 2 7.463824e-01
<MEAN> 39
 4.218739e+00 -1.116195e+01 5.699549e-01 5.506129e+00 -4.684862e-01 7.259816e-01 -2.136074e+00 1.406689e+01 -8.160939e-01 -7.285127e+00 5.973222e+00 9.567847e-01 -2.020855e-01 4.486908e-01 4.738551e-01 -1.054847e-02 5.117484e-01 4.171779e-01 -1.863280e-01 -2.456782e-01 -1.366985e-01 1.177385e-02 -1.666141e-01 -6.733698e-02 -3.423020e-02 -1.819273e-01 3.512503e-02 4.909525e-02 -3.195000e-02 2.615168e-02 7.420901e-02 -6.258706e-02 -1.196515e-01 -1.635930e-02 1.318618e-02 -2.386870e-02 1.425248e-02 -3.297251e-03 -3.855717e-02
<VARIANCE> 39
 2.319914e+02 2.647236e+02 2.126859e+02 1.860458e+02 2.108407e+02 1.850130e+02 1.533183e+02 1.607545e+02 9.267349e+01 1.018553e+02 8.970287e+01 3.218570e+01 5.395781e+01 2.100282e+00 2.846384e+00 3.001623e+00 2.203132e+00 2.450037e+00 2.868831e+00 3.154392e+00 2.570529e+00 2.269928e+00 2.798371e+00 2.242116e+00 1.354281e+00 1.433067e+00 1.511200e-01 2.711903e-01 3.101321e-01 2.739546e-01 2.887611e-01 3.560801e-01 3.778701e-01 3.601523e-01 3.211471e-01 3.716728e-01 3.247117e-01 2.303980e-01 2.077495e-01
<GCONST> 1.299014e+02
<TRANSP> 5
 0.000000e+00 1.000000e+00 0.000000e+00 0.000000e+00 0.000000e+00
 0.000000e+00 6.857713e-01 3.142287e-01 0.000000e+00 0.000000e+00
 0.000000e+00 0.000000e+00 3.187289e-01 6.812712e-01 0.000000e+00
 0.000000e+00 0.000000e+00 0.000000e+00 6.949793e-01 3.050207e-01
 0.000000e+00 0.000000e+00 0.000000e+00 0.000000e+00 0.000000e+00
<ENDHMM>
~h "i"
<BEGINHMM>
<NUMSTATES> 7
<STATE> 2
<NUMMIXES> 2
<MIXTURE> 1 9.922782e-01
<MEAN> 39
 5.061988e+00 -7.475010e+00 5.639911e+00 1.801353e+01 1.519082e+01 3.768376e+00 -1.194730e+01 7.263493e+00 -5.358781e+00 -1.217621e+01 6.052007e+00 -2.503160e+00 -5.271245e+00 1.044030e+00 -4.692495e-03 3.927602e-01 8.435299e-01 1.171574e+00 -2.580687e-01 -1.376823e+00 -5.702510e-02 -3.112325e-01 -9.842389e-01 4.079403e-01 -1.503804e-02 -1.025646e+00 -9.709322e-02 -7.041800e-02 -6.698132e-02 -1.142649e-01 -4.245182e-03 -7.619230e-02 -9.522240e-02 9.587286e-02 2.718371e-02 -8.137560e-02 1.727569e-02 6.011286e-02 -3.219190e-02
<VARIANCE> 39
 1.556049e+02 1.243726e+02 1.218381e+02 1.534355e+02 1.171111e+02 1.175233e+02 1.257638e+02 8.932402e+01 6.779270e+01 8.709865e+01 8.159052e+01 3.531009e+01 6.100563e+01 3.800562e+00 3.701557e+00 3.922269e+00 3.480958e+00 4.423573e+00 3.542603e+00 6.297380e+00 3.708439e+00 3.217293e+00 5.375340e+00 3.735153e+00 1.928932e+00 3.240183e+00 2.782354e-01 4.037162e-01 4.740704e-01 4.348942e-01 4.514966e-01 4.131089e-01 5.951685e-01 5.400875e-01 5.275204e-01 7.129000e-01 5.291043e-01 2.886010e-01 3.616278e-01
<GCONST> 1.377078e+02
<MIXTURE> 2 7.721918e-03
<MEAN> 39
 3.288530e+00 -2.578385e+01 1.656053e+01 2.499417e+01 1.028552e+01 1.299530e+01 -1.576957e+01 -1.776205e+00 3.701097e+00 -1.207798e+01 -1.328613e+00 -2.086355e+00 -6.657662e+00 6.157281e-01 -8.668086e-02 -1.028305e+00 -1.167904e-01 6.351036e-01 -9.447665e-01 -1.174382e+00 -3.605723e-03 1.686722e-01 -9.515150e-01 2.992779e-02 1.625947e-01 -9.443763e-01 -1.414393e-01 1.906687e-01 -1.567286e-01 -3.252277e-01 2.175483e-01 -9.907559e-03 2.009660e-01 4.505597e-01 -2.398496e-02 1.813545e-01 1.806458e-01 -9.166046e-03 1.311624e-01
<VARIANCE> 39
 1.008854e+02 1.893687e+02 5.633314e+01 1.901082e+02 1.059854e+02 5.324985e+01 6.017925e+01 5.202774e+01 2.941868e+01 3.470240e+01 2.417359e+01 2.042331e+01 5.014824e+01 2.065391e+00 7.716860e+00 2.683820e+00 3.175561e+00 4.059083e+00 5.131270e+00 2.990484e+00 1.887776e+00 1.278635e+00 1.557779e+00 1.972672e+00 1.595279e+00 1.280512e+00 1.488205e-01 4.039145e-01 2.634717e-01 2.368963e-01 2.620470e-01 3.175482e-01 3.480054e-01 2.147246e-01 2.002509e-01 3.344373e-01 3.785434e-01 3.818907e-01 1.698202e-01
<GCONST> 1.192315e+02
<STATE> 3
<NUMMIXES> 2
<MIXTURE> 1 9.127731e-01
<MEAN> 39
 1.061144e+01 -7.680061e+00 5.656852e+00 2.060861e+01 2.245954e+01 1.594704e+00 -2.057089e+01 7.837856e+00 -7.270726e+00 -1.819823e+01 9.294600e+00 -1.208887e+00 -1.113962e+01 -6.027266e-03 -1.570328e-01 1.720823e-01 -1.126365e-01 4.334089e-01 -9.897667e-02 -8.013718e-01 9.667361e-02 -9.850524e-03 -3.990178e-01 2.540896e-01 -4.759878e-03 -4.797231e-01 -1.206898e-01 5.624730e-02 2.602365e-02 -8.936416e-02 -2.287225e-01 1.059783e-01 3.630965e-01 -1.605861e-02 1.016779e-01 2.729915e-01 -1.097874e-01 -5.868413e-03 2.217440e-01
<VARIANCE> 39
 1.064126e+02 1.051236e+02 1.074281e+02 1.597959e+02 1.405065e+02 8.975909e+01 1.745109e+02 8.689651e+01 6.916312e+01 9.616010e+01 1.046941e+02 3.046517e+01 7.744814e+01 1.122010e+00 1.187613e+00 1.471625e+00 1.544810e+00 1.671640e+00 1.686491e+00 3.446719e+00 2.427473e+00 1.545275e+00 2.501461e+00 1.898143e+00 1.013019e+00 1.530290e+00 1.286617e-01 1.620571e-01 1.956615e-01 2.309421e-01 2.615579e-01 2.086441e-01 4.086392e-01 3.854429e-01 2.613709e-01 3.871408e-01 3.180984e-01 1.694346e-01 2.128925e-01
<GCONST> 1.192573e+02
<MIXTURE> 2 8.722693e-02
<MEAN> 39
 1.742043e+01 -1.031441e+01 4.141850e+00 1.843771e+01 1.481334e+01 -4.293003e+00 -2.309362e+01 1.096126e+01 -1.335283e+00 -2.154556e+01 8.156370e+00 -5.869200e-01 -1.487310e+01 -1.477045e-01 1.914291e-01 7.826775e-02 -2.006324e-01 -1.836699e-02 9.053707e-03 -2.454489e-02 -4.138115e-02 5.835935e-02 -6.508277e-02 9.687688e-02 4.445812e-02 -2.395580e-01 -1.075274e-01 1.106414e-01 4.546645e-02 -8.899618e-03 2.062234e-02 9.325580e-02 2.474561e-01 -6.673182e-02 -1.453747e-01 2.597682e-01 -3.246427e-02 -1.007481e-01 2.192169e-01
<VARIANCE> 39
 1.401661e+01 6.556059e+01 8.773215e+01 8.503030e+01 1.372659e+02 1.677764e+02 9.221274e+01 1.156186e+02 7.847090e+01 7.086801e+01 9.554980e+01 1.662368e+01 6.580109e+01 4.725111e-01 6.303097e-01 6.848014e-01 9.544827e-01 6.932881e-01 1.396223e+00 1.432287e+00 1.302181e+00 7.640503e-01 1.196983e+00 9.034705e-01 6.290625e-01 6.917523e-01 8.109729e-02 8.688259e-02 9.589220e-02 9.431928e-02 8.232958e-02 1.312763e-01 2.143916e-01 1.868032e-01 9.495395e-02 2.100047e-01 1.299414e-01 7.415512e-02 1.063465e-01
<GCONST> 9.664446e+01
<STATE> 4
<NUMMIXES> 2
<MIXTURE> 1 9.703864e-01
<MEAN> 39
 9.994591e+00 -6.746843e+00 6.111996e+00 1.981256e+01 2.006587e+01 6.211882e-01 -1.856645e+01 8.188313e+00 -5.577000e+00 -1.686327e+01 7.143514e+00 -1.448565e+00 -1.004925e+01 -1.860494e-01 6.017262e-02 1.484464e-01 -1.067207e-01 3.916816e-02 1.680389e-01 3.422805e-02 -1.025604e-01 9.080392e-03 1.137075e-01 3.833106e-02 -1.227960e-02 -5.893611e-02 -2.877271e-02 2.710851e-02 -2.239261e-02 -4.322397e-02 -1.045690e-01 9.448911e-02 1.824655e-01 5.037799e-03 4.338626e-02 1.418237e-01 -2.834078e-02 6.521263e-03 1.194441e-01
<VARIANCE> 39
 1.180623e+02 1.195116e+02 1.212040e+02 1.812845e+02 1.579315e+02 1.202788e+02 1.771288e+02 9.825351e+01 8.181292e+01 9.525772e+01 1.169328e+02 3.469258e+01 7.972978e+01 9.297258e-01 1.063141e+00 1.317828e+00 1.401595e+00 1.123756e+00 1.496868e+00 2.149465e+00 1.863989e+00 1.362903e+00 1.742935e+00 1.464065e+00 9.053693e-01 1.130113e+00 7.131936e-02 1.194760e-01 1.464797e-01 1.631904e-01 1.821073e-01 1.869637e-01 2.457404e-01 2.824852e-01 1.968359e-01 2.568024e-01 2.293220e-01 1.496787e-01 1.573223e-01
<GCONST> 1.135201e+02
<MIXTURE> 2 2.961363e-02
<MEAN> 39
 1.423145e+01 -1.280663e+01 7.084038e+00 2.359500e+01 1.412433e+01 -1.931988e+00 -2.120799e+01 5.925826e+00 4.523199e+00 -1.599260e+01 1.557846e-01 -1.361084e+00 -1.095870e+01 4.151449e-01 3.158735e-01 -2.988106e-01 1.220033e-01 2.088035e-01 -2.198000e-01 1.418938e-01 1.720248e-01 -2.290907e-01 -9.927844e-02 4.313865e-02 -1.031551e-01 -5.427256e-02 -1.174991e-01 2.148286e-01 7.462829e-03 -3.108471e-02 1.491694e-01 5.673566e-02 1.335762e-01 -4.782438e-02 -1.060512e-01 1.296593e-01 -2.223355e-02 -4.769966e-02 9.640765e-02
<VARIANCE> 39
 4.449563e+01 7.874248e+01 1.562324e+02 1.409293e+02 9.298813e+01 1.468620e+02 9.690805e+01 1.131936e+02 4.799005e+01 3.790651e+01 4.695813e+01 1.598962e+01 6.346339e+01 2.228781e+00 1.114985e+00 1.488113e+00 7.654811e-01 5.939788e-01 1.843867e+00 7.344955e-01 1.173156e+00 7.590204e-01 1.357629e+00 1.759666e+00 5.860971e-01 1.046367e+00 2.553213e-01 2.697212e-01 1.205101e-01 1.923340e-01 1.320255e-01 1.691461e-01 2.321337e-01 1.873377e-01 1.630431e-01 1.937135e-01 1.690456e-01 5.472688e-02 1.459641e-01
<GCONST> 1.045901e+02
<STATE> 5
<NUMMIXES> 2
<MIXTURE> 1 9.581133e-01
<MEAN> 39
 1.016842e+01 -6.270305e+00 5.696658e+00 2.007368e+01 2.229187e+01 1.571467e+00 -2.049619e+01 7.364988e+00 -7.752267e+00 -1.771180e+01 1.007346e+01 -1.549117e+00 -1.170703e+01 -3.732954e-01 5.175800e-01 1.863932e-01 -1.634459e-01 -4.617382e-01 5.504293e-01 9.444896e-01 -3.163269e-01 2.943576e-01 7.818269e-01 -3.525598e-01 -3.233048e-02 4.687107e-01 -1.060119e-01 8.913381e-02 5.747939e-02 -8.560527e-02 -2.055011e-01 1.253087e-01 2.827656e-01 -2.991494e-02 1.569461e-01 2.456099e-01 -1.911863e-01 -1.339570e-03 2.339018e-01
<VARIANCE> 39
 1.060677e+02 1.017947e+02 1.016312e+02 1.462101e+02 1.503934e+02 1.017571e+02 1.662117e+02 9.869136e+01 7.185492e+01 9.737480e+01 1.094530e+02 3.695503e+01 8.452988e+01 1.102172e+00 1.879537e+00 1.227328e+00 1.599038e+00 1.743071e+00 1.580218e+00 3.723814e+00 2.767002e+00 1.865876e+00 2.944550e+00 2.604419e+00 1.066384e+00 1.721977e+00 9.952943e-02 1.732146e-01 1.907851e-01 2.037297e-01 2.371134e-01 2.187927e-01 3.674501e-01 4.091559e-01 2.873871e-01 3.998044e-01 3.602621e-01 1.859805e-01 2.400327e-01
<GCONST> 1.210687e+02
<MIXTURE> 2 4.188655e-02
<MEAN> 39
 1.343620e+01 -1.274516e+01 7.704017e+00 2.330701e+01 1.627030e+01 3.344161e+00 -2.024946e+01 1.468238e+00 2.939439e-02 -1.481774e+01 2.431599e+00 -1.725511e+00 -1.048879e+01 -7.804362e-02 6.591254e-01 -3.093106e-01 8.086964e-03 2.141626e-01 8.359998e-02 7.775104e-01 -2.132036e-01 -4.770780e-01 3.868449e-01 1.269542e-01 4.566760e-02 2.983487e-01 -1.590969e-01 2.906750e-01 1.066839e-01 -8.970641e-02 1.017389e-02 4.562357e-02 2.677253e-01 1.070212e-01 -2.390316e-02 1.992950e-01 -7.591821e-02 -5.064981e-02 1.803903e-01
<VARIANCE> 39
 5.257245e+01 1.937367e+02 6.520670e+01 9.151684e+01 8.995319e+01 1.122994e+02 8.143309e+01 5.934125e+01 4.629537e+01 6.387543e+01 5.853281e+01 2.022986e+01 6.023673e+01 9.326600e-01 2.015283e+00 1.704348e+00 1.042969e+00 1.140906e+00 2.598300e+00 3.014544e+00 1.763432e+00 1.318877e+00 1.924091e+00 1.358444e+00 6.911993e-01 1.479442e+00 1.133525e-01 2.922617e-01 2.586310e-01 1.737196e-01 1.961717e-01 2.968353e-01 2.308257e-01 2.652653e-01 1.739220e-01 3.509999e-01 2.068593e-01 1.230736e-01 2.484080e-01
<GCONST> 1.116882e+02
<STATE> 6
<NUMMIXES> 2
<MIXTURE> 1 3.053942e-01
<MEAN> 39
 -3.355156e+00 9.950725e-01 7.037367e+00 1.470563e+01 1.384029e+01 7.921096e+00 -5.475594e+00 5.133121e+00 -2.420703e+00 -4.855217e+00 4.648901e+00 -4.454458e-01 -2.514296e+00 -1.309799e+00 -1.013984e-01 -2.622212e-02 -8.854595e-01 -1.080755e+00 3.010499e-01 9.348994e-01 -4.616696e-02 4.173774e-01 7.134609e-01 -5.875253e-01 -7.027477e-03 6.728750e-01 3.412081e-02 -1.779829e-01 -4.704707e-02 -4.361061e-02 -1.843803e-03 -9.311145e-02 -2.136882e-01 -2.964069e-02 -1.097964e-01 -1.580164e-01 8.866788e-02 1.710612e-02 -8.360162e-02
<VARIANCE> 39
 1.803994e+02 1.142841e+02 8.858721e+01 1.076402e+02 9.896254e+01 7.467368e+01 1.149045e+02 6.434525e+01 6.873649e+01 7.946085e+01 6.248462e+01 2.917489e+01 4.360287e+01 2.843000e+00 5.102629e+00 3.549425e+00 3.237244e+00 3.601696e+00 3.468793e+00 5.189386e+00 3.755759e+00 3.320016e+00 3.897735e+00 3.571024e+00 1.643497e+00 2.430895e+00 1.972938e-01 3.419797e-01 4.070437e-01 3.821779e-01 4.474574e-01 3.851928e-01 4.629827e-01 4.542952e-01 4.578401e-01 4.658526e-01 4.479556e-01 2.665085e-01 2.864556e-01
<GCONST> 1.315138e+02
<MIXTURE> 2 6.946061e-01
<MEAN> 39
 -1.318540e+01 -4.081854e+00 -1.095431e+00 5.174646e+00 4.829457e+00 2.203333e+00 -6.122670e+00 3.486251e+00 -3.358126e+00 -5.594897e+00 2.773054e+00 8.014429e-02 -2.247386e+00 -7.634734e-02 1.647435e-02 -2.382860e-03 -1.165499e-01 -8.616952e-02 8.225313e-02 9.983625e-02 3.544554e-03 -1.079891e-03 8.636937e-02 6.196458e-02 1.077652e-02 4.856183e-02 -5.863932e-03 -7.789224e-03 3.699297e-03 6.777858e-03 -2.825298e-03 1.719552e-02 2.238715e-02 1.118296e-02 -3.189428e-03 1.199506e-03 -5.665720e-03 -7.599373e-03 1.071875e-02
<VARIANCE> 39
 3.303157e+02 9.700858e+01 8.493293e+01 1.375591e+02 1.323061e+02 4.638893e+01 9.160793e+01 5.064554e+01 3.673454e+01 7.656137e+01 4.664475e+01 2.913441e+01 4.119901e+01 2.230862e-01 3.235862e-01 4.277457e-01 6.003609e-01 7.166689e-01 8.248608e-01 1.022044e+00 1.017853e+00 1.116203e+00 1.117803e+00 1.059073e+00 9.648248e-01 7.338443e-01 2.941123e-02 5.261959e-02 7.454041e-02 1.033558e-01 1.325771e-01 1.537954e-01 1.803611e-01 2.029184e-01 2.130618e-01 2.165233e-01 2.051052e-01 1.848184e-01 1.445352e-01
<GCONST> 9.609592e+01
<TRANSP> 7
 0.000000e+00 1.000000e+00 0.000000e+00 0.000000e+00 0.000000e+00 0.000000e+00 0.000000e+00
 0.000000e+00 5.740157e-01 4.259843e-01 0.000000e+00 0.000000e+00 0.000000e+00 0.000000e+00
 0.000000e+00 0.000000e+00 3.299788e-01 6.700212e-01 0.000000e+00 0.000000e+00 0.000000e+00
 0.000000e+00 0.000000e+00 0.000000e+00 1.717849e-01 8.282151e-01 0.000000e+00 0.000000e+00
 0.000000e+00 0.000000e+00 0.000000e+00 0.000000e+00 3.712266e-01 6.287734e-01 0.000000e+00
 0.000000e+00 0.000000e+00 0.000000e+00 0.000000e+00 0.000000e+00 8.356376e-01 1.643624e-01
 0.000000e+00 0.000000e+00 0.000000e+00 0.000000e+00 0.000000e+00 0.000000e+00 0.000000e+00
<ENDHMM>
~h "j"
<BEGINHMM>
<NUMSTATES> 5
<STATE> 2
<NUMMIXES> 2
<MIXTURE> 1 5.925410e-01
<MEAN> 39
 4.674405e+00 1.664418e+01 1.524735e+01 1.820050e+01 1.505704e+01 1.040292e+01 3.605311e-01 5.746232e+00 -1.116715e+00 -5.449944e+00 -4.259675e+00 -5.762745e+00 -4.214742e+00 -3.009116e-01 6.454355e-02 1.828727e-01 3.808127e-02 -7.305934e-02 2.285205e-01 3.449823e-01 1.873053e-01 1.793336e-01 2.131776e-01 -1.427553e-02 6.138963e-02 1.525071e-01 -8.209070e-02 -2.410021e-01 -2.159892e-02 9.233791e-02 -3.493310e-02 -2.858156e-02 -5.920306e-03 5.021551e-02 7.913089e-02 1.716739e-02 1.692646e-02 6.438792e-02 1.102512e-01
<VARIANCE> 39
 4.786852e+01 4.284718e+01 3.252552e+01 2.418696e+01 2.335168e+01 4.801451e+01 6.707552e+01 4.187548e+01 2.195025e+01 2.427169e+01 2.010306e+01 1.343400e+01 1.364393e+01 4.752055e-01 8.185818e-01 8.493490e-01 8.662098e-01 5.840232e-01 6.259461e-01 8.219885e-01 6.721752e-01 6.977019e-01 8.825396e-01 7.459049e-01 5.971869e-01 6.714651e-01 4.727434e-02 1.650736e-01 1.581331e-01 1.680109e-01 1.000719e-01 9.214452e-02 1.234310e-01 9.722294e-02 1.071863e-01 1.302053e-01 1.277214e-01 1.006358e-01 1.162428e-01
<GCONST> 8.251295e+01
<MIXTURE> 2 4.074591e-01
<MEAN> 39
 -3.982547e+00 5.117724e+00 1.033107e+01 1.398491e+01 1.126808e+01 1.038915e+01 2.736995e-01 7.478586e+00 -3.701620e-01 -4.449957e+00 2.091162e-01 -1.543422e+00 -2.722845e-01 2.259645e-01 9.046011e-01 1.144725e+00 6.826957e-01 2.246315e-01 6.563609e-01 5.887349e-01 6.002020e-03 2.659304e-01 2.676686e-01 -5.140187e-01 -2.864850e-01 6.989779e-02 4.798170e-02 -2.353526e-01 -5.546149e-02 -2.491827e-02 -9.466571e-02 -7.092990e-02 -1.066716e-01 2.796967e-03 -4.902175e-02 -1.139795e-01 7.781562e-02 1.558396e-02 -6.026044e-02
<VARIANCE> 39
 1.522664e+02 1.395219e+02 1.125586e+02 9.526147e+01 7.948983e+01 6.739213e+01 5.787693e+01 4.737965e+01 4.931153e+01 5.872435e+01 3.646292e+01 2.436041e+01 2.761078e+01 4.376666e+00 6.237534e+00 5.169525e+00 3.885304e+00 3.946378e+00 2.910087e+00 3.334584e+00 2.293992e+00 2.197660e+00 3.109133e+00 2.249028e+00 1.613889e+00 1.743227e+00 2.316276e-01 6.246537e-01 5.324691e-01 5.009941e-01 5.179257e-01 3.866782e-01 3.756094e-01 3.152928e-01 3.613502e-01 4.043754e-01 3.588618e-01 2.582902e-01 2.594635e-01
<GCONST> 1.274043e+02
<STATE> 3
<NUMMIXES> 2
<MIXTURE> 1 2.974313e-01
<MEAN> 39
 -3.721597e-01 7.220140e+00 1.755539e+01 2.280175e+01 1.244267e+01 1.310380e+01 3.562325e+00 7.565107e+00 3.514937e+00 -2.553365e+00 -4.500304e+00 -2.656704e+00 1.845631e+00 -1.493966e+00 -3.954152e+00 1.118254e+00 8.137125e-01 -1.506143e+00 9.842902e-01 2.890190e-01 2.085757e-01 1.351328e+00 1.930175e-01 3.467466e-01 7.779623e-01 8.707625e-01 -8.465663e-02 -1.104853e+00 1.951961e-02 -2.574034e-01 -2.857280e-01 5.711272e-02 -3.265832e-01 1.298791e-01 -5.591065e-04 -4.477695e-01 5.057719e-01 3.066892e-01 -2.517837e-01
<VARIANCE> 39
 3.065749e+01 5.095537e+01 3.152187e+01 2.771893e+01 2.845136e+01 2.560548e+01 3.095140e+01 2.669460e+01 4.077169e+01 2.559719e+01 2.453274e+01 1.797018e+01 2.401473e+01 9.893662e-01 7.013563e+00 3.959751e+00 2.337611e+00 2.285346e+00 2.201856e+00 2.864375e+00 1.513151e+00 1.830972e+00 2.237281e+00 2.553042e+00 1.841569e+00 2.084494e+00 7.770921e-02 3.976167e-01 2.512047e-01 3.871075e-01 2.659631e-01 3.010022e-01 2.994902e-01 2.519312e-01 2.508865e-01 2.900437e-01 3.151655e-01 2.217572e-01 2.509734e-01
<GCONST> 1.086863e+02
<MIXTURE> 2 7.025688e-01
<MEAN> 39
 -8.557434e+00 -2.641366e+01 2.522256e+01 1.876529e+01 1.679783e+00 1.822740e+01 -3.860706e+00 8.252963e+00 7.285399e+00 -6.990182e+00 3.948926e+00 3.807883e+00 1.770475e+00 -1.140962e-01 -2.470343e+00 9.632740e-01 -2.919285e-01 -6.025414e-01 4.879878e-01 -1.163972e+00 -5.359776e-01 -2.372530e-01 -6.360879e-01 7.011493e-01 2.182711e-01 -4.139827e-01 4.388067e-01 8.270922e-01 -3.666788e-01 1.714292e-02 4.233589e-01 -1.844456e-01 -9.634086e-02 -3.045645e-01 -3.023189e-01 2.533957e-02 -2.770904e-01 -2.345479e-01 -7.264872e-02
<VARIANCE> 39
 7.672559e+01 1.977937e+02 1.683046e+02 1.323026e+02 7.625773e+01 1.014509e+02 9.485583e+01 4.790611e+01 1.037248e+02 4.586892e+01 4.831158e+01 3.528147e+01 3.460629e+01 3.322274e+00 1.345201e+01 5.503196e+00 3.476797e+00 5.969397e+00 3.860300e+00 3.977710e+00 3.038634e+00 3.120310e+00 2.364305e+00 2.753862e+00 2.850814e+00 1.373575e+00 2.920989e-01 7.468297e-01 1.083823e+00 5.887784e-01 7.306665e-01 6.828071e-01 5.979161e-01 3.996809e-01 4.213905e-01 4.390389e-01 4.203185e-01 4.292291e-01 2.393910e-01
<GCONST> 1.359725e+02
<STATE> 4
<NUMMIXES> 2
<MIXTURE> 1 7.904404e-02
<MEAN> 39
 -1.557877e+01 -1.688242e+01 2.009350e+01 8.654324e+00 1.728487e+00 1.334494e+01 -1.420627e+00 8.678606e+00 -4.169201e-01 -2.989299e+00 5.503055e+00 -2.630502e-01 1.155745e+00 9.562808e-01 -1.848489e-02 -9.922544e-01 -2.827120e-01 2.654929e-01 -3.823793e-01 -7.097244e-01 -8.385630e-01 -6.958100e-01 -4.432480e-01 -4.009479e-01 -3.850843e-01 -2.097002e-01 6.607860e-01 3.894461e-01 -3.523495e-01 -9.738179e-02 -2.412941e-02 -2.328461e-01 -3.001907e-01 -2.754926e-01 -1.743157e-01 -2.861284e-01 -1.790534e-01 -1.680667e-02 -5.510200e-02
<VARIANCE> 39
 6.637367e+01 3.118137e+02 3.291784e+02 1.686550e+02 6.143848e+01 4.750729e+01 4.524911e+01 2.685398e+01 7.131211e+01 3.120061e+01 3.167326e+01 1.838593e+01 1.505659e+01 5.320927e+00 8.511806e+00 3.391772e+00 2.894100e+00 4.624980e+00 2.382335e+00 2.498799e+00 3.678247e+00 2.356812e+00 2.245554e+00 2.877147e+00 1.911229e+00 1.151600e+00 2.265657e-01 3.275824e-01 7.159621e-01 3.732820e-01 3.112396e-01 2.533166e-01 2.528546e-01 2.511747e-01 3.585641e-01 3.468756e-01 2.879378e-01 2.629060e-01 1.955363e-01
<GCONST> 1.231196e+02
<MIXTURE> 2 9.209560e-01
<MEAN> 39
 7.896344e+00 -1.963000e+01 1.650370e+01 2.118067e+01 1.130572e+01 1.442244e+01 -1.472281e+01 -9.793711e-01 1.059127e-01 -1.435439e+01 3.020697e-01 1.359401e-01 -3.554974e+00 2.388069e+00 1.899150e+00 -3.712096e+00 -5.447460e-01 1.803506e+00 -2.187118e+00 -1.395866e+00 2.208652e-01 -8.507679e-01 -1.201465e+00 -3.401351e-01 -7.431754e-02 -3.192791e-01 -1.978774e-01 -7.241143e-02 -1.067124e-01 -1.465793e-01 -9.474613e-02 -3.330205e-01 4.076615e-02 6.951982e-01 1.801992e-01 -8.483820e-02 3.001590e-01 1.066855e-01 2.916621e-02
<VARIANCE> 39
 8.329787e+01 9.808215e+01 1.623351e+02 6.085394e+01 6.834335e+01 1.253172e+02 6.872128e+01 7.213786e+01 4.598864e+01 4.092211e+01 4.293145e+01 1.920229e+01 2.706177e+01 2.529670e+00 2.048280e+00 4.592303e+00 1.082574e+00 2.504917e+00 3.822587e+00 2.836812e+00 7.128078e+00 1.708506e+00 1.962298e+00 2.499770e+00 1.515554e+00 9.859900e-01 2.361629e-01 2.057312e-01 6.012875e-01 1.441863e-01 2.469607e-01 3.933784e-01 2.917264e-01 5.687974e-01 2.305468e-01 2.774741e-01 2.723084e-01 2.079617e-01 1.247954e-01
<GCONST> 1.187437e+02
<TRANSP> 5
 0.000000e+00 1.000000e+00 0.000000e+00 0.000000e+00 0.000000e+00
 0.000000e+00 8.429379e-01 1.570620e-01 0.000000e+00 0.000000e+00
 0.000000e+00 0.000000e+00 8.340837e-01 1.659163e-01 0.000000e+00
 0.000000e+00 0.000000e+00 0.000000e+00 7.090723e-01 2.909278e-01
 0.000000e+00 0.000000e+00 0.000000e+00 0.000000e+00 0.000000e+00
<ENDHMM>
~h "k"
<BEGINHMM>
<NUMSTATES> 5
<STATE> 2
<NUMMIXES> 2
<MIXTURE> 1 6.117997e-01
<MEAN> 39
 -2.375562e+01 -5.818388e+00 -4.486967e+00 -1.358669e+00 -1.901543e+00 1.452097e+00 -3.480392e+00 1.390787e+00 -2.840711e+00 -2.101666e+00 1.155382e+00 8.728087e-02 4.017963e-01 -5.493248e-02 2.832159e-03 3.920635e-03 -1.883211e-02 -1.148478e-02 1.581110e-02 2.329490e-02 1.265331e-02 3.821840e-02 3.731175e-02 -1.075424e-03 9.307981e-03 1.883057e-02 2.273562e-02 -8.750021e-03 5.199909e-03 2.747964e-02 3.818399e-02 2.545666e-02 1.097554e-02 2.046732e-02 -6.513409e-03 -2.150450e-02 8.220812e-04 1.527988e-02 1.653610e-02
<VARIANCE> 39
 8.836282e+01 3.094004e+01 2.586454e+01 3.193356e+01 2.973417e+01 1.868518e+01 1.791726e+01 1.883321e+01 2.017383e+01 2.050331e+01 1.337276e+01 1.755664e+01 1.062288e+01 1.500733e-01 2.123950e-01 3.076553e-01 4.371580e-01 6.050996e-01 7.500517e-01 8.787549e-01 9.485927e-01 1.168412e+00 1.092745e+00 9.376965e-01 9.591541e-01 7.440975e-01 2.793057e-02 4.806395e-02 6.832588e-02 1.016491e-01 1.413472e-01 1.637537e-01 1.937833e-01 2.090531e-01 2.428068e-01 2.298566e-01 2.052934e-01 2.007218e-01 1.670459e-01
<GCONST> 7.929436e+01
<MIXTURE> 2 3.882004e-01
<MEAN> 39
 -6.876384e+00 3.916759e+00 6.960274e+00 1.110976e+01 1.004027e+01 8.966290e+00 -1.280573e+00 4.849582e+00 -2.992106e+00 -4.845582e+00 1.002831e+00 -8.507157e-01 6.769443e-02 -1.895435e+00 -4.912788e-01 -3.720903e-01 -6.286427e-01 -6.381525e-01 -5.794501e-02 3.881552e-01 -2.091229e-02 2.654729e-01 4.425420e-01 -1.184410e-01 1.179613e-01 3.538095e-01 8.426733e-02 -4.297513e-01 -3.394391e-01 -1.073805e-01 -3.029901e-02 -1.450840e-01 -1.414917e-01 1.218175e-01 3.876636e-02 -8.951923e-02 7.830627e-02 2.700473e-02 -2.063308e-02
<VARIANCE> 39
 1.508051e+02 1.308152e+02 7.733477e+01 8.670516e+01 8.124352e+01 7.221248e+01 8.602220e+01 5.074907e+01 5.401035e+01 6.049394e+01 5.119671e+01 3.726321e+01 5.216031e+01 2.313380e+00 3.841995e+00 2.755402e+00 2.445545e+00 2.547321e+00 2.601037e+00 2.654153e+00 2.239554e+00 2.339100e+00 2.494116e+00 1.929353e+00 1.550650e+00 1.611567e+00 1.668345e-01 3.932493e-01 4.428813e-01 3.365452e-01 3.625734e-01 4.232219e-01 3.878533e-01 3.861099e-01 4.215689e-01 4.023636e-01 3.596749e-01 2.947267e-01 2.863636e-01
<GCONST> 1.244690e+02
<STATE> 3
<NUMMIXES> 2
<MIXTURE> 1 7.092541e-01
<MEAN> 39
 -1.255137e+01 -3.415562e+00 8.647487e-01 7.481147e+00 7.009739e+00 7.196483e+00 -9.025129e-01 7.108680e+00 -6.074835e-02 -3.474347e+00 7.310653e-01 -5.957462e-01 2.146707e+00 -2.615990e-01 -2.362220e+00 -2.199166e+00 -1.632234e+00 -1.370719e+00 -1.011232e+00 -5.849442e-01 3.199202e-01 -9.884559e-02 -2.680891e-01 4.204238e-01 -8.678780e-02 9.161059e-02 5.908527e-01 -1.234426e-01 -9.502469e-02 -1.831607e-01 -1.867824e-01 -1.958028e-01 -3.216693e-01 -5.037343e-02 -3.068078e-01 -2.890551e-01 1.713203e-01 -1.593784e-01 -2.085519e-01
<VARIANCE> 39
 1.326778e+02 8.159384e+01 7.022659e+01 7.466187e+01 6.747588e+01 6.617477e+01 7.204965e+01 4.530613e+01 3.953029e+01 4.951112e+01 4.356222e+01 3.027215e+01 3.968978e+01 5.627884e+00 5.708638e+00 4.931935e+00 4.939411e+00 4.889540e+00 5.349829e+00 4.690177e+00 4.078576e+00 4.158249e+00 3.520596e+00 4.193419e+00 3.052255e+00 3.692754e+00 3.179191e-01 4.576561e-01 5.871474e-01 4.162101e-01 5.185614e-01 6.379375e-01 5.493076e-01 5.268829e-01 6.423519e-01 5.340631e-01 5.747194e-01 4.130983e-01 5.183029e-01
<GCONST> 1.350411e+02
<MIXTURE> 2 2.907464e-01
<MEAN> 39
 -1.145796e+01 -1.587996e+01 -1.134593e+01 -4.920424e+00 -1.700695e+00 4.658788e+00 -3.198030e+00 7.621582e+00 -5.996395e+00 -8.326245e+00 4.144433e+00 -3.314796e+00 9.136066e-01 1.563588e+00 -1.254532e+00 -2.307090e-01 -5.821604e-01 -6.905902e-01 -1.175925e-01 -4.168363e-01 3.259470e-01 -1.159599e+00 -1.014099e+00 9.591664e-01 -3.767455e-01 -2.661958e-01 1.589611e-01 8.145235e-01 1.166149e+00 1.139233e+00 7.156972e-01 3.099560e-01 1.914411e-01 1.677520e-03 3.306710e-01 2.805600e-01 -2.336686e-01 8.065368e-02 9.729315e-02
<VARIANCE> 39
 1.187594e+02 8.497308e+01 4.788053e+01 1.103318e+02 7.868113e+01 1.061907e+02 8.315599e+01 7.829973e+01 7.560909e+01 6.736125e+01 6.524902e+01 4.695473e+01 3.091803e+01 3.024904e+00 4.200008e+00 6.004750e+00 6.488792e+00 4.284796e+00 4.764024e+00 3.633988e+00 3.495004e+00 5.454148e+00 4.323277e+00 4.553664e+00 2.168066e+00 2.512824e+00 7.870237e-01 3.877983e-01 3.663287e-01 5.778381e-01 5.641993e-01 9.790745e-01 7.701621e-01 7.901523e-01 1.209293e+00 8.918304e-01 9.905306e-01 4.902655e-01 6.135801e-01
<GCONST> 1.404442e+02
<STATE> 4
<NUMMIXES> 2
<MIXTURE> 1 9.473503e-01
<MEAN> 39
 -4.636261e+00 -1.007938e+01 -7.589312e-01 7.178189e+00 3.762178e+00 1.987844e+00 -6.179975e+00 8.687264e+00 -3.783210e+00 -8.127613e+00 4.171679e+00 -3.076261e+00 -4.010843e-01 1.647685e+00 5.127069e-01 1.216365e+00 1.701150e+00 9.959408e-01 -1.895216e-01 -5.472986e-01 2.540141e-01 1.453181e-01 -3.470608e-01 5.304438e-02 -1.287469e-01 -3.707399e-01 1.861822e-01 8.591606e-02 2.001792e-03 9.992108e-02 2.109016e-01 6.382387e-03 -1.224430e-01 1.625339e-02 1.426054e-02 -8.971918e-02 7.815355e-02 5.932044e-02 -1.490927e-01
<VARIANCE> 39
 1.916994e+02 1.412100e+02 1.112336e+02 1.684458e+02 1.195589e+02 9.506747e+01 9.054243e+01 6.971239e+01 5.551160e+01 5.994433e+01 5.676964e+01 4.111257e+01 4.203890e+01 4.162879e+00 3.762858e+00 5.418650e+00 6.139694e+00 4.986211e+00 4.511864e+00 4.591741e+00 3.619840e+00 3.935070e+00 3.909921e+00 3.531544e+00 2.430766e+00 2.748889e+00 4.222621e-01 3.899833e-01 6.047922e-01 6.574057e-01 6.076988e-01 6.346856e-01 6.816836e-01 5.175388e-01 6.469350e-01 6.366563e-01 5.567546e-01 3.765453e-01 4.552178e-01
<GCONST> 1.395318e+02
<MIXTURE> 2 5.264978e-02
<MEAN> 39
 1.628239e+00 -2.708284e+01 6.243908e+00 6.630843e+00 -1.130560e+00 1.674535e+01 -7.534105e+00 1.976024e+00 -3.988250e+00 -1.260138e+01 5.557976e+00 -2.435891e+00 -1.909183e+00 1.775127e+00 5.728451e-01 9.172034e-01 5.259867e-01 6.536766e-01 5.183352e-01 -6.978463e-01 -4.467658e-01 -7.188157e-01 -9.110087e-01 4.302174e-01 2.405522e-01 -4.180626e-01 -2.977705e-01 7.915357e-01 -2.249076e-02 5.002571e-01 7.177237e-01 -5.844409e-01 -1.548692e-02 2.282024e-01 3.887554e-01 4.282357e-01 -3.825130e-01 7.111959e-02 2.496982e-01
<VARIANCE> 39
 6.868269e+01 1.360761e+02 1.894268e+02 2.346969e+02 1.289673e+02 9.985816e+01 1.042664e+02 5.912956e+01 8.171085e+01 4.759438e+01 8.945992e+01 3.987346e+01 4.658574e+01 4.191050e+00 1.409913e+01 7.422562e+00 3.314769e+00 4.728891e+00 7.278246e+00 3.696788e+00 2.774858e+00 3.737994e+00 4.879437e+00 3.276517e+00 2.089602e+00 2.360245e+00 5.344654e-01 1.140128e+00 9.902070e-01 8.573563e-01 6.926581e-01 9.345781e-01 7.412097e-01 5.956172e-01 7.145309e-01 1.042114e+00 8.270400e-01 4.625194e-01 4.773983e-01
<GCONST> 1.449268e+02
<TRANSP> 5
 0.000000e+00 1.000000e+00 0.000000e+00 0.000000e+00 0.000000e+00
 0.000000e+00 8.272837e-01 1.727163e-01 0.000000e+00 0.000000e+00
 0.000000e+00 0.000000e+00 7.550914e-01 2.449086e-01 0.000000e+00
 0.000000e+00 0.000000e+00 0.000000e+00 5.873494e-01 4.126506e-01
 0.000000e+00 0.000000e+00 0.000000e+00 0.000000e+00 0.000000e+00
<ENDHMM>
~h "l"
<BEGINHMM>
<NUMSTATES> 5
<STATE> 2
<NUMMIXES> 2
<MIXTURE> 1 9.015023e-01
<MEAN> 39
 1.234796e+01 -7.544774e+00 5.114794e+00 3.025787e+01 2.271638e+01 -4.030344e+00 -1.257995e+01 1.500857e+01 -7.748632e+00 -2.392802e+01 2.166966e+00 -4.533378e-01 -7.453404e+00 -1.329983e-01 9.624811e-02 2.731605e-01 3.899273e-01 2.966347e-02 -8.148491e-03 2.491758e-01 7.895655e-02 -2.961053e-02 -8.733814e-02 -2.258642e-01 -4.582236e-02 -4.245572e-02 -2.691802e-03 -8.027637e-04 -4.142116e-02 -1.472175e-01 -2.579261e-02 8.920383e-02 -5.411240e-02 -1.417113e-01 1.491199e-02 1.522090e-01 7.714131e-02 -1.484304e-02 6.998969e-03
<VARIANCE> 39
 3.689403e+01 4.201176e+01 6.623341e+01 1.587322e+02 8.102924e+01 4.460408e+01 1.595383e+02 8.187090e+01 4.550599e+01 9.212183e+01 1.355360e+02 2.865533e+01 4.791172e+01 5.750089e-01 7.105216e-01 1.171671e+00 2.195950e+00 1.314331e+00 1.575018e+00 2.458103e+00 2.918133e+00 1.330464e+00 3.146707e+00 2.419264e+00 1.032541e+00 1.009541e+00 7.072001e-02 9.745125e-02 1.476343e-01 2.522070e-01 1.732848e-01 2.053143e-01 3.205696e-01 3.806369e-01 2.124725e-01 3.893112e-01 3.165307e-01 1.657290e-01 1.522492e-01
<GCONST> 1.105034e+02
<MIXTURE> 2 9.849767e-02
<MEAN> 39
 1.116125e+01 -6.155331e+00 8.463279e+00 3.523907e+01 2.315814e+01 -4.202890e+00 -9.884093e+00 1.482940e+01 -5.738646e+00 -2.345616e+01 -2.161092e+00 -1.180974e+00 -7.929719e+00 -8.566360e-02 7.474105e-02 1.145414e-01 2.792530e-02 -4.481182e-02 6.568097e-03 5.307508e-02 -2.881385e-03 1.095297e-02 9.792163e-02 1.239260e-01 9.195963e-02 3.487017e-02 1.731204e-02 1.597661e-02 -3.436413e-02 -3.563923e-02 4.649969e-02 7.698046e-02 -6.051926e-02 -5.076751e-02 -3.208021e-02 1.905561e-02 6.198470e-02 -8.743826e-03 -2.792713e-02
<VARIANCE> 39
 1.897132e+01 3.872411e+01 3.481611e+01 8.396106e+01 5.696741e+01 3.535183e+01 1.303496e+02 6.875473e+01 3.536079e+01 7.576682e+01 6.977786e+01 2.756102e+01 4.993481e+01 9.655491e-02 2.188745e-01 3.027492e-01 5.560997e-01 4.532800e-01 5.352177e-01 6.637709e-01 6.567222e-01 5.316181e-01 7.336000e-01 5.665582e-01 4.636603e-01 3.952503e-01 1.423908e-02 2.799791e-02 4.992448e-02 9.208377e-02 7.099323e-02 8.452310e-02 1.076338e-01 1.114309e-01 7.987484e-02 1.226165e-01 9.386579e-02 8.527914e-02 6.726642e-02
<GCONST> 7.633773e+01
<STATE> 3
<NUMMIXES> 2
<MIXTURE> 1 9.978433e-01
<MEAN> 39
 6.747197e+00 -2.592841e+00 3.134387e+00 1.805473e+01 1.612575e+01 2.354141e+00 -9.447203e+00 8.022429e+00 -6.246476e+00 -1.498158e+01 1.794147e+00 -1.795221e+00 -4.674565e+00 -6.887174e-01 4.887956e-02 -2.134286e-02 -8.653996e-01 -4.547739e-01 7.048255e-01 2.346705e-01 -6.593705e-01 1.083259e-01 8.471395e-01 1.430218e-01 -6.423908e-02 1.899144e-01 -1.196776e-02 -9.660500e-02 -2.368952e-02 -4.712831e-02 4.087880e-03 -5.466834e-02 -1.197354e-01 -9.700228e-03 -2.980153e-02 -1.076921e-02 1.392128e-01 5.877618e-02 -3.308929e-02
<VARIANCE> 39
 1.565191e+02 9.918602e+01 9.074573e+01 1.708963e+02 1.273632e+02 1.125648e+02 1.724557e+02 1.329966e+02 7.043687e+01 1.082023e+02 1.091852e+02 4.290853e+01 5.298644e+01 2.567917e+00 3.404243e+00 3.559241e+00 3.726760e+00 3.191469e+00 3.349679e+00 6.203753e+00 4.695244e+00 2.992423e+00 4.788151e+00 4.837427e+00 1.737917e+00 2.296859e+00 2.015813e-01 3.029928e-01 3.942302e-01 4.569435e-01 3.919529e-01 3.424413e-01 6.851022e-01 5.855612e-01 5.120701e-01 6.706273e-01 5.746755e-01 2.473117e-01 2.627375e-01
<GCONST> 1.362777e+02
<MIXTURE> 2 2.156599e-03
<MEAN> 39
 1.400847e+01 -7.746204e+00 1.143658e+01 2.910529e+01 2.094493e+01 -1.929717e+00 -2.291409e+01 1.723605e+00 4.194071e-01 -1.633508e+01 9.579659e-01 -1.742520e+00 -1.484816e+01 -7.406174e-02 3.857768e-01 -5.925246e-01 -1.096431e-01 2.251635e-01 -6.304073e-02 2.676827e-01 4.093384e-02 -4.188143e-01 4.994263e-01 5.928191e-01 -1.101238e-01 2.673850e-01 2.742439e-02 7.000806e-02 -1.228280e-01 8.357041e-03 1.015592e-01 7.004169e-02 -6.132260e-02 1.190667e-01 -6.237783e-02 -1.564767e-01 1.860297e-01 -2.197579e-02 -1.970375e-02
<VARIANCE> 39
 1.502835e+00 9.276125e+01 3.529454e+01 4.594205e+01 3.578888e+01 2.977246e+01 1.039614e+02 8.674347e+00 4.960854e+01 2.629139e+01 1.691634e+01 6.071333e+00 4.384294e+01 3.000817e-02 1.290770e-01 1.207960e-01 4.707021e-01 3.496377e-01 7.334236e-01 4.384626e-01 1.115007e+00 8.212535e-01 6.526464e-01 3.890375e-01 5.816779e-01 4.266296e-01 3.755346e-02 3.215776e-02 2.978979e-02 6.468837e-02 6.924343e-02 7.828552e-02 1.307360e-02 1.271929e-01 6.479297e-02 1.629614e-01 3.170107e-02 1.544283e-02 3.179491e-02
<GCONST> 5.969962e+01
<STATE> 4
<NUMMIXES> 2
<MIXTURE> 1 6.537800e-01
<MEAN> 39
 -2.186953e+01 -6.927346e+00 -4.556847e+00 -7.701187e-01 -1.423380e+00 1.722291e+00 -3.354253e+00 2.238380e+00 -2.334993e+00 -2.412145e+00 9.633274e-01 2.938665e-01 6.867675e-01 -7.341525e-02 2.875178e-02 3.672137e-02 -2.594669e-02 -3.834411e-02 1.780331e-03 2.034564e-02 1.499228e-02 5.851978e-02 8.487082e-02 -1.652569e-03 1.814865e-03 2.879303e-02 3.288387e-02 -2.674609e-03 1.056138e-02 2.594097e-02 2.639275e-02 2.952016e-03 6.635860e-04 2.771696e-02 -1.219022e-02 -4.044662e-02 -3.410932e-03 -1.199730e-03 -1.063951e-02
<VARIANCE> 39
 1.470200e+02 8.880685e+01 3.957927e+01 3.329175e+01 2.896207e+01 3.627711e+01 2.035734e+01 2.641829e+01 1.940280e+01 2.183755e+01 1.542860e+01 1.908972e+01 1.104751e+01 2.639411e-01 3.435840e-01 4.170209e-01 5.077590e-01 7.424518e-01 9.295410e-01 9.846734e-01 1.059238e+00 1.145221e+00 1.208146e+00 1.014325e+00 1.059288e+00 7.442996e-01 3.807152e-02 6.888520e-02 8.920482e-02 1.076341e-01 1.561753e-01 2.000310e-01 2.113576e-01 2.249470e-01 2.314138e-01 2.506054e-01 2.096954e-01 2.096065e-01 1.623075e-01
<GCONST> 8.664697e+01
<MIXTURE> 2 3.462199e-01
<MEAN> 39
 1.361240e+01 -9.363741e+00 2.679291e+00 2.154433e+01 2.185868e+01 6.529083e-01 -1.782712e+01 7.773675e+00 -1.038763e+01 -2.013337e+01 9.449045e+00 -2.560441e-01 -9.569563e+00 3.109746e-01 -6.154196e-01 -4.229892e-01 -1.166131e+00 2.160284e-01 3.347725e-01 -1.615635e+00 -8.852243e-01 -1.528671e-01 4.855864e-01 1.426280e+00 2.044907e-02 -5.769709e-01 -8.079109e-02 1.867366e-02 1.700386e-01 1.614664e-01 3.534425e-03 -1.160859e-01 2.901351e-02 2.713150e-01 1.105825e-01 -1.589111e-01 -1.518573e-01 -1.552004e-02 3.068900e-03
<VARIANCE> 39
 5.385503e+01 4.785857e+01 7.344826e+01 1.260196e+02 8.635201e+01 7.682124e+01 1.284588e+02 6.958574e+01 4.863052e+01 8.099853e+01 9.900624e+01 2.115457e+01 5.440423e+01 1.276218e+00 1.268612e+00 3.100670e+00 2.344906e+00 2.151394e+00 2.351380e+00 5.877657e+00 3.626498e+00 2.249303e+00 3.808928e+00 4.247165e+00 1.241345e+00 2.136991e+00 1.206156e-01 1.433019e-01 2.575415e-01 2.386419e-01 2.044881e-01 2.571311e-01 4.471635e-01 4.352756e-01 2.899507e-01 4.528139e-01 3.875965e-01 1.749915e-01 1.709597e-01
<GCONST> 1.202843e+02
<TRANSP> 5
 0.000000e+00 1.000000e+00 0.000000e+00 0.000000e+00 0.000000e+00
 0.000000e+00 8.819619e-01 1.180381e-01 0.000000e+00 0.000000e+00
 0.000000e+00 0.000000e+00 6.847402e-01 3.152598e-01 0.000000e+00
 0.000000e+00 0.000000e+00 0.000000e+00 7.621790e-01 2.378211e-01
 0.000000e+00 0.000000e+00 0.000000e+00 0.000000e+00 0.000000e+00
<ENDHMM>
~h "m"
<BEGINHMM>
<NUMSTATES> 5
<STATE> 2
<NUMMIXES> 2
<MIXTURE> 1 4.642246e-01
<MEAN> 39
 1.102055e+01 4.180847e+00 3.298381e+00 1.407370e+01 9.440524e+00 -2.601740e+00 -5.815343e+00 1.362725e+01 1.897120e+00 -1.088795e+01 -2.351543e+00 -3.716772e+00 -6.572971e+00 -2.746683e-01 6.039104e-01 6.536897e-01 7.358193e-01 6.952667e-01 5.743220e-01 5.892310e-02 -8.851718e-01 -1.567459e-01 4.940507e-01 -5.120757e-01 -8.095511e-01 -5.611734e-01 3.031377e-03 -1.830829e-01 -8.576231e-02 -6.811813e-02 -1.383650e-02 -2.804159e-02 -9.316792e-02 -5.368467e-03 -3.674247e-02 -3.971732e-02 1.146696e-01 6.158186e-02 1.668604e-02
<VARIANCE> 39
 1.481875e+02 8.062861e+01 8.329189e+01 7.197931e+01 8.358870e+01 1.061531e+02 6.540849e+01 1.003264e+02 4.965541e+01 6.652299e+01 5.061353e+01 3.315344e+01 3.433831e+01 2.489090e+00 2.182099e+00 2.542728e+00 2.490913e+00 2.887281e+00 3.467114e+00 2.913391e+00 3.189949e+00 1.738901e+00 2.566135e+00 2.086198e+00 1.839036e+00 1.662102e+00 1.667466e-01 2.072926e-01 2.619423e-01 2.572052e-01 3.186496e-01 3.807944e-01 3.373371e-01 3.766197e-01 2.573984e-01 3.558477e-01 3.075398e-01 2.545593e-01 2.084302e-01
<GCONST> 1.213871e+02
<MIXTURE> 2 5.357752e-01
<MEAN> 39
 1.494245e+01 6.817743e+00 7.230187e+00 2.028315e+01 1.524613e+01 -2.609196e+00 -1.086839e+01 7.116176e+00 1.878973e-01 -1.067760e+01 -3.828392e+00 -7.290585e+00 -1.133413e+01 -1.091761e-01 2.479674e-01 2.657387e-01 8.569967e-03 -4.636208e-02 1.405740e-01 -2.303947e-02 -3.379304e-01 -1.647701e-01 1.732814e-01 6.167989e-02 -3.149729e-02 8.753774e-02 -5.634711e-03 2.451315e-02 -2.215571e-02 -7.774752e-02 -7.831315e-02 6.119993e-03 6.124606e-02 6.415464e-02 -2.240438e-03 -3.992366e-02 -7.530702e-03 5.743991e-02 8.271459e-02
<VARIANCE> 39
 7.599434e+00 4.881372e+01 3.068891e+01 2.616443e+01 7.307695e+01 7.445806e+01 6.986351e+01 1.090812e+02 3.764628e+01 4.799079e+01 3.425334e+01 2.481196e+01 2.468260e+01 1.192878e-01 3.185973e-01 3.520928e-01 4.591750e-01 5.055389e-01 5.843026e-01 7.403663e-01 8.997836e-01 4.906499e-01 6.379851e-01 4.907196e-01 4.959061e-01 4.434428e-01 1.887109e-02 3.732787e-02 4.560011e-02 8.159670e-02 8.197487e-02 7.481796e-02 1.022842e-01 1.172503e-01 6.680256e-02 1.074591e-01 7.644625e-02 8.022936e-02 7.006456e-02
<GCONST> 7.410816e+01
<STATE> 3
<NUMMIXES> 2
<MIXTURE> 1 3.580483e-01
<MEAN> 39
 -2.038988e+01 -8.875719e+00 -2.883437e+00 -9.914026e-01 -1.920226e+00 3.479034e+00 -2.604977e+00 2.663708e+00 -2.829932e+00 -2.878714e+00 1.579927e+00 5.782359e-01 1.333916e+00 -1.033728e-01 -7.232352e-02 -1.838494e-02 -9.252122e-03 -2.690683e-02 -2.220970e-03 8.296265e-02 1.835990e-02 -2.631281e-02 2.194129e-02 -2.257153e-03 -9.629577e-04 2.746947e-03 2.830723e-02 -1.344698e-02 4.888589e-03 1.110092e-02 3.025451e-02 -2.326558e-04 -4.881103e-02 2.054117e-02 -1.424330e-02 -5.339365e-02 1.044360e-02 -1.010204e-02 -2.576684e-02
<VARIANCE> 39
 1.618043e+02 1.463217e+02 8.232910e+01 4.234050e+01 3.123852e+01 5.330625e+01 2.698612e+01 4.352287e+01 3.838828e+01 2.624903e+01 2.122365e+01 2.073133e+01 1.162099e+01 9.247982e-01 9.997796e-01 1.010398e+00 7.848166e-01 9.188837e-01 1.238257e+00 1.251159e+00 1.328510e+00 1.381750e+00 1.404013e+00 1.440878e+00 1.214116e+00 9.379772e-01 5.698309e-02 1.024797e-01 1.193769e-01 1.344896e-01 1.587372e-01 2.209197e-01 2.208882e-01 2.571282e-01 2.845019e-01 2.515159e-01 2.696772e-01 2.488125e-01 1.811779e-01
<GCONST> 9.879124e+01
<MIXTURE> 2 6.419517e-01
<MEAN> 39
 1.281173e+01 8.940639e+00 8.744724e+00 1.969782e+01 1.522151e+01 3.619258e-01 -9.234126e+00 6.187947e+00 -1.150383e+00 -9.758564e+00 -3.993627e+00 -7.914362e+00 -9.227531e+00 -2.848426e-01 2.979171e-01 2.483156e-01 -2.310677e-01 -2.865461e-01 2.767155e-01 4.037764e-01 -4.800947e-02 -1.380139e-01 4.826853e-02 -4.914063e-02 1.011351e-01 2.451672e-01 -1.582886e-02 -1.204800e-01 -1.207116e-01 -1.530986e-01 -1.291551e-01 -3.618895e-02 8.780007e-02 1.596324e-01 1.690114e-02 -1.070018e-01 6.736299e-02 1.910537e-01 1.290172e-01
<VARIANCE> 39
 1.923990e+01 7.418083e+01 5.162276e+01 4.253656e+01 5.682255e+01 7.593388e+01 7.167041e+01 1.100512e+02 5.101315e+01 4.693230e+01 5.773660e+01 3.143538e+01 2.662231e+01 3.863528e-01 6.544102e-01 8.008999e-01 9.745388e-01 9.497651e-01 1.030777e+00 1.568856e+00 1.634998e+00 8.352395e-01 1.331107e+00 9.542708e-01 8.151682e-01 8.027568e-01 5.060850e-02 1.007285e-01 1.197749e-01 1.604621e-01 1.728970e-01 1.705091e-01 2.312615e-01 2.688420e-01 1.360563e-01 2.587905e-01 1.702653e-01 1.384250e-01 1.240702e-01
<GCONST> 9.676343e+01
<STATE> 4
<NUMMIXES> 2
<MIXTURE> 1 0.000000e+00
<MEAN> 39
 -3.465476e+01 1.675967e+01 -7.743439e+00 1.826633e+00 -1.155705e+00 1.236522e+01 -1.445375e+01 5.846484e+00 -1.598039e-01 2.253834e-01 -2.058068e+00 -9.824362e-02 3.765816e+00 -1.362455e-01 8.215038e-02 1.575990e-02 -2.231550e-02 5.907191e-02 6.852118e-02 -5.401044e-02 8.545254e-03 3.942942e-02 2.500927e-04 -6.214541e-04 1.159003e-02 3.031951e-02 2.616155e-01 -1.072249e-01 2.894851e-02 8.718687e-02 -5.242795e-02 -9.323000e-02 1.351443e-01 9.685402e-03 -5.067167e-02 2.049104e-02 2.124489e-02 -7.652363e-03 -4.976257e-02
<VARIANCE> 39
 4.483082e-01 6.496472e-01 1.372011e+00 1.126045e+00 1.920628e+00 1.941905e+00 2.517905e+00 2.499093e+00 2.399876e+00 2.720778e+00 3.064659e+00 2.732042e+00 2.229308e+00 1.086354e+00 3.270376e-01 2.173789e-01 2.914865e-01 3.910311e-01 4.624964e-01 5.924420e-01 3.902425e-01 4.446459e-01 4.080288e-01 4.378160e-01 3.926591e-01 3.533571e-01 2.683040e-01 8.656988e-02 6.370471e-02 7.948849e-02 7.781372e-02 1.027722e-01 1.615612e-01 9.150107e-02 9.617190e-02 9.459340e-02 9.706742e-02 8.784577e-02 8.113205e-02
<GCONST> 3.729400e+01
<MIXTURE> 2 1.000000e+00
<MEAN> 39
 1.354154e+01 2.680756e+00 2.546126e+00 1.329177e+01 1.066153e+01 -2.700262e+00 -8.927604e+00 1.282312e+01 -1.214144e+00 -1.492478e+01 -5.853777e-01 -2.340220e+00 -6.617128e+00 2.841077e-01 -1.030641e+00 -8.680722e-01 -8.019347e-01 -3.645007e-01 -4.874340e-01 -4.480675e-01 9.748420e-01 -2.704873e-01 -1.223071e+00 8.540391e-01 1.019947e+00 4.138013e-01 -5.080350e-03 -1.385714e-01 -1.237978e-02 5.258844e-02 9.315088e-02 1.347799e-03 -1.433766e-01 -2.181711e-02 -2.988970e-02 -1.092179e-03 1.718893e-01 3.737349e-02 -6.281444e-02
<VARIANCE> 39
 1.031486e+02 9.637486e+01 8.845147e+01 8.656105e+01 1.209245e+02 1.299256e+02 9.548203e+01 1.376807e+02 6.870367e+01 8.724040e+01 6.467775e+01 3.885836e+01 3.615291e+01 1.350172e+00 2.397330e+00 2.405395e+00 2.543861e+00 3.171088e+00 3.404604e+00 3.711328e+00 4.040998e+00 1.675606e+00 4.420942e+00 3.092629e+00 2.311847e+00 1.457553e+00 1.392327e-01 2.432357e-01 3.321113e-01 3.078624e-01 3.499496e-01 3.672103e-01 3.906804e-01 5.220139e-01 2.431669e-01 6.015210e-01 3.782782e-01 3.215359e-01 1.794147e-01
<GCONST> 1.264514e+02
<TRANSP> 5
 0.000000e+00 1.000000e+00 0.000000e+00 0.000000e+00 0.000000e+00
 0.000000e+00 8.651020e-01 1.348980e-01 0.000000e+00 0.000000e+00
 0.000000e+00 0.000000e+00 6.371267e-01 3.628733e-01 0.000000e+00
 0.000000e+00 0.000000e+00 0.000000e+00 6.390681e-01 3.609320e-01
 0.000000e+00 0.000000e+00 0.000000e+00 0.000000e+00 0.000000e+00
<ENDHMM>
~h "n"
<BEGINHMM>
<NUMSTATES> 5
<STATE> 2
<NUMMIXES> 2
<MIXTURE> 1 9.653821e-01
<MEAN> 39
 1.312171e+01 3.744924e+00 4.485214e+00 1.654329e+01 1.890767e+01 4.480090e+00 -1.347698e+01 2.521159e+00 -5.921522e+00 -1.332803e+01 7.263317e-01 -4.510697e+00 -6.842177e+00 5.055758e-02 3.410130e-01 3.066139e-01 4.578379e-01 3.961232e-01 6.340230e-02 -4.406565e-01 -9.893486e-01 -1.472381e-01 4.509464e-01 -2.647757e-01 -2.756163e-01 8.730242e-02 -3.156073e-03 -1.927637e-01 -1.448011e-01 -1.221978e-01 -9.763067e-02 -7.628316e-02 1.891351e-02 1.670508e-01 6.389982e-02 -1.418964e-02 1.515074e-01 1.336728e-01 4.720452e-02
<VARIANCE> 39
 6.064722e+01 1.079951e+02 5.102905e+01 6.639156e+01 9.528289e+01 6.969293e+01 1.263624e+02 1.101541e+02 4.685049e+01 7.782076e+01 1.221055e+02 3.389138e+01 6.097420e+01 8.555388e-01 1.533592e+00 1.517823e+00 1.680873e+00 1.738029e+00 1.430415e+00 2.937821e+00 2.551406e+00 1.307457e+00 2.423612e+00 2.118273e+00 1.214020e+00 1.227335e+00 8.358359e-02 2.027706e-01 1.828617e-01 2.065259e-01 2.198187e-01 1.828528e-01 3.772476e-01 3.215829e-01 1.921957e-01 3.243731e-01 3.044703e-01 1.781241e-01 1.799012e-01
<GCONST> 1.139279e+02
<MIXTURE> 2 3.461807e-02
<MEAN> 39
 1.293553e+01 1.151090e+01 9.221387e+00 1.753053e+01 1.509755e+01 2.521025e+00 -8.738462e+00 2.381223e+00 -2.166133e+00 -8.097411e+00 -3.051223e+00 -7.460996e+00 -9.071336e+00 -4.414214e-03 1.558703e-01 1.023138e-01 -4.779147e-02 -9.865719e-02 7.292058e-02 2.707935e-02 -9.345026e-02 7.593919e-02 1.477859e-01 -7.990944e-02 3.267275e-02 1.410938e-01 1.674315e-02 -4.123495e-02 -5.159743e-02 -2.093020e-02 2.667097e-02 3.715749e-02 -7.709903e-02 1.539516e-02 3.863022e-02 -3.408059e-03 -1.715180e-02 3.267972e-02 8.707470e-02
<VARIANCE> 39
 2.265083e+01 3.064032e+01 2.533391e+01 5.418861e+01 6.392646e+01 7.128447e+01 6.754150e+01 1.158720e+02 2.411723e+01 3.773771e+01 3.302241e+01 1.676347e+01 3.117171e+01 6.083401e-02 1.584719e-01 1.747447e-01 3.474131e-01 2.898230e-01 2.771619e-01 4.080944e-01 3.119427e-01 3.366768e-01 4.512180e-01 3.947408e-01 4.623440e-01 2.945581e-01 1.215923e-02 3.415245e-02 3.877933e-02 4.109485e-02 4.490030e-02 4.485109e-02 5.560236e-02 6.115596e-02 6.036499e-02 1.055546e-01 4.941829e-02 8.268066e-02 5.282493e-02
<GCONST> 6.295274e+01
<STATE> 3
<NUMMIXES> 2
<MIXTURE> 1 6.988994e-01
<MEAN> 39
 1.398498e+01 1.053778e+01 7.586895e+00 1.992065e+01 2.117946e+01 6.020779e+00 -1.311225e+01 -5.559929e+00 -5.295386e+00 -7.981957e+00 -5.597414e+00 -7.396068e+00 -3.509264e+00 -9.390728e-02 1.072928e-01 1.077051e-01 -5.018980e-02 -1.042248e-01 6.857075e-02 1.356485e-01 3.092287e-02 1.729262e-02 8.597517e-02 2.551086e-03 -7.308280e-02 -3.930600e-02 -2.113272e-02 -3.976382e-02 -3.603984e-02 -5.147370e-02 -6.023352e-02 7.200982e-03 1.080873e-01 1.860797e-01 3.458615e-03 -1.049986e-01 3.381718e-02 5.668473e-02 -1.908916e-02
<VARIANCE> 39
 7.440231e+00 2.501999e+01 2.638477e+01 1.859308e+01 3.357853e+01 3.427112e+01 4.460665e+01 5.077071e+01 2.236310e+01 3.172635e+01 2.379203e+01 1.462038e+01 1.732652e+01 1.322248e-01 3.530837e-01 3.608161e-01 5.078580e-01 7.728801e-01 5.049129e-01 1.091840e+00 7.792124e-01 5.539939e-01 9.165132e-01 4.952863e-01 5.683434e-01 4.463482e-01 1.827153e-02 5.380319e-02 6.054118e-02 9.265888e-02 1.369793e-01 7.993263e-02 1.599590e-01 1.248459e-01 9.809247e-02 1.719549e-01 8.938576e-02 9.151854e-02 7.409409e-02
<GCONST> 7.249849e+01
<MIXTURE> 2 3.011007e-01
<MEAN> 39
 8.835005e+00 8.318434e+00 7.128239e+00 1.541163e+01 1.510475e+01 6.528229e+00 -6.481052e+00 2.871286e+00 -4.848007e+00 -1.022320e+01 -3.883167e+00 -6.028852e+00 -3.811156e+00 -3.684478e-01 -4.982872e-01 -2.700590e-01 -1.458670e-01 -1.740331e-01 1.077727e-01 4.425302e-01 6.687208e-01 -7.974401e-03 -4.131031e-01 6.583178e-02 2.598421e-01 1.956668e-01 4.035307e-02 -3.039520e-01 -1.924524e-01 -6.605689e-02 6.286092e-04 -1.162770e-01 -1.863517e-01 8.459906e-02 -5.291526e-02 -1.092901e-01 2.878528e-01 1.775443e-01 -6.771361e-03
<VARIANCE> 39
 9.492932e+01 1.003359e+02 6.839071e+01 5.768286e+01 6.739165e+01 5.459687e+01 9.119720e+01 8.574775e+01 3.533335e+01 5.631772e+01 7.699080e+01 3.150611e+01 2.831669e+01 2.106055e+00 3.528486e+00 3.300979e+00 2.678752e+00 2.146050e+00 1.770939e+00 4.684299e+00 4.799485e+00 1.912454e+00 4.362298e+00 3.162586e+00 1.660807e+00 1.537938e+00 1.672740e-01 3.190367e-01 4.392719e-01 3.786987e-01 2.925223e-01 2.271312e-01 5.405813e-01 6.664900e-01 3.346261e-01 6.642284e-01 4.067993e-01 2.497590e-01 2.206112e-01
<GCONST> 1.241124e+02
<STATE> 4
<NUMMIXES> 2
<MIXTURE> 1 9.352767e-01
<MEAN> 39
 1.339640e+01 2.848547e-01 2.136722e+00 1.661927e+01 1.926974e+01 4.021847e+00 -1.316239e+01 5.070884e+00 -7.388566e+00 -1.604533e+01 3.730803e+00 -1.271039e+00 -5.851842e+00 2.068145e-01 -1.578620e+00 -7.521065e-01 -5.360759e-01 -2.955806e-01 -6.782932e-01 -5.771804e-01 1.668738e+00 -9.486531e-02 -1.150431e+00 1.790600e+00 8.922930e-01 -6.476577e-01 -5.108988e-03 -3.552452e-02 2.976375e-02 -9.398841e-02 -4.443294e-02 -8.975674e-02 -1.892091e-01 1.665194e-02 1.195735e-01 1.229190e-01 9.951438e-02 -5.446466e-02 -3.098657e-02
<VARIANCE> 39
 7.376278e+01 9.438170e+01 6.490166e+01 6.676746e+01 8.680548e+01 6.106507e+01 1.231490e+02 9.254416e+01 4.559766e+01 8.108067e+01 1.182635e+02 3.645582e+01 4.765498e+01 1.133777e+00 3.654168e+00 2.459038e+00 2.273942e+00 2.116239e+00 1.954577e+00 4.422634e+00 4.738301e+00 2.193820e+00 5.051308e+00 4.883351e+00 1.998478e+00 2.184851e+00 1.065142e-01 3.730680e-01 2.984921e-01 2.429063e-01 2.707832e-01 2.476466e-01 4.506850e-01 5.729703e-01 3.460910e-01 6.619000e-01 5.629441e-01 3.092108e-01 2.715132e-01
<GCONST> 1.259031e+02
<MIXTURE> 2 6.472327e-02
<MEAN> 39
 1.343394e+01 1.251184e+01 1.068948e+01 1.781197e+01 1.569464e+01 4.279950e+00 -9.518001e+00 -3.960271e+00 -5.887330e+00 -7.995764e+00 -4.625246e+00 -6.503968e+00 -5.192909e+00 -1.618207e-01 2.295410e-01 1.877063e-01 2.164562e-02 -1.216292e-01 8.310890e-02 6.751816e-02 -4.818553e-02 -3.343634e-02 8.377703e-02 4.060581e-02 -3.317424e-02 -5.214962e-02 -6.068441e-02 -5.233652e-02 -2.839216e-02 6.961974e-03 2.046163e-02 3.792452e-02 2.310992e-02 1.015995e-01 -4.715957e-04 -7.701067e-02 2.021825e-02 1.976226e-02 1.420769e-02
<VARIANCE> 39
 6.478683e+00 2.649519e+01 1.855636e+01 1.016304e+01 2.491711e+01 2.174779e+01 2.459148e+01 4.992044e+01 1.655876e+01 1.792649e+01 2.522188e+01 1.205609e+01 2.233014e+01 1.682297e-01 5.182363e-01 3.061515e-01 3.029711e-01 4.355698e-01 3.469553e-01 6.097344e-01 4.886056e-01 3.808497e-01 4.841982e-01 2.977420e-01 3.316730e-01 3.020373e-01 1.676010e-02 5.728532e-02 4.552522e-02 4.126614e-02 6.304506e-02 5.147221e-02 7.454478e-02 6.634809e-02 5.626910e-02 8.041330e-02 4.092464e-02 4.734962e-02 5.728279e-02
<GCONST> 5.809585e+01
<TRANSP> 5
 0.000000e+00 1.000000e+00 0.000000e+00 0.000000e+00 0.000000e+00
 0.000000e+00 5.445076e-01 4.554924e-01 0.000000e+00 0.000000e+00
 0.000000e+00 0.000000e+00 8.413595e-01 1.586405e-01 0.000000e+00
 0.000000e+00 0.000000e+00 0.000000e+00 5.917343e-01 4.082656e-01
 0.000000e+00 0.000000e+00 0.000000e+00 0.000000e+00 0.000000e+00
<ENDHMM>
~h "o"
<BEGINHMM>
<NUMSTATES> 7
<STATE> 2
<NUMMIXES> 2
<MIXTURE> 1 5.647020e-01
<MEAN> 39
 -8.597450e-01 -2.253885e-01 2.711800e+00 2.257780e+00 -4.092068e+00 -9.723241e-01 -1.568552e+00 1.385674e+01 1.845520e+00 -3.943018e+00 5.498455e+00 -9.650827e-01 -1.054232e+00 2.092195e+00 7.071345e-01 6.199269e-01 9.575118e-01 3.925843e-01 -4.601957e-01 -1.607327e-01 5.919730e-01 1.943437e-01 -4.952325e-01 -8.126768e-02 -1.832268e-01 -4.748141e-01 1.107908e-01 1.027929e-01 6.237812e-02 2.814350e-01 2.976288e-01 -1.668444e-01 -2.798234e-01 -1.111615e-01 -6.639919e-02 -2.646291e-01 -2.683493e-01 -2.285529e-02 -1.040780e-01
<VARIANCE> 39
 1.504197e+02 1.650810e+02 7.834257e+01 1.400168e+02 1.625693e+02 1.664410e+02 7.658583e+01 9.541711e+01 4.857071e+01 5.117531e+01 4.677039e+01 2.634173e+01 3.877787e+01 3.577481e+00 4.458844e+00 2.811161e+00 7.941679e+00 9.974065e+00 6.220727e+00 4.071978e+00 4.614454e+00 3.335613e+00 3.889925e+00 4.571388e+00 1.863602e+00 2.052386e+00 3.962566e-01 4.517107e-01 3.634807e-01 1.017215e+00 1.504007e+00 1.284687e+00 7.937191e-01 7.303116e-01 6.197945e-01 7.121989e-01 7.328306e-01 3.370819e-01 3.966247e-01
<GCONST> 1.414129e+02
<MIXTURE> 2 4.352978e-01
<MEAN> 39
 1.429792e+01 1.738804e+00 4.718569e+00 1.192170e+01 3.019718e+00 -8.454173e+00 -1.016041e+01 1.585941e+01 1.989582e-01 -1.441870e+01 1.334417e+00 -2.722586e+00 -5.649025e+00 1.892230e+00 4.088544e-01 -5.019350e-01 3.737604e-01 1.748774e-01 -3.063063e+00 -2.445509e+00 1.677217e+00 5.257332e-01 -2.278338e+00 -4.772420e-01 -6.949822e-02 -1.272615e+00 -4.231501e-01 -3.637617e-01 -1.577111e-01 -2.986988e-01 -1.389618e-01 1.763093e-01 1.069473e-01 1.579157e-01 1.570477e-01 2.264023e-01 2.940249e-01 3.852011e-02 2.706371e-02
<VARIANCE> 39
 5.073466e+01 1.152183e+02 4.678715e+01 9.007773e+01 1.286423e+02 1.102559e+02 7.350452e+01 6.426300e+01 6.190810e+01 7.345093e+01 5.010359e+01 3.203988e+01 3.004532e+01 1.807248e+00 2.156818e+00 2.251319e+00 3.348032e+00 3.537746e+00 3.786773e+00 3.676372e+00 3.705656e+00 2.731434e+00 3.357562e+00 3.624778e+00 1.499129e+00 1.374622e+00 1.710448e-01 1.965691e-01 2.801946e-01 4.542032e-01 5.214838e-01 5.973976e-01 4.509726e-01 4.247437e-01 3.107191e-01 4.295079e-01 3.663829e-01 1.774457e-01 1.708093e-01
<GCONST> 1.239499e+02
<STATE> 3
<NUMMIXES> 2
<MIXTURE> 1 9.990884e-01
<MEAN> 39
 1.710695e+01 4.529741e-01 3.058087e+00 1.256076e+01 5.619522e+00 -1.293790e+01 -1.568311e+01 2.009467e+01 3.012686e+00 -1.847408e+01 8.699627e-01 -2.890175e+00 -8.027763e+00 2.457162e-01 -3.383544e-02 -1.852623e-01 -1.591783e-01 -1.886793e-01 -1.333874e+00 -9.225248e-01 9.945165e-01 7.429253e-01 -5.566270e-01 -8.514026e-02 -3.941824e-02 -5.117718e-01 -2.181076e-01 -2.631409e-02 1.146215e-01 -2.835193e-02 -5.364420e-02 3.739766e-01 2.861617e-01 -2.777617e-01 -6.511141e-03 3.682489e-01 4.949090e-02 3.755275e-03 1.439627e-01
<VARIANCE> 39
 5.896177e+01 1.052037e+02 6.773495e+01 6.217877e+01 1.016972e+02 1.515039e+02 8.367769e+01 8.550955e+01 6.404926e+01 8.587434e+01 5.804548e+01 4.514879e+01 3.164107e+01 6.328633e-01 1.449879e+00 1.183278e+00 1.273146e+00 1.277349e+00 1.994142e+00 2.093644e+00 2.531198e+00 1.309283e+00 1.981880e+00 1.393546e+00 9.770039e-01 7.814320e-01 1.214535e-01 1.123752e-01 1.857408e-01 1.750793e-01 2.040943e-01 2.698112e-01 2.949011e-01 3.796615e-01 1.754371e-01 3.438318e-01 2.506565e-01 1.664689e-01 1.201239e-01
<GCONST> 1.102411e+02
<MIXTURE> 2 9.116541e-04
<MEAN> 39
 1.816684e+01 -3.657297e+00 -4.761143e+00 8.647883e+00 6.736209e-01 -1.601193e+01 -8.988148e+00 1.904530e+01 -3.094826e+00 -1.779726e+01 6.188884e+00 2.440664e+00 -4.897326e+00 -1.288308e-01 -3.041618e-01 9.163254e-01 -6.247741e-01 1.177060e-01 1.154405e+00 2.460522e-01 -1.081591e+00 -1.014858e+00 3.471345e-01 6.166095e-01 7.404219e-02 2.578540e-01 1.199730e-01 -1.044965e-01 7.990125e-02 -1.056437e-01 9.474553e-02 1.018641e-01 -1.782198e-01 1.436732e-01 1.392673e-01 -3.237298e-02 1.050280e-01 -2.401993e-01 -5.454060e-02
<VARIANCE> 39
 2.000244e+00 4.734299e+01 6.433009e+01 2.536005e+01 1.359481e+01 1.186091e+01 1.267795e+01 1.057811e+01 1.817325e+01 1.619070e+01 2.399623e+01 1.526090e+01 1.823643e+01 1.157462e-02 4.153910e-01 1.332603e-01 6.349685e-01 9.466139e-02 9.371706e-01 1.455909e-01 4.000608e-01 2.261257e-01 9.105377e-02 2.957756e-01 1.556897e-01 8.505133e-02 6.249476e-03 8.146532e-03 2.012442e-02 2.570650e-02 7.165046e-03 3.581558e-02 2.006319e-02 1.221091e-02 1.639752e-02 1.928488e-02 1.038647e-01 2.374395e-02 4.012999e-02
<GCONST> 3.428539e+01
<STATE> 4
<NUMMIXES> 2
<MIXTURE> 1 3.022381e-02
<MEAN> 39
 1.890553e+01 4.330287e-01 2.522548e+00 9.985812e+00 -2.294554e+00 -1.467913e+01 -9.053005e+00 1.933611e+01 3.178637e+00 -1.818149e+01 -2.670463e+00 -1.869523e+00 -8.003118e+00 1.203784e-01 -1.123435e-01 -3.371552e-01 -1.419886e-01 4.755133e-01 3.078285e-01 3.381361e-02 1.721517e-01 6.842985e-02 -4.822874e-01 -3.395438e-01 -1.409547e-01 -2.033754e-02 -1.960836e-01 4.233421e-02 5.631745e-02 -2.959120e-02 1.901142e-01 2.542549e-01 -1.932051e-03 -6.078205e-02 -6.069030e-02 1.006713e-01 8.634818e-02 -8.130511e-02 8.751003e-02
<VARIANCE> 39
 1.206565e+01 6.083236e+01 9.441171e+01 2.668674e+01 4.251096e+01 1.158580e+02 4.983570e+01 4.744839e+01 4.405845e+01 5.126705e+01 2.573289e+01 2.005050e+01 5.304500e+01 1.101487e+00 1.655969e+00 7.967353e-01 9.974182e-01 1.263225e+00 2.292088e+00 1.382757e+00 2.053351e+00 1.444811e+00 2.077747e+00 1.363449e+00 7.409722e-01 6.678654e-01 1.429029e-01 1.285014e-01 1.391203e-01 8.539999e-02 1.096379e-01 2.232665e-01 2.586215e-01 1.246690e-01 1.481029e-01 2.527460e-01 1.804003e-01 1.173927e-01 1.156788e-01
<GCONST> 9.862985e+01
<MIXTURE> 2 9.697762e-01
<MEAN> 39
 1.699846e+01 3.640766e+00 6.652407e+00 1.439034e+01 1.039186e+00 -2.081921e+01 -1.836207e+01 2.184111e+01 7.607663e+00 -1.706274e+01 7.673454e-02 -1.326246e+00 -1.013654e+01 4.657499e-03 -8.360350e-02 -1.016211e-01 -1.075797e-01 4.319403e-02 -5.304276e-02 -9.411585e-02 1.456753e-01 8.411426e-02 -1.232880e-01 1.545018e-03 -1.098994e-01 -1.802994e-01 -2.469392e-02 2.604689e-02 -6.906297e-03 -1.697415e-02 2.651327e-02 1.939280e-01 1.495012e-01 -1.015783e-01 -9.909827e-02 8.615330e-02 1.628973e-02 -1.725279e-02 6.690651e-02
<VARIANCE> 39
 3.712182e+01 5.621553e+01 4.732547e+01 4.161725e+01 6.610915e+01 1.344009e+02 6.353003e+01 6.149557e+01 4.938527e+01 4.682932e+01 3.964738e+01 2.886184e+01 2.678964e+01 2.929603e-01 7.069070e-01 7.980922e-01 7.980494e-01 7.671602e-01 1.467315e+00 1.474908e+00 1.502598e+00 9.855261e-01 1.304404e+00 1.044454e+00 8.932706e-01 5.089780e-01 4.205796e-02 5.983521e-02 8.759727e-02 9.529368e-02 9.828610e-02 1.363969e-01 1.915362e-01 2.250092e-01 1.183194e-01 1.847582e-01 1.491929e-01 1.134262e-01 7.929519e-02
<GCONST> 9.207663e+01
<STATE> 5
<NUMMIXES> 2
<MIXTURE> 1 1.745404e-01
<MEAN> 39
 2.004888e+01 -4.761088e+00 -4.296535e+00 9.283518e+00 8.335395e+00 -5.991109e+00 -1.172572e+01 1.533745e+01 -2.135736e+00 -2.114204e+01 5.246840e-01 -1.405291e+00 -6.389497e+00 -1.185085e-01 1.197514e-01 7.763429e-02 1.292222e-01 4.177700e-01 1.480222e-01 -1.931046e-01 -3.304405e-01 -2.528512e-01 2.440394e-01 2.282959e-01 -1.707401e-02 -1.140562e-02 -1.335204e-01 2.532057e-03 1.741236e-01 9.398655e-02 5.879374e-02 6.945136e-02 -9.428629e-02 1.052492e-01 5.067300e-02 1.546804e-01 1.587380e-01 -1.286373e-01 -2.243895e-02
<VARIANCE> 39
 1.341973e+01 4.073228e+01 5.910071e+01 3.888971e+01 4.820578e+01 1.039208e+02 6.285132e+01 8.267798e+01 6.774345e+01 1.009099e+02 5.917342e+01 3.115213e+01 4.120131e+01 1.139877e+00 1.714218e+00 1.276382e+00 1.005259e+00 2.052966e+00 3.236071e+00 3.584267e+00 2.832620e+00 2.762471e+00 3.234046e+00 2.257079e+00 1.363527e+00 9.433838e-01 1.202325e-01 1.995265e-01 1.701371e-01 1.067426e-01 1.321933e-01 2.052466e-01 4.019910e-01 3.040928e-01 2.215606e-01 3.879717e-01 3.575242e-01 1.381121e-01 1.520998e-01
<GCONST> 1.104571e+02
<MIXTURE> 2 8.254596e-01
<MEAN> 39
 1.480911e+01 -5.143094e-02 3.879827e+00 1.234626e+01 6.711213e+00 -1.100267e+01 -1.512385e+01 2.004706e+01 2.651328e+00 -1.853313e+01 1.414547e+00 -3.339290e+00 -9.195372e+00 -5.902381e-02 3.770112e-02 -1.299183e-01 -1.639434e-01 3.116920e-01 5.871286e-01 2.510849e-01 -4.185133e-01 -2.212926e-01 2.496587e-01 -3.818931e-02 -2.454438e-02 1.170948e-01 -6.137158e-02 4.791680e-02 9.096703e-02 8.615416e-02 -1.412855e-02 1.826980e-01 2.016489e-01 -2.255417e-01 -6.616460e-02 2.230198e-01 -4.263818e-02 2.622970e-02 1.404266e-01
<VARIANCE> 39
 9.959673e+01 1.039186e+02 7.919946e+01 8.541928e+01 1.137907e+02 1.864068e+02 1.214954e+02 1.190719e+02 7.215284e+01 1.131929e+02 6.891283e+01 3.802879e+01 4.717697e+01 6.769678e-01 1.121019e+00 1.410331e+00 1.263185e+00 1.642381e+00 2.762030e+00 2.901669e+00 3.103419e+00 1.826541e+00 2.479056e+00 1.867934e+00 1.324743e+00 9.233273e-01 8.538901e-02 9.545109e-02 1.366585e-01 1.369882e-01 1.733941e-01 2.108414e-01 3.129575e-01 3.560506e-01 1.685584e-01 2.845822e-01 2.380117e-01 1.703468e-01 1.416411e-01
<GCONST> 1.138764e+02
<STATE> 6
<NUMMIXES> 2
<MIXTURE> 1 3.449197e-01
<MEAN> 39
 9.667141e+00 7.856677e+00 5.371930e+00 9.964246e+00 4.434343e+00 -2.389863e+00 -3.619144e+00 1.564987e+01 2.778259e+00 -1.012965e+01 -1.564945e+00 -3.533648e+00 -5.210578e+00 -8.961575e-01 2.146183e-02 4.772716e-02 -1.491511e-01 3.723154e-01 1.612842e+00 1.070367e+00 -6.962755e-01 -2.772462e-01 5.346406e-01 -3.153019e-01 -4.368785e-02 6.206435e-01 -6.000116e-02 -1.513644e-01 5.274135e-02 6.352117e-02 3.175842e-02 -4.211490e-02 -1.481626e-01 -3.591461e-02 -3.849171e-02 -7.640173e-02 6.197682e-02 2.676647e-02 -2.347206e-02
<VARIANCE> 39
 1.208607e+02 8.989957e+01 8.008820e+01 6.596434e+01 6.849689e+01 1.763638e+02 1.039440e+02 8.974612e+01 4.791911e+01 9.178269e+01 5.940996e+01 3.985755e+01 3.464852e+01 2.472566e+00 3.415630e+00 3.108495e+00 3.480696e+00 3.334813e+00 5.322642e+00 4.405630e+00 4.346509e+00 2.841376e+00 3.874689e+00 2.639643e+00 1.777817e+00 1.632296e+00 1.737533e-01 2.928197e-01 3.551915e-01 4.530606e-01 4.238196e-01 5.203204e-01 4.882396e-01 5.507916e-01 4.186611e-01 4.578748e-01 3.882490e-01 2.473615e-01 2.369971e-01
<GCONST> 1.295005e+02
<MIXTURE> 2 6.550800e-01
<MEAN> 39
 1.582428e+01 4.598578e+00 5.906000e+00 1.361467e+01 2.779744e+00 -1.636110e+01 -1.477082e+01 1.969944e+01 5.578837e+00 -1.541455e+01 -6.696224e-02 -3.037811e+00 -9.966943e+00 -1.505418e-01 1.942483e-01 2.047990e-01 7.253624e-02 -4.031658e-02 9.730064e-02 1.208424e-01 -1.335977e-01 -5.535800e-02 2.085174e-01 1.390842e-01 6.824369e-02 -5.796297e-03 -1.625865e-02 -3.290959e-04 -2.917569e-03 -1.555817e-02 1.174543e-03 7.405458e-02 5.795090e-02 -1.293616e-02 -2.287270e-02 1.627128e-02 4.284266e-03 6.708330e-03 3.674794e-02
<VARIANCE> 39
 8.221072e+01 6.518001e+01 5.053369e+01 4.134924e+01 7.489742e+01 2.027674e+02 9.465860e+01 1.153367e+02 4.333650e+01 7.676308e+01 4.278390e+01 3.061635e+01 2.790569e+01 2.844515e-01 4.604340e-01 5.593185e-01 6.456974e-01 6.858522e-01 1.247455e+00 1.194292e+00 1.376825e+00 8.052398e-01 1.103476e+00 8.477945e-01 7.143004e-01 4.807631e-01 3.873162e-02 5.187863e-02 7.786793e-02 9.158372e-02 8.265016e-02 1.124475e-01 1.489903e-01 2.003533e-01 9.249060e-02 1.556312e-01 1.286711e-01 1.014061e-01 7.215337e-02
<GCONST> 9.083675e+01
<TRANSP> 7
 0.000000e+00 1.000000e+00 0.000000e+00 0.000000e+00 0.000000e+00 0.000000e+00 0.000000e+00
 0.000000e+00 7.655815e-01 2.344184e-01 0.000000e+00 0.000000e+00 0.000000e+00 0.000000e+00
 0.000000e+00 0.000000e+00 5.398820e-01 4.601180e-01 0.000000e+00 0.000000e+00 0.000000e+00
 0.000000e+00 0.000000e+00 0.000000e+00 6.755714e-01 3.244286e-01 0.000000e+00 0.000000e+00
 0.000000e+00 0.000000e+00 0.000000e+00 0.000000e+00 1.712265e-01 8.287734e-01 0.000000e+00
 0.000000e+00 0.000000e+00 0.000000e+00 0.000000e+00 0.000000e+00 9.163504e-01 8.364957e-02
 0.000000e+00 0.000000e+00 0.000000e+00 0.000000e+00 0.000000e+00 0.000000e+00 0.000000e+00
<ENDHMM>
~h "p"
<BEGINHMM>
<NUMSTATES> 5
<STATE> 2
<NUMMIXES> 2
<MIXTURE> 1 5.389115e-01
<MEAN> 39
 -2.227282e+01 -4.366146e+00 -3.653106e+00 -8.734970e-01 -1.969341e+00 1.013959e+00 -3.380046e+00 2.232338e+00 -1.614987e+00 -1.618563e+00 5.200505e-01 -8.123326e-01 -9.717345e-02 -8.546525e-02 1.827699e-02 2.148869e-02 -4.120706e-02 -4.217202e-02 2.042213e-02 4.439963e-02 4.901107e-03 3.539248e-02 4.747200e-02 1.160783e-02 2.583281e-02 2.530304e-02 3.433913e-03 -1.573198e-02 -3.717415e-03 2.113192e-02 2.188440e-02 1.602747e-02 8.454271e-03 1.974711e-02 3.364141e-03 -1.031419e-02 7.301820e-03 1.287918e-02 1.943849e-02
<VARIANCE> 39
 1.414229e+02 5.121022e+01 3.570774e+01 3.673337e+01 3.050453e+01 2.877858e+01 1.615355e+01 2.768000e+01 1.564807e+01 1.675539e+01 9.878860e+00 1.232365e+01 1.071825e+01 1.883749e-01 1.974225e-01 3.110345e-01 4.501009e-01 5.010908e-01 7.344608e-01 8.394212e-01 8.649465e-01 8.899985e-01 9.792598e-01 9.338568e-01 9.380962e-01 7.503623e-01 1.944870e-02 4.020420e-02 6.658549e-02 9.345078e-02 1.137768e-01 1.576640e-01 1.834653e-01 1.877035e-01 1.829168e-01 2.044677e-01 2.073078e-01 2.061473e-01 1.640622e-01
<GCONST> 7.836356e+01
<MIXTURE> 2 4.610884e-01
<MEAN> 39
 -2.868450e-01 7.804709e+00 6.196150e+00 9.690645e+00 6.989727e+00 4.161407e+00 -1.332626e+00 9.783127e+00 6.232880e-01 -5.899912e+00 -1.061327e+00 -1.712282e+00 -1.351069e+00 -1.994339e+00 -2.292896e-01 3.513496e-01 -2.508801e-01 -2.366315e-01 6.134759e-01 4.550656e-01 -3.349379e-01 6.414606e-02 7.775012e-01 2.538114e-01 3.982495e-02 3.322125e-01 -2.731618e-02 -3.822427e-01 -2.382815e-01 -3.715052e-02 1.123273e-02 -9.495892e-02 -1.029733e-01 3.048374e-02 -1.556532e-02 -4.162286e-02 1.294430e-01 7.562715e-02 -1.517818e-02
<VARIANCE> 39
 1.737121e+02 1.118974e+02 8.614929e+01 8.171590e+01 7.379206e+01 9.229389e+01 7.092793e+01 6.404846e+01 6.338285e+01 5.613628e+01 4.223839e+01 2.417950e+01 3.131825e+01 2.722572e+00 2.725954e+00 2.520046e+00 2.142758e+00 2.074620e+00 2.426371e+00 1.987372e+00 1.825326e+00 1.689063e+00 1.787865e+00 1.604053e+00 1.198716e+00 1.205168e+00 1.612549e-01 2.617250e-01 3.224780e-01 2.968698e-01 3.009298e-01 2.887643e-01 2.849754e-01 2.899743e-01 3.196908e-01 2.993541e-01 2.694775e-01 2.136636e-01 2.091061e-01
<GCONST> 1.175364e+02
<STATE> 3
<NUMMIXES> 2
<MIXTURE> 1 8.813059e-01
<MEAN> 39
 -1.393453e+01 -8.572826e-01 2.249500e+00 6.669207e+00 5.256431e+00 6.377902e+00 2.070684e-01 7.370237e+00 1.095884e+00 -1.460824e+00 1.291136e+00 -1.840851e-01 1.686391e+00 1.675630e-02 -1.551741e+00 -1.050159e+00 -1.739509e-01 1.768205e-01 2.155472e-01 -4.159254e-02 2.016765e-01 -4.354571e-02 -2.623123e-01 1.065491e-01 1.452584e-01 4.536926e-01 5.528296e-01 2.940822e-02 -3.941284e-03 4.116204e-02 7.109341e-02 -3.851288e-02 -1.385478e-01 6.822723e-02 -1.431363e-01 -2.995292e-01 -4.551740e-02 -9.724718e-02 -8.463560e-02
<VARIANCE> 39
 1.377566e+02 6.535492e+01 5.461463e+01 6.144609e+01 6.058208e+01 6.555253e+01 5.516999e+01 4.084589e+01 3.113987e+01 4.033237e+01 2.388103e+01 1.558081e+01 2.719173e+01 6.927014e+00 4.582633e+00 3.939181e+00 4.003386e+00 4.170339e+00 3.446475e+00 2.910793e+00 3.101813e+00 2.295497e+00 2.423715e+00 2.232000e+00 1.796910e+00 1.995286e+00 2.913870e-01 3.563905e-01 5.082258e-01 4.936220e-01 5.409413e-01 5.043066e-01 4.749059e-01 4.259965e-01 3.730479e-01 3.825400e-01 3.612120e-01 2.936585e-01 3.467142e-01
<GCONST> 1.243489e+02
<MIXTURE> 2 1.186941e-01
<MEAN> 39
 -2.661817e+01 -6.090511e+00 -4.839026e+00 -2.527815e+00 -3.506361e+00 8.255272e-01 -3.199484e+00 1.442544e+00 -1.044466e+00 2.433281e-01 1.069830e+00 -5.612946e-01 6.767593e-01 -2.832510e-02 -4.706242e-02 -4.259430e-02 1.239689e-02 2.761030e-02 -7.389513e-02 -1.139142e-01 2.396897e-02 4.592445e-02 1.936444e-02 -1.395660e-02 -6.685577e-03 -3.288923e-02 1.578765e-01 8.649656e-02 8.258362e-02 1.129955e-01 1.578214e-01 1.058985e-01 8.267356e-02 8.570043e-02 2.510495e-02 -8.062934e-02 -5.269227e-02 1.050178e-02 4.378011e-02
<VARIANCE> 39
 3.006638e+00 3.069839e+00 3.799923e+00 5.104988e+00 5.739460e+00 5.610029e+00 6.953041e+00 7.299869e+00 6.083473e+00 7.451426e+00 6.960644e+00 7.330548e+00 5.649084e+00 1.010639e-01 2.086272e-01 2.349920e-01 4.732133e-01 5.412933e-01 6.913624e-01 9.748992e-01 1.076501e+00 8.787713e-01 1.167886e+00 9.419611e-01 1.056865e+00 9.757899e-01 6.295579e-02 8.516859e-02 9.564149e-02 1.250343e-01 1.656785e-01 1.842863e-01 2.555498e-01 3.029004e-01 2.447913e-01 2.859468e-01 2.259793e-01 2.432064e-01 1.940056e-01
<GCONST> 6.384563e+01
<STATE> 4
<NUMMIXES> 2
<MIXTURE> 1 2.254702e-01
<MEAN> 39
 -1.310904e+01 -4.144825e+00 -2.196275e+00 5.430114e+00 6.607965e+00 8.131423e+00 9.735243e-01 7.521029e+00 -3.181444e-01 -3.578520e+00 -3.071394e-01 6.871777e-01 5.220808e+00 3.156649e+00 -6.980253e-01 -6.078501e-01 2.568367e-01 3.017423e-01 -3.241199e-01 -8.583841e-01 8.119324e-01 -9.027036e-02 -9.956389e-01 1.585109e-01 -5.891880e-01 -7.749704e-02 5.932082e-01 2.345551e-01 1.634673e-01 -1.604521e-01 -3.866690e-01 -4.432259e-01 -4.037257e-01 3.778051e-02 -7.733901e-02 -1.459423e-01 2.546791e-01 -2.860473e-01 -5.457408e-01
<VARIANCE> 39
 5.822619e+01 2.021284e+01 2.056728e+01 3.202948e+01 3.931463e+01 2.924668e+01 2.889541e+01 2.594899e+01 2.041810e+01 2.035941e+01 2.003208e+01 1.535895e+01 1.746464e+01 3.845600e+00 3.009961e+00 3.450725e+00 3.721637e+00 3.676602e+00 3.686961e+00 3.733912e+00 2.945831e+00 3.070102e+00 2.851720e+00 3.363456e+00 2.199755e+00 2.364335e+00 3.325401e-01 3.098041e-01 4.987291e-01 5.707164e-01 5.746348e-01 6.527759e-01 5.255820e-01 4.707985e-01 5.277491e-01 5.113826e-01 4.694815e-01 3.480603e-01 3.540179e-01
<GCONST> 1.184961e+02
<MIXTURE> 2 7.745296e-01
<MEAN> 39
 7.529129e+00 -6.878488e+00 -1.245514e+00 1.078560e+01 1.045822e+01 4.557760e+00 -6.804585e+00 1.152576e+01 -1.807108e+00 -1.163295e+01 2.818962e+00 -2.316794e+00 -9.254785e-01 2.283159e+00 -1.934552e-01 -2.942207e-01 4.191599e-01 2.392293e-01 -1.556706e+00 -1.592004e+00 4.887780e-01 -3.105902e-01 -1.412598e+00 4.882445e-01 7.878695e-02 -1.093340e+00 -3.162132e-01 9.030008e-02 8.193690e-02 1.071787e-01 1.041195e-01 -1.343185e-01 -4.504453e-02 4.305422e-03 1.049682e-01 8.288617e-02 6.290734e-03 1.650891e-01 -2.798767e-02
<VARIANCE> 39
 1.193387e+02 1.048934e+02 7.496866e+01 1.038402e+02 1.515836e+02 2.638626e+02 1.127331e+02 9.878267e+01 8.514078e+01 5.461797e+01 6.090881e+01 2.804556e+01 4.082315e+01 3.583226e+00 3.856203e+00 3.720899e+00 3.897632e+00 4.433158e+00 9.180166e+00 4.502006e+00 3.904538e+00 4.368459e+00 4.316654e+00 3.965592e+00 1.888774e+00 2.212286e+00 2.618138e-01 5.088083e-01 4.596972e-01 4.513898e-01 4.479964e-01 1.205235e+00 6.212763e-01 4.999560e-01 6.762587e-01 7.375465e-01 6.769986e-01 3.092788e-01 3.215850e-01
<GCONST> 1.384336e+02
<TRANSP> 5
 0.000000e+00 1.000000e+00 0.000000e+00 0.000000e+00 0.000000e+00
 0.000000e+00 8.467567e-01 1.532433e-01 0.000000e+00 0.000000e+00
 0.000000e+00 0.000000e+00 7.855839e-01 2.144161e-01 0.000000e+00
 0.000000e+00 0.000000e+00 0.000000e+00 7.014933e-01 2.985067e-01
 0.000000e+00 0.000000e+00 0.000000e+00 0.000000e+00 0.000000e+00
<ENDHMM>
~h "q"
<BEGINHMM>
<NUMSTATES> 5
<STATE> 2
<NUMMIXES> 2
<MIXTURE> 1 7.192803e-01
<MEAN> 39
 1.276566e+01 -7.279230e-01 1.384930e+00 1.430865e+01 1.451282e+01 -1.726642e+00 -1.362900e+01 1.161540e+01 -2.653894e+00 -1.443690e+01 5.742917e+00 -1.906101e+00 -8.058702e+00 -4.670751e-01 7.455162e-01 6.613604e-01 4.773117e-01 2.667258e-01 7.082343e-01 5.090530e-01 -8.185946e-01 -9.417841e-02 4.992187e-01 -7.444612e-01 -4.419520e-01 8.564703e-02 -4.677399e-02 -1.882737e-02 1.171766e-02 -2.348351e-02 -2.858976e-02 9.290218e-03 2.311140e-02 -2.681909e-02 -1.159356e-02 2.131175e-02 -7.574628e-03 6.773317e-03 2.967076e-02
<VARIANCE> 39
 1.326658e+02 8.327539e+01 8.217448e+01 1.038250e+02 1.053734e+02 9.558958e+01 1.337728e+02 1.258303e+02 6.904410e+01 1.138111e+02 1.369404e+02 3.387010e+01 6.361572e+01 1.003594e+00 1.737575e+00 1.765491e+00 2.434793e+00 2.153696e+00 2.109529e+00 3.367681e+00 3.098509e+00 1.492478e+00 2.786586e+00 3.227519e+00 1.411801e+00 1.582791e+00 9.221543e-02 1.734202e-01 2.021488e-01 2.345854e-01 2.392177e-01 2.644019e-01 4.104018e-01 3.694980e-01 2.135787e-01 3.408405e-01 3.826713e-01 2.039263e-01 1.931312e-01
<GCONST> 1.211795e+02
<MIXTURE> 2 2.807198e-01
<MEAN> 39
 1.539188e+01 2.502366e+00 6.447498e+00 1.954380e+01 1.484439e+01 -5.169846e+00 -1.371600e+01 1.410783e+01 -5.831718e-02 -1.656949e+01 1.097375e+00 -5.560761e+00 -1.437199e+01 -1.266163e-01 3.195955e-01 3.017541e-01 -1.584919e-02 -4.704617e-02 1.881665e-01 9.333499e-02 -3.178129e-01 -1.032377e-01 2.924544e-01 -3.760934e-03 -1.762629e-01 -1.328880e-03 -2.441699e-03 3.881507e-02 -1.383661e-02 -5.719611e-02 -4.484340e-02 5.389542e-02 5.553779e-02 -3.169769e-02 2.898521e-03 3.484870e-02 -1.791314e-02 3.294655e-02 8.040439e-02
<VARIANCE> 39
 1.015533e+01 7.862994e+01 3.227104e+01 5.001859e+01 7.085063e+01 5.787850e+01 1.415163e+02 6.608510e+01 4.862608e+01 7.295473e+01 1.578111e+02 3.469802e+01 3.185422e+01 1.060536e-01 3.046078e-01 3.320074e-01 5.722042e-01 5.026847e-01 6.924851e-01 6.966815e-01 8.549011e-01 5.138348e-01 6.639818e-01 5.840760e-01 6.399983e-01 5.072103e-01 1.678070e-02 3.722132e-02 4.904456e-02 8.816618e-02 8.516664e-02 7.936379e-02 1.193073e-01 1.269823e-01 7.645443e-02 1.037165e-01 9.166773e-02 1.017029e-01 9.319247e-02
<GCONST> 8.015290e+01
<STATE> 3
<NUMMIXES> 2
<MIXTURE> 1 8.508987e-01
<MEAN> 39
 7.041351e+00 9.533610e+00 9.699110e+00 1.700184e+01 1.445593e+01 5.068805e+00 -6.871274e+00 2.883251e+00 -2.643961e+00 -6.858071e+00 -2.368136e+00 -5.922535e+00 -5.071259e+00 -5.909007e-01 3.876058e-01 4.269871e-01 -2.310716e-01 -3.456336e-01 4.517525e-01 6.712486e-01 7.271936e-02 -1.201813e-01 1.257579e-01 -2.991702e-02 7.060477e-02 2.127591e-01 -6.116145e-02 -1.411576e-01 -1.000843e-01 -5.224917e-02 -3.932202e-02 -4.917040e-02 -6.964803e-05 1.286682e-01 3.158090e-02 -4.827037e-02 9.876160e-02 1.152482e-01 1.579092e-02
<VARIANCE> 39
 1.277631e+02 1.033846e+02 6.074971e+01 6.093463e+01 7.106139e+01 6.473438e+01 8.669562e+01 9.059928e+01 3.906600e+01 5.558052e+01 6.118037e+01 3.554576e+01 3.004640e+01 8.049558e-01 9.117603e-01 1.005074e+00 1.075951e+00 1.343420e+00 1.251444e+00 1.897490e+00 1.597114e+00 1.101576e+00 1.411109e+00 1.278614e+00 1.010369e+00 9.392545e-01 4.956435e-02 1.115048e-01 1.265840e-01 1.508695e-01 1.805883e-01 1.535578e-01 2.231880e-01 1.980690e-01 1.661939e-01 2.116085e-01 1.699280e-01 1.525828e-01 1.234357e-01
<GCONST> 1.026347e+02
<MIXTURE> 2 1.491013e-01
<MEAN> 39
 1.155756e+01 1.008095e+01 8.249991e+00 1.811748e+01 1.632540e+01 3.947124e+00 -8.213061e+00 -1.650021e-01 -2.787489e+00 -6.828149e+00 -4.883787e+00 -6.867544e+00 -6.203736e+00 -8.574136e-02 2.726755e-01 2.156456e-01 -1.399199e-02 -8.382340e-02 1.068442e-01 4.893855e-02 -1.160989e-01 -6.520852e-02 1.388273e-01 -3.665145e-02 -1.881263e-01 -3.192623e-02 -2.488184e-02 1.910518e-02 2.583615e-02 1.181933e-02 1.290035e-02 1.136827e-02 -1.568779e-02 7.435460e-02 -2.231012e-02 -7.817077e-02 1.960216e-02 1.945589e-02 1.019493e-02
<VARIANCE> 39
 8.093246e+01 4.927345e+01 4.270271e+01 3.262845e+01 5.046335e+01 4.263284e+01 5.826865e+01 6.721490e+01 2.475976e+01 2.828683e+01 2.822588e+01 1.847156e+01 2.745135e+01 5.697465e-02 1.989668e-01 1.643436e-01 2.358388e-01 2.790523e-01 2.476148e-01 3.890097e-01 4.183126e-01 2.552891e-01 3.836654e-01 2.641610e-01 2.802480e-01 2.732755e-01 9.964108e-03 2.112328e-02 2.803152e-02 3.424294e-02 4.697081e-02 3.783539e-02 6.059793e-02 5.450745e-02 4.197031e-02 6.017236e-02 4.258062e-02 5.108971e-02 4.965470e-02
<GCONST> 5.825800e+01
<STATE> 4
<NUMMIXES> 2
<MIXTURE> 1 6.913568e-01
<MEAN> 39
 -1.981758e+01 -1.516680e+00 -6.170321e-01 1.806445e+00 4.562793e-01 3.032330e+00 -2.108019e+00 3.053483e+00 -1.243097e+00 -1.272751e+00 9.795563e-01 -8.277538e-01 -1.948996e-01 -3.208342e-01 -1.005442e-01 -3.990857e-02 -1.110192e-01 -7.824770e-02 6.689033e-02 1.012594e-01 2.431512e-02 4.162589e-02 7.583833e-02 3.982703e-02 7.401794e-02 8.608409e-02 -1.457998e-02 -5.020542e-02 -1.811715e-02 2.284657e-02 2.475282e-02 -1.260123e-02 -2.493858e-02 1.950017e-03 8.510556e-03 -1.515525e-02 -1.284332e-02 -9.622207e-03 1.165932e-03
<VARIANCE> 39
 1.562760e+02 8.861487e+01 7.408969e+01 7.081512e+01 5.712529e+01 3.512359e+01 2.240666e+01 2.866549e+01 1.850672e+01 1.996355e+01 1.697387e+01 1.496650e+01 1.213913e+01 6.954006e-01 3.408642e-01 4.278572e-01 5.676322e-01 6.469254e-01 7.969168e-01 9.085841e-01 9.423693e-01 1.060964e+00 1.052930e+00 9.306609e-01 8.924366e-01 7.671515e-01 3.776167e-02 6.777778e-02 8.968474e-02 1.101679e-01 1.299553e-01 1.579979e-01 1.846161e-01 1.887381e-01 2.103142e-01 2.087603e-01 1.877577e-01 1.800644e-01 1.558027e-01
<GCONST> 8.758140e+01
<MIXTURE> 2 3.086430e-01
<MEAN> 39
 -5.277590e+00 4.529633e+00 8.451838e+00 1.307675e+01 1.014308e+01 6.949698e+00 -2.327302e+00 6.407951e+00 -1.047411e+00 -4.583422e+00 4.942398e-01 -2.130466e+00 -1.604298e+00 -9.781050e-01 -1.371137e+00 -7.734569e-01 -9.403020e-01 -9.305735e-01 -2.547328e-01 -2.008218e-02 1.545090e-01 8.549608e-02 -1.401614e-01 -3.382805e-02 2.017353e-01 4.250384e-01 1.442465e-01 -2.592013e-01 -1.668319e-01 -8.108896e-02 -6.691566e-02 -1.682938e-01 -1.550913e-01 9.704030e-02 -1.153799e-02 -1.092293e-01 1.353229e-01 6.866326e-02 -5.376860e-02
<VARIANCE> 39
 1.776969e+02 1.073996e+02 7.646095e+01 9.160148e+01 8.604883e+01 6.865414e+01 9.133040e+01 6.312552e+01 5.593200e+01 6.981925e+01 6.259702e+01 3.221791e+01 3.460121e+01 3.179820e+00 3.930035e+00 4.098990e+00 3.967895e+00 3.953844e+00 4.344461e+00 4.224319e+00 3.784613e+00 3.150620e+00 3.468543e+00 3.009400e+00 1.937046e+00 2.012570e+00 2.084894e-01 4.202292e-01 4.636683e-01 4.928876e-01 5.237461e-01 4.797388e-01 4.528081e-01 4.580620e-01 4.583978e-01 4.723680e-01 4.395448e-01 2.768193e-01 2.976829e-01
<GCONST> 1.312250e+02
<TRANSP> 5
 0.000000e+00 1.000000e+00 0.000000e+00 0.000000e+00 0.000000e+00
 0.000000e+00 7.821345e-01 2.178655e-01 0.000000e+00 0.000000e+00
 0.000000e+00 0.000000e+00 6.260006e-01 3.739994e-01 0.000000e+00
 0.000000e+00 0.000000e+00 0.000000e+00 8.580170e-01 1.419830e-01
 0.000000e+00 0.000000e+00 0.000000e+00 0.000000e+00 0.000000e+00
<ENDHMM>
~h "r"
<BEGINHMM>
<NUMSTATES> 5
<STATE> 2
<NUMMIXES> 2
<MIXTURE> 1 9.884736e-01
<MEAN> 39
 1.684658e+01 -4.779293e+00 -8.156729e+00 6.723167e+00 1.486682e+01 -2.455168e-01 -1.510949e+01 9.279882e+00 -7.023357e+00 -1.615156e+01 8.425524e+00 2.744131e+00 -4.220669e-01 -4.335196e-01 8.953912e-01 2.780947e-01 2.662470e-01 2.296896e-01 1.078039e+00 1.026275e+00 -8.813151e-01 1.830898e-01 5.916286e-01 -1.136721e+00 -9.620363e-02 2.486832e-01 -1.933644e-01 1.153213e-01 2.515693e-01 9.210105e-02 -1.587060e-01 3.755836e-02 2.622910e-01 7.065083e-02 8.058897e-02 1.360176e-01 -1.014773e-01 -8.389357e-02 -2.203126e-02
<VARIANCE> 39
 1.073111e+02 5.638724e+01 9.353543e+01 6.666338e+01 8.365451e+01 7.970514e+01 1.157001e+02 7.445636e+01 5.807902e+01 7.631107e+01 9.289117e+01 3.353355e+01 4.892132e+01 1.785563e+00 1.736421e+00 2.242662e+00 1.377328e+00 1.605037e+00 2.377458e+00 4.365215e+00 3.393272e+00 1.841013e+00 2.836001e+00 3.748272e+00 1.350095e+00 1.324144e+00 2.018078e-01 1.984065e-01 3.077999e-01 1.929632e-01 2.253373e-01 2.605214e-01 5.257321e-01 4.660455e-01 2.772436e-01 4.505458e-01 4.842518e-01 2.095683e-01 1.895309e-01
<GCONST> 1.208549e+02
<MIXTURE> 2 1.152628e-02
<MEAN> 39
 1.740623e+01 -1.193386e+01 8.486660e-01 1.822337e+01 2.013393e+01 2.041641e+00 -2.659797e+01 -2.856933e+00 -5.858110e+00 -1.957808e+01 8.238293e+00 4.536068e+00 -1.212683e+01 1.396387e-02 -1.044765e-01 -9.649208e-02 1.156326e-01 1.771990e-01 -1.137440e-01 -2.412717e-01 -1.524986e-01 2.909760e-02 7.315440e-02 -2.988905e-01 -8.254080e-02 3.374484e-01 -1.710841e-02 1.607585e-01 -8.459562e-02 2.709518e-02 8.828661e-02 -6.607298e-03 1.324260e-01 1.671627e-01 -1.004776e-01 -3.166648e-02 4.004906e-02 -2.029039e-02 8.465964e-03
<VARIANCE> 39
 4.965266e+00 2.154237e+01 5.159309e+01 6.706311e+01 3.030786e+01 1.745435e+01 2.995898e+01 3.139197e+01 1.867351e+01 3.869164e+01 3.640887e+01 2.048318e+01 3.607296e+01 3.989097e-01 6.713839e-01 8.079608e-01 3.399961e-01 4.877914e-01 5.262182e-01 1.237231e+00 4.928466e-01 5.648629e-01 7.498000e-01 7.052053e-01 3.364784e-01 6.561157e-01 5.598973e-02 6.093059e-02 7.162909e-02 2.829281e-02 6.070587e-02 7.005381e-02 1.508255e-01 3.741467e-02 8.197304e-02 7.414747e-02 5.774942e-02 4.274163e-02 8.568041e-02
<GCONST> 7.113174e+01
<STATE> 3
<NUMMIXES> 2
<MIXTURE> 1 9.945617e-01
<MEAN> 39
 1.118788e+01 5.741969e-01 -3.503354e+00 8.599277e+00 1.200014e+01 5.064465e+00 -5.546402e+00 6.696527e+00 -6.269220e+00 -1.231603e+01 2.055317e+00 8.384579e-01 7.852479e-01 -4.849691e-01 2.916895e-01 5.970033e-01 2.982693e-01 -9.925102e-02 2.929721e-01 4.424444e-01 1.003097e-02 -2.146804e-01 1.446003e-02 2.212315e-02 -1.556182e-01 -2.602030e-01 1.233553e-01 -2.088600e-01 -1.548723e-01 -6.334251e-02 7.668505e-02 -1.726206e-01 -3.502206e-01 5.763589e-02 -5.450864e-02 -1.411380e-01 2.477992e-01 3.893583e-02 -1.007932e-01
<VARIANCE> 39
 1.307389e+02 5.940249e+01 7.202731e+01 6.817599e+01 7.701598e+01 7.920249e+01 8.438983e+01 6.171951e+01 5.602402e+01 6.005511e+01 6.671268e+01 2.851916e+01 4.130783e+01 3.836897e+00 3.505298e+00 4.351160e+00 2.378216e+00 2.706989e+00 2.957590e+00 5.241491e+00 3.060280e+00 3.794742e+00 4.767315e+00 4.336585e+00 1.909491e+00 2.020140e+00 5.020698e-01 5.085711e-01 6.479964e-01 3.097340e-01 3.340241e-01 3.903704e-01 7.746613e-01 4.935727e-01 7.051060e-01 8.368471e-01 7.744972e-01 2.889716e-01 2.994924e-01
<GCONST> 1.321047e+02
<MIXTURE> 2 5.438033e-03
<MEAN> 39
 1.052791e+01 -1.878048e+01 5.211229e+00 1.435218e+01 9.294985e+00 1.030832e+01 -1.391808e+01 -3.290434e-01 -4.293284e+00 -1.654270e+01 2.557318e+00 -6.418080e-01 -6.784763e+00 5.874492e-02 -1.175160e-01 -5.284217e-01 1.174437e-01 3.290350e-01 2.938660e-01 3.542733e-01 -1.940110e-01 8.907960e-02 4.111497e-01 -9.999251e-02 1.251356e-02 -6.884813e-03 -2.440436e-01 6.569678e-02 -2.532985e-02 -1.793997e-01 4.251725e-02 -3.493698e-02 2.603659e-01 3.403169e-01 -1.320901e-02 5.669494e-02 1.248824e-01 1.331075e-01 1.433121e-01
<VARIANCE> 39
 8.787823e+01 2.347358e+02 7.584663e+01 9.630957e+01 1.661241e+02 9.998341e+01 2.069305e+02 3.396474e+01 4.619233e+01 7.948230e+01 8.987773e+01 2.302641e+01 1.395062e+02 1.319388e+00 4.615774e+00 1.391325e+00 1.061703e+00 1.674635e+00 3.437356e+00 3.086519e+00 1.428792e+00 1.034305e+00 1.898747e+00 2.179116e+00 1.028707e+00 1.070173e+00 1.771751e-01 1.431920e-01 1.722130e-01 1.305048e-01 1.241414e-01 1.191870e-01 2.175822e-01 2.927362e-01 2.368715e-01 3.474181e-01 2.311056e-01 3.419864e-01 1.858634e-01
<GCONST> 1.156911e+02
<STATE> 4
<NUMMIXES> 2
<MIXTURE> 1 7.813222e-01
<MEAN> 39
 -5.370877e+00 -3.886638e+00 -5.748394e+00 1.922679e+00 3.822692e+00 3.504459e+00 -3.264515e+00 5.330873e+00 -3.044491e+00 -6.223227e+00 1.976408e+00 1.601592e+00 1.383714e+00 -3.709379e-01 6.967324e-02 2.253433e-01 4.781707e-02 -4.307249e-02 7.279618e-02 4.176848e-02 -4.156585e-02 1.229346e-01 1.638436e-01 -5.176985e-02 -7.637989e-02 -4.444284e-02 4.792958e-03 -6.703250e-02 5.683461e-03 1.987752e-02 1.746656e-02 -1.800790e-02 -4.062587e-02 3.899841e-02 -2.252435e-02 -5.307646e-02 5.424862e-02 5.619632e-03 -1.997948e-02
<VARIANCE> 39
 4.408271e+02 1.294138e+02 7.716431e+01 4.793571e+01 6.631534e+01 6.250100e+01 5.267890e+01 6.447923e+01 4.552661e+01 4.660344e+01 3.737690e+01 3.018314e+01 1.935949e+01 1.820445e+00 1.357355e+00 1.639305e+00 1.142701e+00 1.179875e+00 1.564499e+00 1.912212e+00 1.644549e+00 1.609078e+00 1.744349e+00 1.562087e+00 1.162008e+00 1.022115e+00 1.357609e-01 1.606160e-01 2.126956e-01 1.633440e-01 1.740389e-01 2.076719e-01 2.841849e-01 2.588649e-01 2.760925e-01 2.943893e-01 2.686415e-01 2.074069e-01 1.745911e-01
<GCONST> 1.096396e+02
<MIXTURE> 2 2.186778e-01
<MEAN> 39
 1.760937e+01 -7.456938e+00 -2.503269e+00 1.300501e+01 2.084269e+01 -6.488409e-01 -2.215776e+01 9.996384e+00 -1.259905e+01 -2.236187e+01 1.668932e+01 1.658057e+00 -9.274466e+00 8.315573e-02 -3.355342e-01 1.520000e-01 1.346031e-01 2.365189e-01 -1.145979e-01 -5.167688e-01 2.159797e-01 -1.674175e-01 -1.615280e-01 7.167066e-01 -1.701929e-01 -5.336683e-01 -1.002138e-01 8.114339e-02 7.897164e-02 -2.001036e-02 -1.290857e-01 1.312475e-01 2.551939e-01 -9.386778e-02 1.210177e-01 2.052252e-01 -2.227170e-01 -4.624085e-02 1.053182e-01
<VARIANCE> 39
 1.961125e+01 3.364961e+01 6.319285e+01 8.656067e+01 8.739577e+01 6.687279e+01 8.755058e+01 6.428645e+01 6.452636e+01 8.499863e+01 9.487909e+01 2.640549e+01 6.122812e+01 5.577506e-01 9.179876e-01 1.096690e+00 1.089597e+00 1.287586e+00 1.540987e+00 3.514538e+00 2.247704e+00 1.453657e+00 2.359411e+00 2.768780e+00 1.011837e+00 1.352449e+00 6.893669e-02 8.505223e-02 1.413712e-01 1.335688e-01 1.496392e-01 1.733534e-01 2.480595e-01 2.865362e-01 1.908778e-01 2.488659e-01 2.570699e-01 1.587141e-01 1.320277e-01
<GCONST> 1.057856e+02
<TRANSP> 5
 0.000000e+00 1.000000e+00 0.000000e+00 0.000000e+00 0.000000e+00
 0.000000e+00 5.991489e-01 4.008511e-01 0.000000e+00 0.000000e+00
 0.000000e+00 0.000000e+00 6.136791e-01 3.863209e-01 0.000000e+00
 0.000000e+00 0.000000e+00 0.000000e+00 7.883364e-01 2.116636e-01
 0.000000e+00 0.000000e+00 0.000000e+00 0.000000e+00 0.000000e+00
<ENDHMM>
~h "s"
<BEGINHMM>
<NUMSTATES> 5
<STATE> 2
<NUMMIXES> 2
<MIXTURE> 1 8.257621e-01
<MEAN> 39
 -8.842137e+00 -2.077655e+01 2.746933e+01 -3.464640e+00 2.641196e-01 1.879175e+01 -6.994799e+00 6.635067e+00 -1.248984e+01 -7.238815e+00 9.339941e+00 -8.353457e-01 2.139821e+00 -1.693685e+00 -9.885989e-01 1.780204e+00 -1.120093e+00 -7.805926e-01 7.819967e-01 3.413837e-01 1.598946e-01 -2.164662e-01 7.488765e-01 6.474257e-02 7.111230e-02 6.551226e-01 -3.839144e-02 -1.152852e-02 -1.614289e-01 2.108110e-02 8.254594e-02 -1.389378e-01 -4.436544e-02 1.189567e-01 5.827259e-02 -1.463450e-03 9.435570e-02 5.187276e-02 -3.414378e-02
<VARIANCE> 39
 2.480478e+02 1.628175e+02 2.644833e+02 1.978740e+02 1.197328e+02 1.298085e+02 7.409407e+01 8.634883e+01 5.772173e+01 6.783478e+01 5.427371e+01 2.717588e+01 5.257575e+01 3.683676e+00 3.484886e+00 7.229782e+00 2.859122e+00 2.359268e+00 5.184096e+00 2.931676e+00 3.625597e+00 2.302209e+00 3.004033e+00 3.208515e+00 1.928224e+00 1.940345e+00 2.890913e-01 3.759098e-01 6.715251e-01 2.992344e-01 3.136293e-01 4.732255e-01 3.224415e-01 5.251958e-01 3.449585e-01 4.182346e-01 4.570042e-01 3.219318e-01 2.428132e-01
<GCONST> 1.331873e+02
<MIXTURE> 2 1.742382e-01
<MEAN> 39
 -2.274249e+01 -2.521670e+01 3.600909e+01 -1.440986e+01 -3.475308e+00 2.219568e+01 -7.620513e+00 8.845576e+00 -9.916429e+00 -4.316144e-01 1.107703e+01 6.084528e-01 5.834660e+00 -1.296055e+00 -7.332791e-01 -5.792022e-01 -1.244375e+00 -8.982229e-01 -8.888479e-01 -6.483771e-01 3.153098e-02 -5.320182e-02 1.231316e-01 -5.880177e-03 -1.772683e-02 1.078062e-01 4.311892e-01 1.418053e-01 -7.879530e-02 8.264292e-02 1.582956e-02 -4.513475e-02 -1.270790e-01 -2.529991e-01 -2.313931e-01 -2.598425e-01 -2.644348e-01 -2.267192e-01 -1.247982e-01
<VARIANCE> 39
 2.000788e+01 6.353958e+01 9.886427e+01 7.723201e+01 3.468973e+01 4.947980e+01 5.147691e+01 2.792302e+01 3.593263e+01 2.059713e+01 2.615144e+01 1.685991e+01 1.271270e+01 1.608024e+00 1.132315e+00 1.358908e+00 2.128541e+00 1.756430e+00 1.790067e+00 1.268945e+00 1.484640e+00 1.501322e+00 1.534421e+00 1.612406e+00 1.444691e+00 9.022360e-01 1.353887e-01 1.514755e-01 2.525252e-01 1.887804e-01 2.004721e-01 2.510287e-01 2.248316e-01 2.428008e-01 2.544854e-01 2.632329e-01 2.787797e-01 2.656850e-01 1.546919e-01
<GCONST> 1.027401e+02
<STATE> 3
<NUMMIXES> 2
<MIXTURE> 1 2.393572e-01
<MEAN> 39
 8.757546e+00 -7.226116e+00 5.854720e+00 1.340502e+01 1.127455e+01 1.406160e+00 -1.268642e+01 1.006236e+01 -2.362451e+00 -1.356102e+01 5.485358e+00 -1.052496e+00 -6.471716e+00 3.788421e-02 -8.315659e-02 1.343161e-01 4.208073e-03 1.752537e-01 2.875246e-01 -8.406666e-02 -1.126283e-01 -1.576473e-01 -8.484596e-02 5.547332e-02 -7.729838e-02 4.332558e-02 6.632861e-02 1.482634e-02 -7.226151e-02 2.700456e-02 6.228444e-02 -7.149915e-02 -5.735826e-02 3.776815e-02 -1.135211e-01 -8.181015e-02 3.889906e-02 -1.716569e-02 2.662271e-03
<VARIANCE> 39
 1.569981e+02 2.399190e+02 1.439971e+02 1.350775e+02 1.937007e+02 1.780289e+02 1.854433e+02 9.961069e+01 8.099614e+01 9.366251e+01 9.363455e+01 3.084996e+01 8.226218e+01 2.546868e+00 3.686383e+00 2.569161e+00 2.494990e+00 2.227852e+00 2.604029e+00 3.678038e+00 2.661006e+00 2.173689e+00 2.983845e+00 3.034435e+00 1.329317e+00 1.683875e+00 1.841665e-01 3.007317e-01 3.064160e-01 2.429930e-01 2.368919e-01 2.660316e-01 3.378966e-01 3.251505e-01 3.290101e-01 3.656253e-01 3.389613e-01 2.172729e-01 2.012768e-01
<GCONST> 1.288031e+02
<MIXTURE> 2 7.606430e-01
<MEAN> 39
 -2.580779e+01 -1.394728e+01 9.545746e+00 -7.903520e+00 -4.753288e+00 7.398483e+00 -5.361271e+00 3.770170e+00 -5.809267e+00 -1.097773e+00 4.052744e+00 -7.276180e-01 2.488633e+00 -3.024095e-02 -1.717157e-01 -2.190686e-01 -1.653096e-02 5.523112e-02 2.471776e-02 -7.697493e-04 -8.713858e-02 -5.166620e-03 7.709754e-02 5.944247e-02 6.351856e-02 3.352757e-02 1.554105e-01 5.038956e-03 4.592707e-03 6.282008e-02 7.908451e-02 5.679917e-02 2.411704e-02 8.292057e-03 -2.380274e-02 -3.484317e-02 -1.203724e-02 -1.631338e-03 5.302002e-03
<VARIANCE> 39
 7.040501e+00 1.287707e+02 3.894907e+02 7.091698e+01 2.010060e+01 8.556562e+01 2.645488e+01 2.349205e+01 5.159589e+01 1.399804e+01 3.255173e+01 1.169460e+01 1.251376e+01 4.503114e-01 5.028797e-01 6.128464e-01 6.019823e-01 7.152182e-01 8.447034e-01 8.384159e-01 9.363976e-01 1.113201e+00 1.093922e+00 1.063773e+00 1.035939e+00 7.863913e-01 8.646224e-02 8.488376e-02 1.051276e-01 1.172296e-01 1.486683e-01 1.859204e-01 1.804467e-01 1.985488e-01 2.210162e-01 2.270688e-01 2.225476e-01 2.219996e-01 1.740008e-01
<GCONST> 9.049548e+01
<STATE> 4
<NUMMIXES> 2
<MIXTURE> 1 8.049999e-01
<MEAN> 39
 -1.314710e+01 -2.212570e+01 2.238969e+01 -5.727996e+00 -1.619953e+00 1.636336e+01 -6.199517e+00 7.408933e+00 -1.025502e+01 -5.160968e+00 7.447917e+00 -9.622239e-01 4.067098e+00 1.624646e+00 1.349982e+00 -1.841153e+00 1.349210e+00 7.425991e-01 -5.999964e-01 -1.205087e-02 -1.596117e-01 5.834445e-01 -5.275759e-01 -3.971250e-01 -8.568048e-02 -3.766053e-01 5.762133e-02 3.102845e-02 -2.844172e-01 4.003280e-02 2.487697e-02 -2.607513e-01 -1.114355e-01 5.544164e-02 3.315492e-02 -9.176089e-02 8.915418e-02 5.765207e-02 -7.985675e-02
<VARIANCE> 39
 1.900578e+02 1.779400e+02 1.966938e+02 1.825600e+02 9.959751e+01 1.155853e+02 8.983482e+01 7.156612e+01 9.485095e+01 5.941139e+01 4.338519e+01 2.387502e+01 4.051019e+01 6.606344e+00 5.555980e+00 6.230425e+00 3.713303e+00 2.087291e+00 4.759565e+00 3.383303e+00 2.885421e+00 4.219937e+00 3.589665e+00 2.344187e+00 1.715696e+00 1.901127e+00 4.984466e-01 6.875085e-01 5.732353e-01 3.613932e-01 2.695070e-01 6.021472e-01 5.323128e-01 4.442143e-01 6.111545e-01 5.580750e-01 4.130977e-01 3.018000e-01 3.032544e-01
<GCONST> 1.358102e+02
<MIXTURE> 2 1.949997e-01
<MEAN> 39
 -2.415725e+01 -2.235894e+01 2.042530e+01 -1.317532e+01 -3.793052e+00 1.423423e+01 -8.571346e+00 4.693604e+00 -8.895254e+00 -3.684545e-02 8.411037e+00 1.426749e-01 4.473325e+00 1.092745e+00 3.932364e-01 -8.426306e-01 9.256159e-01 7.554104e-01 2.978483e-01 4.671984e-01 -2.782636e-01 1.723579e-01 2.685383e-01 1.622899e-01 2.771210e-01 1.678243e-01 6.011636e-01 3.409988e-01 1.229707e-01 3.797615e-01 2.272276e-01 1.425262e-01 7.228270e-02 5.554657e-02 1.267944e-02 -1.892708e-01 -2.416290e-01 -1.862089e-01 -3.290106e-02
<VARIANCE> 39
 1.490310e+01 1.287991e+02 3.301989e+02 8.254414e+01 2.335167e+01 1.007536e+02 3.613617e+01 2.902020e+01 4.924163e+01 1.619519e+01 3.651201e+01 1.117467e+01 1.477076e+01 2.024779e+00 2.162791e+00 2.529848e+00 1.934753e+00 1.522964e+00 1.580472e+00 1.409805e+00 1.751119e+00 1.850115e+00 1.419666e+00 1.325721e+00 1.261840e+00 1.104504e+00 2.816112e-01 3.550648e-01 3.114331e-01 2.758578e-01 2.439417e-01 2.692154e-01 2.560592e-01 3.045320e-01 3.413688e-01 2.617267e-01 2.525411e-01 2.426654e-01 2.228428e-01
<GCONST> 1.092405e+02
<TRANSP> 5
 0.000000e+00 1.000000e+00 0.000000e+00 0.000000e+00 0.000000e+00
 0.000000e+00 8.936518e-01 1.063482e-01 0.000000e+00 0.000000e+00
 0.000000e+00 0.000000e+00 4.631045e-01 5.368956e-01 0.000000e+00
 0.000000e+00 0.000000e+00 0.000000e+00 8.446849e-01 1.553151e-01
 0.000000e+00 0.000000e+00 0.000000e+00 0.000000e+00 0.000000e+00
<ENDHMM>
~h "t"
<BEGINHMM>
<NUMSTATES> 5
<STATE> 2
<NUMMIXES> 2
<MIXTURE> 1 6.280965e-01
<MEAN> 39
 -2.523051e+01 -5.753192e+00 -4.550239e+00 -2.066004e+00 -2.782018e+00 1.191679e+00 -3.321732e+00 1.353676e+00 -1.901819e+00 -9.708201e-01 7.874393e-01 -5.724394e-01 4.294960e-01 -5.720437e-02 1.353364e-03 8.661434e-03 -1.991592e-03 -1.266759e-03 3.019823e-02 1.392433e-02 2.242628e-02 3.296855e-02 5.015101e-02 1.939949e-02 2.669781e-03 2.620518e-04 3.872284e-02 6.322250e-03 1.515891e-02 3.051933e-02 5.506093e-02 6.387502e-02 4.193813e-02 2.248724e-02 -2.225193e-02 -2.598432e-02 8.854326e-03 2.816419e-02 3.968445e-02
<VARIANCE> 39
 4.172372e+01 1.673691e+01 1.478297e+01 1.853324e+01 1.803294e+01 1.307083e+01 1.105297e+01 1.398780e+01 1.377195e+01 1.170666e+01 9.305006e+00 9.697461e+00 7.569020e+00 1.325143e-01 1.983045e-01 2.918628e-01 4.152386e-01 5.861598e-01 7.460647e-01 8.306932e-01 9.429372e-01 1.082711e+00 1.006863e+00 9.206427e-01 9.427494e-01 7.915002e-01 2.796236e-02 4.779778e-02 6.934936e-02 9.812769e-02 1.461396e-01 1.832705e-01 1.900416e-01 2.131206e-01 2.396419e-01 2.180518e-01 2.038571e-01 2.113554e-01 1.789138e-01
<GCONST> 7.259058e+01
<MIXTURE> 2 3.719036e-01
<MEAN> 39
 -3.223059e+00 1.424391e+00 3.962995e+00 9.741135e+00 8.686543e+00 6.744055e+00 -2.422943e+00 5.322634e+00 -5.909395e+00 -7.862578e+00 2.683344e+00 3.761786e-01 1.304577e+00 -1.726193e+00 -2.502205e-01 -4.074243e-02 -3.711364e-01 -4.984491e-01 -3.808469e-03 2.544040e-01 -1.514119e-01 4.784210e-01 5.373994e-01 -3.261893e-01 6.470726e-02 2.279902e-01 7.297406e-02 -2.632119e-01 -2.097434e-01 -6.803509e-02 -3.728244e-02 -1.322059e-01 -7.346634e-02 1.773244e-01 1.471075e-01 4.792977e-02 1.194183e-01 -3.850685e-02 -8.377034e-02
<VARIANCE> 39
 2.014620e+02 1.351190e+02 7.775317e+01 8.157875e+01 7.872861e+01 6.973296e+01 8.395036e+01 6.216454e+01 6.572443e+01 7.382005e+01 7.260342e+01 3.691365e+01 5.728131e+01 3.202535e+00 3.882400e+00 3.026278e+00 2.046531e+00 2.187798e+00 3.111564e+00 2.859388e+00 2.679206e+00 2.826350e+00 2.763077e+00 2.792233e+00 1.683602e+00 1.858648e+00 2.136083e-01 3.692073e-01 3.829564e-01 2.679534e-01 3.030132e-01 4.347657e-01 3.609099e-01 4.226108e-01 5.295671e-01 4.560621e-01 3.817420e-01 3.159112e-01 3.269603e-01
<GCONST> 1.273862e+02
<STATE> 3
<NUMMIXES> 2
<MIXTURE> 1 2.272278e-02
<MEAN> 39
 -7.774019e-02 -2.456389e+01 9.208281e+00 1.464525e+01 4.562304e+00 1.205787e+01 -1.185061e+01 2.683334e+00 3.949269e+00 -7.441071e+00 4.480307e+00 -1.549728e+00 -3.062672e+00 1.623330e+00 -1.361984e+00 8.623930e-01 -3.454771e-01 -4.928279e-01 1.245882e+00 -9.464149e-01 -8.346321e-01 -6.020178e-01 -1.215897e+00 4.283396e-01 -4.192105e-01 -1.434924e+00 -1.415119e-02 4.341563e-01 -6.840719e-02 3.591745e-02 3.506735e-01 -1.333276e-01 6.174037e-02 2.028841e-01 -3.272554e-01 -3.194816e-01 -6.224357e-02 1.033266e-01 1.571098e-01
<VARIANCE> 39
 1.420760e+02 1.945548e+02 1.063795e+02 5.959331e+01 1.110273e+02 8.966615e+01 1.213832e+02 6.551997e+01 1.266256e+02 1.388490e+02 7.620605e+01 4.586132e+01 7.429611e+01 2.620779e+00 7.918515e+00 3.424906e+00 1.504144e+00 2.445500e+00 6.430511e+00 3.439038e+00 2.758819e+00 3.435694e+00 2.956115e+00 4.878827e+00 2.418671e+00 4.286267e+00 2.251497e-01 6.790009e-01 4.529428e-01 3.298731e-01 4.200405e-01 6.205395e-01 3.531514e-01 4.507301e-01 5.482836e-01 5.507938e-01 4.850659e-01 2.750281e-01 5.257737e-01
<GCONST> 1.361906e+02
<MIXTURE> 2 9.772773e-01
<MEAN> 39
 -1.524858e+01 -3.359029e+00 -1.427274e-01 5.303581e+00 4.609525e+00 6.443196e+00 -2.960939e-01 5.972058e+00 2.369748e-01 -1.019161e+00 1.972248e+00 5.028800e-01 3.407164e+00 5.691273e-01 -1.072008e+00 -6.368958e-01 -1.803315e-02 -1.857400e-03 -8.177686e-02 -2.461719e-01 2.862882e-01 3.441906e-01 1.787582e-01 1.515703e-01 -2.078333e-01 1.827032e-01 6.030126e-01 -5.916701e-02 1.578429e-02 3.063466e-02 2.532498e-02 -4.446805e-02 -2.423521e-01 -3.027026e-02 -2.138131e-01 -2.197739e-01 1.107922e-01 -1.167956e-01 -6.008407e-02
<VARIANCE> 39
 1.315162e+02 4.624551e+01 3.850506e+01 5.326250e+01 4.929621e+01 4.521676e+01 4.400956e+01 3.395111e+01 3.269548e+01 3.513153e+01 2.868584e+01 1.835538e+01 3.179013e+01 7.041955e+00 3.412207e+00 2.673507e+00 3.732386e+00 4.655161e+00 4.271204e+00 3.127453e+00 2.925874e+00 3.040977e+00 2.932261e+00 2.753157e+00 2.147839e+00 2.831530e+00 3.063802e-01 2.813969e-01 3.826469e-01 5.587409e-01 7.384079e-01 6.958724e-01 5.266383e-01 5.074239e-01 6.466446e-01 5.039058e-01 4.193454e-01 3.688402e-01 5.112102e-01
<GCONST> 1.258583e+02
<STATE> 4
<NUMMIXES> 2
<MIXTURE> 1 9.814296e-01
<MEAN> 39
 -2.616602e+00 -8.834591e+00 -5.081067e-01 7.279010e+00 5.917435e+00 5.813510e+00 -5.577147e+00 6.139979e+00 -3.384722e+00 -4.939199e+00 4.836681e+00 -2.414376e+00 2.385030e+00 2.864341e+00 -5.357532e-01 1.734413e-01 3.382741e-01 4.833870e-01 -4.461050e-02 -1.125296e+00 1.959537e-01 -1.150395e+00 -1.244505e+00 1.002856e+00 -4.437945e-01 -4.514241e-01 9.224377e-02 1.374857e-01 4.277525e-02 7.789966e-02 1.856992e-01 -5.395619e-02 -7.845341e-02 9.486659e-02 -1.152585e-01 -2.474459e-01 1.409348e-01 7.709277e-02 -1.977907e-01
<VARIANCE> 39
 1.668428e+02 5.996978e+01 5.569789e+01 7.452392e+01 7.235994e+01 7.868833e+01 6.949631e+01 6.153005e+01 5.789749e+01 6.824902e+01 6.129525e+01 3.194694e+01 5.201460e+01 3.668657e+00 3.502800e+00 2.105269e+00 3.494567e+00 4.246077e+00 5.335455e+00 4.105526e+00 3.325753e+00 5.591919e+00 4.461958e+00 5.889643e+00 2.160037e+00 2.466413e+00 3.551055e-01 4.890001e-01 4.026035e-01 5.847203e-01 6.394137e-01 6.623632e-01 5.431219e-01 5.090414e-01 9.916627e-01 7.956128e-01 8.037378e-01 3.729998e-01 4.278622e-01
<GCONST> 1.353541e+02
<MIXTURE> 2 1.857046e-02
<MEAN> 39
 4.421499e+00 -2.767850e+01 1.325575e+01 1.198516e+01 1.650269e+00 2.393543e+01 -1.097646e+01 -3.655088e+00 2.724131e+00 -7.866724e+00 2.160263e+00 -4.769277e+00 -5.029221e+00 2.062711e+00 1.592002e+00 5.674770e-01 1.069946e+00 1.438000e+00 -2.350343e-01 -9.409216e-01 -5.986780e-01 -1.360871e+00 -1.136557e+00 9.078610e-02 1.845856e-01 -5.869740e-02 -2.966709e-01 1.049319e+00 -3.403606e-01 6.536216e-01 1.060342e+00 -1.372643e+00 -1.996556e-01 7.548632e-01 2.682722e-01 -2.238274e-03 -2.824783e-01 2.339749e-01 3.427565e-01
<VARIANCE> 39
 2.780629e+01 5.433202e+01 7.129195e+01 5.100901e+01 3.507507e+01 3.471053e+01 1.846126e+01 3.543031e+01 4.361465e+01 5.944983e+01 3.919685e+01 3.728342e+01 1.965422e+01 1.057093e+00 4.623920e+00 1.200246e+01 5.114419e+00 4.070791e+00 9.407652e+00 2.865416e+00 3.711297e+00 2.708535e+00 2.698295e+00 3.731197e+00 9.728476e-01 1.603980e+00 1.538689e-01 9.590822e-01 5.898989e-01 4.706617e-01 8.288333e-01 8.302532e-01 6.859963e-01 6.363168e-01 4.615869e-01 8.144654e-01 3.913869e-01 1.786603e-01 4.870946e-01
<GCONST> 1.256187e+02
<TRANSP> 5
 0.000000e+00 1.000000e+00 0.000000e+00 0.000000e+00 0.000000e+00
 0.000000e+00 8.160228e-01 1.839772e-01 0.000000e+00 0.000000e+00
 0.000000e+00 0.000000e+00 7.515165e-01 2.484836e-01 0.000000e+00
 0.000000e+00 0.000000e+00 0.000000e+00 5.109392e-01 4.890607e-01
 0.000000e+00 0.000000e+00 0.000000e+00 0.000000e+00 0.000000e+00
<ENDHMM>
~h "u"
<BEGINHMM>
<NUMSTATES> 7
<STATE> 2
<NUMMIXES> 2
<MIXTURE> 1 8.013942e-01
<MEAN> 39
 7.245548e+00 -2.365303e+00 4.754273e+00 8.199088e+00 1.983657e+00 -2.236733e+00 -8.894347e+00 1.254217e+01 -9.974356e-01 -1.380037e+01 2.166265e+00 -1.463162e+00 -5.493833e+00 8.921261e-01 3.053743e-01 -3.697723e-04 3.208021e-01 2.285153e-01 -9.032331e-01 -8.118832e-01 3.634106e-01 2.929363e-02 -9.384974e-01 -2.883708e-01 -1.569022e-01 -5.641227e-01 -1.970136e-01 -3.796819e-02 6.136097e-02 2.552999e-03 5.620439e-02 9.171942e-02 3.866974e-02 -4.243613e-02 1.130909e-01 1.160093e-01 -9.249638e-02 1.077895e-03 6.174618e-02
<VARIANCE> 39
 1.847856e+02 2.197951e+02 7.764569e+01 1.224212e+02 1.975151e+02 1.611778e+02 1.053117e+02 1.194986e+02 6.143774e+01 9.668089e+01 6.682555e+01 3.864278e+01 5.005756e+01 4.091977e+00 5.189638e+00 2.944644e+00 3.744886e+00 5.874321e+00 6.345931e+00 4.472684e+00 4.156271e+00 3.062773e+00 5.415051e+00 3.489063e+00 1.958659e+00 2.233632e+00 2.796533e-01 4.726554e-01 4.284708e-01 6.406193e-01 9.277411e-01 9.107416e-01 6.621326e-01 5.683000e-01 5.286516e-01 6.704458e-01 5.927127e-01 3.399935e-01 2.710398e-01
<GCONST> 1.408405e+02
<MIXTURE> 2 1.986058e-01
<MEAN> 39
 1.784368e+01 5.176955e+00 6.538243e+00 1.082941e+01 4.139800e+00 -9.531104e+00 -1.303792e+01 1.801686e+01 3.705004e+00 -1.986474e+01 -1.363333e+00 -3.871896e+00 -1.390807e+01 -7.972127e-02 2.826124e-02 4.623079e-02 -1.557478e-01 1.534567e-01 1.060787e-01 -7.505885e-02 7.545964e-02 -6.085330e-02 -1.589393e-01 -1.824771e-02 -1.860360e-01 -1.336509e-01 -8.878013e-03 -4.968271e-03 -3.287884e-02 2.465420e-02 3.305519e-02 1.979207e-01 1.809466e-01 -1.440400e-01 -1.303015e-01 1.209967e-01 2.798629e-02 1.123823e-02 1.150902e-01
<VARIANCE> 39
 4.227436e+00 4.312424e+01 2.699417e+01 4.085273e+01 5.703729e+01 8.320735e+01 5.670835e+01 6.280695e+01 3.229704e+01 7.864170e+01 3.733704e+01 3.102262e+01 1.954784e+01 1.583762e-01 6.851880e-01 4.624955e-01 5.220567e-01 8.187714e-01 1.088831e+00 1.106160e+00 1.045805e+00 1.280950e+00 1.169919e+00 7.298299e-01 7.331789e-01 6.316507e-01 3.275700e-02 4.949403e-02 4.272019e-02 6.398659e-02 6.577765e-02 1.065750e-01 1.271950e-01 1.438306e-01 8.834061e-02 1.720521e-01 9.778263e-02 7.827019e-02 7.492435e-02
<GCONST> 8.116904e+01
<STATE> 3
<NUMMIXES> 2
<MIXTURE> 1 8.485209e-01
<MEAN> 39
 1.128869e+01 5.181661e+00 6.001997e+00 8.972644e+00 1.900295e+00 -9.061110e+00 -1.147889e+01 1.461003e+01 4.159014e+00 -1.210455e+01 -2.003359e+00 -4.045278e+00 -7.772114e+00 -8.136596e-02 -1.374290e-01 5.738015e-02 -6.995289e-02 2.601358e-01 1.718692e-01 -2.580449e-01 1.028616e-01 5.072723e-02 -2.715210e-01 4.056863e-03 -1.643094e-01 -1.764180e-01 -7.989127e-03 -8.198149e-02 -7.884410e-02 2.460696e-03 1.244414e-01 2.437747e-01 1.518078e-01 1.003458e-02 -9.130267e-02 3.319044e-02 9.661487e-02 1.865558e-02 6.188085e-02
<VARIANCE> 39
 1.838095e+02 1.032891e+02 8.625817e+01 6.152611e+01 5.568437e+01 1.690141e+02 7.070071e+01 1.082174e+02 6.009560e+01 7.180177e+01 4.156957e+01 4.319030e+01 4.336862e+01 1.481611e+00 1.386588e+00 1.667103e+00 1.607544e+00 1.553329e+00 3.308585e+00 1.936623e+00 2.130608e+00 1.392594e+00 2.286510e+00 1.528979e+00 1.457755e+00 8.284168e-01 8.091412e-02 1.060986e-01 1.560845e-01 1.486407e-01 1.588586e-01 2.811841e-01 2.708372e-01 2.605364e-01 2.061510e-01 2.625324e-01 2.195510e-01 1.709172e-01 1.323216e-01
<GCONST> 1.118589e+02
<MIXTURE> 2 1.514789e-01
<MEAN> 39
 1.483068e+01 -6.795225e+00 8.121373e-01 1.932583e+01 2.295128e+01 -1.022465e+00 -2.164953e+01 8.834055e+00 -9.393815e+00 -2.301146e+01 1.093185e+01 1.013676e+00 -1.117658e+01 -1.485808e-01 4.817188e-01 1.166295e-01 -2.324950e-01 -2.193783e-01 -5.112624e-02 5.321744e-02 -1.440553e-01 2.461220e-01 1.981629e-01 -4.520079e-01 -1.129010e-01 1.955736e-01 -7.980049e-02 6.866865e-02 1.243148e-01 3.981497e-03 -1.525945e-01 1.932375e-01 1.984552e-01 -2.274362e-01 1.907841e-01 3.407269e-01 -3.110895e-01 -6.275734e-02 2.368579e-01
<VARIANCE> 39
 2.912074e+01 4.353983e+01 3.242028e+01 1.052326e+02 5.589535e+01 3.876142e+01 7.099888e+01 1.005182e+02 4.552116e+01 7.796140e+01 9.231995e+01 3.641825e+01 2.965290e+01 3.992844e-01 8.945011e-01 1.398520e+00 1.426315e+00 1.783659e+00 1.745812e+00 2.167310e+00 2.617833e+00 1.035385e+00 2.756954e+00 2.188436e+00 1.048629e+00 1.633087e+00 5.097520e-02 1.092797e-01 1.533362e-01 1.450835e-01 1.916147e-01 1.661536e-01 2.097285e-01 4.509014e-01 2.751733e-01 3.553430e-01 4.302954e-01 1.535808e-01 1.528169e-01
<GCONST> 1.063764e+02
<STATE> 4
<NUMMIXES> 2
<MIXTURE> 1 9.999998e-01
<MEAN> 39
 1.564365e+01 -6.585224e-01 1.115728e+00 1.081153e+01 1.099618e+01 -3.773798e+00 -1.466248e+01 1.498865e+01 -8.989334e-01 -2.091990e+01 7.497005e-01 -3.287448e+00 -9.599020e+00 -1.944028e-01 2.489715e-01 -2.703351e-01 -1.553675e-01 3.793174e-01 1.175650e+00 1.005451e+00 -7.013478e-01 -3.946159e-01 5.174572e-01 -4.798516e-01 -1.891755e-01 5.011176e-01 -1.392972e-01 1.142108e-01 9.678063e-02 3.614482e-02 -5.690312e-02 1.422395e-01 3.211582e-01 -3.428352e-02 3.251261e-02 2.329909e-01 -1.157481e-01 4.108915e-03 1.605473e-01
<VARIANCE> 39
 1.172919e+02 7.108115e+01 6.827045e+01 5.975867e+01 1.112948e+02 1.111387e+02 8.987390e+01 1.108618e+02 6.561047e+01 1.267671e+02 6.418761e+01 4.055970e+01 3.926290e+01 1.175035e+00 1.590266e+00 1.649856e+00 1.339092e+00 1.782522e+00 2.501789e+00 3.051732e+00 2.503012e+00 1.716304e+00 3.373204e+00 2.139894e+00 1.387732e+00 1.225743e+00 8.542547e-02 1.279956e-01 1.944795e-01 1.478740e-01 1.533128e-01 2.358233e-01 2.800305e-01 3.874718e-01 2.209022e-01 3.845899e-01 2.711668e-01 1.706548e-01 1.540143e-01
<GCONST> 1.151892e+02
<MIXTURE> 2 0.000000e+00
<MEAN> 39
 3.417223e+00 7.293330e+00 8.330730e+00 -9.710498e+00 -1.625434e-01 -2.035127e+01 -9.064593e-01 1.561739e+00 -1.227357e+01 -1.039749e+01 -7.147142e+00 -1.017353e+01 -1.074242e+01 -2.990634e-02 2.168149e-01 1.001392e-02 -4.689300e-02 -1.589202e-01 -7.911995e-03 6.217949e-02 3.558638e-02 5.552286e-02 3.114433e-03 -1.407267e-01 -1.060831e-01 -1.548424e-01 -5.462008e-03 -1.843423e-02 -2.657526e-02 6.268177e-02 6.855920e-02 9.713328e-02 -2.289386e-02 -5.790818e-02 2.742950e-02 2.240322e-02 1.946409e-02 5.355634e-02 3.129942e-02
<VARIANCE> 39
 6.075173e+00 4.578182e+01 2.743917e+01 3.471677e+01 5.041447e+01 4.296664e+01 3.941714e+01 4.597451e+01 8.174229e+01 6.164312e+01 4.850667e+01 5.474281e+01 4.559898e+01 9.210440e-02 5.496898e-01 4.708762e-01 6.562652e-01 8.952708e-01 9.710230e-01 9.655681e-01 1.150128e+00 1.134475e+00 1.179296e+00 1.051585e+00 1.147964e+00 1.009993e+00 1.406629e-02 4.912791e-02 6.224088e-02 9.069604e-02 1.023018e-01 1.395229e-01 1.419330e-01 1.569344e-01 1.592698e-01 1.563243e-01 1.508348e-01 1.450534e-01 1.304802e-01
<GCONST> 8.581348e+01
<STATE> 5
<NUMMIXES> 2
<MIXTURE> 1 6.781427e-01
<MEAN> 39
 -2.058097e+00 7.888503e-01 6.738630e+00 8.038383e+00 7.559012e+00 4.104186e+00 -7.389965e+00 6.043969e+00 -2.768848e+00 -7.076451e+00 1.794518e+00 -7.941031e-02 -9.735617e-01 -1.597508e+00 5.276629e-03 2.685930e-01 -8.759477e-01 -8.228492e-01 6.216108e-01 1.253646e+00 2.906774e-01 6.648723e-01 8.946335e-01 -6.229037e-01 -3.819580e-01 4.239702e-01 1.912165e-02 -1.434773e-01 -6.808405e-02 1.716194e-02 -1.461134e-02 -1.308239e-01 -1.017076e-01 6.771440e-02 -2.544944e-02 -1.337303e-01 1.365463e-01 1.012510e-02 -1.161732e-01
<VARIANCE> 39
 2.458896e+02 1.433782e+02 1.779470e+02 1.362759e+02 1.159081e+02 1.398652e+02 1.067571e+02 1.000896e+02 7.735723e+01 6.925054e+01 5.936933e+01 4.388170e+01 4.138938e+01 3.407565e+00 3.428384e+00 4.493479e+00 2.800455e+00 3.366220e+00 4.558403e+00 6.057890e+00 5.017968e+00 3.614795e+00 3.879081e+00 3.181048e+00 2.145244e+00 2.547749e+00 2.621424e-01 2.777081e-01 4.201010e-01 2.914767e-01 3.242346e-01 3.892941e-01 5.791937e-01 5.675881e-01 4.863613e-01 4.658986e-01 3.857208e-01 3.752355e-01 2.934971e-01
<GCONST> 1.354746e+02
<MIXTURE> 2 3.218574e-01
<MEAN> 39
 1.681444e+01 3.807100e+00 3.493610e+00 1.137142e+01 7.144732e+00 -6.470491e+00 -1.031831e+01 1.671065e+01 1.578283e-01 -1.842239e+01 -1.004391e+00 -4.970370e+00 -9.502764e+00 -5.127041e-01 3.247268e-01 -7.936565e-03 1.253933e-02 4.963496e-01 1.459413e+00 1.282116e+00 -2.829786e-01 -1.420123e-01 4.240746e-01 -4.306294e-01 3.540683e-02 5.857390e-01 -1.560316e-01 3.246371e-03 1.257189e-01 5.471949e-02 -4.246856e-02 7.163034e-02 1.101844e-02 2.043796e-02 1.029428e-01 1.072157e-01 -1.376435e-03 3.398053e-02 8.470032e-02
<VARIANCE> 39
 1.457671e+01 7.279527e+01 5.020348e+01 8.217752e+01 9.741449e+01 1.610142e+02 1.027286e+02 9.780258e+01 6.361044e+01 9.496543e+01 8.897530e+01 5.034684e+01 3.375321e+01 8.725784e-01 1.559487e+00 1.583816e+00 1.776376e+00 1.744202e+00 2.798608e+00 3.542227e+00 3.137723e+00 1.727298e+00 2.753039e+00 1.881013e+00 1.321214e+00 1.532370e+00 6.527562e-02 1.082644e-01 1.537608e-01 1.843463e-01 1.250051e-01 3.461600e-01 3.271092e-01 3.348053e-01 1.908451e-01 3.212086e-01 2.552523e-01 1.679523e-01 1.425193e-01
<GCONST> 1.129527e+02
<STATE> 6
<NUMMIXES> 2
<MIXTURE> 1 7.635202e-01
<MEAN> 39
 -2.640428e+01 -6.847631e+00 -5.424638e+00 -2.716202e+00 -3.317482e+00 8.627396e-01 -3.373554e+00 1.422232e+00 -2.205707e+00 -1.258910e+00 1.004155e+00 -1.657770e-01 5.835225e-01 -7.176951e-03 -1.048268e-02 6.222252e-03 2.038515e-02 1.433657e-02 9.601861e-04 1.663938e-04 1.135103e-03 4.606888e-03 1.026578e-03 -5.289599e-03 -2.252349e-02 -1.329097e-02 1.470981e-02 5.793051e-03 7.078221e-03 1.354392e-02 1.944305e-02 1.316398e-02 6.607690e-03 4.480835e-03 -9.665267e-03 -1.684579e-02 -6.730575e-03 4.356245e-03 3.864907e-03
<VARIANCE> 39
 1.627975e+00 5.370422e+00 3.544548e+00 4.200569e+00 6.416813e+00 6.983027e+00 7.163631e+00 7.477952e+00 1.177763e+01 1.199548e+01 7.880561e+00 1.110101e+01 6.628551e+00 7.685185e-02 1.912003e-01 2.542695e-01 3.565681e-01 6.017203e-01 7.710325e-01 8.109224e-01 8.464620e-01 1.124358e+00 1.072233e+00 9.131353e-01 8.975987e-01 8.902571e-01 2.011235e-02 4.073355e-02 5.665790e-02 7.857469e-02 1.333906e-01 1.710972e-01 1.860050e-01 1.937390e-01 2.380325e-01 2.262446e-01 2.028660e-01 1.835079e-01 1.969061e-01
<GCONST> 6.028766e+01
<MIXTURE> 2 2.364801e-01
<MEAN> 39
 -3.957530e+00 3.351161e+00 4.183154e+00 7.276655e+00 5.454666e+00 3.736849e+00 -2.296713e+00 8.731382e+00 -6.912389e-01 -7.079542e+00 -6.179514e-01 -1.874495e+00 -2.108040e+00 -1.059237e+00 -3.194332e-01 -1.158722e-01 -4.360882e-01 -3.726855e-01 2.696558e-01 2.973534e-01 -3.217150e-01 -1.376507e-01 2.043381e-01 -1.546565e-01 -5.584732e-02 2.424867e-01 5.407520e-02 -1.459035e-01 -3.764502e-02 4.633687e-02 -4.091583e-03 -1.410510e-01 -1.797147e-01 3.028367e-02 5.107470e-03 -4.529138e-02 9.803618e-02 2.457839e-02 -3.531316e-02
<VARIANCE> 39
 2.861921e+02 1.364496e+02 1.032072e+02 8.439388e+01 7.219469e+01 1.039537e+02 7.172265e+01 6.815593e+01 5.203820e+01 8.810130e+01 5.880373e+01 4.073621e+01 3.180583e+01 3.098322e+00 2.387899e+00 2.809302e+00 2.114125e+00 2.169192e+00 3.032457e+00 3.029434e+00 2.609235e+00 2.012538e+00 2.304257e+00 2.015235e+00 1.225240e+00 1.288969e+00 1.732042e-01 2.643965e-01 2.963386e-01 2.160661e-01 2.499902e-01 3.285866e-01 4.039193e-01 3.484451e-01 3.896468e-01 4.158062e-01 3.519016e-01 2.304921e-01 2.066675e-01
<GCONST> 1.226366e+02
<TRANSP> 7
 0.000000e+00 1.000000e+00 0.000000e+00 0.000000e+00 0.000000e+00 0.000000e+00 0.000000e+00
 0.000000e+00 7.412649e-01 2.587351e-01 0.000000e+00 0.000000e+00 0.000000e+00 0.000000e+00
 0.000000e+00 0.000000e+00 3.008308e-01 6.991693e-01 0.000000e+00 0.000000e+00 0.000000e+00
 0.000000e+00 0.000000e+00 0.000000e+00 6.045682e-01 3.954318e-01 0.000000e+00 0.000000e+00
 0.000000e+00 0.000000e+00 0.000000e+00 0.000000e+00 4.284689e-01 5.715312e-01 0.000000e+00
 0.000000e+00 0.000000e+00 0.000000e+00 0.000000e+00 0.000000e+00 9.068699e-01 9.313016e-02
 0.000000e+00 0.000000e+00 0.000000e+00 0.000000e+00 0.000000e+00 0.000000e+00 0.000000e+00
<ENDHMM>
~h "w"
<BEGINHMM>
<NUMSTATES> 5
<STATE> 2
<NUMMIXES> 2
<MIXTURE> 1 9.999976e-01
<MEAN> 39
 8.138888e+00 1.008280e+01 8.384345e+00 1.302573e+01 9.950808e+00 4.088809e+00 -1.423475e+00 1.355078e+01 2.297127e+00 -8.224737e+00 -2.542093e+00 -5.193942e+00 -6.965552e+00 -3.973847e-01 2.870119e-01 4.175268e-01 5.207730e-02 2.708618e-02 3.943188e-01 2.626815e-01 -1.327646e-01 -1.775827e-02 2.240050e-01 6.579744e-02 -4.191236e-02 9.220611e-02 3.799024e-02 -2.046131e-01 -1.402806e-01 1.449449e-02 5.271231e-02 -6.075421e-02 -1.196887e-01 3.375770e-02 -2.357287e-02 -1.166055e-01 4.257347e-02 6.768665e-02 9.363422e-02
<VARIANCE> 39
 7.180124e+01 1.363630e+02 8.330960e+01 5.800563e+01 6.252151e+01 1.058078e+02 1.140758e+02 7.425588e+01 6.042876e+01 5.445322e+01 6.837517e+01 3.323291e+01 2.740660e+01 9.370964e-01 1.113000e+00 1.147365e+00 9.223722e-01 9.920665e-01 1.539527e+00 1.371442e+00 1.681432e+00 1.004873e+00 1.416857e+00 1.239530e+00 1.018285e+00 1.125409e+00 7.346599e-02 1.280932e-01 1.437050e-01 1.122844e-01 1.085369e-01 1.749472e-01 1.750732e-01 2.629233e-01 1.697962e-01 2.253352e-01 1.765579e-01 1.411632e-01 1.329791e-01
<GCONST> 1.035834e+02
<MIXTURE> 2 0.000000e+00
<MEAN> 39
 1.378911e+01 -5.882964e+00 5.711132e+00 9.465131e+00 -1.243303e+01 8.746708e+00 5.601330e-01 -7.174479e+00 2.589908e+00 -1.117520e+01 -1.118331e+01 1.178023e-01 -6.158607e+00 -1.288440e-01 1.712742e-02 2.953843e-01 2.247112e-02 -1.709286e-01 2.319557e-01 7.940844e-02 2.872613e-02 2.858532e-01 -3.339471e-02 -1.537790e-01 2.861512e-02 -6.112367e-02 4.143821e-02 -1.702908e-01 -5.036233e-02 -1.903104e-02 -4.757323e-02 -1.118162e-01 -1.095709e-01 -5.744234e-02 -1.100288e-01 -7.373928e-02 7.590093e-02 2.229727e-02 -1.457045e-03
<VARIANCE> 39
 5.693203e+00 3.076212e+01 1.764848e+01 2.169621e+01 3.926045e+01 3.001332e+01 2.751151e+01 3.213239e+01 3.717189e+01 2.692718e+01 1.927668e+01 1.926764e+01 1.896693e+01 1.228157e-01 5.694669e-01 4.044106e-01 4.887558e-01 7.384183e-01 9.813445e-01 7.732689e-01 8.090994e-01 9.743630e-01 8.385676e-01 6.937302e-01 6.511840e-01 6.163760e-01 1.787036e-02 5.931752e-02 6.642151e-02 7.853088e-02 1.136717e-01 1.498673e-01 1.329894e-01 1.448491e-01 1.629503e-01 1.434017e-01 1.325567e-01 1.232411e-01 1.184856e-01
<GCONST> 7.573148e+01
<STATE> 3
<NUMMIXES> 2
<MIXTURE> 1 9.973186e-01
<MEAN> 39
 5.943939e+00 7.548631e+00 7.250235e+00 1.290951e+01 1.108296e+01 6.769954e+00 -4.389801e-01 1.409995e+01 2.641629e+00 -7.997162e+00 -1.681118e+00 -4.368620e+00 -3.716419e+00 4.825554e-01 -1.185144e+00 -8.538823e-01 -1.450525e-01 2.402572e-02 -5.032873e-01 -8.100512e-01 2.014588e-01 -3.419429e-01 -8.383603e-01 3.577461e-01 2.552051e-01 3.537000e-01 2.712947e-01 -2.878601e-01 -3.230222e-01 -8.121485e-02 -5.329949e-02 -3.871588e-01 -3.797595e-01 -8.376369e-03 -8.178876e-02 -2.201293e-01 9.201702e-02 1.494844e-01 9.162598e-03
<VARIANCE> 39
 8.346167e+01 1.149687e+02 8.073904e+01 6.024075e+01 6.048417e+01 9.551867e+01 9.397836e+01 5.997685e+01 6.616315e+01 6.071822e+01 6.471098e+01 2.810318e+01 2.609473e+01 2.746611e+00 2.966529e+00 3.196512e+00 1.508747e+00 1.476433e+00 3.498633e+00 3.446257e+00 1.926209e+00 1.826266e+00 2.889069e+00 1.835252e+00 1.423204e+00 1.564509e+00 1.704817e-01 2.655156e-01 2.853729e-01 2.268370e-01 2.194079e-01 3.245269e-01 3.227626e-01 2.945311e-01 2.558624e-01 3.272925e-01 2.816420e-01 2.427388e-01 2.590749e-01
<GCONST> 1.186356e+02
<MIXTURE> 2 2.681591e-03
<MEAN> 39
 1.389397e+01 -5.065417e+00 9.144258e+00 2.323658e+01 1.486556e+01 -3.185214e+00 -1.963811e+01 5.366066e+00 2.761931e-01 -1.810868e+01 -6.404324e-01 -2.341980e+00 -1.182510e+01 5.003971e-01 5.522250e-01 -8.113414e-01 -8.280483e-01 -2.774954e-01 -8.324437e-01 -6.468081e-02 3.290042e-01 -1.516301e-01 -6.310073e-02 1.938559e-01 2.131796e-02 -3.534346e-02 8.702394e-03 7.355362e-03 -2.207087e-01 -1.600166e-02 1.897856e-01 -5.469337e-02 -3.261739e-02 1.109245e-01 -5.151813e-02 -2.060571e-01 4.267909e-02 1.775665e-01 -1.110489e-01
<VARIANCE> 39
 1.145137e+01 1.146449e+02 1.220637e+01 8.131671e+01 1.105711e+02 1.072977e+02 1.086135e+02 5.691365e+01 1.108364e+01 3.646965e+01 3.348647e+01 1.390883e+01 1.841484e+01 4.858328e-01 1.452810e+00 1.154664e+00 1.126719e+00 9.358872e-01 1.045250e+00 9.123040e-01 1.282589e+00 7.486255e-01 1.063055e+00 3.891441e-01 6.446254e-01 6.208584e-01 1.662590e-02 7.220788e-02 5.930711e-02 4.429689e-02 5.837575e-02 1.167751e-01 9.557047e-02 1.071851e-01 6.616130e-02 1.557551e-01 8.500233e-02 9.793435e-02 1.132642e-01
<GCONST> 8.311072e+01
<STATE> 4
<NUMMIXES> 2
<MIXTURE> 1 8.475744e-04
<MEAN> 39
 1.907410e+01 -7.022600e-01 -1.172278e+00 1.051765e+01 -5.390511e-01 -1.377673e+01 -7.184734e+00 1.172423e+01 -6.084007e+00 -2.027777e+01 -2.578175e+00 2.614070e+00 1.162138e+00 1.217985e-01 -3.444854e-01 -3.205420e-01 5.954559e-01 1.802155e-02 -5.679104e-01 -4.641950e-03 -9.962341e-01 -1.045699e+00 1.918728e-01 7.925307e-01 1.097582e+00 3.460352e-01 -4.870370e-03 5.165643e-02 6.096977e-02 -1.302646e-01 2.026135e-01 4.097563e-02 -1.389128e-01 1.523758e-01 2.187738e-01 6.085400e-02 -5.096290e-02 -1.483031e-01 -7.550278e-02
<VARIANCE> 39
 4.790325e-01 2.499394e+01 9.732170e-01 2.214054e+00 3.764587e+00 6.846857e+01 8.764246e+00 1.187469e+01 5.144678e+00 1.238239e+01 6.890231e+01 4.131991e+00 7.225555e+00 4.346526e-02 9.235337e-02 2.109543e-01 3.320280e-01 2.655102e-01 9.390402e-01 2.019026e-01 2.731258e-01 9.708626e-01 3.502238e-01 1.345138e+00 1.951308e-01 1.458497e-01 1.515478e-02 5.165701e-02 1.246308e-02 4.097312e-02 2.055287e-02 1.881464e-01 5.375902e-02 2.378832e-02 1.258474e-02 6.665134e-02 5.532950e-02 5.363236e-02 3.714837e-02
<GCONST> 3.695713e+01
<MIXTURE> 2 9.991524e-01
<MEAN> 39
 1.474787e+01 -1.343397e+00 -2.146470e+00 1.019374e+01 7.486569e+00 -7.753899e+00 -1.223807e+01 1.714782e+01 3.191738e+00 -1.472026e+01 -1.477489e-01 -9.011651e-01 -3.279593e+00 5.771869e-01 -1.021813e+00 -9.176685e-01 -2.269263e-01 1.123504e-01 -8.938454e-01 -1.029859e+00 4.332591e-02 -3.586732e-01 -7.801490e-01 4.698625e-01 5.140704e-01 1.579676e-01 -7.293265e-02 3.473612e-02 4.603868e-02 -5.662441e-03 8.688337e-02 1.719969e-01 9.807376e-02 -2.805635e-02 -4.822624e-02 5.607244e-02 8.132481e-02 -5.003186e-03 -6.133585e-03
<VARIANCE> 39
 1.103110e+02 8.589812e+01 1.113913e+02 6.945691e+01 9.018851e+01 1.748352e+02 9.221677e+01 9.298932e+01 1.005744e+02 6.781827e+01 8.007883e+01 2.104029e+01 3.703153e+01 1.912071e+00 1.496430e+00 1.873800e+00 1.204070e+00 1.645790e+00 3.248828e+00 2.895173e+00 2.164200e+00 1.376376e+00 2.384913e+00 1.888192e+00 1.043742e+00 9.801198e-01 1.410965e-01 1.271657e-01 1.493699e-01 1.456754e-01 1.747398e-01 2.946211e-01 2.932423e-01 2.845405e-01 1.884967e-01 2.554811e-01 2.462726e-01 1.399199e-01 1.398654e-01
<GCONST> 1.139355e+02
<TRANSP> 5
 0.000000e+00 1.000000e+00 0.000000e+00 0.000000e+00 0.000000e+00
 0.000000e+00 5.771335e-01 4.228666e-01 0.000000e+00 0.000000e+00
 0.000000e+00 0.000000e+00 6.534188e-01 3.465812e-01 0.000000e+00
 0.000000e+00 0.000000e+00 0.000000e+00 4.597097e-01 5.402902e-01
 0.000000e+00 0.000000e+00 0.000000e+00 0.000000e+00 0.000000e+00
<ENDHMM>
~h "y"
<BEGINHMM>
<NUMSTATES> 5
<STATE> 2
<NUMMIXES> 2
<MIXTURE> 1 1.000000e+00
<MEAN> 39
 1.088634e+01 -8.431907e+00 6.757287e+00 2.667760e+01 2.433444e+01 -1.050788e+00 -2.024598e+01 1.127655e+01 -5.518703e+00 -2.014668e+01 8.083545e+00 -5.535709e-01 -1.077006e+01 3.464913e-01 -5.628628e-02 -1.872399e-01 -1.201953e-01 2.154942e-01 -3.424925e-01 -6.800768e-01 4.678584e-02 -1.105539e-01 -4.526188e-01 2.913587e-01 2.078292e-01 -2.757708e-01 -5.782356e-02 1.852413e-02 -2.111865e-02 -1.142183e-01 -1.531087e-01 5.589804e-02 1.876472e-01 -1.779761e-02 2.252458e-02 1.007768e-01 -4.881951e-02 1.321928e-02 1.179293e-01
<VARIANCE> 39
 6.889664e+01 8.178514e+01 9.723775e+01 1.521049e+02 1.188323e+02 7.640160e+01 2.001148e+02 8.314597e+01 4.068792e+01 7.525082e+01 9.479019e+01 2.486057e+01 5.428008e+01 1.062194e+00 1.326515e+00 1.534710e+00 2.484287e+00 1.805526e+00 1.645198e+00 3.675922e+00 2.231042e+00 1.183034e+00 2.838382e+00 2.033288e+00 1.085462e+00 1.664063e+00 1.038153e-01 1.288496e-01 1.624617e-01 2.657840e-01 2.515889e-01 1.980964e-01 4.026461e-01 3.211093e-01 1.842681e-01 3.921991e-01 2.673250e-01 1.628805e-01 2.119904e-01
<GCONST> 1.161073e+02
<MIXTURE> 2 0.000000e+00
<MEAN> 39
 1.077002e+01 -1.956420e+01 1.628934e+01 2.477308e+01 -1.067274e+01 -2.976494e-01 -1.631964e+01 -1.125875e+01 8.065402e+00 -1.447605e+01 -1.309809e+01 -1.712498e+00 -8.394070e+00 6.742813e-02 -9.836404e-02 -1.169972e-01 -9.043243e-02 -7.185069e-02 -4.700645e-02 -1.383417e-01 -1.586409e-01 -4.520181e-02 8.582173e-02 1.406730e-01 1.323300e-02 -1.787742e-02 1.718775e-02 -1.453367e-03 -6.490878e-02 -5.673794e-02 8.897717e-03 2.129654e-02 3.349083e-04 -4.583070e-02 -3.346105e-02 4.537795e-02 5.137637e-02 4.648509e-03 -1.070770e-02
<VARIANCE> 39
 4.835891e+00 1.564970e+01 1.978276e+01 2.057377e+01 2.182557e+01 2.436750e+01 2.886898e+01 3.342552e+01 2.415036e+01 3.267395e+01 2.042847e+01 2.264841e+01 1.821476e+01 1.990445e-01 2.737281e-01 3.442593e-01 4.312418e-01 5.640050e-01 5.272828e-01 3.877100e-01 4.964686e-01 5.398856e-01 5.405872e-01 4.196366e-01 3.762387e-01 3.816764e-01 2.946622e-02 3.539984e-02 2.297077e-02 5.282143e-02 8.965132e-02 8.030171e-02 5.395827e-02 6.092423e-02 8.503931e-02 7.202144e-02 5.072999e-02 5.755227e-02 6.090007e-02
<GCONST> 6.119115e+01
<STATE> 3
<NUMMIXES> 2
<MIXTURE> 1 1.714113e-01
<MEAN> 39
 9.847588e+00 -5.412981e+00 1.027038e+01 2.850882e+01 2.500490e+01 -1.868151e+00 -2.298349e+01 9.328447e+00 -1.530216e+00 -2.154977e+01 3.389768e+00 -6.339245e-01 -1.299621e+01 6.270466e-02 1.044024e-01 -9.312910e-02 -2.160481e-01 -9.731880e-02 -1.159169e-01 -6.045703e-02 -7.670012e-02 -9.304161e-03 -4.107039e-02 -5.894219e-02 1.269023e-02 -1.420527e-02 5.043782e-02 -1.350244e-02 -8.168480e-02 -5.757447e-02 -6.550075e-02 6.421708e-02 5.202872e-02 -3.228045e-02 -8.160036e-03 7.878986e-02 4.222816e-02 7.855736e-03 6.232553e-02
<VARIANCE> 39
 5.048425e+01 6.681760e+01 6.324114e+01 1.158154e+02 1.350491e+02 8.215535e+01 1.730584e+02 8.700874e+01 1.051211e+02 5.754187e+01 1.080707e+02 2.271833e+01 5.132054e+01 1.174043e-01 2.095771e-01 4.466476e-01 6.465986e-01 4.418096e-01 5.170876e-01 8.034602e-01 9.372334e-01 5.525246e-01 1.003622e+00 6.302449e-01 6.812677e-01 5.295507e-01 1.436443e-02 2.884495e-02 5.004314e-02 6.696393e-02 6.357758e-02 7.166804e-02 1.291286e-01 1.207917e-01 6.933057e-02 1.608223e-01 1.032736e-01 9.375548e-02 6.932563e-02
<GCONST> 8.446584e+01
<MIXTURE> 2 8.285887e-01
<MEAN> 39
 1.125140e+01 -7.555311e+00 3.940317e+00 1.918596e+01 1.803772e+01 -1.112414e+00 -1.922573e+01 7.963664e+00 -2.288448e+00 -1.642843e+01 5.510956e+00 2.592952e-01 -8.619863e+00 1.629722e-01 1.264911e-01 -2.680143e-01 -5.502807e-01 -2.579756e-01 -9.909956e-02 1.195711e-01 7.578205e-02 -1.514261e-01 -1.526402e-01 2.185670e-01 3.191263e-01 2.370963e-02 -7.438174e-03 5.047556e-03 -7.149179e-03 -4.309892e-02 -8.210102e-02 4.129030e-02 1.545417e-01 1.091702e-01 -1.681828e-02 -1.447685e-03 -1.714830e-02 -1.574403e-02 9.553108e-02
<VARIANCE> 39
 1.422781e+02 1.013466e+02 1.198562e+02 1.853060e+02 1.732296e+02 1.166640e+02 1.772964e+02 1.105138e+02 5.831340e+01 9.485758e+01 8.907692e+01 2.985726e+01 6.891540e+01 1.281091e+00 1.370035e+00 1.386197e+00 1.745582e+00 1.234914e+00 1.663714e+00 2.256236e+00 1.916889e+00 1.253750e+00 2.135302e+00 1.739031e+00 1.044549e+00 1.171558e+00 9.133343e-02 1.205978e-01 1.462067e-01 1.659227e-01 1.702639e-01 2.016602e-01 2.682025e-01 2.566347e-01 1.585639e-01 2.747245e-01 2.282815e-01 1.443454e-01 1.579326e-01
<GCONST> 1.144993e+02
<STATE> 4
<NUMMIXES> 2
<MIXTURE> 1 9.906105e-01
<MEAN> 39
 1.348594e+01 -7.649188e+00 2.029724e+00 1.977923e+01 2.322347e+01 4.475193e-01 -2.187744e+01 7.709877e+00 -7.110450e+00 -2.123188e+01 1.059585e+01 3.187742e+00 -1.171747e+01 2.504971e-01 3.138246e-01 -3.263043e-01 -9.055691e-01 -9.274565e-01 -2.018540e-01 6.847175e-01 5.256686e-01 2.051362e-02 -2.502370e-01 -2.118301e-01 2.648610e-01 4.545722e-01 7.020375e-04 9.637799e-03 3.279547e-02 1.284681e-02 -1.019462e-01 -3.100622e-03 1.144486e-01 1.169901e-01 1.014415e-01 1.853143e-02 -1.324145e-01 -1.076385e-01 4.164281e-02
<VARIANCE> 39
 7.776788e+01 6.400939e+01 7.884863e+01 1.140072e+02 1.322873e+02 8.510962e+01 1.278441e+02 7.807927e+01 4.235461e+01 8.865967e+01 7.571075e+01 2.703950e+01 7.628964e+01 6.555389e-01 7.894129e-01 9.601747e-01 1.379225e+00 1.355014e+00 1.142500e+00 1.876966e+00 1.832739e+00 1.200673e+00 2.302145e+00 2.094187e+00 9.011331e-01 9.703268e-01 5.092430e-02 7.678422e-02 9.219646e-02 1.377277e-01 1.334172e-01 1.545485e-01 2.174650e-01 2.380664e-01 1.512759e-01 2.459853e-01 2.088335e-01 1.257436e-01 1.146996e-01
<GCONST> 1.050879e+02
<MIXTURE> 2 9.389552e-03
<MEAN> 39
 1.930510e+01 -4.425645e+00 1.819418e+00 1.292526e+01 3.099401e+00 -1.766132e+01 -1.573689e+01 2.351713e+01 5.538728e+00 -2.203953e+01 -7.167459e-01 -3.290189e+00 -1.048676e+01 1.195316e-01 -9.489911e-02 4.312176e-01 -5.293542e-02 -1.738384e-01 -6.249838e-03 -7.830118e-02 -1.485623e-03 4.741408e-01 1.719525e-01 -7.216747e-02 1.872069e-01 -1.522536e-01 -5.067138e-02 -2.724982e-02 -1.557442e-01 1.101642e-01 1.625608e-01 1.298028e-01 1.544131e-02 3.082385e-02 -2.415806e-01 7.478015e-03 2.223771e-01 5.963885e-03 1.128164e-01
<VARIANCE> 39
 6.867168e+00 2.790848e+01 3.365798e+01 4.364976e+01 7.547917e+01 8.553891e+01 4.050910e+01 5.706488e+01 2.441955e+01 3.318692e+01 5.882066e+01 2.247882e+01 3.335738e+01 1.355837e+00 9.904358e-01 9.846500e-01 3.609884e-01 6.786236e-01 7.907569e-01 8.699586e-01 9.438037e-01 6.264741e-01 1.300075e+00 1.041891e+00 3.787032e-01 2.460388e-01 2.566873e-01 1.551261e-01 8.304761e-02 7.535826e-02 5.914390e-02 5.890331e-02 1.313909e-01 4.543550e-02 8.790536e-02 5.378312e-02 6.069530e-02 5.215106e-02 3.864618e-02
<GCONST> 8.059811e+01
<TRANSP> 5
 0.000000e+00 1.000000e+00 0.000000e+00 0.000000e+00 0.000000e+00
 0.000000e+00 8.043671e-01 1.956329e-01 0.000000e+00 0.000000e+00
 0.000000e+00 0.000000e+00 2.635687e-01 7.364313e-01 0.000000e+00
 0.000000e+00 0.000000e+00 0.000000e+00 5.966609e-01 4.033391e-01
 0.000000e+00 0.000000e+00 0.000000e+00 0.000000e+00 0.000000e+00
<ENDHMM>
~h "z"
<BEGINHMM>
<NUMSTATES> 5
<STATE> 2
<NUMMIXES> 2
<MIXTURE> 1 4.681568e-01
<MEAN> 39
 -4.752337e+00 -1.018530e+01 3.996219e+01 -9.532042e-01 1.224345e+01 3.742992e+01 -1.104840e+01 3.260081e+00 -1.153843e+01 -1.232998e+01 3.504854e+00 -1.156068e+00 2.911586e+00 -2.659889e+00 -4.087768e-01 2.466226e+00 -1.443655e+00 -1.020331e+00 9.141691e-01 1.829713e+00 1.843796e+00 8.928394e-01 1.266699e+00 3.324921e-01 7.475958e-01 7.046048e-01 1.631029e-01 -2.048036e-01 -8.294113e-01 2.616357e-01 5.362188e-02 -6.040711e-01 7.309434e-02 2.403250e-01 2.798631e-01 9.690890e-02 4.224453e-01 6.131910e-02 -2.578872e-01
<VARIANCE> 39
 3.229541e+01 3.968277e+01 4.956671e+01 5.120855e+01 4.109526e+01 4.624487e+01 5.195865e+01 8.448982e+01 6.350553e+01 3.031298e+01 6.553004e+01 2.334434e+01 2.299324e+01 6.430434e-01 7.887073e-01 5.202514e+00 2.042409e+00 1.365600e+00 2.909347e+00 2.107773e+00 1.949721e+00 3.573942e+00 1.863692e+00 1.766910e+00 1.103246e+00 1.852807e+00 4.527829e-02 8.378407e-02 3.091108e-01 2.299067e-01 1.817350e-01 3.052534e-01 4.715608e-01 3.750512e-01 5.118110e-01 3.003346e-01 2.441922e-01 2.717857e-01 2.643508e-01
<GCONST> 1.095391e+02
<MIXTURE> 2 5.318434e-01
<MEAN> 39
 1.336963e+01 -8.624643e+00 9.415464e+00 1.238608e+01 2.016290e+01 1.571156e+01 -1.822333e+01 2.351411e+00 -1.353659e+01 -1.962364e+01 1.214647e+01 -2.396844e+00 -8.354259e+00 -1.748430e+00 7.859190e-02 3.679812e+00 -1.597116e+00 -1.084427e+00 3.522643e+00 9.648404e-01 -1.399115e+00 5.439718e-01 1.372310e+00 -2.213965e+00 -1.335893e-01 1.767965e+00 -3.211412e-01 -3.830112e-02 4.676647e-01 -3.031480e-01 -1.205959e-01 4.576876e-02 -3.253415e-02 3.203340e-01 6.044418e-03 5.947813e-02 -6.382627e-03 5.925296e-02 1.610071e-01
<VARIANCE> 39
 2.906927e+01 4.156757e+01 1.132906e+02 9.447580e+01 1.082906e+02 1.711659e+02 4.753015e+01 9.065492e+01 5.108701e+01 3.627490e+01 1.022197e+02 1.378874e+01 7.360457e+01 1.176624e+00 7.416673e-01 4.875288e+00 1.753425e+00 1.615414e+00 2.171665e+00 1.777003e+00 2.022426e+00 1.531078e+00 1.529378e+00 2.077526e+00 1.017494e+00 1.642903e+00 5.148379e-02 9.967146e-02 2.716205e-01 1.897310e-01 1.327330e-01 3.428742e-01 2.346616e-01 4.941613e-01 1.996604e-01 3.170068e-01 3.150649e-01 1.185267e-01 1.873473e-01
<GCONST> 1.107579e+02
<STATE> 3
<NUMMIXES> 2
<MIXTURE> 1 7.722617e-01
<MEAN> 39
 -5.827888e+00 -1.171891e+01 3.319925e+01 6.456814e-01 8.936348e+00 2.818932e+01 -5.981130e+00 9.854989e+00 -5.052301e+00 -9.067703e+00 6.677046e+00 1.528042e+00 1.700400e+00 -1.344536e+00 -9.235003e-01 -1.819831e-01 -8.464827e-01 -4.568861e-01 -2.529925e-01 4.642358e-01 1.084485e+00 1.241899e+00 1.278870e+00 9.203066e-01 3.348936e-01 3.383374e-01 3.936075e-01 -2.189541e-01 -2.475002e-01 -4.106542e-02 1.097906e-01 -1.352011e-01 -6.374905e-01 -1.651690e-01 -2.243907e-01 -2.659283e-01 -4.118623e-02 -1.619162e-01 1.747987e-01
<VARIANCE> 39
 1.691562e+02 6.791238e+01 4.224578e+02 9.164142e+01 4.921202e+01 3.629047e+02 6.803003e+01 4.614813e+01 2.502975e+01 4.702777e+01 3.276513e+01 1.913677e+01 3.446577e+01 1.072454e+00 1.755713e+00 1.211449e+00 1.686696e+00 1.603514e+00 1.439116e+00 1.442564e+00 3.368224e+00 3.531064e+00 2.565996e+00 1.346668e+00 1.245263e+00 6.494673e-01 9.659065e-02 1.170212e-01 1.902372e-01 1.091571e-01 2.120065e-01 2.958232e-01 2.614700e-01 4.625622e-01 4.359854e-01 3.163870e-01 2.468822e-01 2.825303e-01 2.704622e-01
<GCONST> 1.133478e+02
<MIXTURE> 2 2.277383e-01
<MEAN> 39
 6.818596e+00 4.284027e+00 9.045361e+00 1.457089e+01 1.370840e+01 4.985960e+00 -7.699371e+00 4.447370e+00 -1.656551e+00 -1.222493e+01 -1.775091e+00 -3.114090e+00 -6.849699e+00 -9.122931e-01 -1.848896e-01 1.308725e-01 -2.829823e-01 -4.867479e-01 3.601754e-01 7.679178e-01 8.253598e-01 5.345584e-01 -5.690049e-02 -2.628292e-01 -5.494116e-02 -1.722716e-01 2.441148e-01 -3.336724e-01 -5.280696e-01 -6.028744e-02 -2.095179e-01 -5.133249e-01 -1.531629e-01 4.190700e-01 -3.737887e-01 -3.342360e-01 4.962222e-01 3.102419e-01 -9.321751e-02
<VARIANCE> 39
 1.281072e+02 6.816649e+01 6.716118e+01 1.915435e+02 5.577660e+01 4.576421e+01 7.699492e+01 8.503441e+01 3.490679e+01 1.574958e+02 3.122790e+01 2.799923e+01 6.713660e+01 7.887687e-01 2.517425e+00 1.792967e+00 6.011736e-01 2.969954e+00 1.548290e+00 1.959518e+00 1.578731e+00 1.395130e+00 6.605181e-01 6.511234e-01 1.555188e+00 1.104470e+00 8.014739e-02 9.255242e-02 3.400367e-01 1.114449e-01 2.310309e-02 1.090650e-01 1.741726e-01 3.130615e-01 4.635315e-01 1.403377e+00 2.696154e-01 1.806937e-01 1.077286e-01
<GCONST> 1.071350e+02
<STATE> 4
<NUMMIXES> 2
<MIXTURE> 1 3.110902e-01
<MEAN> 39
 -1.795531e+01 -2.181521e+01 4.228323e+01 -9.533438e+00 4.240610e+00 3.502509e+01 -4.716157e+00 1.069214e+01 -3.531434e+00 -2.414253e-01 1.180503e+01 4.244808e+00 7.500261e+00 2.197472e-01 -9.753234e-01 -5.764763e-01 -7.816927e-01 -2.580454e-01 -1.649367e-01 -3.178149e-01 -3.680976e-01 -1.824699e-01 5.498970e-01 9.293009e-02 -8.599962e-02 5.692157e-01 6.323168e-01 3.746901e-01 -1.286288e-01 4.115144e-01 2.560332e-01 6.151120e-02 -1.389211e-01 -5.106664e-01 -4.899699e-01 -4.483732e-01 -3.941796e-01 -2.616678e-01 -1.753500e-01
<VARIANCE> 39
 1.298228e+01 2.978734e+01 2.020432e+01 2.805649e+01 2.081506e+01 2.953479e+01 1.498544e+01 1.314417e+01 2.544265e+01 3.271464e+01 2.106045e+01 2.032563e+01 1.525007e+01 2.018465e+00 1.728443e+00 1.089310e+00 2.286915e+00 2.010815e+00 3.062253e+00 1.144349e+00 2.102377e+00 2.579206e+00 1.873061e+00 1.766880e+00 1.699018e+00 1.890099e+00 1.835061e-01 2.253978e-01 1.847183e-01 3.179987e-01 3.642880e-01 5.320817e-01 2.487439e-01 1.974506e-01 4.227820e-01 2.217447e-01 3.187793e-01 3.577027e-01 2.970503e-01
<GCONST> 1.029296e+02
<MIXTURE> 2 6.889100e-01
<MEAN> 39
 -4.422742e+00 -1.654891e+01 3.282671e+01 -3.345771e+00 6.772624e+00 3.013051e+01 -8.507745e+00 5.799070e+00 -6.782957e+00 -6.653086e+00 5.039335e+00 -5.896044e-02 5.872375e+00 2.755447e+00 6.042293e-01 -2.906595e+00 9.873915e-01 -4.685879e-03 -2.114727e+00 -1.010200e+00 -5.342932e-01 -3.395629e-01 -1.278883e+00 -4.366796e-01 -2.348614e-01 -3.282406e-01 3.310446e-01 5.784214e-02 -6.328719e-01 1.886091e-01 8.966722e-02 -5.472180e-01 -1.928715e-01 2.737524e-01 -6.979726e-02 -4.524238e-01 3.178661e-01 1.512218e-01 -2.280872e-01
<VARIANCE> 39
 1.180120e+02 6.391269e+01 1.572607e+02 7.078342e+01 3.018182e+01 1.346251e+02 2.814584e+01 4.442853e+01 3.044280e+01 4.827299e+01 4.286105e+01 2.041387e+01 3.196973e+01 5.726661e+00 2.880660e+00 6.878279e+00 3.101799e+00 1.869371e+00 5.412077e+00 1.514106e+00 2.918301e+00 2.366698e+00 4.083705e+00 2.427685e+00 1.605200e+00 1.787031e+00 3.322731e-01 3.087671e-01 4.739614e-01 3.225858e-01 2.772161e-01 5.169655e-01 2.123242e-01 5.177544e-01 4.160535e-01 3.381513e-01 6.434546e-01 2.561559e-01 2.415672e-01
<GCONST> 1.232783e+02
<TRANSP> 5
 0.000000e+00 1.000000e+00 0.000000e+00 0.000000e+00 0.000000e+00
 0.000000e+00 8.187487e-01 1.812513e-01 0.000000e+00 0.000000e+00
 0.000000e+00 0.000000e+00 2.873881e-02 9.712612e-01 0.000000e+00
 0.000000e+00 0.000000e+00 0.000000e+00 8.613421e-01 1.386579e-01
 0.000000e+00 0.000000e+00 0.000000e+00 0.000000e+00 0.000000e+00
<ENDHMM>
~h "aa"
<BEGINHMM>
<NUMSTATES> 7
<STATE> 2
<NUMMIXES> 2
<MIXTURE> 1 1.513931e-02
<MEAN> 39
 2.131208e+01 -1.094762e+01 -1.147531e+01 5.324615e+00 2.005388e+00 -9.353849e+00 -7.936810e+00 1.669812e+01 6.311789e-01 -9.753534e+00 9.643612e+00 3.004204e+00 -4.134374e-01 6.633601e-02 -1.630003e-01 -5.876743e-01 -3.273651e-01 -2.192041e-01 -2.724208e-01 4.199445e-01 4.137439e-01 4.330440e-01 2.655809e-01 -2.946663e-01 3.545686e-02 1.433170e-01 -7.543115e-02 1.035342e-01 6.708075e-02 9.126551e-04 9.703651e-02 8.715332e-02 -6.393561e-02 3.339225e-02 -2.878567e-02 -2.843612e-02 -2.603362e-02 -8.848849e-02 2.919346e-02
<VARIANCE> 39
 1.095512e+01 2.432691e+01 6.482552e+01 2.295603e+01 5.241211e+01 6.126419e+01 8.801002e+01 5.536877e+01 6.481122e+01 6.241274e+01 7.555220e+01 2.438936e+01 2.973588e+01 6.335990e-01 4.683427e-01 6.607704e-01 5.476298e-01 8.504344e-01 9.317825e-01 1.261691e+00 1.024466e+00 9.346337e-01 8.681795e-01 9.519370e-01 5.879903e-01 4.320667e-01 8.445545e-02 7.242821e-02 6.821410e-02 5.197088e-02 7.849561e-02 8.317269e-02 1.368314e-01 9.816339e-02 1.187263e-01 9.218737e-02 1.176709e-01 8.027080e-02 7.014639e-02
<GCONST> 8.459956e+01
<MIXTURE> 2 9.848608e-01
<MEAN> 39
 1.205704e+01 -7.867622e+00 -7.562972e+00 4.475743e+00 3.410275e+00 -4.028752e+00 -7.900339e+00 1.459924e+01 -1.152148e+00 -9.850546e+00 7.651597e+00 1.735874e+00 9.683049e-01 1.327898e+00 -3.256754e-01 -9.746932e-01 -1.755991e-01 -5.081937e-02 -1.153422e+00 -4.994453e-01 8.358405e-01 1.668426e-01 -5.174217e-01 3.686050e-01 3.020881e-01 -1.268115e-01 -2.010169e-01 1.874531e-02 1.079335e-01 4.546767e-03 8.439381e-03 1.043144e-01 8.556572e-02 -7.068118e-02 9.490515e-02 1.286648e-01 -1.152468e-01 -1.351943e-02 2.860969e-02
<VARIANCE> 39
 1.835021e+02 7.490270e+01 1.065429e+02 8.193586e+01 1.192980e+02 1.243496e+02 1.108121e+02 8.765125e+01 9.090769e+01 8.449281e+01 8.185684e+01 3.126623e+01 3.971999e+01 4.042287e+00 2.320034e+00 3.240504e+00 2.871558e+00 3.002076e+00 3.951586e+00 3.463784e+00 3.581424e+00 3.276283e+00 3.552847e+00 3.222915e+00 1.741614e+00 1.569398e+00 4.027391e-01 3.105809e-01 4.221000e-01 4.209287e-01 3.986373e-01 5.439628e-01 4.571724e-01 5.199074e-01 5.126513e-01 5.549279e-01 4.718172e-01 2.834132e-01 2.552156e-01
<GCONST> 1.322260e+02
<STATE> 3
<NUMMIXES> 2
<MIXTURE> 1 2.302818e-04
<MEAN> 39
 2.402996e+01 -1.059809e+01 -1.079472e+01 8.335818e+00 -8.849270e+00 -1.957035e+01 2.104228e+00 3.184280e+01 4.416385e+00 -1.736116e+01 2.732575e+00 3.807120e+00 -3.885648e+00 5.760164e-01 -6.582912e-01 -3.413981e-01 2.272411e-01 2.543305e-01 3.876042e-01 7.036700e-02 6.786529e-03 -2.697914e-01 -1.277159e-01 2.908120e-01 -1.608944e-01 1.591704e-01 -2.049357e-01 1.503928e-01 -2.306403e-02 -7.207284e-02 1.819021e-01 -8.179460e-02 8.059293e-04 -1.147727e-01 5.689371e-02 4.653044e-02 -2.697947e-01 2.690066e-01 -2.334038e-03
<VARIANCE> 39
 7.549000e+00 6.448921e+00 1.949440e+00 3.088669e+00 2.076202e+00 1.248837e+01 2.625351e+00 2.803894e+00 3.301224e+00 3.229889e+00 3.653847e+00 3.280059e+00 1.207353e+00 7.452424e-01 1.688835e-01 1.148825e-01 2.064529e-01 1.469229e-01 4.504824e-02 1.697460e-01 2.630590e-01 1.208003e-01 1.004516e-01 2.376183e-01 1.182968e-01 1.910551e-02 5.307819e-02 2.424861e-02 4.204493e-03 8.873743e-03 3.029855e-03 5.292385e-03 1.315604e-02 1.664230e-02 9.901980e-03 1.559456e-02 2.956796e-02 8.978382e-03 8.717346e-03
<GCONST> 3.694898e+00
<MIXTURE> 2 9.997697e-01
<MEAN> 39
 1.747461e+01 -8.409584e+00 -9.972239e+00 5.491179e+00 5.436718e+00 -1.013324e+01 -1.199130e+01 1.890939e+01 1.896653e+00 -1.202413e+01 7.891953e+00 3.368754e+00 1.430346e-01 1.626374e-02 -1.897732e-01 -3.609361e-01 -2.990254e-01 -2.624262e-01 -1.242854e-01 3.436691e-01 2.637741e-01 4.533363e-01 3.356661e-01 -2.392718e-01 -5.838041e-02 8.640501e-02 -1.827405e-02 4.688448e-02 1.045064e-01 9.498361e-02 3.754175e-02 1.208334e-01 2.995908e-02 -9.341414e-02 -5.658358e-02 1.373260e-02 -1.736728e-02 -6.342983e-02 -2.944210e-02
<VARIANCE> 39
 9.531175e+01 6.193058e+01 1.132827e+02 7.577620e+01 1.155265e+02 1.050819e+02 1.228608e+02 9.459444e+01 1.018232e+02 7.907036e+01 9.354279e+01 3.491285e+01 5.501976e+01 5.975012e-01 7.062696e-01 8.681957e-01 9.734248e-01 9.422451e-01 1.058931e+00 1.638324e+00 1.834667e+00 1.273525e+00 1.377955e+00 1.595888e+00 8.251535e-01 7.608907e-01 9.011675e-02 8.767774e-02 1.190789e-01 1.300302e-01 1.337332e-01 1.547881e-01 2.359581e-01 2.812819e-01 1.609380e-01 2.154246e-01 2.374312e-01 1.460431e-01 1.173826e-01
<GCONST> 1.054424e+02
<STATE> 4
<NUMMIXES> 2
<MIXTURE> 1 1.501305e-01
<MEAN> 39
 -3.964519e+00 -5.688638e+00 4.443896e+00 3.926091e+00 1.110342e+00 4.321443e+00 -2.478457e+00 9.236383e+00 -1.911729e+00 -4.941032e+00 3.944415e+00 1.249421e-01 8.900099e-01 -5.657818e-03 4.852188e-02 3.457957e-01 3.329653e-01 1.599618e-01 2.593856e-01 1.454197e-01 -1.918936e-01 8.087987e-02 8.213261e-02 -1.510041e-01 -7.089037e-02 -4.824620e-02 -6.211248e-02 4.953351e-03 2.157805e-02 1.541118e-01 1.932763e-01 8.177163e-02 -4.725502e-02 -8.016104e-02 -3.983520e-02 -8.942229e-02 -1.889765e-02 3.360929e-02 -1.982044e-02
<VARIANCE> 39
 2.707371e+02 2.433028e+02 2.156802e+02 1.701021e+02 1.311655e+02 1.225094e+02 9.642646e+01 1.113031e+02 8.468095e+01 4.830469e+01 5.940689e+01 4.845163e+01 4.322628e+01 1.634263e+00 2.632501e+00 2.281828e+00 3.158823e+00 2.226579e+00 2.227413e+00 2.633241e+00 2.370252e+00 1.847696e+00 2.578000e+00 2.205877e+00 1.459079e+00 1.578811e+00 7.783755e-02 2.712313e-01 2.299395e-01 2.578447e-01 2.370952e-01 2.708873e-01 3.089440e-01 3.575369e-01 2.980592e-01 3.387744e-01 3.430330e-01 2.643490e-01 2.082140e-01
<GCONST> 1.244556e+02
<MIXTURE> 2 8.498695e-01
<MEAN> 39
 2.047522e+01 -9.032142e+00 -1.119086e+01 6.710451e+00 6.766394e+00 -1.126148e+01 -1.257378e+01 1.945949e+01 1.804822e+00 -1.356678e+01 7.553513e+00 2.306390e+00 -2.505810e+00 -3.668507e-03 -2.992752e-02 -1.218904e-01 -9.073431e-02 -5.501881e-02 -1.795329e-04 1.234166e-01 -2.740016e-02 1.118336e-01 1.782881e-01 -8.984193e-02 -6.054221e-02 -4.981229e-03 -1.777011e-02 7.674436e-02 8.948437e-02 7.047477e-02 2.215425e-02 8.038746e-02 -1.575343e-03 -6.222301e-02 -6.232567e-02 2.001242e-02 2.291749e-03 -4.682783e-02 1.736873e-02
<VARIANCE> 39
 1.872780e+01 4.257989e+01 1.079904e+02 7.903679e+01 1.054043e+02 7.675669e+01 9.781818e+01 8.565308e+01 8.885759e+01 7.176596e+01 8.623962e+01 2.814370e+01 5.556717e+01 2.738114e-01 4.534788e-01 5.587853e-01 5.823966e-01 6.239827e-01 8.559797e-01 1.120890e+00 1.148376e+00 9.540558e-01 9.099416e-01 1.170940e+00 5.932260e-01 4.870854e-01 4.129231e-02 4.068734e-02 6.754566e-02 7.996676e-02 6.926432e-02 8.679228e-02 1.247942e-01 1.407460e-01 9.098106e-02 1.208281e-01 1.255752e-01 8.363797e-02 8.047698e-02
<GCONST> 8.885406e+01
<STATE> 5
<NUMMIXES> 2
<MIXTURE> 1 5.509349e-01
<MEAN> 39
 2.210856e+01 -1.120066e+01 -1.293238e+01 5.629295e+00 5.065222e+00 -1.063684e+01 -1.093076e+01 2.051139e+01 1.021768e+00 -1.380926e+01 8.404278e+00 1.942206e+00 -1.785075e+00 2.744914e-01 -5.731940e-02 -1.777281e-01 1.035100e-01 1.020763e-01 2.418068e-02 -7.618630e-02 1.840755e-01 3.161269e-02 1.844490e-02 6.774178e-02 -2.412781e-01 -6.667066e-02 -1.384885e-01 1.712902e-01 1.085170e-01 1.967220e-02 2.569440e-02 6.562988e-02 3.279656e-02 -1.099592e-01 -1.001570e-02 6.492366e-02 -7.311150e-02 -3.565930e-03 2.945227e-02
<VARIANCE> 39
 2.553911e+01 3.206728e+01 8.915018e+01 4.764393e+01 7.210538e+01 7.664035e+01 8.846577e+01 7.229987e+01 6.924426e+01 6.753753e+01 6.912015e+01 2.071059e+01 3.580318e+01 1.018772e+00 9.894271e-01 9.159607e-01 7.544560e-01 8.557253e-01 1.062812e+00 1.471886e+00 2.012132e+00 1.143147e+00 1.258507e+00 1.624201e+00 6.982330e-01 5.790360e-01 1.216983e-01 9.726698e-02 1.165781e-01 1.025100e-01 9.157543e-02 1.157865e-01 1.655580e-01 2.098674e-01 1.062638e-01 1.636556e-01 1.969438e-01 9.372368e-02 8.735682e-02
<GCONST> 9.673567e+01
<MIXTURE> 2 4.490653e-01
<MEAN> 39
 9.087136e+00 -4.978562e+00 -9.973781e-01 8.266314e+00 7.815623e+00 -3.988409e+00 -1.154164e+01 1.316384e+01 -1.500447e+00 -1.051527e+01 7.801836e+00 1.388476e+00 -2.653489e+00 -1.942866e-01 2.207956e-01 2.824431e-01 2.047546e-01 1.906577e-01 3.583069e-01 2.055684e-01 -3.085513e-01 -1.048141e-01 1.828698e-01 -4.302537e-02 -1.199102e-02 6.142204e-02 -2.497965e-02 3.590824e-02 6.797682e-02 8.880164e-02 5.504019e-02 1.221271e-01 4.736681e-02 -3.321292e-02 -5.728250e-03 -1.761814e-02 -4.306259e-02 -3.808955e-02 -1.745071e-03
<VARIANCE> 39
 2.133463e+02 1.343962e+02 1.731722e+02 1.758605e+02 1.835876e+02 1.455354e+02 1.608860e+02 1.301969e+02 1.002255e+02 1.045160e+02 1.190889e+02 5.385352e+01 9.577766e+01 6.032268e-01 1.110830e+00 1.126167e+00 1.789571e+00 1.372566e+00 1.581101e+00 2.103951e+00 1.904216e+00 1.483397e+00 1.842921e+00 1.894178e+00 1.126446e+00 1.085430e+00 7.158560e-02 1.038083e-01 1.488625e-01 1.631273e-01 1.775671e-01 2.053429e-01 2.715879e-01 3.153593e-01 2.008889e-01 2.503570e-01 2.891706e-01 1.859872e-01 1.667213e-01
<GCONST> 1.172082e+02
<STATE> 6
<NUMMIXES> 2
<MIXTURE> 1 6.889757e-01
<MEAN> 39
 1.805596e+01 -7.206920e+00 -1.126960e+01 4.972702e+00 3.753267e+00 -9.378576e+00 -7.262000e+00 2.039874e+01 3.472644e+00 -1.008752e+01 5.855934e+00 1.779935e+00 -6.237228e-01 -2.043163e-01 2.723263e-01 3.031263e-01 7.740608e-02 9.300666e-02 3.183674e-01 1.118311e-01 -2.831206e-01 -1.740087e-01 1.202189e-01 6.017924e-02 -4.984888e-02 -5.983010e-02 -2.084185e-02 3.438234e-02 3.107376e-02 3.740355e-03 1.732480e-02 4.531521e-02 -5.553912e-03 -5.322229e-02 -2.965040e-02 3.282965e-03 1.043113e-02 9.834744e-03 1.316667e-04
<VARIANCE> 39
 1.193160e+02 7.258450e+01 9.707523e+01 4.592236e+01 8.205971e+01 1.048876e+02 1.312500e+02 8.947955e+01 6.919598e+01 6.687878e+01 8.247208e+01 2.970300e+01 3.752540e+01 5.829152e-01 6.510342e-01 7.811992e-01 7.673495e-01 8.719338e-01 1.083609e+00 1.449736e+00 1.666017e+00 1.075746e+00 1.175989e+00 1.522917e+00 8.029445e-01 6.685019e-01 7.553948e-02 7.442503e-02 1.016371e-01 1.151648e-01 1.070355e-01 1.348580e-01 1.921914e-01 2.350636e-01 1.309852e-01 1.664858e-01 2.072890e-01 1.260385e-01 9.790219e-02
<GCONST> 1.000660e+02
<MIXTURE> 2 3.110248e-01
<MEAN> 39
 1.371913e+01 -2.770610e+00 -7.875394e+00 4.515609e+00 6.882530e+00 -2.097751e+00 -6.287339e+00 1.469908e+01 -5.439398e-01 -8.826579e+00 7.173106e+00 2.749700e+00 1.283188e+00 -1.064655e+00 8.139795e-01 1.056604e+00 4.580801e-01 3.156692e-01 1.074756e+00 5.728582e-01 -6.619236e-01 -2.943549e-03 4.111677e-01 -5.705063e-01 -2.518001e-01 -1.162976e-02 -1.167217e-01 -3.474659e-02 8.802819e-02 3.011518e-02 -7.588491e-03 2.585214e-02 2.789661e-02 2.488374e-02 3.817947e-02 3.409729e-02 -1.260046e-02 -2.392620e-02 -6.521715e-03
<VARIANCE> 39
 1.287068e+02 6.651244e+01 7.651079e+01 6.104726e+01 8.123847e+01 1.131025e+02 1.347309e+02 1.002941e+02 9.512772e+01 8.019576e+01 1.079651e+02 4.484659e+01 4.934404e+01 2.579925e+00 2.500994e+00 2.565492e+00 2.214469e+00 2.279775e+00 3.515261e+00 4.216829e+00 4.038418e+00 2.610820e+00 3.185344e+00 4.212810e+00 1.726528e+00 1.746740e+00 2.523403e-01 2.352169e-01 3.116569e-01 2.530983e-01 2.645316e-01 3.696372e-01 4.715893e-01 5.156063e-01 3.858998e-01 4.370017e-01 5.117248e-01 2.370878e-01 2.223836e-01
<GCONST> 1.278240e+02
<TRANSP> 7
 0.000000e+00 1.000000e+00 0.000000e+00 0.000000e+00 0.000000e+00 0.000000e+00 0.000000e+00
 0.000000e+00 8.037646e-01 1.962354e-01 0.000000e+00 0.000000e+00 0.000000e+00 0.000000e+00
 0.000000e+00 0.000000e+00 4.950252e-01 5.049748e-01 0.000000e+00 0.000000e+00 0.000000e+00
 0.000000e+00 0.000000e+00 0.000000e+00 2.189647e-01 7.810354e-01 0.000000e+00 0.000000e+00
 0.000000e+00 0.000000e+00 0.000000e+00 0.000000e+00 1.260839e-01 8.739160e-01 0.000000e+00
 0.000000e+00 0.000000e+00 0.000000e+00 0.000000e+00 0.000000e+00 9.194173e-01 8.058266e-02
 0.000000e+00 0.000000e+00 0.000000e+00 0.000000e+00 0.000000e+00 0.000000e+00 0.000000e+00
<ENDHMM>
~h "ax"
<BEGINHMM>
<NUMSTATES> 7
<STATE> 2
<NUMMIXES> 2
<MIXTURE> 1 4.268260e-01
<MEAN> 39
 -4.078574e+00 -3.374245e+00 5.198903e-01 1.801540e+00 -1.851243e+00 2.781978e+00 7.091818e-01 1.441120e+01 2.065462e+00 -4.615270e+00 2.111782e+00 -3.850330e-01 3.425519e+00 2.275321e+00 5.742590e-01 1.278439e-01 8.875368e-01 1.244040e-01 -1.309919e+00 -2.354195e-01 1.181183e+00 6.984818e-01 -2.268526e-01 -2.529798e-01 1.219423e-02 -2.457403e-01 2.856641e-01 -5.764362e-02 -3.367696e-01 -1.344984e-01 -3.034313e-01 -6.243571e-01 -3.711740e-01 6.604208e-02 -9.724818e-02 -4.163253e-01 4.077301e-02 -4.994860e-02 -3.272365e-01
<VARIANCE> 39
 1.740400e+02 6.506969e+01 4.814248e+01 6.933337e+01 8.003551e+01 8.518300e+01 6.419626e+01 7.437743e+01 5.081170e+01 4.181718e+01 3.447476e+01 3.995397e+01 3.217916e+01 6.144561e+00 3.080130e+00 3.718398e+00 8.317410e+00 7.761559e+00 5.294917e+00 5.106543e+00 5.612652e+00 4.127465e+00 5.656487e+00 3.186430e+00 2.873347e+00 3.410928e+00 3.243437e-01 3.773563e-01 5.063604e-01 1.063773e+00 9.831190e-01 9.067633e-01 7.073701e-01 6.187144e-01 6.301674e-01 7.941855e-01 4.926071e-01 5.361067e-01 5.353388e-01
<GCONST> 1.385107e+02
<MIXTURE> 2 5.731741e-01
<MEAN> 39
 1.527070e+01 -1.844127e+00 -3.072622e+00 3.817732e+00 -6.072432e+00 -1.385574e+01 -7.092425e+00 2.337591e+01 4.706642e+00 -1.215063e+01 4.122655e+00 -2.472694e-01 -2.334728e+00 2.021447e+00 -3.139656e-01 -9.980906e-01 3.885027e-01 1.388462e-01 -2.074989e+00 -1.293895e+00 8.029845e-01 4.183163e-01 -9.326963e-01 1.183936e-01 2.402426e-01 -7.375879e-01 -4.760332e-01 -5.868895e-02 4.524527e-02 3.447829e-02 2.383370e-01 3.562248e-01 1.359443e-01 -2.523115e-01 1.261656e-01 3.669917e-01 -9.366546e-02 7.714823e-02 1.788376e-01
<VARIANCE> 39
 6.275138e+01 4.003748e+01 4.632104e+01 9.646558e+01 9.355533e+01 1.585494e+02 9.232621e+01 4.806860e+01 8.405820e+01 6.397962e+01 4.934557e+01 2.938170e+01 2.963210e+01 3.365128e+00 1.304942e+00 2.210415e+00 5.368852e+00 5.438785e+00 4.399997e+00 2.722792e+00 4.781693e+00 2.464784e+00 4.253468e+00 2.684813e+00 2.029613e+00 1.385303e+00 2.555022e-01 1.967861e-01 2.623008e-01 1.262730e+00 9.886627e-01 4.697299e-01 3.811061e-01 7.835633e-01 4.673942e-01 7.711449e-01 4.895440e-01 2.373769e-01 2.294026e-01
<GCONST> 1.285221e+02
<STATE> 3
<NUMMIXES> 2
<MIXTURE> 1 7.837694e-01
<MEAN> 39
 1.955573e+01 -4.401347e+00 -7.009614e+00 9.613409e+00 1.483351e+00 -1.992259e+01 -1.542071e+01 2.094991e+01 7.768355e+00 -1.299565e+01 2.643856e+00 3.258607e+00 -4.959783e+00 5.220571e-01 -3.656262e-01 -9.342470e-01 -3.778484e-01 2.217530e-01 -8.416860e-01 -7.829974e-01 4.254477e-01 5.868527e-01 1.679031e-01 2.304314e-01 4.562795e-01 -1.414269e-02 -8.077927e-02 8.328055e-02 2.205759e-01 -7.701517e-02 -1.429229e-01 3.119850e-01 2.765356e-01 -1.607738e-02 -6.948305e-02 1.840193e-01 5.009122e-03 -2.270775e-01 9.728105e-02
<VARIANCE> 39
 7.282659e+01 3.129933e+01 5.480878e+01 1.885013e+01 7.592960e+01 1.380899e+02 6.686354e+01 5.258762e+01 7.373828e+01 4.777165e+01 5.764455e+01 1.343050e+01 3.486234e+01 8.356981e-01 6.342140e-01 1.595155e+00 5.748975e-01 9.350442e-01 1.199902e+00 1.075773e+00 1.470151e+00 1.030727e+00 1.346344e+00 9.948619e-01 7.607471e-01 5.319358e-01 1.692632e-01 7.489265e-02 1.152100e-01 1.293026e-01 1.429255e-01 1.270259e-01 1.824509e-01 4.103404e-01 1.074421e-01 2.555543e-01 1.845226e-01 1.152999e-01 1.346512e-01
<GCONST> 9.678632e+01
<MIXTURE> 2 2.162307e-01
<MEAN> 39
 1.407019e+01 -5.830484e+00 3.381979e-01 1.176460e+01 7.315253e+00 -6.888145e+00 -1.106982e+01 1.369826e+01 -3.125949e+00 -1.455301e+01 3.646338e+00 -1.014584e+00 -4.705912e+00 -3.991662e-01 8.316758e-01 3.700203e-01 2.222911e-01 4.238456e-01 2.450501e-01 3.522978e-01 -3.657117e-01 3.488387e-01 2.489597e-01 -8.964410e-01 -3.267889e-01 -1.156842e-01 -9.744754e-02 9.932948e-02 2.529432e-01 5.752624e-02 -7.642418e-03 2.389285e-01 1.746321e-01 1.035278e-01 1.160718e-01 -5.156815e-03 -6.154277e-02 -1.849832e-02 9.987538e-02
<VARIANCE> 39
 1.287173e+02 2.376392e+02 1.361808e+02 1.139831e+02 1.406797e+02 1.586263e+02 8.412460e+01 1.420027e+02 5.717598e+01 4.668903e+01 8.519615e+01 4.096358e+01 4.116798e+01 2.520765e+00 1.765650e+00 3.182534e+00 7.618694e-01 4.412386e-01 2.562232e+00 2.952191e+00 1.842574e+00 2.485889e+00 2.735992e+00 2.625951e+00 1.058103e+00 5.148697e-01 1.487368e-01 9.267259e-02 9.997778e-02 6.267767e-02 6.514488e-02 1.793222e-01 1.522379e-01 1.556659e-01 1.542757e-01 9.730701e-02 1.677960e-01 1.746625e-01 1.314510e-01
<GCONST> 1.099853e+02
<STATE> 4
<NUMMIXES> 2
<MIXTURE> 1 8.189306e-01
<MEAN> 39
 2.175108e+01 -4.362260e+00 -1.110937e+01 6.420438e+00 -6.380620e-01 -2.269768e+01 -1.539931e+01 2.299271e+01 1.266569e+01 -1.040858e+01 1.049970e+00 4.670157e+00 -1.923382e+00 7.653210e-02 -3.108986e-02 -1.944685e-01 -1.912483e-01 6.155646e-02 -1.169640e-01 -2.429872e-01 2.224666e-01 5.076925e-01 2.794219e-01 8.695536e-02 8.244352e-02 1.227998e-01 -4.203691e-02 5.237553e-02 1.106996e-01 2.731113e-02 1.026502e-02 1.783171e-01 1.305946e-01 -4.149104e-02 -1.888064e-01 -7.135735e-02 1.738334e-02 -9.747611e-02 -9.628136e-03
<VARIANCE> 39
 1.922342e+01 1.156571e+01 3.989227e+01 2.055200e+01 3.033371e+01 8.398601e+01 3.045595e+01 2.828386e+01 4.009219e+01 2.175411e+01 2.404352e+01 9.512140e+00 3.075225e+01 9.161080e-01 7.064994e-01 1.356646e+00 5.068771e-01 4.752814e-01 1.066180e+00 9.331892e-01 1.192219e+00 8.677356e-01 1.107404e+00 1.076138e+00 3.887569e-01 3.922514e-01 5.733178e-02 3.772584e-02 7.489944e-02 2.869063e-02 5.566669e-02 9.251887e-02 1.278159e-01 1.305196e-01 5.629416e-02 9.364082e-02 1.072092e-01 6.105432e-02 4.570492e-02
<GCONST> 7.579046e+01
<MIXTURE> 2 1.810694e-01
<MEAN> 39
 1.282034e+01 -6.698832e+00 -4.271600e-01 1.199138e+01 8.574030e+00 -8.182812e+00 -1.291225e+01 1.539028e+01 -1.199847e+00 -1.521048e+01 5.676438e+00 -3.554115e-02 -8.222788e+00 1.267005e-01 4.852436e-02 -4.137822e-01 -5.811980e-02 3.085582e-01 -3.740064e-01 -3.181173e-01 6.513657e-02 -5.460769e-02 -1.511915e-01 -1.337581e-01 -1.064880e-01 -4.189052e-03 2.416090e-02 2.143925e-02 1.288200e-01 1.083158e-01 -6.225331e-02 2.466495e-01 2.516491e-01 4.807174e-02 4.992568e-02 9.919516e-02 -1.094017e-01 -1.223458e-02 1.416992e-01
<VARIANCE> 39
 2.065988e+02 1.917810e+02 1.056779e+02 9.697711e+01 1.678162e+02 1.517545e+02 1.395301e+02 1.557339e+02 7.719931e+01 8.280969e+01 1.243973e+02 2.757778e+01 3.851778e+01 3.057013e-01 5.614344e-01 4.854190e-01 1.203671e+00 8.907138e-01 8.022302e-01 1.614222e+00 8.441095e-01 1.336698e+00 7.217589e-01 9.082252e-01 4.584731e-01 4.026039e-01 6.443910e-02 5.580077e-02 6.141104e-02 4.466768e-02 8.257046e-02 1.179292e-01 1.629459e-01 1.823088e-01 1.338980e-01 1.196956e-01 1.834821e-01 1.234943e-01 9.114903e-02
<GCONST> 9.804626e+01
<STATE> 5
<NUMMIXES> 2
<MIXTURE> 1 9.865017e-01
<MEAN> 39
 2.257138e+01 -4.968833e+00 -1.124216e+01 5.979835e+00 -1.372292e+00 -2.303089e+01 -1.537815e+01 2.346284e+01 1.257431e+01 -9.352398e+00 2.800852e+00 4.370298e+00 -3.976107e+00 -3.035864e-02 2.751654e-01 1.494761e-01 -1.261913e-01 5.750057e-02 3.022454e-01 2.010753e-01 -9.965736e-02 -2.407293e-01 -8.132669e-02 6.813878e-02 1.248853e-01 -7.925034e-04 -3.597623e-02 6.681270e-02 7.942345e-02 5.558029e-02 4.528252e-02 9.584801e-02 5.447090e-02 -6.185524e-02 -8.084314e-02 -2.383470e-02 -1.448976e-02 -1.688197e-02 -1.552222e-02
<VARIANCE> 39
 2.494116e+01 2.010394e+01 4.648752e+01 2.120761e+01 3.418563e+01 6.324240e+01 3.061251e+01 4.442073e+01 2.888914e+01 2.882804e+01 3.058575e+01 2.129975e+01 2.774854e+01 9.060075e-01 4.905660e-01 7.407670e-01 7.395279e-01 6.778609e-01 9.147805e-01 9.196915e-01 1.703154e+00 8.701158e-01 1.033881e+00 1.073317e+00 6.021253e-01 4.239810e-01 1.418095e-01 5.269087e-02 8.060388e-02 8.660115e-02 9.342381e-02 1.077487e-01 1.376588e-01 2.718441e-01 6.524875e-02 1.445578e-01 1.567357e-01 8.058679e-02 6.855518e-02
<GCONST> 8.390639e+01
<MIXTURE> 2 1.349823e-02
<MEAN> 39
 1.498798e+01 4.839067e-01 1.691787e+00 1.373284e+01 1.516246e+01 -2.646811e+00 -1.108934e+01 1.436649e+01 -5.671807e+00 -1.712075e+01 5.998154e+00 -3.071892e+00 -9.081444e+00 8.180704e-02 -2.769383e-01 -8.758847e-02 3.902873e-02 1.028589e+00 -2.390196e-01 -8.205464e-01 4.603173e-01 -7.790265e-01 -1.875702e-01 1.233251e-01 -1.239735e-01 3.967098e-01 -1.936935e-02 -6.647146e-02 2.101643e-02 1.315033e-01 -2.822039e-01 -1.061856e-02 3.417907e-01 -2.888387e-02 1.809748e-01 2.222078e-01 -3.050795e-01 2.259845e-02 3.167198e-02
<VARIANCE> 39
 1.119882e+01 1.225605e+02 6.970622e+01 1.556442e+02 9.708557e+01 5.010513e+01 1.595463e+02 1.379003e+02 1.018244e+02 4.712682e+01 2.062820e+02 2.875163e+01 4.633784e+01 7.900180e-01 4.313356e-01 8.168185e-01 1.143610e+00 5.013988e-01 1.744274e+00 1.799907e+00 3.289579e+00 1.378158e+00 4.342257e-01 1.124170e+00 7.603933e-01 4.551616e-01 2.871271e-02 5.910936e-02 2.119356e-02 4.536372e-02 8.024894e-02 4.856348e-02 1.316846e-01 1.373356e-01 2.727742e-02 1.865470e-01 1.063361e-01 2.560934e-02 9.272763e-02
<GCONST> 9.027356e+01
<STATE> 6
<NUMMIXES> 2
<MIXTURE> 1 6.569011e-01
<MEAN> 39
 1.827596e+01 6.913726e-01 -4.021253e+00 6.894421e+00 -1.596919e+00 -1.871919e+01 -1.180683e+01 2.393255e+01 8.328016e+00 -1.166341e+01 3.911782e+00 4.728827e+00 -3.580058e+00 -9.887660e-01 7.965438e-01 1.054003e+00 4.120365e-01 7.064583e-01 1.738479e+00 8.201778e-01 -6.999139e-01 -4.616121e-01 3.953922e-01 -2.548572e-01 -6.115157e-01 -2.425947e-01 -1.519792e-01 -7.153646e-02 6.580185e-02 1.422534e-01 1.671542e-01 1.582215e-01 2.341106e-02 -7.551564e-02 -2.485138e-02 7.402540e-03 -3.218380e-02 -1.394843e-01 -8.373883e-02
<VARIANCE> 39
 7.685599e+01 5.961624e+01 4.803689e+01 2.029361e+01 5.510723e+01 1.280283e+02 4.252315e+01 7.330336e+01 6.093444e+01 9.079215e+01 4.363115e+01 3.837797e+01 1.964289e+01 2.828934e+00 1.961502e+00 2.081044e+00 2.051148e+00 1.408627e+00 2.096561e+00 1.635806e+00 2.552896e+00 1.447707e+00 2.676036e+00 2.672757e+00 1.303790e+00 7.774029e-01 2.681707e-01 3.044296e-01 2.427256e-01 1.620143e-01 1.960006e-01 3.153232e-01 3.267071e-01 3.612930e-01 1.495396e-01 3.213126e-01 2.648769e-01 2.338249e-01 1.448554e-01
<GCONST> 1.125318e+02
<MIXTURE> 2 3.430990e-01
<MEAN> 39
 1.930917e+01 -2.603995e+00 -3.597308e+00 9.828732e+00 9.638540e+00 -9.239290e+00 -1.449029e+01 1.859190e+01 -1.255079e+00 -1.725452e+01 7.483056e+00 1.421671e+00 -6.793372e+00 -3.970296e-01 3.605313e-01 7.978973e-01 1.354549e+00 1.480102e+00 1.274191e+00 4.817336e-01 -6.223765e-01 -1.042251e+00 -6.772040e-01 -2.516373e-01 -2.969352e-01 -6.286342e-01 -6.167025e-02 1.448254e-02 6.094460e-02 1.640928e-01 -1.371040e-01 -1.550424e-01 1.642036e-01 1.390936e-01 2.183398e-01 6.680488e-02 -2.309506e-01 -6.047338e-02 -1.590108e-02
<VARIANCE> 39
 1.830411e+01 4.267600e+01 4.980656e+01 6.769519e+01 9.694651e+01 7.507748e+01 7.895593e+01 9.072131e+01 6.977361e+01 8.523985e+01 1.078996e+02 3.464999e+01 5.507920e+01 4.499062e-01 9.683027e-01 8.609146e-01 1.423690e+00 1.426074e+00 1.703386e+00 3.025244e+00 2.589805e+00 1.570497e+00 2.058249e+00 3.145632e+00 1.340992e+00 1.022768e+00 7.257043e-02 1.061947e-01 1.426832e-01 1.584437e-01 1.691243e-01 2.546325e-01 3.960804e-01 4.337973e-01 2.456108e-01 3.924147e-01 3.609948e-01 1.551628e-01 1.331549e-01
<GCONST> 1.093110e+02
<TRANSP> 7
 0.000000e+00 1.000000e+00 0.000000e+00 0.000000e+00 0.000000e+00 0.000000e+00 0.000000e+00
 0.000000e+00 8.700869e-01 1.299131e-01 0.000000e+00 0.000000e+00 0.000000e+00 0.000000e+00
 0.000000e+00 0.000000e+00 2.334316e-01 7.665684e-01 0.000000e+00 0.000000e+00 0.000000e+00
 0.000000e+00 0.000000e+00 0.000000e+00 5.243471e-01 4.756530e-01 0.000000e+00 0.000000e+00
 0.000000e+00 0.000000e+00 0.000000e+00 0.000000e+00 8.779930e-01 1.220070e-01 0.000000e+00
 0.000000e+00 0.000000e+00 0.000000e+00 0.000000e+00 0.000000e+00 7.366207e-01 2.633792e-01
 0.000000e+00 0.000000e+00 0.000000e+00 0.000000e+00 0.000000e+00 0.000000e+00 0.000000e+00
<ENDHMM>
~h "bh"
<BEGINHMM>
<NUMSTATES> 5
<STATE> 2
<NUMMIXES> 2
<MIXTURE> 1 5.000000e-01
<MEAN> 39
 7.417115e+00 -8.114280e+00 4.643158e+00 1.189279e+01 1.187907e+01 1.785877e+00 -1.326709e+01 9.904766e+00 -4.456955e+00 -1.346817e+01 6.698879e+00 -5.702149e-01 -4.568051e+00 2.497029e-02 -2.848467e-02 3.146656e-03 -6.253838e-03 2.165354e-02 2.067447e-02 -2.803467e-02 -9.488231e-03 -2.324263e-03 -1.594580e-03 1.327512e-02 1.423470e-03 2.526009e-03 -5.396262e-03 7.553252e-03 2.992497e-04 -8.626317e-06 -2.270458e-03 -6.880852e-04 3.114427e-03 -4.933091e-03 3.644387e-03 5.283821e-03 -4.922309e-03 -9.204844e-04 -1.209342e-03
<VARIANCE> 39
 2.280933e+02 1.814823e+02 2.010750e+02 1.919737e+02 1.690473e+02 1.626972e+02 1.605584e+02 1.002044e+02 7.621432e+01 1.151347e+02 1.134884e+02 3.446329e+01 7.776311e+01 2.853022e+00 3.216718e+00 3.228057e+00 2.490187e+00 2.370634e+00 2.993131e+00 3.604150e+00 2.948491e+00 2.107879e+00 3.231613e+00 3.083138e+00 1.445892e+00 1.755332e+00 2.091808e-01 3.043006e-01 3.288686e-01 2.626354e-01 2.635144e-01 3.327506e-01 3.991525e-01 4.034681e-01 3.257842e-01 4.313403e-01 4.116350e-01 2.228464e-01 2.301922e-01
<GCONST> 1.317983e+02
<MIXTURE> 2 5.000000e-01
<MEAN> 39
 7.417115e+00 -8.114280e+00 4.643158e+00 1.189279e+01 1.187907e+01 1.785877e+00 -1.326709e+01 9.904766e+00 -4.456955e+00 -1.346817e+01 6.698879e+00 -5.702149e-01 -4.568051e+00 2.497029e-02 -2.848467e-02 3.146656e-03 -6.253838e-03 2.165354e-02 2.067447e-02 -2.803467e-02 -9.488231e-03 -2.324263e-03 -1.594580e-03 1.327512e-02 1.423470e-03 2.526009e-03 -5.396262e-03 7.553252e-03 2.992497e-04 -8.626317e-06 -2.270458e-03 -6.880852e-04 3.114427e-03 -4.933091e-03 3.644387e-03 5.283821e-03 -4.922309e-03 -9.204844e-04 -1.209342e-03
<VARIANCE> 39
 2.280933e+02 1.814823e+02 2.010750e+02 1.919737e+02 1.690473e+02 1.626972e+02 1.605584e+02 1.002044e+02 7.621432e+01 1.151347e+02 1.134884e+02 3.446329e+01 7.776311e+01 2.853022e+00 3.216718e+00 3.228057e+00 2.490187e+00 2.370634e+00 2.993131e+00 3.604150e+00 2.948491e+00 2.107879e+00 3.231613e+00 3.083138e+00 1.445892e+00 1.755332e+00 2.091808e-01 3.043006e-01 3.288686e-01 2.626354e-01 2.635144e-01 3.327506e-01 3.991525e-01 4.034681e-01 3.257842e-01 4.313403e-01 4.116350e-01 2.228464e-01 2.301922e-01
<GCONST> 1.317983e+02
<STATE> 3
<NUMMIXES> 2
<MIXTURE> 1 5.000000e-01
<MEAN> 39
 7.203985e+00 -7.366896e+00 4.039875e+00 1.152230e+01 1.190447e+01 1.875986e+00 -1.269036e+01 9.760758e+00 -4.489843e+00 -1.274305e+01 6.725102e+00 -6.226401e-01 -4.190942e+00 -5.260296e-04 8.315527e-03 -2.254761e-04 1.081777e-02 1.267099e-02 3.588767e-03 -2.638455e-03 -5.264773e-03 9.732315e-03 6.106620e-03 -5.431989e-03 -2.615670e-03 -6.123805e-03 -1.828870e-03 1.607461e-03 6.128771e-04 2.631205e-04 -5.732269e-04 1.007538e-04 1.130988e-03 -5.807285e-05 1.380376e-03 1.248738e-03 -7.176216e-04 -1.725553e-04 1.113071e-04
<VARIANCE> 39
 2.339854e+02 1.749889e+02 2.071218e+02 1.938459e+02 1.672710e+02 1.560072e+02 1.549742e+02 9.906619e+01 7.817833e+01 1.118365e+02 1.117012e+02 3.416887e+01 7.383769e+01 3.040415e+00 3.292809e+00 3.429228e+00 2.478950e+00 2.402486e+00 2.923985e+00 3.620396e+00 2.795573e+00 2.201453e+00 3.241220e+00 3.084677e+00 1.419830e+00 1.769480e+00 2.205346e-01 3.113930e-01 3.406204e-01 2.652054e-01 2.705275e-01 3.236024e-01 4.062794e-01 3.870253e-01 3.402071e-01 4.411050e-01 4.090453e-01 2.201581e-01 2.308942e-01
<GCONST> 1.319139e+02
<MIXTURE> 2 5.000000e-01
<MEAN> 39
 7.203985e+00 -7.366896e+00 4.039875e+00 1.152230e+01 1.190447e+01 1.875986e+00 -1.269036e+01 9.760758e+00 -4.489843e+00 -1.274305e+01 6.725102e+00 -6.226401e-01 -4.190942e+00 -5.260296e-04 8.315527e-03 -2.254761e-04 1.081777e-02 1.267099e-02 3.588767e-03 -2.638455e-03 -5.264773e-03 9.732315e-03 6.106620e-03 -5.431989e-03 -2.615670e-03 -6.123805e-03 -1.828870e-03 1.607461e-03 6.128771e-04 2.631205e-04 -5.732269e-04 1.007538e-04 1.130988e-03 -5.807285e-05 1.380376e-03 1.248738e-03 -7.176216e-04 -1.725553e-04 1.113071e-04
<VARIANCE> 39
 2.339854e+02 1.749889e+02 2.071218e+02 1.938459e+02 1.672710e+02 1.560072e+02 1.549742e+02 9.906619e+01 7.817833e+01 1.118365e+02 1.117012e+02 3.416887e+01 7.383769e+01 3.040415e+00 3.292809e+00 3.429228e+00 2.478950e+00 2.402486e+00 2.923985e+00 3.620396e+00 2.795573e+00 2.201453e+00 3.241220e+00 3.084677e+00 1.419830e+00 1.769480e+00 2.205346e-01 3.113930e-01 3.406204e-01 2.652054e-01 2.705275e-01 3.236024e-01 4.062794e-01 3.870253e-01 3.402071e-01 4.411050e-01 4.090453e-01 2.201581e-01 2.308942e-01
<GCONST> 1.319139e+02
<STATE> 4
<NUMMIXES> 2
<MIXTURE> 1 5.000000e-01
<MEAN> 39
 7.932170e+00 -6.851055e+00 3.931732e+00 1.292870e+01 1.377142e+01 2.312890e+00 -1.330683e+01 9.483064e+00 -4.203200e+00 -1.288950e+01 6.644157e+00 -6.439266e-01 -4.478949e+00 -1.451921e-03 4.273302e-02 1.748825e-02 5.911562e-02 3.829661e-02 9.397044e-03 3.426479e-03 -2.844633e-02 3.500270e-02 2.372729e-02 -3.148057e-02 -7.478415e-03 -1.226065e-02 -4.137696e-03 4.309786e-03 2.960658e-03 2.000705e-03 -4.402800e-03 -1.031876e-03 6.353809e-03 -2.836856e-03 9.793566e-04 7.049641e-03 -5.994903e-03 -5.224728e-03 2.848882e-03
<VARIANCE> 39
 2.105958e+02 1.696519e+02 1.997734e+02 1.943875e+02 1.706035e+02 1.397754e+02 1.684150e+02 9.193508e+01 7.541556e+01 1.075959e+02 1.078260e+02 3.470317e+01 7.272583e+01 2.818073e+00 3.271741e+00 3.470891e+00 2.363487e+00 2.375542e+00 2.714235e+00 3.777746e+00 2.509965e+00 2.153599e+00 3.215840e+00 3.032008e+00 1.419789e+00 1.729394e+00 2.065118e-01 3.041166e-01 3.433889e-01 2.628889e-01 2.704248e-01 2.978193e-01 4.050855e-01 3.481377e-01 3.306364e-01 4.300925e-01 3.922412e-01 2.143781e-01 2.251873e-01
<GCONST> 1.307844e+02
<MIXTURE> 2 5.000000e-01
<MEAN> 39
 7.932170e+00 -6.851055e+00 3.931732e+00 1.292870e+01 1.377142e+01 2.312890e+00 -1.330683e+01 9.483064e+00 -4.203200e+00 -1.288950e+01 6.644157e+00 -6.439266e-01 -4.478949e+00 -1.451921e-03 4.273302e-02 1.748825e-02 5.911562e-02 3.829661e-02 9.397044e-03 3.426479e-03 -2.844633e-02 3.500270e-02 2.372729e-02 -3.148057e-02 -7.478415e-03 -1.226065e-02 -4.137696e-03 4.309786e-03 2.960658e-03 2.000705e-03 -4.402800e-03 -1.031876e-03 6.353809e-03 -2.836856e-03 9.793566e-04 7.049641e-03 -5.994903e-03 -5.224728e-03 2.848882e-03
<VARIANCE> 39
 2.105958e+02 1.696519e+02 1.997734e+02 1.943875e+02 1.706035e+02 1.397754e+02 1.684150e+02 9.193508e+01 7.541556e+01 1.075959e+02 1.078260e+02 3.470317e+01 7.272583e+01 2.818073e+00 3.271741e+00 3.470891e+00 2.363487e+00 2.375542e+00 2.714235e+00 3.777746e+00 2.509965e+00 2.153599e+00 3.215840e+00 3.032008e+00 1.419789e+00 1.729394e+00 2.065118e-01 3.041166e-01 3.433889e-01 2.628889e-01 2.704248e-01 2.978193e-01 4.050855e-01 3.481377e-01 3.306364e-01 4.300925e-01 3.922412e-01 2.143781e-01 2.251873e-01
<GCONST> 1.307844e+02
<TRANSP> 5
 0.000000e+00 1.000000e+00 0.000000e+00 0.000000e+00 0.000000e+00
 0.000000e+00 9.877457e-01 1.225434e-02 0.000000e+00 0.000000e+00
 0.000000e+00 0.000000e+00 9.877457e-01 1.225434e-02 0.000000e+00
 0.000000e+00 0.000000e+00 0.000000e+00 9.877457e-01 1.225432e-02
 0.000000e+00 0.000000e+00 0.000000e+00 0.000000e+00 0.000000e+00
<ENDHMM>
~h "ch"
<BEGINHMM>
<NUMSTATES> 5
<STATE> 2
<NUMMIXES> 2
<MIXTURE> 1 7.245686e-01
<MEAN> 39
 3.724276e+00 -1.746497e+00 7.418170e+00 1.315018e+01 8.543482e+00 6.313630e+00 -4.000621e+00 1.123306e+01 -2.412504e+00 -1.685967e+01 -1.064816e+00 -6.361070e-01 -3.119171e+00 -1.605946e+00 -1.254558e+00 9.387143e-01 5.280029e-01 -6.170760e-01 7.554685e-01 1.955696e-01 -8.289833e-01 1.095957e+00 1.443893e+00 -6.812781e-01 -2.951509e-01 7.665254e-01 -2.168588e-02 -6.910823e-01 -7.823573e-02 -1.836014e-01 -2.376631e-01 -1.340251e-01 -3.242760e-01 9.391293e-02 4.571845e-02 -1.927769e-01 2.495302e-01 1.603779e-01 -1.769494e-01
<VARIANCE> 39
 1.603343e+02 9.969971e+01 5.143314e+01 9.016640e+01 9.652207e+01 5.417293e+01 5.027402e+01 6.660886e+01 5.657158e+01 1.793459e+02 5.626072e+01 2.572577e+01 7.226200e+01 3.748364e+00 1.583564e+01 2.510416e+00 3.347714e+00 5.184756e+00 1.829009e+00 4.633159e+00 3.190030e+00 3.514229e+00 1.070934e+01 5.569748e+00 2.727322e+00 4.916118e+00 2.610369e-01 1.401636e+00 3.793830e-01 5.218552e-01 4.800905e-01 4.197227e-01 5.059913e-01 5.198432e-01 5.435699e-01 1.340801e+00 8.690187e-01 5.296805e-01 5.791011e-01
<GCONST> 1.391548e+02
<MIXTURE> 2 2.754312e-01
<MEAN> 39
 -1.441916e+01 -2.991240e+01 1.207264e+01 9.549320e+00 -5.216905e+00 8.389963e+00 -8.617092e+00 5.634492e+00 5.326796e+00 -9.189046e+00 -1.556672e-01 2.494042e+00 1.639456e+00 -7.686578e-01 -4.347403e+00 1.890098e+00 -1.386814e+00 -2.411417e+00 -7.388320e-01 -1.808286e+00 2.679003e-01 1.918582e-01 -3.110131e-01 1.116590e+00 9.818547e-01 -1.152728e-01 1.821815e-01 9.291059e-01 4.242812e-01 3.441282e-01 6.397315e-01 1.804369e-01 8.112210e-02 -1.528307e-01 -1.876969e-01 3.115376e-01 -2.207330e-01 -2.789887e-01 2.130581e-01
<VARIANCE> 39
 3.595512e+01 1.592454e+02 1.033960e+02 4.334581e+01 2.826991e+01 2.504916e+01 2.308467e+01 2.188097e+01 2.250866e+01 3.492679e+01 1.763898e+01 1.979328e+01 1.861446e+01 3.556659e+00 9.758360e+00 4.013788e+00 3.422491e+00 3.994267e+00 3.239177e+00 1.789278e+00 1.686242e+00 1.514902e+00 3.180876e+00 3.050177e+00 2.984776e+00 2.313446e+00 3.278373e-01 5.317684e-01 6.349835e-01 6.497293e-01 6.319574e-01 6.956638e-01 2.770870e-01 4.102840e-01 3.512759e-01 6.232436e-01 5.376658e-01 5.228460e-01 5.045366e-01
<GCONST> 1.223228e+02
<STATE> 3
<NUMMIXES> 2
<MIXTURE> 1 9.121235e-01
<MEAN> 39
 -1.045374e+01 -2.824352e+01 1.561647e+01 9.053271e+00 -3.025929e+00 6.762232e+00 -1.235524e+01 5.807153e+00 2.770205e+00 -9.128403e+00 2.628656e+00 1.331580e+00 -3.243061e-01 4.756176e-02 -9.748273e-01 3.339239e-01 -1.090113e-01 5.631232e-01 4.633288e-01 -5.841255e-01 -4.293626e-01 -3.229662e-01 5.861997e-01 2.939123e-01 -2.596216e-01 6.854039e-03 4.217241e-01 4.270835e-01 -6.594042e-01 3.977178e-02 3.719001e-01 1.232556e-01 1.369090e-01 -6.390902e-02 -8.170623e-02 5.154742e-02 -7.570085e-02 -1.522381e-01 -7.371515e-02
<VARIANCE> 39
 1.959791e+02 5.559745e+02 1.393723e+02 5.509018e+01 1.389480e+02 5.831250e+01 7.420010e+01 6.090103e+01 3.123443e+01 8.326730e+01 2.775366e+01 1.692262e+01 3.936775e+01 2.890637e+00 3.403962e+00 3.307100e+00 1.872479e+00 2.100740e+00 1.447509e+00 2.822478e+00 2.126532e+00 1.388861e+00 1.805068e+00 2.105207e+00 1.827236e+00 1.867955e+00 2.762535e-01 5.725522e-01 5.998599e-01 2.800230e-01 5.450339e-01 3.626138e-01 3.817205e-01 2.257096e-01 2.251716e-01 2.772152e-01 2.983700e-01 3.600565e-01 2.194316e-01
<GCONST> 1.230093e+02
<MIXTURE> 2 8.787652e-02
<MEAN> 39
 -2.597457e+01 -7.341944e+00 -5.257505e+00 -1.726136e+00 -1.514000e+00 -2.813215e-01 -5.696194e+00 4.413710e-01 -9.599528e-01 -4.789963e-01 -2.032146e-01 -2.608322e+00 -8.983719e-01 1.097072e+00 -4.296501e-01 -5.159020e-01 7.523564e-01 1.671527e+00 1.300818e-01 -2.680310e-01 7.418866e-01 -1.980552e-02 -4.089704e-01 -3.384221e-02 4.701973e-01 3.608811e-01 6.554889e-01 -1.848002e-01 -4.132590e-02 2.705661e-01 1.726991e-01 8.309779e-02 8.925238e-02 4.701905e-01 1.540151e-02 -1.890237e-01 1.508330e-01 3.883605e-01 5.434479e-01
<VARIANCE> 39
 9.446707e-01 3.930801e+00 3.053741e+00 1.680737e+00 2.906845e+00 3.283020e+00 6.531761e+00 6.585812e+00 4.590523e+00 6.127399e+00 4.581704e+00 6.557814e+00 8.533263e+00 7.125860e-01 1.541741e+00 5.437727e-01 1.253354e+00 3.015763e+00 3.402828e-01 4.536185e-01 6.008797e-01 1.022728e+00 8.169364e-01 2.222830e+00 1.546083e+00 6.414508e-01 2.998489e-01 1.100358e-01 7.537139e-02 2.946180e-01 6.222712e-01 1.258349e-01 1.345690e-01 2.520459e-01 1.734497e-01 1.196492e-01 1.587369e-01 3.449568e-01 2.513718e-01
<GCONST> 6.726254e+01
<STATE> 4
<NUMMIXES> 2
<MIXTURE> 1 9.879864e-01
<MEAN> 39
 -7.727274e+00 -2.581365e+01 6.821406e+00 9.486520e+00 6.475067e-01 1.139432e+01 -6.025009e+00 3.732507e+00 1.348172e+00 -6.043523e+00 1.669692e+00 1.595548e+00 2.884677e+00 1.310005e+00 1.742355e+00 -6.429339e-01 6.983088e-01 1.093187e+00 -8.941036e-02 6.242390e-01 5.355204e-01 -1.683372e-01 -4.595971e-02 4.700959e-03 -1.109200e-01 2.108723e-03 7.081920e-02 1.349493e-01 4.742029e-02 1.435763e-02 -5.943247e-02 -1.529530e-01 -8.999236e-02 1.816136e-02 -6.559426e-02 -1.760488e-01 1.699992e-03 -3.734960e-02 -1.310286e-01
<VARIANCE> 39
 1.035142e+02 3.823460e+02 1.193632e+02 9.135725e+01 9.870457e+01 9.906093e+01 1.101800e+02 5.980099e+01 3.431258e+01 5.664325e+01 3.629759e+01 3.407448e+01 4.163597e+01 3.272506e+00 6.285124e+00 2.995630e+00 3.923185e+00 2.872283e+00 3.403092e+00 3.799608e+00 3.482811e+00 2.491061e+00 3.393253e+00 2.382266e+00 2.048723e+00 2.304307e+00 2.432537e-01 5.364724e-01 3.897532e-01 4.330018e-01 3.679612e-01 4.210524e-01 4.631691e-01 3.988656e-01 4.279542e-01 4.302852e-01 3.899274e-01 3.490052e-01 3.903626e-01
<GCONST> 1.308712e+02
<MIXTURE> 2 1.201362e-02
<MEAN> 39
 -9.672190e+00 -4.065539e+01 1.095354e+01 1.159947e+00 -8.936604e+00 1.150479e+01 -1.537331e+01 -6.827117e+00 -2.072185e+00 -1.069655e+01 -5.343931e-01 3.478441e+00 1.693231e+00 1.864450e+00 5.749092e-01 -9.723428e-01 -5.587067e-02 -5.782398e-01 7.651123e-01 5.480082e-01 -5.495988e-01 -6.361973e-01 -7.605498e-01 4.959793e-01 6.721553e-01 4.000910e-01 6.209813e-02 -1.523380e-01 1.765242e-01 4.777535e-01 3.984175e-01 2.766441e-01 4.002174e-01 5.512616e-01 3.146825e-01 4.297404e-01 1.372835e-01 -1.826360e-01 1.376581e-01
<VARIANCE> 39
 1.688195e+01 3.916010e+01 1.528541e+01 9.982452e+00 1.882648e+01 3.058859e+01 8.716217e+00 1.399012e+01 1.716283e+01 3.345983e+01 1.141178e+01 1.380767e+01 5.138029e+00 5.774610e-01 4.832731e-01 6.674657e-01 2.169941e-01 2.983346e-01 4.587114e-01 6.468998e-01 9.925393e-01 5.309438e-01 9.831035e-01 7.574011e-01 1.139251e+00 4.573054e-01 2.983063e-02 1.534530e-01 9.252544e-02 4.287168e-02 1.029174e-01 1.872333e-01 1.093769e-01 1.361016e-01 1.544918e-01 3.698898e-01 2.261488e-01 3.247213e-01 1.258882e-01
<GCONST> 7.356866e+01
<TRANSP> 5
 0.000000e+00 1.000000e+00 0.000000e+00 0.000000e+00 0.000000e+00
 0.000000e+00 7.765887e-01 2.234113e-01 0.000000e+00 0.000000e+00
 0.000000e+00 0.000000e+00 3.147005e-01 6.852995e-01 0.000000e+00
 0.000000e+00 0.000000e+00 0.000000e+00 8.095747e-01 1.904253e-01
 0.000000e+00 0.000000e+00 0.000000e+00 0.000000e+00 0.000000e+00
<ENDHMM>
~h "dh"
<BEGINHMM>
<NUMSTATES> 5
<STATE> 2
<NUMMIXES> 2
<MIXTURE> 1 5.000000e-01
<MEAN> 39
 8.071084e+00 -8.259686e+00 5.185688e+00 1.082851e+01 1.235277e+01 2.125087e+00 -1.431620e+01 1.055670e+01 -5.251977e+00 -1.375927e+01 8.348356e+00 -7.295245e-01 -5.233803e+00 -2.603281e-02 -2.143227e-02 5.351509e-02 -2.126865e-02 1.202281e-02 1.327682e-01 4.580406e-02 -4.643045e-02 -4.681588e-02 4.384371e-02 5.164357e-02 -1.335397e-02 1.540470e-02 -6.355533e-03 7.291548e-03 1.530340e-03 1.348894e-03 -4.360458e-03 1.265197e-03 1.122634e-02 -6.100687e-03 1.520933e-03 3.613127e-03 -8.447343e-03 -4.373989e-03 -4.091394e-03
<VARIANCE> 39
 2.166628e+02 1.853123e+02 2.261574e+02 1.773806e+02 1.546310e+02 1.856951e+02 1.839827e+02 9.998421e+01 7.864580e+01 1.139533e+02 1.081276e+02 3.179311e+01 8.406860e+01 2.507689e+00 3.341299e+00 3.227314e+00 2.558435e+00 2.101607e+00 2.650542e+00 3.327139e+00 2.742990e+00 1.859731e+00 2.969653e+00 2.958532e+00 1.351703e+00 1.765321e+00 1.878529e-01 2.869278e-01 3.227768e-01 2.613379e-01 2.421682e-01 2.848207e-01 3.502206e-01 3.700348e-01 2.790184e-01 3.835375e-01 3.786049e-01 2.085675e-01 2.256767e-01
<GCONST> 1.300928e+02
<MIXTURE> 2 5.000000e-01
<MEAN> 39
 8.071084e+00 -8.259686e+00 5.185688e+00 1.082851e+01 1.235277e+01 2.125087e+00 -1.431620e+01 1.055670e+01 -5.251977e+00 -1.375927e+01 8.348356e+00 -7.295245e-01 -5.233803e+00 -2.603281e-02 -2.143227e-02 5.351509e-02 -2.126865e-02 1.202281e-02 1.327682e-01 4.580406e-02 -4.643045e-02 -4.681588e-02 4.384371e-02 5.164357e-02 -1.335397e-02 1.540470e-02 -6.355533e-03 7.291548e-03 1.530340e-03 1.348894e-03 -4.360458e-03 1.265197e-03 1.122634e-02 -6.100687e-03 1.520933e-03 3.613127e-03 -8.447343e-03 -4.373989e-03 -4.091394e-03
<VARIANCE> 39
 2.166628e+02 1.853123e+02 2.261574e+02 1.773806e+02 1.546310e+02 1.856951e+02 1.839827e+02 9.998421e+01 7.864580e+01 1.139533e+02 1.081276e+02 3.179311e+01 8.406860e+01 2.507689e+00 3.341299e+00 3.227314e+00 2.558435e+00 2.101607e+00 2.650542e+00 3.327139e+00 2.742990e+00 1.859731e+00 2.969653e+00 2.958532e+00 1.351703e+00 1.765321e+00 1.878529e-01 2.869278e-01 3.227768e-01 2.613379e-01 2.421682e-01 2.848207e-01 3.502206e-01 3.700348e-01 2.790184e-01 3.835375e-01 3.786049e-01 2.085675e-01 2.256767e-01
<GCONST> 1.300928e+02
<STATE> 3
<NUMMIXES> 2
<MIXTURE> 1 5.000000e-01
<MEAN> 39
 7.771148e+00 -8.708602e+00 4.369594e+00 9.337893e+00 1.067142e+01 3.080188e+00 -1.213173e+01 1.039868e+01 -5.822837e+00 -1.264751e+01 8.750332e+00 -6.676197e-01 -3.926274e+00 -1.791930e-04 -2.747374e-03 9.844754e-04 4.884961e-03 2.461572e-02 3.628641e-02 2.929100e-03 -1.765572e-02 -1.232299e-02 1.217366e-02 2.537286e-02 -8.296277e-03 -7.837221e-03 -2.136153e-03 2.727555e-03 1.168985e-03 2.622923e-03 1.661342e-03 -3.290052e-03 -2.030496e-04 5.451681e-04 1.874105e-04 -1.837277e-03 -1.162827e-03 -9.670375e-05 -3.073487e-03
<VARIANCE> 39
 2.269921e+02 1.889886e+02 2.385275e+02 1.689684e+02 1.536358e+02 1.748868e+02 1.629537e+02 1.083698e+02 8.242260e+01 9.875560e+01 1.180754e+02 2.847492e+01 7.778062e+01 2.677759e+00 3.880488e+00 3.654669e+00 2.560495e+00 2.289991e+00 2.978788e+00 3.344908e+00 2.907785e+00 2.220532e+00 3.091228e+00 3.331935e+00 1.360441e+00 1.746923e+00 2.148163e-01 3.643075e-01 3.723682e-01 2.940817e-01 2.672333e-01 3.201851e-01 3.679567e-01 3.974569e-01 3.544293e-01 4.206946e-01 4.458095e-01 2.183591e-01 2.317041e-01
<GCONST> 1.323368e+02
<MIXTURE> 2 5.000000e-01
<MEAN> 39
 7.771148e+00 -8.708602e+00 4.369594e+00 9.337893e+00 1.067142e+01 3.080188e+00 -1.213173e+01 1.039868e+01 -5.822837e+00 -1.264751e+01 8.750332e+00 -6.676197e-01 -3.926274e+00 -1.791930e-04 -2.747374e-03 9.844754e-04 4.884961e-03 2.461572e-02 3.628641e-02 2.929100e-03 -1.765572e-02 -1.232299e-02 1.217366e-02 2.537286e-02 -8.296277e-03 -7.837221e-03 -2.136153e-03 2.727555e-03 1.168985e-03 2.622923e-03 1.661342e-03 -3.290052e-03 -2.030496e-04 5.451681e-04 1.874105e-04 -1.837277e-03 -1.162827e-03 -9.670375e-05 -3.073487e-03
<VARIANCE> 39
 2.269921e+02 1.889886e+02 2.385275e+02 1.689684e+02 1.536358e+02 1.748868e+02 1.629537e+02 1.083698e+02 8.242260e+01 9.875560e+01 1.180754e+02 2.847492e+01 7.778062e+01 2.677759e+00 3.880488e+00 3.654669e+00 2.560495e+00 2.289991e+00 2.978788e+00 3.344908e+00 2.907785e+00 2.220532e+00 3.091228e+00 3.331935e+00 1.360441e+00 1.746923e+00 2.148163e-01 3.643075e-01 3.723682e-01 2.940817e-01 2.672333e-01 3.201851e-01 3.679567e-01 3.974569e-01 3.544293e-01 4.206946e-01 4.458095e-01 2.183591e-01 2.317041e-01
<GCONST> 1.323368e+02
<STATE> 4
<NUMMIXES> 2
<MIXTURE> 1 5.000000e-01
<MEAN> 39
 9.867055e+00 -8.217718e+00 1.971907e+00 1.113322e+01 1.307552e+01 2.403481e+00 -1.318467e+01 1.101865e+01 -5.231716e+00 -1.257427e+01 1.035906e+01 -4.733956e-01 -4.376480e+00 -2.112979e-02 1.055963e-01 2.117036e-02 7.636677e-02 8.384066e-02 2.817597e-02 3.412533e-02 -3.028762e-02 -1.329402e-04 8.380778e-03 -5.385831e-02 -2.015993e-02 -3.514506e-02 -9.496005e-03 1.337504e-02 4.636706e-03 -1.254178e-03 -1.393863e-02 3.409963e-03 2.336663e-02 -2.273868e-03 4.657126e-03 1.422055e-02 -1.004296e-02 4.274042e-03 8.381939e-03
<VARIANCE> 39
 1.734111e+02 1.392863e+02 2.008535e+02 1.584293e+02 1.502490e+02 1.458579e+02 1.772976e+02 1.095862e+02 7.342905e+01 9.908757e+01 1.184046e+02 2.783122e+01 8.108817e+01 2.573660e+00 3.547386e+00 3.261116e+00 2.172559e+00 2.296674e+00 2.758939e+00 3.741332e+00 2.966833e+00 2.377836e+00 3.219714e+00 3.558028e+00 1.262685e+00 1.775106e+00 2.072933e-01 3.538415e-01 3.383679e-01 2.738208e-01 2.903547e-01 3.052807e-01 4.062178e-01 4.282346e-01 3.980723e-01 4.406489e-01 4.722188e-01 2.039486e-01 2.378203e-01
<GCONST> 1.312488e+02
<MIXTURE> 2 5.000000e-01
<MEAN> 39
 9.867055e+00 -8.217718e+00 1.971907e+00 1.113322e+01 1.307552e+01 2.403481e+00 -1.318467e+01 1.101865e+01 -5.231716e+00 -1.257427e+01 1.035906e+01 -4.733956e-01 -4.376480e+00 -2.112979e-02 1.055963e-01 2.117036e-02 7.636677e-02 8.384066e-02 2.817597e-02 3.412533e-02 -3.028762e-02 -1.329402e-04 8.380778e-03 -5.385831e-02 -2.015993e-02 -3.514506e-02 -9.496005e-03 1.337504e-02 4.636706e-03 -1.254178e-03 -1.393863e-02 3.409963e-03 2.336663e-02 -2.273868e-03 4.657126e-03 1.422055e-02 -1.004296e-02 4.274042e-03 8.381939e-03
<VARIANCE> 39
 1.734111e+02 1.392863e+02 2.008535e+02 1.584293e+02 1.502490e+02 1.458579e+02 1.772976e+02 1.095862e+02 7.342905e+01 9.908757e+01 1.184046e+02 2.783122e+01 8.108817e+01 2.573660e+00 3.547386e+00 3.261116e+00 2.172559e+00 2.296674e+00 2.758939e+00 3.741332e+00 2.966833e+00 2.377836e+00 3.219714e+00 3.558028e+00 1.262685e+00 1.775106e+00 2.072933e-01 3.538415e-01 3.383679e-01 2.738208e-01 2.903547e-01 3.052807e-01 4.062178e-01 4.282346e-01 3.980723e-01 4.406489e-01 4.722188e-01 2.039486e-01 2.378203e-01
<GCONST> 1.312488e+02
<TRANSP> 5
 0.000000e+00 1.000000e+00 0.000000e+00 0.000000e+00 0.000000e+00
 0.000000e+00 9.782458e-01 2.175426e-02 0.000000e+00 0.000000e+00
 0.000000e+00 0.000000e+00 9.782457e-01 2.175428e-02 0.000000e+00
 0.000000e+00 0.000000e+00 0.000000e+00 9.782457e-01 2.175426e-02
 0.000000e+00 0.000000e+00 0.000000e+00 0.000000e+00 0.000000e+00
<ENDHMM>
~h "dx"
<BEGINHMM>
<NUMSTATES> 5
<STATE> 2
<NUMMIXES> 2
<MIXTURE> 1 5.000000e-01
<MEAN> 39
 8.275869e+00 -7.818333e+00 2.956224e+00 1.188733e+01 1.195722e+01 9.232141e-01 -1.251595e+01 1.125384e+01 -3.954458e+00 -1.345507e+01 6.829051e+00 2.725649e-02 -4.119176e+00 3.696176e-03 -3.866369e-02 -2.153852e-02 -3.827381e-02 3.695882e-03 7.264685e-03 -2.465394e-02 5.297218e-04 -3.008616e-02 -9.858524e-03 4.825283e-02 1.562692e-02 -8.005218e-04 -3.097928e-03 1.580323e-02 1.758587e-03 -1.402001e-03 -1.228680e-04 2.917495e-03 6.153299e-03 -5.544257e-03 5.722914e-03 1.024278e-02 -8.705375e-03 -4.216006e-03 2.092161e-03
<VARIANCE> 39
 2.135187e+02 1.756541e+02 2.038201e+02 1.717100e+02 1.699655e+02 1.768486e+02 1.702922e+02 1.130607e+02 9.096067e+01 1.080360e+02 1.124771e+02 3.272889e+01 7.456449e+01 2.766083e+00 3.406836e+00 3.085952e+00 2.459226e+00 2.442965e+00 3.030700e+00 3.861361e+00 2.961476e+00 2.328904e+00 3.241225e+00 3.185434e+00 1.372250e+00 1.753476e+00 2.058734e-01 3.025478e-01 3.137058e-01 2.675715e-01 2.890549e-01 3.224712e-01 4.000033e-01 3.863962e-01 3.485983e-01 4.214585e-01 4.175347e-01 2.143895e-01 2.252296e-01
<GCONST> 1.320154e+02
<MIXTURE> 2 5.000000e-01
<MEAN> 39
 8.275869e+00 -7.818333e+00 2.956224e+00 1.188733e+01 1.195722e+01 9.232141e-01 -1.251595e+01 1.125384e+01 -3.954458e+00 -1.345507e+01 6.829051e+00 2.725649e-02 -4.119176e+00 3.696176e-03 -3.866369e-02 -2.153852e-02 -3.827381e-02 3.695882e-03 7.264685e-03 -2.465394e-02 5.297218e-04 -3.008616e-02 -9.858524e-03 4.825283e-02 1.562692e-02 -8.005218e-04 -3.097928e-03 1.580323e-02 1.758587e-03 -1.402001e-03 -1.228680e-04 2.917495e-03 6.153299e-03 -5.544257e-03 5.722914e-03 1.024278e-02 -8.705375e-03 -4.216006e-03 2.092161e-03
<VARIANCE> 39
 2.135187e+02 1.756541e+02 2.038201e+02 1.717100e+02 1.699655e+02 1.768486e+02 1.702922e+02 1.130607e+02 9.096067e+01 1.080360e+02 1.124771e+02 3.272889e+01 7.456449e+01 2.766083e+00 3.406836e+00 3.085952e+00 2.459226e+00 2.442965e+00 3.030700e+00 3.861361e+00 2.961476e+00 2.328904e+00 3.241225e+00 3.185434e+00 1.372250e+00 1.753476e+00 2.058734e-01 3.025478e-01 3.137058e-01 2.675715e-01 2.890549e-01 3.224712e-01 4.000033e-01 3.863962e-01 3.485983e-01 4.214585e-01 4.175347e-01 2.143895e-01 2.252296e-01
<GCONST> 1.320154e+02
<STATE> 3
<NUMMIXES> 2
<MIXTURE> 1 5.000000e-01
<MEAN> 39
 7.630804e+00 -7.238647e+00 2.016706e+00 1.200173e+01 1.246553e+01 1.294292e+00 -1.243644e+01 1.044842e+01 -3.636135e+00 -1.270209e+01 6.800051e+00 1.657257e-01 -3.889678e+00 7.992822e-03 4.977415e-03 -1.426180e-02 8.126079e-03 1.663445e-02 -1.870827e-03 -1.218824e-02 -8.339049e-03 -1.013149e-03 2.033894e-03 8.492367e-03 2.137429e-04 -3.320487e-03 -8.875534e-04 3.186804e-03 6.459998e-04 7.779805e-04 -3.980692e-04 7.203910e-04 2.180241e-03 -1.296934e-03 1.827397e-03 2.217628e-03 -2.989894e-03 -7.097363e-04 1.129348e-03
<VARIANCE> 39
 2.208895e+02 1.731364e+02 1.822065e+02 1.659763e+02 1.667025e+02 1.645911e+02 1.682440e+02 1.154646e+02 8.892513e+01 1.101037e+02 1.162660e+02 3.447125e+01 7.415815e+01 2.888642e+00 3.367913e+00 3.025536e+00 2.482145e+00 2.572782e+00 2.972513e+00 3.884504e+00 3.023441e+00 2.446882e+00 3.321521e+00 3.203971e+00 1.415316e+00 1.805417e+00 2.129771e-01 3.091801e-01 3.229118e-01 2.779235e-01 3.032364e-01 3.255040e-01 4.178980e-01 4.046329e-01 3.715671e-01 4.416009e-01 4.288572e-01 2.212769e-01 2.411483e-01
<GCONST> 1.326095e+02
<MIXTURE> 2 5.000000e-01
<MEAN> 39
 7.630804e+00 -7.238647e+00 2.016706e+00 1.200173e+01 1.246553e+01 1.294292e+00 -1.243644e+01 1.044842e+01 -3.636135e+00 -1.270209e+01 6.800051e+00 1.657257e-01 -3.889678e+00 7.992822e-03 4.977415e-03 -1.426180e-02 8.126079e-03 1.663445e-02 -1.870827e-03 -1.218824e-02 -8.339049e-03 -1.013149e-03 2.033894e-03 8.492367e-03 2.137429e-04 -3.320487e-03 -8.875534e-04 3.186804e-03 6.459998e-04 7.779805e-04 -3.980692e-04 7.203910e-04 2.180241e-03 -1.296934e-03 1.827397e-03 2.217628e-03 -2.989894e-03 -7.097363e-04 1.129348e-03
<VARIANCE> 39
 2.208895e+02 1.731364e+02 1.822065e+02 1.659763e+02 1.667025e+02 1.645911e+02 1.682440e+02 1.154646e+02 8.892513e+01 1.101037e+02 1.162660e+02 3.447125e+01 7.415815e+01 2.888642e+00 3.367913e+00 3.025536e+00 2.482145e+00 2.572782e+00 2.972513e+00 3.884504e+00 3.023441e+00 2.446882e+00 3.321521e+00 3.203971e+00 1.415316e+00 1.805417e+00 2.129771e-01 3.091801e-01 3.229118e-01 2.779235e-01 3.032364e-01 3.255040e-01 4.178980e-01 4.046329e-01 3.715671e-01 4.416009e-01 4.288572e-01 2.212769e-01 2.411483e-01
<GCONST> 1.326095e+02
<STATE> 4
<NUMMIXES> 2
<MIXTURE> 1 5.000000e-01
<MEAN> 39
 8.316753e+00 -7.411588e+00 1.692618e+00 1.355833e+01 1.462971e+01 1.620251e+00 -1.368517e+01 9.637959e+00 -4.226804e+00 -1.330160e+01 7.348141e+00 1.741131e-01 -4.610425e+00 4.327078e-03 4.416312e-02 6.454861e-03 3.554035e-02 2.678508e-02 1.508154e-02 1.087288e-02 -3.655378e-02 1.048893e-02 2.454415e-02 -2.710549e-02 -3.638919e-03 1.852189e-03 -7.094014e-03 1.032692e-02 8.235608e-03 7.331389e-05 -5.531196e-03 2.941230e-03 7.932776e-03 -4.146101e-03 2.513980e-03 7.194197e-03 -6.965811e-03 -4.161724e-03 2.003705e-03
<VARIANCE> 39
 1.967595e+02 1.650993e+02 1.691526e+02 1.688020e+02 1.664193e+02 1.531378e+02 1.762244e+02 1.114243e+02 8.483112e+01 1.133770e+02 1.188123e+02 3.590899e+01 7.764006e+01 2.738172e+00 3.350119e+00 2.826251e+00 2.461818e+00 2.611091e+00 2.752971e+00 4.101706e+00 2.974534e+00 2.461977e+00 3.376333e+00 3.350409e+00 1.406819e+00 1.849091e+00 2.059843e-01 3.009875e-01 3.070766e-01 2.711897e-01 2.996462e-01 3.084158e-01 4.294173e-01 3.982566e-01 3.730456e-01 4.381976e-01 4.282079e-01 2.162868e-01 2.413367e-01
<GCONST> 1.321255e+02
<MIXTURE> 2 5.000000e-01
<MEAN> 39
 8.316753e+00 -7.411588e+00 1.692618e+00 1.355833e+01 1.462971e+01 1.620251e+00 -1.368517e+01 9.637959e+00 -4.226804e+00 -1.330160e+01 7.348141e+00 1.741131e-01 -4.610425e+00 4.327078e-03 4.416312e-02 6.454861e-03 3.554035e-02 2.678508e-02 1.508154e-02 1.087288e-02 -3.655378e-02 1.048893e-02 2.454415e-02 -2.710549e-02 -3.638919e-03 1.852189e-03 -7.094014e-03 1.032692e-02 8.235608e-03 7.331389e-05 -5.531196e-03 2.941230e-03 7.932776e-03 -4.146101e-03 2.513980e-03 7.194197e-03 -6.965811e-03 -4.161724e-03 2.003705e-03
<VARIANCE> 39
 1.967595e+02 1.650993e+02 1.691526e+02 1.688020e+02 1.664193e+02 1.531378e+02 1.762244e+02 1.114243e+02 8.483112e+01 1.133770e+02 1.188123e+02 3.590899e+01 7.764006e+01 2.738172e+00 3.350119e+00 2.826251e+00 2.461818e+00 2.611091e+00 2.752971e+00 4.101706e+00 2.974534e+00 2.461977e+00 3.376333e+00 3.350409e+00 1.406819e+00 1.849091e+00 2.059843e-01 3.009875e-01 3.070766e-01 2.711897e-01 2.996462e-01 3.084158e-01 4.294173e-01 3.982566e-01 3.730456e-01 4.381976e-01 4.282079e-01 2.162868e-01 2.413367e-01
<GCONST> 1.321255e+02
<TRANSP> 5
 0.000000e+00 1.000000e+00 0.000000e+00 0.000000e+00 0.000000e+00
 0.000000e+00 9.865761e-01 1.342386e-02 0.000000e+00 0.000000e+00
 0.000000e+00 0.000000e+00 9.865761e-01 1.342385e-02 0.000000e+00
 0.000000e+00 0.000000e+00 0.000000e+00 9.865761e-01 1.342384e-02
 0.000000e+00 0.000000e+00 0.000000e+00 0.000000e+00 0.000000e+00
<ENDHMM>
~h "ee"
<BEGINHMM>
<NUMSTATES> 7
<STATE> 2
<NUMMIXES> 2
<MIXTURE> 1 3.443586e-01
<MEAN> 39
 3.332306e+00 -1.088534e+01 4.183537e+00 1.432530e+01 1.417386e+01 6.462221e+00 -1.308039e+01 4.780896e+00 -6.886447e+00 -1.048018e+01 7.985947e+00 -3.168084e+00 -3.765348e+00 1.989228e+00 -1.116434e-01 -1.897944e-01 1.312930e+00 1.831717e+00 -8.072405e-01 -2.008132e+00 3.885232e-01 -6.667476e-01 -1.729707e+00 1.146481e+00 1.331681e-01 -1.399094e+00 -1.224352e-01 -4.243165e-02 -7.071044e-02 -1.086777e-01 4.055019e-02 -1.727326e-01 -2.076205e-01 8.251531e-02 6.528452e-03 -1.194107e-01 2.724661e-02 2.690805e-02 -1.047879e-01
<VARIANCE> 39
 1.499739e+02 1.066350e+02 1.177789e+02 1.329171e+02 1.116051e+02 1.012040e+02 1.044859e+02 5.871971e+01 6.486810e+01 7.741138e+01 7.714120e+01 3.011505e+01 5.542178e+01 4.204437e+00 5.545815e+00 5.909564e+00 4.962493e+00 5.014148e+00 4.453369e+00 6.389256e+00 3.998747e+00 4.530372e+00 5.771857e+00 5.104362e+00 2.131456e+00 3.686195e+00 4.858931e-01 6.399639e-01 7.169414e-01 6.833231e-01 6.153787e-01 5.503969e-01 8.128243e-01 5.594810e-01 7.791780e-01 8.711445e-01 7.531778e-01 3.295519e-01 5.363199e-01
<GCONST> 1.430299e+02
<MIXTURE> 2 6.556422e-01
<MEAN> 39
 1.200826e+01 -1.041592e+01 4.619705e+00 2.222988e+01 2.376569e+01 -1.174732e+00 -2.460060e+01 8.728407e+00 -4.697689e+00 -1.820532e+01 8.614897e+00 -2.084333e+00 -1.098894e+01 -2.802921e-02 -1.265254e-01 4.833705e-03 -7.948866e-02 1.347648e-01 -8.833092e-02 -3.208121e-01 -5.613180e-02 3.427863e-03 1.392607e-02 8.168343e-02 1.452729e-03 -5.184196e-02 -3.338695e-02 3.439008e-02 9.678219e-03 -6.798386e-03 -3.288306e-02 3.943242e-02 9.474282e-02 -3.213741e-03 5.016487e-03 5.422368e-02 -2.076267e-02 -1.156077e-03 4.085827e-02
<VARIANCE> 39
 9.933319e+01 9.715764e+01 1.003351e+02 1.755189e+02 1.552677e+02 6.899980e+01 1.546842e+02 8.121146e+01 5.809801e+01 8.750356e+01 9.392679e+01 2.654127e+01 5.367997e+01 5.033618e-01 6.635588e-01 8.184637e-01 1.091878e+00 9.845788e-01 1.002299e+00 2.093668e+00 1.811168e+00 1.046749e+00 1.537649e+00 1.545628e+00 7.418876e-01 8.653437e-01 8.045838e-02 1.045728e-01 1.136529e-01 1.438761e-01 1.546331e-01 1.401967e-01 2.850240e-01 2.816039e-01 1.643076e-01 2.550569e-01 2.397336e-01 1.254214e-01 1.406674e-01
<GCONST> 1.063798e+02
<STATE> 3
<NUMMIXES> 2
<MIXTURE> 1 9.856163e-01
<MEAN> 39
 1.256512e+01 -1.036953e+01 2.582590e+00 1.721092e+01 2.282394e+01 -4.528141e-01 -2.556065e+01 9.251566e+00 -8.917243e+00 -2.009182e+01 1.428175e+01 -1.147567e+00 -1.221084e+01 1.073367e-01 -1.936167e-01 -1.844709e-01 -6.655757e-02 5.667623e-01 -6.231969e-01 -1.059988e+00 5.211240e-01 -1.567760e-01 -6.143491e-01 5.655999e-01 6.070672e-02 -5.018187e-01 -1.661978e-01 1.041758e-01 1.444543e-01 -7.026239e-02 -2.769549e-01 1.973929e-01 4.168199e-01 -1.464058e-01 1.452039e-01 3.574408e-01 -2.802263e-01 -5.388962e-02 2.831677e-01
<VARIANCE> 39
 1.121220e+02 7.977911e+01 8.950610e+01 1.109231e+02 1.553785e+02 7.568062e+01 1.752283e+02 7.829443e+01 6.704097e+01 9.085422e+01 1.059443e+02 2.603085e+01 7.112267e+01 8.479052e-01 9.047506e-01 1.302587e+00 1.170954e+00 1.345792e+00 1.683348e+00 2.708151e+00 2.191455e+00 1.201762e+00 2.174200e+00 1.986679e+00 8.718264e-01 1.331644e+00 1.454961e-01 1.328936e-01 1.912108e-01 1.827347e-01 2.449666e-01 2.005097e-01 4.182485e-01 3.431052e-01 2.157695e-01 4.213344e-01 3.294876e-01 1.457414e-01 2.300653e-01
<GCONST> 1.151729e+02
<MIXTURE> 2 1.438365e-02
<MEAN> 39
 1.704282e+01 -4.443764e+00 6.008314e+00 1.993531e+01 7.247444e+00 -1.630447e+01 -2.169268e+01 1.291411e+01 6.954266e+00 -1.547614e+01 -1.998960e+00 -1.888539e+00 -1.002493e+01 -2.464461e-02 1.242467e-01 1.701405e-01 -7.567159e-02 -1.067448e-01 -1.335229e-01 1.623555e-02 -6.682697e-02 -1.496377e-01 1.195931e-02 1.937196e-01 1.161585e-01 2.410352e-03 1.495837e-02 8.362205e-02 -4.883751e-02 1.321729e-02 1.041194e-01 2.376920e-02 -1.050346e-02 8.845583e-02 -8.918468e-02 -5.439146e-02 8.724788e-02 -1.095214e-02 -3.107085e-02
<VARIANCE> 39
 1.112247e+01 6.392390e+01 5.505527e+01 6.323096e+01 1.449185e+02 1.875397e+02 8.148640e+01 1.649678e+02 2.306310e+01 2.737210e+01 2.242677e+01 1.709059e+01 3.465280e+01 2.763836e-01 3.480615e-01 3.412564e-01 4.068242e-01 2.968028e-01 5.742065e-01 5.316531e-01 5.452474e-01 4.293100e-01 5.699720e-01 4.116960e-01 3.937368e-01 3.289846e-01 2.888200e-02 5.222934e-02 5.283658e-02 6.708442e-02 4.451525e-02 4.936282e-02 5.476246e-02 9.050434e-02 4.629152e-02 6.368642e-02 6.529385e-02 3.499129e-02 4.634130e-02
<GCONST> 7.184827e+01
<STATE> 4
<NUMMIXES> 2
<MIXTURE> 1 7.400255e-01
<MEAN> 39
 1.390734e+01 -1.188230e+01 2.785207e+00 1.923574e+01 2.750910e+01 -1.898579e+00 -3.123689e+01 7.423757e+00 -8.757305e+00 -2.104135e+01 1.448620e+01 -5.014553e-01 -1.355530e+01 -8.362658e-02 5.747306e-02 5.712770e-02 1.021476e-02 4.335761e-02 -1.192814e-01 -5.501683e-02 -5.939012e-02 -1.699468e-02 9.528443e-02 4.626247e-02 -6.565529e-02 -6.328960e-02 5.931373e-03 6.753369e-02 3.862785e-02 5.098425e-02 -1.066086e-01 1.405510e-01 2.161166e-01 -3.118309e-02 2.621640e-02 7.877615e-02 -9.067806e-02 -4.549281e-02 7.156145e-02
<VARIANCE> 39
 2.010980e+01 2.450798e+01 5.726475e+01 5.814459e+01 5.960323e+01 2.601683e+01 8.498363e+01 4.650715e+01 3.715337e+01 4.603943e+01 5.979675e+01 1.891923e+01 4.797285e+01 5.712241e-01 5.657770e-01 8.964502e-01 9.948649e-01 7.925268e-01 9.453018e-01 1.662995e+00 1.321755e+00 9.793279e-01 1.299696e+00 1.287924e+00 7.003196e-01 8.562513e-01 5.794791e-02 7.556938e-02 9.895903e-02 1.146600e-01 1.193954e-01 1.155404e-01 2.227234e-01 2.014300e-01 1.354079e-01 1.883723e-01 1.832293e-01 9.695722e-02 1.276981e-01
<GCONST> 9.214581e+01
<MIXTURE> 2 2.599749e-01
<MEAN> 39
 3.660349e+00 -3.172630e+00 6.252310e+00 1.062652e+01 6.035900e+00 -2.197031e+00 -8.387856e+00 1.114148e+01 -1.202674e+00 -9.907949e+00 1.223482e+00 -1.906621e+00 -3.835602e+00 -2.133448e-01 1.716452e-02 7.978306e-02 -1.517102e-01 -1.343641e-01 -6.646404e-02 -5.322194e-02 -5.911879e-02 7.288373e-02 1.017219e-01 -7.596768e-02 -9.975407e-03 6.976468e-02 -7.447135e-05 3.343835e-02 -3.027118e-02 -1.826755e-02 1.784376e-02 9.512071e-02 5.130988e-02 8.428656e-04 1.381276e-02 -2.287579e-03 5.590327e-03 1.046285e-02 1.763884e-02
<VARIANCE> 39
 3.183368e+02 1.984915e+02 1.952584e+02 2.041445e+02 1.295233e+02 2.436550e+02 1.066581e+02 1.590399e+02 7.738448e+01 7.675236e+01 5.639141e+01 3.245984e+01 5.559453e+01 6.587539e-01 9.047469e-01 9.735866e-01 1.177976e+00 1.039688e+00 1.326634e+00 1.192704e+00 1.432453e+00 1.095749e+00 1.168645e+00 1.064613e+00 9.003832e-01 7.327577e-01 6.234784e-02 9.864790e-02 1.233355e-01 1.322185e-01 1.535380e-01 1.671576e-01 1.726045e-01 2.008218e-01 1.695083e-01 1.956567e-01 1.664835e-01 1.493207e-01 1.262366e-01
<GCONST> 1.086107e+02
<STATE> 5
<NUMMIXES> 2
<MIXTURE> 1 7.727922e-01
<MEAN> 39
 1.460774e+01 -1.071350e+01 1.370453e+00 2.013077e+01 2.822538e+01 -5.661449e-01 -2.979037e+01 8.352081e+00 -1.138177e+01 -2.157207e+01 1.925236e+01 -1.177767e+00 -1.548245e+01 -3.569793e-01 8.784848e-01 1.856899e-01 2.553658e-01 -5.273015e-01 2.968780e-01 1.330065e+00 -4.211842e-01 3.491476e-01 8.790179e-01 -8.562642e-01 -6.459561e-02 4.445752e-01 -1.236514e-01 2.035474e-01 9.222554e-02 -2.231074e-02 -1.667514e-01 8.209208e-02 2.910622e-01 -7.631811e-02 1.729516e-01 2.532973e-01 -3.074611e-01 -2.942052e-02 2.024178e-01
<VARIANCE> 39
 2.263660e+01 3.178719e+01 4.729102e+01 5.380247e+01 4.418351e+01 2.381412e+01 7.965515e+01 6.138602e+01 3.679350e+01 7.133334e+01 5.918599e+01 2.875615e+01 4.255180e+01 9.044914e-01 1.607380e+00 1.251438e+00 1.267057e+00 1.725626e+00 1.177404e+00 4.201199e+00 2.896532e+00 1.670695e+00 3.284074e+00 3.468657e+00 9.412028e-01 1.693814e+00 1.181684e-01 1.688850e-01 1.928286e-01 1.830522e-01 2.269024e-01 1.654968e-01 4.490327e-01 4.272310e-01 2.385314e-01 4.294007e-01 4.246487e-01 1.569895e-01 2.266952e-01
<GCONST> 1.094074e+02
<MIXTURE> 2 2.272080e-01
<MEAN> 39
 1.181496e+01 -1.089155e+01 6.080861e+00 1.989459e+01 2.430911e+01 -2.355556e+00 -2.951073e+01 8.609510e+00 -6.161107e+00 -1.964359e+01 1.047730e+01 -2.726133e+00 -1.324274e+01 3.820610e-02 1.675405e-01 -1.020138e-01 1.344158e-01 4.244433e-02 1.535734e-01 2.088057e-01 -5.538532e-02 -9.322353e-02 -3.416672e-02 1.251303e-01 -2.459797e-02 -1.209775e-01 -2.995116e-02 9.647652e-02 -2.758029e-02 1.759612e-02 -9.731749e-03 7.517373e-02 1.698774e-01 1.160003e-03 -1.504993e-02 2.519486e-02 6.136287e-03 3.043280e-02 1.302591e-02
<VARIANCE> 39
 9.935985e+01 7.794859e+01 8.013612e+01 1.100311e+02 1.589693e+02 6.885449e+01 1.862906e+02 8.328696e+01 5.613090e+01 7.795947e+01 7.789749e+01 2.316571e+01 6.831905e+01 3.430820e-01 5.556089e-01 7.013686e-01 1.005890e+00 8.202671e-01 8.385445e-01 1.510808e+00 1.475786e+00 9.882280e-01 1.228649e+00 1.162618e+00 7.567055e-01 8.534864e-01 4.571896e-02 7.748493e-02 9.165101e-02 1.275214e-01 1.252863e-01 1.211455e-01 2.146747e-01 2.269510e-01 1.535650e-01 1.963075e-01 1.793569e-01 1.119304e-01 1.262860e-01
<GCONST> 1.003209e+02
<STATE> 6
<NUMMIXES> 2
<MIXTURE> 1 5.981172e-01
<MEAN> 39
 3.049785e+00 1.618811e+00 5.086710e+00 1.891118e+01 1.817768e+01 4.038426e+00 -1.164291e+01 2.608471e+00 -4.743949e+00 -8.659125e+00 3.117850e+00 -1.803194e+00 -4.653471e+00 -1.457422e+00 9.759128e-01 5.777245e-01 -5.770090e-01 -1.016258e+00 6.314349e-01 1.646319e+00 5.626416e-02 7.174670e-01 1.140987e+00 -9.983798e-01 -1.075020e-01 8.526196e-01 -2.093141e-02 -2.477632e-01 -2.724260e-02 -6.982787e-02 4.476410e-02 -4.116409e-02 -2.226593e-01 9.226399e-02 -1.153165e-01 -1.780902e-01 2.748448e-01 3.303651e-02 -1.536158e-01
<VARIANCE> 39
 1.217902e+02 7.537518e+01 6.760524e+01 9.892612e+01 9.467206e+01 5.964946e+01 1.108123e+02 8.287433e+01 6.276227e+01 7.181084e+01 6.615017e+01 3.920615e+01 4.205450e+01 2.201701e+00 4.499147e+00 3.037855e+00 3.102321e+00 3.312649e+00 2.558300e+00 4.994454e+00 4.744330e+00 3.796708e+00 4.203774e+00 4.456092e+00 1.943733e+00 2.457910e+00 1.886481e-01 3.434395e-01 3.318388e-01 3.796993e-01 4.940089e-01 3.066994e-01 6.403813e-01 5.454049e-01 5.839448e-01 5.513788e-01 5.197586e-01 2.897350e-01 2.999956e-01
<GCONST> 1.310768e+02
<MIXTURE> 2 4.018827e-01
<MEAN> 39
 9.661987e-01 3.184386e+00 5.775598e+00 1.634321e+01 1.298166e+01 1.434260e+00 -8.332329e+00 6.906224e+00 1.477424e-01 -4.513480e+00 3.685856e+00 -2.505990e+00 -5.538150e+00 -3.552809e-01 2.095358e-01 3.473602e-02 -2.866365e-01 -2.396974e-01 2.595941e-01 4.648079e-01 1.125823e-01 3.082210e-01 4.667261e-01 -1.672066e-02 4.520001e-02 1.874036e-01 -7.209927e-04 -8.957197e-02 -5.843043e-02 -4.473891e-02 7.924936e-03 3.044138e-03 -5.129707e-02 3.550749e-03 -4.775210e-02 -6.889911e-02 5.953768e-02 2.999571e-02 -1.409063e-02
<VARIANCE> 39
 2.367115e+02 1.036136e+02 8.848643e+01 1.326174e+02 1.154727e+02 8.614835e+01 9.691666e+01 8.543248e+01 5.043607e+01 7.265617e+01 6.398602e+01 3.326139e+01 4.226289e+01 4.097233e-01 5.739098e-01 6.840161e-01 8.757588e-01 8.627205e-01 9.722742e-01 1.319228e+00 1.463098e+00 1.365898e+00 1.420834e+00 1.134806e+00 9.259834e-01 8.568674e-01 3.949196e-02 8.570639e-02 1.032797e-01 1.386332e-01 1.462411e-01 1.581663e-01 2.047529e-01 2.382212e-01 1.964908e-01 2.161355e-01 2.038020e-01 1.613857e-01 1.554240e-01
<GCONST> 1.029181e+02
<TRANSP> 7
 0.000000e+00 1.000000e+00 0.000000e+00 0.000000e+00 0.000000e+00 0.000000e+00 0.000000e+00
 0.000000e+00 8.952166e-01 1.047834e-01 0.000000e+00 0.000000e+00 0.000000e+00 0.000000e+00
 0.000000e+00 0.000000e+00 2.983215e-01 7.016785e-01 0.000000e+00 0.000000e+00 0.000000e+00
 0.000000e+00 0.000000e+00 0.000000e+00 2.049932e-01 7.950068e-01 0.000000e+00 0.000000e+00
 0.000000e+00 0.000000e+00 0.000000e+00 0.000000e+00 8.290516e-01 1.709484e-01 0.000000e+00
 0.000000e+00 0.000000e+00 0.000000e+00 0.000000e+00 0.000000e+00 8.194361e-01 1.805639e-01
 0.000000e+00 0.000000e+00 0.000000e+00 0.000000e+00 0.000000e+00 0.000000e+00 0.000000e+00
<ENDHMM>
~h "ei"
<BEGINHMM>
<NUMSTATES> 7
<STATE> 2
<NUMMIXES> 2
<MIXTURE> 1 4.975795e-01
<MEAN> 39
 1.643099e+01 -9.685687e+00 -9.853702e+00 1.026911e+01 1.780583e+01 -1.588652e+00 -2.039017e+01 6.971785e+00 -5.809094e+00 -5.527489e+00 2.378460e+01 5.062315e+00 -4.884421e+00 -1.965839e-02 2.839318e-02 -2.931772e-02 1.845102e-01 5.186371e-01 -8.029982e-02 -6.420340e-01 -4.351686e-01 -3.863436e-01 -3.565490e-01 1.786462e-02 1.194264e-01 -4.326736e-02 -3.570458e-02 8.396390e-02 8.472133e-02 6.562053e-02 -1.773401e-02 5.123054e-02 7.779067e-02 -5.083903e-02 -1.753863e-02 -8.660281e-03 -1.099453e-01 -3.534061e-02 1.680688e-02
<VARIANCE> 39
 2.200560e+01 2.893439e+01 4.672694e+01 4.845769e+01 7.405288e+01 2.994635e+01 1.134910e+02 6.868336e+01 5.945533e+01 1.988377e+02 4.697028e+01 2.661524e+01 3.903241e+01 4.102978e-01 6.935921e-01 1.077823e+00 9.455363e-01 9.394816e-01 8.400700e-01 1.691555e+00 1.618586e+00 1.186998e+00 1.915338e+00 1.563675e+00 8.341418e-01 8.170692e-01 5.394395e-02 7.884581e-02 1.206483e-01 1.270534e-01 1.241844e-01 1.408832e-01 2.234122e-01 2.519947e-01 1.709085e-01 2.418048e-01 2.336578e-01 1.366817e-01 1.192545e-01
<GCONST> 9.779703e+01
<MIXTURE> 2 5.024201e-01
<MEAN> 39
 1.191985e+01 -7.368764e+00 -7.811519e+00 1.076149e+01 1.552117e+01 -1.828804e-01 -1.717056e+01 4.063933e+00 -6.356982e+00 -6.044050e+00 1.716508e+01 4.592982e+00 -2.364250e+00 5.681728e-01 -1.351582e-01 -4.878553e-01 1.945951e-01 8.849106e-01 -3.221759e-01 -1.033190e+00 -1.285245e-01 -6.375744e-01 -8.972215e-01 2.559130e-01 1.557176e-01 -1.158260e-01 -8.346694e-02 -4.396898e-02 -1.893334e-02 -5.825480e-02 -3.909463e-02 1.956517e-02 2.743066e-02 -2.699715e-02 4.355753e-02 8.825689e-02 -1.236442e-03 7.772884e-03 2.334392e-02
<VARIANCE> 39
 1.218570e+02 5.667873e+01 8.763882e+01 7.758917e+01 1.060139e+02 4.212044e+01 1.082687e+02 9.172945e+01 5.611732e+01 1.076334e+02 8.394913e+01 3.837798e+01 3.948387e+01 2.571741e+00 2.511187e+00 3.527600e+00 2.189438e+00 2.761923e+00 2.539745e+00 4.277408e+00 3.563510e+00 3.337425e+00 4.882353e+00 4.185229e+00 1.829719e+00 1.724734e+00 2.853847e-01 3.568082e-01 5.143098e-01 3.144418e-01 4.712404e-01 3.602757e-01 6.468306e-01 5.453247e-01 5.788834e-01 6.603333e-01 6.357140e-01 2.986026e-01 2.678120e-01
<GCONST> 1.305003e+02
<STATE> 3
<NUMMIXES> 2
<MIXTURE> 1 9.637977e-01
<MEAN> 39
 1.204259e+01 -5.447269e+00 -7.676996e+00 1.453837e+01 2.429594e+01 6.807041e-02 -2.576852e+01 -1.000509e+00 -1.061682e+01 -9.761247e+00 1.873298e+01 5.240829e+00 -4.743031e+00 -7.385072e-01 6.661820e-01 5.216821e-01 2.897499e-01 -2.758897e-01 1.961938e-01 2.936612e-01 -1.288741e+00 -7.516760e-02 5.125350e-01 -9.333786e-01 1.458241e-01 4.452792e-01 -3.081795e-01 2.678505e-01 3.307498e-01 4.525280e-03 -3.384343e-01 6.079539e-02 4.532569e-01 5.073000e-02 3.374974e-01 2.939440e-01 -3.998786e-01 -4.367399e-02 1.976344e-01
<VARIANCE> 39
 9.926024e+01 3.784993e+01 6.716544e+01 5.389711e+01 7.605960e+01 3.158450e+01 1.194312e+02 1.144496e+02 5.373823e+01 4.636344e+01 6.423880e+01 3.410180e+01 3.766625e+01 1.774173e+00 1.941279e+00 2.937528e+00 1.594865e+00 3.562368e+00 1.997787e+00 4.953936e+00 3.803279e+00 2.411211e+00 2.773547e+00 3.922094e+00 1.602886e+00 1.467023e+00 2.935216e-01 3.095724e-01 5.706896e-01 2.399402e-01 6.277205e-01 2.684819e-01 1.077492e+00 7.171964e-01 5.609757e-01 4.917361e-01 7.672260e-01 3.014783e-01 2.622266e-01
<GCONST> 1.258372e+02
<MIXTURE> 2 3.620219e-02
<MEAN> 39
 1.346509e+01 3.362405e+00 4.416466e+00 1.594647e+01 7.375319e+00 -8.120737e+00 -9.249018e+00 1.479714e+01 3.976563e+00 -9.981291e+00 -1.889567e-01 -2.736725e+00 -6.256273e+00 -1.680539e-01 2.819403e-01 6.778747e-02 8.077879e-02 6.050258e-02 2.511436e-01 2.724505e-01 -3.410796e-01 -1.609427e-01 2.771634e-01 1.233387e-01 2.024644e-01 3.202313e-01 -5.680518e-02 3.866494e-02 -1.993860e-02 -3.501701e-02 4.784460e-02 9.236445e-02 3.419103e-02 -5.719399e-02 -4.095245e-02 1.961963e-02 1.051408e-01 5.237114e-02 8.187482e-03
<VARIANCE> 39
 9.453792e+01 9.847820e+01 1.101805e+02 9.181359e+01 1.087463e+02 1.579868e+02 9.404938e+01 1.355148e+02 4.269068e+01 5.262013e+01 5.358493e+01 2.574662e+01 3.338424e+01 3.805076e-01 5.288144e-01 3.828398e-01 6.685919e-01 8.585191e-01 1.628735e+00 1.199534e+00 1.591411e+00 8.254742e-01 1.101297e+00 7.471139e-01 8.637794e-01 5.986738e-01 3.676266e-02 7.519698e-02 5.851811e-02 1.402193e-01 1.065366e-01 1.497653e-01 1.909404e-01 1.822217e-01 1.153765e-01 1.218313e-01 1.158423e-01 1.093269e-01 6.510326e-02
<GCONST> 9.511096e+01
<STATE> 4
<NUMMIXES> 2
<MIXTURE> 1 1.000000e+00
<MEAN> 39
 2.283677e+00 3.000470e+00 2.704324e+00 1.951984e+01 1.961521e+01 1.075659e-01 -1.984399e+01 -6.233554e+00 -8.562412e+00 -4.959051e+00 1.087658e+01 6.682238e+00 -1.791673e-01 -1.233734e+00 6.295236e-01 1.007786e+00 8.184487e-02 -4.211369e-01 6.915352e-01 1.452497e+00 5.761696e-01 7.133104e-01 6.410242e-01 -5.435611e-01 -1.584481e-01 2.849418e-01 6.948586e-03 -1.056161e-01 -7.880957e-02 -4.238033e-02 8.648635e-02 1.247356e-01 1.020385e-01 2.179684e-01 7.829595e-02 1.079824e-02 1.484249e-01 -1.452469e-02 -7.841076e-02
<VARIANCE> 39
 6.302014e+01 3.652117e+01 5.581761e+01 4.656293e+01 5.793101e+01 4.385188e+01 8.525370e+01 9.513515e+01 5.626490e+01 3.555452e+01 4.895117e+01 3.641733e+01 3.405714e+01 1.406687e+00 1.764241e+00 2.111154e+00 2.175008e+00 3.246046e+00 2.811073e+00 5.145772e+00 5.264719e+00 3.815598e+00 2.510584e+00 3.440810e+00 1.900612e+00 1.666027e+00 1.763765e-01 1.798433e-01 2.554671e-01 3.867662e-01 5.449427e-01 3.875841e-01 8.058221e-01 6.602163e-01 6.098111e-01 4.040881e-01 5.928544e-01 3.305888e-01 2.513346e-01
<GCONST> 1.229661e+02
<MIXTURE> 2 0.000000e+00
<MEAN> 39
 2.451241e-05 -3.945827e-05 -6.578863e-06 -7.152557e-07 -2.774596e-05 1.187921e-04 -1.449883e-05 1.633167e-05 -6.984919e-06 -4.756451e-05 -2.284069e-07 1.892447e-05 7.908791e-06 -7.654307e-09 2.645538e-08 3.352761e-08 1.137960e-07 9.124051e-09 1.990702e-07 1.084991e-07 -6.868504e-08 -1.708395e-08 1.569279e-07 2.568122e-07 2.303568e-08 -8.591451e-08 -1.363271e-02 1.440285e-03 -1.899552e-03 5.156639e-04 -4.873953e-04 -4.111854e-04 -4.649502e-04 -8.853489e-04 -2.279049e-04 -6.240061e-04 -1.173968e-04 -5.409846e-04 -2.049126e-04
<VARIANCE> 39
 9.626150e-06 2.426654e-05 3.815629e-06 0.000000e+00 0.000000e+00 0.000000e+00 2.935529e-06 0.000000e+00 1.143431e-06 0.000000e+00 0.000000e+00 0.000000e+00 0.000000e+00 1.686828e-11 0.000000e+00 1.923581e-10 0.000000e+00 0.000000e+00 2.846718e-10 0.000000e+00 0.000000e+00 2.116707e-11 0.000000e+00 0.000000e+00 0.000000e+00 8.787993e-11 8.329379e-03 3.102372e-04 3.842243e-04 2.258328e-04 2.910108e-04 3.261111e-04 3.767133e-04 3.033899e-04 2.445394e-04 2.236361e-04 1.965368e-04 1.861692e-04 1.587977e-04
<GCONST> -1.600000e+11
<STATE> 5
<NUMMIXES> 2
<MIXTURE> 1 1.000000e+00
<MEAN> 39
 -1.577808e+01 -3.134966e-02 2.749269e+00 9.370441e+00 9.605074e+00 8.274484e+00 -5.413227e-01 6.350528e+00 1.899236e+00 2.284985e+00 6.572007e+00 2.421298e+00 4.912827e-01 -9.313992e-01 -3.710386e-01 -4.146681e-01 -9.347579e-01 -9.933325e-01 -1.990557e-01 3.343305e-01 3.497075e-02 1.022674e-01 6.607108e-02 -4.216714e-01 -2.571885e-01 5.026509e-02 7.521167e-02 -1.437191e-02 -2.975411e-02 2.718557e-03 -1.699656e-02 -1.174905e-01 -1.703277e-01 -1.175551e-01 -1.190680e-01 -1.001191e-01 -1.145555e-02 4.123243e-03 -3.536267e-03
<VARIANCE> 39
 1.170493e+02 4.314590e+01 5.539289e+01 1.052935e+02 1.198826e+02 5.684459e+01 4.608849e+01 5.176827e+01 4.237925e+01 3.660077e+01 3.924276e+01 2.117176e+01 1.468802e+01 1.376114e+00 1.160493e+00 1.498957e+00 2.073360e+00 2.840031e+00 2.790767e+00 2.799664e+00 2.764207e+00 2.470880e+00 2.049740e+00 1.724227e+00 1.356733e+00 1.070653e+00 1.098117e-01 1.373145e-01 1.808328e-01 2.609073e-01 3.775418e-01 3.744473e-01 3.448758e-01 3.486622e-01 3.294089e-01 3.043513e-01 2.916471e-01 2.331444e-01 1.839381e-01
<GCONST> 1.124905e+02
<MIXTURE> 2 0.000000e+00
<MEAN> 39
 -1.609325e-06 -8.135103e-07 4.749745e-07 -6.807968e-07 -4.202593e-08 -3.618188e-07 2.407432e-09 2.424931e-07 1.277658e-07 -1.313165e-07 1.412118e-07 2.625166e-07 -2.114102e-07 1.533401e-01 -5.503851e-03 3.785035e-02 1.390424e-03 1.759262e-02 1.390478e-02 1.895499e-02 1.250848e-02 7.013478e-03 6.770252e-03 6.135121e-03 5.650446e-03 4.476010e-03 -1.806013e-01 2.015203e-02 -3.495460e-02 2.499425e-02 1.963463e-02 -3.039902e-02 -3.971753e-02 -2.047334e-02 -8.192796e-04 8.419420e-03 5.635804e-03 4.006127e-03 -1.858771e-03
<VARIANCE> 39
 0.000000e+00 0.000000e+00 0.000000e+00 0.000000e+00 4.588401e-10 0.000000e+00 9.299506e-14 0.000000e+00 1.959961e-10 7.395329e-10 9.354153e-10 0.000000e+00 0.000000e+00 5.519691e-01 1.833294e-02 3.783517e-02 1.655615e-02 2.303718e-02 2.295028e-02 2.466567e-02 1.928537e-02 1.440313e-02 1.338319e-02 1.233723e-02 1.081821e-02 9.576578e-03 1.242094e-01 1.541650e-02 1.599239e-02 1.925049e-02 2.621124e-02 3.162269e-02 3.145853e-02 1.910103e-02 1.752691e-02 1.237346e-02 1.492543e-02 9.388872e-03 1.088586e-02
<GCONST> -8.000000e+10
<STATE> 6
<NUMMIXES> 2
<MIXTURE> 1 1.000000e+00
<MEAN> 39
 -9.844961e+00 -2.324765e+00 2.557920e-01 6.003232e+00 5.616365e+00 2.785513e+00 -5.133159e+00 4.964829e+00 -1.316712e+00 -3.081170e+00 4.249849e+00 3.890411e-01 -1.100369e+00 -2.630202e-01 4.930099e-02 1.080375e-01 -9.476575e-02 -1.925739e-01 1.249999e-01 1.597583e-01 -7.956248e-03 -1.201381e-02 -6.456092e-02 -2.135049e-01 -1.124603e-01 3.059384e-02 4.435296e-02 -5.868039e-02 2.954742e-02 9.130666e-02 1.167836e-01 4.418340e-02 -3.749738e-02 1.191620e-01 -9.029902e-03 -6.090959e-02 1.017699e-01 2.288784e-02 -7.588846e-03
<VARIANCE> 39
 3.242066e+02 7.796880e+01 8.859173e+01 1.062534e+02 1.160418e+02 8.069936e+01 8.447963e+01 5.969233e+01 4.125846e+01 6.109945e+01 5.595416e+01 1.940111e+01 2.774696e+01 1.530005e+00 9.392936e-01 9.197997e-01 1.010385e+00 1.010025e+00 1.245759e+00 1.486580e+00 1.262369e+00 1.082467e+00 1.253000e+00 1.200753e+00 8.469908e-01 7.841775e-01 8.631393e-02 1.097966e-01 1.257200e-01 1.297330e-01 1.486643e-01 1.848122e-01 1.949670e-01 2.204804e-01 1.870476e-01 1.911472e-01 1.816066e-01 1.415963e-01 1.300756e-01
<GCONST> 1.034600e+02
<MIXTURE> 2 0.000000e+00
<MEAN> 39
 0.000000e+00 0.000000e+00 0.000000e+00 0.000000e+00 0.000000e+00 0.000000e+00 0.000000e+00 0.000000e+00 0.000000e+00 0.000000e+00 0.000000e+00 0.000000e+00 0.000000e+00 4.237878e-23 -3.786909e-23 1.582470e-23 -1.329638e-24 3.023070e-24 -8.363062e-24 6.443591e-24 -1.243620e-24 4.356885e-25 -2.915257e-24 3.233656e-24 -1.075627e-24 3.332135e-26 -1.259776e-01 9.946360e-03 -3.100975e-02 6.726459e-03 -2.000426e-04 -2.277133e-02 -2.668727e-02 -1.526267e-02 -5.181108e-03 1.760355e-04 -1.211648e-03 -1.074032e-03 -3.869191e-03
<VARIANCE> 39
 0.000000e+00 0.000000e+00 0.000000e+00 0.000000e+00 0.000000e+00 0.000000e+00 0.000000e+00 0.000000e+00 0.000000e+00 0.000000e+00 0.000000e+00 0.000000e+00 0.000000e+00 5.779452e-23 4.550961e-23 7.666999e-24 4.672506e-26 3.242006e-25 2.289604e-24 1.269824e-24 4.119810e-26 1.051707e-26 3.016532e-25 3.258485e-25 3.081342e-26 3.416759e-28 8.857191e-02 9.054033e-03 1.131149e-02 9.210194e-03 1.184606e-02 1.578277e-02 1.645681e-02 1.080695e-02 9.119515e-03 6.624663e-03 7.254379e-03 5.319290e-03 5.618778e-03
<GCONST> -1.300000e+11
<TRANSP> 7
 0.000000e+00 1.000000e+00 0.000000e+00 0.000000e+00 0.000000e+00 0.000000e+00 0.000000e+00
 0.000000e+00 9.150433e-01 8.495667e-02 0.000000e+00 0.000000e+00 0.000000e+00 0.000000e+00
 0.000000e+00 0.000000e+00 5.945784e-01 4.054216e-01 0.000000e+00 0.000000e+00 0.000000e+00
 0.000000e+00 0.000000e+00 0.000000e+00 8.516549e-01 1.483452e-01 0.000000e+00 0.000000e+00
 0.000000e+00 0.000000e+00 0.000000e+00 0.000000e+00 8.845435e-01 1.154565e-01 0.000000e+00
 0.000000e+00 0.000000e+00 0.000000e+00 0.000000e+00 0.000000e+00 2.753330e-02 9.724667e-01
 0.000000e+00 0.000000e+00 0.000000e+00 0.000000e+00 0.000000e+00 0.000000e+00 0.000000e+00
<ENDHMM>
~h "ii"
<BEGINHMM>
<NUMSTATES> 7
<STATE> 2
<NUMMIXES> 2
<MIXTURE> 1 3.940808e-01
<MEAN> 39
 -7.705994e+00 -1.696776e+01 9.714407e+00 1.359016e+01 6.507951e+00 9.502593e+00 -5.447690e+00 6.505877e+00 -1.093288e+00 -2.665040e+00 5.993327e+00 -3.534685e+00 2.783283e-01 1.820041e+00 8.302609e-01 1.023060e+00 2.033734e+00 1.538519e+00 1.482464e-01 -6.591098e-01 -2.618011e-01 3.211873e-01 -3.364277e-01 -9.793413e-02 -2.123805e-01 -8.253881e-01 2.884252e-01 1.880210e-01 -1.805886e-01 7.344043e-02 3.208733e-01 -2.386930e-01 -5.726130e-01 -2.037968e-01 -1.877760e-01 -4.621372e-01 -1.472138e-01 -2.261302e-02 -3.123516e-01
<VARIANCE> 39
 1.226382e+02 2.127849e+02 1.873847e+02 1.852050e+02 7.472425e+01 1.297801e+02 4.801543e+01 7.789681e+01 5.259437e+01 5.181924e+01 4.750604e+01 3.348298e+01 2.803379e+01 4.011594e+00 7.206301e+00 4.275913e+00 6.145540e+00 5.363072e+00 3.687593e+00 4.466952e+00 3.604040e+00 3.532828e+00 3.538525e+00 3.764717e+00 2.301289e+00 2.621349e+00 3.287709e-01 7.245010e-01 6.162090e-01 6.663224e-01 6.129548e-01 5.615441e-01 7.562446e-01 5.497929e-01 5.341088e-01 6.449355e-01 6.069004e-01 3.157930e-01 4.236995e-01
<GCONST> 1.385229e+02
<MIXTURE> 2 6.059191e-01
<MEAN> 39
 1.050383e+01 -1.068231e+01 1.052362e+01 2.873475e+01 2.343143e+01 3.752232e+00 -2.156813e+01 4.585055e+00 -2.489996e+00 -1.568615e+01 5.735412e+00 -4.258229e+00 -1.155204e+01 1.003319e+00 -4.930514e-02 -2.863384e-01 9.319758e-01 1.704594e+00 -1.003679e+00 -2.525507e+00 9.408331e-02 1.877487e-01 -1.787527e+00 -6.164435e-02 2.379652e-01 -1.509504e+00 -3.568958e-01 -1.740558e-01 -2.821848e-02 -3.823963e-01 -3.483092e-01 2.944740e-02 2.672563e-01 2.359309e-01 1.053385e-01 1.933126e-01 6.855951e-02 4.804520e-02 2.163994e-01
<VARIANCE> 39
 3.303676e+01 6.063025e+01 8.682287e+01 9.531470e+01 9.039345e+01 8.608099e+01 9.236363e+01 7.262246e+01 5.252256e+01 6.348324e+01 6.555876e+01 2.897932e+01 4.031042e+01 1.916021e+00 2.018285e+00 2.536153e+00 2.684258e+00 3.358650e+00 2.317645e+00 5.272333e+00 2.937075e+00 2.306102e+00 3.678327e+00 2.810490e+00 1.583085e+00 2.206965e+00 1.638730e-01 3.389921e-01 3.162189e-01 3.327479e-01 3.537111e-01 2.612682e-01 5.741996e-01 3.831468e-01 3.204856e-01 5.062391e-01 3.832471e-01 2.549576e-01 2.972755e-01
<GCONST> 1.235190e+02
<STATE> 3
<NUMMIXES> 2
<MIXTURE> 1 1.000000e+00
<MEAN> 39
 9.964489e+00 -7.776557e+00 1.145880e+01 2.762629e+01 2.347708e+01 2.794552e-02 -2.401261e+01 9.226882e+00 -5.043125e-01 -1.876955e+01 6.195632e+00 -3.350164e+00 -1.352014e+01 -6.644949e-02 -1.075073e-01 8.938321e-02 -1.185673e-02 2.412742e-01 -3.562638e-01 -6.124313e-01 2.520790e-01 2.034123e-01 -3.748057e-01 -1.236638e-01 7.336163e-02 -2.157164e-01 -4.649948e-02 3.093964e-02 -1.225107e-02 -6.248479e-02 -1.149747e-01 9.415255e-02 2.097272e-01 -8.608378e-02 -2.480646e-02 1.868719e-01 -3.415660e-02 -4.915841e-02 1.062057e-01
<VARIANCE> 39
 6.325685e+01 8.736893e+01 7.618131e+01 1.163513e+02 1.269082e+02 6.322952e+01 1.684966e+02 6.415184e+01 5.050833e+01 8.603353e+01 6.706487e+01 2.676942e+01 5.318475e+01 5.652993e-01 8.206658e-01 1.110284e+00 1.069124e+00 1.219312e+00 1.151583e+00 2.175411e+00 1.542995e+00 1.124335e+00 1.797074e+00 1.269585e+00 9.560276e-01 1.046517e+00 6.356131e-02 1.056993e-01 1.293279e-01 1.641724e-01 1.967024e-01 1.749750e-01 3.548298e-01 2.469966e-01 1.885067e-01 3.205244e-01 2.168571e-01 1.728051e-01 1.790961e-01
<GCONST> 1.069334e+02
<MIXTURE> 2 0.000000e+00
<MEAN> 39
 -2.208270e+00 -4.924166e+00 1.908871e+01 1.414313e+01 1.305121e+01 -2.550124e+01 -8.712596e+00 3.256981e+00 -1.020494e+01 -1.600216e+01 -1.043865e+01 -7.724840e+00 -3.884650e+00 -3.069684e-02 5.741307e-02 2.626543e-02 -1.140945e-02 -5.099841e-03 1.462645e-03 -7.175154e-02 2.450622e-02 1.508959e-02 -8.209687e-02 -2.880517e-02 4.053793e-02 1.540386e-02 4.400872e-03 3.426807e-02 -3.873229e-02 -2.918413e-02 4.017396e-02 7.009056e-02 -1.632413e-02 -6.592760e-02 5.973514e-02 5.484207e-02 -7.151864e-03 -6.910361e-03 -2.705606e-03
<VARIANCE> 39
 5.265318e+00 3.126786e+01 2.337614e+01 3.727947e+01 3.152877e+01 2.943056e+01 3.225301e+01 2.729765e+01 2.195340e+01 2.848150e+01 2.092086e+01 3.419135e+01 3.785925e+01 6.421357e-02 2.003726e-01 3.487247e-01 3.611105e-01 4.247755e-01 4.733264e-01 5.225756e-01 5.518345e-01 5.403954e-01 5.455791e-01 4.727846e-01 4.464683e-01 3.817663e-01 9.004888e-03 2.605502e-02 4.109941e-02 5.433235e-02 6.215053e-02 8.339533e-02 8.227700e-02 8.697993e-02 9.257926e-02 8.818587e-02 8.279812e-02 7.263009e-02 6.514387e-02
<GCONST> 6.347967e+01
<STATE> 4
<NUMMIXES> 2
<MIXTURE> 1 8.602009e-01
<MEAN> 39
 9.849702e+00 -1.004556e+01 1.174536e+01 2.866677e+01 2.637337e+01 5.939007e-02 -2.852026e+01 6.202744e+00 2.247421e+00 -1.890760e+01 2.307983e+00 -3.209502e+00 -1.402974e+01 -7.147714e-02 1.257222e-01 1.126098e-02 -2.034676e-02 -2.482207e-03 -6.823858e-02 6.357555e-02 1.526366e-02 7.609927e-02 1.281268e-01 -1.665391e-01 -1.851723e-01 -2.480889e-02 3.880912e-02 1.107614e-02 -2.822855e-02 1.596678e-02 -7.358339e-02 7.982626e-02 1.159661e-01 -5.179394e-02 -6.222172e-02 4.515524e-02 1.716804e-02 -1.543001e-02 5.682304e-02
<VARIANCE> 39
 4.956722e+01 5.644387e+01 5.719014e+01 9.514655e+01 9.155029e+01 3.568104e+01 1.229828e+02 4.050500e+01 5.124353e+01 5.595175e+01 6.140514e+01 1.916761e+01 4.605331e+01 3.527542e-01 4.900216e-01 6.902459e-01 8.370755e-01 7.863625e-01 9.264541e-01 1.283089e+00 1.074455e+00 9.147841e-01 9.963024e-01 1.019339e+00 6.854657e-01 7.737991e-01 3.858650e-02 6.104638e-02 8.204012e-02 1.042109e-01 1.076523e-01 1.229058e-01 1.885342e-01 1.486318e-01 1.318579e-01 1.663120e-01 1.389726e-01 1.019310e-01 1.147404e-01
<GCONST> 9.172021e+01
<MIXTURE> 2 1.397990e-01
<MEAN> 39
 1.269951e+01 -1.100450e+01 1.408841e+01 2.892754e+01 1.868343e+01 -1.839471e-02 -2.649543e+01 5.067725e+00 8.934128e+00 -1.775694e+01 -4.505721e+00 -3.071429e+00 -1.223409e+01 -5.437389e-02 1.312764e-01 -7.480911e-02 -5.630907e-02 9.358037e-02 -1.939184e-01 -8.091658e-02 1.824894e-01 5.979672e-02 -2.664561e-02 -8.468521e-02 -1.408411e-01 -9.577887e-02 -7.047997e-02 6.349996e-02 -6.381471e-02 -1.402745e-02 1.485122e-01 1.991891e-02 8.484106e-02 -6.680772e-03 -1.581931e-01 5.105040e-02 1.008712e-01 -3.810398e-02 2.863798e-02
<VARIANCE> 39
 1.684876e+01 6.890515e+01 6.875315e+01 1.029916e+02 1.125405e+02 1.405911e+02 8.695642e+01 8.254358e+01 3.510900e+01 4.111148e+01 3.715739e+01 2.214442e+01 3.533698e+01 5.351127e-01 6.265441e-01 6.244775e-01 5.921650e-01 7.602139e-01 8.550383e-01 1.068896e+00 8.951006e-01 6.813530e-01 8.342911e-01 7.834775e-01 5.376544e-01 6.552923e-01 5.292150e-02 7.550837e-02 6.887721e-02 6.738833e-02 7.123838e-02 1.219707e-01 1.326124e-01 9.759828e-02 1.135300e-01 1.080097e-01 9.265991e-02 1.001144e-01 1.045699e-01
<GCONST> 8.795760e+01
<STATE> 5
<NUMMIXES> 2
<MIXTURE> 1 8.005272e-01
<MEAN> 39
 1.112165e+01 -8.044711e+00 7.948552e+00 2.578468e+01 2.706021e+01 4.720325e-01 -2.599514e+01 7.994127e+00 -3.577138e+00 -1.739282e+01 9.572233e+00 -3.489152e+00 -1.468179e+01 -2.479566e-01 5.023233e-01 -6.493077e-02 -1.716774e-02 -4.320807e-01 1.894198e-01 9.402652e-01 -3.101763e-01 3.502315e-02 7.580709e-01 -3.702119e-01 -1.161115e-01 4.218469e-01 -5.829620e-02 9.947337e-02 2.287494e-02 -4.095506e-02 -1.595338e-01 6.667837e-02 2.381553e-01 -3.864637e-02 4.544180e-02 1.233826e-01 -1.255297e-01 1.318288e-02 1.720418e-01
<VARIANCE> 39
 3.987967e+01 7.260297e+01 6.339625e+01 9.159311e+01 1.045428e+02 4.176358e+01 1.565425e+02 5.897532e+01 4.809124e+01 8.403961e+01 8.501753e+01 2.963666e+01 5.496899e+01 8.404376e-01 1.578315e+00 1.354587e+00 1.764858e+00 2.075848e+00 1.396539e+00 4.333322e+00 2.340878e+00 1.443545e+00 2.891189e+00 2.301062e+00 1.096516e+00 1.800685e+00 9.321584e-02 1.611925e-01 1.705484e-01 1.940567e-01 2.547232e-01 1.631275e-01 4.037556e-01 3.242552e-01 2.086894e-01 3.756398e-01 3.199969e-01 1.628050e-01 2.105198e-01
<GCONST> 1.135686e+02
<MIXTURE> 2 1.994727e-01
<MEAN> 39
 7.714225e+00 -8.269638e+00 1.033539e+01 2.250765e+01 1.731650e+01 -1.986621e+00 -2.172913e+01 8.791983e+00 1.385448e+00 -1.636024e+01 2.263470e+00 -3.639420e+00 -1.204356e+01 6.692751e-02 -4.110187e-03 -1.295532e-01 3.347814e-03 1.403822e-01 1.786590e-01 -6.757817e-02 -7.639679e-02 -3.429154e-02 1.121501e-01 4.925350e-02 -1.946208e-01 -7.886866e-02 3.344020e-02 3.154638e-02 -5.474786e-02 1.135360e-02 4.367509e-02 5.395184e-02 5.279336e-02 -3.752849e-02 -7.376638e-02 4.756659e-02 5.220418e-02 1.269199e-02 6.785127e-02
<VARIANCE> 39
 1.877805e+02 1.226624e+02 1.126840e+02 2.357068e+02 2.222313e+02 1.367820e+02 1.799560e+02 9.209845e+01 7.629813e+01 1.089466e+02 8.549503e+01 2.719515e+01 7.339643e+01 1.806563e-01 3.450927e-01 5.375581e-01 6.321458e-01 5.193541e-01 6.490103e-01 8.229403e-01 8.160915e-01 7.434228e-01 7.635307e-01 8.889397e-01 6.565400e-01 5.715345e-01 2.424370e-02 4.704850e-02 5.842698e-02 8.385487e-02 6.793543e-02 1.130577e-01 1.268294e-01 1.122096e-01 9.601883e-02 1.460246e-01 1.212397e-01 1.019708e-01 8.717901e-02
<GCONST> 9.369916e+01
<STATE> 6
<NUMMIXES> 2
<MIXTURE> 1 3.765931e-01
<MEAN> 39
 -3.958759e-01 5.502599e+00 1.011649e+01 2.145039e+01 1.691198e+01 5.944456e+00 -5.234367e+00 6.837450e+00 1.538579e+00 -3.775912e+00 -8.468337e-01 -4.819205e+00 -4.354386e+00 -1.595744e+00 5.771846e-01 2.050847e-03 -1.504673e+00 -1.232683e+00 7.122162e-01 1.471889e+00 1.735692e-01 1.710384e-01 8.661240e-01 -2.001296e-02 3.192669e-01 8.682298e-01 -3.387592e-02 -3.874966e-01 -1.179065e-01 1.391297e-02 5.733539e-02 -9.779261e-02 -3.006249e-01 -4.315101e-02 -1.126230e-01 -2.346848e-01 1.578272e-01 2.591198e-02 -1.752950e-01
<VARIANCE> 39
 9.759869e+01 7.026944e+01 4.499127e+01 9.991906e+01 6.271834e+01 4.062758e+01 5.397734e+01 4.110012e+01 3.873672e+01 3.833794e+01 3.977286e+01 2.589269e+01 2.086151e+01 1.653043e+00 3.760887e+00 2.145688e+00 2.621419e+00 2.340076e+00 1.859597e+00 3.186589e+00 2.127005e+00 1.824970e+00 2.143548e+00 2.045177e+00 1.481503e+00 1.769205e+00 1.145301e-01 2.194842e-01 2.548891e-01 2.976952e-01 3.110571e-01 2.037988e-01 2.600331e-01 2.935483e-01 2.726327e-01 2.899804e-01 2.478932e-01 1.944905e-01 2.450351e-01
<GCONST> 1.131598e+02
<MIXTURE> 2 6.234068e-01
<MEAN> 39
 1.076907e+01 -8.473333e+00 1.000280e+01 3.313603e+01 2.776263e+01 -1.115572e+00 -2.618506e+01 5.382137e+00 4.976935e-01 -1.736115e+01 1.523706e+00 -6.001462e+00 -1.419337e+01 -2.287386e-01 7.371244e-01 -1.682725e-01 -3.606083e-01 -5.020953e-01 2.165480e-01 1.145187e+00 -1.433975e-01 -1.601100e-01 8.519751e-01 -1.829863e-01 -1.052834e-01 6.021712e-01 -9.300969e-02 1.337048e-01 4.273739e-02 -1.616204e-01 -1.438725e-01 9.218460e-02 2.272242e-01 6.387165e-02 5.706474e-02 1.273835e-01 -2.272348e-02 6.270990e-02 1.522791e-01
<VARIANCE> 39
 2.163321e+01 4.540759e+01 4.169137e+01 6.876819e+01 7.212683e+01 5.353955e+01 7.768100e+01 5.933008e+01 5.249653e+01 5.756134e+01 6.733855e+01 3.156840e+01 3.580545e+01 6.091349e-01 1.285468e+00 1.011427e+00 1.744417e+00 1.546155e+00 1.475141e+00 3.101664e+00 1.756533e+00 1.397619e+00 2.349913e+00 1.840480e+00 1.066144e+00 1.432376e+00 6.372391e-02 1.245455e-01 1.247558e-01 2.168777e-01 2.047741e-01 1.842449e-01 3.096771e-01 2.675110e-01 2.136195e-01 2.889875e-01 2.465602e-01 1.650728e-01 1.704086e-01
<GCONST> 1.055716e+02
<TRANSP> 7
 0.000000e+00 1.000000e+00 0.000000e+00 0.000000e+00 0.000000e+00 0.000000e+00 0.000000e+00
 0.000000e+00 7.789564e-01 2.210435e-01 0.000000e+00 0.000000e+00 0.000000e+00 0.000000e+00
 0.000000e+00 0.000000e+00 5.046253e-01 4.953748e-01 0.000000e+00 0.000000e+00 0.000000e+00
 0.000000e+00 0.000000e+00 0.000000e+00 6.067330e-01 3.932670e-01 0.000000e+00 0.000000e+00
 0.000000e+00 0.000000e+00 0.000000e+00 0.000000e+00 4.546126e-01 5.453874e-01 0.000000e+00
 0.000000e+00 0.000000e+00 0.000000e+00 0.000000e+00 0.000000e+00 8.697292e-01 1.302708e-01
 0.000000e+00 0.000000e+00 0.000000e+00 0.000000e+00 0.000000e+00 0.000000e+00 0.000000e+00
<ENDHMM>
~h "jh"
<BEGINHMM>
<NUMSTATES> 5
<STATE> 2
<NUMMIXES> 2
<MIXTURE> 1 2.392519e-01
<MEAN> 39
 1.409101e+01 -3.058032e+00 5.431102e+00 2.324020e+01 1.736107e+01 8.779192e-02 -5.727160e+00 1.550867e+01 -1.263569e+01 -2.616426e+01 5.675087e+00 3.058020e+00 -9.120909e+00 -1.409132e+00 2.562118e+00 1.722272e+00 9.123760e-01 -6.159738e-01 1.295905e+00 2.317516e+00 -1.624458e+00 1.078100e+00 2.929334e+00 -2.458835e+00 -5.303075e-01 1.763327e+00 -2.442554e-01 1.084889e-01 3.936061e-01 -2.562378e-01 -2.167087e-01 3.444032e-01 -1.536756e-01 -2.089435e-01 3.261619e-01 2.358399e-01 -2.075499e-01 -3.051887e-01 1.882220e-01
<VARIANCE> 39
 2.581567e+01 8.838644e+01 3.567560e+01 4.327696e+01 3.002007e+01 2.029307e+01 5.761044e+01 6.391785e+01 3.469258e+01 1.329551e+02 5.260153e+01 5.088470e+00 5.009354e+01 5.822654e-01 2.471316e+00 1.158030e+00 8.790672e-01 3.206519e-01 1.390677e+00 1.875269e+00 2.087640e+00 1.427943e+00 2.985676e+00 1.264027e+00 3.921077e-01 1.677992e+00 1.141989e-01 1.249459e+00 1.670408e-01 4.026825e-02 5.088199e-02 1.553850e-01 1.276891e-01 2.736882e-01 4.709067e-01 7.653078e-01 3.139661e-01 6.115136e-02 3.913012e-01
<GCONST> 1.004657e+02
<MIXTURE> 2 7.607480e-01
<MEAN> 39
 -2.458029e+00 -7.265677e-01 1.821358e+01 1.683239e+01 7.088046e+00 1.556049e+01 2.837441e+00 4.679479e+00 -3.971305e+00 -7.914397e+00 -6.396496e-02 -2.988684e-02 1.727968e+00 -2.728325e+00 -2.908201e+00 2.239657e+00 1.327222e-01 -1.769861e+00 1.074020e+00 9.401453e-02 -3.666627e-02 1.856792e+00 1.344012e+00 2.032204e-01 1.386630e-01 3.510229e-01 5.650049e-02 -9.403143e-01 -2.847589e-01 -3.319404e-01 -3.161845e-01 -5.426855e-01 -4.073798e-01 3.967422e-01 -1.457106e-01 -2.024153e-01 5.771132e-01 1.013898e-01 -2.019803e-01
<VARIANCE> 39
 1.033687e+02 1.626510e+02 1.100951e+02 1.088282e+02 3.959285e+01 3.851236e+01 2.361578e+01 2.294938e+01 4.942027e+01 3.005271e+01 2.765144e+01 1.153193e+01 1.472935e+01 1.718739e+00 1.272576e+01 4.871493e+00 1.715850e+00 2.293669e+00 3.425721e+00 2.996650e+00 3.484366e+00 1.831488e+00 2.554445e+00 5.519516e+00 2.290966e+00 1.790364e+00 1.676566e-01 9.763234e-01 4.378912e-01 3.537329e-01 2.004712e-01 4.637336e-01 3.171747e-01 4.808817e-01 3.306084e-01 4.733376e-01 3.636030e-01 3.143510e-01 2.001402e-01
<GCONST> 1.208962e+02
<STATE> 3
<NUMMIXES> 2
<MIXTURE> 1 3.335291e-01
<MEAN> 39
 -1.034989e+01 -2.021186e+01 2.318699e+01 1.367558e+01 -3.094827e+00 1.153716e+01 -1.915927e-01 1.028022e+01 2.741749e+00 -5.509167e+00 7.467609e+00 2.066266e+00 -1.297306e-01 -2.050335e+00 -5.222274e+00 1.065983e+00 -2.319778e+00 -2.824265e+00 -1.477472e+00 -1.566287e+00 1.519346e+00 5.037541e-01 8.988281e-02 1.056335e+00 3.898600e-01 1.772189e-01 4.416891e-01 4.754727e-01 -6.581283e-02 -9.473342e-02 5.745304e-01 4.106138e-01 -4.017386e-01 -5.312290e-01 -9.738084e-01 -4.028867e-01 -4.073872e-01 -1.799656e-01 2.898356e-01
<VARIANCE> 39
 1.179042e+02 1.271906e+02 1.373007e+02 5.457301e+01 1.610547e+02 2.082846e+01 3.423016e+01 1.390305e+01 2.093330e+01 5.996159e+01 7.837372e+00 1.543978e+01 1.896961e+01 8.831832e-01 1.302424e+01 3.349942e+00 2.879516e+00 3.173596e+00 3.524500e+00 3.347642e+00 1.681410e+00 2.402999e+00 2.327006e+00 1.794285e+00 2.947143e+00 1.733047e+00 2.596126e-01 3.092462e-01 3.428037e-01 3.959226e-01 3.824779e-01 7.090006e-01 1.398515e-01 1.454937e-01 2.184965e-01 3.847836e-01 1.277380e-01 1.479117e-01 2.136579e-01
<GCONST> 1.144523e+02
<MIXTURE> 2 6.664709e-01
<MEAN> 39
 -1.583663e+01 -3.533970e+01 2.764856e+01 9.990526e+00 -6.590345e+00 1.267463e+01 -7.363515e+00 8.070963e+00 6.194578e-01 -4.475068e+00 8.338549e+00 2.803329e+00 1.329465e+00 -1.033776e-01 -1.780176e+00 -6.291251e-01 -1.188292e+00 -1.754947e-01 -1.407510e-01 -1.371060e+00 -9.702355e-01 -9.351528e-01 6.414890e-02 5.411154e-02 -3.201010e-01 1.652863e-01 5.214089e-01 9.729831e-01 -4.269269e-01 2.425459e-01 4.020346e-01 4.926158e-02 3.623412e-01 -3.347112e-01 -2.402153e-01 -2.858217e-01 -3.233621e-01 -1.385736e-01 -1.484804e-01
<VARIANCE> 39
 5.976218e+01 2.009288e+02 1.244457e+02 2.183892e+02 1.008705e+02 4.918372e+01 2.727223e+01 3.202898e+01 7.607039e+01 2.732411e+01 1.846137e+01 3.016231e+01 2.279222e+01 2.360589e+00 5.126643e+00 4.390432e+00 2.441871e+00 1.762136e+00 2.110158e+00 2.554383e+00 1.527635e+00 1.739353e+00 2.739909e+00 1.865986e+00 1.428751e+00 8.024150e-01 1.831195e-01 5.287742e-01 2.998939e-01 2.122867e-01 4.120671e-01 1.943985e-01 3.981614e-01 2.480652e-01 1.884013e-01 4.995954e-01 3.199262e-01 2.447075e-01 1.496342e-01
<GCONST> 1.167746e+02
<STATE> 4
<NUMMIXES> 2
<MIXTURE> 1 7.317749e-01
<MEAN> 39
 -3.158436e+00 -2.183673e+01 1.968362e+01 1.632006e+01 4.821679e+00 1.527788e+01 -6.443700e+00 4.090414e+00 -4.473846e+00 -9.626910e+00 7.081001e+00 3.098959e+00 -2.144040e-01 1.843465e+00 1.987707e+00 -1.609547e+00 1.120811e+00 4.744166e-01 -3.629023e-01 5.361240e-01 -1.288181e+00 -6.247334e-01 -4.012964e-01 -9.122909e-01 -4.463577e-01 -2.174728e-01 2.434923e-02 -1.233134e-01 -2.031364e-01 -1.008451e-01 -1.425796e-01 -5.029683e-01 -1.431501e-01 1.727293e-01 -1.632875e-01 -7.106125e-02 4.429727e-02 -1.914131e-01 -7.260968e-02
<VARIANCE> 39
 1.442675e+02 1.947785e+02 1.531291e+02 2.236261e+02 1.337366e+02 5.558218e+01 1.762796e+01 3.293145e+01 4.417687e+01 3.907044e+01 1.770229e+01 1.965499e+01 2.629322e+01 3.780856e+00 6.406567e+00 4.610687e+00 1.216492e+00 1.632106e+00 2.965592e+00 2.809387e+00 1.909137e+00 8.870336e-01 2.375217e+00 9.365572e-01 1.140620e+00 1.086937e+00 2.333054e-01 3.512891e-01 2.243651e-01 1.563415e-01 1.223655e-01 1.559034e-01 5.147309e-01 4.478173e-01 3.448963e-01 2.893586e-01 8.180472e-02 1.467556e-01 2.585384e-01
<GCONST> 1.139191e+02
<MIXTURE> 2 2.682252e-01
<MEAN> 39
 -1.734040e+01 -3.525607e+01 2.470408e+01 3.438524e+00 -7.937687e+00 1.118333e+01 -8.315864e+00 4.919630e+00 -1.008913e+00 -4.367034e+00 8.078330e+00 2.297631e+00 1.596761e+00 1.000853e+00 1.295537e-02 -6.361027e-01 -6.741020e-01 6.732398e-01 2.721338e-01 -2.966073e-02 -9.662734e-01 -1.414178e+00 -7.114977e-03 4.164230e-01 -1.620144e-01 -1.804984e-01 2.889417e-01 4.220222e-01 2.054225e-01 5.852342e-01 3.089356e-01 3.709068e-01 2.723626e-01 1.152118e-01 1.024852e-01 2.012014e-02 1.481135e-01 1.346093e-03 -7.208882e-02
<VARIANCE> 39
 3.200714e+01 1.932766e+02 1.093422e+02 9.512524e+01 6.587585e+00 1.712781e+01 1.299791e+01 3.129132e+01 3.340978e+01 3.073952e+01 1.584374e+01 5.182162e+01 6.965667e+00 4.186692e-01 3.399476e+00 4.707917e+00 3.558912e+00 3.669839e+00 2.261531e+00 3.087078e+00 1.318384e+00 9.147874e-01 1.505428e+00 1.220840e+00 1.493611e+00 3.345878e-01 1.095338e-01 1.497115e-01 1.537313e-01 2.514450e-01 2.973406e-01 2.029209e-01 3.430253e-01 1.273775e-01 2.324125e-01 1.046020e-01 1.900156e-01 3.155555e-01 6.208005e-02
<GCONST> 9.988206e+01
<TRANSP> 5
 0.000000e+00 1.000000e+00 0.000000e+00 0.000000e+00 0.000000e+00
 0.000000e+00 7.968556e-01 2.031444e-01 0.000000e+00 0.000000e+00
 0.000000e+00 0.000000e+00 6.714284e-01 3.285716e-01 0.000000e+00
 0.000000e+00 0.000000e+00 0.000000e+00 4.617791e-01 5.382209e-01
 0.000000e+00 0.000000e+00 0.000000e+00 0.000000e+00 0.000000e+00
<ENDHMM>
~h "kh"
<BEGINHMM>
<NUMSTATES> 5
<STATE> 2
<NUMMIXES> 2
<MIXTURE> 1 3.129302e-01
<MEAN> 39
 -1.795988e+01 -1.508799e-01 5.656195e-02 2.916580e+00 1.366956e+00 3.447173e+00 -1.421732e+00 4.387958e+00 2.011808e-01 -8.755431e-01 7.864976e-02 -2.082959e+00 -8.703907e-01 -3.060205e-01 -2.071133e-01 -6.315599e-02 2.263214e-02 -8.202258e-02 -7.723099e-02 5.582005e-03 9.722397e-02 4.355653e-02 9.854861e-02 1.465463e-01 1.749391e-01 3.150617e-01 3.470092e-02 -1.583273e-01 -4.879229e-03 1.285497e-01 5.247563e-02 -4.672297e-02 -7.092033e-02 2.054457e-02 1.793608e-03 -8.706108e-02 8.453436e-03 3.715469e-02 6.958668e-03
<VARIANCE> 39
 2.027058e+02 9.590963e+01 7.788610e+01 7.049449e+01 6.135474e+01 5.581708e+01 2.770041e+01 3.966892e+01 2.496119e+01 1.895684e+01 1.792164e+01 1.653576e+01 1.451222e+01 3.929420e-01 2.985431e-01 3.201475e-01 5.223629e-01 6.688937e-01 9.458953e-01 7.908635e-01 1.122218e+00 1.168620e+00 9.378313e-01 9.640110e-01 9.036965e-01 7.434660e-01 4.297982e-02 1.230383e-01 6.726773e-02 7.597476e-02 1.295370e-01 2.063372e-01 1.638073e-01 2.737991e-01 2.822506e-01 2.243346e-01 2.163277e-01 2.212149e-01 1.751466e-01
<GCONST> 9.019237e+01
<MIXTURE> 2 6.870698e-01
<MEAN> 39
 -1.661766e+00 3.753513e+00 6.833954e+00 1.550675e+01 1.241122e+01 4.525629e+00 -5.254891e+00 7.208728e+00 -7.261137e-01 -5.457132e+00 2.249688e+00 -6.298755e-01 -1.961432e+00 -1.939540e+00 -2.768258e-01 -2.004379e-02 -7.158796e-01 -8.318384e-01 5.891490e-01 8.271727e-01 -3.669747e-01 3.060805e-01 7.132772e-01 -5.289739e-01 2.213355e-01 8.099922e-01 1.207863e-01 -6.045958e-01 -4.116555e-01 -1.456554e-01 5.621396e-02 1.179228e-02 -1.345165e-01 7.606870e-02 -1.113103e-01 -1.673451e-01 1.630441e-01 -8.865775e-02 -1.042542e-01
<VARIANCE> 39
 1.291736e+02 7.306575e+01 6.511419e+01 1.028290e+02 1.092611e+02 8.179617e+01 1.031003e+02 6.872305e+01 4.514690e+01 7.321454e+01 5.921652e+01 3.824247e+01 6.817706e+01 2.549908e+00 4.994349e+00 1.799402e+00 2.713407e+00 3.308398e+00 3.421798e+00 3.373695e+00 2.866442e+00 2.989627e+00 3.057371e+00 2.535573e+00 1.810827e+00 2.657006e+00 1.459582e-01 5.278174e-01 2.996607e-01 3.004622e-01 3.913769e-01 4.807329e-01 4.241242e-01 4.238761e-01 5.738621e-01 5.384058e-01 4.364938e-01 3.626923e-01 4.365719e-01
<GCONST> 1.289890e+02
<STATE> 3
<NUMMIXES> 2
<MIXTURE> 1 5.751255e-01
<MEAN> 39
 -8.674730e+00 -4.454670e-01 3.301512e+00 1.198651e+01 1.070983e+01 7.658073e+00 -1.854083e+00 6.472547e+00 6.358908e-01 -2.115627e+00 1.259871e+00 -2.966633e-01 1.132720e+00 -1.007875e+00 -2.695319e+00 -2.138381e+00 -1.958553e+00 -1.550737e+00 -1.108829e-01 2.256005e-01 -9.253138e-02 -3.952555e-01 -7.858256e-02 2.507961e-01 -2.784317e-01 1.587016e-01 6.828604e-01 -4.391075e-01 -4.032392e-01 -2.931418e-01 -2.649286e-01 -4.056119e-01 -5.321512e-01 -1.260430e-01 -4.458388e-01 -3.743845e-01 4.072278e-01 -1.495565e-01 -2.993692e-01
<VARIANCE> 39
 1.182231e+02 5.487698e+01 5.032693e+01 6.965363e+01 6.799368e+01 6.937053e+01 6.530635e+01 5.603971e+01 4.932260e+01 5.094494e+01 4.555524e+01 3.044849e+01 4.777863e+01 3.460252e+00 5.848953e+00 3.838712e+00 4.186600e+00 4.289430e+00 5.232169e+00 4.938710e+00 3.844277e+00 4.868172e+00 2.959912e+00 3.377017e+00 3.593855e+00 3.361880e+00 2.498400e-01 5.581490e-01 4.444350e-01 2.979194e-01 4.465917e-01 4.582896e-01 5.346221e-01 4.904933e-01 6.374626e-01 4.620341e-01 5.898525e-01 4.071043e-01 4.681770e-01
<GCONST> 1.321029e+02
<MIXTURE> 2 4.248743e-01
<MEAN> 39
 -7.918630e+00 -1.656373e+01 -1.094198e+01 -1.346602e+00 3.294194e+00 9.511589e+00 -4.081517e+00 1.388180e-01 -1.028233e+01 -5.214622e+00 7.162918e+00 -1.626885e+00 1.851994e+00 1.256221e+00 -2.347127e+00 -6.669673e-01 -1.172878e+00 -1.035157e+00 3.561397e-01 -7.911602e-01 -8.831986e-01 -1.887323e+00 -5.250799e-01 1.695668e+00 -2.087937e-02 2.110898e-02 2.085203e-01 7.206928e-01 1.127127e+00 9.852438e-01 6.542635e-01 3.725931e-01 1.626148e-01 1.711526e-01 3.226880e-01 1.154057e-01 -9.227020e-02 1.764483e-01 3.332618e-02
<VARIANCE> 39
 7.777903e+01 5.459130e+01 3.867176e+01 1.098680e+02 8.913221e+01 1.088921e+02 7.740407e+01 7.332406e+01 8.026183e+01 5.622451e+01 6.193705e+01 3.678044e+01 2.082901e+01 2.675760e+00 3.534110e+00 6.802555e+00 8.457122e+00 5.925851e+00 6.019326e+00 5.793743e+00 4.125992e+00 5.957996e+00 4.689903e+00 3.971268e+00 2.250612e+00 2.389265e+00 4.655073e-01 3.654856e-01 5.197205e-01 6.298016e-01 4.893854e-01 5.595078e-01 8.103184e-01 5.518137e-01 1.178676e+00 8.086569e-01 7.572300e-01 4.102706e-01 4.864048e-01
<GCONST> 1.379047e+02
<STATE> 4
<NUMMIXES> 2
<MIXTURE> 1 7.987303e-01
<MEAN> 39
 -1.913671e+00 -1.906962e+01 3.595898e+00 1.327069e+01 7.019614e+00 1.104515e+01 -6.344353e+00 2.286762e+00 -5.630075e+00 -6.313065e+00 8.356294e+00 -5.193903e-01 3.408823e-01 7.858640e-01 8.028760e-01 7.295149e-01 5.720178e-01 3.663185e-01 -1.455985e-01 -3.740459e-01 -1.572159e-02 9.050304e-02 -2.552088e-01 -1.119647e-01 -3.850865e-02 -2.282526e-01 -1.155057e-02 1.664765e-01 -1.566901e-01 -2.863780e-02 4.275438e-02 -2.160974e-01 -7.008311e-02 5.726878e-03 6.869008e-02 3.338635e-03 -9.363735e-02 -5.436443e-03 -2.689296e-02
<VARIANCE> 39
 8.346062e+01 3.468637e+02 1.000609e+02 1.184042e+02 1.502297e+02 2.441139e+02 1.243607e+02 7.525531e+01 7.764314e+01 6.112123e+01 7.421481e+01 4.819624e+01 4.163844e+01 2.810942e+00 6.800056e+00 3.538918e+00 3.335656e+00 3.802506e+00 5.363081e+00 4.300218e+00 3.357990e+00 3.763952e+00 3.100725e+00 3.730458e+00 1.909963e+00 1.682368e+00 2.545100e-01 5.689229e-01 3.990887e-01 4.108969e-01 5.052963e-01 7.085540e-01 4.973667e-01 4.312538e-01 5.812435e-01 4.275032e-01 4.246315e-01 2.681351e-01 2.761274e-01
<GCONST> 1.362465e+02
<MIXTURE> 2 2.012697e-01
<MEAN> 39
 -2.019721e+01 -1.244532e+01 -6.991290e+00 -1.147441e+00 3.308487e-01 6.787707e+00 4.249249e-01 3.360467e+00 -6.763055e+00 -4.305917e+00 5.614592e+00 3.272629e+00 2.523766e+00 4.927343e-01 -1.455204e-01 1.439292e-01 4.735069e-01 3.650424e-01 1.087721e-01 8.160870e-02 4.114897e-01 3.567578e-01 8.652190e-02 1.807783e-01 2.186943e-01 8.569145e-02 2.534818e-01 1.740757e-01 1.378352e-01 2.273341e-01 1.951687e-01 1.296057e-01 2.862014e-02 1.167529e-01 8.081646e-02 1.377414e-02 5.209334e-03 -8.843663e-02 -2.241293e-02
<VARIANCE> 39
 6.782266e+01 8.171680e+01 2.559962e+01 6.126531e+01 4.701365e+01 7.438412e+01 4.099644e+01 3.991681e+01 6.586302e+01 3.678074e+01 6.065248e+01 3.027065e+01 1.180542e+01 1.279393e+00 1.489366e+00 1.782854e+00 1.650643e+00 1.681423e+00 1.997622e+00 1.964158e+00 2.333021e+00 2.372187e+00 1.629470e+00 1.602027e+00 1.027644e+00 1.109468e+00 1.894355e-01 1.595883e-01 2.158822e-01 2.035192e-01 3.449651e-01 3.320294e-01 3.197467e-01 4.100936e-01 5.233523e-01 3.633412e-01 3.451893e-01 2.664590e-01 2.176005e-01
<GCONST> 1.110105e+02
<TRANSP> 5
 0.000000e+00 1.000000e+00 0.000000e+00 0.000000e+00 0.000000e+00
 0.000000e+00 5.508728e-01 4.491272e-01 0.000000e+00 0.000000e+00
 0.000000e+00 0.000000e+00 7.277910e-01 2.722090e-01 0.000000e+00
 0.000000e+00 0.000000e+00 0.000000e+00 7.815005e-01 2.184995e-01
 0.000000e+00 0.000000e+00 0.000000e+00 0.000000e+00 0.000000e+00
<ENDHMM>
~h "mq"
<BEGINHMM>
<NUMSTATES> 5
<STATE> 2
<NUMMIXES> 2
<MIXTURE> 1 1.000000e+00
<MEAN> 39
 1.393398e+01 -3.661918e+00 -5.535131e-01 8.563508e+00 7.121458e+00 -3.883378e+00 -8.834119e+00 1.753728e+01 -2.492429e+00 -1.494614e+01 8.467627e+00 -1.735090e+00 -8.001377e+00 -1.301931e-01 2.793680e-01 1.133497e-01 5.376464e-01 5.777705e-01 3.550452e-01 -6.142886e-02 -1.510718e+00 -4.683858e-01 9.650900e-01 -1.448519e-01 -2.746284e-01 6.903383e-02 8.266999e-02 2.034616e-01 3.174673e-02 -9.975808e-03 -7.330936e-02 -6.394256e-03 -4.370306e-02 8.342109e-02 3.402958e-01 1.809698e-01 -2.735173e-01 -2.100222e-01 1.147840e-02
<VARIANCE> 39
 1.675909e+02 8.153502e+01 5.921404e+01 1.089513e+02 1.286881e+02 1.088782e+02 2.298901e+02 8.901213e+01 1.344619e+02 6.162030e+01 1.576005e+02 2.430717e+01 6.520641e+01 5.586633e-01 5.082251e-01 7.406820e-01 2.744337e+00 2.031992e+00 2.095500e+00 3.722202e+00 1.142648e+00 1.110877e+00 8.938649e-01 1.594381e+00 1.017797e+00 4.513714e-01 3.561788e-02 6.343950e-02 9.486426e-02 8.920424e-02 8.337437e-02 9.048107e-02 2.053739e-01 2.957619e-01 2.540914e-01 2.589631e-01 2.058984e-01 5.697616e-02 9.622107e-02
<GCONST> 1.048643e+02
<MIXTURE> 2 0.000000e+00
<MEAN> 39
 -9.685755e-07 -6.519258e-07 -1.657754e-07 6.034970e-07 1.440640e-09 1.266599e-07 -8.195639e-08 7.823110e-08 2.533197e-07 1.257285e-08 1.639128e-07 7.078052e-07 2.328306e-08 3.019522e-10 -4.656613e-09 -1.216540e-08 1.164153e-10 1.781154e-08 1.982698e-10 -3.026798e-09 5.587935e-09 -1.746230e-09 4.097819e-08 2.363231e-08 1.315493e-08 -2.043089e-08 -3.744487e-03 2.978991e-04 -4.746468e-04 6.844162e-05 -1.603577e-04 -3.450464e-05 5.754238e-05 -8.061554e-05 1.271995e-04 -1.902887e-04 4.669849e-05 -1.564687e-04 -6.364408e-05
<VARIANCE> 39
 0.000000e+00 0.000000e+00 0.000000e+00 0.000000e+00 0.000000e+00 9.313226e-09 0.000000e+00 3.492460e-10 0.000000e+00 1.473381e-10 1.781154e-08 0.000000e+00 0.000000e+00 0.000000e+00 0.000000e+00 0.000000e+00 2.110312e-12 0.000000e+00 0.000000e+00 1.409717e-11 0.000000e+00 1.318767e-11 3.419700e-10 0.000000e+00 0.000000e+00 0.000000e+00 1.827128e-03 6.024704e-05 5.945166e-05 2.794358e-05 3.412523e-05 3.360989e-05 3.020229e-05 3.188291e-05 2.277736e-05 2.193036e-05 1.852728e-05 2.304439e-05 1.544051e-05
<GCONST> -1.800000e+11
<STATE> 3
<NUMMIXES> 2
<MIXTURE> 1 1.000000e+00
<MEAN> 39
 1.641061e+01 -3.499603e-02 3.123655e-01 7.639577e+00 8.586668e+00 2.450808e+00 -5.602120e+00 1.408382e+01 -7.844808e+00 -1.367469e+01 1.025086e+01 -4.028459e+00 -6.475930e+00 -7.560362e-01 1.585723e+00 8.788784e-01 1.323219e+00 5.465893e-01 2.269985e-01 4.707230e-01 -1.087237e+00 8.105968e-01 8.434105e-01 -2.343323e+00 -3.883430e-01 3.493616e-01 -1.803380e-01 1.189316e-01 1.295641e-01 -4.707168e-02 -1.866820e-01 3.294740e-02 1.059627e-01 5.803318e-02 3.024570e-01 5.741108e-03 -3.696607e-01 3.096838e-02 1.576762e-01
<VARIANCE> 39
 8.053342e+01 5.649251e+01 4.262448e+01 6.934222e+01 9.630118e+01 8.624936e+01 1.521017e+02 8.142613e+01 9.192027e+01 4.227637e+01 1.681392e+02 2.401626e+01 4.029712e+01 1.721085e+00 2.033950e+00 2.440003e+00 1.919187e+00 9.689347e-01 1.410211e+00 3.346018e+00 9.910663e-01 2.074362e+00 1.032253e+00 5.648437e+00 1.367447e+00 9.687811e-01 8.636680e-02 2.229697e-01 1.832118e-01 2.284950e-01 1.819792e-01 8.919936e-02 4.961317e-01 2.768622e-01 4.079551e-01 2.116705e-01 6.340148e-01 1.227941e-01 9.695603e-02
<GCONST> 1.133223e+02
<MIXTURE> 2 0.000000e+00
<MEAN> 39
 1.769513e-08 2.514571e-08 -9.313226e-09 1.443550e-08 7.078052e-08 3.911555e-08 -6.798655e-08 3.725290e-09 -1.192093e-07 4.773028e-08 -2.095476e-08 3.818423e-08 3.492460e-09 -1.477929e-11 -3.783498e-10 1.746230e-10 1.011358e-09 1.149601e-09 4.911271e-10 2.779416e-09 1.760782e-09 3.929017e-10 5.966285e-10 -5.209586e-09 2.590241e-09 4.249159e-09 -2.047057e-02 1.739704e-03 -2.860196e-03 4.944406e-04 -9.179143e-04 -4.275220e-04 -1.494129e-04 -1.110907e-03 -5.215620e-04 -1.377407e-03 -4.617415e-04 -8.713729e-04 -4.312473e-04
<VARIANCE> 39
 0.000000e+00 1.964509e-09 0.000000e+00 3.888090e-11 0.000000e+00 0.000000e+00 0.000000e+00 0.000000e+00 1.804437e-09 3.074092e-10 3.783498e-10 0.000000e+00 3.836931e-13 0.000000e+00 2.060574e-13 0.000000e+00 1.962874e-13 1.108447e-12 1.085798e-13 0.000000e+00 8.490986e-13 0.000000e+00 0.000000e+00 4.021672e-12 0.000000e+00 1.989520e-13 1.418590e-02 4.708500e-04 6.059122e-04 2.832045e-04 2.438255e-04 1.964814e-04 2.386844e-04 2.203498e-04 2.247814e-04 1.830704e-04 2.037936e-04 1.436218e-04 1.237932e-04
<GCONST> -1.300000e+11
<STATE> 4
<NUMMIXES> 2
<MIXTURE> 1 1.000000e+00
<MEAN> 39
 7.376482e+00 -5.276299e-02 1.291170e+00 1.054560e+01 7.620100e+00 -2.587820e+00 -7.853090e+00 1.214947e+01 3.210944e-02 -9.994119e+00 1.733748e+00 -3.029545e+00 -6.289710e+00 -2.671323e-01 6.400179e-01 4.748501e-01 4.099791e-01 5.313628e-03 2.268155e-01 -1.455445e-01 -7.226723e-01 5.126504e-01 6.850161e-01 -8.496295e-01 -1.143329e-01 4.021731e-01 -5.756989e-02 -2.270943e-01 1.315953e-01 -2.761039e-02 -1.472566e-01 9.204160e-02 3.400684e-02 4.646481e-02 -6.783264e-02 -1.094967e-01 1.726608e-01 1.039358e-01 1.298728e-01
<VARIANCE> 39
 3.070677e+02 1.130775e+02 7.645646e+01 1.058184e+02 1.327703e+02 9.200629e+01 1.439911e+02 8.554407e+01 6.551261e+01 6.098496e+01 1.190549e+02 2.100903e+01 4.733211e+01 1.238845e+00 8.516513e-01 1.957432e+00 8.506804e-01 1.595178e+00 9.254355e-01 1.572579e+00 1.654274e+00 1.404492e+00 8.846017e-01 2.389952e+00 1.201047e+00 8.758084e-01 9.403826e-02 5.534865e-01 1.491114e-01 2.459553e-01 2.884063e-01 1.896978e-01 2.785757e-01 2.021814e-01 3.809972e-01 2.802240e-01 2.665456e-01 1.993628e-01 1.262924e-01
<GCONST> 1.136979e+02
<MIXTURE> 2 0.000000e+00
<MEAN> 39
 0.000000e+00 0.000000e+00 0.000000e+00 0.000000e+00 0.000000e+00 0.000000e+00 0.000000e+00 0.000000e+00 0.000000e+00 0.000000e+00 0.000000e+00 0.000000e+00 0.000000e+00 0.000000e+00 0.000000e+00 0.000000e+00 0.000000e+00 0.000000e+00 0.000000e+00 0.000000e+00 0.000000e+00 0.000000e+00 0.000000e+00 0.000000e+00 0.000000e+00 0.000000e+00 -7.323198e-02 1.123042e-02 -1.038370e-02 1.682460e-03 -2.594927e-03 -1.410091e-03 -1.503533e-03 -3.022441e-03 -2.858302e-03 -3.888699e-03 -2.411382e-03 -1.670942e-03 -2.166644e-03
<VARIANCE> 39
 0.000000e+00 0.000000e+00 0.000000e+00 0.000000e+00 0.000000e+00 0.000000e+00 0.000000e+00 0.000000e+00 0.000000e+00 0.000000e+00 0.000000e+00 0.000000e+00 0.000000e+00 0.000000e+00 0.000000e+00 0.000000e+00 0.000000e+00 0.000000e+00 0.000000e+00 0.000000e+00 0.000000e+00 0.000000e+00 0.000000e+00 0.000000e+00 0.000000e+00 0.000000e+00 6.110287e-02 6.616157e-03 5.196090e-03 3.621858e-03 3.050250e-03 4.287072e-03 4.344802e-03 3.931833e-03 3.373807e-03 2.996578e-03 2.947920e-03 2.834462e-03 2.042745e-03
<GCONST> -2.600001e+11
<TRANSP> 5
 0.000000e+00 1.000000e+00 0.000000e+00 0.000000e+00 0.000000e+00
 0.000000e+00 1.196512e-02 9.880349e-01 0.000000e+00 0.000000e+00
 0.000000e+00 0.000000e+00 5.943092e-01 4.056908e-01 0.000000e+00
 0.000000e+00 0.000000e+00 0.000000e+00 1.229750e-01 8.770250e-01
 0.000000e+00 0.000000e+00 0.000000e+00 0.000000e+00 0.000000e+00
<ENDHMM>
~h "nj"
<BEGINHMM>
<NUMSTATES> 5
<STATE> 2
<NUMMIXES> 2
<MIXTURE> 1 6.448376e-01
<MEAN> 39
 2.500529e+00 4.883284e+00 9.640644e+00 7.663284e+00 8.983262e+00 1.102280e+00 -1.110930e+01 -4.794134e+00 -1.288087e+00 -5.336167e+00 -8.651181e+00 -5.994543e+00 -4.689224e+00 -8.037093e-03 3.616399e-01 2.282659e-01 1.904264e-01 -7.341486e-02 2.493188e-01 -1.645973e-01 1.039757e-01 1.836264e-01 -2.358938e-02 -1.693905e-01 -2.100465e-01 6.134257e-02 -2.933799e-02 -8.245458e-02 -2.934181e-02 -2.555616e-02 -3.167558e-02 -6.560107e-02 9.943750e-02 4.022849e-02 -2.891495e-02 -3.393753e-02 8.488162e-02 6.642201e-02 -4.307508e-02
<VARIANCE> 39
 2.984620e+01 6.743415e+01 3.440329e+01 6.486826e+01 9.630917e+01 1.111856e+02 7.206052e+01 3.914428e+01 4.361893e+01 6.400179e+01 5.133936e+01 4.753320e+01 6.246100e+01 3.205257e-01 9.356377e-01 8.799419e-01 1.011097e+00 1.131665e+00 1.602336e+00 1.676275e+00 1.622988e+00 1.393007e+00 1.544790e+00 1.534638e+00 1.262773e+00 1.005133e+00 5.129976e-02 1.324087e-01 1.310566e-01 1.649362e-01 1.886846e-01 2.602298e-01 2.799097e-01 2.472048e-01 2.361487e-01 2.447439e-01 2.395605e-01 1.899032e-01 1.721881e-01
<GCONST> 1.035840e+02
<MIXTURE> 2 3.551624e-01
<MEAN> 39
 2.709807e+00 8.928315e+00 1.147999e+01 -1.502002e+00 5.525277e+00 -1.202266e+01 -1.337622e+01 -2.554715e-01 -4.602529e+00 -1.768139e+01 -1.319073e+01 -1.517253e+01 -1.372431e+01 -3.641024e-02 1.717343e-01 7.861748e-02 2.967181e-02 -1.046537e-01 -5.441139e-03 -2.671677e-02 6.079637e-02 1.669364e-01 -1.932618e-01 -2.864245e-01 5.561825e-02 9.325963e-02 -4.810160e-02 -6.521460e-02 -1.482642e-02 1.193514e-02 -1.650132e-02 -1.109369e-02 1.465435e-01 -1.707742e-01 -4.778483e-02 1.308504e-01 6.270327e-02 7.036697e-02 2.437993e-02
<VARIANCE> 39
 2.806140e+00 1.555293e+01 1.314208e+01 1.840736e+01 2.262506e+01 2.127437e+01 3.199649e+01 3.318005e+01 3.093358e+01 4.198512e+01 4.848846e+01 2.774301e+01 2.260729e+01 5.275457e-02 2.340834e-01 2.735551e-01 3.459295e-01 4.041417e-01 4.254854e-01 6.606404e-01 7.842113e-01 6.592637e-01 7.675110e-01 6.076438e-01 6.638942e-01 4.363255e-01 1.427971e-02 5.345663e-02 5.262011e-02 7.491710e-02 9.308103e-02 1.030196e-01 1.470128e-01 1.566586e-01 1.284100e-01 1.334793e-01 1.117656e-01 1.170488e-01 9.097067e-02
<GCONST> 6.805726e+01
<STATE> 3
<NUMMIXES> 2
<MIXTURE> 1 5.768365e-01
<MEAN> 39
 -1.650130e+00 4.293084e+00 1.251531e+01 7.997261e+00 8.073728e+00 -5.246037e-01 -5.022378e+00 -3.656913e+00 -1.169887e+00 -5.260289e+00 -6.472120e+00 -5.230941e+00 -5.362416e+00 -2.457572e-01 -1.055694e+00 5.425199e-02 6.005565e-02 -8.472940e-02 -6.629400e-01 5.229853e-01 -3.181231e-01 -3.388248e-01 -7.298808e-02 3.639769e-01 1.593710e-01 -1.386185e-01 1.520792e-02 -1.310300e-01 -6.702862e-02 -3.907461e-02 5.318189e-02 -1.073812e-01 -1.160357e-01 4.202005e-03 -2.860112e-02 -1.644950e-02 3.863433e-02 3.098836e-02 1.592401e-03
<VARIANCE> 39
 3.918433e+01 6.900724e+01 3.661243e+01 5.426512e+01 7.157546e+01 9.625215e+01 7.617765e+01 5.381805e+01 4.801081e+01 6.558137e+01 4.535140e+01 4.882023e+01 3.880204e+01 1.803826e+00 4.185937e+00 2.995981e+00 3.165112e+00 2.961892e+00 4.166068e+00 5.236826e+00 3.490489e+00 2.493116e+00 2.927037e+00 2.647161e+00 2.256471e+00 1.742612e+00 2.675167e-01 6.951686e-01 5.092847e-01 5.361979e-01 4.958111e-01 6.914724e-01 8.867679e-01 5.816731e-01 4.441610e-01 4.559211e-01 3.934963e-01 3.435938e-01 2.966835e-01
<GCONST> 1.282403e+02
<MIXTURE> 2 4.231635e-01
<MEAN> 39
 1.295004e+01 -1.990565e+00 1.135198e+01 1.051720e+01 -6.057696e+00 5.887888e+00 -1.010513e+01 -1.137384e+01 1.444680e+00 -1.270348e+01 -1.434898e+01 -7.786644e+00 -1.003824e+01 -9.293678e-02 2.690157e-01 1.644063e-01 -4.434790e-02 4.908991e-03 -1.315278e-02 2.359147e-02 2.516896e-02 3.590895e-02 -1.700219e-02 -1.722138e-01 -5.740685e-02 3.323376e-02 -9.219238e-03 -9.527378e-02 1.038478e-02 5.471010e-02 -4.705711e-02 -1.766123e-03 5.385786e-02 9.632568e-03 -1.593223e-02 1.461344e-02 6.699349e-02 4.784431e-02 -4.166522e-02
<VARIANCE> 39
 3.856699e+00 2.329041e+01 2.029645e+01 2.178050e+01 2.279533e+01 2.924805e+01 4.529770e+01 3.117255e+01 4.292793e+01 9.096780e+01 3.922691e+01 2.936979e+01 2.970384e+01 1.036110e-01 3.492112e-01 2.670597e-01 3.809765e-01 4.285590e-01 5.403163e-01 4.986794e-01 4.888597e-01 5.781164e-01 5.797477e-01 5.508767e-01 4.750876e-01 4.293715e-01 1.962212e-02 7.488119e-02 4.759888e-02 7.101423e-02 9.162906e-02 9.864736e-02 9.496345e-02 9.101721e-02 1.042438e-01 1.084253e-01 8.732623e-02 8.894771e-02 7.543494e-02
<GCONST> 6.937938e+01
<STATE> 4
<NUMMIXES> 2
<MIXTURE> 1 6.193125e-01
<MEAN> 39
 1.028075e+01 -1.288878e+01 1.373863e+01 1.291313e+01 -1.063704e+01 3.015265e+00 -1.051210e+01 -9.272548e+00 1.731557e+00 -1.466234e+01 -7.812191e+00 -3.781766e+00 -1.403609e+01 -1.313824e-01 -1.218131e+00 -2.753857e-02 8.111192e-02 -5.507110e-01 -1.762661e-01 1.277021e-02 -2.771645e-02 9.013085e-02 -2.377615e-02 5.405732e-01 4.540587e-01 -2.427453e-01 1.725942e-02 3.638613e-02 -6.293325e-02 -6.635727e-02 3.109851e-02 -2.954077e-03 -4.337660e-02 -9.599536e-03 -1.934156e-02 8.019480e-03 4.517408e-03 -5.125827e-03 2.411142e-02
<VARIANCE> 39
 5.360118e+01 1.147594e+02 5.651950e+01 4.958639e+01 6.452203e+01 8.099206e+01 6.030843e+01 4.255379e+01 4.687903e+01 6.013706e+01 5.901341e+01 4.074115e+01 4.006900e+01 1.196394e+00 4.081296e+00 2.274762e+00 1.764822e+00 2.229019e+00 2.915065e+00 2.342601e+00 1.784886e+00 1.712513e+00 1.735224e+00 1.473653e+00 1.255965e+00 1.251955e+00 1.512755e-01 5.907288e-01 2.923045e-01 2.467913e-01 3.750200e-01 4.103101e-01 3.571459e-01 2.759851e-01 2.797883e-01 2.719341e-01 2.224235e-01 2.094979e-01 1.860853e-01
<GCONST> 1.158219e+02
<MIXTURE> 2 3.806876e-01
<MEAN> 39
 7.986883e-01 -2.793469e+00 4.055068e+00 2.384333e+00 1.088714e+01 -1.595118e+01 -9.973896e+00 -5.408926e+00 -6.926043e+00 -7.952407e+00 -2.742266e+00 -4.678221e+00 -8.477713e+00 1.703769e-01 -3.709843e-01 -7.981473e-01 -6.735662e-01 5.414159e-02 -6.422171e-01 -1.553994e-01 1.988008e-01 -1.845535e-01 -3.992972e-03 4.756051e-01 5.521997e-01 5.975723e-02 -9.899956e-03 9.672721e-02 2.898581e-02 -8.035121e-02 -5.190688e-02 1.995320e-01 1.440018e-01 3.425548e-02 4.790647e-02 -3.596259e-02 -8.568133e-02 2.389571e-02 3.080674e-02
<VARIANCE> 39
 9.078952e+00 3.836557e+01 4.360814e+01 6.360629e+01 1.041817e+02 1.081912e+02 7.833575e+01 4.377275e+01 4.398346e+01 6.020568e+01 4.762598e+01 8.173207e+01 5.883461e+01 1.580081e-01 6.745912e-01 6.551996e-01 1.306109e+00 1.275327e+00 2.599120e+00 1.752467e+00 1.489350e+00 1.622001e+00 1.614136e+00 1.536328e+00 1.120704e+00 1.123707e+00 2.352860e-02 7.751360e-02 8.667944e-02 1.638183e-01 1.665535e-01 2.938957e-01 2.637431e-01 2.522829e-01 2.238973e-01 2.590835e-01 2.209582e-01 1.880653e-01 1.505378e-01
<GCONST> 1.003273e+02
<TRANSP> 5
 0.000000e+00 1.000000e+00 0.000000e+00 0.000000e+00 0.000000e+00
 0.000000e+00 8.560609e-01 1.439391e-01 0.000000e+00 0.000000e+00
 0.000000e+00 0.000000e+00 8.582612e-01 1.417388e-01 0.000000e+00
 0.000000e+00 0.000000e+00 0.000000e+00 8.322633e-01 1.677367e-01
 0.000000e+00 0.000000e+00 0.000000e+00 0.000000e+00 0.000000e+00
<ENDHMM>
~h "nx"
<BEGINHMM>
<NUMSTATES> 5
<STATE> 2
<NUMMIXES> 2
<MIXTURE> 1 9.999993e-01
<MEAN> 39
 2.039322e+01 1.560745e+00 -7.861113e+00 6.190428e-01 1.581805e+01 8.939457e+00 -1.286754e+01 5.389045e+00 -6.826452e+00 -1.685690e+01 5.651731e+00 -1.617372e+00 -5.517306e+00 -3.279684e-01 2.762876e-01 6.697056e-01 8.080938e-01 1.365829e-01 4.898250e-03 3.807772e-01 -2.399601e-01 -1.942098e-01 9.810096e-02 -3.498623e-01 -1.902609e-01 -1.531727e-01 -2.564489e-02 -1.348192e-02 1.278615e-02 5.845471e-02 -1.985051e-02 -1.072378e-02 6.612429e-02 -2.220021e-02 -1.759949e-03 5.303146e-02 -4.500248e-02 2.225775e-03 4.978348e-02
<VARIANCE> 39
 2.949437e+01 3.269840e+01 7.232771e+01 1.434738e+02 4.159044e+01 6.781982e+01 9.220441e+01 5.039218e+01 3.435365e+01 2.893130e+01 7.094276e+01 1.408851e+01 3.129435e+01 4.615392e-01 5.570970e-01 1.366822e+00 2.858554e+00 1.056213e+00 1.608698e+00 3.420538e+00 1.950108e+00 1.134941e+00 1.634435e+00 2.466298e+00 7.770818e-01 7.710176e-01 6.406070e-02 9.587631e-02 2.080599e-01 2.978545e-01 1.567198e-01 1.837699e-01 3.986661e-01 2.923462e-01 1.674710e-01 2.404943e-01 2.661105e-01 1.362551e-01 1.128569e-01
<GCONST> 1.025965e+02
<MIXTURE> 2 0.000000e+00
<MEAN> 39
 1.361686e+01 -1.383072e+00 7.618060e+00 1.232223e+01 -2.383529e+00 8.959254e+00 -1.035662e+01 -1.021862e+01 8.851387e+00 -8.332142e+00 -1.389112e+01 -1.311377e+00 -7.191798e+00 -1.457334e-01 3.850303e-01 1.832990e-01 7.829956e-02 1.980715e-01 -5.036991e-02 -1.340757e-01 -1.179461e-01 -3.900307e-02 1.584407e-01 2.003755e-02 -8.778737e-02 -5.617338e-02 -8.385319e-04 -4.167615e-02 -5.001837e-02 5.873689e-03 7.726591e-03 -9.950018e-03 4.415042e-02 -3.027088e-03 -5.418176e-02 3.586245e-02 5.732016e-02 -7.334471e-04 -7.240163e-03
<VARIANCE> 39
 2.374427e+00 2.125168e+01 1.217588e+01 1.771664e+01 1.535122e+01 2.714209e+01 2.611153e+01 3.003095e+01 4.948417e+01 3.589555e+01 2.532868e+01 2.865796e+01 2.461707e+01 5.158678e-02 1.692707e-01 2.307495e-01 3.434558e-01 3.976840e-01 4.632231e-01 5.185775e-01 4.969022e-01 5.959083e-01 6.742363e-01 5.816705e-01 4.702742e-01 4.794611e-01 8.847732e-03 2.771878e-02 3.858319e-02 5.424614e-02 6.815128e-02 7.742334e-02 8.735045e-02 8.348746e-02 1.017274e-01 9.737392e-02 8.988705e-02 7.854709e-02 8.157872e-02
<GCONST> 6.095366e+01
<STATE> 3
<NUMMIXES> 2
<MIXTURE> 1 5.390552e-01
<MEAN> 39
 1.367089e+01 8.204523e+00 1.055489e+01 2.041574e+01 1.218250e+01 -4.862178e+00 -1.139990e+01 7.835478e+00 -1.999264e-01 -1.176447e+01 -2.438201e+00 -4.668542e+00 -1.091360e+01 -4.813564e-02 1.572589e-01 2.943133e-01 -5.914952e-02 -3.519546e-02 1.994320e-01 -6.075455e-02 -4.130306e-01 -1.787637e-01 8.705010e-02 8.833531e-02 1.275872e-01 5.646916e-02 5.398086e-02 -1.904806e-02 -9.077567e-02 -8.293507e-02 -5.687893e-03 8.840398e-02 5.804541e-02 6.838557e-02 -3.064208e-02 -5.337504e-02 -7.992291e-02 -6.655073e-02 6.429704e-02
<VARIANCE> 39
 1.429481e+01 7.067043e+01 2.571203e+01 2.738358e+01 1.008224e+02 1.270275e+02 9.580094e+01 8.682603e+01 3.939161e+01 2.388062e+01 1.693959e+01 2.392043e+01 2.255275e+01 9.906889e-02 1.968966e-01 2.694708e-01 4.987311e-01 3.846690e-01 2.781782e-01 3.713627e-01 6.670654e-01 3.991973e-01 7.072311e-01 3.049978e-01 4.238214e-01 2.461967e-01 1.697924e-02 4.008950e-02 4.134485e-02 8.755641e-02 5.505363e-02 6.182328e-02 6.980918e-02 6.359004e-02 8.828244e-02 1.202003e-01 6.321304e-02 4.684020e-02 4.536274e-02
<GCONST> 6.784128e+01
<MIXTURE> 2 4.609448e-01
<MEAN> 39
 9.719131e+00 4.637558e+00 5.544287e+00 1.268915e+01 1.263538e+01 5.516997e+00 -5.638271e+00 4.316678e+00 -6.779526e+00 -1.154474e+01 4.730521e-01 -2.767723e+00 -5.137424e+00 -5.508033e-01 -2.952930e-01 1.822442e-01 1.881247e-01 3.686541e-02 7.494552e-01 6.377200e-01 -3.928874e-01 2.364206e-01 8.503606e-01 -4.516876e-01 -1.019081e-01 9.534673e-01 1.263225e-01 -4.274168e-01 -3.839003e-01 -3.657624e-01 -1.141692e-01 -1.019964e-02 -1.062805e-01 3.834931e-01 9.152681e-02 -9.237505e-02 3.439146e-01 8.221582e-03 5.009999e-02
<VARIANCE> 39
 1.313143e+02 1.172179e+02 1.075913e+02 1.336227e+02 1.042850e+02 9.254070e+01 8.089573e+01 5.535327e+01 4.043076e+01 6.613899e+01 7.352215e+01 1.644349e+01 4.615321e+01 1.139764e+00 2.947878e+00 1.940683e+00 1.589563e+00 1.489262e+00 2.105532e+00 2.138611e+00 2.856359e+00 1.454833e+00 2.649677e+00 1.841560e+00 1.039526e+00 1.567828e+00 1.167510e-01 3.646474e-01 3.722162e-01 3.559292e-01 2.404064e-01 2.006078e-01 2.652376e-01 3.050990e-01 2.857559e-01 2.922675e-01 4.737288e-01 1.723160e-01 2.589902e-01
<GCONST> 1.179709e+02
<STATE> 4
<NUMMIXES> 2
<MIXTURE> 1 3.618001e-01
<MEAN> 39
 1.420940e+01 5.441485e+00 7.448110e+00 1.662681e+01 1.556263e+01 4.207067e-01 -1.443480e+01 5.888728e+00 -2.345545e+00 -1.273158e+01 2.051628e+00 -3.701444e+00 -9.209237e+00 -2.242815e-01 1.122467e-01 -1.878370e-02 -1.449472e-01 2.446645e-02 4.834372e-01 6.172202e-01 1.520361e-01 -9.873419e-02 6.615618e-02 3.694513e-02 -7.708333e-02 1.121188e-01 -9.022439e-04 -3.183498e-02 -6.395475e-02 -8.886266e-02 -5.693482e-02 2.086943e-02 1.282339e-01 1.163552e-01 -1.980156e-03 -1.530360e-03 2.148479e-02 -3.476463e-03 3.779948e-02
<VARIANCE> 39
 3.819235e+01 1.036995e+02 4.016012e+01 7.796796e+01 6.958018e+01 1.342368e+02 1.597763e+02 9.075371e+01 8.416700e+01 6.125117e+01 1.027174e+02 2.874055e+01 3.843651e+01 2.987216e-01 5.446702e-01 6.106570e-01 9.196515e-01 6.000959e-01 7.001337e-01 1.360267e+00 1.106396e+00 1.144748e+00 1.050014e+00 1.443098e+00 7.303538e-01 6.386539e-01 3.365730e-02 8.620318e-02 7.467747e-02 1.754689e-01 9.406195e-02 9.622059e-02 2.071390e-01 1.756355e-01 1.303592e-01 1.547102e-01 2.211681e-01 1.301470e-01 8.589524e-02
<GCONST> 9.575631e+01
<MIXTURE> 2 6.381998e-01
<MEAN> 39
 1.478408e+01 2.646445e+00 1.488348e+00 9.403651e+00 1.395678e+01 6.033243e+00 -8.137319e+00 7.232559e+00 -9.576365e+00 -1.596095e+01 6.874268e+00 -2.317639e+00 -7.328438e+00 -9.250296e-02 -6.521221e-01 -1.149636e-01 -2.706439e-01 -3.004804e-01 -1.878524e-01 -2.813462e-01 4.574491e-01 -2.222731e-01 -1.787368e-01 9.940026e-01 1.705609e-01 -1.319683e-01 -1.515196e-02 -1.808763e-02 2.118869e-02 2.029891e-02 -8.589886e-03 -5.284686e-02 -7.062760e-02 1.868202e-02 1.320519e-02 -4.820929e-02 2.198153e-02 1.739543e-02 -2.118962e-02
<VARIANCE> 39
 8.041071e+01 5.999951e+01 5.957096e+01 6.170670e+01 4.381033e+01 4.277631e+01 5.938441e+01 7.393364e+01 8.289331e+01 8.378685e+01 1.343707e+02 2.237990e+01 3.718996e+01 1.625673e+00 4.033532e+00 2.828501e+00 3.484511e+00 1.945888e+00 1.712629e+00 3.794477e+00 4.755417e+00 2.734220e+00 4.270697e+00 9.809783e+00 1.885325e+00 2.765003e+00 1.337032e-01 3.367947e-01 3.209110e-01 3.936303e-01 2.623433e-01 2.265319e-01 4.125511e-01 5.415590e-01 3.862761e-01 5.117154e-01 1.028151e+00 2.466074e-01 3.433257e-01
<GCONST> 1.258658e+02
<TRANSP> 5
 0.000000e+00 1.000000e+00 0.000000e+00 0.000000e+00 0.000000e+00
 0.000000e+00 8.870558e-01 1.129443e-01 0.000000e+00 0.000000e+00
 0.000000e+00 0.000000e+00 3.875502e-01 6.124498e-01 0.000000e+00
 0.000000e+00 0.000000e+00 0.000000e+00 8.688981e-01 1.311019e-01
 0.000000e+00 0.000000e+00 0.000000e+00 0.000000e+00 0.000000e+00
<ENDHMM>
~h "ou"
<BEGINHMM>
<NUMSTATES> 7
<STATE> 2
<NUMMIXES> 2
<MIXTURE> 1 0.000000e+00
<MEAN> 39
 2.950430e-05 -1.596659e-05 2.567470e-05 -3.993511e-06 -5.960464e-07 1.929002e-07 -1.204014e-05 8.247793e-06 -1.933426e-06 2.965331e-06 -1.872890e-06 -3.390014e-05 -2.196059e-06 2.152519e-07 -1.188600e-07 -1.470326e-07 2.579764e-07 1.881272e-07 -7.177005e-08 7.529743e-07 5.150214e-07 -5.541369e-08 5.667098e-07 8.731149e-08 2.587331e-08 -1.939479e-07 -6.008020e-02 6.977572e-03 -1.033811e-02 -1.313004e-03 -2.156086e-03 -2.000537e-03 2.022802e-04 5.487027e-04 1.507605e-03 -2.313650e-03 -2.747252e-04 -8.833668e-04 -1.887041e-04
<VARIANCE> 39
 0.000000e+00 0.000000e+00 0.000000e+00 1.138542e-07 1.933426e-06 0.000000e+00 0.000000e+00 4.717149e-07 0.000000e+00 0.000000e+00 0.000000e+00 0.000000e+00 1.194421e-07 0.000000e+00 5.235279e-10 2.760316e-10 0.000000e+00 0.000000e+00 3.660716e-11 1.359149e-08 8.079951e-09 2.454215e-11 0.000000e+00 0.000000e+00 1.390887e-11 0.000000e+00 5.130608e-02 3.996924e-03 4.374815e-03 3.314181e-03 3.503656e-03 3.531398e-03 3.649473e-03 3.541191e-03 3.137489e-03 2.687086e-03 2.360017e-03 1.943796e-03 1.500225e-03
<GCONST> -1.500000e+11
<MIXTURE> 2 1.000000e+00
<MEAN> 39
 -1.135447e-01 -4.167524e+00 -2.514911e+00 3.194478e+00 -4.667392e-01 -4.489056e+00 -6.213529e+00 1.229120e+01 1.993586e-01 -8.433456e+00 1.542739e+00 9.440977e-01 1.978150e+00 -2.114832e-02 -8.044315e-02 -6.467784e-01 -2.381308e-01 -4.719555e-01 -1.275165e+00 -4.925768e-01 3.409237e-01 5.110348e-01 7.842503e-02 -4.265711e-02 6.832220e-02 -2.804904e-01 -4.288717e-02 -5.451404e-04 1.162021e-01 6.525268e-02 2.608838e-02 7.232158e-02 1.038847e-02 -4.118259e-02 7.232660e-02 1.041230e-01 -2.013689e-02 -4.560574e-02 -3.679752e-02
<VARIANCE> 39
 3.559856e+02 8.847572e+01 9.313168e+01 8.605360e+01 1.029360e+02 2.013740e+02 1.048959e+02 1.285930e+02 1.039592e+02 8.598323e+01 4.400841e+01 3.126884e+01 3.701626e+01 5.845995e+00 3.453274e+00 3.263928e+00 2.682078e+00 3.361256e+00 4.695391e+00 3.585385e+00 4.681156e+00 3.169229e+00 3.209723e+00 2.487119e+00 1.864083e+00 1.720269e+00 3.697297e-01 3.368528e-01 3.761928e-01 3.130416e-01 3.886969e-01 5.142477e-01 4.624529e-01 5.495457e-01 3.885571e-01 4.434567e-01 3.619173e-01 2.566165e-01 2.328007e-01
<GCONST> 1.327646e+02
<STATE> 3
<NUMMIXES> 2
<MIXTURE> 1 0.000000e+00
<MEAN> 39
 0.000000e+00 0.000000e+00 0.000000e+00 0.000000e+00 0.000000e+00 0.000000e+00 0.000000e+00 0.000000e+00 0.000000e+00 0.000000e+00 0.000000e+00 0.000000e+00 0.000000e+00 6.126449e-30 -5.464483e-30 2.270194e-30 -1.821515e-31 4.406674e-31 -1.213802e-30 9.256382e-31 -1.708705e-31 6.429896e-32 -4.287194e-31 4.667875e-31 -1.477681e-31 3.115776e-33 -5.948948e-02 7.116884e-03 -1.043719e-02 -1.810754e-03 -2.071288e-03 -1.224210e-03 1.069486e-03 9.119928e-04 2.393554e-03 -1.654138e-03 -8.557731e-05 -5.460818e-04 -2.131514e-04
<VARIANCE> 39
 0.000000e+00 0.000000e+00 0.000000e+00 0.000000e+00 0.000000e+00 0.000000e+00 0.000000e+00 0.000000e+00 0.000000e+00 0.000000e+00 0.000000e+00 0.000000e+00 0.000000e+00 7.215268e-30 5.740278e-30 9.907425e-31 6.378229e-33 3.732989e-32 2.832244e-31 1.647090e-31 5.612664e-33 7.947721e-34 3.533306e-32 4.188642e-32 4.197554e-33 1.866239e-36 5.242730e-02 4.308010e-03 4.828463e-03 3.723914e-03 3.905280e-03 3.459802e-03 3.704401e-03 3.736516e-03 3.287535e-03 2.844681e-03 2.523395e-03 2.245883e-03 1.678810e-03
<GCONST> -1.300000e+11
<MIXTURE> 2 1.000000e+00
<MEAN> 39
 -2.304573e+01 -6.039526e+00 -4.904165e+00 -2.046400e+00 -3.132412e+00 8.498192e-03 -3.695594e+00 3.044026e+00 -9.176102e-01 -1.279134e+00 9.296782e-01 -5.265789e-01 2.332058e-01 -3.246954e-02 -3.276350e-02 -1.262019e-02 9.938863e-03 -5.615881e-02 -6.945547e-02 -5.103512e-02 -2.589464e-02 5.430408e-02 4.090739e-02 3.506467e-03 -5.924879e-03 9.179141e-03 3.563585e-02 2.078666e-02 2.274247e-02 1.957733e-02 1.630526e-02 3.011662e-02 2.040262e-02 -6.639403e-03 -1.601134e-02 -4.413045e-03 7.027792e-03 1.180252e-02 2.088540e-02
<VARIANCE> 39
 1.365184e+02 1.260210e+01 1.640185e+01 2.731334e+01 2.188523e+01 4.300670e+01 2.385686e+01 4.299020e+01 2.600553e+01 2.668226e+01 1.347113e+01 1.249548e+01 1.157438e+01 3.957533e-01 2.847240e-01 4.655021e-01 6.412605e-01 8.309252e-01 9.971519e-01 1.068737e+00 1.122691e+00 1.450502e+00 1.241399e+00 9.887240e-01 9.419412e-01 9.107662e-01 4.504628e-02 5.970449e-02 8.996066e-02 1.278901e-01 1.596218e-01 1.899675e-01 2.289059e-01 2.243768e-01 2.783882e-01 2.575275e-01 2.090137e-01 2.027004e-01 1.977901e-01
<GCONST> 8.588962e+01
<STATE> 4
<NUMMIXES> 2
<MIXTURE> 1 1.000000e+00
<MEAN> 39
 -9.022364e+00 -4.806905e+00 -3.446164e+00 2.557260e+00 -1.134577e+00 -5.538365e+00 -6.824447e+00 8.685793e+00 2.285861e+00 -4.691322e+00 8.302033e-01 1.728845e-01 -5.517721e-01 2.356326e-01 -8.239207e-02 -2.134862e-02 7.243732e-02 -1.576174e-01 -2.585223e-01 -6.720467e-02 1.697128e-01 2.851378e-01 2.095112e-01 5.058294e-02 2.591222e-02 3.492577e-02 1.402019e-01 8.395036e-02 5.456625e-02 8.000695e-02 3.918050e-02 -1.674248e-02 -5.869162e-02 8.362837e-02 -3.317359e-02 -5.567160e-02 8.387376e-02 3.641400e-02 3.398327e-02
<VARIANCE> 39
 4.375175e+02 4.498299e+01 5.778612e+01 7.281801e+01 6.017440e+01 1.565127e+02 6.256899e+01 1.056256e+02 6.685478e+01 5.990764e+01 3.019297e+01 1.943452e+01 2.414267e+01 1.581474e+00 6.084688e-01 9.047634e-01 5.765043e-01 9.552393e-01 1.341647e+00 9.111953e-01 9.814634e-01 9.074613e-01 8.886061e-01 9.809898e-01 7.202023e-01 4.942508e-01 1.272387e-01 1.007965e-01 1.170381e-01 9.903780e-02 1.516814e-01 1.882610e-01 1.409521e-01 1.903140e-01 1.753078e-01 1.729013e-01 1.402097e-01 1.384761e-01 1.261186e-01
<GCONST> 9.839296e+01
<MIXTURE> 2 0.000000e+00
<MEAN> 39
 1.208484e-05 -8.553267e-06 -2.384186e-07 -1.952052e-06 -1.340359e-05 -3.114343e-05 -5.429611e-07 -6.236136e-06 2.693385e-06 -4.857779e-06 -7.867813e-06 4.526228e-07 9.596348e-06 -5.797483e-08 -3.934838e-07 1.234002e-08 -5.355105e-09 2.961606e-07 -4.060566e-07 -2.242159e-07 7.650815e-07 -7.157214e-07 2.267188e-08 -1.420267e-08 1.264270e-07 -1.518056e-07 -1.733069e-02 2.135032e-03 -2.558388e-03 2.833310e-04 -6.236576e-04 -1.803544e-04 -3.749149e-05 -4.109075e-04 1.268192e-04 -8.433932e-04 1.034832e-04 -7.428668e-04 1.402625e-04
<VARIANCE> 39
 3.943220e-06 1.306646e-06 2.658926e-07 0.000000e+00 4.642643e-06 1.331419e-05 0.000000e+00 0.000000e+00 0.000000e+00 4.651025e-06 1.906883e-06 0.000000e+00 0.000000e+00 0.000000e+00 0.000000e+00 0.000000e+00 0.000000e+00 2.783054e-10 4.038156e-10 0.000000e+00 1.731314e-08 0.000000e+00 3.075229e-11 7.235030e-10 0.000000e+00 6.684786e-10 1.100459e-02 5.213512e-04 5.872871e-04 3.387984e-04 4.089739e-04 3.906928e-04 4.339819e-04 3.915064e-04 3.306664e-04 3.511715e-04 2.671561e-04 2.600339e-04 1.677476e-04
<GCONST> -1.300000e+11
<STATE> 5
<NUMMIXES> 2
<MIXTURE> 1 4.607435e-01
<MEAN> 39
 -1.300220e+01 3.720207e-01 -5.256724e-02 2.704552e+00 -2.924290e+00 -4.982204e+00 -5.653195e+00 9.031787e+00 5.405246e+00 1.128105e-01 1.398253e+00 1.587810e+00 2.019073e+00 2.847495e+00 8.044332e-01 3.161712e-01 8.107844e-01 -2.794534e-01 -1.983677e+00 -8.811707e-01 1.555987e+00 1.131301e+00 -3.413513e-01 -9.000522e-02 3.589395e-01 7.462783e-02 3.278208e-01 -6.298411e-02 -9.078659e-02 6.260290e-02 -7.123836e-02 -2.900811e-01 -1.022229e-01 1.541577e-01 2.807492e-02 -1.365422e-01 -1.792661e-02 1.933661e-02 -6.822975e-02
<VARIANCE> 39
 1.565839e+02 4.499843e+01 3.527343e+01 4.073161e+01 3.279682e+01 9.736259e+01 3.684545e+01 6.667477e+01 5.183752e+01 2.174931e+01 1.751029e+01 1.719156e+01 1.358046e+01 4.675817e+00 2.157369e+00 2.627662e+00 1.961949e+00 2.792962e+00 4.690219e+00 2.190150e+00 3.367079e+00 2.661613e+00 2.553221e+00 2.365379e+00 1.606390e+00 1.506332e+00 3.525934e-01 3.418225e-01 4.033276e-01 3.021663e-01 4.178151e-01 4.662674e-01 4.020800e-01 4.780575e-01 4.439932e-01 4.479208e-01 4.726924e-01 2.928666e-01 2.816108e-01
<GCONST> 1.188441e+02
<MIXTURE> 2 5.392565e-01
<MEAN> 39
 1.953868e+01 -1.096575e+00 -4.758722e+00 1.006490e+01 -6.974247e+00 -3.100074e+01 -1.592918e+01 2.661379e+01 1.544977e+01 -8.724106e+00 -9.123521e-01 3.920395e+00 1.384645e-01 8.548115e-01 -6.418202e-01 -5.005119e-01 1.508925e-01 4.630399e-02 -5.535015e-01 -1.782887e-01 3.608955e-01 6.688955e-02 -3.404600e-01 2.222082e-02 -6.138530e-02 -1.745166e-01 -2.705220e-01 2.331749e-03 3.628176e-02 -6.767271e-02 1.537364e-01 3.656369e-01 9.697207e-02 -1.909754e-01 -1.154593e-01 5.549487e-02 3.271132e-02 -4.447452e-02 2.527553e-02
<VARIANCE> 39
 2.484270e+01 3.521559e+01 3.720283e+01 2.330052e+01 3.523677e+01 5.173229e+01 3.711122e+01 3.997458e+01 2.980270e+01 2.986200e+01 2.064502e+01 1.536076e+01 1.172334e+01 2.494054e+00 8.456048e-01 8.393957e-01 9.127890e-01 1.231004e+00 3.160006e+00 1.217811e+00 2.247086e+00 9.819182e-01 1.253111e+00 1.036735e+00 8.257289e-01 5.454590e-01 2.504469e-01 1.106563e-01 9.501421e-02 1.257026e-01 1.938579e-01 3.200082e-01 1.923055e-01 3.332810e-01 1.348113e-01 1.864714e-01 1.773322e-01 1.347982e-01 9.984577e-02
<GCONST> 9.406728e+01
<STATE> 6
<NUMMIXES> 2
<MIXTURE> 1 5.601065e-01
<MEAN> 39
 1.944411e+01 -3.511662e+00 -8.136680e+00 4.461248e+00 3.696587e-01 -1.566094e+01 -1.239606e+01 2.115555e+01 6.485363e+00 -1.106721e+01 2.980022e+00 -1.058130e+00 -2.441747e+00 7.939073e-02 5.020952e-01 -1.965733e-01 -6.794744e-01 8.247446e-01 2.001995e+00 3.708305e-01 -1.300743e+00 -8.820945e-01 2.240324e-01 5.738544e-02 -4.684597e-01 1.042085e-01 -8.849546e-02 1.400491e-01 2.382948e-02 -3.033394e-02 2.337315e-02 1.825580e-01 1.434493e-01 -1.932555e-01 2.341932e-02 9.197079e-02 -1.747188e-01 6.751354e-02 1.091446e-01
<VARIANCE> 39
 1.246774e+02 5.115352e+01 6.606189e+01 4.628439e+01 4.417061e+01 1.415736e+02 5.585011e+01 1.046361e+02 6.018253e+01 4.582566e+01 4.222473e+01 2.266749e+01 1.960046e+01 1.498130e+00 1.055613e+00 1.079676e+00 1.556814e+00 1.176231e+00 3.270039e+00 1.909788e+00 3.691833e+00 1.448829e+00 1.970460e+00 2.255777e+00 1.186407e+00 8.497537e-01 1.778108e-01 1.073986e-01 1.620688e-01 1.710971e-01 1.222371e-01 2.019465e-01 2.961852e-01 4.372283e-01 1.816714e-01 2.785775e-01 3.403986e-01 1.794609e-01 1.314711e-01
<GCONST> 1.086903e+02
<MIXTURE> 2 4.398938e-01
<MEAN> 39
 2.154954e+01 -4.631272e+00 -8.073503e+00 8.579044e+00 -4.535257e+00 -2.882571e+01 -1.564034e+01 2.577139e+01 1.430792e+01 -1.006810e+01 -2.502778e-01 3.118811e+00 -1.197107e+00 1.937179e-02 -1.798072e-01 -2.161449e-01 -4.122561e-01 4.084132e-01 9.405630e-01 2.693215e-01 -3.119963e-01 -5.961814e-01 -1.944585e-01 2.781844e-01 -3.092642e-01 -1.703017e-01 3.809102e-02 5.739022e-02 1.332029e-03 -2.956263e-02 4.962455e-02 1.231187e-01 8.286243e-03 -2.846110e-02 -1.343637e-01 -3.627637e-02 7.655750e-02 -4.811964e-02 -1.221689e-02
<VARIANCE> 39
 6.299896e+00 1.248679e+01 3.197971e+01 1.177208e+01 2.376334e+01 3.601027e+01 2.417374e+01 3.341092e+01 2.230682e+01 2.971513e+01 1.781177e+01 1.148474e+01 9.434612e+00 2.943248e-01 3.288284e-01 3.630489e-01 4.349461e-01 3.904101e-01 8.627326e-01 6.187640e-01 8.887479e-01 6.675022e-01 6.428508e-01 6.937248e-01 3.584512e-01 3.347585e-01 4.598000e-02 3.382735e-02 4.309893e-02 4.907657e-02 3.913527e-02 6.358773e-02 9.271085e-02 1.247236e-01 6.126349e-02 8.510256e-02 1.017511e-01 5.321286e-02 4.640475e-02
<GCONST> 6.365572e+01
<TRANSP> 7
 0.000000e+00 1.000000e+00 0.000000e+00 0.000000e+00 0.000000e+00 0.000000e+00 0.000000e+00
 0.000000e+00 7.729859e-01 2.270141e-01 0.000000e+00 0.000000e+00 0.000000e+00 0.000000e+00
 0.000000e+00 0.000000e+00 8.623601e-01 1.376399e-01 0.000000e+00 0.000000e+00 0.000000e+00
 0.000000e+00 0.000000e+00 0.000000e+00 1.491192e-01 8.508807e-01 0.000000e+00 0.000000e+00
 0.000000e+00 0.000000e+00 0.000000e+00 0.000000e+00 8.921082e-01 1.078918e-01 0.000000e+00
 0.000000e+00 0.000000e+00 0.000000e+00 0.000000e+00 0.000000e+00 8.435507e-01 1.564493e-01
 0.000000e+00 0.000000e+00 0.000000e+00 0.000000e+00 0.000000e+00 0.000000e+00 0.000000e+00
<ENDHMM>
~h "ph"
<BEGINHMM>
<NUMSTATES> 5
<STATE> 2
<NUMMIXES> 2
<MIXTURE> 1 4.808534e-01
<MEAN> 39
 -2.661028e+01 -6.176917e+00 -5.044489e+00 -2.851309e+00 -3.657118e+00 5.291302e-01 -3.702977e+00 1.101437e+00 -1.560560e+00 -5.551180e-01 4.796725e-01 -1.012359e+00 3.849760e-01 -5.269855e-03 -1.751997e-03 -8.108541e-03 -9.766951e-03 1.117679e-02 -1.498837e-03 3.342219e-03 2.795955e-02 2.910907e-02 9.887680e-03 -1.071347e-03 2.471976e-03 -8.120991e-03 2.325913e-02 1.722412e-02 1.301178e-02 1.631317e-02 3.052179e-02 1.887372e-02 2.287366e-02 1.473305e-02 4.827753e-04 -3.171319e-03 1.078938e-03 4.692543e-04 -1.683556e-04
<VARIANCE> 39
 5.664215e-01 9.931641e-01 1.571159e+00 2.605316e+00 3.564327e+00 4.199552e+00 5.122734e+00 5.826281e+00 6.405478e+00 6.062247e+00 6.044432e+00 6.384888e+00 5.390404e+00 6.431735e-02 1.207407e-01 2.151979e-01 3.570686e-01 4.910302e-01 5.673746e-01 7.586102e-01 8.683380e-01 9.134886e-01 8.168865e-01 9.428385e-01 9.076644e-01 7.449626e-01 1.998292e-02 3.115388e-02 5.244217e-02 8.578588e-02 1.170896e-01 1.337997e-01 1.825469e-01 2.007776e-01 2.108338e-01 1.928863e-01 2.112466e-01 2.029319e-01 1.682086e-01
<GCONST> 4.936518e+01
<MIXTURE> 2 5.191465e-01
<MEAN> 39
 -1.264787e+01 2.517240e+00 2.828109e+00 6.261701e+00 5.468244e+00 6.526665e+00 6.283772e-01 7.065698e+00 3.921176e-01 -2.261876e+00 1.004238e+00 -6.675029e-02 9.063926e-01 -1.658202e+00 -1.008857e+00 -6.075618e-01 -6.736852e-01 -6.764170e-01 -1.866972e-01 -2.674225e-02 -3.140764e-01 7.805879e-02 4.885402e-01 2.262286e-01 1.384184e-01 2.402365e-01 2.193862e-01 -1.123501e-01 -1.392654e-01 6.628647e-03 3.848637e-02 -1.032107e-01 -1.665621e-01 -7.269254e-02 -1.452179e-01 -1.635256e-01 4.243046e-03 3.884549e-03 -1.472005e-02
<VARIANCE> 39
 1.582880e+02 6.369822e+01 5.449900e+01 6.027319e+01 5.854464e+01 5.447161e+01 5.204146e+01 4.718196e+01 3.444363e+01 4.163949e+01 2.692905e+01 1.976793e+01 2.646682e+01 4.130830e+00 2.750501e+00 3.531747e+00 3.184331e+00 3.033708e+00 2.811502e+00 2.665739e+00 2.653740e+00 2.292392e+00 2.258879e+00 1.890176e+00 1.374484e+00 1.467986e+00 1.656516e-01 2.709005e-01 4.207720e-01 3.849927e-01 3.854986e-01 3.958067e-01 3.770998e-01 3.868672e-01 3.720189e-01 3.436355e-01 3.140399e-01 2.548207e-01 2.659679e-01
<GCONST> 1.189855e+02
<STATE> 3
<NUMMIXES> 2
<MIXTURE> 1 4.938659e-01
<MEAN> 39
 -1.100898e+01 -2.950551e+00 -7.559845e-01 6.801861e+00 6.750099e+00 6.221014e+00 -7.761402e-01 7.100342e+00 -6.524364e-01 -3.025687e+00 3.586317e+00 3.604634e+00 4.945321e+00 2.011143e+00 -3.448662e-01 -2.872564e-01 7.644494e-01 9.186006e-01 4.921193e-01 1.711140e-01 6.871374e-01 -5.908418e-02 -2.989563e-01 8.484756e-01 9.569752e-01 9.210168e-01 2.730390e-01 -8.016743e-02 -1.191243e-01 -8.436607e-02 -1.337093e-01 -2.028175e-01 -2.055241e-01 -1.649016e-02 -5.125716e-02 -6.132413e-02 1.336756e-01 -3.881469e-02 -1.360462e-01
<VARIANCE> 39
 1.848997e+02 2.876417e+01 2.733949e+01 4.842150e+01 5.937059e+01 7.164218e+01 6.118646e+01 4.303620e+01 3.333189e+01 4.471726e+01 3.043021e+01 3.081046e+01 4.811226e+01 4.213395e+00 3.148402e+00 3.943999e+00 4.636063e+00 5.243202e+00 4.724165e+00 4.521483e+00 3.984706e+00 3.167325e+00 3.447543e+00 2.845866e+00 2.634253e+00 2.248538e+00 3.899349e-01 2.310989e-01 4.137375e-01 5.023583e-01 6.568198e-01 7.064574e-01 7.577254e-01 5.855461e-01 5.677096e-01 6.122410e-01 3.587847e-01 3.978824e-01 4.390455e-01
<GCONST> 1.291223e+02
<MIXTURE> 2 5.061341e-01
<MEAN> 39
 -2.623234e+01 -7.307043e+00 -5.829935e+00 -2.744902e+00 -2.795896e+00 1.082547e+00 -3.328888e+00 1.446116e+00 -2.972790e+00 -2.050695e+00 1.198083e+00 5.924818e-01 8.277614e-01 4.868792e-02 -4.450019e-02 -3.222562e-02 -6.537899e-03 -1.214067e-02 -5.102403e-02 6.140523e-03 1.031106e-01 3.685396e-02 -1.750087e-02 3.622788e-02 -3.300607e-04 3.605331e-02 2.203375e-01 1.462667e-01 1.970220e-01 2.659828e-01 2.644064e-01 2.044155e-01 1.552233e-01 1.547630e-01 9.026214e-02 2.265303e-02 2.895311e-02 5.575171e-02 6.451997e-02
<VARIANCE> 39
 1.640852e+00 7.223526e+00 4.972878e+00 5.688087e+00 7.809402e+00 7.205830e+00 6.550999e+00 8.392395e+00 1.723975e+01 1.729177e+01 9.048625e+00 1.612518e+01 6.460607e+00 2.975425e-01 4.048532e-01 6.132186e-01 8.667657e-01 9.598410e-01 1.352444e+00 1.186388e+00 1.254890e+00 1.345292e+00 1.199037e+00 1.185993e+00 1.089018e+00 9.137579e-01 1.024146e-01 9.996627e-02 1.592355e-01 2.145013e-01 2.676792e-01 3.360227e-01 3.027855e-01 3.083298e-01 3.007696e-01 2.656087e-01 2.797956e-01 2.558922e-01 2.387393e-01
<GCONST> 7.729517e+01
<STATE> 4
<NUMMIXES> 2
<MIXTURE> 1 9.876596e-01
<MEAN> 39
 5.378332e+00 -8.813432e+00 -1.061577e+01 3.990581e+00 4.437243e+00 2.944078e+00 -1.779363e+00 1.181829e+01 2.825481e+00 1.454137e+00 1.399822e+01 9.140606e+00 6.520044e+00 1.253315e+00 -2.967314e-01 -3.031847e-01 -3.740405e-02 -1.904966e-01 -4.514948e-01 -4.244595e-01 8.383107e-02 8.126144e-02 2.672045e-01 4.660099e-01 -4.136961e-01 -5.718830e-01 -5.652929e-03 1.786842e-01 2.177264e-01 1.025966e-01 1.027241e-01 -4.481259e-02 -1.454906e-01 -1.014069e-01 -1.687434e-01 -2.380819e-01 -1.654013e-01 -1.726249e-01 -1.596601e-01
<VARIANCE> 39
 1.185638e+02 5.445530e+01 7.892796e+01 7.132176e+01 9.206385e+01 8.938544e+01 8.136880e+01 6.415120e+01 5.843176e+01 1.263701e+02 9.634355e+01 6.753266e+01 5.013588e+01 1.737116e+00 2.616970e+00 3.145214e+00 2.587708e+00 3.023408e+00 2.877918e+00 2.498842e+00 2.361974e+00 3.538472e+00 4.800074e+00 3.030561e+00 2.988463e+00 1.979487e+00 1.223170e-01 2.521813e-01 3.044708e-01 3.324897e-01 3.932416e-01 4.660361e-01 4.145715e-01 3.535693e-01 5.333655e-01 5.834976e-01 3.969066e-01 4.165636e-01 2.949544e-01
<GCONST> 1.279581e+02
<MIXTURE> 2 1.234030e-02
<MEAN> 39
 -1.015390e+01 -4.631816e+01 1.016816e+01 1.162639e+01 -1.891591e+00 2.216642e+01 -1.014524e+01 -1.183229e+00 9.757619e+00 -9.515562e+00 -1.309112e+00 1.899875e+00 1.101491e+00 -1.253500e+00 -1.690578e+00 9.529696e-01 -3.898689e-02 -7.293209e-01 -5.052592e-01 -1.963609e+00 -2.120598e+00 -5.859047e-01 -5.689625e-01 5.280949e-02 8.777792e-01 9.806890e-01 2.039303e-01 4.147044e-01 -3.179018e-01 1.201470e-01 3.889616e-01 1.040026e-01 3.136157e-01 2.636020e-01 4.920377e-02 1.007182e-01 -1.477228e-01 -3.440652e-01 -4.367760e-01
<VARIANCE> 39
 1.321690e+01 3.304022e+01 8.485703e+00 1.848543e+00 3.048569e+00 1.438585e+01 3.167401e+01 3.004016e+01 7.520224e+00 9.705881e+00 4.621343e+00 1.152077e+01 1.606346e+01 1.299537e+00 2.936247e+00 3.920347e+00 3.001309e-01 1.903624e+00 1.777923e+00 2.750505e+00 1.801411e+00 3.051873e-01 6.002272e-01 6.143333e-01 2.153111e+00 5.379997e+00 1.675129e-01 3.451068e-01 4.612655e-01 1.254931e-01 1.764835e-01 2.608429e-01 2.595738e-01 2.582701e-01 9.209108e-02 1.474895e-01 1.323039e-01 1.194983e-01 5.899492e-01
<GCONST> 8.632181e+01
<TRANSP> 5
 0.000000e+00 1.000000e+00 0.000000e+00 0.000000e+00 0.000000e+00
 0.000000e+00 8.999678e-01 1.000322e-01 0.000000e+00 0.000000e+00
 0.000000e+00 0.000000e+00 8.358219e-01 1.641781e-01 0.000000e+00
 0.000000e+00 0.000000e+00 0.000000e+00 7.499595e-01 2.500405e-01
 0.000000e+00 0.000000e+00 0.000000e+00 0.000000e+00 0.000000e+00
<ENDHMM>
~h "rq"
<BEGINHMM>
<NUMSTATES> 7
<STATE> 2
<NUMMIXES> 2
<MIXTURE> 1 6.605998e-01
<MEAN> 39
 5.343021e+00 -1.579182e+01 1.107748e+01 9.658978e+00 6.075585e+00 1.720121e+01 -1.544332e+00 8.575716e+00 -9.613593e+00 -1.542183e+01 3.239934e+00 1.627705e+00 2.722114e+00 1.128377e+00 1.461574e+00 3.432276e-01 1.820417e+00 -3.100513e-01 -9.948257e-01 1.601669e+00 -1.692324e-01 2.632252e-01 -7.406779e-01 -4.098129e-01 6.610274e-01 -1.744925e-01 1.114334e-01 3.606248e-01 -6.775373e-01 8.838074e-02 9.896567e-02 -6.298293e-01 -3.141194e-01 -5.167621e-01 1.247268e-01 3.367291e-02 -4.293561e-01 -3.631141e-01 -3.468378e-02
<VARIANCE> 39
 2.758401e+01 2.997321e+01 9.059574e+00 2.195416e+02 9.691604e+01 5.302252e+01 1.026772e+02 1.447315e+01 1.422141e+01 2.719739e+01 1.617201e+01 1.341979e+01 3.271734e+01 4.581463e+00 6.796795e+00 4.478124e+00 5.327482e+00 1.013651e+00 4.675832e+00 3.543516e+00 1.068760e+00 4.802570e+00 5.690438e-01 2.122976e+00 1.653733e+00 1.201669e+00 4.488033e-01 8.117439e-01 8.796445e-02 8.658206e-01 8.690710e-02 3.597868e-01 1.365942e+00 2.547541e-01 1.318879e-01 1.523733e-01 4.407445e-01 2.907655e-01 3.658412e-01
<GCONST> 1.135347e+02
<MIXTURE> 2 3.394002e-01
<MEAN> 39
 1.508699e+01 -6.699461e+00 9.095926e+00 1.441461e+01 2.117538e+00 7.810337e+00 1.571332e+00 5.155686e+00 -1.459932e+01 -2.028520e+01 1.757943e+00 -1.309338e+00 2.212887e+00 1.766394e+00 8.663689e-01 -2.508389e+00 9.915626e-01 1.122495e+00 -3.135322e+00 -1.276321e+00 -6.395795e-01 -1.144673e+00 -7.608249e-01 -1.203609e-01 -8.455455e-01 -1.448584e+00 -5.747477e-01 -4.645298e-01 -3.806251e-01 -6.417212e-01 6.175648e-01 2.675860e-01 -7.366623e-01 1.965311e-01 -9.154540e-02 -1.294924e-01 3.342053e-01 5.318782e-01 -1.612297e-01
<VARIANCE> 39
 3.974793e+00 1.718879e+01 7.531723e+00 2.956166e+01 5.124092e+01 2.628422e+01 6.211693e+01 1.360815e+01 5.814667e+00 4.293395e+00 3.410851e+00 4.414470e+00 1.203976e+01 8.854343e-01 1.035391e+00 4.231772e-01 9.111422e-01 1.103353e+00 4.335690e-01 1.582340e+00 2.182046e-01 3.723986e-01 7.154912e-01 3.111132e-01 1.915657e+00 7.351470e-02 5.824456e-02 5.315448e-01 1.223899e-01 4.845053e-02 1.152842e-01 1.186415e-01 4.295889e-01 2.316003e-01 8.878914e-03 3.593553e-01 1.386508e-01 2.925814e-01 3.988365e-02
<GCONST> 6.900209e+01
<STATE> 3
<NUMMIXES> 2
<MIXTURE> 1 3.216255e-01
<MEAN> 39
 5.425272e+00 -1.827100e+01 8.190506e+00 2.386599e+01 1.100059e+01 1.744168e+01 7.432354e+00 3.490614e+00 3.761951e+00 -5.433571e+00 -2.796867e+00 4.155537e+00 1.569410e+00 -2.081417e+00 -4.336796e+00 8.293310e-01 -1.217702e+00 -9.539785e-01 3.339754e+00 -8.141490e-01 -1.178974e+00 3.954860e+00 -2.540320e-01 -2.105867e+00 -2.285069e-02 1.252548e-01 3.794590e-01 -5.920476e-01 -4.734983e-01 -4.164779e-01 4.990137e-01 9.718412e-02 -2.150301e+00 -1.158149e+00 -7.327392e-01 -4.607996e-01 5.525085e-01 -6.052201e-01 -7.054155e-01
<VARIANCE> 39
 6.451520e+00 1.143460e+01 1.381061e-01 7.088135e+00 6.156179e+00 9.141785e+00 1.372704e+00 1.202621e-01 2.385694e+01 1.169047e+01 8.603325e-01 2.302784e+00 8.808160e-02 7.994547e-01 1.273092e+00 6.548014e-01 2.891731e-01 4.452914e-01 2.602450e+00 1.220462e-01 2.581334e-02 1.587055e+00 4.210576e-02 3.251345e-01 1.094651e-01 1.379562e-01 5.165203e-02 5.336046e-03 8.049071e-03 1.440749e-03 7.591367e-03 1.139899e-02 1.385622e-01 1.469051e-01 2.705225e-02 7.874042e-03 8.181036e-04 1.491356e-01 2.094206e-02
<GCONST> 1.264716e+01
<MIXTURE> 2 6.783745e-01
<MEAN> 39
 1.464948e+01 -1.019501e+01 4.266576e+00 2.363703e+01 1.550081e+01 -7.088642e-01 -1.117748e+01 6.615276e+00 -1.267036e+01 -2.292331e+01 2.229819e+00 -1.703911e+00 -5.202880e+00 9.098762e-02 1.413452e+00 -3.611129e+00 -7.798870e-01 2.010962e+00 -1.861921e+00 -1.976545e+00 -2.542843e-02 -8.923714e-01 -1.844284e+00 3.692622e-01 1.638389e+00 -1.267789e+00 -3.828708e-01 3.195231e-01 1.220509e-01 -5.444617e-01 -4.415958e-02 5.372826e-01 4.429184e-02 -1.914774e-02 8.794758e-02 3.570455e-02 3.094378e-01 3.056680e-01 1.948509e-01
<VARIANCE> 39
 1.480220e+01 2.582065e+01 5.683967e+00 9.574475e+01 1.271628e+02 6.413658e+00 1.216482e+02 2.883182e+01 4.444887e+01 1.236810e+01 6.722565e-01 1.959061e+00 2.661808e+01 1.076946e+00 3.756341e+00 1.390330e+00 1.142091e+00 1.947977e+00 1.365242e-01 2.267779e-01 1.235607e+00 1.067674e+00 1.628902e+00 7.626693e-01 4.049575e-01 6.437289e-01 1.143655e-03 6.031657e-02 8.130407e-02 1.340574e-02 1.583289e-01 9.652606e-02 1.228000e-01 3.616882e-01 1.192688e-02 4.137998e-01 2.182337e-02 8.901832e-02 6.979592e-02
<GCONST> 6.894099e+01
<STATE> 4
<NUMMIXES> 2
<MIXTURE> 1 6.923168e-01
<MEAN> 39
 1.487396e+01 -6.934801e+00 1.099933e+00 1.387236e+01 1.808896e+01 1.641298e+00 -1.349028e+01 9.113488e+00 -1.817549e+01 -2.617185e+01 1.020811e+01 -2.074387e-01 -6.731993e+00 -6.105702e-01 1.828481e-01 -2.363015e-01 -9.891977e-01 4.468560e-01 4.697268e-01 -1.627291e+00 -1.607833e-01 -2.655627e-01 -2.636323e-01 1.421884e+00 -3.493186e-01 -6.400896e-01 1.166200e-01 -2.690653e-01 2.090450e-01 -1.777577e-02 -2.506868e-01 2.194987e-01 4.937568e-02 -2.044047e-01 -1.191295e-01 2.891589e-01 1.997760e-01 -2.474084e-01 4.021802e-02
<VARIANCE> 39
 3.608988e+01 5.080090e+01 1.889567e+01 7.621446e+01 3.012543e+01 8.199590e+01 8.771118e+01 2.944540e+01 1.750021e+02 7.506515e+01 9.810593e+01 8.943992e+00 8.370941e+00 5.925637e-01 5.829816e+00 3.364944e+00 8.037070e-01 2.495389e+00 2.458145e+00 2.787031e+00 2.612034e+00 1.968642e+00 9.627150e-01 2.475965e+00 1.755624e+00 2.929186e-01 9.768701e-02 1.680381e-01 3.349360e-01 1.375366e-01 1.183925e-01 4.622701e-01 4.079356e-01 4.479811e-01 3.066294e-01 2.074685e-01 2.642950e-01 8.306496e-02 8.704322e-02
<GCONST> 1.066244e+02
<MIXTURE> 2 3.076833e-01
<MEAN> 39
 1.799157e+01 -4.695469e+00 -4.880484e-01 9.170644e+00 1.900246e+01 -1.294230e+00 -1.658043e+01 1.076052e+01 -2.578509e+01 -3.014315e+01 1.510424e+01 3.776264e-01 -7.332913e+00 -5.066019e-02 -1.448729e-01 5.757617e-01 -5.109808e-01 1.504176e+00 -1.026386e+00 -1.710313e+00 2.106602e+00 -1.282896e+00 -1.001305e+00 2.150877e+00 -6.299692e-01 -5.388540e-01 -1.447879e-01 1.907752e-01 3.846252e-01 4.603297e-02 -5.603811e-01 3.483323e-01 4.452509e-01 -1.755025e-01 2.016478e-01 3.349293e-01 -9.075578e-02 -4.015243e-01 8.650482e-02
<VARIANCE> 39
 4.139404e-01 8.820016e-01 5.953997e+00 8.324356e+00 1.956778e+01 5.657433e+00 6.072038e+01 3.368527e+01 1.079721e+01 4.383942e+00 5.720529e+01 1.187058e+01 3.491836e+00 1.724845e-01 5.327943e-01 1.917083e+00 2.584608e-01 2.045820e+00 1.009919e+00 1.137272e+00 9.573499e-01 9.432271e-02 1.058404e+00 3.005855e-01 1.568458e+00 5.090133e-01 3.072183e-02 6.041963e-02 1.150580e-01 1.458390e-01 5.913830e-02 4.554770e-01 1.891839e-01 4.587488e-01 1.916482e-02 5.489183e-02 1.416747e-01 4.105604e-02 4.868448e-02
<GCONST> 6.105951e+01
<STATE> 5
<NUMMIXES> 2
<MIXTURE> 1 9.681830e-01
<MEAN> 39
 -6.134464e+00 -4.850656e+01 3.972035e+00 9.563687e+00 3.245848e+00 2.250488e+01 -1.061505e+01 -5.209295e+00 5.404343e+00 -5.868275e+00 -3.688632e+00 -2.617130e+00 1.718368e+00 -2.743100e-01 -6.888298e-01 -3.578706e-01 -8.802135e-01 -3.193621e-01 1.010244e-01 -3.913372e-01 -8.406577e-02 -2.173590e-01 -6.313711e-02 7.761756e-02 -8.827789e-02 2.412243e-01 1.028953e-01 1.215416e-01 4.439045e-02 2.976580e-02 6.305550e-02 -1.294840e-03 1.144999e-01 1.015677e-01 -7.977542e-02 -1.756927e-02 -2.513155e-03 -3.515699e-02 -5.965677e-03
<VARIANCE> 39
 1.732709e+01 8.589124e+01 1.034934e+01 4.154919e+01 2.575226e+01 3.635400e+01 2.481998e+01 1.108070e+01 1.473373e+01 2.030841e+01 1.098044e+01 1.064381e+01 1.660547e+01 9.781797e-01 3.656765e+00 1.031355e+00 1.992952e+00 8.807987e-01 9.943938e-01 2.454079e+00 1.007299e+00 1.072484e+00 1.192093e+00 1.543271e+00 1.065284e+00 4.488811e-01 1.963665e-01 4.147479e-01 2.519867e-01 2.353847e-01 1.023419e-01 2.443659e-01 2.550779e-01 2.039621e-01 2.605905e-01 2.043207e-01 3.729784e-01 1.612514e-01 7.682311e-02
<GCONST> 9.319891e+01
<MIXTURE> 2 3.181688e-02
<MEAN> 39
 1.791226e+01 -5.048297e+00 6.145875e+00 6.895750e+00 1.955594e+01 1.595661e+00 -2.022000e+01 1.578107e+01 -3.333099e+01 -3.042511e+01 2.869477e+01 -8.988438e+00 -1.001428e+01 5.622041e-01 -3.154294e-01 4.469671e-01 6.076052e-01 -6.207550e-01 2.378118e+00 1.068581e+00 -1.828366e+00 1.407976e-01 2.157773e+00 9.672104e-01 -1.874453e+00 -1.454361e+00 -2.930883e-03 1.502818e-01 -3.561130e-01 2.144216e-01 2.094456e-01 -1.269817e-02 5.063447e-01 -3.115846e-01 1.028775e+00 7.235867e-01 -1.272606e+00 1.916880e-01 2.562599e-01
<VARIANCE> 39
 2.193909e+00 7.932024e-01 2.481441e-01 4.218750e-01 1.522625e+00 3.010651e+00 3.503815e+00 1.242645e+01 5.891205e+00 4.069092e+00 8.020264e+00 2.048189e+00 8.683701e-01 6.712574e-02 3.811098e-02 2.628515e-02 1.259577e-02 1.608621e-01 3.452859e-01 6.764919e-03 9.313583e-02 1.299641e-01 1.158893e-01 2.830661e-01 8.291483e-03 3.173137e-02 4.117171e-02 3.848680e-02 1.210491e-02 1.333022e-02 6.220985e-03 5.079167e-02 8.531615e-03 1.361617e-01 3.801006e-02 1.703992e-02 7.006991e-02 2.049479e-02 1.319372e-01
<GCONST> -2.747597e+00
<STATE> 6
<NUMMIXES> 2
<MIXTURE> 1 6.361462e-01
<MEAN> 39
 1.751787e+00 3.269314e+00 7.719700e+00 1.150571e+01 1.311853e+01 1.033112e+01 -5.528209e+00 7.787037e-01 -1.031390e+01 -1.471704e+01 -2.801510e+00 -2.267634e+00 1.743979e+00 -1.530575e+00 6.109900e-01 5.505188e-02 -3.296191e-01 -2.383708e-01 -6.652101e-01 -7.709179e-01 -1.479124e+00 5.550164e-02 -2.876034e-02 -1.471009e+00 7.502246e-01 4.024222e-01 2.183671e-01 -8.320577e-01 6.501368e-02 -5.432397e-03 3.084129e-02 -2.228725e-01 -7.105969e-01 2.875986e-01 -2.820387e-01 -4.016281e-01 6.867614e-01 -2.587475e-01 -3.776505e-01
<VARIANCE> 39
 2.632146e+01 4.455411e+02 4.065643e+01 4.136137e+01 3.693302e+01 8.931578e+01 6.344296e+01 2.499019e+01 3.571212e+01 3.201543e+01 1.746727e+01 9.522080e+00 2.110713e+01 2.424054e+00 3.592735e+00 4.327281e-01 1.540665e+00 3.291055e-01 2.190433e+00 3.738085e+00 1.669991e+00 8.529551e-01 1.457672e+00 4.554780e+00 6.125722e-01 8.841749e-01 2.098215e-01 7.244570e-01 5.246996e-01 2.215803e-01 6.123636e-02 5.602808e-01 2.766779e-01 2.576996e-01 2.076940e-01 3.287635e-01 2.044429e-01 8.011607e-02 1.960889e-01
<GCONST> 1.050594e+02
<MIXTURE> 2 3.638538e-01
<MEAN> 39
 1.526916e+01 -1.368206e+00 7.042724e+00 9.666553e+00 1.675767e+01 6.219914e+00 -1.214919e+01 1.057826e+01 -2.313589e+01 -2.068257e+01 1.921349e+01 -1.096517e+01 -8.957120e+00 -1.448747e+00 2.185261e+00 6.663547e-01 4.453260e-01 -9.738861e-01 1.777861e+00 3.266065e+00 -1.037385e+00 3.089009e+00 2.275974e+00 -4.074915e+00 2.980851e-01 2.096999e+00 -5.192581e-01 6.214821e-01 1.241366e-01 -4.378152e-02 -5.349945e-02 -3.207465e-02 1.981669e-01 -5.466214e-02 2.205054e-01 -3.499044e-01 -9.360244e-01 7.414744e-01 7.094449e-01
<VARIANCE> 39
 9.036270e+00 1.459655e+01 1.630673e+00 1.949997e+00 6.306599e+00 7.790375e+00 3.992442e+01 5.276550e+00 4.457797e+01 1.487042e+01 5.576379e+01 5.861946e+00 2.398657e+01 1.330353e+00 1.997770e+00 2.285024e-01 2.120498e-01 3.496022e-01 3.484122e-01 1.501200e+00 4.524589e-01 1.524156e+00 8.390963e-01 3.868800e+00 2.559255e+00 3.713232e+00 7.996894e-02 1.593002e-01 2.687715e-02 2.756424e-02 7.329896e-02 9.676762e-02 6.030297e-01 1.530673e-01 8.460186e-01 2.266372e-01 7.462319e-01 1.274160e-01 6.265591e-01
<GCONST> 7.835905e+01
<TRANSP> 7
 0.000000e+00 1.000000e+00 0.000000e+00 0.000000e+00 0.000000e+00 0.000000e+00 0.000000e+00
 0.000000e+00 7.124251e-01 2.875750e-01 0.000000e+00 0.000000e+00 0.000000e+00 0.000000e+00
 0.000000e+00 0.000000e+00 9.217229e-02 9.078277e-01 0.000000e+00 0.000000e+00 0.000000e+00
 0.000000e+00 0.000000e+00 0.000000e+00 7.548252e-01 2.451748e-01 0.000000e+00 0.000000e+00
 0.000000e+00 0.000000e+00 0.000000e+00 0.000000e+00 9.097248e-01 9.027514e-02 0.000000e+00
 0.000000e+00 0.000000e+00 0.000000e+00 0.000000e+00 0.000000e+00 7.753035e-01 2.246965e-01
 0.000000e+00 0.000000e+00 0.000000e+00 0.000000e+00 0.000000e+00 0.000000e+00 0.000000e+00
<ENDHMM>
~h "sh"
<BEGINHMM>
<NUMSTATES> 5
<STATE> 2
<NUMMIXES> 2
<MIXTURE> 1 8.974905e-01
<MEAN> 39
 4.019089e-01 -2.716434e+01 8.193218e+00 1.591642e+01 8.269920e+00 1.813782e+01 -5.047151e+00 -3.522253e-01 -1.001157e+00 -7.880022e+00 8.301806e-01 1.134228e+00 2.719172e+00 -1.679305e+00 -2.696744e+00 8.939284e-01 -2.902164e-01 -1.241744e+00 1.278267e+00 6.397949e-01 -3.732595e-01 8.078904e-01 7.599858e-01 -9.198353e-02 3.298196e-01 6.121823e-01 -1.446390e-02 -4.934126e-02 -1.938158e-01 -1.319961e-01 6.684707e-02 -2.536345e-01 -2.268402e-01 1.850986e-01 4.086643e-05 -1.151520e-01 1.289165e-01 -1.122806e-02 -1.026842e-01
<VARIANCE> 39
 1.442900e+02 3.240849e+02 1.342925e+02 1.739514e+02 1.141234e+02 1.422999e+02 1.401427e+02 6.399183e+01 7.556107e+01 4.880346e+01 8.426028e+01 3.843312e+01 7.384973e+01 2.069753e+00 7.850796e+00 3.386657e+00 3.403077e+00 2.416877e+00 5.327839e+00 5.170753e+00 3.594873e+00 2.764844e+00 2.517747e+00 3.137372e+00 2.182382e+00 1.916086e+00 1.950309e-01 9.533232e-01 4.040791e-01 3.269995e-01 3.304202e-01 6.235660e-01 5.178838e-01 5.841780e-01 3.809996e-01 3.810788e-01 5.451698e-01 3.513520e-01 2.544410e-01
<GCONST> 1.356754e+02
<MIXTURE> 2 1.025095e-01
<MEAN> 39
 -1.180730e+01 -4.024578e+01 9.574945e+00 1.255802e+01 4.339827e+00 2.195016e+01 -2.405593e+00 6.640100e-01 5.076381e+00 -2.068390e+00 1.595367e+00 3.536977e+00 6.084187e+00 -1.626571e+00 -1.857754e+00 -1.068876e+00 -1.727563e+00 -1.315753e+00 -1.298210e+00 -1.125077e+00 -3.309476e-01 -1.927199e-01 9.009369e-02 -1.479196e-01 -2.358363e-01 1.172446e-01 4.444830e-01 4.137255e-01 7.093796e-02 2.577461e-02 -9.656721e-02 -2.568452e-01 -2.935137e-01 -2.809712e-01 -4.338929e-01 -3.334005e-01 -2.463140e-01 -2.827389e-01 -1.489831e-01
<VARIANCE> 39
 3.002167e+01 2.779701e+02 7.933215e+01 8.159035e+01 2.832008e+01 4.337329e+01 8.245353e+01 3.036240e+01 4.997722e+01 2.002697e+01 3.420443e+01 2.116957e+01 2.454261e+01 9.458317e-01 1.400722e+00 1.014905e+00 1.597275e+00 1.572663e+00 2.324290e+00 1.893947e+00 1.287864e+00 1.219131e+00 1.580487e+00 1.601731e+00 1.599857e+00 8.593662e-01 9.371003e-02 1.939898e-01 1.635654e-01 1.668199e-01 1.671939e-01 3.120655e-01 3.429866e-01 2.581470e-01 2.387118e-01 2.288667e-01 2.163541e-01 2.724875e-01 1.871134e-01
<GCONST> 1.051119e+02
<STATE> 3
<NUMMIXES> 2
<MIXTURE> 1 3.072727e-01
<MEAN> 39
 -1.503024e+01 -2.899057e+01 2.225239e+00 5.185053e+00 -6.741238e-02 9.586533e+00 -6.102905e+00 -1.941643e-01 -1.263525e+00 -3.864908e+00 -4.110447e-01 -6.445026e-01 3.264125e+00 -2.571865e-02 -7.942259e-03 -5.389652e-02 -9.385394e-02 -2.235828e-02 -2.804664e-02 4.363070e-02 -2.369601e-02 -3.883319e-02 7.004347e-02 -1.354916e-02 -6.399930e-03 3.475243e-02 1.086625e-01 1.769337e-02 2.403384e-02 4.083149e-02 8.968748e-03 7.167360e-02 1.516738e-02 3.779707e-02 6.477702e-02 -4.352661e-02 3.175432e-02 4.044936e-02 -5.243813e-03
<VARIANCE> 39
 1.444136e+02 5.539979e+02 6.923232e+01 5.954138e+01 4.108031e+01 1.199530e+02 5.543919e+01 5.028131e+01 2.827079e+01 3.768373e+01 4.117314e+01 1.404754e+01 3.737905e+01 5.213079e-01 5.304421e-01 6.009139e-01 5.370039e-01 6.026199e-01 8.803427e-01 9.681602e-01 1.102815e+00 1.133109e+00 1.313012e+00 1.229307e+00 1.195850e+00 9.395635e-01 6.419540e-02 9.647044e-02 1.104589e-01 8.904061e-02 1.045155e-01 1.470917e-01 1.868895e-01 1.848330e-01 1.966160e-01 2.416377e-01 2.272350e-01 2.285417e-01 1.921561e-01
<GCONST> 9.751363e+01
<MIXTURE> 2 6.927274e-01
<MEAN> 39
 -1.109441e+01 -4.952216e+01 8.678644e+00 1.178218e+01 -8.116817e-01 1.927913e+01 -1.149151e+01 -6.731227e+00 4.451621e+00 -4.883183e+00 1.687528e-01 1.413039e+00 2.891219e+00 -2.399180e-02 -1.035019e-01 -1.941533e-01 -3.658053e-01 -6.429756e-02 -4.001202e-02 -1.526623e-01 -1.711310e-01 -2.600870e-01 -8.728166e-02 -9.375813e-02 -3.114235e-02 1.199649e-02 1.081979e-01 2.156248e-01 1.003918e-02 1.098308e-01 1.662988e-01 9.007371e-02 1.566672e-01 6.948966e-02 -3.707688e-02 -5.509121e-03 -9.464383e-03 3.598857e-02 3.255944e-02
<VARIANCE> 39
 1.664927e+01 4.586955e+01 3.343949e+01 2.088876e+01 1.546042e+01 2.085979e+01 6.486142e+01 3.069472e+01 2.952244e+01 2.951020e+01 3.617904e+01 1.842253e+01 1.704108e+01 1.149777e+00 2.121577e+00 1.090605e+00 1.024713e+00 1.010682e+00 1.634162e+00 1.674713e+00 1.190213e+00 1.397466e+00 1.671969e+00 1.966743e+00 1.622478e+00 8.928846e-01 1.714798e-01 3.731822e-01 1.847083e-01 1.411502e-01 1.314315e-01 2.253883e-01 2.110199e-01 1.894033e-01 2.349565e-01 3.001987e-01 3.602581e-01 2.935189e-01 1.664198e-01
<GCONST> 9.860800e+01
<STATE> 4
<NUMMIXES> 2
<MIXTURE> 1 6.392524e-01
<MEAN> 39
 4.880002e+00 -2.396660e+01 6.882722e+00 1.360194e+01 7.006478e+00 1.577372e+01 -7.718526e+00 -8.755198e-01 -5.167211e-01 -8.912336e+00 1.049728e-01 2.154920e+00 2.822317e+00 2.863570e+00 3.348472e+00 -1.486117e+00 1.857563e-01 1.274996e+00 -2.069519e+00 -1.028596e+00 9.641889e-01 -6.631318e-01 -1.161772e+00 3.791710e-01 -2.044210e-01 -6.053332e-01 -1.770660e-01 -4.468167e-01 -5.270651e-01 -3.173401e-01 1.381897e-01 -3.753539e-01 -3.399605e-01 3.469445e-01 -7.570010e-02 -2.133391e-01 2.752926e-01 2.964890e-02 -7.482134e-02
<VARIANCE> 39
 1.311371e+02 2.897669e+02 7.831033e+01 5.054222e+01 4.906030e+01 1.184860e+02 7.094353e+01 6.127012e+01 3.931221e+01 3.978835e+01 4.892768e+01 2.577421e+01 3.459670e+01 4.780266e+00 1.021808e+01 6.186401e+00 2.673037e+00 1.958231e+00 5.232656e+00 4.337532e+00 3.279651e+00 2.149153e+00 3.886346e+00 2.456328e+00 1.681815e+00 1.397965e+00 5.201224e-01 1.106119e+00 8.347585e-01 3.553699e-01 2.404829e-01 6.468815e-01 5.805918e-01 3.480673e-01 3.653444e-01 5.620573e-01 3.024560e-01 3.119973e-01 1.868262e-01
<GCONST> 1.302929e+02
<MIXTURE> 2 3.607478e-01
<MEAN> 39
 -1.142242e+01 -4.436198e+01 6.335160e+00 7.629241e+00 1.727536e+00 1.960238e+01 -7.005471e+00 -2.092682e+00 1.177719e+00 -3.971461e+00 7.636632e-01 2.833370e+00 6.286451e+00 1.364069e+00 2.193050e+00 1.973825e-01 7.557891e-01 5.943064e-01 3.561999e-01 8.990100e-01 2.345664e-01 8.356816e-02 -1.591085e-01 7.696861e-02 5.057129e-01 5.666545e-02 5.846458e-01 8.504785e-01 2.709741e-01 3.370660e-01 1.205806e-01 -1.391357e-01 -8.029555e-02 -7.593981e-02 -2.994594e-02 -1.130755e-01 -1.343696e-01 -1.256651e-01 -1.648680e-01
<VARIANCE> 39
 3.607153e+01 1.772563e+02 6.296044e+01 3.297752e+01 1.917799e+01 4.906781e+01 7.074480e+01 3.174436e+01 2.873023e+01 2.114741e+01 3.120244e+01 1.965419e+01 1.804688e+01 1.986786e+00 5.489756e+00 1.534288e+00 1.501770e+00 8.901603e-01 1.583530e+00 1.731823e+00 1.740393e+00 1.733855e+00 1.593565e+00 1.662942e+00 1.602855e+00 9.836797e-01 1.864953e-01 4.141831e-01 2.048874e-01 1.514796e-01 1.745692e-01 3.031421e-01 2.819528e-01 3.200102e-01 2.956483e-01 3.351367e-01 3.146662e-01 2.854258e-01 1.730339e-01
<GCONST> 1.071607e+02
<TRANSP> 5
 0.000000e+00 1.000000e+00 0.000000e+00 0.000000e+00 0.000000e+00
 0.000000e+00 8.512079e-01 1.487921e-01 0.000000e+00 0.000000e+00
 0.000000e+00 0.000000e+00 8.733160e-01 1.266840e-01 0.000000e+00
 0.000000e+00 0.000000e+00 0.000000e+00 8.234401e-01 1.765599e-01
 0.000000e+00 0.000000e+00 0.000000e+00 0.000000e+00 0.000000e+00
<ENDHMM>
~h "sp"
<BEGINHMM>
<NUMSTATES> 5
<STATE> 2
<NUMMIXES> 2
<MIXTURE> 1 5.000000e-01
<MEAN> 39
 5.098849e+00 -6.514025e+00 2.430083e+00 1.092778e+01 1.083864e+01 1.500667e+00 -1.140838e+01 9.359310e+00 -3.377835e+00 -1.113024e+01 6.044074e+00 -4.088247e-01 -3.646332e+00 -1.380477e-02 1.475701e-03 -1.072459e-03 -5.524765e-03 -3.099398e-03 2.005852e-03 8.190720e-04 -5.087083e-03 2.488556e-03 5.650900e-03 -1.806995e-03 5.936168e-04 1.443354e-03 -1.213556e-03 -1.404243e-04 -1.926630e-04 -5.029775e-04 -4.298560e-04 2.249404e-04 5.535607e-04 -2.933974e-04 7.204357e-05 8.173331e-04 -1.603794e-04 -1.434907e-04 3.551734e-04
<VARIANCE> 39
 2.696502e+02 1.642264e+02 1.776205e+02 1.699619e+02 1.712323e+02 1.501611e+02 1.653076e+02 1.112998e+02 8.102897e+01 1.132308e+02 1.038732e+02 3.576029e+01 7.139818e+01 2.864393e+00 3.049235e+00 2.950589e+00 2.442850e+00 2.488132e+00 2.882445e+00 3.574063e+00 2.837703e+00 2.254665e+00 3.083899e+00 2.848865e+00 1.410452e+00 1.706605e+00 2.059384e-01 2.861855e-01 3.165202e-01 2.798763e-01 2.958655e-01 3.292713e-01 4.082396e-01 3.875320e-01 3.475762e-01 4.161765e-01 3.917231e-01 2.236369e-01 2.362328e-01
<GCONST> 1.313330e+02
<MIXTURE> 2 5.000000e-01
<MEAN> 39
 5.098849e+00 -6.514025e+00 2.430083e+00 1.092778e+01 1.083864e+01 1.500667e+00 -1.140838e+01 9.359310e+00 -3.377835e+00 -1.113024e+01 6.044074e+00 -4.088247e-01 -3.646332e+00 -1.380477e-02 1.475701e-03 -1.072459e-03 -5.524765e-03 -3.099398e-03 2.005852e-03 8.190720e-04 -5.087083e-03 2.488556e-03 5.650900e-03 -1.806995e-03 5.936168e-04 1.443354e-03 -1.213556e-03 -1.404243e-04 -1.926630e-04 -5.029775e-04 -4.298560e-04 2.249404e-04 5.535607e-04 -2.933974e-04 7.204357e-05 8.173331e-04 -1.603794e-04 -1.434907e-04 3.551734e-04
<VARIANCE> 39
 2.696502e+02 1.642264e+02 1.776205e+02 1.699619e+02 1.712323e+02 1.501611e+02 1.653076e+02 1.112998e+02 8.102897e+01 1.132308e+02 1.038732e+02 3.576029e+01 7.139818e+01 2.864393e+00 3.049235e+00 2.950589e+00 2.442850e+00 2.488132e+00 2.882445e+00 3.574063e+00 2.837703e+00 2.254665e+00 3.083899e+00 2.848865e+00 1.410452e+00 1.706605e+00 2.059384e-01 2.861855e-01 3.165202e-01 2.798763e-01 2.958655e-01 3.292713e-01 4.082396e-01 3.875320e-01 3.475762e-01 4.161765e-01 3.917231e-01 2.236369e-01 2.362328e-01
<GCONST> 1.313330e+02
<STATE> 3
<NUMMIXES> 2
<MIXTURE> 1 5.000000e-01
<MEAN> 39
 5.098849e+00 -6.514025e+00 2.430083e+00 1.092778e+01 1.083864e+01 1.500667e+00 -1.140838e+01 9.359310e+00 -3.377835e+00 -1.113024e+01 6.044074e+00 -4.088247e-01 -3.646332e+00 -1.380477e-02 1.475701e-03 -1.072459e-03 -5.524765e-03 -3.099398e-03 2.005852e-03 8.190720e-04 -5.087083e-03 2.488556e-03 5.650900e-03 -1.806995e-03 5.936168e-04 1.443354e-03 -1.213556e-03 -1.404243e-04 -1.926630e-04 -5.029775e-04 -4.298560e-04 2.249404e-04 5.535607e-04 -2.933974e-04 7.204357e-05 8.173331e-04 -1.603794e-04 -1.434907e-04 3.551734e-04
<VARIANCE> 39
 2.696502e+02 1.642264e+02 1.776205e+02 1.699619e+02 1.712323e+02 1.501611e+02 1.653076e+02 1.112998e+02 8.102897e+01 1.132308e+02 1.038732e+02 3.576029e+01 7.139818e+01 2.864393e+00 3.049235e+00 2.950589e+00 2.442850e+00 2.488132e+00 2.882445e+00 3.574063e+00 2.837703e+00 2.254665e+00 3.083899e+00 2.848865e+00 1.410452e+00 1.706605e+00 2.059384e-01 2.861855e-01 3.165202e-01 2.798763e-01 2.958655e-01 3.292713e-01 4.082396e-01 3.875320e-01 3.475762e-01 4.161765e-01 3.917231e-01 2.236369e-01 2.362328e-01
<GCONST> 1.313330e+02
<MIXTURE> 2 5.000000e-01
<MEAN> 39
 5.098849e+00 -6.514025e+00 2.430083e+00 1.092778e+01 1.083864e+01 1.500667e+00 -1.140838e+01 9.359310e+00 -3.377835e+00 -1.113024e+01 6.044074e+00 -4.088247e-01 -3.646332e+00 -1.380477e-02 1.475701e-03 -1.072459e-03 -5.524765e-03 -3.099398e-03 2.005852e-03 8.190720e-04 -5.087083e-03 2.488556e-03 5.650900e-03 -1.806995e-03 5.936168e-04 1.443354e-03 -1.213556e-03 -1.404243e-04 -1.926630e-04 -5.029775e-04 -4.298560e-04 2.249404e-04 5.535607e-04 -2.933974e-04 7.204357e-05 8.173331e-04 -1.603794e-04 -1.434907e-04 3.551734e-04
<VARIANCE> 39
 2.696502e+02 1.642264e+02 1.776205e+02 1.699619e+02 1.712323e+02 1.501611e+02 1.653076e+02 1.112998e+02 8.102897e+01 1.132308e+02 1.038732e+02 3.576029e+01 7.139818e+01 2.864393e+00 3.049235e+00 2.950589e+00 2.442850e+00 2.488132e+00 2.882445e+00 3.574063e+00 2.837703e+00 2.254665e+00 3.083899e+00 2.848865e+00 1.410452e+00 1.706605e+00 2.059384e-01 2.861855e-01 3.165202e-01 2.798763e-01 2.958655e-01 3.292713e-01 4.082396e-01 3.875320e-01 3.475762e-01 4.161765e-01 3.917231e-01 2.236369e-01 2.362328e-01
<GCONST> 1.313330e+02
<STATE> 4
<NUMMIXES> 2
<MIXTURE> 1 5.000000e-01
<MEAN> 39
 5.098849e+00 -6.514025e+00 2.430083e+00 1.092778e+01 1.083864e+01 1.500667e+00 -1.140838e+01 9.359310e+00 -3.377835e+00 -1.113024e+01 6.044074e+00 -4.088247e-01 -3.646332e+00 -1.380477e-02 1.475701e-03 -1.072459e-03 -5.524765e-03 -3.099398e-03 2.005852e-03 8.190720e-04 -5.087083e-03 2.488556e-03 5.650900e-03 -1.806995e-03 5.936168e-04 1.443354e-03 -1.213556e-03 -1.404243e-04 -1.926630e-04 -5.029775e-04 -4.298560e-04 2.249404e-04 5.535607e-04 -2.933974e-04 7.204357e-05 8.173331e-04 -1.603794e-04 -1.434907e-04 3.551734e-04
<VARIANCE> 39
 2.696502e+02 1.642264e+02 1.776205e+02 1.699619e+02 1.712323e+02 1.501611e+02 1.653076e+02 1.112998e+02 8.102897e+01 1.132308e+02 1.038732e+02 3.576029e+01 7.139818e+01 2.864393e+00 3.049235e+00 2.950589e+00 2.442850e+00 2.488132e+00 2.882445e+00 3.574063e+00 2.837703e+00 2.254665e+00 3.083899e+00 2.848865e+00 1.410452e+00 1.706605e+00 2.059384e-01 2.861855e-01 3.165202e-01 2.798763e-01 2.958655e-01 3.292713e-01 4.082396e-01 3.875320e-01 3.475762e-01 4.161765e-01 3.917231e-01 2.236369e-01 2.362328e-01
<GCONST> 1.313330e+02
<MIXTURE> 2 5.000000e-01
<MEAN> 39
 5.098849e+00 -6.514025e+00 2.430083e+00 1.092778e+01 1.083864e+01 1.500667e+00 -1.140838e+01 9.359310e+00 -3.377835e+00 -1.113024e+01 6.044074e+00 -4.088247e-01 -3.646332e+00 -1.380477e-02 1.475701e-03 -1.072459e-03 -5.524765e-03 -3.099398e-03 2.005852e-03 8.190720e-04 -5.087083e-03 2.488556e-03 5.650900e-03 -1.806995e-03 5.936168e-04 1.443354e-03 -1.213556e-03 -1.404243e-04 -1.926630e-04 -5.029775e-04 -4.298560e-04 2.249404e-04 5.535607e-04 -2.933974e-04 7.204357e-05 8.173331e-04 -1.603794e-04 -1.434907e-04 3.551734e-04
<VARIANCE> 39
 2.696502e+02 1.642264e+02 1.776205e+02 1.699619e+02 1.712323e+02 1.501611e+02 1.653076e+02 1.112998e+02 8.102897e+01 1.132308e+02 1.038732e+02 3.576029e+01 7.139818e+01 2.864393e+00 3.049235e+00 2.950589e+00 2.442850e+00 2.488132e+00 2.882445e+00 3.574063e+00 2.837703e+00 2.254665e+00 3.083899e+00 2.848865e+00 1.410452e+00 1.706605e+00 2.059384e-01 2.861855e-01 3.165202e-01 2.798763e-01 2.958655e-01 3.292713e-01 4.082396e-01 3.875320e-01 3.475762e-01 4.161765e-01 3.917231e-01 2.236369e-01 2.362328e-01
<GCONST> 1.313330e+02
<TRANSP> 5
 0.000000e+00 1.000000e+00 0.000000e+00 0.000000e+00 0.000000e+00
 0.000000e+00 6.000000e-01 4.000000e-01 0.000000e+00 0.000000e+00
 0.000000e+00 0.000000e+00 6.000000e-01 4.000000e-01 0.000000e+00
 0.000000e+00 0.000000e+00 0.000000e+00 6.000000e-01 4.000000e-01
 0.000000e+00 0.000000e+00 0.000000e+00 0.000000e+00 0.000000e+00
<ENDHMM>
~h "sx"
<BEGINHMM>
<NUMSTATES> 5
<STATE> 2
<NUMMIXES> 2
<MIXTURE> 1 9.720923e-01
<MEAN> 39
 6.577926e-01 -2.764756e+01 1.188292e+00 1.249350e+01 6.653891e+00 1.813794e+01 -3.319009e+00 -4.366288e-01 2.316787e+00 -6.089287e+00 -9.960349e-01 1.772814e+00 3.422092e+00 -1.223944e+00 -3.330665e+00 1.345206e+00 8.727290e-02 -1.043940e+00 1.550741e+00 3.923535e-01 -3.925317e-01 7.134128e-01 4.518079e-01 8.727372e-03 7.415755e-02 2.369649e-01 -1.058087e-01 3.645688e-03 -1.061934e-01 -2.225074e-01 4.115635e-02 -2.749429e-01 -2.367450e-01 1.505709e-01 -9.725603e-02 -8.962889e-02 1.381087e-01 -4.100170e-03 -5.516249e-02
<VARIANCE> 39
 1.063434e+02 3.131571e+02 1.462840e+02 1.484225e+02 7.912847e+01 1.062172e+02 1.069868e+02 5.706727e+01 3.994425e+01 2.699694e+01 4.108554e+01 3.648328e+01 3.793105e+01 2.970806e+00 5.665542e+00 4.120177e+00 4.080506e+00 1.856592e+00 4.805337e+00 4.564809e+00 2.698321e+00 2.389871e+00 2.394411e+00 2.286777e+00 1.593186e+00 1.770594e+00 1.933992e-01 8.502394e-01 6.154877e-01 3.619947e-01 2.998677e-01 6.191994e-01 4.416293e-01 4.784318e-01 3.834077e-01 4.342852e-01 3.423567e-01 2.619221e-01 2.031519e-01
<GCONST> 1.293715e+02
<MIXTURE> 2 2.790765e-02
<MEAN> 39
 -1.586755e+01 -2.355790e+01 4.547005e+00 1.011104e+01 3.577161e+00 1.272862e+01 -2.044552e+00 -1.125178e+00 1.281757e+00 -1.432041e+00 2.364374e+00 3.923375e+00 3.795354e+00 -1.650388e+00 -1.865319e+00 -1.081196e+00 -1.458595e+00 -8.094994e-01 -4.834278e-01 -4.457247e-01 6.224785e-01 9.822663e-01 3.497466e-01 6.912535e-01 8.178185e-01 9.421531e-01 3.518718e-01 4.636551e-01 4.454717e-03 -2.787086e-01 -3.332807e-01 -5.085756e-01 -4.951566e-01 -2.468289e-01 -3.668612e-01 -2.778282e-01 -3.874099e-01 -4.687020e-01 -2.678314e-01
<VARIANCE> 39
 1.205926e+02 2.805535e+02 8.770657e+01 1.205154e+02 3.062418e+01 1.096777e+02 2.495447e+01 8.947552e+00 5.372122e+01 9.101604e+00 7.746908e+00 1.539415e+01 6.710983e+00 1.297637e+00 1.870620e+00 8.090211e-01 7.104774e-01 2.796169e-01 5.338230e-01 1.258459e+00 1.372166e+00 8.882854e-01 2.454423e-01 2.330518e+00 1.888939e+00 1.435925e+00 7.401606e-02 7.737510e-02 6.036806e-02 1.062993e-01 1.253545e-01 1.623838e-01 1.601894e-01 5.825632e-01 4.714842e-01 2.130512e-01 2.135678e-01 2.019973e-01 2.173370e-01
<GCONST> 9.363013e+01
<STATE> 3
<NUMMIXES> 2
<MIXTURE> 1 5.420832e-02
<MEAN> 39
 -2.589639e+01 -8.086056e+00 -5.842546e+00 -8.568189e-01 -1.132706e+00 3.758358e+00 -1.747407e+00 1.918359e-01 -6.092826e+00 -6.091179e+00 1.424222e+00 3.768395e+00 2.979695e+00 -8.323479e-02 1.047209e-01 -1.360199e-01 -2.555425e-01 -5.355441e-01 -6.853368e-01 -3.608705e-01 5.298619e-01 1.221652e+00 9.246182e-01 7.676374e-01 2.320677e-01 -1.368400e-01 1.882693e-01 1.151544e-01 2.240881e-02 -1.060433e-01 -1.462484e-01 -2.573616e-01 -1.659429e-01 2.528915e-02 -1.167465e-01 2.891361e-01 2.165567e-02 -2.161635e-01 -3.127986e-01
<VARIANCE> 39
 1.924733e+00 6.048767e+00 3.232208e+00 4.033120e+00 1.022189e+01 1.084621e+01 4.412310e+00 5.510023e+00 1.363655e+01 1.911531e+01 8.857162e+00 2.420563e+01 2.668977e+00 1.241993e-01 4.406725e-01 7.311630e-01 1.078301e+00 8.011302e-01 7.876549e-01 8.789538e-01 2.311564e+00 2.261892e+00 1.462139e+00 1.491107e+00 1.320726e+00 1.260225e+00 7.360157e-02 9.111705e-02 1.334201e-01 2.809681e-01 3.253425e-01 1.084391e-01 1.206654e-01 2.485622e-01 1.709281e-01 1.943447e-01 3.101693e-01 2.409264e-01 2.716875e-01
<GCONST> 7.328081e+01
<MIXTURE> 2 9.457917e-01
<MEAN> 39
 -7.851251e+00 -4.404633e+01 8.428209e+00 1.013863e+01 1.701591e+00 1.879111e+01 -1.056423e+01 -2.315840e+00 4.737768e+00 -5.276545e+00 1.494825e+00 1.444562e+00 2.178360e+00 -3.629935e-01 -3.460240e-01 -7.562993e-02 -5.411873e-01 -2.339148e-01 -4.475097e-01 -4.762161e-01 1.214039e-02 -4.049896e-01 -3.332633e-02 2.988554e-02 -2.202002e-01 1.200367e-01 1.491822e-01 2.144672e-01 -7.699758e-03 1.000674e-01 1.475716e-01 7.657856e-04 8.272806e-02 8.827428e-02 -8.857983e-02 -1.263443e-01 -1.032527e-01 -2.544998e-02 -1.899739e-02
<VARIANCE> 39
 6.575632e+01 3.228669e+02 2.506789e+01 3.264866e+01 3.483960e+01 6.093808e+01 6.639856e+01 4.928070e+01 2.699136e+01 2.802504e+01 2.440204e+01 1.564392e+01 2.183412e+01 1.592487e+00 2.593740e+00 1.328931e+00 1.097547e+00 1.285775e+00 2.261855e+00 2.130669e+00 1.397520e+00 1.365337e+00 1.686030e+00 1.424054e+00 7.176137e-01 7.911052e-01 1.809119e-01 2.998761e-01 2.134903e-01 1.145324e-01 1.440509e-01 2.941709e-01 1.559126e-01 1.879697e-01 3.272531e-01 4.727393e-01 2.513686e-01 1.533124e-01 1.375792e-01
<GCONST> 1.039119e+02
<STATE> 4
<NUMMIXES> 2
<MIXTURE> 1 5.544625e-01
<MEAN> 39
 -4.033559e+00 -3.237081e+01 8.502359e+00 1.013986e+01 2.420728e+00 1.491687e+01 -8.883810e+00 1.580753e-01 1.556179e+00 -7.476842e+00 -2.927345e+00 -1.762562e-01 5.024930e+00 1.263447e+00 2.646856e+00 -9.735190e-01 7.995543e-02 4.798685e-01 -1.539707e+00 -3.246588e-01 2.905186e-01 -5.474808e-01 -4.806166e-01 -5.264753e-02 -2.166386e-01 -2.124597e-01 -5.338809e-02 -8.764899e-02 -3.375438e-01 -2.084304e-01 1.034553e-01 -1.546370e-01 -7.506578e-02 2.144321e-01 -3.938794e-03 -2.873453e-02 2.479273e-01 1.137734e-01 -3.542642e-02
<VARIANCE> 39
 1.562374e+02 3.797005e+02 4.600737e+01 4.994981e+01 4.459320e+01 7.598013e+01 6.474782e+01 3.518662e+01 3.848336e+01 3.333290e+01 2.512317e+01 2.270683e+01 1.840662e+01 5.797858e+00 9.644114e+00 3.887674e+00 2.204836e+00 2.006402e+00 4.151947e+00 4.162029e+00 2.084525e+00 2.809901e+00 2.475119e+00 1.943920e+00 1.551683e+00 1.183734e+00 3.296308e-01 8.512534e-01 4.720552e-01 3.036561e-01 2.427994e-01 4.498617e-01 5.735957e-01 2.306442e-01 4.502197e-01 3.900387e-01 2.730277e-01 2.728428e-01 2.092312e-01
<GCONST> 1.229967e+02
<MIXTURE> 2 4.455377e-01
<MEAN> 39
 -1.491396e+01 -4.320800e+01 6.685589e+00 5.909424e+00 2.008743e-01 1.549185e+01 -8.567224e+00 2.529204e-01 2.347553e+00 -3.333001e+00 -1.166187e+00 1.203441e+00 7.138329e+00 2.862357e-01 1.169995e+00 3.292813e-02 1.410913e-01 1.942203e-01 -1.741886e-01 2.173785e-01 4.043307e-01 1.563278e-01 -5.871306e-02 5.891758e-02 2.530069e-01 1.146840e-01 3.258145e-01 3.628218e-01 1.264046e-01 1.799902e-01 5.282411e-02 -9.381539e-03 -2.710855e-02 -6.985551e-02 -2.228627e-02 -1.106082e-01 -1.334479e-01 -1.076784e-01 -9.923603e-02
<VARIANCE> 39
 3.605786e+01 2.319648e+02 5.347763e+01 2.104867e+01 1.410680e+01 7.676712e+01 5.640632e+01 1.638955e+01 2.248690e+01 1.962666e+01 2.685684e+01 1.604634e+01 1.361826e+01 1.857021e+00 3.919276e+00 1.496572e+00 1.999248e+00 1.279357e+00 1.389437e+00 1.559900e+00 1.258892e+00 1.654860e+00 1.622463e+00 1.829765e+00 1.255568e+00 1.017905e+00 1.851022e-01 5.376918e-01 2.383654e-01 2.469418e-01 1.907622e-01 3.034079e-01 1.963488e-01 2.346406e-01 3.021993e-01 2.639657e-01 3.689386e-01 2.631734e-01 2.144905e-01
<GCONST> 1.050200e+02
<TRANSP> 5
 0.000000e+00 1.000000e+00 0.000000e+00 0.000000e+00 0.000000e+00
 0.000000e+00 8.210098e-01 1.789902e-01 0.000000e+00 0.000000e+00
 0.000000e+00 0.000000e+00 6.655156e-01 3.344844e-01 0.000000e+00
 0.000000e+00 0.000000e+00 0.000000e+00 9.018797e-01 9.812029e-02
 0.000000e+00 0.000000e+00 0.000000e+00 0.000000e+00 0.000000e+00
<ENDHMM>
~h "th"
<BEGINHMM>
<NUMSTATES> 5
<STATE> 2
<NUMMIXES> 2
<MIXTURE> 1 0.000000e+00
<MEAN> 39
 -3.886223e-05 -1.931190e-05 5.215406e-07 8.761883e-06 -2.145767e-06 5.111098e-06 8.314848e-06 2.488494e-06 -7.539988e-06 1.132488e-06 -3.003515e-07 5.424023e-06 -4.022149e-08 1.873821e-06 -4.437752e-07 5.909242e-07 1.825392e-07 -4.018657e-07 -3.222376e-07 3.189780e-07 -5.820766e-11 -6.482005e-07 -5.755574e-07 -2.846355e-08 6.949995e-08 9.033829e-08 -3.673423e-02 3.657988e-03 -6.203171e-03 1.457151e-03 -7.559096e-04 -1.241736e-03 -9.468020e-04 -1.675523e-03 -7.280131e-04 -1.245679e-03 7.821736e-05 -6.539826e-04 -5.843351e-06
<VARIANCE> 39
 6.791949e-05 0.000000e+00 1.187436e-07 1.545995e-06 3.539026e-07 4.889444e-07 7.301569e-06 3.557652e-07 0.000000e+00 0.000000e+00 0.000000e+00 3.034249e-06 1.224976e-10 0.000000e+00 0.000000e+00 8.043571e-09 0.000000e+00 0.000000e+00 0.000000e+00 2.622983e-09 1.563194e-12 0.000000e+00 0.000000e+00 0.000000e+00 0.000000e+00 0.000000e+00 2.939744e-02 1.510691e-03 1.924523e-03 1.205781e-03 1.539571e-03 1.394400e-03 1.598690e-03 1.480532e-03 1.398113e-03 1.215753e-03 1.174650e-03 9.854551e-04 6.629324e-04
<GCONST> -1.400000e+11
<MIXTURE> 2 1.000000e+00
<MEAN> 39
 -2.020522e+01 -4.101314e+00 -2.733120e+00 5.371968e-01 -2.442279e-01 1.629451e+00 -4.127402e+00 2.489328e+00 -1.383467e+00 -1.737612e+00 1.381829e+00 -8.116064e-01 3.699207e-02 -4.102104e-01 -3.041798e-02 -5.274618e-02 -1.214114e-01 -1.675275e-01 -2.065447e-02 8.337312e-02 -6.206823e-02 5.998334e-02 1.318673e-01 -3.515004e-02 7.215933e-02 6.887482e-02 3.332591e-02 -1.105475e-01 -2.764801e-02 -5.507506e-03 1.949954e-02 3.111183e-02 -1.491625e-03 5.145282e-02 3.114082e-04 -7.980864e-03 2.990442e-02 5.055539e-03 1.210474e-02
<VARIANCE> 39
 1.796025e+02 4.024720e+01 3.887348e+01 6.684815e+01 6.543011e+01 3.139338e+01 4.058566e+01 2.766619e+01 1.569414e+01 3.127521e+01 1.840143e+01 1.059202e+01 2.144756e+01 1.310287e+00 6.764805e-01 9.525303e-01 9.389470e-01 9.827912e-01 1.146155e+00 1.227642e+00 1.121047e+00 1.096702e+00 1.202014e+00 1.151760e+00 9.821780e-01 8.168928e-01 4.602952e-02 1.520204e-01 1.512105e-01 1.423207e-01 1.706929e-01 1.956965e-01 2.397731e-01 2.481999e-01 2.351489e-01 2.190435e-01 2.279776e-01 2.039386e-01 1.764908e-01
<GCONST> 9.522414e+01
<STATE> 3
<NUMMIXES> 2
<MIXTURE> 1 0.000000e+00
<MEAN> 39
 0.000000e+00 0.000000e+00 0.000000e+00 0.000000e+00 0.000000e+00 0.000000e+00 0.000000e+00 0.000000e+00 0.000000e+00 0.000000e+00 0.000000e+00 0.000000e+00 0.000000e+00 7.602786e-28 -6.781300e-28 2.817260e-28 -2.260459e-29 5.468585e-29 -1.506301e-28 1.148696e-28 -2.120465e-29 7.979356e-30 -5.320312e-29 5.792728e-29 -1.833769e-29 3.866608e-31 -4.988265e-02 4.965165e-03 -7.294576e-03 2.466788e-03 2.788171e-04 -1.618284e-03 -9.823618e-04 -1.922494e-03 -5.035132e-04 -1.812430e-03 -3.375670e-05 -6.368760e-04 -8.684045e-05
<VARIANCE> 39
 0.000000e+00 0.000000e+00 0.000000e+00 0.000000e+00 0.000000e+00 0.000000e+00 0.000000e+00 0.000000e+00 0.000000e+00 0.000000e+00 0.000000e+00 0.000000e+00 0.000000e+00 8.953985e-28 7.123556e-28 1.229489e-28 7.915240e-31 4.632556e-30 3.514752e-29 2.044002e-29 6.965190e-31 9.862945e-32 4.384753e-30 5.198011e-30 5.209071e-31 2.315961e-34 4.486060e-02 3.359458e-03 3.289693e-03 2.491937e-03 2.905590e-03 2.327311e-03 2.783720e-03 2.963404e-03 2.648251e-03 2.054753e-03 2.260878e-03 1.761504e-03 1.385205e-03
<GCONST> -1.300000e+11
<MIXTURE> 2 1.000000e+00
<MEAN> 39
 -1.066485e+01 -3.347817e+00 6.249661e-01 6.518229e+00 5.828405e+00 6.609023e+00 -1.847555e+00 6.637011e+00 7.581709e-01 -2.132258e+00 1.651459e+00 7.388574e-01 4.252654e+00 2.318280e-01 -1.766839e+00 -6.015134e-01 -4.662972e-01 -8.180048e-01 7.952470e-02 -8.972369e-02 2.158466e-01 4.828399e-01 5.195357e-01 3.647239e-01 -1.549085e-01 5.002869e-01 5.859835e-01 -1.758992e-01 1.376707e-01 -9.900379e-02 -1.104710e-01 8.668503e-02 -2.000908e-01 -3.663434e-02 -2.425879e-01 -1.824359e-01 2.728354e-01 -1.341827e-01 -1.503207e-01
<VARIANCE> 39
 1.575199e+02 6.458222e+01 5.004491e+01 8.120921e+01 6.714311e+01 5.968535e+01 7.567171e+01 4.569855e+01 4.262498e+01 5.446903e+01 3.543656e+01 1.949882e+01 5.587137e+01 6.974226e+00 4.094653e+00 2.971042e+00 3.737945e+00 3.095395e+00 3.221487e+00 3.663573e+00 3.658788e+00 3.948264e+00 2.850889e+00 3.663831e+00 2.295553e+00 2.862487e+00 3.774612e-01 4.228581e-01 4.476640e-01 5.427569e-01 5.436912e-01 4.664268e-01 5.303425e-01 6.638441e-01 8.911114e-01 5.398328e-01 5.314465e-01 4.196227e-01 5.772376e-01
<GCONST> 1.317794e+02
<STATE> 4
<NUMMIXES> 2
<MIXTURE> 1 8.255655e-01
<MEAN> 39
 4.391090e+00 -1.404951e+01 4.165267e+00 6.230532e+00 2.875462e+00 1.178565e+01 -6.869621e+00 4.501684e+00 -4.724368e+00 -6.538657e+00 9.907416e+00 -3.041024e-01 1.614109e+00 1.379670e+00 -2.177433e-01 1.900629e-01 -2.018710e-01 -1.317458e-01 4.836544e-01 -1.169994e-01 -3.826561e-01 -1.375831e+00 -7.616374e-01 1.382490e+00 9.422064e-02 -5.613215e-01 -2.414050e-01 3.451084e-01 -1.022995e-01 1.420179e-01 2.657686e-01 -1.331196e-01 2.373998e-01 2.404941e-01 2.261124e-01 1.114666e-01 -1.436358e-01 9.427679e-02 1.058915e-01
<VARIANCE> 39
 8.521625e+01 1.223702e+02 8.231083e+01 1.440992e+02 1.309219e+02 1.408739e+02 1.075027e+02 7.080838e+01 8.514243e+01 6.761848e+01 9.259630e+01 2.290981e+01 6.141473e+01 3.846660e+00 6.011475e+00 2.773369e+00 3.835754e+00 4.776695e+00 4.849545e+00 4.562848e+00 3.768183e+00 6.109955e+00 4.906916e+00 4.375372e+00 1.836838e+00 1.997705e+00 5.251864e-01 5.191627e-01 4.133324e-01 5.788988e-01 5.051049e-01 5.833579e-01 7.446885e-01 4.099297e-01 9.936827e-01 8.137118e-01 5.793548e-01 3.576167e-01 3.388926e-01
<GCONST> 1.391684e+02
<MIXTURE> 2 1.744344e-01
<MEAN> 39
 -9.399247e+00 -1.075238e+01 -2.686132e+00 1.674666e-01 -2.754917e+00 7.124532e+00 7.627964e-02 5.516967e+00 6.063223e-03 2.508207e+00 9.538874e+00 2.470049e+00 5.664807e+00 9.446675e-01 1.806899e-01 -3.285550e-01 6.969604e-01 5.757796e-01 -2.581623e-01 7.619278e-01 1.130452e+00 4.009467e-01 4.631398e-01 2.114256e-01 -6.226435e-01 -3.331174e-01 3.397624e-01 2.274324e-01 1.742544e-01 -4.562512e-03 9.322371e-02 -4.736240e-02 -1.785956e-01 1.097726e-02 -3.941625e-01 -4.707065e-01 -1.189499e-01 -2.516876e-01 -3.555119e-01
<VARIANCE> 39
 2.491956e+02 3.686220e+01 2.145037e+01 1.751560e+01 3.001274e+01 8.246555e+01 2.921493e+01 3.384653e+01 2.726305e+01 2.945750e+01 1.053769e+02 1.651044e+01 2.304703e+01 2.074588e+00 2.368906e+00 2.476119e+00 2.536023e+00 3.176282e+00 1.694639e+00 2.549800e+00 2.291092e+00 2.208098e+00 2.042141e+00 2.135493e+00 2.246928e+00 1.441094e+00 1.893209e-01 1.415289e-01 3.507180e-01 2.772112e-01 3.977595e-01 3.535992e-01 3.698541e-01 3.450323e-01 5.725840e-01 3.853655e-01 3.095120e-01 2.666871e-01 2.761130e-01
<GCONST> 1.137839e+02
<TRANSP> 5
 0.000000e+00 1.000000e+00 0.000000e+00 0.000000e+00 0.000000e+00
 0.000000e+00 8.038316e-01 1.961684e-01 0.000000e+00 0.000000e+00
 0.000000e+00 0.000000e+00 6.966031e-01 3.033969e-01 0.000000e+00
 0.000000e+00 0.000000e+00 0.000000e+00 5.661288e-01 4.338712e-01
 0.000000e+00 0.000000e+00 0.000000e+00 0.000000e+00 0.000000e+00
<ENDHMM>
~h "tx"
<BEGINHMM>
<NUMSTATES> 5
<STATE> 2
<NUMMIXES> 2
<MIXTURE> 1 4.386768e-01
<MEAN> 39
 4.119490e+00 -4.180695e+00 -3.153934e-01 1.071267e+01 1.234886e+01 6.881826e+00 -7.195812e+00 6.118597e+00 -3.716641e+00 -1.025464e+01 2.784662e+00 6.130302e-02 -3.687904e-01 -8.389938e-01 4.331606e-01 2.817735e-01 2.896872e-01 -3.068662e-02 4.205478e-01 8.431155e-01 -2.340411e-02 5.680419e-01 8.569103e-01 -4.392877e-01 8.119584e-02 6.284325e-01 -5.169272e-03 -2.242924e-01 7.774474e-02 -4.411177e-02 -1.336552e-01 -7.209900e-02 -1.069040e-01 5.041368e-02 1.132189e-01 6.632397e-02 1.050549e-01 -4.554905e-03 -9.107275e-03
<VARIANCE> 39
 2.349164e+02 2.069337e+02 9.044064e+01 1.027299e+02 1.313139e+02 1.082354e+02 1.541342e+02 1.016439e+02 6.651427e+01 9.338579e+01 1.166242e+02 4.021215e+01 6.575655e+01 3.510263e+00 5.254823e+00 3.869288e+00 2.986892e+00 3.076561e+00 3.331363e+00 4.399001e+00 3.143422e+00 2.783955e+00 3.767280e+00 3.865126e+00 1.694025e+00 2.720187e+00 2.207312e-01 6.080301e-01 5.040690e-01 3.752942e-01 4.430225e-01 3.933308e-01 4.725637e-01 4.734130e-01 4.342980e-01 5.410812e-01 5.624977e-01 2.747887e-01 4.229425e-01
<GCONST> 1.366523e+02
<MIXTURE> 2 5.613231e-01
<MEAN> 39
 -2.115990e+01 -7.316247e+00 -4.216655e+00 -1.073389e+00 -1.824697e+00 2.164949e+00 -3.197372e+00 1.967685e+00 -2.633852e+00 -2.257887e+00 1.548128e+00 3.028222e-01 8.565152e-01 -6.649110e-02 2.380157e-02 1.593388e-02 -4.986939e-02 -3.039608e-02 2.048197e-02 -5.625665e-03 -1.105064e-02 4.486138e-02 9.503844e-02 1.386176e-02 -5.611832e-02 3.850445e-03 2.828596e-02 -2.039615e-02 1.111630e-02 3.792161e-02 4.309422e-02 2.520251e-02 6.638058e-04 2.245718e-02 -6.563267e-03 -2.572047e-02 8.552520e-03 2.416053e-02 3.065263e-02
<VARIANCE> 39
 1.698876e+02 8.843608e+01 4.358127e+01 3.806091e+01 4.051814e+01 4.057761e+01 3.159052e+01 3.148304e+01 2.739420e+01 2.517524e+01 2.204483e+01 1.828173e+01 1.305354e+01 1.802220e-01 2.763878e-01 3.600580e-01 4.976939e-01 6.133837e-01 7.711599e-01 9.375342e-01 9.558338e-01 1.238797e+00 1.160347e+00 1.076421e+00 1.025948e+00 8.027908e-01 3.034403e-02 6.631927e-02 7.782021e-02 1.103415e-01 1.475722e-01 1.662661e-01 1.965288e-01 2.000342e-01 2.631994e-01 2.435473e-01 2.286147e-01 2.194376e-01 1.838963e-01
<GCONST> 8.744249e+01
<STATE> 3
<NUMMIXES> 2
<MIXTURE> 1 8.218213e-01
<MEAN> 39
 -1.118610e+01 -5.011645e+00 2.610213e+00 1.033313e+01 7.585682e+00 8.512886e+00 -7.588602e-01 7.434855e+00 3.341808e+00 -1.539793e+00 -1.511405e+00 -1.249567e+00 5.463023e+00 7.889264e-01 -2.355434e+00 -2.281987e-01 1.470529e-01 -5.523945e-01 1.604464e-01 -2.981676e-01 3.623899e-01 7.661428e-01 3.802087e-01 5.245399e-01 4.736473e-02 3.273624e-01 4.218631e-01 -4.647514e-01 1.536511e-01 -2.551320e-01 -3.495700e-01 2.223045e-02 -2.618662e-01 -1.081597e-01 -3.749422e-01 -3.809018e-01 3.637261e-01 1.407397e-02 -4.669894e-01
<VARIANCE> 39
 1.140431e+02 9.144404e+01 4.568906e+01 5.507270e+01 5.869086e+01 4.735249e+01 4.440907e+01 3.426317e+01 4.002508e+01 3.654640e+01 3.858179e+01 2.192650e+01 4.948539e+01 6.508022e+00 6.173007e+00 3.928974e+00 4.050749e+00 5.372353e+00 2.885063e+00 3.096228e+00 2.825376e+00 3.163070e+00 2.609867e+00 3.450255e+00 2.144808e+00 5.246174e+00 3.205041e-01 4.631250e-01 6.180273e-01 5.289072e-01 7.010865e-01 4.908404e-01 4.406819e-01 4.382681e-01 6.993061e-01 5.773519e-01 5.749341e-01 4.150127e-01 8.506408e-01
<GCONST> 1.308491e+02
<MIXTURE> 2 1.781786e-01
<MEAN> 39
 2.487814e+00 -2.867793e+01 1.342687e+01 1.085795e+01 -3.504824e+00 1.935191e+01 -5.870977e+00 2.572376e+00 2.554083e-02 -1.014808e+01 8.537648e+00 1.955425e+00 -1.179465e+00 2.326541e+00 -4.170504e-01 1.897941e+00 6.467667e-01 2.529497e-01 1.211452e+00 -1.120158e+00 -1.019510e+00 -1.820035e+00 -2.207315e+00 1.187786e+00 6.806808e-01 -8.184112e-01 -5.274670e-02 1.386942e+00 -8.203128e-01 2.003853e-01 1.049975e+00 -8.304987e-01 -1.339834e-01 5.681997e-02 -3.321862e-02 2.503732e-01 -6.186184e-01 -1.914715e-01 4.467219e-01
<VARIANCE> 39
 2.740576e+01 4.464313e+01 5.621824e+01 2.916807e+01 2.980994e+01 5.386259e+01 3.505644e+01 2.188100e+01 6.405011e+01 5.131882e+01 6.392860e+01 2.081060e+01 2.919000e+01 1.758525e+00 1.713902e+01 8.133416e+00 2.056824e+00 6.219091e+00 8.602743e+00 2.571798e+00 1.824511e+00 2.088099e+00 4.520144e+00 5.773159e+00 1.645594e+00 2.442659e+00 2.285235e-01 1.301497e+00 1.449393e+00 3.805429e-01 4.835270e-01 1.276424e+00 4.949113e-01 5.507378e-01 4.249994e-01 9.172524e-01 7.845565e-01 2.670187e-01 4.963269e-01
<GCONST> 1.292197e+02
<STATE> 4
<NUMMIXES> 2
<MIXTURE> 1 9.696865e-01
<MEAN> 39
 -2.246230e+00 -2.138502e+01 5.886843e+00 8.167973e+00 3.916073e+00 1.271972e+01 -5.627323e+00 8.164002e+00 -1.655922e+00 -9.034304e+00 5.710563e+00 1.619315e+00 3.797193e+00 1.257092e+00 -1.210694e-01 1.697715e-01 4.728645e-02 3.353457e-01 -9.232748e-02 -5.148205e-01 4.305941e-02 -1.111874e+00 -1.054377e+00 8.989524e-01 2.985823e-01 -6.053063e-01 -1.260296e-01 4.986017e-01 -7.279396e-02 9.228753e-02 2.135060e-01 -1.400841e-01 2.005687e-02 1.944815e-02 4.516698e-02 2.440741e-02 -1.464039e-01 -2.142339e-02 2.423663e-02
<VARIANCE> 39
 1.203686e+02 1.631893e+02 1.334095e+02 7.046603e+01 8.229235e+01 1.261601e+02 8.520856e+01 5.723639e+01 8.879658e+01 7.650751e+01 7.850563e+01 5.219133e+01 6.019131e+01 4.097370e+00 1.428574e+01 9.740502e+00 3.126070e+00 4.683129e+00 7.880607e+00 5.712863e+00 4.056358e+00 5.622893e+00 6.327337e+00 5.372838e+00 3.159735e+00 3.371364e+00 3.750857e-01 1.400277e+00 1.446263e+00 4.472193e-01 5.857008e-01 1.070344e+00 7.601559e-01 7.163785e-01 1.008897e+00 1.109917e+00 8.638850e-01 4.699528e-01 6.058933e-01
<GCONST> 1.481029e+02
<MIXTURE> 2 3.031327e-02
<MEAN> 39
 1.038248e+01 -1.400112e+01 5.933313e+00 1.530466e+01 1.237993e+01 -8.341064e-01 -2.072212e+01 7.315501e+00 -1.807618e+00 -1.408645e+01 7.287529e+00 -1.880808e+00 -8.974144e+00 -2.596140e-02 5.557860e-01 -4.115080e-01 -2.925470e-02 1.718673e-02 -4.271977e-01 -7.021356e-02 -2.189341e-01 6.669196e-02 1.491880e-01 8.781792e-02 2.918202e-01 1.284284e-01 -4.450666e-02 6.394799e-02 1.370315e-03 1.072979e-01 -4.490431e-02 4.926518e-02 2.615230e-01 1.292278e-01 8.873730e-02 7.021725e-02 -1.420026e-02 6.936527e-02 4.273209e-02
<VARIANCE> 39
 1.417183e+02 3.836702e+02 5.663689e+01 7.798552e+01 1.869418e+02 1.839729e+02 1.014904e+02 1.308939e+02 8.049165e+01 1.063639e+02 1.404321e+02 3.793367e+01 7.344984e+01 6.649461e-01 9.603192e-01 1.342755e+00 1.074205e+00 9.875880e-01 1.322247e+00 2.519525e+00 2.558781e+00 7.740630e-01 2.021245e+00 1.672714e+00 8.508939e-01 9.262547e-01 8.960752e-02 1.179355e-01 1.421756e-01 1.087519e-01 1.148687e-01 1.252404e-01 2.665051e-01 2.518873e-01 1.308959e-01 2.220423e-01 1.716167e-01 1.202233e-01 1.436283e-01
<GCONST> 1.105967e+02
<TRANSP> 5
 0.000000e+00 1.000000e+00 0.000000e+00 0.000000e+00 0.000000e+00
 0.000000e+00 8.290734e-01 1.709266e-01 0.000000e+00 0.000000e+00
 0.000000e+00 0.000000e+00 7.663885e-01 2.336115e-01 0.000000e+00
 0.000000e+00 0.000000e+00 0.000000e+00 7.838329e-01 2.161671e-01
 0.000000e+00 0.000000e+00 0.000000e+00 0.000000e+00 0.000000e+00
<ENDHMM>
~h "uu"
<BEGINHMM>
<NUMSTATES> 7
<STATE> 2
<NUMMIXES> 2
<MIXTURE> 1 8.313698e-01
<MEAN> 39
 1.655567e+01 4.596946e+00 5.172875e+00 1.346360e+01 9.877210e+00 -3.115613e+00 -1.055594e+01 1.517525e+01 1.700120e+00 -2.022152e+01 -5.023973e+00 -5.267078e+00 -1.209699e+01 1.603599e-01 5.708378e-01 2.970416e-01 -1.752355e-01 -9.380435e-01 -1.454858e+00 -1.718549e-01 9.725215e-01 8.209601e-01 2.869040e-02 -3.750982e-01 -2.419797e-01 -3.338566e-01 -8.823186e-02 -5.506867e-02 2.301465e-02 2.863986e-02 4.406676e-02 1.194999e-01 4.000647e-02 -1.282812e-01 -1.506878e-02 1.773014e-01 9.213957e-02 3.339201e-02 4.556214e-02
<VARIANCE> 39
 8.893600e+00 5.604838e+01 2.781367e+01 5.816190e+01 6.619095e+01 9.709200e+01 7.247357e+01 5.454614e+01 5.751812e+01 1.006976e+02 5.957308e+01 5.570354e+01 2.940867e+01 4.053897e-01 7.126998e-01 6.730794e-01 1.400357e+00 1.500468e+00 2.147970e+00 3.056282e+00 2.110435e+00 1.377436e+00 2.087194e+00 1.933995e+00 1.431520e+00 1.332207e+00 6.350046e-02 1.003784e-01 9.777910e-02 1.325736e-01 1.201949e-01 2.845891e-01 2.423463e-01 2.420442e-01 1.674003e-01 2.848207e-01 1.777414e-01 1.506278e-01 1.336366e-01
<GCONST> 1.022868e+02
<MIXTURE> 2 1.686303e-01
<MEAN> 39
 -3.467329e-01 -9.371395e+00 3.840777e+00 6.841057e+00 1.887430e+00 1.017880e+01 7.140925e-01 8.817848e+00 -5.741802e-01 -8.245659e+00 -2.935171e-01 -1.173303e+00 1.470946e+00 2.256455e+00 2.140802e+00 2.650065e-01 1.032070e+00 5.603810e-02 -2.030840e+00 -5.585077e-01 7.108949e-01 -6.507272e-02 -8.636905e-01 -8.178331e-01 -6.203998e-01 -7.247801e-01 3.247024e-02 1.613543e-01 7.485080e-02 1.170565e-01 1.345047e-02 -5.426050e-01 -2.989941e-01 2.041222e-01 9.837608e-02 -1.542558e-01 -9.397124e-02 -5.262856e-02 -2.091019e-01
<VARIANCE> 39
 1.735709e+02 2.679202e+02 9.949303e+01 8.454859e+01 5.884472e+01 1.718293e+02 8.464622e+01 8.497306e+01 6.240173e+01 8.655900e+01 9.376746e+01 3.067393e+01 3.054712e+01 4.270172e+00 1.148806e+01 3.940220e+00 4.683879e+00 4.499029e+00 9.569079e+00 3.705009e+00 3.192470e+00 4.651138e+00 5.125954e+00 4.103679e+00 2.376030e+00 2.437915e+00 4.790795e-01 1.062645e+00 5.262865e-01 4.830186e-01 4.554469e-01 9.693555e-01 5.389090e-01 4.164974e-01 8.085886e-01 8.718700e-01 6.316657e-01 3.317921e-01 3.870878e-01
<GCONST> 1.417054e+02
<STATE> 3
<NUMMIXES> 2
<MIXTURE> 1 6.407598e-01
<MEAN> 39
 1.664937e+01 9.906229e+00 1.046536e+01 1.360847e+01 9.567451e-02 -1.430486e+01 -1.035732e+01 1.641498e+01 4.193533e+00 -1.634912e+01 -3.634815e+00 -8.100955e-01 -1.200843e+01 2.633616e-02 1.565651e-01 7.231634e-03 -1.737430e-01 -3.796488e-01 -2.868374e-01 9.259675e-02 2.797025e-02 5.096324e-03 2.406580e-01 1.018752e-02 -1.402055e-02 1.273924e-01 4.818418e-03 -3.510336e-02 -6.909666e-02 -7.856146e-03 1.070272e-01 1.398579e-01 7.019369e-03 -2.045149e-02 -5.498314e-02 -4.951994e-02 -4.246806e-02 -6.777487e-02 3.475115e-02
<VARIANCE> 39
 1.638200e+00 1.964328e+01 1.429962e+01 1.122199e+01 2.936850e+01 4.515337e+01 2.473572e+01 2.914929e+01 2.016549e+01 3.494850e+01 2.705831e+01 3.119008e+01 1.734074e+01 9.552605e-02 3.911515e-01 3.092241e-01 3.944724e-01 4.193177e-01 7.524261e-01 6.147810e-01 9.936544e-01 5.858518e-01 9.129406e-01 6.001591e-01 9.487880e-01 3.118629e-01 1.514631e-02 3.481577e-02 3.176437e-02 5.336268e-02 5.428901e-02 9.926897e-02 7.749146e-02 1.134050e-01 7.343244e-02 1.103819e-01 6.096899e-02 8.221631e-02 4.617641e-02
<GCONST> 6.368315e+01
<MIXTURE> 2 3.592401e-01
<MEAN> 39
 1.261933e+01 1.831665e+00 5.293207e+00 1.325985e+01 9.545288e+00 -4.253687e+00 -1.056747e+01 1.621329e+01 -2.523060e-01 -1.957330e+01 -1.275752e+00 -3.318269e+00 -1.042384e+01 -5.588864e-02 6.516706e-01 1.145369e-01 -3.013953e-01 -5.308577e-01 -3.813294e-01 3.275769e-01 1.907297e-01 5.009241e-01 7.276037e-01 -2.049395e-01 -3.251403e-01 -1.748101e-01 -3.394175e-02 -7.194406e-02 -2.105041e-02 5.613492e-02 9.878239e-02 1.944066e-01 8.357543e-03 -2.336223e-01 -5.384076e-02 1.536323e-01 1.000538e-01 8.897458e-02 6.052741e-02
<VARIANCE> 39
 1.299320e+02 1.178244e+02 8.286798e+01 7.738940e+01 9.443887e+01 8.565298e+01 9.762683e+01 7.885654e+01 6.614932e+01 1.088154e+02 1.261543e+02 2.475321e+01 5.204501e+01 3.969966e-01 6.910302e-01 8.807626e-01 1.063912e+00 1.195708e+00 1.359066e+00 1.499706e+00 1.541910e+00 9.892793e-01 1.653638e+00 1.432398e+00 1.019168e+00 7.700542e-01 4.809086e-02 9.089695e-02 1.010604e-01 1.236751e-01 1.378937e-01 1.391097e-01 2.585218e-01 2.082499e-01 1.607384e-01 2.264169e-01 2.136579e-01 1.483909e-01 1.152956e-01
<GCONST> 1.038661e+02
<STATE> 4
<NUMMIXES> 2
<MIXTURE> 1 9.997111e-01
<MEAN> 39
 1.404094e+01 6.444547e+00 7.710905e+00 1.440394e+01 5.530116e+00 -1.066404e+01 -1.231802e+01 1.518004e+01 3.633508e+00 -1.452560e+01 -2.073575e+00 -1.801985e+00 -9.601679e+00 -1.684937e-02 2.320980e-01 -9.991467e-02 -1.836274e-01 -1.144048e-01 1.517755e-01 2.191310e-01 -2.081394e-01 -8.923887e-02 2.348760e-01 -1.655753e-02 5.302101e-02 1.660523e-01 -6.361515e-03 -3.913509e-02 -5.199829e-02 -1.540942e-02 6.669372e-02 1.905167e-01 7.790241e-02 -6.560659e-02 -6.040541e-02 8.424774e-03 -2.055284e-02 -3.947230e-02 6.415825e-02
<VARIANCE> 39
 8.022509e+01 9.583140e+01 5.538534e+01 5.021100e+01 7.701394e+01 1.108288e+02 6.653623e+01 8.138504e+01 5.807544e+01 6.691916e+01 6.904248e+01 2.861603e+01 3.663711e+01 2.179267e-01 5.846240e-01 7.314860e-01 8.556073e-01 6.260959e-01 1.017945e+00 1.229858e+00 1.301111e+00 9.380507e-01 1.332411e+00 1.060788e+00 1.116039e+00 5.781361e-01 2.950958e-02 7.038794e-02 6.206375e-02 9.490480e-02 9.071700e-02 1.123537e-01 1.620850e-01 1.820707e-01 1.123894e-01 1.605016e-01 1.311650e-01 1.107139e-01 7.821902e-02
<GCONST> 9.277767e+01
<MIXTURE> 2 2.889676e-04
<MEAN> 39
 1.461647e+01 1.566086e+00 4.283029e+00 1.047744e+00 6.502785e+00 -3.856531e+00 -1.250123e+01 2.030444e+01 -1.960878e+01 -2.413631e+01 2.176554e+01 -7.722874e+00 -7.521120e+00 -4.162222e-01 2.032520e+00 -5.039091e-01 1.759992e+00 1.890749e+00 1.935911e+00 3.822842e+00 1.088910e+00 2.521060e-02 7.017113e-01 -2.663080e+00 -9.208404e-01 -1.433905e+00 1.389438e-01 8.101916e-02 -2.536862e-01 6.819131e-01 -1.020201e-01 -2.967118e-01 -8.747735e-03 1.133121e-01 1.003956e+00 3.701299e-01 -5.309095e-01 6.789156e-01 3.156795e-01
<VARIANCE> 39
 4.115295e-02 2.975082e-01 4.843025e-01 9.611969e-01 1.559830e-01 5.576782e-01 4.045944e-01 3.110657e-01 3.703461e+00 5.259857e-01 7.216492e+00 1.791811e-01 4.307785e-01 1.492903e-03 6.646347e-02 1.838729e-03 5.336142e-02 5.822301e-02 8.217597e-02 2.733870e-01 1.406014e-02 6.674170e-03 3.956914e-03 1.246338e-01 3.787160e-03 1.335406e-02 3.626533e-04 7.911138e-04 1.759008e-04 2.990633e-03 4.511999e-03 3.617913e-03 2.029712e-03 2.319252e-03 9.037256e-03 5.548552e-03 1.611993e-03 2.322674e-03 1.445673e-03
<GCONST> -7.153688e+01
<STATE> 5
<NUMMIXES> 2
<MIXTURE> 1 1.735077e-01
<MEAN> 39
 1.392318e+01 1.108292e+01 7.805241e+00 1.110637e+01 5.078713e+00 -3.991795e+00 -8.073687e+00 1.145407e+01 5.965733e+00 -7.976363e+00 -5.445339e+00 -8.486835e+00 -1.038674e+01 -1.519187e-02 4.861927e-02 -7.919202e-01 -9.151614e-01 2.837499e-01 1.705245e+00 1.036738e+00 -4.675603e-01 -3.724076e-01 3.247182e-01 -6.407734e-01 -7.971161e-01 5.921053e-01 -8.425875e-02 -6.452671e-02 -6.130948e-02 -5.780470e-02 2.407223e-02 2.318221e-01 3.556733e-01 2.182241e-01 -1.844741e-01 -2.620069e-01 -4.818672e-02 1.827899e-01 1.982496e-01
<VARIANCE> 39
 3.665991e+01 2.816078e+01 2.973994e+01 2.567378e+01 4.016015e+01 1.070371e+02 6.374963e+01 4.687521e+01 2.722355e+01 3.990227e+01 8.099985e+01 6.374403e+01 3.573839e+01 5.689165e-01 7.637033e-01 1.020349e+00 1.235764e+00 9.779989e-01 2.127261e+00 2.159263e+00 2.042552e+00 1.090581e+00 1.497299e+00 1.318166e+00 1.568977e+00 8.917525e-01 5.727844e-02 9.181798e-02 1.094057e-01 1.953938e-01 1.300144e-01 2.471904e-01 3.649909e-01 3.239577e-01 1.743782e-01 1.988447e-01 1.960115e-01 1.920138e-01 1.493421e-01
<GCONST> 1.002476e+02
<MIXTURE> 2 8.264921e-01
<MEAN> 39
 1.599785e+01 3.824549e+00 4.599728e+00 1.245642e+01 7.714726e+00 -6.061235e+00 -9.978036e+00 1.774759e+01 1.540967e+00 -2.146754e+01 -6.174734e+00 -5.594248e+00 -1.094293e+01 -2.235020e-02 -1.177576e-01 -4.612487e-01 -1.628683e-01 5.898688e-01 1.252108e+00 5.164449e-01 -7.027477e-01 -4.023855e-01 2.466321e-01 -3.690553e-01 -3.111083e-01 5.907103e-01 -9.696132e-02 3.930818e-03 3.929924e-02 4.880711e-02 6.371064e-02 2.131553e-01 1.367751e-01 -1.487281e-01 -6.934294e-02 1.446745e-01 2.927738e-02 3.679676e-02 1.358695e-01
<VARIANCE> 39
 5.303616e+01 6.061751e+01 3.747211e+01 3.920001e+01 8.238911e+01 9.690359e+01 5.833664e+01 6.480624e+01 4.576669e+01 6.934657e+01 7.334505e+01 4.015221e+01 2.824088e+01 2.315409e-01 7.265055e-01 7.416177e-01 9.235312e-01 7.873408e-01 1.655730e+00 1.641847e+00 1.928743e+00 1.066978e+00 2.075168e+00 1.174829e+00 1.206244e+00 8.996595e-01 4.699311e-02 8.310048e-02 9.847660e-02 1.218367e-01 1.184523e-01 1.755634e-01 2.632336e-01 2.593722e-01 1.443451e-01 2.496251e-01 1.632951e-01 1.454180e-01 1.169144e-01
<GCONST> 9.821809e+01
<STATE> 6
<NUMMIXES> 2
<MIXTURE> 1 3.039991e-01
<MEAN> 39
 -1.857357e+01 2.415791e-01 4.219174e-01 1.487488e+00 -5.968575e-01 2.379720e+00 -2.192253e+00 2.945615e+00 -7.362804e-01 -6.734150e-01 7.438321e-01 -9.425883e-01 -1.259763e-01 -3.425922e-01 -1.156705e-01 -8.466482e-03 2.222814e-03 1.225529e-01 2.666164e-01 1.206768e-01 -6.051689e-03 3.699914e-02 1.396869e-01 2.333419e-02 4.626929e-02 1.653805e-01 -1.260090e-02 -4.247060e-02 -7.097909e-03 2.671352e-02 -1.423348e-02 -8.682970e-02 -4.530632e-02 4.335794e-02 3.525560e-02 -4.791088e-02 -3.069041e-02 -6.258919e-03 -1.063459e-02
<VARIANCE> 39
 1.864452e+02 1.152003e+02 7.929138e+01 5.887699e+01 3.839510e+01 2.509794e+01 1.698011e+01 1.994809e+01 1.022136e+01 1.131876e+01 8.990343e+00 9.832988e+00 1.110455e+01 8.203562e-01 3.378637e-01 4.548787e-01 5.333173e-01 7.926205e-01 1.237607e+00 9.316835e-01 1.095220e+00 1.334118e+00 1.220138e+00 9.226285e-01 1.058978e+00 9.159451e-01 3.286045e-02 5.415523e-02 8.920129e-02 1.127811e-01 1.496610e-01 1.858244e-01 1.620287e-01 1.991377e-01 2.761847e-01 2.651171e-01 1.946163e-01 2.094336e-01 1.783774e-01
<GCONST> 8.662952e+01
<MIXTURE> 2 6.960008e-01
<MEAN> 39
 1.054801e+01 6.105455e+00 5.083529e+00 1.078953e+01 8.912623e+00 3.801566e+00 -3.137205e+00 1.152126e+01 -6.727685e-01 -1.336372e+01 -5.847405e+00 -5.804176e+00 -4.849102e+00 -1.522220e+00 4.304295e-01 6.839510e-01 3.289418e-01 3.066435e-01 1.379422e+00 1.191604e+00 -6.069458e-01 -2.257292e-01 1.136459e+00 5.007812e-02 1.874525e-01 1.060677e+00 -1.953140e-01 -7.255000e-02 1.727271e-01 1.433520e-01 1.595631e-02 -1.282549e-01 -2.064656e-01 -2.004103e-02 7.084746e-02 4.164794e-02 1.149955e-01 7.907329e-02 -4.193466e-03
<VARIANCE> 39
 9.024274e+01 9.656129e+01 8.323631e+01 6.853111e+01 8.473064e+01 1.233497e+02 1.066414e+02 7.760321e+01 5.863621e+01 7.611452e+01 8.818188e+01 5.847246e+01 4.073658e+01 1.642730e+00 2.178576e+00 2.406631e+00 2.369697e+00 1.746629e+00 2.987361e+00 3.757278e+00 3.028232e+00 1.850777e+00 4.120980e+00 2.238095e+00 1.759188e+00 1.615360e+00 1.640105e-01 3.245610e-01 3.307619e-01 3.220091e-01 2.058316e-01 3.604433e-01 5.110459e-01 4.336241e-01 2.882239e-01 5.235107e-01 3.278812e-01 2.494017e-01 2.525519e-01
<GCONST> 1.242628e+02
<TRANSP> 7
 0.000000e+00 1.000000e+00 0.000000e+00 0.000000e+00 0.000000e+00 0.000000e+00 0.000000e+00
 0.000000e+00 8.233856e-01 1.766144e-01 0.000000e+00 0.000000e+00 0.000000e+00 0.000000e+00
 0.000000e+00 0.000000e+00 6.617416e-01 3.382584e-01 0.000000e+00 0.000000e+00 0.000000e+00
 0.000000e+00 0.000000e+00 0.000000e+00 4.681147e-01 5.318853e-01 0.000000e+00 0.000000e+00
 0.000000e+00 0.000000e+00 0.000000e+00 0.000000e+00 6.909727e-01 3.090273e-01 0.000000e+00
 0.000000e+00 0.000000e+00 0.000000e+00 0.000000e+00 0.000000e+00 7.988450e-01 2.011550e-01
 0.000000e+00 0.000000e+00 0.000000e+00 0.000000e+00 0.000000e+00 0.000000e+00 0.000000e+00
<ENDHMM>
~h "SIL"
<BEGINHMM>
<NUMSTATES> 5
<STATE> 2
<NUMMIXES> 2
<MIXTURE> 1 6.343535e-01
<MEAN> 39
 -9.558927e+00 -2.955737e+00 -2.506285e+00 4.132630e+00 -4.022208e-01 3.377083e+00 4.130420e+00 3.240064e-02 1.627516e+00 6.109094e-01 -1.318923e-01 4.498853e+00 -8.942712e-01 -6.928948e-02 3.829870e-02 -6.734582e-04 6.790166e-03 1.340300e-02 1.375837e-02 2.232590e-02 1.784532e-02 1.971374e-02 1.640245e-02 -5.062588e-03 -1.623879e-03 2.044486e-02 -2.696889e-03 4.180977e-03 1.697672e-02 -6.120666e-03 -4.228717e-03 6.320278e-04 -1.656370e-03 -2.444819e-03 6.286830e-03 -8.582719e-03 -1.216181e-02 -5.073556e-03 -4.548995e-03
<VARIANCE> 39
 4.186462e+01 7.402940e+01 3.099679e+01 3.340697e+01 4.645889e+01 4.345008e+01 2.968412e+01 3.228226e+01 3.052909e+01 2.290461e+01 1.840874e+01 1.938979e+01 2.506889e+01 1.440693e-01 3.649671e-01 4.392949e-01 5.817301e-01 7.149680e-01 8.990549e-01 1.019488e+00 1.134216e+00 1.207672e+00 1.148922e+00 1.105158e+00 1.056239e+00 9.328530e-01 2.465242e-02 5.432563e-02 8.521398e-02 1.176557e-01 1.502030e-01 1.916525e-01 2.139053e-01 2.402989e-01 2.571377e-01 2.458468e-01 2.369102e-01 2.262610e-01 2.008634e-01
<GCONST> 8.756295e+01
<MIXTURE> 2 3.656465e-01
<MEAN> 39
 -1.142323e+01 1.189757e+00 -1.150043e+00 2.073591e+00 1.984568e+00 1.458758e+00 4.666055e+00 1.247311e+00 2.303590e+00 6.847165e-01 -4.941858e-01 4.576219e+00 -1.241537e+00 -2.383977e-01 3.311241e-02 -1.279305e-02 2.437228e-02 2.793390e-02 1.407799e-01 9.608070e-02 8.677866e-02 1.114440e-01 1.082627e-01 3.608481e-02 3.226501e-02 6.382274e-02 1.940947e-02 3.630415e-03 8.181022e-03 2.361297e-02 2.753633e-02 -1.779759e-02 -3.005121e-02 -1.506858e-02 -2.992165e-02 -1.730591e-02 -1.236073e-02 -2.410082e-02 -2.872620e-03
<VARIANCE> 39
 4.480489e+01 6.668343e+01 4.001367e+01 5.130425e+01 5.788618e+01 6.144305e+01 5.531167e+01 4.810794e+01 4.128096e+01 3.064755e+01 2.747056e+01 2.852841e+01 3.160432e+01 1.514161e+00 2.485977e+00 2.332164e+00 2.129232e+00 2.084023e+00 2.247124e+00 2.255863e+00 2.281002e+00 2.357451e+00 2.077529e+00 1.851172e+00 1.746888e+00 1.433622e+00 2.191909e-01 3.888186e-01 4.058700e-01 3.762366e-01 3.878883e-01 4.263409e-01 4.298833e-01 4.452224e-01 4.540788e-01 4.104838e-01 3.682645e-01 3.519675e-01 2.906989e-01
<GCONST> 1.171093e+02
<STATE> 3
<NUMMIXES> 2
<MIXTURE> 1 6.952365e-01
<MEAN> 39
 -4.614826e-36 4.088473e-39 7.546833e-41 -2.003180e-38 -1.016468e-37 1.405099e-39 -7.973388e-43 7.664946e-39 -1.286953e-38 1.415171e-41 6.993320e-41 6.165994e-41 1.993908e-41 5.552645e-41 1.641061e-40 1.461414e-41 6.268008e-42 1.373272e-43 -2.054304e-42 1.018744e-41 -2.522337e-44 -2.642154e-39 1.558244e-42 1.841306e-42 3.833953e-42 -1.401298e-45 -1.041492e-02 1.165869e-03 -4.681267e-04 1.067939e-03 -3.674125e-04 -4.449329e-04 -4.800549e-04 -8.346118e-04 -4.919678e-04 -6.385805e-04 -4.974747e-04 3.757836e-04 -7.628010e-04
<VARIANCE> 39
 1.000000e-02 1.000000e-02 1.000000e-02 1.000000e-02 1.000000e-02 1.000000e-02 1.000000e-02 1.000000e-02 1.000000e-02 1.000000e-02 1.000000e-02 1.000000e-02 1.000000e-02 1.000000e-02 1.000000e-02 1.000000e-02 1.000000e-02 1.000000e-02 1.000000e-02 1.000000e-02 1.000000e-02 1.000000e-02 1.000000e-02 1.000000e-02 1.000000e-02 1.000000e-02 1.000000e-02 1.000000e-02 1.000000e-02 1.000000e-02 1.000000e-02 1.000000e-02 1.000000e-02 1.000000e-02 1.000000e-02 1.000000e-02 1.000000e-02 1.000000e-02 1.000000e-02
<GCONST> -1.079245e+02
<MIXTURE> 2 3.047635e-01
<MEAN> 39
 -3.073403e+01 1.425273e+01 -6.347635e+00 2.336389e+00 -7.483404e-01 1.066642e+01 -1.116233e+01 5.172227e+00 2.572465e-01 4.570226e-01 -1.853601e+00 4.806254e-01 3.082728e+00 -1.703352e-02 1.551152e-02 3.685159e-02 3.168634e-02 1.600667e-02 2.196852e-03 1.066339e-02 1.046215e-02 6.194680e-03 -2.002487e-03 -2.168891e-02 -2.960364e-02 -1.420306e-02 6.402527e-02 -2.888847e-02 1.946194e-02 2.577228e-02 -3.223030e-03 -2.393205e-02 1.966219e-02 7.751088e-04 -1.281637e-02 -3.375708e-03 5.767592e-03 -3.608371e-03 -2.195551e-02
<VARIANCE> 39
 7.722108e+01 3.633752e+01 1.621295e+01 8.805264e+00 1.116743e+01 2.184221e+01 5.614600e+01 9.989722e+00 7.891666e+00 5.587424e+00 5.826734e+00 7.160335e+00 7.011834e+00 2.358004e-01 2.073665e-01 2.922952e-01 2.998027e-01 3.982294e-01 4.320155e-01 5.057585e-01 5.343324e-01 5.329021e-01 5.498871e-01 5.658979e-01 5.152957e-01 4.229449e-01 9.825453e-02 6.422583e-02 7.037972e-02 7.732156e-02 9.463117e-02 1.049519e-01 1.273331e-01 1.155301e-01 1.163909e-01 1.174336e-01 1.189772e-01 1.076718e-01 9.144803e-02
<GCONST> 6.387524e+01
<STATE> 4
<NUMMIXES> 2
<MIXTURE> 1 5.103472e-01
<MEAN> 39
 -1.256804e+01 6.479373e+00 2.038786e+00 8.567524e+00 2.427899e+00 5.176943e+00 4.114543e-01 4.024741e+00 1.021508e+00 1.262775e+00 -1.256009e+00 9.477930e-01 3.137723e-02 -8.586787e-02 3.690922e-02 2.457621e-01 1.594240e-01 1.689443e-01 5.045222e-02 3.103973e-02 6.963865e-02 1.091670e-01 7.266748e-02 3.943156e-02 6.249414e-03 -1.648775e-02 1.051229e-02 -3.655927e-02 1.203187e-02 -3.837839e-02 1.769672e-03 -1.438639e-02 9.163395e-03 8.845959e-03 -7.347676e-03 -3.171584e-02 -5.209196e-03 1.373672e-02 -1.236865e-02
<VARIANCE> 39
 7.612381e+01 6.791934e+01 3.206618e+01 5.097443e+01 4.710615e+01 4.857334e+01 4.886001e+01 4.522910e+01 3.813118e+01 2.496777e+01 2.466132e+01 2.227277e+01 1.953887e+01 6.615518e-01 8.886616e-01 9.175950e-01 1.017072e+00 1.108420e+00 1.194592e+00 1.274129e+00 1.362965e+00 1.347271e+00 1.241394e+00 1.154082e+00 1.094268e+00 9.258087e-01 1.785030e-01 2.040161e-01 1.926394e-01 2.249779e-01 2.455316e-01 2.707347e-01 2.889727e-01 3.002017e-01 2.985176e-01 2.784478e-01 2.593574e-01 2.391664e-01 2.035334e-01
<GCONST> 1.016392e+02
<MIXTURE> 2 4.896528e-01
<MEAN> 39
 -1.020193e+01 3.199551e+00 2.373005e+00 5.452412e+00 2.385052e+00 2.486034e+00 1.580645e+00 3.328131e+00 1.332066e+00 -7.191740e-01 -2.476467e+00 1.183569e+00 -1.171889e+00 1.273982e+00 -3.833585e-01 4.658445e-01 1.614458e-01 4.792918e-02 -5.415885e-01 -1.025224e-01 -1.463170e-02 -2.565329e-01 -5.430909e-01 -4.399176e-01 -3.804746e-01 -3.820809e-01 6.029564e-02 -8.747855e-02 5.094163e-03 -3.020878e-02 5.573182e-03 -8.083791e-02 -5.798243e-02 -1.463480e-02 1.865065e-03 -3.867018e-02 -9.503978e-03 -1.724554e-02 6.533443e-03
<VARIANCE> 39
 9.643607e+01 9.792954e+01 6.559746e+01 7.856171e+01 8.060581e+01 7.181393e+01 7.312693e+01 5.997856e+01 4.726611e+01 4.559750e+01 3.356037e+01 3.527980e+01 2.955104e+01 5.178400e+00 5.150322e+00 3.770604e+00 3.737880e+00 3.884596e+00 3.836053e+00 4.076818e+00 3.454412e+00 3.297246e+00 2.993804e+00 2.481349e+00 2.278534e+00 1.766467e+00 7.921278e-01 8.026540e-01 6.029379e-01 5.582282e-01 6.184182e-01 6.333398e-01 6.467891e-01 5.800772e-01 5.622950e-01 5.424428e-01 4.485731e-01 3.958752e-01 3.163141e-01
<GCONST> 1.329065e+02
<TRANSP> 5
 0.000000e+00 1.000000e+00 0.000000e+00 0.000000e+00 0.000000e+00
 0.000000e+00 9.535479e-01 4.645211e-02 0.000000e+00 0.000000e+00
 0.000000e+00 0.000000e+00 9.280416e-01 7.195845e-02 0.000000e+00
 0.000000e+00 0.000000e+00 0.000000e+00 9.013939e-01 9.860607e-02
 0.000000e+00 0.000000e+00 0.000000e+00 0.000000e+00 0.000000e+00
<ENDHMM>
~h "dxhq"
<BEGINHMM>
<NUMSTATES> 5
<STATE> 2
<NUMMIXES> 2
<MIXTURE> 1 5.000000e-01
<MEAN> 39
 1.096142e+01 -6.290844e+00 8.024546e-01 1.058584e+01 1.432571e+01 2.321423e+00 -1.405722e+01 9.547900e+00 -3.755063e+00 -1.406452e+01 6.303322e+00 -4.586741e-01 -5.146574e+00 -2.633821e-02 -1.042321e-01 -3.668930e-02 -3.502192e-02 6.439997e-02 1.663296e-02 -1.176140e-01 -7.421391e-02 -6.829924e-02 -3.357217e-02 7.081359e-02 2.902897e-02 8.747075e-03 -3.713637e-03 1.675038e-03 3.554417e-03 4.445350e-03 -9.171573e-03 -1.860188e-03 1.053703e-02 -2.874882e-05 8.246152e-03 9.741732e-03 -4.957333e-03 -2.903211e-03 -2.307242e-03
<VARIANCE> 39
 1.842171e+02 1.465301e+02 2.208626e+02 1.754066e+02 1.569123e+02 1.373676e+02 1.553577e+02 8.624944e+01 6.299272e+01 1.038710e+02 9.345490e+01 3.197851e+01 7.534439e+01 2.500245e+00 2.751158e+00 2.862775e+00 2.344907e+00 2.504145e+00 2.899601e+00 3.671680e+00 2.402694e+00 1.597598e+00 2.793505e+00 2.448193e+00 1.548695e+00 1.450769e+00 2.100373e-01 2.315596e-01 3.124732e-01 2.557815e-01 3.214323e-01 3.037971e-01 3.970179e-01 3.308938e-01 2.078791e-01 3.929247e-01 2.931765e-01 2.381388e-01 1.827160e-01
<GCONST> 1.274574e+02
<MIXTURE> 2 5.000000e-01
<MEAN> 39
 1.096142e+01 -6.290844e+00 8.024546e-01 1.058584e+01 1.432571e+01 2.321423e+00 -1.405722e+01 9.547900e+00 -3.755063e+00 -1.406452e+01 6.303322e+00 -4.586741e-01 -5.146574e+00 -2.633821e-02 -1.042321e-01 -3.668930e-02 -3.502192e-02 6.439997e-02 1.663296e-02 -1.176140e-01 -7.421391e-02 -6.829924e-02 -3.357217e-02 7.081359e-02 2.902897e-02 8.747075e-03 -3.713637e-03 1.675038e-03 3.554417e-03 4.445350e-03 -9.171573e-03 -1.860188e-03 1.053703e-02 -2.874882e-05 8.246152e-03 9.741732e-03 -4.957333e-03 -2.903211e-03 -2.307242e-03
<VARIANCE> 39
 1.842171e+02 1.465301e+02 2.208626e+02 1.754066e+02 1.569123e+02 1.373676e+02 1.553577e+02 8.624944e+01 6.299272e+01 1.038710e+02 9.345490e+01 3.197851e+01 7.534439e+01 2.500245e+00 2.751158e+00 2.862775e+00 2.344907e+00 2.504145e+00 2.899601e+00 3.671680e+00 2.402694e+00 1.597598e+00 2.793505e+00 2.448193e+00 1.548695e+00 1.450769e+00 2.100373e-01 2.315596e-01 3.124732e-01 2.557815e-01 3.214323e-01 3.037971e-01 3.970179e-01 3.308938e-01 2.078791e-01 3.929247e-01 2.931765e-01 2.381388e-01 1.827160e-01
<GCONST> 1.274574e+02
<STATE> 3
<NUMMIXES> 2
<MIXTURE> 1 5.000000e-01
<MEAN> 39
 8.094450e+00 -6.786641e+00 1.325311e+00 1.123996e+01 1.253040e+01 2.062122e+00 -1.208387e+01 9.593946e+00 -2.464570e+00 -1.139218e+01 6.056344e+00 -6.083847e-01 -4.164866e+00 -9.046945e-03 -7.170031e-03 2.172398e-02 4.124975e-02 1.107835e-02 1.005618e-02 3.527584e-03 -9.257043e-03 -6.113314e-03 1.832213e-02 3.311168e-02 -6.206154e-03 -1.341590e-02 -1.024578e-03 2.790524e-03 3.169379e-03 2.347766e-03 -7.792385e-04 6.224912e-04 2.894887e-03 9.311756e-04 1.893987e-04 2.855714e-04 -5.931978e-04 -9.742670e-04 -8.699521e-04
<VARIANCE> 39
 2.368550e+02 1.613645e+02 2.057528e+02 1.692298e+02 1.647472e+02 1.288349e+02 1.655935e+02 6.965468e+01 6.784274e+01 1.145543e+02 1.013366e+02 3.073280e+01 6.779745e+01 3.388094e+00 3.160370e+00 3.385807e+00 2.531519e+00 2.708415e+00 3.030485e+00 3.919943e+00 2.358314e+00 1.683511e+00 2.951576e+00 2.550800e+00 1.478775e+00 1.797826e+00 2.463186e-01 2.825531e-01 3.820326e-01 2.786804e-01 3.450766e-01 3.600141e-01 4.433941e-01 3.503071e-01 2.400750e-01 4.201748e-01 3.386090e-01 2.369276e-01 2.407317e-01
<GCONST> 1.304930e+02
<MIXTURE> 2 5.000000e-01
<MEAN> 39
 8.094450e+00 -6.786641e+00 1.325311e+00 1.123996e+01 1.253040e+01 2.062122e+00 -1.208387e+01 9.593946e+00 -2.464570e+00 -1.139218e+01 6.056344e+00 -6.083847e-01 -4.164866e+00 -9.046945e-03 -7.170031e-03 2.172398e-02 4.124975e-02 1.107835e-02 1.005618e-02 3.527584e-03 -9.257043e-03 -6.113314e-03 1.832213e-02 3.311168e-02 -6.206154e-03 -1.341590e-02 -1.024578e-03 2.790524e-03 3.169379e-03 2.347766e-03 -7.792385e-04 6.224912e-04 2.894887e-03 9.311756e-04 1.893987e-04 2.855714e-04 -5.931978e-04 -9.742670e-04 -8.699521e-04
<VARIANCE> 39
 2.368550e+02 1.613645e+02 2.057528e+02 1.692298e+02 1.647472e+02 1.288349e+02 1.655935e+02 6.965468e+01 6.784274e+01 1.145543e+02 1.013366e+02 3.073280e+01 6.779745e+01 3.388094e+00 3.160370e+00 3.385807e+00 2.531519e+00 2.708415e+00 3.030485e+00 3.919943e+00 2.358314e+00 1.683511e+00 2.951576e+00 2.550800e+00 1.478775e+00 1.797826e+00 2.463186e-01 2.825531e-01 3.820326e-01 2.786804e-01 3.450766e-01 3.600141e-01 4.433941e-01 3.503071e-01 2.400750e-01 4.201748e-01 3.386090e-01 2.369276e-01 2.407317e-01
<GCONST> 1.304930e+02
<STATE> 4
<NUMMIXES> 2
<MIXTURE> 1 5.000000e-01
<MEAN> 39
 9.901011e+00 -6.137187e+00 1.458684e+00 1.311699e+01 1.548542e+01 2.679138e+00 -1.437415e+01 8.709722e+00 -2.874610e+00 -1.174438e+01 7.525495e+00 -5.547653e-01 -5.121687e+00 -1.031880e-02 8.060851e-02 3.908285e-02 7.049392e-02 -1.186308e-02 -3.592920e-02 2.907461e-02 2.022524e-02 2.709555e-02 1.858281e-02 -6.579827e-03 -1.661134e-02 -2.998319e-02 -9.459810e-03 8.512888e-04 1.004312e-03 -7.655841e-03 -7.179492e-03 -2.825409e-03 3.582274e-03 7.403540e-03 4.611992e-03 2.891132e-03 8.926440e-04 -1.405169e-04 -3.234726e-04
<VARIANCE> 39
 1.893804e+02 1.358999e+02 1.660346e+02 1.492215e+02 1.703837e+02 1.041470e+02 2.321754e+02 6.281804e+01 7.003452e+01 1.260497e+02 1.019595e+02 2.517213e+01 7.361948e+01 2.796600e+00 2.729124e+00 2.865489e+00 1.987507e+00 2.258305e+00 2.419920e+00 4.218839e+00 2.477553e+00 1.658734e+00 3.200369e+00 2.851764e+00 1.209506e+00 1.755327e+00 1.868197e-01 2.308770e-01 3.155647e-01 2.085752e-01 2.728329e-01 2.867099e-01 3.997712e-01 3.507542e-01 2.321768e-01 3.900319e-01 3.511651e-01 1.963194e-01 2.341275e-01
<GCONST> 1.269391e+02
<MIXTURE> 2 5.000000e-01
<MEAN> 39
 9.901011e+00 -6.137187e+00 1.458684e+00 1.311699e+01 1.548542e+01 2.679138e+00 -1.437415e+01 8.709722e+00 -2.874610e+00 -1.174438e+01 7.525495e+00 -5.547653e-01 -5.121687e+00 -1.031880e-02 8.060851e-02 3.908285e-02 7.049392e-02 -1.186308e-02 -3.592920e-02 2.907461e-02 2.022524e-02 2.709555e-02 1.858281e-02 -6.579827e-03 -1.661134e-02 -2.998319e-02 -9.459810e-03 8.512888e-04 1.004312e-03 -7.655841e-03 -7.179492e-03 -2.825409e-03 3.582274e-03 7.403540e-03 4.611992e-03 2.891132e-03 8.926440e-04 -1.405169e-04 -3.234726e-04
<VARIANCE> 39
 1.893804e+02 1.358999e+02 1.660346e+02 1.492215e+02 1.703837e+02 1.041470e+02 2.321754e+02 6.281804e+01 7.003452e+01 1.260497e+02 1.019595e+02 2.517213e+01 7.361948e+01 2.796600e+00 2.729124e+00 2.865489e+00 1.987507e+00 2.258305e+00 2.419920e+00 4.218839e+00 2.477553e+00 1.658734e+00 3.200369e+00 2.851764e+00 1.209506e+00 1.755327e+00 1.868197e-01 2.308770e-01 3.155647e-01 2.085752e-01 2.728329e-01 2.867099e-01 3.997712e-01 3.507542e-01 2.321768e-01 3.900319e-01 3.511651e-01 1.963194e-01 2.341275e-01
<GCONST> 1.269391e+02
<TRANSP> 5
 0.000000e+00 1.000000e+00 0.000000e+00 0.000000e+00 0.000000e+00
 0.000000e+00 9.869823e-01 1.301774e-02 0.000000e+00 0.000000e+00
 0.000000e+00 0.000000e+00 9.869822e-01 1.301773e-02 0.000000e+00
 0.000000e+00 0.000000e+00 0.000000e+00 9.869823e-01 1.301773e-02
 0.000000e+00 0.000000e+00 0.000000e+00 0.000000e+00 0.000000e+00
<ENDHMM>
~h "dxh"
<BEGINHMM>
<NUMSTATES> 5
<STATE> 2
<NUMMIXES> 2
<MIXTURE> 1 5.000000e-01
<MEAN> 39
 6.317287e+00 -5.998852e+00 2.609491e+00 1.123565e+01 1.103341e+01 -3.386219e+00 -1.316575e+01 1.312883e+01 -9.669772e+00 -1.692579e+01 8.875845e+00 -2.779219e+00 -5.593949e+00 -2.708539e-01 -1.199233e-01 -7.717234e-02 1.147511e-01 6.423209e-02 7.923554e-02 -9.046181e-02 -3.335423e-01 -2.283893e-02 3.022754e-02 -1.031592e-01 4.434489e-04 -1.115826e-01 -5.222671e-03 5.287976e-02 3.494760e-02 -2.019896e-03 -6.739775e-02 4.009514e-02 3.882716e-02 -6.723940e-02 3.644034e-02 4.654934e-02 -1.588698e-02 2.263801e-02 1.712453e-02
<VARIANCE> 39
 2.429977e+02 1.578218e+02 7.047621e+01 9.080270e+01 1.166589e+02 8.382693e+01 1.671342e+02 1.170113e+02 4.589392e+01 7.863662e+01 1.235661e+02 1.210811e+01 4.409777e+01 2.876702e+00 4.561506e+00 3.760599e+00 2.410759e+00 2.811020e+00 2.894260e+00 4.042134e+00 2.496161e+00 2.853166e+00 2.477080e+00 3.647688e+00 1.274978e+00 1.504094e+00 1.990388e-01 2.586643e-01 3.073076e-01 2.789001e-01 3.635978e-01 2.668666e-01 4.176859e-01 3.232597e-01 4.441718e-01 3.459730e-01 4.247206e-01 2.414108e-01 3.173110e-01
<GCONST> 1.273837e+02
<MIXTURE> 2 5.000000e-01
<MEAN> 39
 6.317287e+00 -5.998852e+00 2.609491e+00 1.123565e+01 1.103341e+01 -3.386219e+00 -1.316575e+01 1.312883e+01 -9.669772e+00 -1.692579e+01 8.875845e+00 -2.779219e+00 -5.593949e+00 -2.708539e-01 -1.199233e-01 -7.717234e-02 1.147511e-01 6.423209e-02 7.923554e-02 -9.046181e-02 -3.335423e-01 -2.283893e-02 3.022754e-02 -1.031592e-01 4.434489e-04 -1.115826e-01 -5.222671e-03 5.287976e-02 3.494760e-02 -2.019896e-03 -6.739775e-02 4.009514e-02 3.882716e-02 -6.723940e-02 3.644034e-02 4.654934e-02 -1.588698e-02 2.263801e-02 1.712453e-02
<VARIANCE> 39
 2.429977e+02 1.578218e+02 7.047621e+01 9.080270e+01 1.166589e+02 8.382693e+01 1.671342e+02 1.170113e+02 4.589392e+01 7.863662e+01 1.235661e+02 1.210811e+01 4.409777e+01 2.876702e+00 4.561506e+00 3.760599e+00 2.410759e+00 2.811020e+00 2.894260e+00 4.042134e+00 2.496161e+00 2.853166e+00 2.477080e+00 3.647688e+00 1.274978e+00 1.504094e+00 1.990388e-01 2.586643e-01 3.073076e-01 2.789001e-01 3.635978e-01 2.668666e-01 4.176859e-01 3.232597e-01 4.441718e-01 3.459730e-01 4.247206e-01 2.414108e-01 3.173110e-01
<GCONST> 1.273837e+02
<STATE> 3
<NUMMIXES> 2
<MIXTURE> 1 5.000000e-01
<MEAN> 39
 8.679966e+00 -7.472226e+00 1.696750e+00 1.347850e+01 1.399877e+01 -3.331918e+00 -1.712216e+01 1.161214e+01 -7.585344e+00 -1.985184e+01 4.934019e+00 -3.664849e+00 -6.801170e+00 1.048897e-01 -6.226028e-02 -1.448538e-01 -1.014510e-01 -2.697302e-02 -7.086990e-02 -1.927189e-01 -7.238216e-02 -1.204605e-02 -3.446626e-02 -3.425465e-02 -4.635175e-02 -3.879053e-02 2.329760e-02 3.949503e-02 4.468625e-02 -2.537086e-03 -1.838833e-02 2.423207e-02 6.382742e-04 -1.459111e-02 -9.724315e-03 -3.867909e-03 -3.627120e-03 -1.241779e-02 -8.448160e-03
<VARIANCE> 39
 1.800511e+02 1.379651e+02 6.012463e+01 7.612574e+01 1.363649e+02 5.528410e+01 1.721859e+02 7.290170e+01 4.005102e+01 9.538949e+01 1.226026e+02 1.857841e+01 4.624843e+01 2.392788e+00 3.767563e+00 3.263332e+00 2.315113e+00 3.012727e+00 2.764221e+00 4.640462e+00 2.508276e+00 2.508107e+00 2.693367e+00 3.757013e+00 1.284772e+00 1.443713e+00 2.267460e-01 2.914661e-01 3.583966e-01 2.447525e-01 3.270222e-01 3.227938e-01 4.420913e-01 3.758502e-01 3.810917e-01 3.351925e-01 3.070659e-01 2.079830e-01 2.413546e-01
<GCONST> 1.256279e+02
<MIXTURE> 2 5.000000e-01
<MEAN> 39
 8.679966e+00 -7.472226e+00 1.696750e+00 1.347850e+01 1.399877e+01 -3.331918e+00 -1.712216e+01 1.161214e+01 -7.585344e+00 -1.985184e+01 4.934019e+00 -3.664849e+00 -6.801170e+00 1.048897e-01 -6.226028e-02 -1.448538e-01 -1.014510e-01 -2.697302e-02 -7.086990e-02 -1.927189e-01 -7.238216e-02 -1.204605e-02 -3.446626e-02 -3.425465e-02 -4.635175e-02 -3.879053e-02 2.329760e-02 3.949503e-02 4.468625e-02 -2.537086e-03 -1.838833e-02 2.423207e-02 6.382742e-04 -1.459111e-02 -9.724315e-03 -3.867909e-03 -3.627120e-03 -1.241779e-02 -8.448160e-03
<VARIANCE> 39
 1.800511e+02 1.379651e+02 6.012463e+01 7.612574e+01 1.363649e+02 5.528410e+01 1.721859e+02 7.290170e+01 4.005102e+01 9.538949e+01 1.226026e+02 1.857841e+01 4.624843e+01 2.392788e+00 3.767563e+00 3.263332e+00 2.315113e+00 3.012727e+00 2.764221e+00 4.640462e+00 2.508276e+00 2.508107e+00 2.693367e+00 3.757013e+00 1.284772e+00 1.443713e+00 2.267460e-01 2.914661e-01 3.583966e-01 2.447525e-01 3.270222e-01 3.227938e-01 4.420913e-01 3.758502e-01 3.810917e-01 3.351925e-01 3.070659e-01 2.079830e-01 2.413546e-01
<GCONST> 1.256279e+02
<STATE> 4
<NUMMIXES> 2
<MIXTURE> 1 5.000000e-01
<MEAN> 39
 1.206037e+01 -2.041822e+00 -5.235932e-01 9.377053e+00 1.062734e+01 -4.409946e+00 -1.643224e+01 8.752630e+00 -9.337750e+00 -2.324662e+01 -3.274520e+00 -6.664538e+00 -4.464453e+00 -4.748015e-01 7.218884e-02 4.605394e-02 -2.369359e-01 -3.543793e-01 -2.078301e-02 -1.355918e-01 -4.585640e-01 -1.428950e-01 1.578610e-01 -1.420039e-01 -9.914109e-02 -1.693226e-02 -1.250942e-02 -1.745733e-02 4.739850e-03 1.949072e-02 3.365295e-02 2.584764e-02 3.238042e-02 5.032306e-02 3.303753e-02 -1.549577e-02 4.106840e-02 2.463780e-02 -3.039294e-02
<VARIANCE> 39
 1.139871e+02 1.275078e+02 3.525223e+01 8.499033e+01 1.181202e+02 3.528146e+01 1.026182e+02 1.299868e+02 3.517308e+01 7.106898e+01 2.269387e+02 3.607549e+01 3.304938e+01 2.555980e+00 2.393358e+00 2.185821e+00 2.035063e+00 1.940089e+00 1.734078e+00 3.998152e+00 2.574821e+00 1.935943e+00 1.837523e+00 3.816198e+00 1.283093e+00 1.236729e+00 1.601717e-01 2.393045e-01 3.318041e-01 2.000797e-01 2.379540e-01 2.152964e-01 5.610932e-01 4.559647e-01 3.191003e-01 2.726230e-01 3.498579e-01 1.997073e-01 2.122126e-01
<GCONST> 1.203891e+02
<MIXTURE> 2 5.000000e-01
<MEAN> 39
 1.206037e+01 -2.041822e+00 -5.235932e-01 9.377053e+00 1.062734e+01 -4.409946e+00 -1.643224e+01 8.752630e+00 -9.337750e+00 -2.324662e+01 -3.274520e+00 -6.664538e+00 -4.464453e+00 -4.748015e-01 7.218884e-02 4.605394e-02 -2.369359e-01 -3.543793e-01 -2.078301e-02 -1.355918e-01 -4.585640e-01 -1.428950e-01 1.578610e-01 -1.420039e-01 -9.914109e-02 -1.693226e-02 -1.250942e-02 -1.745733e-02 4.739850e-03 1.949072e-02 3.365295e-02 2.584764e-02 3.238042e-02 5.032306e-02 3.303753e-02 -1.549577e-02 4.106840e-02 2.463780e-02 -3.039294e-02
<VARIANCE> 39
 1.139871e+02 1.275078e+02 3.525223e+01 8.499033e+01 1.181202e+02 3.528146e+01 1.026182e+02 1.299868e+02 3.517308e+01 7.106898e+01 2.269387e+02 3.607549e+01 3.304938e+01 2.555980e+00 2.393358e+00 2.185821e+00 2.035063e+00 1.940089e+00 1.734078e+00 3.998152e+00 2.574821e+00 1.935943e+00 1.837523e+00 3.816198e+00 1.283093e+00 1.236729e+00 1.601717e-01 2.393045e-01 3.318041e-01 2.000797e-01 2.379540e-01 2.152964e-01 5.610932e-01 4.559647e-01 3.191003e-01 2.726230e-01 3.498579e-01 1.997073e-01 2.122126e-01
<GCONST> 1.203891e+02
<TRANSP> 5
 0.000000e+00 1.000000e+00 0.000000e+00 0.000000e+00 0.000000e+00
 0.000000e+00 9.425091e-01 5.749092e-02 0.000000e+00 0.000000e+00
 0.000000e+00 0.000000e+00 9.425089e-01 5.749107e-02 0.000000e+00
 0.000000e+00 0.000000e+00 0.000000e+00 9.425089e-01 5.749109e-02
 0.000000e+00 0.000000e+00 0.000000e+00 0.000000e+00 0.000000e+00
<ENDHMM>
~h "dxq"
<BEGINHMM>
<NUMSTATES> 5
<STATE> 2
<NUMMIXES> 2
<MIXTURE> 1 5.000000e-01
<MEAN> 39
 6.356365e+00 -1.015528e+01 5.706024e+00 1.104937e+01 1.215707e+01 3.673155e+00 -1.341858e+01 8.892771e+00 -5.826521e+00 -1.309030e+01 7.748332e+00 -6.721345e-01 -4.557123e+00 5.677174e-03 -8.695824e-02 -1.356520e-02 -1.488036e-02 3.091045e-02 4.099046e-03 -7.419461e-02 -1.098228e-02 -4.402247e-02 -1.549553e-02 7.539941e-02 1.127619e-02 -4.946544e-03 -2.758023e-04 1.330081e-02 3.978180e-03 -2.031204e-04 -4.924403e-03 4.249593e-04 8.185505e-03 -4.990791e-03 3.575845e-03 6.354101e-03 -1.118628e-02 -7.347387e-03 -3.959866e-03
<VARIANCE> 39
 2.493038e+02 1.589723e+02 2.431101e+02 2.175718e+02 1.697438e+02 1.598837e+02 1.757511e+02 8.920824e+01 8.323521e+01 1.267936e+02 1.098886e+02 3.033547e+01 9.774241e+01 3.061498e+00 3.378999e+00 3.324229e+00 2.842020e+00 2.373473e+00 3.049175e+00 3.904578e+00 2.830246e+00 2.249192e+00 3.342471e+00 3.236301e+00 1.429402e+00 2.040257e+00 2.248336e-01 3.155236e-01 3.422403e-01 2.814493e-01 2.579203e-01 3.421308e-01 4.178916e-01 3.937047e-01 3.373038e-01 4.350860e-01 4.186745e-01 2.188539e-01 2.490361e-01
<GCONST> 1.332763e+02
<MIXTURE> 2 5.000000e-01
<MEAN> 39
 6.356365e+00 -1.015528e+01 5.706024e+00 1.104937e+01 1.215707e+01 3.673155e+00 -1.341858e+01 8.892771e+00 -5.826521e+00 -1.309030e+01 7.748332e+00 -6.721345e-01 -4.557123e+00 5.677174e-03 -8.695824e-02 -1.356520e-02 -1.488036e-02 3.091045e-02 4.099046e-03 -7.419461e-02 -1.098228e-02 -4.402247e-02 -1.549553e-02 7.539941e-02 1.127619e-02 -4.946544e-03 -2.758023e-04 1.330081e-02 3.978180e-03 -2.031204e-04 -4.924403e-03 4.249593e-04 8.185505e-03 -4.990791e-03 3.575845e-03 6.354101e-03 -1.118628e-02 -7.347387e-03 -3.959866e-03
<VARIANCE> 39
 2.493038e+02 1.589723e+02 2.431101e+02 2.175718e+02 1.697438e+02 1.598837e+02 1.757511e+02 8.920824e+01 8.323521e+01 1.267936e+02 1.098886e+02 3.033547e+01 9.774241e+01 3.061498e+00 3.378999e+00 3.324229e+00 2.842020e+00 2.373473e+00 3.049175e+00 3.904578e+00 2.830246e+00 2.249192e+00 3.342471e+00 3.236301e+00 1.429402e+00 2.040257e+00 2.248336e-01 3.155236e-01 3.422403e-01 2.814493e-01 2.579203e-01 3.421308e-01 4.178916e-01 3.937047e-01 3.373038e-01 4.350860e-01 4.186745e-01 2.188539e-01 2.490361e-01
<GCONST> 1.332763e+02
<STATE> 3
<NUMMIXES> 2
<MIXTURE> 1 5.000000e-01
<MEAN> 39
 7.029640e+00 -8.743609e+00 4.356909e+00 1.157038e+01 1.286752e+01 3.490659e+00 -1.342978e+01 8.497074e+00 -4.619793e+00 -1.209477e+01 7.271151e+00 -7.243816e-01 -4.564994e+00 9.310129e-03 3.348519e-03 -9.818901e-03 1.532835e-02 1.582074e-03 -1.801991e-02 -2.230590e-03 1.366045e-02 1.255322e-02 3.336472e-03 7.494286e-03 -3.861680e-03 -1.049786e-02 -6.946738e-04 2.043974e-03 4.638106e-04 -5.990783e-04 -2.722174e-03 8.740427e-05 4.638378e-03 1.336643e-03 1.087673e-03 1.376666e-03 -1.257629e-03 3.810371e-04 6.365304e-04
<VARIANCE> 39
 2.307356e+02 1.591777e+02 2.230083e+02 2.031670e+02 1.573589e+02 1.478513e+02 1.675149e+02 9.234792e+01 8.451375e+01 1.295276e+02 1.104583e+02 3.310128e+01 9.105704e+01 3.067308e+00 3.709873e+00 3.347443e+00 2.739614e+00 2.517570e+00 3.121951e+00 4.028267e+00 3.037945e+00 2.271776e+00 3.511465e+00 3.079039e+00 1.412871e+00 2.019036e+00 2.355033e-01 3.402315e-01 3.597429e-01 2.926810e-01 2.946524e-01 3.487034e-01 4.366098e-01 4.114534e-01 3.374186e-01 4.466894e-01 4.139348e-01 2.227232e-01 2.538555e-01
<GCONST> 1.336765e+02
<MIXTURE> 2 5.000000e-01
<MEAN> 39
 7.029640e+00 -8.743609e+00 4.356909e+00 1.157038e+01 1.286752e+01 3.490659e+00 -1.342978e+01 8.497074e+00 -4.619793e+00 -1.209477e+01 7.271151e+00 -7.243816e-01 -4.564994e+00 9.310129e-03 3.348519e-03 -9.818901e-03 1.532835e-02 1.582074e-03 -1.801991e-02 -2.230590e-03 1.366045e-02 1.255322e-02 3.336472e-03 7.494286e-03 -3.861680e-03 -1.049786e-02 -6.946738e-04 2.043974e-03 4.638106e-04 -5.990783e-04 -2.722174e-03 8.740427e-05 4.638378e-03 1.336643e-03 1.087673e-03 1.376666e-03 -1.257629e-03 3.810371e-04 6.365304e-04
<VARIANCE> 39
 2.307356e+02 1.591777e+02 2.230083e+02 2.031670e+02 1.573589e+02 1.478513e+02 1.675149e+02 9.234792e+01 8.451375e+01 1.295276e+02 1.104583e+02 3.310128e+01 9.105704e+01 3.067308e+00 3.709873e+00 3.347443e+00 2.739614e+00 2.517570e+00 3.121951e+00 4.028267e+00 3.037945e+00 2.271776e+00 3.511465e+00 3.079039e+00 1.412871e+00 2.019036e+00 2.355033e-01 3.402315e-01 3.597429e-01 2.926810e-01 2.946524e-01 3.487034e-01 4.366098e-01 4.114534e-01 3.374186e-01 4.466894e-01 4.139348e-01 2.227232e-01 2.538555e-01
<GCONST> 1.336765e+02
<STATE> 4
<NUMMIXES> 2
<MIXTURE> 1 5.000000e-01
<MEAN> 39
 9.240061e+00 -6.954996e+00 2.202383e+00 1.197671e+01 1.335894e+01 2.069522e+00 -1.396537e+01 8.927835e+00 -3.202570e+00 -1.170986e+01 7.056156e+00 -1.287207e+00 -5.221422e+00 1.043938e-02 2.552680e-02 -3.667793e-02 5.807240e-03 -1.568443e-02 -4.758772e-02 1.725208e-02 3.016440e-02 2.045659e-02 1.135279e-02 7.543182e-03 1.647501e-02 1.113316e-02 -4.735637e-03 6.638796e-03 3.451678e-03 -2.547555e-03 -4.046734e-03 2.090478e-03 6.729896e-03 -3.072579e-03 1.415203e-03 4.744573e-03 -4.265876e-03 1.754453e-03 2.394962e-03
<VARIANCE> 39
 1.985136e+02 1.442463e+02 1.937044e+02 1.780384e+02 1.417042e+02 1.341022e+02 1.617851e+02 9.542432e+01 9.014443e+01 1.275726e+02 1.193034e+02 3.853404e+01 8.304044e+01 2.828794e+00 3.569906e+00 2.929192e+00 2.434430e+00 2.432329e+00 2.965649e+00 3.986106e+00 3.129996e+00 2.167005e+00 3.536285e+00 2.904017e+00 1.371935e+00 1.817371e+00 2.145929e-01 3.181160e-01 3.192616e-01 2.705340e-01 2.918135e-01 3.203971e-01 4.342346e-01 3.993877e-01 3.024276e-01 4.278616e-01 3.946408e-01 2.133003e-01 2.344453e-01
<GCONST> 1.316548e+02
<MIXTURE> 2 5.000000e-01
<MEAN> 39
 9.240061e+00 -6.954996e+00 2.202383e+00 1.197671e+01 1.335894e+01 2.069522e+00 -1.396537e+01 8.927835e+00 -3.202570e+00 -1.170986e+01 7.056156e+00 -1.287207e+00 -5.221422e+00 1.043938e-02 2.552680e-02 -3.667793e-02 5.807240e-03 -1.568443e-02 -4.758772e-02 1.725208e-02 3.016440e-02 2.045659e-02 1.135279e-02 7.543182e-03 1.647501e-02 1.113316e-02 -4.735637e-03 6.638796e-03 3.451678e-03 -2.547555e-03 -4.046734e-03 2.090478e-03 6.729896e-03 -3.072579e-03 1.415203e-03 4.744573e-03 -4.265876e-03 1.754453e-03 2.394962e-03
<VARIANCE> 39
 1.985136e+02 1.442463e+02 1.937044e+02 1.780384e+02 1.417042e+02 1.341022e+02 1.617851e+02 9.542432e+01 9.014443e+01 1.275726e+02 1.193034e+02 3.853404e+01 8.304044e+01 2.828794e+00 3.569906e+00 2.929192e+00 2.434430e+00 2.432329e+00 2.965649e+00 3.986106e+00 3.129996e+00 2.167005e+00 3.536285e+00 2.904017e+00 1.371935e+00 1.817371e+00 2.145929e-01 3.181160e-01 3.192616e-01 2.705340e-01 2.918135e-01 3.203971e-01 4.342346e-01 3.993877e-01 3.024276e-01 4.278616e-01 3.946408e-01 2.133003e-01 2.344453e-01
<GCONST> 1.316548e+02
<TRANSP> 5
 0.000000e+00 1.000000e+00 0.000000e+00 0.000000e+00 0.000000e+00
 0.000000e+00 9.854357e-01 1.456433e-02 0.000000e+00 0.000000e+00
 0.000000e+00 0.000000e+00 9.854357e-01 1.456434e-02 0.000000e+00
 0.000000e+00 0.000000e+00 0.000000e+00 9.854357e-01 1.456430e-02
 0.000000e+00 0.000000e+00 0.000000e+00 0.000000e+00 0.000000e+00
<ENDHMM>
~h "khq"
<BEGINHMM>
<NUMSTATES> 5
<STATE> 2
<NUMMIXES> 2
<MIXTURE> 1 5.000000e-01
<MEAN> 39
 5.098849e+00 -6.514025e+00 2.430083e+00 1.092778e+01 1.083864e+01 1.500667e+00 -1.140838e+01 9.359310e+00 -3.377835e+00 -1.113024e+01 6.044074e+00 -4.088247e-01 -3.646332e+00 -1.380477e-02 1.475701e-03 -1.072459e-03 -5.524765e-03 -3.099398e-03 2.005852e-03 8.190720e-04 -5.087083e-03 2.488556e-03 5.650900e-03 -1.806995e-03 5.936168e-04 1.443354e-03 -1.213556e-03 -1.404243e-04 -1.926630e-04 -5.029775e-04 -4.298560e-04 2.249404e-04 5.535607e-04 -2.933974e-04 7.204357e-05 8.173331e-04 -1.603794e-04 -1.434907e-04 3.551734e-04
<VARIANCE> 39
 2.696502e+02 1.642264e+02 1.776205e+02 1.699619e+02 1.712323e+02 1.501611e+02 1.653076e+02 1.112998e+02 8.102897e+01 1.132308e+02 1.038732e+02 3.576029e+01 7.139818e+01 2.864393e+00 3.049235e+00 2.950589e+00 2.442850e+00 2.488132e+00 2.882445e+00 3.574063e+00 2.837703e+00 2.254665e+00 3.083899e+00 2.848865e+00 1.410452e+00 1.706605e+00 2.059384e-01 2.861855e-01 3.165202e-01 2.798763e-01 2.958655e-01 3.292713e-01 4.082396e-01 3.875320e-01 3.475762e-01 4.161765e-01 3.917231e-01 2.236369e-01 2.362328e-01
<GCONST> 1.313330e+02
<MIXTURE> 2 5.000000e-01
<MEAN> 39
 5.098849e+00 -6.514025e+00 2.430083e+00 1.092778e+01 1.083864e+01 1.500667e+00 -1.140838e+01 9.359310e+00 -3.377835e+00 -1.113024e+01 6.044074e+00 -4.088247e-01 -3.646332e+00 -1.380477e-02 1.475701e-03 -1.072459e-03 -5.524765e-03 -3.099398e-03 2.005852e-03 8.190720e-04 -5.087083e-03 2.488556e-03 5.650900e-03 -1.806995e-03 5.936168e-04 1.443354e-03 -1.213556e-03 -1.404243e-04 -1.926630e-04 -5.029775e-04 -4.298560e-04 2.249404e-04 5.535607e-04 -2.933974e-04 7.204357e-05 8.173331e-04 -1.603794e-04 -1.434907e-04 3.551734e-04
<VARIANCE> 39
 2.696502e+02 1.642264e+02 1.776205e+02 1.699619e+02 1.712323e+02 1.501611e+02 1.653076e+02 1.112998e+02 8.102897e+01 1.132308e+02 1.038732e+02 3.576029e+01 7.139818e+01 2.864393e+00 3.049235e+00 2.950589e+00 2.442850e+00 2.488132e+00 2.882445e+00 3.574063e+00 2.837703e+00 2.254665e+00 3.083899e+00 2.848865e+00 1.410452e+00 1.706605e+00 2.059384e-01 2.861855e-01 3.165202e-01 2.798763e-01 2.958655e-01 3.292713e-01 4.082396e-01 3.875320e-01 3.475762e-01 4.161765e-01 3.917231e-01 2.236369e-01 2.362328e-01
<GCONST> 1.313330e+02
<STATE> 3
<NUMMIXES> 2
<MIXTURE> 1 5.000000e-01
<MEAN> 39
 5.098849e+00 -6.514025e+00 2.430083e+00 1.092778e+01 1.083864e+01 1.500667e+00 -1.140838e+01 9.359310e+00 -3.377835e+00 -1.113024e+01 6.044074e+00 -4.088247e-01 -3.646332e+00 -1.380477e-02 1.475701e-03 -1.072459e-03 -5.524765e-03 -3.099398e-03 2.005852e-03 8.190720e-04 -5.087083e-03 2.488556e-03 5.650900e-03 -1.806995e-03 5.936168e-04 1.443354e-03 -1.213556e-03 -1.404243e-04 -1.926630e-04 -5.029775e-04 -4.298560e-04 2.249404e-04 5.535607e-04 -2.933974e-04 7.204357e-05 8.173331e-04 -1.603794e-04 -1.434907e-04 3.551734e-04
<VARIANCE> 39
 2.696502e+02 1.642264e+02 1.776205e+02 1.699619e+02 1.712323e+02 1.501611e+02 1.653076e+02 1.112998e+02 8.102897e+01 1.132308e+02 1.038732e+02 3.576029e+01 7.139818e+01 2.864393e+00 3.049235e+00 2.950589e+00 2.442850e+00 2.488132e+00 2.882445e+00 3.574063e+00 2.837703e+00 2.254665e+00 3.083899e+00 2.848865e+00 1.410452e+00 1.706605e+00 2.059384e-01 2.861855e-01 3.165202e-01 2.798763e-01 2.958655e-01 3.292713e-01 4.082396e-01 3.875320e-01 3.475762e-01 4.161765e-01 3.917231e-01 2.236369e-01 2.362328e-01
<GCONST> 1.313330e+02
<MIXTURE> 2 5.000000e-01
<MEAN> 39
 5.098849e+00 -6.514025e+00 2.430083e+00 1.092778e+01 1.083864e+01 1.500667e+00 -1.140838e+01 9.359310e+00 -3.377835e+00 -1.113024e+01 6.044074e+00 -4.088247e-01 -3.646332e+00 -1.380477e-02 1.475701e-03 -1.072459e-03 -5.524765e-03 -3.099398e-03 2.005852e-03 8.190720e-04 -5.087083e-03 2.488556e-03 5.650900e-03 -1.806995e-03 5.936168e-04 1.443354e-03 -1.213556e-03 -1.404243e-04 -1.926630e-04 -5.029775e-04 -4.298560e-04 2.249404e-04 5.535607e-04 -2.933974e-04 7.204357e-05 8.173331e-04 -1.603794e-04 -1.434907e-04 3.551734e-04
<VARIANCE> 39
 2.696502e+02 1.642264e+02 1.776205e+02 1.699619e+02 1.712323e+02 1.501611e+02 1.653076e+02 1.112998e+02 8.102897e+01 1.132308e+02 1.038732e+02 3.576029e+01 7.139818e+01 2.864393e+00 3.049235e+00 2.950589e+00 2.442850e+00 2.488132e+00 2.882445e+00 3.574063e+00 2.837703e+00 2.254665e+00 3.083899e+00 2.848865e+00 1.410452e+00 1.706605e+00 2.059384e-01 2.861855e-01 3.165202e-01 2.798763e-01 2.958655e-01 3.292713e-01 4.082396e-01 3.875320e-01 3.475762e-01 4.161765e-01 3.917231e-01 2.236369e-01 2.362328e-01
<GCONST> 1.313330e+02
<STATE> 4
<NUMMIXES> 2
<MIXTURE> 1 5.000000e-01
<MEAN> 39
 5.098849e+00 -6.514025e+00 2.430083e+00 1.092778e+01 1.083864e+01 1.500667e+00 -1.140838e+01 9.359310e+00 -3.377835e+00 -1.113024e+01 6.044074e+00 -4.088247e-01 -3.646332e+00 -1.380477e-02 1.475701e-03 -1.072459e-03 -5.524765e-03 -3.099398e-03 2.005852e-03 8.190720e-04 -5.087083e-03 2.488556e-03 5.650900e-03 -1.806995e-03 5.936168e-04 1.443354e-03 -1.213556e-03 -1.404243e-04 -1.926630e-04 -5.029775e-04 -4.298560e-04 2.249404e-04 5.535607e-04 -2.933974e-04 7.204357e-05 8.173331e-04 -1.603794e-04 -1.434907e-04 3.551734e-04
<VARIANCE> 39
 2.696502e+02 1.642264e+02 1.776205e+02 1.699619e+02 1.712323e+02 1.501611e+02 1.653076e+02 1.112998e+02 8.102897e+01 1.132308e+02 1.038732e+02 3.576029e+01 7.139818e+01 2.864393e+00 3.049235e+00 2.950589e+00 2.442850e+00 2.488132e+00 2.882445e+00 3.574063e+00 2.837703e+00 2.254665e+00 3.083899e+00 2.848865e+00 1.410452e+00 1.706605e+00 2.059384e-01 2.861855e-01 3.165202e-01 2.798763e-01 2.958655e-01 3.292713e-01 4.082396e-01 3.875320e-01 3.475762e-01 4.161765e-01 3.917231e-01 2.236369e-01 2.362328e-01
<GCONST> 1.313330e+02
<MIXTURE> 2 5.000000e-01
<MEAN> 39
 5.098849e+00 -6.514025e+00 2.430083e+00 1.092778e+01 1.083864e+01 1.500667e+00 -1.140838e+01 9.359310e+00 -3.377835e+00 -1.113024e+01 6.044074e+00 -4.088247e-01 -3.646332e+00 -1.380477e-02 1.475701e-03 -1.072459e-03 -5.524765e-03 -3.099398e-03 2.005852e-03 8.190720e-04 -5.087083e-03 2.488556e-03 5.650900e-03 -1.806995e-03 5.936168e-04 1.443354e-03 -1.213556e-03 -1.404243e-04 -1.926630e-04 -5.029775e-04 -4.298560e-04 2.249404e-04 5.535607e-04 -2.933974e-04 7.204357e-05 8.173331e-04 -1.603794e-04 -1.434907e-04 3.551734e-04
<VARIANCE> 39
 2.696502e+02 1.642264e+02 1.776205e+02 1.699619e+02 1.712323e+02 1.501611e+02 1.653076e+02 1.112998e+02 8.102897e+01 1.132308e+02 1.038732e+02 3.576029e+01 7.139818e+01 2.864393e+00 3.049235e+00 2.950589e+00 2.442850e+00 2.488132e+00 2.882445e+00 3.574063e+00 2.837703e+00 2.254665e+00 3.083899e+00 2.848865e+00 1.410452e+00 1.706605e+00 2.059384e-01 2.861855e-01 3.165202e-01 2.798763e-01 2.958655e-01 3.292713e-01 4.082396e-01 3.875320e-01 3.475762e-01 4.161765e-01 3.917231e-01 2.236369e-01 2.362328e-01
<GCONST> 1.313330e+02
<TRANSP> 5
 0.000000e+00 1.000000e+00 0.000000e+00 0.000000e+00 0.000000e+00
 0.000000e+00 6.000000e-01 4.000000e-01 0.000000e+00 0.000000e+00
 0.000000e+00 0.000000e+00 6.000000e-01 4.000000e-01 0.000000e+00
 0.000000e+00 0.000000e+00 0.000000e+00 6.000000e-01 4.000000e-01
 0.000000e+00 0.000000e+00 0.000000e+00 0.000000e+00 0.000000e+00
<ENDHMM>
~h "txh"
<BEGINHMM>
<NUMSTATES> 5
<STATE> 2
<NUMMIXES> 2
<MIXTURE> 1 6.833106e-01
<MEAN> 39
 5.548794e+00 2.347080e+00 -3.526333e+00 6.874545e+00 1.503986e+01 1.038629e+01 -4.975221e+00 4.296473e+00 -5.139724e+00 -7.749110e+00 6.844069e+00 5.896911e+00 3.151986e+00 -2.619286e+00 3.740757e-01 1.082027e+00 2.971495e-01 -8.655224e-01 6.058862e-01 1.601188e+00 -4.556884e-01 4.253911e-01 1.332048e+00 -9.974670e-01 -1.441771e-01 8.537622e-01 -1.285388e-01 -3.120411e-01 1.422559e-02 -2.292075e-02 -1.657654e-01 -2.239063e-01 -1.332893e-01 1.347029e-01 6.134740e-02 -6.031075e-02 -1.242825e-02 -1.008155e-01 5.136639e-03
<VARIANCE> 39
 1.860641e+02 5.816476e+01 8.400775e+01 3.773629e+01 4.694865e+01 5.995740e+01 1.146943e+02 3.351024e+01 3.459503e+01 8.451921e+01 4.165705e+01 2.776473e+01 4.930236e+01 1.817925e+00 4.145986e+00 3.226744e+00 1.527449e+00 1.829140e+00 3.555396e+00 3.908244e+00 2.609725e+00 1.768070e+00 2.214238e+00 2.477774e+00 1.225279e+00 1.913115e+00 2.266165e-01 6.020389e-01 3.945328e-01 1.939385e-01 2.521940e-01 4.193521e-01 5.179892e-01 3.979208e-01 3.335359e-01 3.348405e-01 3.565581e-01 2.380003e-01 2.544141e-01
<GCONST> 1.206747e+02
<MIXTURE> 2 3.166891e-01
<MEAN> 39
 -2.186300e+01 -2.996471e+00 -2.190658e+00 -3.542299e-01 -1.607849e+00 1.642103e+00 -3.048387e+00 2.534619e+00 -1.087839e+00 -1.316673e+00 2.203894e-01 -1.679996e+00 -7.505937e-01 -1.803538e-01 -2.104256e-02 5.389207e-02 1.922628e-02 3.816189e-02 1.246850e-01 1.959640e-02 -1.072197e-01 -2.185996e-02 2.420270e-02 -4.217346e-02 1.366699e-02 1.599218e-01 7.726031e-02 -3.939994e-02 4.649293e-02 1.566042e-01 1.257040e-01 7.420301e-02 7.676362e-02 7.000513e-02 -4.627317e-03 -2.684943e-02 5.271669e-02 9.368411e-02 9.272023e-02
<VARIANCE> 39
 1.281770e+02 6.051332e+01 4.553033e+01 4.567743e+01 3.183556e+01 4.675765e+01 2.314954e+01 2.350791e+01 1.267643e+01 1.745402e+01 1.138363e+01 1.150271e+01 1.376669e+01 6.145842e-01 3.445454e-01 3.752096e-01 5.444180e-01 4.833802e-01 7.959529e-01 8.721266e-01 9.516600e-01 1.181110e+00 1.048037e+00 1.015574e+00 1.056727e+00 9.146647e-01 5.470436e-02 8.020547e-02 1.014963e-01 1.167381e-01 1.675605e-01 2.383991e-01 2.480189e-01 2.569411e-01 3.061794e-01 2.411740e-01 2.710854e-01 2.260028e-01 2.011838e-01
<GCONST> 8.784751e+01
<STATE> 3
<NUMMIXES> 2
<MIXTURE> 1 9.759053e-01
<MEAN> 39
 -1.123299e+01 -7.153777e+00 1.191317e+00 9.184689e+00 6.214172e+00 8.011320e+00 -5.078313e-01 6.591714e+00 1.588742e+00 -1.137624e+00 1.615429e+00 9.575427e-02 5.081797e+00 6.029844e-01 -2.926785e+00 4.756832e-01 6.665518e-01 -6.321157e-01 2.747312e-01 3.928185e-03 7.742665e-01 6.330932e-01 3.303171e-01 6.481744e-01 -5.521787e-01 -3.308743e-01 6.630303e-01 -3.075338e-01 1.149687e-01 -8.978388e-02 -7.917686e-02 1.333905e-01 -1.832532e-01 3.062427e-02 -3.617137e-01 -2.839093e-01 6.114844e-01 2.539997e-01 -3.233269e-01
<VARIANCE> 39
 1.224665e+02 7.331812e+01 2.890441e+01 5.088510e+01 5.430643e+01 7.025430e+01 5.481650e+01 4.070935e+01 3.447328e+01 4.035228e+01 2.888066e+01 2.369914e+01 6.256760e+01 6.176047e+00 5.689244e+00 2.700643e+00 3.261206e+00 5.342719e+00 4.397267e+00 2.867853e+00 3.144691e+00 4.344205e+00 3.356628e+00 4.859640e+00 3.720917e+00 5.205661e+00 4.063864e-01 3.185307e-01 3.817655e-01 3.920121e-01 7.060406e-01 7.024624e-01 4.883680e-01 6.750436e-01 9.335388e-01 4.750282e-01 5.311960e-01 6.786733e-01 8.316246e-01
<GCONST> 1.324760e+02
<MIXTURE> 2 2.409486e-02
<MEAN> 39
 -6.210733e+00 -2.193304e+01 4.836820e+00 5.812787e+00 5.786800e-02 1.080300e+01 -1.226521e+00 6.609715e+00 -1.847065e+00 1.917022e+00 8.323181e+00 -1.296233e+00 2.991165e+00 1.415947e+00 -5.687043e+00 2.505347e+00 -8.663492e-01 -7.724770e-01 1.240355e+00 8.921808e-02 7.545156e-01 -2.864241e+00 -4.822459e-01 4.854447e+00 3.481414e+00 -1.520591e+00 -4.178418e-02 2.941865e-01 1.139575e+00 2.335417e-01 9.014525e-01 1.120695e+00 -2.940489e-01 -4.020618e-01 -1.470381e+00 -8.967214e-01 -2.410865e-02 3.533994e-01 6.068978e-01
<VARIANCE> 39
 9.889160e+00 1.906316e+01 1.159530e+01 8.010612e+00 3.656281e+00 6.978790e+00 7.989094e+00 7.560329e+00 2.454483e+01 1.028610e+01 1.691345e+01 2.495416e+01 6.276768e+00 3.678632e-01 8.862724e-01 1.325190e+00 5.177411e-01 1.138145e+00 2.248349e+00 5.387238e-01 1.147248e+00 4.125296e+00 2.964638e+00 1.508977e+00 1.912712e+00 1.594630e+00 2.126766e-01 9.812868e-02 1.145940e-01 1.112363e-01 1.981112e-01 1.557608e-01 2.937208e-01 4.700944e-01 1.025609e+00 3.652405e-01 5.154120e-01 8.751059e-01 2.759103e-01
<GCONST> 8.843678e+01
<STATE> 4
<NUMMIXES> 2
<MIXTURE> 1 7.581156e-02
<MEAN> 39
 -9.241913e+00 -1.794725e+01 -7.183674e+00 5.335017e+00 1.950636e+00 7.770246e+00 2.417830e+00 8.095914e+00 -7.256505e-01 6.489158e-02 1.143488e+01 6.425707e+00 5.131990e+00 -1.749156e-01 1.327463e+00 -1.429509e+00 -6.082429e-01 -2.428247e-01 -1.529406e+00 -1.457657e-01 2.595544e-01 5.885747e-02 -1.578060e-01 -9.929827e-01 -3.250112e-01 1.275120e-01 -3.274838e-02 -8.971911e-02 4.194967e-01 4.274649e-02 -4.840672e-03 1.214892e-01 -2.324765e-01 -4.570690e-02 -1.513078e-01 -2.480352e-01 5.223253e-02 -1.773986e-02 -5.523599e-02
<VARIANCE> 39
 1.731991e+02 1.201597e+02 4.486580e+01 4.858743e+01 3.634832e+01 1.041588e+02 1.032266e+02 7.607182e+01 2.879852e+01 4.261915e+01 9.496156e+01 4.140004e+01 3.936727e+01 7.555783e-01 1.509680e+00 2.923537e+00 1.387428e+00 1.844396e+00 2.214526e+00 1.266835e+00 1.548730e+00 2.680450e+00 1.899010e+00 2.063821e+00 1.520756e+00 1.718071e+00 8.514889e-02 1.840160e-01 2.464809e-01 1.685544e-01 2.826287e-01 3.502633e-01 2.238439e-01 1.829031e-01 3.684273e-01 4.316450e-01 3.709696e-01 2.429786e-01 3.140667e-01
<GCONST> 1.142542e+02
<MIXTURE> 2 9.241884e-01
<MEAN> 39
 -4.131298e+00 -2.837982e+01 9.312832e+00 1.215689e+01 4.046409e+00 1.888597e+01 -1.087125e+00 4.324933e+00 -5.579183e+00 -2.898546e+00 1.523521e+01 2.268172e+00 1.395887e+00 3.325332e-01 2.460414e-01 -1.786762e-01 2.089193e-01 3.817244e-01 4.261833e-02 -5.466104e-03 -1.470909e-01 -3.588212e-01 1.155107e-01 6.946348e-01 3.435786e-01 1.329452e-02 -1.216396e-01 4.813280e-01 -2.641314e-01 -6.968027e-02 7.623584e-02 -3.215418e-01 -4.842897e-02 2.726799e-02 1.770831e-01 5.302656e-02 -2.818474e-01 -4.725473e-02 5.453715e-02
<VARIANCE> 39
 5.106437e+01 1.722856e+02 9.066808e+01 5.705081e+01 6.417817e+01 1.022704e+02 5.610532e+01 4.176614e+01 5.657474e+01 6.196857e+01 7.808690e+01 3.805148e+01 4.044641e+01 2.958643e+00 1.190318e+01 7.964643e+00 1.813461e+00 3.023020e+00 6.444070e+00 2.570481e+00 2.589723e+00 5.676362e+00 4.405441e+00 5.230890e+00 2.207629e+00 2.625832e+00 3.243810e-01 8.577006e-01 9.762676e-01 2.533045e-01 4.739859e-01 7.022793e-01 4.068650e-01 4.788012e-01 9.610239e-01 8.460987e-01 5.873126e-01 3.975487e-01 5.262822e-01
<GCONST> 1.357303e+02
<TRANSP> 5
 0.000000e+00 1.000000e+00 0.000000e+00 0.000000e+00 0.000000e+00
 0.000000e+00 8.617567e-01 1.382433e-01 0.000000e+00 0.000000e+00
 0.000000e+00 0.000000e+00 7.206375e-01 2.793625e-01 0.000000e+00
 0.000000e+00 0.000000e+00 0.000000e+00 8.598004e-01 1.401996e-01
 0.000000e+00 0.000000e+00 0.000000e+00 0.000000e+00 0.000000e+00
<ENDHMM>
