~o
<STREAMINFO> 1 39
<VECSIZE> 39<NULLD><MFCC_D_A><DIAGC>
~h "a"
<BEGINHMM>
<NUMSTATES> 7
<STATE> 2
<NUMMIXES> 2
<MIXTURE> 1 7.735943e-01
<MEAN> 39
 -3.478364e+00 -2.054415e+00 3.499966e+00 -3.011761e+00 5.661928e+00 -5.215465e+00 1.261785e+00 -1.467417e+00 -2.150084e+00 -4.880865e+00 -2.232249e+00 2.799730e-01 -1.398116e+00 1.283273e+00 -5.373136e-01 -6.033906e-01 -5.736552e-01 -2.696842e-01 -1.185251e+00 -4.812483e-01 -1.674594e-02 -3.314876e-01 -4.449358e-01 3.579767e-02 2.048486e-01 1.563595e-02 2.189572e-02 -6.681062e-02 -1.193105e-01 1.603721e-02 -3.400829e-02 -5.371138e-02 -4.132874e-02 5.065342e-02 2.500228e-02 3.563329e-03 4.738292e-02 4.236390e-02 -2.523467e-02
<VARIANCE> 39
 7.874697e+01 6.666290e+01 6.333559e+01 7.822527e+01 8.699890e+01 8.766933e+01 7.224110e+01 8.775304e+01 7.143384e+01 5.573469e+01 4.396367e+01 3.708271e+01 3.789994e+01 3.407518e+00 4.450041e+00 3.161414e+00 3.900816e+00 3.246162e+00 4.765228e+00 4.247706e+00 3.587620e+00 3.563456e+00 3.214592e+00 2.666758e+00 2.201600e+00 2.107312e+00 4.863954e-01 7.213621e-01 4.958261e-01 6.300787e-01 5.069533e-01 6.596535e-01 6.360835e-01 5.766348e-01 5.251815e-01 5.032773e-01 4.353367e-01 3.440860e-01 3.278876e-01
<GCONST> 1.327603e+02
<MIXTURE> 2 2.264057e-01
<MEAN> 39
 1.375150e+01 -1.657400e+01 3.028867e+00 7.492239e+00 -1.521733e+01 6.983521e+00 -4.284248e+00 -1.077679e+01 1.726369e+00 -1.070671e+01 -5.154620e+00 4.205813e+00 -7.549816e+00 9.095274e-01 -5.846345e-01 -6.489049e-01 -4.108514e-01 -6.263922e-01 -8.806422e-01 -4.713011e-01 -9.380733e-02 -3.961484e-01 -3.064657e-01 4.156449e-01 1.513806e-01 -1.671339e-01 -2.176531e-01 1.712984e-01 3.143810e-03 -4.713264e-04 2.165150e-01 -6.782716e-03 4.729373e-02 1.178585e-01 3.494639e-02 1.696261e-01 7.490674e-02 -5.237887e-02 5.429487e-02
<VARIANCE> 39
 3.772319e+01 5.396905e+01 5.019538e+01 5.209579e+01 5.252972e+01 7.067160e+01 8.444112e+01 8.652010e+01 6.261616e+01 5.064079e+01 4.219273e+01 3.567212e+01 4.101268e+01 1.897100e+00 4.421254e+00 2.088089e+00 1.648399e+00 3.247935e+00 3.716166e+00 2.681756e+00 2.510356e+00 2.896357e+00 2.187268e+00 2.009899e+00 1.844309e+00 1.560378e+00 2.907478e-01 8.158081e-01 3.713963e-01 2.924365e-01 5.665090e-01 6.995718e-01 4.449456e-01 4.043213e-01 5.317447e-01 3.555544e-01 3.363024e-01 3.187315e-01 2.602421e-01
<GCONST> 1.231899e+02
<STATE> 3
<NUMMIXES> 2
<MIXTURE> 1 4.008031e-01
<MEAN> 39
 1.745475e+01 -1.747867e+01 -2.645337e+00 3.207002e+00 -1.674202e+01 -3.249306e-01 -4.584927e+00 -6.043795e+00 -1.049705e+00 -1.233467e+01 -2.882591e+00 2.040058e+00 -1.010324e+01 3.863315e-02 -1.194066e-01 -9.903803e-02 -8.945084e-02 5.187332e-02 8.748708e-03 -1.200162e-01 -8.490054e-02 4.037742e-02 1.090674e-01 1.484854e-01 5.671071e-02 -3.646191e-02 -3.156964e-02 7.902806e-02 1.202984e-01 8.103983e-02 4.343205e-02 1.225401e-01 -8.435723e-03 -8.089964e-02 2.949297e-02 2.322169e-03 -6.445207e-02 -5.563091e-03 5.749068e-03
<VARIANCE> 39
 9.151694e+00 3.124700e+01 4.155190e+01 4.618980e+01 5.027211e+01 4.649480e+01 1.140705e+02 9.925629e+01 5.326733e+01 6.707984e+01 4.792576e+01 3.351891e+01 6.083576e+01 4.602345e-01 9.113238e-01 6.754422e-01 6.595274e-01 1.080636e+00 1.142372e+00 1.024500e+00 1.095657e+00 9.440897e-01 9.323709e-01 7.415699e-01 6.580793e-01 7.026143e-01 9.244844e-02 1.270640e-01 8.009850e-02 9.030529e-02 1.719476e-01 1.828377e-01 1.349629e-01 1.228823e-01 1.532227e-01 1.446895e-01 1.120539e-01 9.826012e-02 1.140396e-01
<GCONST> 9.168467e+01
<MIXTURE> 2 5.991969e-01
<MEAN> 39
 4.317326e+00 -4.298702e+00 8.454856e-02 -6.375266e+00 7.151192e+00 -1.356009e+01 -3.625579e+00 -1.672507e+00 -4.950777e+00 -8.854723e+00 -2.823072e+00 1.238517e+00 -1.697353e+00 2.683040e-01 -5.144011e-01 -7.436144e-01 -5.578034e-01 -1.170506e-01 -6.457963e-01 -2.677100e-01 1.028680e-01 3.337377e-02 1.052856e-01 4.359436e-01 3.660769e-01 1.081989e-01 -2.281743e-01 9.548043e-02 2.208827e-01 1.547211e-01 5.223725e-02 3.607634e-01 1.925433e-01 -4.335939e-02 9.643029e-02 1.121247e-01 -4.853693e-02 -1.178603e-01 -4.777443e-02
<VARIANCE> 39
 1.420248e+01 3.203182e+01 4.942928e+01 5.376578e+01 9.559663e+01 8.241520e+01 7.424698e+01 9.910245e+01 1.030810e+02 6.933988e+01 6.399470e+01 5.310986e+01 6.439013e+01 3.120160e-01 8.228219e-01 1.079453e+00 1.218263e+00 1.486114e+00 2.123407e+00 1.919133e+00 1.926368e+00 2.010538e+00 1.950910e+00 1.689060e+00 1.494531e+00 1.262782e+00 1.000674e-01 1.261965e-01 1.855873e-01 2.275891e-01 2.606511e-01 3.946950e-01 3.634272e-01 3.562981e-01 3.651065e-01 3.557688e-01 3.102011e-01 2.575200e-01 2.167137e-01
<GCONST> 1.106734e+02
<STATE> 4
<NUMMIXES> 2
<MIXTURE> 1 1.693386e-01
<MEAN> 39
 1.691015e+01 -2.081782e+01 1.038613e+00 7.857705e+00 -1.619812e+01 5.856505e+00 -7.762737e+00 -1.512083e+01 7.941718e-01 -8.660975e+00 -1.638333e+00 6.017429e+00 -6.849028e+00 -4.247864e-03 1.861962e-01 5.746838e-02 1.093889e-01 1.980811e-01 1.727434e-01 -7.793014e-02 -1.811258e-01 -7.320690e-03 4.282245e-02 -6.928163e-02 -4.044295e-02 -3.723733e-02 -5.060230e-02 1.731907e-01 2.813571e-02 7.078309e-02 1.390184e-01 1.087973e-02 7.431906e-02 3.588381e-02 -7.091351e-02 -1.374539e-02 -1.020160e-01 -8.543111e-02 3.917592e-02
<VARIANCE> 39
 5.502065e+00 1.773066e+01 1.980900e+01 2.728851e+01 3.455150e+01 3.075987e+01 5.346763e+01 4.053547e+01 3.045296e+01 3.399797e+01 2.529199e+01 2.212544e+01 2.696828e+01 2.504953e-01 5.365832e-01 3.706995e-01 5.524865e-01 8.865206e-01 7.637033e-01 9.594390e-01 9.214506e-01 7.301753e-01 7.237523e-01 5.741845e-01 4.838465e-01 5.458643e-01 4.393922e-02 6.405768e-02 3.842335e-02 5.868614e-02 1.172427e-01 1.088657e-01 9.530056e-02 8.570029e-02 1.097520e-01 9.929387e-02 7.128827e-02 7.360011e-02 8.348167e-02
<GCONST> 7.374600e+01
<MIXTURE> 2 8.306614e-01
<MEAN> 39
 4.833794e+00 -6.955164e+00 -2.602890e+00 -7.830777e+00 4.800616e+00 -1.450122e+01 -3.316908e+00 -1.858781e+00 -4.508783e+00 -7.332672e+00 -8.349563e-01 9.028715e-01 -3.144722e+00 -1.649136e-02 1.063356e-01 1.803470e-03 3.844074e-02 8.919343e-02 7.541151e-02 -6.615353e-03 -9.481408e-02 -4.898208e-02 7.140032e-03 -2.412423e-02 -3.292719e-02 -2.997014e-02 -1.400453e-02 1.018204e-01 7.231228e-02 8.598866e-02 5.181598e-02 6.983995e-02 1.891049e-02 -1.331124e-03 -4.079354e-02 -3.671026e-02 -5.899305e-02 -4.151186e-02 -9.661356e-03
<VARIANCE> 39
 1.134498e+01 3.165687e+01 4.374550e+01 4.260936e+01 8.097227e+01 7.391465e+01 7.027676e+01 8.811938e+01 8.584373e+01 7.379029e+01 5.402674e+01 5.904697e+01 7.892687e+01 1.127596e-01 3.801762e-01 4.959721e-01 5.789043e-01 8.414218e-01 9.152912e-01 1.002096e+00 1.117514e+00 1.123657e+00 1.064316e+00 9.187587e-01 7.759023e-01 6.672303e-01 1.645982e-02 4.445960e-02 6.306741e-02 8.566269e-02 1.049822e-01 1.410137e-01 1.434286e-01 1.505564e-01 1.534250e-01 1.530558e-01 1.415305e-01 1.249607e-01 1.085933e-01
<GCONST> 8.810429e+01
<STATE> 5
<NUMMIXES> 2
<MIXTURE> 1 3.289590e-01
<MEAN> 39
 1.564376e+01 -1.228238e+01 2.715457e+00 9.046666e+00 -1.067191e+01 6.364872e+00 -6.641691e+00 -1.303728e+01 -2.758196e-01 -9.895503e+00 -5.799059e+00 2.299910e+00 -7.841643e+00 -4.511969e-01 1.189108e+00 3.946647e-01 4.968743e-01 8.992469e-01 3.722132e-01 4.409701e-01 2.041552e-01 2.096939e-03 2.904386e-01 -4.460106e-01 -3.854873e-01 2.038644e-01 -4.901857e-02 -2.690125e-02 2.626542e-03 -3.054811e-02 -5.458409e-02 -3.526035e-02 -2.691743e-03 5.246917e-02 7.157066e-02 3.655969e-02 3.240218e-02 2.961238e-02 2.940067e-03
<VARIANCE> 39
 1.066353e+01 4.065202e+01 3.189795e+01 4.422659e+01 5.609838e+01 5.334271e+01 6.329531e+01 6.237803e+01 5.948017e+01 5.658971e+01 4.888758e+01 4.050528e+01 4.254972e+01 4.641511e-01 1.699952e+00 1.152198e+00 1.050374e+00 1.993547e+00 2.033647e+00 1.903936e+00 1.756085e+00 1.859857e+00 1.896886e+00 1.561007e+00 1.343809e+00 1.320575e+00 8.010858e-02 2.600550e-01 1.635459e-01 1.612329e-01 3.275575e-01 3.269258e-01 3.196123e-01 2.952088e-01 3.026681e-01 3.127885e-01 2.529320e-01 2.215660e-01 2.162495e-01
<GCONST> 1.067172e+02
<MIXTURE> 2 6.710410e-01
<MEAN> 39
 3.914366e+00 -1.950364e+00 -2.614055e-01 -5.535219e+00 8.048836e+00 -1.202739e+01 -3.836689e+00 -2.499053e+00 -6.140850e+00 -9.344778e+00 -3.884435e+00 -2.051254e-01 -2.762603e+00 -1.636287e-01 8.783921e-01 6.985359e-01 9.641818e-01 3.757819e-01 1.335691e+00 3.818932e-01 1.394353e-01 -3.224666e-02 4.950906e-03 -5.417190e-01 -4.981164e-01 -2.526334e-01 -7.954227e-02 8.158445e-02 1.437892e-01 1.773401e-01 -5.076036e-02 2.628616e-01 8.695585e-02 6.472608e-02 1.375748e-01 1.084373e-01 -4.493269e-02 -5.354664e-02 -3.965524e-02
<VARIANCE> 39
 1.286075e+01 3.123155e+01 4.790835e+01 5.192679e+01 9.371657e+01 8.462229e+01 6.685685e+01 9.993226e+01 9.919341e+01 6.646602e+01 6.442803e+01 6.243349e+01 7.222678e+01 2.866121e-01 9.396521e-01 1.131934e+00 1.577287e+00 1.804437e+00 2.941696e+00 2.293158e+00 2.478598e+00 2.463204e+00 2.453297e+00 2.028601e+00 1.939442e+00 1.508444e+00 4.466190e-02 1.221670e-01 1.743065e-01 2.278270e-01 2.683899e-01 4.411319e-01 3.486889e-01 3.654996e-01 3.675112e-01 3.715091e-01 3.316464e-01 3.048673e-01 2.269508e-01
<GCONST> 1.125083e+02
<STATE> 6
<NUMMIXES> 2
<MIXTURE> 1 5.169882e-01
<MEAN> 39
 -8.203006e-01 1.915367e+00 4.064161e+00 1.917344e-01 4.899211e+00 -1.232360e+00 -2.606129e-01 -1.884450e+00 -3.279904e+00 -5.099805e+00 -4.195126e+00 3.564728e-01 -6.137297e-01 -6.117018e-01 6.480820e-01 4.355906e-01 8.070043e-01 -3.085956e-02 7.238123e-01 -1.480165e-02 1.940557e-01 3.298689e-01 3.783897e-01 -5.226238e-02 -1.271952e-01 -6.206072e-02 3.820445e-03 -1.347057e-01 -1.313121e-01 -1.542787e-01 -3.513784e-02 -2.785010e-01 -1.482919e-01 -5.182864e-02 -1.547146e-02 -4.186580e-02 6.959589e-02 5.911738e-02 3.465332e-02
<VARIANCE> 39
 5.219658e+01 5.672855e+01 6.637154e+01 7.257616e+01 9.817334e+01 7.220433e+01 6.848556e+01 9.371651e+01 6.514818e+01 4.983007e+01 4.998458e+01 4.877001e+01 4.637832e+01 1.609482e+00 2.691929e+00 2.966727e+00 2.986250e+00 2.830101e+00 4.018206e+00 3.369550e+00 3.068314e+00 2.928800e+00 2.828960e+00 2.478328e+00 2.457265e+00 1.875650e+00 2.124485e-01 3.860600e-01 4.418700e-01 4.433531e-01 4.562684e-01 6.100751e-01 5.625775e-01 5.086899e-01 4.857572e-01 4.732177e-01 4.126965e-01 4.103360e-01 3.288223e-01
<GCONST> 1.274500e+02
<MIXTURE> 2 4.830118e-01
<MEAN> 39
 1.709138e+00 1.278953e+00 2.354575e+00 2.153053e+00 1.268310e+00 -1.362301e+00 -2.286725e+00 -3.018347e+00 -1.027589e+00 -4.519727e+00 -5.159384e+00 -4.000035e-02 -2.084065e+00 -3.620296e-01 3.166364e-01 1.144690e-01 1.738269e-01 1.111367e-01 1.225155e-01 4.417183e-02 6.869687e-02 1.232639e-01 1.639424e-01 -6.080237e-04 -3.612921e-02 3.848998e-02 1.076748e-02 -9.900528e-02 -1.769044e-02 -6.086661e-02 -5.137444e-03 -4.981263e-02 2.472535e-02 9.279760e-03 -2.869027e-02 -3.032410e-02 4.038548e-02 5.164191e-02 1.364918e-02
<VARIANCE> 39
 6.168293e+01 7.264564e+01 5.739140e+01 8.267378e+01 1.174384e+02 8.263506e+01 7.241916e+01 1.038594e+02 7.221191e+01 6.150727e+01 5.420725e+01 5.487255e+01 5.307709e+01 2.622628e-01 5.188403e-01 6.242872e-01 7.855336e-01 9.010653e-01 1.098695e+00 1.126062e+00 1.169657e+00 1.208753e+00 1.129374e+00 1.056662e+00 9.707569e-01 8.342109e-01 2.835033e-02 8.685623e-02 1.106624e-01 1.409594e-01 1.624091e-01 2.260659e-01 2.091785e-01 2.145398e-01 2.179809e-01 2.159735e-01 2.047728e-01 1.908665e-01 1.583662e-01
<GCONST> 1.000211e+02
<TRANSP> 7
 0.000000e+00 1.000000e+00 0.000000e+00 0.000000e+00 0.000000e+00 0.000000e+00 0.000000e+00
 0.000000e+00 7.127007e-01 2.872993e-01 0.000000e+00 0.000000e+00 0.000000e+00 0.000000e+00
 0.000000e+00 0.000000e+00 7.176742e-01 2.823258e-01 0.000000e+00 0.000000e+00 0.000000e+00
 0.000000e+00 0.000000e+00 0.000000e+00 8.590848e-01 1.409152e-01 0.000000e+00 0.000000e+00
 0.000000e+00 0.000000e+00 0.000000e+00 0.000000e+00 7.680598e-01 2.319402e-01 0.000000e+00
 0.000000e+00 0.000000e+00 0.000000e+00 0.000000e+00 0.000000e+00 7.952458e-01 2.047542e-01
 0.000000e+00 0.000000e+00 0.000000e+00 0.000000e+00 0.000000e+00 0.000000e+00 0.000000e+00
<ENDHMM>
