~o
<STREAMINFO> 1 39
<VECSIZE> 39<NULLD><MFCC_D_A><DIAGC>
~h "ch"
<BEGINHMM>
<NUMSTATES> 5
<STATE> 2
<NUMMIXES> 2
<MIXTURE> 1 5.850415e-01
<MEAN> 39
 -5.196212e+00 4.089417e+00 7.605412e+00 4.721444e+00 1.075970e+01 -3.081988e+00 7.545534e-01 -1.344133e+00 -4.262808e+00 -8.001571e+00 -2.884631e+00 2.105151e+00 -3.432464e+00 -9.590903e-01 -5.640450e-01 -6.330027e-02 1.576554e-01 -4.687788e-01 1.416987e-01 2.832748e-01 -1.289763e-01 6.101786e-01 1.614754e-01 -2.657658e-02 -7.170713e-02 1.906242e-01 -1.600073e-01 -8.229269e-01 1.508062e-01 -3.323576e-01 -8.469481e-02 -2.587525e-01 6.730873e-02 4.563772e-02 1.679350e-01 -7.452013e-02 1.051747e-01 -1.124080e-01 1.170270e-01
<VARIANCE> 39
 6.275420e+01 5.685799e+01 4.244580e+01 4.838465e+01 4.781868e+01 5.758421e+01 6.139690e+01 5.859586e+01 6.317498e+01 6.708378e+01 3.334055e+01 2.931194e+01 2.523996e+01 1.647176e+00 8.549954e+00 3.019083e+00 2.817056e+00 2.779773e+00 3.514138e+00 3.596251e+00 3.019357e+00 3.147290e+00 3.163098e+00 2.243210e+00 2.052720e+00 1.768651e+00 2.137905e-01 1.232160e+00 4.690707e-01 4.936356e-01 4.430596e-01 5.485188e-01 5.885738e-01 5.383248e-01 5.699394e-01 5.676337e-01 4.314593e-01 3.600422e-01 3.553579e-01
<GCONST> 1.265171e+02
<MIXTURE> 2 4.149584e-01
<MEAN> 39
 -1.340248e+01 -1.250328e+01 1.021629e+01 4.592908e-01 6.844452e+00 -5.517449e+00 3.270015e+00 -1.261517e+00 2.519655e+00 -7.554991e+00 -5.074875e-01 -1.277343e-01 -3.995749e-01 -1.547393e+00 -3.520398e+00 1.047974e+00 -1.611086e+00 -6.954872e-01 -9.874428e-01 3.115776e-01 -1.306738e-01 1.199229e+00 -9.735420e-02 5.472845e-01 -1.143120e-01 6.646630e-01 -1.697910e-01 6.127779e-01 3.692278e-01 2.065287e-01 2.035549e-01 8.017928e-02 -1.437570e-01 -1.458888e-01 -1.408698e-01 1.533657e-01 -8.296876e-02 1.426986e-01 -1.381229e-01
<VARIANCE> 39
 2.803478e+01 5.912197e+01 6.179649e+01 4.638752e+01 5.126153e+01 4.364100e+01 4.309783e+01 3.525846e+01 4.934702e+01 3.386684e+01 3.121447e+01 2.525070e+01 1.833232e+01 3.422446e+00 8.199653e+00 5.563406e+00 4.419929e+00 3.140761e+00 3.629478e+00 3.433469e+00 3.622609e+00 3.412002e+00 3.364915e+00 3.136324e+00 2.283649e+00 1.931759e+00 6.308926e-01 1.003160e+00 1.210680e+00 8.462878e-01 6.126489e-01 6.492882e-01 6.420662e-01 6.084230e-01 5.985858e-01 6.460838e-01 5.147147e-01 4.672879e-01 3.586116e-01
<GCONST> 1.299536e+02
<STATE> 3
<NUMMIXES> 2
<MIXTURE> 1 3.357412e-01
<MEAN> 39
 -2.132462e+01 -2.105517e+01 1.835003e+01 -2.546660e+00 7.252917e+00 -8.876005e+00 3.880532e+00 -3.473800e+00 5.438602e+00 -7.291661e+00 3.587772e-02 2.952703e-01 1.450431e-01 -2.182701e+00 -1.621722e+00 1.568710e+00 -7.323864e-02 4.735839e-01 -4.886093e-01 -1.277446e-03 -5.536894e-01 5.658455e-01 8.416545e-01 4.613531e-01 1.198809e-01 -3.294189e-02 5.411400e-01 4.821183e-01 -7.253408e-01 1.392299e-01 1.022954e-01 1.075545e-01 -1.546262e-01 -8.796680e-02 -2.118483e-01 1.861843e-01 1.620433e-02 4.502941e-02 -1.078722e-01
<VARIANCE> 39
 2.342203e+01 4.008090e+01 2.948614e+01 3.831079e+01 4.671196e+01 3.286884e+01 3.562669e+01 2.970437e+01 4.676062e+01 2.562761e+01 3.157734e+01 1.808653e+01 1.514260e+01 1.385051e+00 1.192358e+00 3.073984e+00 1.769267e+00 1.960728e+00 1.771505e+00 1.909172e+00 2.592739e+00 1.862478e+00 1.878003e+00 1.690561e+00 1.381494e+00 1.103737e+00 3.122006e-01 3.104656e-01 4.572023e-01 4.770113e-01 4.018551e-01 3.537675e-01 3.207257e-01 3.789981e-01 3.757042e-01 3.560173e-01 3.353885e-01 2.701517e-01 2.346476e-01
<GCONST> 1.094675e+02
<MIXTURE> 2 6.642588e-01
<MEAN> 39
 -2.384081e+01 -2.196402e+01 1.669321e+01 -4.673763e+00 6.953737e+00 -9.166810e+00 1.636276e+00 -5.203978e+00 5.085506e+00 -2.443434e+00 3.435429e+00 -1.046453e-02 -9.453900e-02 5.298141e-01 -1.087987e-02 -8.971028e-01 -3.673780e-01 3.340602e-01 -1.494573e-01 -3.936743e-01 -7.461389e-01 -9.229165e-02 5.333707e-01 2.103084e-01 1.157813e-01 -7.161511e-02 2.869629e-01 2.008182e-01 -1.622614e-01 -3.188387e-02 1.993479e-02 8.203352e-02 -7.467863e-03 -2.415282e-02 -1.615365e-01 -1.237401e-01 -7.944865e-02 1.545708e-02 1.102739e-02
<VARIANCE> 39
 1.234244e+01 2.722703e+01 2.201986e+01 3.402684e+01 2.610892e+01 2.414848e+01 2.863577e+01 3.030433e+01 2.969494e+01 2.397231e+01 2.552307e+01 1.659579e+01 1.345388e+01 6.616454e-01 7.807670e-01 1.017850e+00 1.073308e+00 1.311256e+00 1.377240e+00 1.372345e+00 1.830043e+00 1.631031e+00 1.478954e+00 1.335855e+00 1.124018e+00 1.028031e+00 1.800209e-01 1.917202e-01 2.290304e-01 2.067742e-01 2.616191e-01 2.740541e-01 2.755402e-01 3.087255e-01 3.134242e-01 2.879497e-01 2.622992e-01 2.358549e-01 2.071617e-01
<GCONST> 9.651815e+01
<STATE> 4
<NUMMIXES> 2
<MIXTURE> 1 4.991512e-01
<MEAN> 39
 -7.653331e+00 -1.031534e+01 9.603685e+00 -1.539998e+00 1.157260e+01 -3.378869e+00 3.064976e+00 -1.865023e+00 9.919461e-01 -2.282804e+00 1.729718e-01 2.480140e+00 -9.479748e-01 1.178891e+00 1.567799e+00 -2.426350e-02 8.944257e-01 1.010970e-01 3.559994e-01 -1.651273e-02 8.834690e-01 -3.127148e-01 -1.972285e-01 -4.708359e-01 -1.198847e-01 -3.259057e-01 -6.961916e-02 -9.967820e-03 1.012891e-02 -8.598642e-02 -8.005605e-02 -2.374420e-01 -1.339211e-01 -1.381061e-01 -7.392962e-02 -1.072635e-01 6.115272e-03 -4.985575e-02 -1.161928e-02
<VARIANCE> 39
 6.190334e+01 7.316439e+01 6.298545e+01 6.637962e+01 6.849171e+01 6.929585e+01 7.142144e+01 4.633609e+01 5.706268e+01 4.100672e+01 5.159685e+01 3.442170e+01 3.338038e+01 2.049716e+00 2.368278e+00 2.376624e+00 2.650702e+00 2.976110e+00 3.414588e+00 3.629153e+00 3.079018e+00 3.129280e+00 2.696547e+00 2.336430e+00 1.964809e+00 1.722163e+00 2.283447e-01 3.548934e-01 4.097392e-01 4.127147e-01 4.716967e-01 5.342417e-01 5.743428e-01 4.394585e-01 4.966256e-01 4.453093e-01 3.804703e-01 3.554034e-01 3.026114e-01
<GCONST> 1.243543e+02
<MIXTURE> 2 5.008488e-01
<MEAN> 39
 -1.609443e+01 -2.143024e+01 9.419614e+00 -7.244146e+00 1.045701e+01 -9.049702e+00 1.596956e+00 -1.122061e+01 3.302405e+00 -2.290780e+00 8.196695e-01 2.481735e+00 1.019662e+00 1.390139e+00 9.597672e-01 -7.985513e-01 -3.309344e-01 1.544803e-01 6.892713e-01 1.888497e-01 3.021334e-01 -6.185635e-01 -3.978162e-02 -1.244746e-01 2.767278e-01 1.576894e-01 1.060081e-01 1.696873e-01 1.584644e-01 2.680773e-01 3.852935e-03 1.683326e-01 1.720456e-01 4.242683e-01 1.550224e-01 -1.572770e-02 -5.907531e-02 -2.337056e-02 -4.497732e-02
<VARIANCE> 39
 2.094787e+01 2.495176e+01 2.326092e+01 2.667680e+01 3.785698e+01 4.131968e+01 4.691267e+01 2.759651e+01 2.833502e+01 2.583757e+01 3.094392e+01 1.900554e+01 1.912008e+01 5.077685e-01 6.603423e-01 1.002085e+00 1.504050e+00 1.405100e+00 1.625049e+00 1.973145e+00 2.303453e+00 2.002604e+00 1.875157e+00 1.737408e+00 1.403770e+00 1.140236e+00 7.137889e-02 1.352329e-01 1.553159e-01 2.077210e-01 2.586403e-01 2.993154e-01 3.195263e-01 3.464828e-01 3.434051e-01 3.684449e-01 3.260296e-01 2.788241e-01 2.310341e-01
<GCONST> 1.000504e+02
<TRANSP> 5
 0.000000e+00 1.000000e+00 0.000000e+00 0.000000e+00 0.000000e+00
 0.000000e+00 8.830234e-01 1.169766e-01 0.000000e+00 0.000000e+00
 0.000000e+00 0.000000e+00 8.864213e-01 1.135787e-01 0.000000e+00
 0.000000e+00 0.000000e+00 0.000000e+00 8.996401e-01 1.003599e-01
 0.000000e+00 0.000000e+00 0.000000e+00 0.000000e+00 0.000000e+00
<ENDHMM>
