~o
<STREAMINFO> 1 39
<VECSIZE> 39<NULLD><MFCC_D_A><DIAGC>
~h "dxq"
<BEGINHMM>
<NUMSTATES> 5
<STATE> 2
<NUMMIXES> 2
<MIXTURE> 1 3.518201e-01
<MEAN> 39
 1.119156e+01 -2.509363e+00 -1.246683e+01 -3.047760e+00 1.899629e+01 -2.025035e+01 -6.853360e+00 -4.890471e+00 -1.464420e+01 1.456605e+00 6.297964e-01 4.462435e-01 -1.335912e+00 -5.830021e-03 3.359075e-01 -7.105767e-02 3.918215e-01 1.098695e+00 6.560829e-01 -6.395506e-01 -1.034324e+00 -3.047078e-01 2.696223e-01 -1.885628e-01 -5.762012e-02 -9.682328e-02 -6.968758e-02 7.229506e-02 1.816679e-01 2.485150e-02 -1.392965e-01 2.902507e-01 8.953182e-02 -4.832176e-02 2.526780e-01 -1.685847e-01 -1.312741e-01 7.758447e-02 -6.935910e-02
<VARIANCE> 39
 6.420025e+00 4.386384e+01 2.615638e+01 7.716970e+01 3.490775e+01 6.858468e+01 5.096653e+01 4.718443e+01 4.350651e+01 4.839577e+01 5.405531e+01 3.079429e+01 1.819825e+01 9.676071e-02 3.284435e-01 5.402561e-01 6.919399e-01 8.368893e-01 1.314718e+00 1.302059e+00 1.117502e+00 1.236927e+00 1.048008e+00 1.346440e+00 1.192820e+00 5.645350e-01 1.956895e-02 3.581618e-02 7.560432e-02 9.060983e-02 1.375696e-01 2.052351e-01 1.569719e-01 1.571611e-01 2.377417e-01 1.483040e-01 1.529050e-01 1.361019e-01 9.464040e-02
<GCONST> 8.557307e+01
<MIXTURE> 2 6.481799e-01
<MEAN> 39
 8.945384e+00 -7.932908e-01 -2.835392e+00 -1.206270e+01 1.893201e+01 -8.257421e+00 -1.418992e+01 -7.081941e-02 9.274671e+00 -8.644220e+00 -4.993688e+00 2.704843e+00 -6.841853e-01 6.548325e-02 1.500784e-01 -2.509568e-01 -3.153827e-01 5.340872e-01 1.006448e+00 4.546703e-01 -7.334031e-01 -1.187941e+00 -1.324062e-02 2.429020e-01 -3.995211e-02 -1.604481e-01 -4.241976e-02 3.932277e-02 7.528641e-02 1.195176e-01 -5.738622e-02 1.792599e-02 2.762929e-01 3.098508e-02 -1.800562e-01 1.764940e-03 2.937859e-02 -6.400518e-02 -7.611951e-02
<VARIANCE> 39
 1.038307e+01 3.716645e+01 6.047175e+01 4.345001e+01 6.376787e+01 5.644697e+01 6.064371e+01 4.607965e+01 1.073097e+02 5.204173e+01 3.796918e+01 3.946596e+01 4.807398e+01 2.196030e-01 4.824760e-01 6.814717e-01 9.390196e-01 1.233082e+00 1.433485e+00 1.954334e+00 1.668468e+00 2.004077e+00 1.546656e+00 1.201216e+00 1.387640e+00 1.104523e+00 3.211532e-02 6.668427e-02 9.340899e-02 1.308428e-01 1.755160e-01 1.942779e-01 2.317336e-01 2.476466e-01 2.218352e-01 2.294933e-01 1.916806e-01 1.902425e-01 1.805956e-01
<GCONST> 9.745757e+01
<STATE> 3
<NUMMIXES> 2
<MIXTURE> 1 4.050763e-01
<MEAN> 39
 9.412227e+00 -5.423714e-01 -8.689749e+00 1.135831e+00 2.348483e+01 -1.259349e+01 -1.064678e+01 -1.108284e+01 -1.051084e+01 1.485684e+00 -3.247018e+00 -1.395164e-01 -2.646353e+00 -6.073139e-01 5.972997e-01 1.465877e+00 4.800209e-01 -5.164157e-01 2.560278e+00 2.934455e-01 -3.368356e-01 1.567214e+00 -5.803457e-01 -3.793328e-01 2.223509e-01 -4.095666e-01 -1.639822e-01 -1.450117e-01 3.311999e-01 5.891326e-02 -3.948343e-01 -2.123520e-01 3.349683e-01 3.234831e-01 4.466960e-03 -1.377136e-01 1.445574e-01 -9.726548e-03 7.785979e-02
<VARIANCE> 39
 7.584748e+00 3.499871e+01 2.615045e+01 5.943954e+01 2.405572e+01 8.175160e+01 4.283813e+01 2.830139e+01 5.263420e+01 3.164161e+01 3.099729e+01 3.211242e+01 1.500445e+01 3.405902e-01 8.766300e-01 1.588770e+00 1.597492e+00 1.532194e+00 2.541002e+00 2.529712e+00 2.938627e+00 2.579190e+00 1.738266e+00 1.713726e+00 1.605639e+00 1.046937e+00 5.842644e-02 2.090066e-01 2.768492e-01 2.493717e-01 2.546375e-01 9.523963e-01 3.728426e-01 4.355415e-01 6.660445e-01 2.740866e-01 2.728853e-01 2.544092e-01 1.825834e-01
<GCONST> 1.055859e+02
<MIXTURE> 2 5.949237e-01
<MEAN> 39
 8.582690e+00 1.596774e+00 -1.833361e+00 -1.147591e+01 2.020666e+01 -8.342743e-01 -4.184519e+00 -3.182451e+00 -2.596231e+00 -1.021076e+01 -3.923328e+00 2.050467e+00 -4.536989e+00 -3.606922e-01 1.271003e-02 6.564913e-01 1.200679e+00 -7.184074e-01 7.742592e-01 2.120146e+00 4.967977e-01 -5.594214e-01 -4.032997e-01 -3.620758e-01 3.717468e-02 -3.776302e-02 -1.274869e-01 -1.726484e-01 2.011462e-01 2.467638e-01 -7.545467e-02 -2.944703e-01 -2.566575e-01 1.305335e-01 4.748093e-01 7.837594e-02 -2.077090e-01 -2.444417e-02 2.615198e-01
<VARIANCE> 39
 1.097919e+01 3.897584e+01 4.151519e+01 4.747236e+01 8.903624e+01 4.395231e+01 7.422237e+01 6.568579e+01 7.399706e+01 4.391438e+01 4.488414e+01 3.286033e+01 3.448706e+01 3.202324e-01 7.184269e-01 1.564608e+00 1.838859e+00 1.907241e+00 2.504489e+00 3.480700e+00 3.744596e+00 3.407719e+00 3.364748e+00 2.576801e+00 2.284771e+00 3.125451e+00 4.763013e-02 1.138330e-01 2.037880e-01 3.110058e-01 4.348500e-01 3.589054e-01 6.816308e-01 7.978512e-01 4.616444e-01 6.392463e-01 4.182079e-01 4.299956e-01 4.488511e-01
<GCONST> 1.159004e+02
<STATE> 4
<NUMMIXES> 2
<MIXTURE> 1 4.418366e-01
<MEAN> 39
 5.299438e+00 -3.162423e+00 3.011126e+00 -1.773142e+00 1.799895e+01 -9.632411e+00 -5.238717e+00 -5.587424e+00 -6.405868e+00 -8.892241e+00 -2.307510e+00 9.938480e-01 -2.665580e+00 -2.715514e-01 -5.199586e-02 6.446899e-01 3.954217e-01 -3.018783e-01 -6.468927e-01 5.509812e-02 2.339986e-01 -3.971375e-01 -7.636244e-02 5.492591e-01 -6.930698e-02 -1.775907e-01 -8.834870e-02 2.302421e-01 1.704580e-02 1.244724e-05 -2.725995e-03 3.424236e-01 2.280898e-01 1.448136e-01 1.642140e-01 1.251851e-01 -4.193065e-02 -4.830756e-02 -6.065776e-02
<VARIANCE> 39
 1.262455e+01 2.922518e+01 5.596372e+01 7.079611e+01 6.885839e+01 9.998867e+01 6.355294e+01 5.403851e+01 9.407820e+01 6.256570e+01 5.255542e+01 4.175706e+01 2.826992e+01 4.857506e-01 1.420259e+00 1.512017e+00 1.526965e+00 2.001647e+00 4.905342e+00 3.262954e+00 2.765498e+00 3.405628e+00 2.669763e+00 2.825492e+00 2.158907e+00 1.855332e+00 8.197981e-02 1.918268e-01 2.359744e-01 2.395933e-01 2.920290e-01 5.662653e-01 4.487032e-01 4.682582e-01 5.739807e-01 4.474620e-01 4.834581e-01 3.572864e-01 3.152201e-01
<GCONST> 1.174955e+02
<MIXTURE> 2 5.581634e-01
<MEAN> 39
 1.104417e+00 2.724787e+00 4.395228e+00 -7.745063e-02 1.533027e+01 -1.827826e+00 7.100140e-01 -4.017917e+00 -3.602465e+00 -5.502420e+00 -4.096644e+00 5.567567e-01 -2.600821e+00 -5.683387e-01 -2.357620e-01 5.781763e-01 5.781398e-01 -1.875892e-01 -2.375004e-01 -9.935229e-02 -1.791227e-01 1.654799e-01 1.100016e-01 -1.460905e-01 -2.125550e-01 1.746701e-01 1.322062e-01 -1.892233e-01 -1.701309e-01 -1.420007e-01 5.571118e-02 -4.795423e-01 -3.817794e-01 -8.277131e-02 -2.262110e-01 -7.401497e-02 1.411229e-01 2.506160e-02 -3.428574e-02
<VARIANCE> 39
 4.315677e+01 5.998685e+01 5.939197e+01 8.131521e+01 6.271658e+01 7.564944e+01 6.035642e+01 6.701516e+01 6.257864e+01 4.816140e+01 4.831637e+01 3.443512e+01 2.505117e+01 1.762637e+00 4.833565e+00 3.648898e+00 3.619121e+00 3.279080e+00 5.832931e+00 5.046381e+00 4.198949e+00 3.723807e+00 3.260338e+00 2.796406e+00 2.309731e+00 2.134901e+00 2.244460e-01 7.094585e-01 5.677809e-01 6.057840e-01 5.383119e-01 8.906595e-01 8.303653e-01 8.669815e-01 6.852354e-01 6.335571e-01 5.889966e-01 4.562708e-01 4.210224e-01
<GCONST> 1.323036e+02
<TRANSP> 5
 0.000000e+00 1.000000e+00 0.000000e+00 0.000000e+00 0.000000e+00
 0.000000e+00 8.265604e-01 1.734395e-01 0.000000e+00 0.000000e+00
 0.000000e+00 0.000000e+00 7.476526e-01 2.523474e-01 0.000000e+00
 0.000000e+00 0.000000e+00 0.000000e+00 8.823047e-01 1.176954e-01
 0.000000e+00 0.000000e+00 0.000000e+00 0.000000e+00 0.000000e+00
<ENDHMM>
