~o
<STREAMINFO> 1 39
<VECSIZE> 39<NULLD><MFCC_D_A><DIAGC>
~h "h"
<BEGINHMM>
<NUMSTATES> 5
<STATE> 2
<NUMMIXES> 2
<MIXTURE> 1 6.663297e-01
<MEAN> 39
 3.144345e-01 -6.194770e+00 7.529064e+00 -3.169471e+00 1.774934e+01 -1.001925e+01 3.250203e+00 1.230922e+00 -4.181310e-01 2.085483e+00 7.045235e+00 2.908745e-01 -4.152633e+00 -2.764410e-01 -1.289273e-01 2.465720e-01 1.308381e-01 -7.864145e-02 3.134071e-01 3.135412e-01 2.497097e-01 4.162981e-01 4.889809e-01 1.612225e-02 -8.459903e-02 6.648965e-03 2.412098e-02 1.294070e-02 -1.406351e-02 1.466124e-02 -1.266522e-02 -5.002528e-02 -6.547130e-02 -1.442848e-02 -4.021999e-02 -1.181696e-01 -6.692257e-02 6.555009e-03 2.085547e-02
<VARIANCE> 39
 1.155667e+01 2.672450e+01 5.457139e+01 4.133307e+01 8.421635e+01 7.208141e+01 7.969879e+01 6.250745e+01 5.767249e+01 8.268198e+01 8.272206e+01 3.213192e+01 3.219078e+01 1.945977e-01 5.495785e-01 8.340895e-01 9.786425e-01 1.194629e+00 1.418614e+00 1.740618e+00 1.695154e+00 1.753576e+00 1.932393e+00 1.573475e+00 1.333440e+00 1.052187e+00 2.571964e-02 7.114880e-02 1.092823e-01 1.432976e-01 1.878124e-01 2.379259e-01 2.619508e-01 2.818419e-01 2.975800e-01 3.055446e-01 2.702968e-01 2.372144e-01 1.930181e-01
<GCONST> 1.004022e+02
<MIXTURE> 2 3.336703e-01
<MEAN> 39
 -8.070908e+00 -2.077314e+00 1.604522e+00 -6.940702e-01 2.755406e+00 -1.994963e+00 1.768809e+00 2.873754e+00 1.886903e+00 -9.896146e-01 -5.257732e-01 2.141363e+00 -5.657295e-02 -4.310971e-02 -4.901753e-01 -9.546211e-02 -2.399403e-01 -2.129475e-01 -1.202352e-01 1.646701e-01 2.089804e-01 1.572265e-01 8.305079e-02 5.709067e-02 1.774678e-01 1.002637e-01 2.568298e-02 -6.297324e-04 1.879401e-02 -9.836982e-03 1.845070e-02 -3.380079e-02 -3.105290e-02 -6.931434e-03 -1.774703e-02 -2.004511e-02 -4.109289e-03 -3.727581e-02 -3.682996e-02
<VARIANCE> 39
 1.120701e+02 1.056059e+02 7.765586e+01 7.644484e+01 9.357204e+01 8.907541e+01 8.136378e+01 7.296580e+01 5.569236e+01 3.789487e+01 3.486385e+01 3.212085e+01 2.821804e+01 1.957257e+00 2.732739e+00 2.299952e+00 2.433450e+00 2.433725e+00 2.805602e+00 2.746548e+00 2.563992e+00 2.333828e+00 2.124139e+00 1.991795e+00 1.759130e+00 1.454732e+00 2.576161e-01 3.915478e-01 3.777176e-01 3.921208e-01 3.972208e-01 4.416190e-01 4.577759e-01 4.487334e-01 4.140466e-01 3.810325e-01 3.522978e-01 3.241107e-01 2.711170e-01
<GCONST> 1.231304e+02
<STATE> 3
<NUMMIXES> 2
<MIXTURE> 1 3.345401e-01
<MEAN> 39
 -4.529493e+00 -6.330274e+00 1.200049e+01 5.195793e+00 1.601161e+01 -1.277618e+01 -3.237763e-01 5.940229e+00 5.455969e+00 3.301466e+00 5.861269e-01 -2.387915e+00 -1.390344e+00 -2.250728e-02 5.816212e-02 1.229746e-01 6.290283e-02 1.089527e-02 -1.375409e-01 -1.330405e-01 1.759854e-02 -8.215670e-02 -1.922316e-01 -1.361578e-01 -6.389491e-02 -4.554636e-03 6.120892e-02 9.046176e-02 8.560261e-03 -2.590564e-02 1.061075e-02 -2.506589e-02 -6.115233e-02 -8.158610e-02 -1.443248e-01 -1.001385e-01 -2.451344e-02 -7.204652e-03 -3.053810e-02
<VARIANCE> 39
 1.323917e+01 2.575608e+01 4.599810e+01 2.432995e+01 4.441230e+01 6.398751e+01 3.525705e+01 6.556787e+01 3.845164e+01 4.080411e+01 4.852071e+01 2.414980e+01 1.999833e+01 1.944447e-01 4.416526e-01 6.397499e-01 7.081111e-01 8.521383e-01 1.043461e+00 1.285383e+00 1.396242e+00 1.502976e+00 1.387082e+00 1.261163e+00 1.039081e+00 8.933144e-01 2.197698e-02 4.793223e-02 7.579368e-02 1.151608e-01 1.509697e-01 1.901346e-01 2.213885e-01 2.530379e-01 2.604281e-01 2.516652e-01 2.280197e-01 2.050775e-01 1.714333e-01
<GCONST> 9.017937e+01
<MIXTURE> 2 6.654599e-01
<MEAN> 39
 -1.129796e+00 -7.477531e+00 9.774290e-01 -6.471954e+00 1.148945e+00 -3.861872e+00 1.068743e+01 7.986857e+00 3.464318e+00 -2.879346e+00 -8.686869e-01 2.358918e+00 -8.999827e-01 -2.895804e-02 -8.653761e-02 -9.629122e-03 -9.730452e-02 -1.058484e-01 -2.029520e-03 -4.131109e-03 -1.775485e-02 3.724856e-02 3.330236e-02 -1.512478e-02 1.359617e-03 1.262836e-02 3.910179e-02 9.841418e-02 3.192353e-02 3.668744e-02 3.293175e-02 -6.121157e-02 -9.055825e-02 -6.210344e-02 -5.322894e-02 -3.314819e-02 -9.022501e-03 -4.464385e-02 -3.382904e-02
<VARIANCE> 39
 2.467907e+01 7.057362e+01 5.324041e+01 3.561878e+01 6.339431e+01 4.704674e+01 5.650801e+01 4.802030e+01 6.172048e+01 3.607432e+01 3.115546e+01 3.301337e+01 3.588608e+01 2.171768e-01 6.099719e-01 5.387691e-01 7.918298e-01 9.737155e-01 1.143388e+00 1.230250e+00 1.350975e+00 1.382629e+00 1.353838e+00 1.241633e+00 1.158869e+00 9.645354e-01 2.699494e-02 6.427510e-02 8.847019e-02 1.333838e-01 1.621671e-01 2.034446e-01 2.299878e-01 2.451877e-01 2.563189e-01 2.469171e-01 2.349391e-01 2.207227e-01 1.891068e-01
<GCONST> 9.504730e+01
<STATE> 4
<NUMMIXES> 2
<MIXTURE> 1 5.005029e-01
<MEAN> 39
 1.691432e+00 -2.963559e+00 8.571033e+00 -3.545996e+00 1.104696e+01 -1.169641e+01 1.555505e+00 3.853260e+00 -9.917746e-01 -2.747238e+00 5.789998e-01 -1.514344e+00 -3.443727e+00 4.126572e-01 3.316522e-01 -2.169663e-01 -1.327505e-01 -7.853950e-02 -6.032390e-01 -7.656468e-01 -2.634234e-01 -5.190156e-01 -4.529495e-01 -8.275953e-02 -4.564395e-02 -1.123597e-01 1.167037e-02 -7.573158e-02 -1.025410e-01 -8.773539e-03 1.229031e-02 1.300704e-02 1.658735e-03 1.790530e-02 3.999945e-02 -1.924923e-02 -1.649876e-02 4.490933e-02 1.548607e-02
<VARIANCE> 39
 1.687840e+01 4.407206e+01 6.544048e+01 5.677781e+01 9.980098e+01 7.959675e+01 1.024532e+02 7.842220e+01 7.847844e+01 7.324603e+01 7.512328e+01 4.016326e+01 3.517075e+01 2.391141e-01 6.516949e-01 8.908485e-01 9.856299e-01 1.242182e+00 1.541918e+00 1.509772e+00 1.616992e+00 1.533325e+00 1.599022e+00 1.272730e+00 1.079127e+00 8.972506e-01 2.714867e-02 9.542124e-02 1.273208e-01 1.627820e-01 1.988858e-01 2.491349e-01 2.478886e-01 2.631848e-01 2.518118e-01 2.570587e-01 2.293147e-01 1.970066e-01 1.620717e-01
<GCONST> 1.021479e+02
<MIXTURE> 2 4.994971e-01
<MEAN> 39
 1.602452e+00 -9.121824e+00 3.597035e+00 8.395402e-01 -6.669686e-01 -1.412048e+00 3.956870e+00 7.732565e-01 2.928269e+00 -5.184603e+00 -3.104065e+00 1.639969e+00 -4.453717e+00 3.343824e-01 7.221642e-01 5.342057e-01 4.715988e-01 1.683726e-01 1.072655e-01 -2.631325e-01 -1.579958e-01 -1.027924e-01 -2.864525e-01 -3.879258e-01 -3.419664e-01 -2.780975e-01 7.020397e-02 3.797443e-02 -4.342522e-03 -3.644952e-02 -3.448400e-02 -1.405913e-01 -1.163447e-01 -3.575018e-02 -6.632017e-02 -2.304195e-02 3.913964e-03 -4.754563e-02 -9.351277e-03
<VARIANCE> 39
 7.057706e+01 1.418928e+02 8.076218e+01 9.957261e+01 2.087083e+02 1.331988e+02 7.608611e+01 7.134737e+01 8.679981e+01 6.192579e+01 4.704751e+01 4.473921e+01 4.228819e+01 1.474440e+00 2.410553e+00 1.944894e+00 2.104298e+00 2.403557e+00 3.541974e+00 2.669072e+00 2.433094e+00 2.558003e+00 2.365023e+00 1.998560e+00 1.800327e+00 1.439642e+00 1.555969e-01 3.334070e-01 3.121339e-01 3.477512e-01 3.825866e-01 4.699167e-01 4.183812e-01 3.950168e-01 3.903417e-01 3.671255e-01 3.249528e-01 2.891500e-01 2.407604e-01
<GCONST> 1.244070e+02
<TRANSP> 5
 0.000000e+00 1.000000e+00 0.000000e+00 0.000000e+00 0.000000e+00
 0.000000e+00 7.892334e-01 2.107666e-01 0.000000e+00 0.000000e+00
 0.000000e+00 0.000000e+00 8.643280e-01 1.356720e-01 0.000000e+00
 0.000000e+00 0.000000e+00 0.000000e+00 7.874118e-01 2.125882e-01
 0.000000e+00 0.000000e+00 0.000000e+00 0.000000e+00 0.000000e+00
<ENDHMM>
