~o
<STREAMINFO> 1 39
<VECSIZE> 39<NULLD><MFCC_D_A><DIAGC>
~h "j"
<BEGINHMM>
<NUMSTATES> 5
<STATE> 2
<NUMMIXES> 2
<MIXTURE> 1 4.564066e-01
<MEAN> 39
 -4.184603e-01 1.048568e+01 9.236161e+00 1.324649e+01 1.047197e+01 8.396043e-01 -2.292639e+00 -2.897451e+00 -1.554106e+00 -2.553419e+00 -2.577664e+00 7.259954e-01 -3.191145e+00 -2.143468e-01 3.258114e-01 1.285045e-01 2.220771e-01 7.962056e-02 1.274279e-01 1.532185e-01 5.272416e-02 1.635951e-01 1.557292e-01 5.681127e-02 1.338162e-01 8.820834e-02 -1.190908e-01 -2.556383e-01 9.805459e-02 -8.159294e-02 -5.525938e-02 5.273568e-02 1.204037e-01 3.462246e-02 -2.777983e-03 -4.064578e-02 -9.740002e-03 -4.013928e-02 -1.283001e-02
<VARIANCE> 39
 5.788970e+01 9.159570e+01 4.817650e+01 5.944130e+01 7.355353e+01 6.335199e+01 3.983182e+01 4.511352e+01 3.711775e+01 3.737767e+01 3.458084e+01 3.797639e+01 2.998638e+01 3.331029e-01 8.280793e-01 8.135005e-01 8.234971e-01 8.458656e-01 9.247932e-01 1.089138e+00 1.109769e+00 1.038140e+00 9.553806e-01 9.114505e-01 8.921767e-01 6.977068e-01 6.001966e-02 2.998581e-01 1.730866e-01 1.674876e-01 1.905614e-01 2.087280e-01 2.306665e-01 2.290259e-01 2.013907e-01 2.032140e-01 1.826281e-01 1.770498e-01 1.428875e-01
<GCONST> 9.735329e+01
<MIXTURE> 2 5.435934e-01
<MEAN> 39
 -4.113190e+00 5.123426e+00 1.178839e+01 8.352362e+00 1.078437e+01 1.219688e+00 -2.688938e-01 -1.948717e+00 -2.926583e+00 -3.296411e+00 -1.811208e+00 5.717767e-01 -2.648272e+00 -1.483728e-02 5.624921e-01 6.216206e-01 5.774307e-01 8.717772e-02 3.910457e-01 1.018497e-01 2.382191e-02 1.944804e-01 -7.624101e-03 -2.158353e-02 5.005861e-02 -6.333405e-02 -1.260484e-03 -1.785057e-01 -1.020105e-01 -1.608119e-02 -6.271082e-02 -1.181362e-01 1.401482e-02 -2.139438e-02 6.805092e-02 -3.737291e-02 8.987978e-03 1.001539e-02 1.576067e-03
<VARIANCE> 39
 6.664258e+01 8.652289e+01 7.783179e+01 7.287044e+01 7.725301e+01 6.592362e+01 6.002922e+01 6.044482e+01 4.617512e+01 4.615396e+01 3.415501e+01 3.517047e+01 3.139545e+01 3.201997e+00 5.560561e+00 4.657428e+00 3.791586e+00 3.242515e+00 3.535131e+00 3.819431e+00 3.142271e+00 2.787028e+00 2.793802e+00 2.090710e+00 1.986699e+00 1.615773e+00 4.556665e-01 9.247121e-01 8.707613e-01 6.688588e-01 5.711108e-01 6.056595e-01 7.182276e-01 5.886618e-01 5.175646e-01 5.262286e-01 3.940106e-01 3.744206e-01 3.104825e-01
<GCONST> 1.308343e+02
<STATE> 3
<NUMMIXES> 2
<MIXTURE> 1 4.463834e-01
<MEAN> 39
 -2.802196e+00 7.104933e+00 1.373162e+01 1.401451e+01 1.127112e+01 2.112580e+00 2.098525e+00 -2.097667e+00 -5.364463e-01 -2.802112e+00 -2.250380e+00 6.868681e-01 -3.317454e+00 -1.579435e+00 -4.433844e+00 5.866934e-01 -1.110999e+00 -9.608951e-01 1.656547e-01 1.975666e+00 7.810051e-01 9.117950e-01 -5.790622e-01 2.235774e-01 -4.307016e-01 1.289779e-01 -4.483410e-01 -1.112922e+00 2.356381e-01 -7.901967e-01 -2.023769e-01 -1.496202e-01 1.685458e-01 7.028805e-02 1.746216e-01 -1.337166e-01 1.454106e-01 -1.092044e-01 9.717087e-02
<VARIANCE> 39
 2.881939e+01 9.331504e+01 3.325458e+01 4.082828e+01 5.316939e+01 4.218467e+01 4.707813e+01 4.399721e+01 3.156998e+01 2.709443e+01 2.684418e+01 2.482537e+01 2.113704e+01 1.721567e+00 9.924033e+00 4.590406e+00 4.697981e+00 3.830044e+00 4.041562e+00 3.682950e+00 3.583977e+00 3.035642e+00 2.673974e+00 2.406824e+00 2.408242e+00 1.827311e+00 2.210158e-01 1.570787e+00 5.822051e-01 4.993905e-01 4.985496e-01 5.131528e-01 6.417612e-01 5.183064e-01 3.819923e-01 3.602575e-01 3.234106e-01 3.378548e-01 2.518093e-01
<GCONST> 1.237932e+02
<MIXTURE> 2 5.536166e-01
<MEAN> 39
 -7.000925e+00 -1.608590e+01 1.701887e+01 6.625546e+00 1.034626e-01 5.034686e+00 4.939354e+00 -2.960557e+00 5.801026e+00 -6.435451e+00 -1.990923e+00 8.934956e-01 -4.412086e+00 -1.930559e+00 -2.664315e+00 1.597530e+00 -1.397867e+00 -5.839537e-01 -5.119439e-01 1.956159e-01 -3.018176e-01 6.223501e-01 -2.633847e-01 3.795100e-01 -1.615499e-01 5.684549e-02 6.019214e-02 9.971711e-01 2.049345e-01 5.129597e-01 4.860071e-01 -2.028574e-01 -4.558516e-01 -3.155518e-01 -3.096285e-01 1.464961e-01 -7.842575e-02 -8.468184e-03 -9.685063e-02
<VARIANCE> 39
 6.203083e+01 1.043546e+02 6.104478e+01 1.006631e+02 1.897388e+02 1.116730e+02 5.573638e+01 5.994224e+01 5.448072e+01 3.045460e+01 2.910577e+01 3.306502e+01 3.570665e+01 3.371623e+00 6.906258e+00 4.265277e+00 5.374391e+00 3.965037e+00 3.378659e+00 3.090388e+00 2.329042e+00 2.453572e+00 1.995120e+00 1.799206e+00 1.700826e+00 1.641120e+00 4.048103e-01 8.287423e-01 9.524725e-01 8.114948e-01 6.381793e-01 6.020519e-01 5.497457e-01 4.956556e-01 4.966838e-01 4.398364e-01 3.616795e-01 3.751998e-01 3.173654e-01
<GCONST> 1.308883e+02
<STATE> 4
<NUMMIXES> 2
<MIXTURE> 1 5.708650e-01
<MEAN> 39
 -1.886423e+01 -1.351746e+01 2.305210e+01 3.452725e+00 1.059552e+01 -3.236607e+00 6.521265e+00 -2.242221e+00 1.264277e+00 -5.186068e+00 8.991839e-01 -2.000830e+00 -1.939786e+00 1.386345e-01 -2.180849e-01 2.877718e-01 3.808491e-01 5.402670e-01 -3.866821e-01 -6.412705e-01 -8.395635e-01 -3.999166e-01 -2.082972e-01 -2.233767e-01 -2.027518e-01 -2.910639e-01 7.942449e-01 4.068569e-01 -4.971768e-01 1.457693e-01 5.384347e-02 3.420632e-02 -3.597144e-01 -1.810302e-01 -2.524321e-01 -8.965950e-02 -2.101467e-01 1.163888e-02 -4.873412e-02
<VARIANCE> 39
 2.774298e+01 5.016672e+01 3.961423e+01 7.033456e+01 4.343295e+01 3.600594e+01 3.547278e+01 4.585656e+01 5.054306e+01 3.377013e+01 2.464611e+01 2.497370e+01 1.672293e+01 4.604707e+00 2.244317e+00 2.779856e+00 2.072013e+00 1.969001e+00 1.836809e+00 2.222365e+00 2.188138e+00 2.093169e+00 1.700091e+00 1.622931e+00 1.244314e+00 1.073896e+00 3.232981e-01 2.710088e-01 4.624111e-01 4.440306e-01 3.369645e-01 3.362142e-01 3.705706e-01 3.467821e-01 3.350863e-01 3.116872e-01 2.752732e-01 2.352050e-01 2.160217e-01
<GCONST> 1.124996e+02
<MIXTURE> 2 4.291350e-01
<MEAN> 39
 -2.517543e+00 -1.115320e+01 1.561803e+01 7.317400e+00 8.738768e+00 -3.211022e+00 -4.388498e+00 -1.060288e+01 -3.763690e+00 -9.449076e+00 -4.946024e+00 -2.136048e+00 -4.917645e+00 2.022141e+00 6.367127e-01 -1.801592e+00 -2.279150e-01 1.203970e-01 -7.671034e-01 -1.484009e+00 -5.183897e-01 -7.652137e-01 -1.834576e-01 -4.073469e-01 5.247456e-02 6.895948e-02 -2.449352e-01 -1.287286e-01 -8.188822e-02 -1.386103e-01 -1.517165e-01 -5.556304e-02 2.201776e-01 3.590186e-01 1.817790e-01 1.094886e-01 1.833366e-01 9.640066e-02 7.697473e-02
<VARIANCE> 39
 6.550959e+01 6.311877e+01 6.225283e+01 6.450381e+01 1.529298e+02 9.297714e+01 6.143501e+01 4.972195e+01 5.975901e+01 3.734590e+01 3.670551e+01 3.831852e+01 3.845241e+01 2.340445e+00 1.580205e+00 2.491076e+00 1.926455e+00 2.013981e+00 3.008487e+00 3.350155e+00 3.118422e+00 2.229335e+00 2.102005e+00 1.833071e+00 1.516149e+00 1.257214e+00 2.196334e-01 1.937469e-01 3.777323e-01 2.169534e-01 2.617931e-01 3.234683e-01 3.913266e-01 3.642753e-01 2.923400e-01 2.975461e-01 2.683094e-01 2.291861e-01 1.886929e-01
<GCONST> 1.173437e+02
<TRANSP> 5
 0.000000e+00 1.000000e+00 0.000000e+00 0.000000e+00 0.000000e+00
 0.000000e+00 8.787516e-01 1.212484e-01 0.000000e+00 0.000000e+00
 0.000000e+00 0.000000e+00 7.939557e-01 2.060442e-01 0.000000e+00
 0.000000e+00 0.000000e+00 0.000000e+00 8.811548e-01 1.188452e-01
 0.000000e+00 0.000000e+00 0.000000e+00 0.000000e+00 0.000000e+00
<ENDHMM>
