~o
<STREAMINFO> 1 39
<VECSIZE> 39<NULLD><MFCC_D_A><DIAGC>
~h "k"
<BEGINHMM>
<NUMSTATES> 5
<STATE> 2
<NUMMIXES> 2
<MIXTURE> 1 5.002400e-01
<MEAN> 39
 -7.185643e+00 4.212087e+00 1.688741e+00 7.050224e+00 1.521740e+00 3.813459e-01 -2.105769e+00 -2.989918e+00 6.142828e-01 -8.962756e-01 -3.091985e+00 2.001407e+00 -1.423227e+00 -4.663129e-01 1.248475e-01 8.711235e-03 -2.827662e-02 5.939964e-02 1.514872e-01 2.073478e-01 1.208369e-01 1.420217e-01 1.941264e-01 9.792834e-02 1.045011e-01 1.142452e-01 2.703672e-02 -1.108588e-01 3.565156e-02 -4.719832e-02 1.908822e-02 2.216610e-02 4.594331e-02 1.475134e-02 -3.722448e-02 -3.837851e-02 9.802479e-03 -1.584620e-02 -2.421274e-02
<VARIANCE> 39
 7.035793e+01 7.467641e+01 3.172314e+01 5.070725e+01 8.153415e+01 6.215533e+01 7.110867e+01 6.676360e+01 4.288082e+01 3.882593e+01 3.600618e+01 2.918139e+01 3.111050e+01 2.353623e-01 4.467797e-01 5.528942e-01 7.114847e-01 8.856871e-01 1.050033e+00 1.115796e+00 1.186848e+00 1.239007e+00 1.166905e+00 1.122202e+00 1.043055e+00 9.093699e-01 3.524082e-02 1.107658e-01 1.094431e-01 1.451678e-01 1.787766e-01 2.119151e-01 2.288320e-01 2.358832e-01 2.483323e-01 2.388012e-01 2.256396e-01 2.129469e-01 1.854367e-01
<GCONST> 9.646333e+01
<MIXTURE> 2 4.997600e-01
<MEAN> 39
 -6.915811e+00 3.766492e+00 4.848591e+00 5.187113e+00 6.188573e+00 -1.019850e+00 -2.035225e+00 -2.315052e+00 -2.342973e+00 -3.349213e+00 -3.263028e+00 9.098006e-03 -3.262728e+00 -6.179152e-01 2.018703e-01 -1.588172e-01 8.901662e-02 -2.084724e-01 2.926093e-01 2.792832e-01 -4.802495e-03 1.885200e-01 2.227636e-01 6.686003e-02 1.678820e-01 1.125150e-01 4.290724e-02 -3.189341e-01 -1.053664e-01 -2.052373e-01 1.029127e-02 -1.155311e-01 1.067952e-01 1.088668e-02 5.838188e-03 -4.582931e-02 6.500636e-02 1.680182e-02 3.217270e-03
<VARIANCE> 39
 6.723648e+01 8.294749e+01 5.444168e+01 8.217015e+01 1.078737e+02 8.633398e+01 7.976022e+01 6.586179e+01 5.474031e+01 4.805312e+01 4.686866e+01 4.082132e+01 3.646839e+01 1.174129e+00 3.077779e+00 2.290634e+00 2.452923e+00 2.601551e+00 2.937319e+00 3.014880e+00 2.570882e+00 2.493549e+00 2.265830e+00 2.025220e+00 1.871910e+00 1.532084e+00 2.150572e-01 7.998480e-01 4.737280e-01 5.907141e-01 5.522664e-01 6.129089e-01 6.606328e-01 5.342069e-01 5.082600e-01 4.691150e-01 4.331345e-01 3.937116e-01 3.247729e-01
<GCONST> 1.265408e+02
<STATE> 3
<NUMMIXES> 2
<MIXTURE> 1 5.216520e-01
<MEAN> 39
 -1.088077e+01 2.431737e+00 3.274323e+00 5.340802e+00 4.757581e+00 1.370234e+00 7.027253e-01 -1.333029e+00 9.249526e-02 -1.260133e+00 -2.222856e+00 1.353854e+00 -1.956483e+00 2.488454e-01 -2.927109e+00 -1.162191e+00 -2.129623e+00 -4.885266e-01 -5.631008e-01 1.134791e+00 7.475679e-02 -1.581818e-01 -4.691155e-01 6.547967e-01 1.088248e-01 2.495774e-02 4.176371e-01 -7.308348e-01 -2.640948e-01 -6.964107e-01 -2.888174e-01 -2.862416e-01 4.734559e-02 -1.435823e-01 -1.540437e-01 -2.863954e-01 1.153287e-01 -5.625241e-02 3.635384e-03
<VARIANCE> 39
 6.574434e+01 8.836153e+01 4.102817e+01 5.864828e+01 9.698235e+01 6.377774e+01 6.822589e+01 6.445494e+01 4.547740e+01 4.119499e+01 3.579347e+01 3.074532e+01 2.794177e+01 3.053746e+00 9.620547e+00 3.934648e+00 6.785777e+00 6.721255e+00 7.242983e+00 6.116163e+00 4.697892e+00 4.221706e+00 3.793179e+00 3.458130e+00 2.966329e+00 2.740479e+00 3.178106e-01 1.221801e+00 5.044302e-01 7.297148e-01 8.038040e-01 7.891629e-01 7.206185e-01 6.261955e-01 5.912336e-01 5.262173e-01 4.704002e-01 4.107518e-01 3.804822e-01
<GCONST> 1.361619e+02
<MIXTURE> 2 4.783480e-01
<MEAN> 39
 -1.120514e+01 -8.293888e+00 -2.860684e+00 -9.977836e+00 4.398987e+00 -5.828731e+00 6.510791e+00 -1.022656e+00 -3.470965e+00 -4.358890e+00 2.116776e+00 2.936188e-01 -1.267234e-01 4.274802e-01 -8.507349e-01 2.770413e-01 -1.688524e+00 -2.927897e-01 -1.157773e+00 4.788430e-01 -3.030035e-01 -3.554148e-01 -4.963266e-01 3.846539e-01 -8.708547e-02 3.508434e-01 -2.559587e-02 1.084953e+00 8.179034e-01 1.072545e+00 1.974713e-01 2.801492e-01 -4.049561e-01 -2.020183e-02 9.983771e-02 1.247394e-01 -3.613505e-01 -1.624771e-02 -1.407657e-01
<VARIANCE> 39
 1.941691e+01 6.142903e+01 3.933713e+01 6.272342e+01 8.932484e+01 8.167891e+01 5.717144e+01 6.571222e+01 4.537747e+01 3.869074e+01 3.535961e+01 3.239716e+01 2.547820e+01 1.563076e+00 7.374655e+00 4.139544e+00 6.783439e+00 3.424982e+00 4.213185e+00 3.605686e+00 3.007227e+00 2.998173e+00 2.791123e+00 2.743025e+00 2.135362e+00 1.901172e+00 3.275011e-01 9.870391e-01 4.787367e-01 6.954131e-01 7.956851e-01 8.869233e-01 7.965859e-01 6.781400e-01 6.355721e-01 5.977129e-01 5.309411e-01 4.800543e-01 4.304694e-01
<GCONST> 1.304466e+02
<STATE> 4
<NUMMIXES> 2
<MIXTURE> 1 6.967565e-01
<MEAN> 39
 -7.560680e+00 -2.413586e+00 5.676976e+00 -3.502564e+00 6.313784e+00 -7.787736e+00 1.438141e+00 -1.186093e+00 -3.423846e+00 -5.357658e+00 -1.870680e+00 -5.816127e-01 -1.738149e+00 1.230663e+00 4.235499e-01 8.703289e-01 8.563050e-01 6.196537e-01 -3.196666e-01 -1.207511e+00 -3.101277e-01 -1.228456e-01 -2.577810e-01 -6.848726e-01 -3.321398e-01 -4.192361e-01 1.430721e-01 -9.788816e-02 -2.643285e-01 -2.002604e-02 -4.831047e-03 -5.287053e-02 -1.769345e-01 2.088989e-02 1.852933e-02 -3.698753e-02 -4.849770e-03 1.920418e-02 -4.011800e-02
<VARIANCE> 39
 5.064927e+01 6.878652e+01 6.272489e+01 9.909424e+01 9.672013e+01 7.265344e+01 7.674260e+01 7.015882e+01 5.197359e+01 4.181636e+01 4.689086e+01 4.083247e+01 3.171138e+01 2.534042e+00 2.725636e+00 3.743269e+00 4.499544e+00 3.282757e+00 4.430438e+00 4.434917e+00 3.181838e+00 2.803427e+00 2.700963e+00 2.578763e+00 2.188006e+00 1.964416e+00 4.072510e-01 4.663232e-01 5.147245e-01 7.391247e-01 5.369934e-01 7.013035e-01 7.727538e-01 5.149927e-01 4.425451e-01 4.417298e-01 4.274036e-01 3.552224e-01 3.210541e-01
<GCONST> 1.300462e+02
<MIXTURE> 2 3.032435e-01
<MEAN> 39
 8.819875e+00 -1.863439e+01 3.627479e+00 5.772200e+00 -1.763582e+01 1.117883e+01 -2.399723e+00 -1.116201e+01 3.306486e+00 -9.569424e+00 -4.376059e+00 3.609306e+00 -7.478975e+00 9.891362e-01 -4.860803e-01 3.766232e-01 9.867349e-02 -5.963651e-01 -2.992708e-01 -5.816852e-01 -3.626845e-01 -1.777243e-01 -7.693439e-01 -1.777230e-01 -1.391960e-01 -5.268671e-01 -1.497063e-01 5.005146e-01 1.203460e-01 1.542922e-01 3.331653e-01 -3.046421e-01 -1.339210e-01 1.333667e-01 -5.099887e-02 1.151032e-01 -1.888544e-03 -9.236842e-02 8.152227e-02
<VARIANCE> 39
 2.866458e+01 8.165466e+01 5.811889e+01 8.855619e+01 7.508652e+01 7.001034e+01 6.810725e+01 5.883689e+01 4.501652e+01 4.587267e+01 3.930507e+01 3.327458e+01 2.858068e+01 2.455500e+00 9.296863e+00 2.866997e+00 3.010653e+00 6.328753e+00 5.114278e+00 3.158347e+00 2.759542e+00 2.536894e+00 2.676709e+00 2.107761e+00 2.372631e+00 1.757947e+00 4.054482e-01 1.414917e+00 5.734314e-01 5.041088e-01 9.241846e-01 7.327876e-01 5.691679e-01 4.396394e-01 4.564790e-01 4.575621e-01 3.847573e-01 4.120570e-01 3.135560e-01
<GCONST> 1.298819e+02
<TRANSP> 5
 0.000000e+00 1.000000e+00 0.000000e+00 0.000000e+00 0.000000e+00
 0.000000e+00 8.300254e-01 1.699746e-01 0.000000e+00 0.000000e+00
 0.000000e+00 0.000000e+00 7.548015e-01 2.451985e-01 0.000000e+00
 0.000000e+00 0.000000e+00 0.000000e+00 7.535017e-01 2.464984e-01
 0.000000e+00 0.000000e+00 0.000000e+00 0.000000e+00 0.000000e+00
<ENDHMM>
