~o
<STREAMINFO> 1 39
<VECSIZE> 39<NULLD><MFCC_D_A><DIAGC>
~h "nn"
<BEGINHMM>
<NUMSTATES> 5
<STATE> 2
<NUMMIXES> 2
<MIXTURE> 1 3.859201e-01
<MEAN> 39
 3.524039e+00 3.100636e+00 4.323327e+00 -4.985421e-01 8.810816e+00 -1.415384e+01 -7.466811e+00 -6.267910e+00 -1.229063e+01 -1.029268e+01 -1.659715e+00 -9.431126e+00 -1.546383e+01 1.417474e-01 9.184103e-01 8.810079e-01 7.141468e-01 -2.561015e-01 1.433901e+00 -7.926145e-01 -1.721832e-01 4.155257e-01 -6.150209e-01 -5.770217e-01 -6.250373e-01 -3.018260e-01 -6.361187e-02 -9.414747e-02 -1.350430e-01 -1.495042e-01 -3.725661e-05 -2.802530e-01 4.259975e-02 6.698158e-02 7.550152e-02 6.270553e-02 3.313318e-02 4.510682e-02 4.579007e-02
<VARIANCE> 39
 9.506145e+00 2.634138e+01 3.700093e+01 3.320179e+01 3.761122e+01 6.089161e+01 4.321849e+01 3.184467e+01 3.397346e+01 4.446278e+01 4.943235e+01 3.585785e+01 2.680098e+01 3.013564e-01 8.284324e-01 1.439450e+00 1.845240e+00 1.397108e+00 3.755513e+00 1.878538e+00 2.183871e+00 2.165943e+00 2.211343e+00 2.102611e+00 1.477459e+00 1.613610e+00 4.171186e-02 1.383322e-01 2.404739e-01 2.605688e-01 2.334904e-01 7.688385e-01 3.490292e-01 3.111786e-01 3.541326e-01 4.068444e-01 3.905619e-01 2.431335e-01 2.374249e-01
<GCONST> 1.056109e+02
<MIXTURE> 2 6.140799e-01
<MEAN> 39
 1.300115e+01 -4.139672e+00 1.117140e+01 8.048100e+00 -3.516593e+00 4.628881e+00 -1.583367e+01 -1.403003e+01 -7.288124e+00 -1.880273e+01 -7.979257e+00 -1.175516e+01 -1.637331e+01 -1.192440e-01 2.955223e-01 1.924498e-01 3.749755e-02 9.666725e-02 1.597704e-01 6.839708e-02 -1.076033e-02 1.296423e-01 2.977289e-02 -2.607860e-01 -2.149716e-02 2.356785e-01 1.444580e-02 -7.658475e-02 -4.414127e-02 1.064108e-04 -8.688719e-02 -1.390082e-02 8.635740e-02 7.318869e-02 5.744033e-02 4.518908e-02 5.772956e-02 1.012984e-01 -2.134246e-03
<VARIANCE> 39
 5.471550e+00 1.777094e+01 1.600757e+01 1.868550e+01 2.271557e+01 2.438686e+01 1.972631e+01 2.767576e+01 2.402734e+01 3.762856e+01 5.341513e+01 2.652902e+01 3.209138e+01 2.064777e-01 7.360677e-01 4.953611e-01 5.764106e-01 7.005759e-01 8.166954e-01 8.463126e-01 7.702810e-01 8.674891e-01 8.579709e-01 9.022275e-01 7.672612e-01 6.798790e-01 3.913990e-02 1.262750e-01 9.396535e-02 1.069673e-01 1.248845e-01 1.706398e-01 1.456934e-01 1.381420e-01 1.578870e-01 1.595020e-01 1.628894e-01 1.208848e-01 1.249337e-01
<GCONST> 7.958062e+01
<STATE> 3
<NUMMIXES> 2
<MIXTURE> 1 3.197175e-01
<MEAN> 39
 8.188145e+00 -4.519889e+00 1.104029e+01 9.560026e+00 -5.706509e+00 7.852547e+00 -9.629367e+00 -9.428041e+00 -1.657232e+00 -1.472132e+01 -5.506715e+00 -3.899621e+00 -1.211730e+01 -7.056908e-01 3.959442e-02 4.146717e-02 -3.695648e-03 -1.787015e-01 3.818106e-01 5.548545e-01 3.735721e-01 5.774906e-01 3.633190e-01 -3.854226e-02 4.978860e-01 3.764507e-01 -3.614801e-02 -3.593997e-02 -4.175580e-02 -2.559290e-02 2.504541e-02 -2.972114e-02 1.900608e-03 3.426846e-02 1.765755e-03 3.681689e-02 3.964728e-02 -2.358967e-02 -5.230928e-03
<VARIANCE> 39
 5.105301e+01 5.424925e+01 3.908172e+01 3.150457e+01 3.744322e+01 4.831050e+01 3.888661e+01 4.235928e+01 4.325933e+01 4.503807e+01 4.457774e+01 4.015202e+01 3.051811e+01 9.450600e-01 2.921469e+00 1.878160e+00 1.693612e+00 2.146224e+00 2.301470e+00 1.829934e+00 2.112212e+00 2.395206e+00 2.167201e+00 2.010663e+00 1.897293e+00 1.548224e+00 1.239172e-01 5.174575e-01 3.134603e-01 2.933185e-01 3.827520e-01 4.214220e-01 3.299582e-01 3.661341e-01 4.353584e-01 3.911727e-01 3.445163e-01 3.305307e-01 2.785311e-01
<GCONST> 1.143620e+02
<MIXTURE> 2 6.802825e-01
<MEAN> 39
 3.355795e+00 7.020914e+00 8.180537e+00 2.208830e-01 6.752944e+00 -1.095199e+01 -1.151536e+01 -5.538321e+00 -9.791272e+00 -1.375282e+01 -6.129683e+00 -1.385046e+01 -1.705230e+01 -6.780227e-02 1.912061e-01 7.440162e-02 4.457703e-02 -2.876140e-02 2.126041e-02 -6.661040e-02 1.406636e-02 1.632128e-01 -6.332763e-02 -1.317123e-01 -4.199879e-04 -4.888177e-03 -2.249303e-02 -6.310330e-03 -3.535228e-02 -1.510567e-02 1.402002e-02 -2.134377e-04 1.067679e-01 -3.750709e-02 -2.981440e-02 2.615234e-02 -1.271998e-03 9.742454e-02 5.546697e-02
<VARIANCE> 39
 2.732275e+00 1.591972e+01 1.707898e+01 2.231132e+01 3.050961e+01 2.358216e+01 3.476970e+01 3.325337e+01 3.442130e+01 3.307710e+01 4.643392e+01 3.333944e+01 2.883452e+01 4.677206e-02 2.564516e-01 2.678527e-01 3.542191e-01 4.295320e-01 4.333903e-01 6.139780e-01 5.836356e-01 6.396737e-01 6.389581e-01 6.251414e-01 6.538489e-01 4.537979e-01 1.000000e-02 4.310455e-02 5.371276e-02 7.430010e-02 8.262456e-02 9.669419e-02 1.244613e-01 1.110256e-01 1.211090e-01 1.242075e-01 1.196503e-01 1.078781e-01 9.015340e-02
<GCONST> 6.736529e+01
<STATE> 4
<NUMMIXES> 2
<MIXTURE> 1 5.109453e-01
<MEAN> 39
 -7.101530e+00 6.485482e+00 6.522872e+00 2.639173e+00 6.001436e+00 -5.873642e+00 -1.283160e+00 -7.554782e+00 -3.741636e+00 -6.684460e+00 -5.681345e+00 -2.667941e+00 -9.554226e+00 -9.059985e-01 -3.423339e-01 -1.736530e-01 -1.657114e-01 -9.030282e-02 3.157409e-01 7.616758e-01 2.215666e-01 5.471488e-01 6.515232e-01 5.045466e-02 5.329198e-01 5.561777e-01 8.595202e-02 -8.803857e-02 -1.205838e-02 -2.894589e-02 -3.780141e-03 -1.610306e-02 -1.056767e-01 5.007088e-02 -3.232557e-02 -7.082324e-02 2.946876e-02 -9.977598e-02 -9.164463e-02
<VARIANCE> 39
 7.175716e+01 7.099385e+01 5.304766e+01 4.115556e+01 3.981104e+01 6.009254e+01 4.102175e+01 3.614030e+01 3.835025e+01 4.055922e+01 4.071371e+01 3.092617e+01 3.206246e+01 1.974585e+00 3.324684e+00 2.558043e+00 2.096420e+00 2.104840e+00 2.410708e+00 2.535842e+00 2.614263e+00 2.344263e+00 2.182817e+00 2.577868e+00 1.998330e+00 1.923396e+00 2.635895e-01 5.758657e-01 4.579694e-01 3.755214e-01 3.644601e-01 4.322914e-01 4.477315e-01 4.671944e-01 4.582511e-01 3.911332e-01 4.725648e-01 3.647791e-01 3.256567e-01
<GCONST> 1.202842e+02
<MIXTURE> 2 4.890547e-01
<MEAN> 39
 1.662148e+00 9.265420e+00 7.327198e+00 2.679659e-01 6.051189e+00 -9.436363e+00 -8.658432e+00 -6.481954e+00 -8.921339e+00 -1.524857e+01 -8.945313e+00 -1.142513e+01 -1.557169e+01 -5.520045e-01 4.762974e-01 -2.435774e-03 1.562107e-01 -4.433814e-02 3.190437e-01 8.900007e-01 -7.567332e-02 4.593011e-01 2.775474e-01 -3.189631e-01 6.929300e-01 4.903034e-01 -1.636390e-01 -1.413844e-01 -1.820200e-02 6.204982e-02 1.617672e-02 8.515322e-03 1.889770e-01 -4.624142e-02 4.939827e-02 1.985341e-01 8.674949e-02 1.421261e-01 1.396488e-01
<VARIANCE> 39
 1.020797e+01 2.083534e+01 1.985753e+01 2.606276e+01 3.284306e+01 2.681016e+01 4.367983e+01 4.149218e+01 3.191220e+01 3.682519e+01 5.538513e+01 3.053796e+01 3.447813e+01 4.419063e-01 9.719449e-01 8.686765e-01 1.054668e+00 1.166408e+00 1.176711e+00 1.791267e+00 1.771175e+00 1.580142e+00 2.121058e+00 1.892661e+00 1.576430e+00 1.273859e+00 5.584081e-02 2.237132e-01 1.562521e-01 1.918504e-01 2.470089e-01 2.452168e-01 3.465292e-01 3.229876e-01 2.644486e-01 3.176103e-01 3.449652e-01 2.570735e-01 2.335450e-01
<GCONST> 9.945701e+01
<TRANSP> 5
 0.000000e+00 1.000000e+00 0.000000e+00 0.000000e+00 0.000000e+00
 0.000000e+00 8.415809e-01 1.584191e-01 0.000000e+00 0.000000e+00
 0.000000e+00 0.000000e+00 8.828757e-01 1.171242e-01 0.000000e+00
 0.000000e+00 0.000000e+00 0.000000e+00 8.632551e-01 1.367448e-01
 0.000000e+00 0.000000e+00 0.000000e+00 0.000000e+00 0.000000e+00
<ENDHMM>
