~o
<STREAMINFO> 1 39
<VECSIZE> 39<NULLD><MFCC_D_A><DIAGC>
~h "p"
<BEGINHMM>
<NUMSTATES> 5
<STATE> 2
<NUMMIXES> 2
<MIXTURE> 1 6.576546e-01
<MEAN> 39
 -9.587564e+00 8.055759e+00 6.755203e-01 7.662443e+00 -4.719096e-01 3.496244e+00 -1.724700e+00 4.929610e-01 1.945765e+00 8.732907e-01 -2.733980e+00 1.717043e+00 3.148579e-01 -4.172703e-01 2.250556e-02 1.016136e-01 -1.258002e-02 -4.222250e-03 1.045486e-01 1.580065e-01 5.623157e-02 6.161267e-02 1.697170e-01 1.333804e-01 6.405296e-02 6.157500e-02 3.580497e-02 -4.622820e-02 1.283979e-02 6.935988e-04 1.606794e-02 1.818417e-03 1.629542e-02 3.337197e-03 -1.331350e-02 -3.758222e-02 -2.474610e-02 -1.311659e-02 -3.224437e-02
<VARIANCE> 39
 7.420129e+01 7.323853e+01 2.736687e+01 4.010265e+01 5.013379e+01 4.259061e+01 6.033875e+01 6.392406e+01 3.240951e+01 2.107835e+01 2.261665e+01 2.352459e+01 2.105360e+01 2.252551e-01 2.699228e-01 3.876849e-01 5.177305e-01 6.909237e-01 7.740530e-01 8.869799e-01 1.003508e+00 1.034978e+00 9.720911e-01 9.385939e-01 8.817985e-01 7.672793e-01 2.369644e-02 5.618127e-02 7.154648e-02 9.980308e-02 1.282032e-01 1.551543e-01 1.822815e-01 1.987259e-01 2.047569e-01 2.004425e-01 1.909929e-01 1.814725e-01 1.607098e-01
<GCONST> 8.627415e+01
<MIXTURE> 2 3.423454e-01
<MEAN> 39
 -3.949471e+00 6.334026e+00 1.518873e+00 5.082356e+00 7.622502e-01 -7.670988e-01 -1.297080e+00 -3.802006e-01 5.067400e-01 -3.934321e+00 -5.444072e+00 3.751925e-01 -3.178456e+00 -6.075919e-01 2.456594e-01 -8.157307e-03 1.403339e-01 -4.777398e-02 2.876094e-01 1.755624e-01 7.200080e-04 2.022073e-01 3.369232e-01 9.444430e-02 1.156044e-01 1.613728e-01 1.503537e-02 -1.651095e-01 1.722405e-02 -7.513361e-02 4.391453e-02 -4.883070e-02 1.896941e-02 -1.397018e-02 3.058951e-03 2.840084e-02 8.707182e-02 4.547942e-02 3.730023e-02
<VARIANCE> 39
 9.177717e+01 9.267473e+01 4.578624e+01 6.726456e+01 8.768471e+01 8.296314e+01 6.966551e+01 8.085828e+01 4.988422e+01 4.208760e+01 3.765240e+01 3.587104e+01 3.598966e+01 1.501313e+00 1.950902e+00 1.321829e+00 1.756284e+00 1.807812e+00 2.241808e+00 1.975324e+00 1.968125e+00 1.924534e+00 1.841854e+00 1.654113e+00 1.526603e+00 1.296473e+00 1.902604e-01 4.102516e-01 2.455012e-01 3.246157e-01 3.434370e-01 4.292705e-01 4.079853e-01 3.788808e-01 3.769884e-01 3.535559e-01 3.339012e-01 3.110819e-01 2.642039e-01
<GCONST> 1.173810e+02
<STATE> 3
<NUMMIXES> 2
<MIXTURE> 1 5.665093e-01
<MEAN> 39
 -7.715355e+00 6.733094e+00 1.622738e+00 7.307415e+00 -1.200284e+00 3.082707e+00 -2.909483e+00 2.593250e-01 7.205508e-01 -4.908870e-01 -3.455417e+00 8.212923e-01 -5.865366e-01 1.781149e-01 -2.138623e+00 3.723368e-01 -4.095924e-01 3.663376e-01 6.124152e-02 8.763801e-01 -4.217256e-01 4.041713e-02 -4.330882e-01 8.467998e-02 3.674624e-01 -3.646065e-01 3.547729e-01 -5.923147e-01 1.817916e-02 -2.094140e-01 9.190588e-02 -3.205768e-02 1.375014e-01 -1.018319e-01 9.853921e-02 -2.888340e-01 -5.992967e-02 5.378336e-02 -8.718821e-02
<VARIANCE> 39
 6.606731e+01 9.456351e+01 3.561704e+01 4.609861e+01 5.463021e+01 4.917113e+01 4.751574e+01 6.200677e+01 4.258812e+01 3.184153e+01 2.545216e+01 2.471088e+01 2.473997e+01 3.856404e+00 6.695336e+00 2.406611e+00 3.410997e+00 4.817343e+00 4.120172e+00 3.941586e+00 3.219664e+00 2.898681e+00 2.938366e+00 2.297101e+00 2.081034e+00 1.927836e+00 4.595305e-01 1.004047e+00 3.600300e-01 4.856825e-01 6.940156e-01 6.117622e-01 6.209130e-01 4.807354e-01 4.512959e-01 4.759752e-01 3.716222e-01 3.308620e-01 3.178219e-01
<GCONST> 1.264550e+02
<MIXTURE> 2 4.334907e-01
<MEAN> 39
 -1.618187e+01 6.789573e+00 3.111343e+00 6.941955e+00 4.985914e+00 3.621865e+00 4.395506e+00 2.843823e+00 3.659121e+00 2.704173e+00 -4.402296e-01 2.725597e+00 -4.633601e-01 2.769496e-01 -1.212982e+00 -9.943102e-02 -6.420507e-01 2.608659e-01 -3.725896e-01 1.359024e-01 -2.137498e-01 -2.746701e-01 -3.227365e-01 1.012004e-01 1.843814e-02 1.981395e-01 5.121390e-01 -4.387363e-01 -1.544374e-02 -3.434309e-01 -2.671272e-02 -2.851500e-01 -1.624727e-01 -3.057620e-01 -3.380498e-01 -3.986648e-01 -1.390250e-01 -1.653876e-01 3.536179e-02
<VARIANCE> 39
 1.619316e+01 2.827870e+01 1.113213e+01 2.357274e+01 2.367087e+01 3.288714e+01 2.260678e+01 2.877962e+01 1.941996e+01 1.417054e+01 2.101212e+01 1.794266e+01 1.802324e+01 1.584812e+00 3.168806e+00 1.137828e+00 2.136955e+00 1.634454e+00 2.239345e+00 1.884462e+00 2.171541e+00 2.239877e+00 2.085780e+00 1.864672e+00 1.677527e+00 1.448499e+00 1.919764e-01 4.067576e-01 1.866703e-01 2.876760e-01 2.857192e-01 3.564937e-01 3.162357e-01 3.523180e-01 3.481301e-01 3.413627e-01 3.288677e-01 2.887257e-01 2.653944e-01
<GCONST> 1.034481e+02
<STATE> 4
<NUMMIXES> 2
<MIXTURE> 1 4.793389e-01
<MEAN> 39
 -9.440863e+00 -1.349033e+00 3.137470e+00 -2.651199e-01 8.062931e+00 -1.457873e+00 4.797106e+00 -5.807626e-01 -7.195619e-01 -2.664768e+00 -1.674797e+00 7.086594e-01 -8.616440e-02 1.882684e+00 -5.406797e-01 2.535639e-01 -9.821725e-01 3.265603e-01 -9.778027e-01 -1.273214e-01 -2.074470e-01 -1.295646e-01 -7.588082e-01 -2.779086e-01 -2.984670e-01 -6.071235e-02 4.579002e-01 7.693002e-01 -1.115912e-01 1.789885e-01 -4.381157e-01 -3.323465e-01 -6.241937e-01 1.582895e-01 1.547609e-01 -3.749114e-02 -2.542024e-01 -7.197360e-02 -2.021693e-01
<VARIANCE> 39
 2.162383e+01 3.299625e+01 2.440484e+01 3.562911e+01 3.224745e+01 3.055540e+01 2.787637e+01 3.463905e+01 2.776794e+01 2.454477e+01 1.946815e+01 1.812688e+01 1.774017e+01 2.757861e+00 7.752425e+00 2.619843e+00 4.122505e+00 4.453862e+00 4.919895e+00 5.374348e+00 3.878242e+00 4.222266e+00 3.005276e+00 2.830625e+00 2.189207e+00 2.505040e+00 3.379696e-01 9.576219e-01 5.865867e-01 6.995818e-01 6.802440e-01 9.121776e-01 9.562628e-01 7.384613e-01 7.454287e-01 6.184602e-01 4.957185e-01 4.343531e-01 4.734289e-01
<GCONST> 1.249950e+02
<MIXTURE> 2 5.206611e-01
<MEAN> 39
 5.864018e+00 -2.925695e+00 2.737648e+00 1.979580e+00 -3.869904e+00 -2.185023e+00 -4.015823e+00 -2.635515e+00 2.482652e+00 -8.124246e+00 -7.018516e+00 6.823974e-01 -4.460386e+00 1.574341e+00 -3.204462e-01 -5.225836e-01 -7.053238e-01 -7.127837e-01 -1.454393e+00 -1.159575e+00 3.104038e-02 -9.441429e-02 -9.930090e-01 -4.597793e-01 -1.819982e-01 -3.859352e-01 -4.175377e-01 -1.618539e-02 -5.236486e-02 1.353214e-02 2.221335e-01 5.472442e-02 1.928682e-01 8.240683e-02 -1.692821e-01 1.212343e-01 2.011004e-01 1.444514e-02 1.289847e-01
<VARIANCE> 39
 4.822676e+01 1.239318e+02 4.419062e+01 8.239608e+01 1.648729e+02 1.670647e+02 6.549971e+01 7.750651e+01 8.695718e+01 5.664145e+01 3.566703e+01 3.785903e+01 3.457492e+01 2.976728e+00 5.662861e+00 2.746006e+00 3.224210e+00 4.945322e+00 7.854679e+00 5.054075e+00 3.941393e+00 5.099756e+00 3.619284e+00 2.916496e+00 2.781708e+00 2.197395e+00 2.896330e-01 1.169980e+00 4.031270e-01 4.662838e-01 5.954167e-01 1.296172e+00 6.583435e-01 5.908997e-01 6.765390e-01 5.258235e-01 4.018305e-01 4.787471e-01 3.036284e-01
<GCONST> 1.362047e+02
<TRANSP> 5
 0.000000e+00 1.000000e+00 0.000000e+00 0.000000e+00 0.000000e+00
 0.000000e+00 8.912703e-01 1.087297e-01 0.000000e+00 0.000000e+00
 0.000000e+00 0.000000e+00 6.560231e-01 3.439769e-01 0.000000e+00
 0.000000e+00 0.000000e+00 0.000000e+00 7.791064e-01 2.208936e-01
 0.000000e+00 0.000000e+00 0.000000e+00 0.000000e+00 0.000000e+00
<ENDHMM>
