~o
<STREAMINFO> 1 39
<VECSIZE> 39<NULLD><MFCC_D_A><DIAGC>
~h "r"
<BEGINHMM>
<NUMSTATES> 5
<STATE> 2
<NUMMIXES> 2
<MIXTURE> 1 8.192403e-01
<MEAN> 39
 4.318128e+00 -2.954444e+00 5.230745e-01 -3.935079e+00 1.301705e+01 -9.100092e+00 -4.027677e+00 -3.869614e+00 -4.720434e+00 -7.240967e+00 -3.366110e+00 2.501285e+00 -8.898013e-01 -1.457301e-01 4.266904e-01 1.660163e-01 3.250906e-01 3.274138e-01 8.128528e-01 1.813869e-01 -9.556761e-02 3.169900e-03 -1.138622e-02 -2.492270e-01 -3.163008e-02 1.473224e-02 -7.656747e-02 1.692992e-03 7.105789e-02 6.838125e-02 -1.033542e-01 2.166130e-02 9.786122e-02 5.126813e-02 4.096274e-02 5.406658e-02 1.659868e-02 -6.289691e-02 -3.440365e-02
<VARIANCE> 39
 2.501501e+01 3.315541e+01 5.002277e+01 6.469321e+01 8.226129e+01 1.029715e+02 6.932041e+01 7.506680e+01 8.027362e+01 6.527300e+01 5.463442e+01 4.151453e+01 3.681391e+01 8.704439e-01 1.403982e+00 1.878427e+00 1.994989e+00 2.280431e+00 3.991385e+00 3.628674e+00 2.612929e+00 2.577672e+00 2.518536e+00 2.035027e+00 1.936392e+00 1.385965e+00 1.293652e-01 2.320360e-01 3.001532e-01 3.098913e-01 3.507426e-01 6.738132e-01 5.654183e-01 4.062760e-01 4.294565e-01 4.215946e-01 3.398137e-01 3.252499e-01 2.426665e-01
<GCONST> 1.194039e+02
<MIXTURE> 2 1.807597e-01
<MEAN> 39
 1.565245e+01 -1.780344e+01 9.633139e-01 1.015592e+01 -1.059253e+01 5.677742e+00 -1.133254e+01 -1.713236e+01 -1.784105e-01 -9.446609e+00 -4.785358e+00 2.151298e+00 -8.018406e+00 2.495850e-02 8.246725e-02 -2.923856e-02 -3.012660e-02 1.155314e-01 -8.983670e-02 -3.165561e-01 -6.109666e-02 4.688398e-02 -2.080839e-02 9.424616e-02 -4.340053e-02 -1.529883e-01 -5.198877e-02 7.461276e-02 4.278959e-02 2.365190e-02 1.413053e-02 5.586913e-02 1.321417e-01 6.296284e-02 2.751308e-02 4.310133e-02 -3.739937e-02 1.473713e-02 4.843087e-02
<VARIANCE> 39
 6.220006e+00 3.299926e+01 2.865269e+01 5.667357e+01 5.785051e+01 5.464025e+01 6.500922e+01 4.318676e+01 3.689334e+01 4.074302e+01 3.342048e+01 3.299652e+01 3.061191e+01 3.151601e-01 7.425597e-01 4.949639e-01 6.493429e-01 1.189191e+00 1.143529e+00 1.304522e+00 9.202858e-01 9.323695e-01 9.384614e-01 7.795931e-01 7.428310e-01 8.102587e-01 5.150917e-02 8.958709e-02 6.310311e-02 8.039481e-02 1.523494e-01 1.447609e-01 1.765421e-01 1.286658e-01 1.454753e-01 1.491565e-01 1.087276e-01 1.033147e-01 1.248883e-01
<GCONST> 8.648650e+01
<STATE> 3
<NUMMIXES> 2
<MIXTURE> 1 7.505749e-01
<MEAN> 39
 -1.442131e+00 -6.760712e-01 4.100974e+00 -3.835037e-01 1.158871e+01 -3.665114e+00 2.780867e-02 -3.356195e+00 -4.524823e+00 -5.966032e+00 -3.534326e+00 4.288767e-01 -8.742427e-01 6.831592e-02 -2.907481e-02 5.311819e-02 6.016872e-02 5.025480e-02 -2.946719e-01 -3.078184e-01 -6.680424e-02 -2.893233e-01 -6.490411e-02 5.976441e-03 -2.273438e-01 -1.321386e-01 1.211146e-01 -2.663454e-02 -1.866040e-01 -1.487907e-01 5.404230e-02 -2.848798e-01 -2.882633e-01 2.204560e-02 -6.166024e-02 -4.853089e-02 6.581253e-02 1.378515e-02 -1.894578e-02
<VARIANCE> 39
 4.147428e+01 4.205899e+01 5.556832e+01 6.104029e+01 6.777393e+01 6.358270e+01 5.912305e+01 7.038217e+01 5.546807e+01 4.724577e+01 4.495413e+01 3.769294e+01 3.651715e+01 2.249881e+00 3.007229e+00 3.125516e+00 3.711155e+00 2.925326e+00 4.345156e+00 4.199284e+00 3.256153e+00 3.367468e+00 2.991481e+00 2.481144e+00 2.276711e+00 1.888372e+00 2.989351e-01 5.594583e-01 5.127962e-01 6.690794e-01 5.293956e-01 8.195867e-01 7.454402e-01 6.635090e-01 6.452998e-01 5.682064e-01 4.795634e-01 4.488502e-01 3.602342e-01
<GCONST> 1.291172e+02
<MIXTURE> 2 2.494251e-01
<MEAN> 39
 1.314133e+01 -1.416010e+01 3.913558e+00 1.081255e+01 -9.689021e+00 8.693576e+00 -8.112885e+00 -1.467008e+01 1.855464e+00 -8.812732e+00 -5.313881e+00 3.249560e+00 -7.863171e+00 -7.463337e-02 2.238822e-01 -1.274308e-01 8.733179e-02 1.681049e-01 -2.615622e-01 2.197069e-02 1.020972e-01 -1.191421e-01 7.699516e-02 -3.164013e-02 -9.745791e-02 5.661874e-02 -1.263217e-02 4.801285e-02 -6.399115e-02 -6.888460e-02 5.500393e-03 -1.277828e-01 -2.974394e-02 7.203063e-02 -3.910098e-02 -3.681005e-03 3.552784e-02 -3.058922e-02 1.612702e-03
<VARIANCE> 39
 2.322053e+01 5.035769e+01 5.614719e+01 4.530984e+01 4.771098e+01 5.842094e+01 5.481806e+01 4.239080e+01 4.882565e+01 5.015747e+01 4.139834e+01 3.298746e+01 3.427449e+01 1.221146e+00 3.733443e+00 2.063535e+00 1.637534e+00 2.910756e+00 3.226674e+00 3.131289e+00 2.386321e+00 2.567510e+00 2.526995e+00 1.783522e+00 1.616609e+00 1.693842e+00 1.888325e-01 7.031243e-01 3.468642e-01 2.675259e-01 5.448169e-01 5.440041e-01 5.830974e-01 4.608780e-01 4.742344e-01 4.635904e-01 3.272250e-01 3.009986e-01 3.251523e-01
<GCONST> 1.193829e+02
<STATE> 4
<NUMMIXES> 2
<MIXTURE> 1 4.617100e-01
<MEAN> 39
 -5.321787e+00 2.013454e+00 -4.989455e-01 4.808085e+00 1.860794e+00 3.207330e+00 -2.705527e+00 -1.711166e+00 -5.566093e-01 -1.452944e+00 -2.324493e+00 2.517927e+00 -2.017522e-01 -4.149794e-01 3.427284e-01 7.447645e-03 4.816425e-02 -1.838772e-01 1.025634e-01 3.666370e-02 9.241065e-02 1.616681e-01 1.814165e-01 5.365606e-02 -5.301613e-02 3.806523e-02 2.109224e-02 -8.661055e-02 6.128520e-03 -4.951219e-02 3.850649e-02 -7.209472e-02 -2.049898e-02 -1.069129e-02 -2.855344e-02 -5.342798e-02 -9.774365e-03 1.412207e-03 -1.971100e-02
<VARIANCE> 39
 1.565454e+02 1.134922e+02 5.899206e+01 4.537893e+01 1.015866e+02 5.276345e+01 5.895763e+01 9.690823e+01 3.811274e+01 3.813248e+01 3.164296e+01 3.141802e+01 2.893927e+01 1.147242e+00 1.548546e+00 1.377175e+00 1.335921e+00 1.628506e+00 1.736833e+00 1.883468e+00 1.644912e+00 1.662040e+00 1.476533e+00 1.334500e+00 1.252618e+00 1.101392e+00 1.570662e-01 2.468421e-01 2.242691e-01 2.349925e-01 2.773919e-01 3.154155e-01 3.417712e-01 3.110898e-01 3.021920e-01 2.781142e-01 2.591235e-01 2.425810e-01 2.112124e-01
<GCONST> 1.113349e+02
<MIXTURE> 2 5.382900e-01
<MEAN> 39
 3.912426e+00 -3.367576e+00 -2.024248e-01 -2.843560e+00 1.420540e+01 -1.318130e+01 -8.705500e+00 -5.223081e+00 -8.943317e+00 -8.374418e+00 -3.897041e+00 -2.261487e+00 -3.952780e+00 1.592237e-01 6.194608e-03 -3.634087e-01 -2.161381e-01 9.917594e-02 -6.967494e-01 -3.940091e-01 4.297378e-01 -3.361810e-02 -5.463701e-02 1.863057e-01 -1.924650e-01 -2.325059e-01 -1.037436e-01 2.328609e-02 1.354380e-01 8.826188e-02 -1.542949e-01 2.209140e-01 2.203207e-01 3.395486e-02 1.710214e-01 5.041641e-02 -3.278552e-02 2.082323e-02 4.549698e-04
<VARIANCE> 39
 1.904820e+01 3.502931e+01 5.576807e+01 8.338363e+01 9.079813e+01 1.262809e+02 5.997294e+01 7.860239e+01 7.774117e+01 6.737440e+01 7.077897e+01 6.667559e+01 5.032813e+01 2.867912e-01 6.458035e-01 1.227584e+00 1.278998e+00 1.628470e+00 2.542667e+00 2.282862e+00 1.717132e+00 1.925959e+00 1.776895e+00 1.595060e+00 1.551510e+00 1.057960e+00 4.145454e-02 8.171988e-02 1.406260e-01 1.536501e-01 1.908356e-01 2.886888e-01 2.733701e-01 2.480466e-01 2.628596e-01 2.397167e-01 2.297362e-01 2.196870e-01 1.566805e-01
<GCONST> 1.064001e+02
<TRANSP> 5
 0.000000e+00 1.000000e+00 0.000000e+00 0.000000e+00 0.000000e+00
 0.000000e+00 7.260135e-01 2.739865e-01 0.000000e+00 0.000000e+00
 0.000000e+00 0.000000e+00 7.760213e-01 2.239787e-01 0.000000e+00
 0.000000e+00 0.000000e+00 0.000000e+00 7.584428e-01 2.415572e-01
 0.000000e+00 0.000000e+00 0.000000e+00 0.000000e+00 0.000000e+00
<ENDHMM>
