~o
<STREAMINFO> 1 39
<VECSIZE> 39<NULLD><MFCC_D_A><DIAGC>
~h "rq"
<BEGINHMM>
<NUMSTATES> 7
<STATE> 2
<NUMMIXES> 2
<MIXTURE> 1 7.391762e-01
<MEAN> 39
 -7.482381e+00 -2.582637e+00 4.608644e+00 -4.069955e+00 9.499066e+00 -1.279544e+00 5.137553e+00 -2.325041e+00 -1.826785e+00 -5.541173e+00 -2.024484e+00 1.534859e-01 -9.325459e-01 8.599332e-01 -4.581801e-02 3.241004e-01 1.795631e-01 5.597956e-01 -2.836315e-01 -5.182298e-01 -4.887145e-01 -4.861952e-01 -5.676671e-01 -4.381534e-01 -1.011865e-01 -1.673835e-02 1.585716e-01 1.052625e-01 -2.136121e-02 4.941924e-02 3.253841e-02 -7.540397e-02 -1.899326e-01 -4.408430e-02 -5.261917e-02 -4.651020e-02 -1.287997e-01 -4.162676e-02 -2.819655e-02
<VARIANCE> 39
 4.264789e+01 7.754433e+01 5.998575e+01 8.824616e+01 6.535600e+01 4.207498e+01 4.601151e+01 5.931596e+01 5.887731e+01 4.538836e+01 3.699541e+01 3.659315e+01 2.796663e+01 2.497702e+00 4.918877e+00 3.206501e+00 5.916765e+00 3.528075e+00 3.428173e+00 3.885200e+00 3.342762e+00 3.760759e+00 2.996410e+00 2.940077e+00 2.235146e+00 1.983161e+00 3.021553e-01 8.044558e-01 5.810079e-01 9.408403e-01 5.706944e-01 6.413780e-01 6.486855e-01 6.289831e-01 6.183563e-01 5.483936e-01 4.789115e-01 4.098342e-01 3.456794e-01
<GCONST> 1.304246e+02
<MIXTURE> 2 2.608238e-01
<MEAN> 39
 1.408178e+01 -1.344973e+01 8.721427e+00 8.356107e+00 -1.045255e+01 1.221896e+01 -6.288949e+00 -1.217015e+01 -1.133836e+00 -1.704166e+01 -7.163131e+00 2.165989e+00 -1.105984e+01 3.411654e-01 2.987382e-01 -2.617749e-01 -4.671125e-02 2.577680e-01 -3.711917e-01 -2.808464e-01 -2.475074e-01 -5.879284e-01 -4.262640e-01 -1.992244e-01 -4.517853e-02 -5.220762e-03 -7.176929e-02 6.028585e-02 -6.794068e-02 -4.435281e-02 6.134438e-02 -5.803469e-02 9.095057e-03 8.916361e-02 -7.652338e-03 9.101243e-03 2.234622e-02 -7.091841e-03 3.516544e-02
<VARIANCE> 39
 1.908543e+01 5.660878e+01 4.392006e+01 4.803858e+01 5.377359e+01 5.406113e+01 5.735616e+01 3.943487e+01 7.046983e+01 6.727475e+01 4.502923e+01 2.726922e+01 3.410199e+01 1.426789e+00 4.422229e+00 2.229563e+00 2.562703e+00 3.548952e+00 4.381431e+00 3.384996e+00 2.486635e+00 3.986128e+00 3.407494e+00 2.166842e+00 1.784557e+00 1.714009e+00 2.307372e-01 8.171577e-01 3.838291e-01 4.458253e-01 6.466831e-01 6.585864e-01 6.303274e-01 4.909132e-01 6.888614e-01 6.166937e-01 3.777919e-01 3.232917e-01 3.164048e-01
<GCONST> 1.245114e+02
<STATE> 3
<NUMMIXES> 2
<MIXTURE> 1 5.995232e-01
<MEAN> 39
 1.315590e+00 -1.384526e+00 8.032172e+00 -3.153924e+00 1.506326e+01 3.681191e-01 5.415418e-01 -5.531814e+00 -2.727330e+00 -9.486568e+00 -9.282190e+00 -2.824723e+00 -1.019209e-01 2.402753e-01 -3.171251e-01 -1.841740e-02 6.682918e-02 1.595688e-01 6.041702e-02 -3.092037e-01 -3.073867e-01 -1.618308e-01 -1.371581e-01 -1.955797e-01 1.269965e-03 -2.981227e-02 -6.582377e-02 -1.385828e-02 -4.160904e-02 -7.806350e-02 -4.069997e-02 -2.142097e-01 -6.312244e-02 1.086280e-01 -1.487248e-01 -7.189351e-02 1.566450e-01 1.844712e-02 -8.967277e-02
<VARIANCE> 39
 1.923190e+01 2.429206e+01 2.173114e+01 3.574928e+01 4.846369e+01 4.048143e+01 3.790256e+01 4.964043e+01 4.807964e+01 2.874114e+01 4.218049e+01 2.596050e+01 2.458018e+01 1.001977e+00 1.269544e+00 1.249755e+00 1.590829e+00 1.624245e+00 2.604679e+00 3.443630e+00 2.868652e+00 2.386111e+00 2.079592e+00 2.366166e+00 1.778261e+00 1.496564e+00 1.587541e-01 2.518748e-01 2.432641e-01 3.642721e-01 3.362331e-01 5.399942e-01 6.522623e-01 5.905344e-01 4.657035e-01 4.065226e-01 4.294014e-01 3.401715e-01 2.918152e-01
<GCONST> 1.120123e+02
<MIXTURE> 2 4.004768e-01
<MEAN> 39
 1.715401e+00 -2.709377e+00 4.756135e+00 -5.217709e+00 1.091364e+01 -1.057241e+01 -5.349709e+00 -9.302694e+00 -1.572722e+01 -1.389555e+01 -6.252936e+00 -4.615204e+00 -5.837146e+00 7.472833e-01 2.550161e-01 -8.120762e-01 -4.053031e-01 4.995609e-01 -9.302924e-01 -8.974746e-01 2.940919e-01 -7.387404e-01 -6.129263e-01 -3.138702e-01 4.482781e-02 4.223413e-02 -2.654774e-01 -1.859948e-02 -2.759252e-02 1.150609e-01 4.966042e-02 3.151203e-01 3.063715e-01 1.891360e-01 3.662597e-01 2.005955e-01 1.155625e-01 5.463823e-02 6.523963e-02
<VARIANCE> 39
 1.919722e+01 3.227154e+01 2.986930e+01 5.214018e+01 6.991168e+01 4.785655e+01 5.033170e+01 4.901177e+01 4.536411e+01 4.710197e+01 3.583544e+01 3.485841e+01 2.971780e+01 9.949749e-01 1.574272e+00 1.581720e+00 2.620016e+00 2.527407e+00 5.224266e+00 4.109146e+00 2.687400e+00 4.090891e+00 3.266403e+00 2.353642e+00 2.299748e+00 1.665599e+00 1.674040e-01 3.413842e-01 3.130619e-01 4.145372e-01 4.299457e-01 7.011176e-01 6.183671e-01 4.965741e-01 5.863996e-01 5.306923e-01 3.886175e-01 3.440104e-01 2.891930e-01
<GCONST> 1.195120e+02
<STATE> 4
<NUMMIXES> 2
<MIXTURE> 1 4.805447e-01
<MEAN> 39
 1.058948e+01 -7.767542e+00 6.321223e+00 4.769801e+00 4.749985e-01 1.601337e+00 -6.466050e+00 -1.005264e+01 -6.521184e+00 -1.735327e+01 -8.323801e+00 -9.538221e-01 -7.886206e+00 -2.020161e-01 4.985737e-02 3.958393e-01 3.358094e-01 -2.004983e-01 3.183879e-02 2.745574e-01 1.264167e-01 1.117770e-01 1.975407e-01 1.791345e-01 -1.194616e-01 -1.112407e-01 -9.821438e-02 -9.652404e-03 1.159839e-01 8.237222e-02 -2.088143e-02 1.186445e-01 1.155950e-01 5.871411e-02 1.055324e-01 1.124047e-01 7.163802e-02 2.189980e-02 -6.902443e-03
<VARIANCE> 39
 6.430276e+01 3.535526e+01 5.270857e+01 6.428308e+01 2.174209e+02 7.833687e+01 6.211278e+01 5.105002e+01 7.031361e+01 8.693485e+01 6.392059e+01 3.865582e+01 5.880088e+01 3.915657e-01 8.230658e-01 8.769405e-01 9.441048e-01 1.295014e+00 1.837598e+00 1.703045e+00 1.767522e+00 1.659278e+00 1.410079e+00 1.317609e+00 1.127771e+00 8.754177e-01 6.444325e-02 1.556345e-01 1.369218e-01 1.466153e-01 2.044571e-01 2.461511e-01 2.280184e-01 2.422864e-01 2.345240e-01 2.362199e-01 2.020326e-01 1.718901e-01 1.453535e-01
<GCONST> 1.051267e+02
<MIXTURE> 2 5.194553e-01
<MEAN> 39
 5.049044e+00 -2.833018e+00 -3.692475e-02 -4.870622e+00 2.251147e+01 -1.207269e+01 -1.185435e+01 -1.594453e+00 -1.148680e+01 -1.688420e+01 -6.078123e+00 -5.915544e-01 -5.500005e+00 4.468149e-02 1.393487e-01 -3.594196e-01 1.573240e-01 3.488449e-01 -1.413027e+00 -2.224737e-01 8.963069e-01 -6.348916e-01 -4.905327e-01 6.456663e-01 -6.435982e-02 -5.540518e-01 -1.419257e-01 -8.829932e-02 2.707263e-01 1.679585e-01 -3.425606e-01 2.220254e-01 4.866606e-01 -2.621903e-01 3.789352e-03 3.263830e-01 7.690787e-02 -1.436350e-01 6.564776e-02
<VARIANCE> 39
 6.638725e+00 1.991932e+01 2.473984e+01 6.894836e+01 7.116003e+01 6.676431e+01 3.638971e+01 6.339867e+01 6.120783e+01 5.826916e+01 6.355471e+01 6.703680e+01 3.544242e+01 1.477396e-01 4.809206e-01 7.484699e-01 7.653924e-01 1.390045e+00 1.245163e+00 1.956537e+00 1.483551e+00 1.293018e+00 1.812773e+00 1.396846e+00 1.698197e+00 1.059982e+00 2.784704e-02 6.782039e-02 9.692872e-02 1.226594e-01 1.439428e-01 2.273795e-01 2.070557e-01 2.295535e-01 2.336251e-01 2.445776e-01 2.049363e-01 2.391296e-01 1.638991e-01
<GCONST> 9.564798e+01
<STATE> 5
<NUMMIXES> 2
<MIXTURE> 1 3.105862e-01
<MEAN> 39
 7.122468e+00 -1.202466e+01 1.074983e+01 1.213869e+01 -5.179668e+00 1.232993e+01 -7.736592e-01 -8.117874e+00 4.206685e+00 -1.102292e+01 -8.291392e+00 3.666113e+00 -6.050529e+00 -6.530368e-01 1.218816e-01 2.065668e-01 3.262941e-01 1.125851e-01 1.160961e-02 2.196309e-01 3.522605e-01 2.275983e-01 2.751999e-01 2.735325e-01 1.381687e-02 -3.095853e-02 -3.442115e-02 2.558496e-02 -4.141801e-02 -7.523190e-03 2.647563e-02 -4.932971e-02 -1.436197e-02 3.857588e-02 -2.134469e-02 1.420571e-02 1.827422e-02 -1.018251e-02 1.847164e-02
<VARIANCE> 39
 7.803642e+01 1.619482e+02 3.086217e+01 7.564348e+01 1.038755e+02 7.133615e+01 4.329634e+01 4.385611e+01 7.110351e+01 3.285530e+01 3.881635e+01 3.906897e+01 2.985154e+01 9.231590e-01 3.257215e+00 1.528848e+00 1.605254e+00 2.113406e+00 2.451318e+00 2.171188e+00 2.297109e+00 2.076370e+00 1.894054e+00 1.769104e+00 1.447334e+00 1.387126e+00 1.065372e-01 3.552648e-01 2.178749e-01 2.478778e-01 3.284828e-01 4.001898e-01 3.543986e-01 4.002502e-01 3.505048e-01 3.162823e-01 2.827090e-01 2.448356e-01 2.492698e-01
<GCONST> 1.152667e+02
<MIXTURE> 2 6.894137e-01
<MEAN> 39
 2.688455e+00 -2.113099e+00 1.906478e+00 -5.134417e+00 1.242602e+01 -1.810974e+01 -6.270034e+00 -6.489642e+00 -1.974877e+01 -1.313955e+01 -3.885483e+00 -5.970207e+00 -6.355020e+00 -1.492756e-01 -3.946863e-02 4.111446e-01 2.180630e-01 -4.375046e-01 1.211736e-01 3.615616e-01 -3.212323e-01 -8.726517e-02 3.092084e-01 8.428763e-02 -1.998207e-01 -6.986048e-02 -3.176197e-02 3.107033e-02 9.982978e-02 2.058580e-02 -1.609414e-03 2.738521e-01 1.729952e-02 -5.985713e-02 1.922100e-01 3.188664e-02 -8.484934e-02 6.699765e-02 3.468842e-02
<VARIANCE> 39
 8.744055e+00 3.480541e+01 3.121437e+01 9.176575e+01 7.273141e+01 7.168738e+01 5.155247e+01 5.923391e+01 6.011852e+01 7.141784e+01 4.449405e+01 4.332309e+01 3.920206e+01 8.801468e-02 3.439727e-01 4.796794e-01 6.715807e-01 9.413382e-01 1.148408e+00 1.274328e+00 1.185762e+00 1.239278e+00 1.118879e+00 9.493971e-01 9.772524e-01 6.698449e-01 1.571151e-02 5.238343e-02 7.951690e-02 9.133407e-02 1.267948e-01 1.801434e-01 1.800317e-01 1.770170e-01 1.984664e-01 1.795450e-01 1.565525e-01 1.497761e-01 1.151941e-01
<GCONST> 8.874660e+01
<STATE> 6
<NUMMIXES> 2
<MIXTURE> 1 6.308548e-01
<MEAN> 39
 -7.313538e+00 3.057015e+00 1.116367e+01 5.273283e+00 1.031995e+01 -6.856633e-01 3.205296e+00 -4.293977e+00 -4.193480e+00 -6.623264e+00 -4.795672e+00 -1.406924e+00 -2.937140e+00 -8.314857e-01 2.021642e-01 -1.521435e-01 5.386105e-01 -1.347551e-01 2.256558e-01 1.120113e-01 3.008737e-01 3.778187e-01 3.629349e-01 2.343198e-01 2.855538e-01 -3.498983e-02 4.513736e-02 -1.587890e-01 -1.468045e-01 -1.521563e-01 2.371844e-03 -1.123557e-01 -1.154959e-01 -5.594425e-02 -5.803558e-02 -5.951737e-02 -4.597311e-02 -2.619992e-02 2.183737e-02
<VARIANCE> 39
 5.738352e+01 1.168965e+02 3.281491e+01 4.194089e+01 5.907262e+01 4.448700e+01 4.363394e+01 5.851833e+01 4.092582e+01 3.095881e+01 3.002589e+01 2.984736e+01 2.424999e+01 1.316593e+00 2.812085e+00 2.028246e+00 2.349348e+00 1.789592e+00 2.068748e+00 2.356562e+00 2.289081e+00 1.902040e+00 1.853795e+00 1.785303e+00 1.502722e+00 1.298733e+00 1.698888e-01 3.572587e-01 3.874076e-01 4.029296e-01 3.614032e-01 4.206056e-01 4.416200e-01 4.219794e-01 3.914235e-01 3.613252e-01 3.224764e-01 3.145755e-01 2.539622e-01
<GCONST> 1.151006e+02
<MIXTURE> 2 3.691452e-01
<MEAN> 39
 9.791185e-01 4.610921e-02 6.743302e+00 -2.002572e+00 1.139304e+01 -1.015905e+01 -3.460025e+00 -8.022293e+00 -1.387571e+01 -1.182259e+01 -5.195427e+00 -4.905852e+00 -6.632752e+00 -6.964865e-01 6.475088e-01 9.993857e-01 7.043386e-01 -2.940829e-01 1.836469e+00 6.919485e-01 -1.589203e-01 1.466034e+00 7.708310e-01 -1.299615e-01 2.859101e-01 1.865497e-01 -1.827063e-01 5.505223e-02 3.582574e-02 1.435959e-01 3.402340e-02 5.961181e-02 6.600596e-02 1.003382e-01 1.245411e-01 6.905319e-02 9.262677e-02 1.201387e-01 1.956900e-02
<VARIANCE> 39
 1.252528e+01 5.061137e+01 2.799378e+01 6.930658e+01 9.187728e+01 7.055530e+01 5.906717e+01 7.173032e+01 6.717127e+01 5.385685e+01 4.486556e+01 3.820258e+01 3.408979e+01 7.554408e-01 2.625012e+00 2.051234e+00 2.143664e+00 1.915791e+00 2.651114e+00 2.467628e+00 2.832290e+00 2.311062e+00 2.436228e+00 1.849542e+00 1.871334e+00 1.549566e+00 8.654051e-02 3.203445e-01 2.723914e-01 2.870584e-01 2.867750e-01 4.559394e-01 4.073748e-01 4.480657e-01 4.150741e-01 3.686017e-01 3.042363e-01 2.770641e-01 2.373994e-01
<GCONST> 1.154819e+02
<TRANSP> 7
 0.000000e+00 1.000000e+00 0.000000e+00 0.000000e+00 0.000000e+00 0.000000e+00 0.000000e+00
 0.000000e+00 8.400906e-01 1.599094e-01 0.000000e+00 0.000000e+00 0.000000e+00 0.000000e+00
 0.000000e+00 0.000000e+00 8.760429e-01 1.239571e-01 0.000000e+00 0.000000e+00 0.000000e+00
 0.000000e+00 0.000000e+00 0.000000e+00 7.437094e-01 2.562905e-01 0.000000e+00 0.000000e+00
 0.000000e+00 0.000000e+00 0.000000e+00 0.000000e+00 8.333192e-01 1.666807e-01 0.000000e+00
 0.000000e+00 0.000000e+00 0.000000e+00 0.000000e+00 0.000000e+00 8.591288e-01 1.408712e-01
 0.000000e+00 0.000000e+00 0.000000e+00 0.000000e+00 0.000000e+00 0.000000e+00 0.000000e+00
<ENDHMM>
