~o
<STREAMINFO> 1 39
<VECSIZE> 39<NULLD><MFCC_D_A><DIAGC>
~h "sx"
<BEGINHMM>
<NUMSTATES> 5
<STATE> 2
<NUMMIXES> 2
<MIXTURE> 1 5.915077e-01
<MEAN> 39
 -2.932882e+00 -8.802504e+00 3.077005e+00 4.396766e+00 7.233724e+00 -4.570829e+00 -2.922580e+00 -5.913867e+00 -1.108088e+00 -5.944740e+00 -2.894041e+00 -5.390739e-01 -5.182609e+00 -9.799970e-01 -1.556889e+00 7.033337e-01 1.316883e-01 8.866329e-02 7.746174e-01 3.605869e-01 -1.238459e-01 5.139669e-01 2.207935e-01 4.395507e-01 2.222906e-01 1.825638e-01 -2.083028e-01 -2.312531e-01 7.475699e-02 -1.532807e-02 -1.023205e-02 3.518845e-03 8.134484e-02 9.162453e-02 6.448251e-02 1.305413e-02 8.778618e-02 2.101874e-02 2.649735e-02
<VARIANCE> 39
 7.958171e+01 1.132955e+02 9.530849e+01 1.047266e+02 1.273362e+02 1.218136e+02 6.465104e+01 6.187128e+01 5.878485e+01 5.264677e+01 5.417077e+01 5.156160e+01 4.805596e+01 2.023843e+00 4.685544e+00 4.874016e+00 3.019217e+00 2.760338e+00 3.749853e+00 2.843958e+00 2.969441e+00 2.553554e+00 2.416816e+00 2.348314e+00 1.892482e+00 1.636106e+00 2.286305e-01 6.004089e-01 7.276339e-01 4.692682e-01 4.708557e-01 5.495446e-01 4.343523e-01 4.823860e-01 4.222308e-01 4.134457e-01 3.801742e-01 3.252936e-01 2.822025e-01
<GCONST> 1.299177e+02
<MIXTURE> 2 4.084922e-01
<MEAN> 39
 -1.621612e+01 -1.880706e+01 1.087206e+01 4.122999e+00 1.444305e+01 -2.798543e+00 2.988565e+00 -3.656544e+00 1.495906e+00 -4.553286e+00 1.326284e+00 -3.251058e-01 -1.298164e+00 -2.120762e+00 -1.800489e+00 -1.469594e-01 -4.419883e-01 -5.154625e-01 -2.300609e-01 4.434071e-01 3.671517e-01 6.313343e-01 1.461432e-01 5.190409e-01 1.671071e-01 3.510129e-01 2.707809e-01 2.951736e-01 -2.199606e-01 -1.383710e-01 -2.021422e-01 -2.461565e-01 -2.317858e-01 -1.297783e-01 -1.667306e-01 -1.065859e-01 -1.708568e-01 -5.991495e-02 -7.550172e-02
<VARIANCE> 39
 2.708490e+01 3.981294e+01 5.347132e+01 3.995773e+01 3.863703e+01 4.274900e+01 4.230998e+01 4.043798e+01 3.693742e+01 2.800609e+01 3.061597e+01 3.274402e+01 3.211582e+01 7.834241e-01 7.826809e-01 1.465279e+00 1.264589e+00 1.463435e+00 1.716070e+00 1.929663e+00 1.758673e+00 1.666855e+00 1.556678e+00 1.599307e+00 1.335721e+00 1.129525e+00 8.990040e-02 1.527720e-01 2.341897e-01 2.114167e-01 2.360906e-01 2.892728e-01 3.066804e-01 3.117712e-01 3.062854e-01 2.943746e-01 2.783806e-01 2.479385e-01 2.138188e-01
<GCONST> 1.036608e+02
<STATE> 3
<NUMMIXES> 2
<MIXTURE> 1 7.212527e-01
<MEAN> 39
 -2.460238e+01 -2.528654e+01 9.471644e+00 1.453827e+00 8.127853e+00 -6.018429e+00 2.558790e+00 -3.683998e+00 2.654154e+00 -4.111738e+00 2.904305e+00 4.652599e-02 -7.399455e-01 -1.450592e-01 -1.199145e-01 -3.135870e-04 -1.272301e-01 -1.624380e-01 -1.012006e-01 -2.490444e-02 1.246481e-02 5.053716e-02 6.712408e-02 8.564311e-02 1.045148e-01 4.351579e-02 1.705573e-01 1.138594e-01 -9.429221e-03 3.562658e-02 8.277255e-02 5.409338e-02 -1.330904e-02 7.295563e-03 -2.083024e-02 2.495965e-02 -1.450490e-02 1.564932e-02 -1.222222e-02
<VARIANCE> 39
 1.285795e+01 1.845549e+01 3.966734e+01 2.418987e+01 2.595475e+01 2.351564e+01 2.664266e+01 3.143886e+01 2.726725e+01 2.396935e+01 2.825245e+01 2.035634e+01 2.225601e+01 5.411132e-01 4.145736e-01 5.782295e-01 6.248662e-01 8.210536e-01 8.967179e-01 1.010130e+00 1.112602e+00 1.136790e+00 1.149482e+00 1.084185e+00 9.764097e-01 8.331052e-01 5.354280e-02 7.495892e-02 9.395999e-02 1.193449e-01 1.522509e-01 1.766524e-01 2.028002e-01 2.240226e-01 2.324072e-01 2.317947e-01 2.225613e-01 1.993905e-01 1.736982e-01
<GCONST> 8.603436e+01
<MIXTURE> 2 2.787473e-01
<MEAN> 39
 -4.830388e+00 -3.846694e+01 1.470419e+01 1.444176e+01 -1.570815e+01 1.403558e+01 -5.519396e+00 -9.874935e+00 1.069332e+01 -8.149249e+00 -1.222694e-01 8.058158e+00 -1.069953e+01 -3.292657e-01 -1.461387e-01 -1.420295e-02 -7.719207e-02 -1.037708e-01 -1.711879e-02 8.680274e-02 1.089886e-01 1.280147e-01 1.382114e-01 1.309083e-01 9.524372e-02 3.951098e-02 1.529866e-01 2.577698e-01 -5.913446e-02 1.884089e-02 9.087706e-02 -7.420413e-02 -2.268747e-02 -2.834783e-02 -9.755909e-02 -3.042274e-02 -9.382571e-02 -8.671269e-02 -6.341824e-03
<VARIANCE> 39
 2.489910e+01 3.918985e+01 2.879995e+01 2.537353e+01 3.255612e+01 2.967728e+01 2.375148e+01 2.891141e+01 2.596923e+01 2.587512e+01 3.649825e+01 2.536182e+01 2.138714e+01 1.387879e+00 2.840439e+00 1.082349e+00 1.043011e+00 1.739907e+00 1.502737e+00 1.291086e+00 1.328390e+00 1.449466e+00 1.436161e+00 1.283932e+00 1.227780e+00 1.108285e+00 1.372884e-01 2.711454e-01 1.778637e-01 1.828904e-01 2.703336e-01 3.047376e-01 2.577616e-01 2.666590e-01 2.929233e-01 2.994964e-01 2.600128e-01 2.406480e-01 2.262171e-01
<GCONST> 1.006664e+02
<STATE> 4
<NUMMIXES> 2
<MIXTURE> 1 4.147610e-01
<MEAN> 39
 -2.936459e+00 -1.137933e+01 8.315566e+00 7.202378e+00 4.684661e+00 -2.663545e-02 -3.992347e+00 -6.512737e+00 -1.192826e+00 -7.097138e+00 -3.733725e+00 -8.867022e-02 -5.715072e+00 2.136612e+00 1.813494e+00 -6.624325e-01 -1.532233e-01 -5.700415e-02 -1.028494e+00 -1.096276e+00 -6.782649e-01 -9.650272e-01 -6.856385e-01 -8.382477e-01 -5.459163e-01 -3.263465e-01 -2.850599e-01 -4.025114e-01 -2.653726e-01 -2.692301e-01 -1.592407e-01 -2.366246e-01 5.952340e-02 1.103170e-01 1.285944e-01 1.122814e-01 2.458123e-01 1.499602e-01 1.768242e-01
<VARIANCE> 39
 8.964298e+01 1.058563e+02 5.330992e+01 7.357446e+01 1.448005e+02 1.168479e+02 5.949942e+01 6.300339e+01 7.040479e+01 4.000916e+01 4.062848e+01 4.906694e+01 5.084773e+01 4.240012e+00 5.096867e+00 3.314917e+00 3.038402e+00 2.683587e+00 4.568842e+00 3.487986e+00 3.161061e+00 3.012128e+00 2.904448e+00 3.097625e+00 2.357285e+00 2.022378e+00 4.259628e-01 5.326376e-01 5.749141e-01 4.202338e-01 4.315808e-01 6.613346e-01 5.494293e-01 4.437077e-01 4.343559e-01 4.205614e-01 3.978769e-01 3.275104e-01 2.813898e-01
<GCONST> 1.311207e+02
<MIXTURE> 2 5.852390e-01
<MEAN> 39
 -1.915624e+01 -1.883479e+01 8.325274e+00 1.759531e+00 9.919407e+00 -2.603454e+00 2.385444e+00 -9.695002e-01 2.894526e+00 -2.459110e+00 2.219599e+00 2.542234e+00 -9.823226e-02 1.161991e+00 1.436071e+00 1.402868e-01 5.300727e-01 2.387908e-01 6.095405e-01 -1.632413e-01 1.162417e-01 -2.865704e-01 8.842324e-02 -3.434879e-01 -2.104734e-02 -3.384526e-01 2.939579e-01 3.633541e-01 8.529106e-02 1.536434e-01 -5.654584e-03 -1.378170e-02 -1.328782e-01 -1.266644e-01 -1.645182e-01 -1.723233e-01 -2.211057e-01 -1.475728e-01 -1.479924e-01
<VARIANCE> 39
 2.524503e+01 7.527831e+01 4.667010e+01 4.465491e+01 4.579325e+01 5.381096e+01 3.679724e+01 4.784020e+01 3.417042e+01 2.917295e+01 3.208272e+01 2.502682e+01 2.475657e+01 2.017975e+00 1.943128e+00 1.730980e+00 1.767259e+00 2.001490e+00 1.876782e+00 1.902108e+00 1.921630e+00 1.807780e+00 1.796305e+00 1.889937e+00 1.504277e+00 1.370617e+00 2.982745e-01 3.569895e-01 2.806914e-01 3.243313e-01 3.426667e-01 4.193225e-01 3.947733e-01 3.727063e-01 3.587782e-01 3.712140e-01 3.712218e-01 2.924022e-01 2.511476e-01
<GCONST> 1.124849e+02
<TRANSP> 5
 0.000000e+00 1.000000e+00 0.000000e+00 0.000000e+00 0.000000e+00
 0.000000e+00 8.877575e-01 1.122425e-01 0.000000e+00 0.000000e+00
 0.000000e+00 0.000000e+00 9.291911e-01 7.080887e-02 0.000000e+00
 0.000000e+00 0.000000e+00 0.000000e+00 8.665975e-01 1.334025e-01
 0.000000e+00 0.000000e+00 0.000000e+00 0.000000e+00 0.000000e+00
<ENDHMM>
