~o
<STREAMINFO> 1 39
<VECSIZE> 39<NULLD><MFCC_D_A><DIAGC>
~h "txh"
<BEGINHMM>
<NUMSTATES> 5
<STATE> 2
<NUMMIXES> 2
<MIXTURE> 1 4.780451e-01
<MEAN> 39
 -1.261667e+00 2.266737e+00 1.540238e+00 1.290888e-01 1.189252e+01 -1.048246e+00 -1.937004e+00 -3.197687e+00 -5.887417e-01 -3.284300e+00 -2.034194e+00 1.199043e+00 -2.577231e+00 -8.158321e-01 6.097268e-01 -4.573843e-02 5.581667e-01 -5.307886e-01 5.073703e-01 3.856992e-01 -3.467566e-02 1.840931e-01 2.118003e-01 -1.212793e-01 1.361616e-01 7.879861e-02 -6.628721e-02 -2.113025e-01 1.643194e-02 -3.015069e-02 4.694230e-03 -2.857582e-01 7.656319e-02 6.310469e-02 2.446519e-02 -1.045740e-03 3.494332e-02 -1.502691e-02 -2.384174e-02
<VARIANCE> 39
 5.109607e+01 7.383504e+01 5.666912e+01 8.377829e+01 7.516254e+01 1.096479e+02 7.834214e+01 5.433482e+01 5.756218e+01 5.529414e+01 6.202940e+01 4.351169e+01 3.433193e+01 1.246058e+00 4.036777e+00 3.052627e+00 2.435549e+00 2.945251e+00 4.674290e+00 4.209049e+00 3.464118e+00 2.862628e+00 2.427461e+00 2.148387e+00 2.180270e+00 1.762342e+00 2.084341e-01 1.003111e+00 5.940365e-01 4.904517e-01 5.909746e-01 7.103932e-01 8.225847e-01 6.371313e-01 5.364322e-01 4.824487e-01 4.161043e-01 4.233080e-01 3.587454e-01
<GCONST> 1.298010e+02
<MIXTURE> 2 5.219549e-01
<MEAN> 39
 -9.995264e+00 3.900069e+00 3.633625e+00 6.746232e+00 7.502664e+00 -9.542097e-01 6.695520e-01 -2.089834e+00 2.722193e+00 -6.502686e-01 -2.351541e+00 2.286677e+00 -3.407255e+00 -5.526815e-01 3.641883e-01 -6.256100e-02 -5.808963e-03 -1.355351e-01 7.614398e-02 3.428327e-01 1.514709e-01 1.680501e-01 1.952024e-01 -3.342779e-02 4.922675e-02 4.643277e-02 7.826470e-02 -2.786188e-01 -1.893856e-02 -8.341568e-02 4.364135e-02 -1.453629e-02 4.033183e-02 3.475692e-02 -2.462702e-02 -2.458036e-02 3.317950e-02 -8.725686e-03 4.979464e-02
<VARIANCE> 39
 7.716607e+01 1.137132e+02 5.828982e+01 5.787508e+01 4.721221e+01 7.697594e+01 5.037519e+01 4.010020e+01 3.471271e+01 3.413734e+01 3.497088e+01 3.304333e+01 2.744206e+01 4.447022e-01 7.867370e-01 6.833360e-01 8.275577e-01 9.576933e-01 1.150386e+00 1.149814e+00 1.230007e+00 1.240116e+00 1.230014e+00 1.118882e+00 1.055696e+00 8.552478e-01 7.578533e-02 2.903235e-01 1.556982e-01 1.840647e-01 1.981323e-01 2.611717e-01 2.498692e-01 2.648664e-01 2.581214e-01 2.558315e-01 2.380992e-01 2.309314e-01 1.871983e-01
<GCONST> 1.010476e+02
<STATE> 3
<NUMMIXES> 2
<MIXTURE> 1 5.204858e-01
<MEAN> 39
 -1.054407e+01 3.030874e+00 2.346793e+00 5.702763e+00 7.640076e+00 -5.194171e-01 2.459493e+00 -1.450349e+00 1.867608e+00 -1.245404e+00 -2.604627e+00 1.794713e+00 -2.822480e+00 4.497243e-01 -4.063040e+00 -3.508835e-01 -9.386804e-01 -1.028739e-01 -1.414816e+00 5.444021e-01 4.581405e-01 2.485162e-01 7.073328e-02 7.225425e-01 1.722851e-01 5.824866e-01 3.861388e-01 -1.146203e+00 3.274540e-01 -4.240745e-01 7.084622e-02 -2.191365e-01 -6.321895e-02 -1.261427e-01 6.472179e-02 2.120596e-02 3.669987e-01 7.414003e-02 2.304477e-01
<VARIANCE> 39
 4.508431e+01 8.828434e+01 4.314605e+01 5.055141e+01 4.639740e+01 5.476376e+01 4.839122e+01 3.963708e+01 3.578350e+01 3.034004e+01 3.245013e+01 3.009427e+01 2.508251e+01 4.122612e+00 9.845499e+00 4.262457e+00 4.992489e+00 4.872194e+00 4.896636e+00 5.678185e+00 4.161478e+00 3.861383e+00 3.477028e+00 3.226517e+00 3.318343e+00 2.711683e+00 4.020359e-01 1.280356e+00 7.016464e-01 5.486610e-01 5.981776e-01 7.014593e-01 6.974052e-01 6.215659e-01 5.644856e-01 4.777531e-01 4.720035e-01 4.933888e-01 3.782006e-01
<GCONST> 1.321478e+02
<MIXTURE> 2 4.795142e-01
<MEAN> 39
 -8.573912e+00 -1.508324e+01 4.702075e+00 -1.579429e+00 9.992713e+00 -7.380792e+00 3.966246e+00 -8.931324e-01 2.765546e+00 -2.446710e-01 2.611751e+00 2.549627e+00 1.295853e+00 -3.984770e-01 -2.845283e+00 2.368934e+00 -1.168204e+00 6.398473e-01 -2.608103e-01 8.844444e-01 -7.110825e-01 3.787134e-01 7.180347e-01 1.719764e+00 3.779840e-01 7.839174e-01 -3.231120e-01 1.438457e+00 1.212543e-01 4.732952e-01 3.993401e-02 7.015830e-01 -1.040317e-01 -2.934752e-01 -1.239249e-01 1.430526e-01 -7.546061e-02 2.524018e-02 -3.178885e-01
<VARIANCE> 39
 1.435168e+01 1.733746e+01 4.031138e+01 3.230593e+01 3.983539e+01 3.260675e+01 4.220717e+01 3.441641e+01 3.286279e+01 3.040854e+01 2.877386e+01 2.505748e+01 2.177984e+01 2.833192e+00 8.658893e+00 2.980893e+00 4.187616e+00 2.895010e+00 4.450371e+00 4.160773e+00 3.699247e+00 3.053311e+00 3.425577e+00 2.830209e+00 3.281485e+00 2.468600e+00 4.602407e-01 6.792318e-01 1.088674e+00 7.370569e-01 7.406173e-01 7.618906e-01 8.926216e-01 8.483832e-01 7.276604e-01 7.323741e-01 5.816594e-01 5.661691e-01 5.183061e-01
<GCONST> 1.272484e+02
<STATE> 4
<NUMMIXES> 2
<MIXTURE> 1 5.862793e-01
<MEAN> 39
 -7.272016e+00 -1.196145e+01 4.044955e+00 -3.908589e+00 1.061642e+01 -4.968735e+00 4.517457e+00 -2.844353e-01 1.823138e+00 9.325503e-01 3.837976e+00 2.554566e+00 -6.136514e-01 5.156373e-01 8.583685e-01 -2.526202e-01 2.474048e-02 -1.693787e-01 -7.534597e-02 -6.690358e-02 4.287244e-01 -1.567819e-01 -4.543280e-01 -4.903739e-01 -3.340917e-01 -3.227102e-01 9.830594e-03 8.649372e-02 1.632617e-01 1.201376e-01 5.265081e-02 1.370104e-02 4.406530e-02 -1.598387e-02 -9.460940e-03 -4.285388e-02 -8.235736e-06 -3.681480e-03 2.226449e-02
<VARIANCE> 39
 5.180269e+01 5.444662e+01 4.276041e+01 5.107366e+01 4.861575e+01 5.647272e+01 5.871605e+01 4.830901e+01 4.519130e+01 4.380300e+01 3.691870e+01 3.890224e+01 3.308220e+01 7.443576e-01 1.144953e+00 1.693495e+00 1.862532e+00 1.922090e+00 1.995938e+00 2.291838e+00 2.061826e+00 2.239639e+00 2.182332e+00 1.799827e+00 1.671402e+00 1.410971e+00 1.072000e-01 1.730901e-01 2.630485e-01 2.778342e-01 3.242785e-01 3.266861e-01 4.067954e-01 3.767384e-01 3.670491e-01 3.595123e-01 3.237610e-01 2.996887e-01 2.534316e-01
<GCONST> 1.120024e+02
<MIXTURE> 2 4.137208e-01
<MEAN> 39
 -7.450799e+00 -1.494343e+01 9.747334e+00 1.853848e+00 7.844397e+00 -1.890572e+00 3.743976e+00 -4.685396e+00 2.719692e+00 -2.465300e-02 3.455506e+00 2.934800e+00 -1.168049e+00 5.667758e-01 3.495914e-01 -2.230800e-01 1.017592e-01 8.133869e-02 9.198709e-03 -5.747489e-01 -3.028741e-01 -4.924020e-01 -8.806580e-02 -9.458555e-02 -2.607150e-01 -4.471502e-01 2.582715e-01 3.263080e-01 -5.706334e-01 -1.512352e-01 -1.481938e-01 -3.032023e-01 -2.822016e-01 2.212450e-01 -1.204631e-01 -2.451927e-01 -3.476694e-01 -1.576443e-01 -1.185066e-01
<VARIANCE> 39
 1.039317e+02 8.185140e+01 5.352192e+01 6.911907e+01 1.447424e+02 8.917372e+01 7.220574e+01 4.582704e+01 5.978705e+01 5.963317e+01 5.826529e+01 4.722351e+01 4.287709e+01 3.035682e+00 4.721398e+00 4.121097e+00 3.046850e+00 3.604383e+00 4.331909e+00 3.454061e+00 3.648830e+00 3.537218e+00 3.472277e+00 3.030627e+00 2.584356e+00 2.174663e+00 4.885983e-01 8.792948e-01 7.745817e-01 5.204651e-01 6.421255e-01 6.558079e-01 6.271142e-01 6.480023e-01 6.364059e-01 6.501641e-01 6.033877e-01 4.441027e-01 3.982567e-01
<GCONST> 1.355484e+02
<TRANSP> 5
 0.000000e+00 1.000000e+00 0.000000e+00 0.000000e+00 0.000000e+00
 0.000000e+00 8.797948e-01 1.202052e-01 0.000000e+00 0.000000e+00
 0.000000e+00 0.000000e+00 8.092887e-01 1.907113e-01 0.000000e+00
 0.000000e+00 0.000000e+00 0.000000e+00 8.846651e-01 1.153350e-01
 0.000000e+00 0.000000e+00 0.000000e+00 0.000000e+00 0.000000e+00
<ENDHMM>
