~o
<STREAMINFO> 1 39
<VECSIZE> 39<NULLD><MFCC_D_A><DIAGC>
~h "gh"
<BEGINHMM>
<NUMSTATES> 5
<STATE> 2
<NUMMIXES> 2
<MIXTURE> 1 4.682730e-01
<MEAN> 39
 8.644326e-01 1.490908e+01 1.144772e+01 1.448827e+01 1.259714e+01 -1.290432e+00 -1.037705e+00 -4.352517e+00 -2.094812e+00 -4.268267e+00 -4.817360e+00 -9.087104e-01 -5.729655e+00 -2.254989e-01 4.549438e-01 1.219974e-01 1.183658e-01 3.376317e-02 2.203792e-01 2.611400e-01 -4.389531e-02 1.617941e-01 2.109786e-01 3.112944e-02 1.351206e-01 1.098183e-01 -9.503958e-02 -2.023338e-01 8.423321e-03 -1.792462e-01 1.085215e-03 5.359229e-02 1.169389e-01 7.045887e-02 -1.413909e-02 -1.334632e-02 2.538027e-02 -3.460591e-02 3.830585e-04
<VARIANCE> 39
 2.494245e+01 7.155690e+01 2.084467e+01 3.763486e+01 5.972277e+01 7.534790e+01 3.651933e+01 4.163271e+01 2.950587e+01 3.245839e+01 3.321171e+01 2.659614e+01 2.823500e+01 3.473500e-01 6.823775e-01 6.206638e-01 8.884073e-01 7.111671e-01 8.397177e-01 1.020212e+00 1.027951e+00 9.329234e-01 8.841712e-01 8.367590e-01 8.184940e-01 7.454655e-01 5.103306e-02 1.753154e-01 1.294586e-01 1.815057e-01 1.497634e-01 1.637190e-01 2.103881e-01 2.159163e-01 1.836282e-01 1.708085e-01 1.593191e-01 1.619464e-01 1.399028e-01
<GCONST> 9.083552e+01
<MIXTURE> 2 5.317271e-01
<MEAN> 39
 -2.378720e+00 1.100134e+01 1.148845e+01 8.479171e+00 1.075334e+01 1.814079e-02 1.363737e+00 -3.636257e+00 -2.473208e+00 -4.487997e+00 -4.444975e+00 -1.658323e+00 -4.574906e+00 -6.711451e-01 -1.582425e+00 -5.803778e-01 -1.347496e+00 8.214172e-02 6.918015e-01 1.217397e+00 -9.689856e-02 -2.416435e-02 1.365680e-01 5.976889e-01 -3.348535e-02 1.114209e-01 -2.453682e-02 -8.349391e-01 -4.614148e-01 -7.331470e-01 -1.772578e-01 -6.645986e-02 1.931220e-01 1.390067e-02 -6.409742e-02 -2.601588e-02 2.660353e-01 6.285954e-03 1.084084e-01
<VARIANCE> 39
 4.930663e+01 8.365108e+01 3.996239e+01 7.425526e+01 7.843160e+01 7.118715e+01 6.111990e+01 5.111949e+01 4.338204e+01 4.102519e+01 3.638576e+01 3.215094e+01 2.691674e+01 2.227530e+00 1.076163e+01 4.356382e+00 7.498026e+00 3.799562e+00 4.437634e+00 5.306344e+00 4.082210e+00 2.957785e+00 2.800863e+00 2.813575e+00 2.445138e+00 1.749103e+00 2.871548e-01 1.193665e+00 6.077724e-01 9.373674e-01 6.259557e-01 6.475359e-01 6.948026e-01 5.926763e-01 5.153825e-01 4.416794e-01 4.649571e-01 4.220268e-01 3.027874e-01
<GCONST> 1.319524e+02
<STATE> 3
<NUMMIXES> 2
<MIXTURE> 1 6.550281e-01
<MEAN> 39
 -7.931734e+00 -5.379948e+00 4.062683e+00 -9.661695e+00 8.768199e+00 -4.031101e+00 6.502433e+00 -5.592039e+00 -4.085848e+00 -2.493098e+00 3.675464e+00 2.930655e-01 -2.089807e-01 4.573436e-01 1.635470e-01 8.787919e-01 1.029870e+00 6.034482e-01 -2.250897e-01 -2.835619e-01 2.896115e-01 2.573353e-01 7.822702e-02 -2.411497e-01 2.334338e-01 -2.319945e-01 1.419216e-01 6.973794e-02 -1.476337e-02 1.989191e-01 1.259504e-01 8.319355e-02 7.360902e-02 2.029109e-01 8.102269e-02 -3.238920e-02 -1.266568e-01 -6.569446e-02 -1.249013e-01
<VARIANCE> 39
 1.761475e+01 3.182782e+01 3.832729e+01 7.485448e+01 6.747504e+01 4.793411e+01 4.956275e+01 5.972980e+01 4.297500e+01 3.592201e+01 3.296178e+01 3.393840e+01 2.208918e+01 8.559942e-01 1.601192e+00 1.719262e+00 2.094802e+00 2.332665e+00 2.623399e+00 2.929214e+00 2.716794e+00 2.217677e+00 1.950975e+00 2.081836e+00 1.928123e+00 1.714849e+00 1.271305e-01 3.154490e-01 3.762301e-01 6.263753e-01 5.319190e-01 5.186195e-01 4.902146e-01 4.559541e-01 4.136911e-01 3.553461e-01 3.722272e-01 3.262903e-01 2.786019e-01
<GCONST> 1.156245e+02
<MIXTURE> 2 3.449718e-01
<MEAN> 39
 -7.016655e+00 -5.252388e+00 1.850199e+00 -8.587146e+00 9.791251e+00 9.817052e-01 1.002282e+01 -3.960491e+00 -3.788136e+00 -3.861176e+00 2.268339e+00 -1.713624e+00 -1.824020e+00 -4.227597e-01 -2.905840e+00 -1.602625e+00 -3.706972e+00 -1.263713e+00 -9.004415e-01 5.862044e-01 -6.389476e-01 -3.972133e-01 5.048631e-02 1.394792e+00 2.860382e-01 8.134876e-01 2.948602e-01 1.408755e+00 8.912366e-01 1.144278e+00 4.260109e-02 -3.896023e-01 -8.296098e-01 -1.853954e-01 5.698415e-02 -4.099282e-03 -3.799576e-01 1.317602e-01 -1.131833e-01
<VARIANCE> 39
 2.615876e+01 4.974195e+01 4.038161e+01 8.793549e+01 7.964752e+01 7.162610e+01 6.146703e+01 7.010265e+01 4.725254e+01 3.782289e+01 3.062751e+01 3.090588e+01 2.466897e+01 1.696607e+00 1.067649e+01 4.704671e+00 8.272078e+00 4.351841e+00 5.793781e+00 5.095895e+00 3.817748e+00 2.958908e+00 2.986771e+00 3.158031e+00 2.677914e+00 1.962949e+00 2.369490e-01 1.028738e+00 6.800183e-01 1.392278e+00 9.484298e-01 1.018291e+00 7.866167e-01 8.459060e-01 5.767258e-01 5.527074e-01 5.538905e-01 5.011604e-01 3.746513e-01
<GCONST> 1.340145e+02
<STATE> 4
<NUMMIXES> 2
<MIXTURE> 1 7.840225e-01
<MEAN> 39
 -1.487823e+00 -3.697357e+00 7.401285e+00 -4.509852e+00 1.275900e+01 -5.375053e+00 7.066244e+00 -7.011330e-01 -7.742812e-01 -2.386136e+00 2.967401e+00 1.397896e+00 -1.081758e+00 4.493117e-01 1.673022e-01 -2.683819e-01 -5.693864e-02 -2.560933e-01 -4.682620e-01 -2.018551e-01 3.100569e-01 9.050885e-02 -7.603821e-02 -1.176212e-01 -3.617745e-02 -2.433510e-02 -2.893113e-02 -1.236144e-02 -9.389742e-02 -7.798439e-02 -6.653599e-02 -3.991736e-02 -5.399530e-02 -1.005613e-01 -7.153217e-02 -2.126485e-02 9.465985e-03 -1.377623e-02 2.282582e-02
<VARIANCE> 39
 1.200951e+01 2.638341e+01 3.763970e+01 3.567517e+01 5.456322e+01 4.935552e+01 5.564004e+01 5.675357e+01 7.781672e+01 4.897253e+01 3.789642e+01 4.218441e+01 3.341582e+01 3.241791e-01 6.116269e-01 8.249257e-01 1.006255e+00 1.257932e+00 1.756235e+00 2.022905e+00 1.946250e+00 2.022600e+00 1.634154e+00 1.351514e+00 1.331956e+00 1.097493e+00 4.376652e-02 8.831671e-02 1.364670e-01 1.885281e-01 2.344642e-01 2.799570e-01 3.229737e-01 3.102688e-01 3.144763e-01 2.865976e-01 2.620307e-01 2.469286e-01 1.997553e-01
<GCONST> 1.009658e+02
<MIXTURE> 2 2.159776e-01
<MEAN> 39
 1.029636e+01 -1.698318e+01 8.086507e+00 3.656602e+00 -1.247391e+01 1.453399e+01 -2.085945e+00 -7.665547e+00 4.248897e+00 -9.811321e+00 -7.596974e-01 2.955302e+00 -1.000267e+01 4.355772e-01 -1.020869e-01 -1.431876e-02 1.903380e-02 -2.976739e-01 -7.353492e-01 -2.629669e-01 6.338342e-02 -9.364813e-02 -1.935896e-01 1.662789e-02 -5.123439e-03 -2.861855e-01 1.386031e-03 3.072544e-01 3.166421e-02 1.089877e-01 1.517696e-01 -2.587611e-01 -7.096779e-02 8.097845e-02 -9.366296e-02 -3.202196e-02 -7.037731e-02 -1.060527e-01 3.582385e-02
<VARIANCE> 39
 3.582306e+01 1.270731e+02 3.727781e+01 9.023820e+01 1.117751e+02 1.262576e+02 5.250108e+01 6.025857e+01 5.604535e+01 4.769836e+01 7.574537e+01 3.922710e+01 2.365993e+01 1.236112e+00 4.943333e+00 2.565385e+00 3.643845e+00 3.817870e+00 4.644053e+00 2.831089e+00 2.486946e+00 2.660613e+00 2.252224e+00 2.704748e+00 2.300188e+00 1.527754e+00 2.038876e-01 8.601012e-01 5.030494e-01 5.884333e-01 6.418775e-01 7.265545e-01 5.065340e-01 4.405440e-01 4.632229e-01 3.989407e-01 4.225388e-01 3.439097e-01 2.829776e-01
<GCONST> 1.277010e+02
<TRANSP> 5
 0.000000e+00 1.000000e+00 0.000000e+00 0.000000e+00 0.000000e+00
 0.000000e+00 8.953214e-01 1.046786e-01 0.000000e+00 0.000000e+00
 0.000000e+00 0.000000e+00 8.772258e-01 1.227742e-01 0.000000e+00
 0.000000e+00 0.000000e+00 0.000000e+00 8.708782e-01 1.291219e-01
 0.000000e+00 0.000000e+00 0.000000e+00 0.000000e+00 0.000000e+00
<ENDHMM>
