~o
<STREAMINFO> 1 39
<VECSIZE> 39<NULLD><MFCC_D_A><DIAGC>
~h "a"
<BEGINHMM>
<NUMSTATES> 7
<STATE> 2
<NUMMIXES> 2
<MIXTURE> 1 7.872335e-01
<MEAN> 39
 -3.179687e+00 -2.249667e+00 3.396978e+00 -2.869231e+00 5.293215e+00 -5.076448e+00 1.277629e+00 -1.486030e+00 -2.096730e+00 -4.975137e+00 -2.303946e+00 3.279180e-01 -1.469663e+00 1.279485e+00 -5.562941e-01 -6.084660e-01 -5.702821e-01 -2.874967e-01 -1.171492e+00 -4.674460e-01 -1.239500e-02 -3.289001e-01 -4.477532e-01 3.745376e-02 2.030683e-01 8.219355e-03 1.668069e-02 -6.481380e-02 -1.119404e-01 1.704047e-02 -3.107501e-02 -4.645489e-02 -4.294567e-02 4.530218e-02 2.762659e-02 6.271578e-03 4.899759e-02 4.237609e-02 -2.523056e-02
<VARIANCE> 39
 8.075652e+01 6.793382e+01 6.377005e+01 7.924471e+01 9.307743e+01 8.982010e+01 7.256389e+01 8.788819e+01 7.180559e+01 5.612871e+01 4.409168e+01 3.735694e+01 3.821613e+01 3.409895e+00 4.532828e+00 3.144486e+00 3.853454e+00 3.300609e+00 4.773712e+00 4.225457e+00 3.579927e+00 3.553942e+00 3.216597e+00 2.660192e+00 2.210077e+00 2.103386e+00 4.859138e-01 7.208987e-01 4.975238e-01 6.237313e-01 5.107429e-01 6.655184e-01 6.346371e-01 5.754601e-01 5.255576e-01 5.034181e-01 4.335802e-01 3.449420e-01 3.267072e-01
<GCONST> 1.329623e+02
<MIXTURE> 2 2.127664e-01
<MEAN> 39
 1.424066e+01 -1.699365e+01 3.315452e+00 7.677826e+00 -1.542990e+01 7.144649e+00 -4.961087e+00 -1.147401e+01 1.744093e+00 -1.092362e+01 -5.128817e+00 4.333099e+00 -7.780540e+00 8.542280e-01 -5.238889e-01 -6.482453e-01 -4.194680e-01 -5.771986e-01 -8.999945e-01 -5.125770e-01 -1.019233e-01 -3.944205e-01 -2.622348e-01 4.557564e-01 1.643230e-01 -1.469549e-01 -2.299221e-01 1.842564e-01 -1.319317e-03 -1.413811e-03 2.295001e-01 -9.818329e-03 7.322092e-02 1.391757e-01 2.914159e-02 1.776622e-01 6.770329e-02 -6.486014e-02 5.988142e-02
<VARIANCE> 39
 3.412450e+01 5.063353e+01 4.699573e+01 5.052298e+01 5.083838e+01 6.899914e+01 7.998328e+01 8.006034e+01 6.310790e+01 4.979426e+01 4.326746e+01 3.514137e+01 4.111067e+01 1.657413e+00 3.939176e+00 1.997566e+00 1.566274e+00 3.003908e+00 3.511385e+00 2.555938e+00 2.389777e+00 2.819097e+00 2.067175e+00 1.933981e+00 1.763224e+00 1.511714e+00 2.687517e-01 7.911570e-01 3.496093e-01 2.773877e-01 5.451872e-01 6.806766e-01 4.266505e-01 3.836173e-01 5.251341e-01 3.400636e-01 3.314144e-01 3.085026e-01 2.552735e-01
<GCONST> 1.214612e+02
<STATE> 3
<NUMMIXES> 2
<MIXTURE> 1 3.965995e-01
<MEAN> 39
 1.745788e+01 -1.756314e+01 -2.700257e+00 3.229157e+00 -1.676220e+01 -3.479994e-01 -4.572661e+00 -6.077092e+00 -1.085409e+00 -1.227850e+01 -2.821652e+00 2.043008e+00 -1.009410e+01 3.758103e-02 -1.179344e-01 -9.539749e-02 -8.666567e-02 5.520480e-02 1.515581e-02 -1.186116e-01 -8.684681e-02 4.288290e-02 1.116737e-01 1.467084e-01 5.566427e-02 -3.734902e-02 -3.081318e-02 7.993557e-02 1.197191e-01 8.074135e-02 4.338482e-02 1.208044e-01 -9.998424e-03 -8.144352e-02 2.816246e-02 9.784561e-04 -6.494973e-02 -5.911701e-03 5.768920e-03
<VARIANCE> 39
 9.067573e+00 3.102454e+01 4.111535e+01 4.605965e+01 5.001830e+01 4.603324e+01 1.142083e+02 9.968241e+01 5.216511e+01 6.713089e+01 4.715205e+01 3.314694e+01 6.046264e+01 4.587402e-01 9.029248e-01 6.669797e-01 6.545375e-01 1.072694e+00 1.129107e+00 1.019748e+00 1.092519e+00 9.348997e-01 9.256667e-01 7.323218e-01 6.503346e-01 6.961509e-01 9.178542e-02 1.258923e-01 7.887962e-02 8.947030e-02 1.702926e-01 1.807150e-01 1.330449e-01 1.213902e-01 1.513501e-01 1.429779e-01 1.103079e-01 9.708764e-02 1.127712e-01
<GCONST> 9.132964e+01
<MIXTURE> 2 6.034005e-01
<MEAN> 39
 4.315876e+00 -4.314248e+00 5.910121e-02 -6.405894e+00 7.107081e+00 -1.353725e+01 -3.636195e+00 -1.661999e+00 -4.909438e+00 -8.848833e+00 -2.828868e+00 1.265141e+00 -1.665057e+00 2.593053e-01 -5.037144e-01 -7.270840e-01 -5.482010e-01 -1.151484e-01 -6.248556e-01 -2.592063e-01 9.610263e-02 3.606269e-02 1.082448e-01 4.284245e-01 3.590258e-01 1.079293e-01 -2.209659e-01 9.611586e-02 2.174370e-01 1.548931e-01 5.125613e-02 3.533426e-01 1.881328e-01 -4.232838e-02 9.342097e-02 1.079690e-01 -5.021226e-02 -1.165054e-01 -4.808175e-02
<VARIANCE> 39
 1.430739e+01 3.201833e+01 4.935797e+01 5.368857e+01 9.574226e+01 8.236903e+01 7.428676e+01 9.899070e+01 1.029183e+02 6.929833e+01 6.391456e+01 5.316256e+01 6.452457e+01 3.099816e-01 8.122888e-01 1.071341e+00 1.208237e+00 1.475574e+00 2.108274e+00 1.906123e+00 1.916032e+00 1.999096e+00 1.927680e+00 1.677341e+00 1.481322e+00 1.252452e+00 9.781261e-02 1.243677e-01 1.827993e-01 2.237241e-01 2.561819e-01 3.884244e-01 3.579633e-01 3.516055e-01 3.596416e-01 3.508354e-01 3.062755e-01 2.549531e-01 2.142790e-01
<GCONST> 1.103796e+02
<STATE> 4
<NUMMIXES> 2
<MIXTURE> 1 1.686961e-01
<MEAN> 39
 1.691116e+01 -2.080975e+01 1.064885e+00 7.852135e+00 -1.620485e+01 5.904576e+00 -7.746910e+00 -1.511908e+01 8.320792e-01 -8.661975e+00 -1.656839e+00 6.046952e+00 -6.822386e+00 -6.102657e-03 1.919175e-01 5.999289e-02 1.118101e-01 2.014924e-01 1.742637e-01 -7.662463e-02 -1.812137e-01 -9.511387e-03 4.058360e-02 -7.363687e-02 -4.321533e-02 -3.695194e-02 -4.966476e-02 1.727929e-01 2.752585e-02 7.086714e-02 1.383992e-01 1.011098e-02 7.335555e-02 3.588472e-02 -7.077736e-02 -1.413027e-02 -1.008846e-01 -8.497397e-02 3.844562e-02
<VARIANCE> 39
 5.475951e+00 1.761063e+01 1.962094e+01 2.713809e+01 3.447795e+01 3.044986e+01 5.326326e+01 4.033580e+01 3.058674e+01 3.376244e+01 2.553159e+01 2.206049e+01 2.695202e+01 2.499505e-01 5.376631e-01 3.670244e-01 5.489983e-01 8.876221e-01 7.597423e-01 9.568176e-01 9.166954e-01 7.278739e-01 7.201737e-01 5.710646e-01 4.838028e-01 5.449945e-01 4.385996e-02 6.408574e-02 3.833328e-02 5.860665e-02 1.172852e-01 1.086714e-01 9.498800e-02 8.570410e-02 1.098300e-01 9.928416e-02 7.116663e-02 7.347422e-02 8.352976e-02
<GCONST> 7.364613e+01
<MIXTURE> 2 8.313040e-01
<MEAN> 39
 4.842272e+00 -6.976922e+00 -2.613729e+00 -7.830491e+00 4.773611e+00 -1.449180e+01 -3.308029e+00 -1.867571e+00 -4.508782e+00 -7.314887e+00 -8.180174e-01 8.876101e-01 -3.164327e+00 -1.640947e-02 1.073491e-01 2.853221e-03 3.970060e-02 8.929040e-02 7.602717e-02 -6.224737e-03 -9.434838e-02 -4.869050e-02 7.039565e-03 -2.462081e-02 -3.355557e-02 -3.070523e-02 -1.408143e-02 1.014963e-01 7.251067e-02 8.576795e-02 5.143165e-02 6.957774e-02 1.881392e-02 -1.563914e-03 -4.067904e-02 -3.659518e-02 -5.878565e-02 -4.126930e-02 -9.392831e-03
<VARIANCE> 39
 1.142216e+01 3.165166e+01 4.366249e+01 4.258284e+01 8.092707e+01 7.395259e+01 7.017697e+01 8.796213e+01 8.556957e+01 7.374552e+01 5.387737e+01 5.894333e+01 7.890352e+01 1.126621e-01 3.791468e-01 4.941522e-01 5.764735e-01 8.373643e-01 9.128959e-01 9.982199e-01 1.112600e+00 1.117955e+00 1.060055e+00 9.145273e-01 7.728506e-01 6.644947e-01 1.654670e-02 4.447763e-02 6.323893e-02 8.569381e-02 1.050096e-01 1.412794e-01 1.433961e-01 1.505119e-01 1.535460e-01 1.529729e-01 1.414157e-01 1.247755e-01 1.083856e-01
<GCONST> 8.805394e+01
<STATE> 5
<NUMMIXES> 2
<MIXTURE> 1 3.274862e-01
<MEAN> 39
 1.565865e+01 -1.233788e+01 2.700561e+00 9.040093e+00 -1.070690e+01 6.358183e+00 -6.646874e+00 -1.304768e+01 -2.594370e-01 -9.876377e+00 -5.769975e+00 2.328826e+00 -7.836297e+00 -4.500151e-01 1.188154e+00 3.931815e-01 4.971658e-01 8.980603e-01 3.703977e-01 4.402639e-01 2.029734e-01 -7.780301e-04 2.885675e-01 -4.443923e-01 -3.836578e-01 2.037029e-01 -4.970076e-02 -2.432398e-02 2.411850e-03 -3.040172e-02 -5.270099e-02 -3.558298e-02 -2.419744e-03 5.253361e-02 7.046461e-02 3.663708e-02 3.136652e-02 2.882485e-02 3.676476e-03
<VARIANCE> 39
 1.066194e+01 4.054264e+01 3.182766e+01 4.413118e+01 5.624810e+01 5.313384e+01 6.337402e+01 6.233257e+01 5.938840e+01 5.650154e+01 4.877337e+01 4.026981e+01 4.260938e+01 4.653563e-01 1.700152e+00 1.148245e+00 1.048533e+00 1.991468e+00 2.022672e+00 1.903823e+00 1.753874e+00 1.853652e+00 1.894776e+00 1.556047e+00 1.340357e+00 1.318591e+00 8.008689e-02 2.595083e-01 1.627937e-01 1.605239e-01 3.269947e-01 3.249677e-01 3.190532e-01 2.944275e-01 3.015796e-01 3.121562e-01 2.518576e-01 2.207411e-01 2.159083e-01
<GCONST> 1.066387e+02
<MIXTURE> 2 6.725137e-01
<MEAN> 39
 3.919473e+00 -1.993280e+00 -2.839089e-01 -5.566134e+00 7.971754e+00 -1.204634e+01 -3.831244e+00 -2.512939e+00 -6.120696e+00 -9.328876e+00 -3.851528e+00 -1.888469e-01 -2.770391e+00 -1.607161e-01 8.710347e-01 6.883529e-01 9.498132e-01 3.766065e-01 1.309515e+00 3.691719e-01 1.313499e-01 -3.925909e-02 5.249934e-04 -5.352515e-01 -4.904266e-01 -2.467126e-01 -7.753897e-02 8.142123e-02 1.423083e-01 1.764007e-01 -4.808727e-02 2.620299e-01 8.626334e-02 6.451181e-02 1.343233e-01 1.045924e-01 -4.667054e-02 -5.363414e-02 -3.943408e-02
<VARIANCE> 39
 1.298906e+01 3.128396e+01 4.793500e+01 5.207529e+01 9.434986e+01 8.498817e+01 6.694610e+01 9.970148e+01 9.901406e+01 6.670986e+01 6.419768e+01 6.242610e+01 7.238360e+01 2.844573e-01 9.303643e-01 1.124532e+00 1.564666e+00 1.786839e+00 2.921505e+00 2.269697e+00 2.456332e+00 2.440305e+00 2.426225e+00 2.012294e+00 1.920364e+00 1.493782e+00 4.433346e-02 1.213667e-01 1.728750e-01 2.259940e-01 2.664617e-01 4.388767e-01 3.462482e-01 3.619398e-01 3.643623e-01 3.692178e-01 3.286349e-01 3.026915e-01 2.253795e-01
<GCONST> 1.123201e+02
<STATE> 6
<NUMMIXES> 2
<MIXTURE> 1 5.280812e-01
<MEAN> 39
 -7.266554e-01 1.881641e+00 4.000153e+00 1.562218e-01 4.898864e+00 -1.338476e+00 -3.217449e-01 -1.896806e+00 -3.281758e+00 -5.141702e+00 -4.220497e+00 3.414019e-01 -6.519054e-01 -6.058453e-01 6.473781e-01 4.379095e-01 8.049770e-01 -2.435210e-02 7.329386e-01 -1.968957e-03 1.956168e-01 3.268519e-01 3.737960e-01 -5.971264e-02 -1.337391e-01 -6.575822e-02 2.384493e-03 -1.318374e-01 -1.256933e-01 -1.488993e-01 -3.557584e-02 -2.693774e-01 -1.429045e-01 -4.913880e-02 -1.269499e-02 -3.848555e-02 6.931399e-02 5.781341e-02 3.351464e-02
<VARIANCE> 39
 5.206289e+01 5.656034e+01 6.610916e+01 7.256588e+01 9.847241e+01 7.277397e+01 6.856801e+01 9.397572e+01 6.565105e+01 5.025291e+01 5.022869e+01 4.892577e+01 4.668367e+01 1.572773e+00 2.642621e+00 2.917222e+00 2.949088e+00 2.796786e+00 4.001035e+00 3.340194e+00 3.041703e+00 2.905277e+00 2.810671e+00 2.465533e+00 2.440341e+00 1.863365e+00 2.076435e-01 3.787266e-01 4.350076e-01 4.374718e-01 4.498865e-01 6.039913e-01 5.558206e-01 5.038867e-01 4.819021e-01 4.689139e-01 4.093503e-01 4.058967e-01 3.254451e-01
<GCONST> 1.271851e+02
<MIXTURE> 2 4.719187e-01
<MEAN> 39
 1.784822e+00 1.241416e+00 2.355448e+00 2.259197e+00 1.258614e+00 -1.336156e+00 -2.342743e+00 -3.042552e+00 -1.040211e+00 -4.582860e+00 -5.185648e+00 -4.070869e-02 -2.155193e+00 -3.617894e-01 3.208275e-01 1.167378e-01 1.768646e-01 1.127147e-01 1.257832e-01 4.489464e-02 7.122079e-02 1.253174e-01 1.643579e-01 -3.356058e-03 -3.811873e-02 3.814110e-02 1.014118e-02 -9.976883e-02 -1.816805e-02 -6.203046e-02 -6.942383e-03 -5.012912e-02 2.473629e-02 8.422207e-03 -2.780149e-02 -2.938558e-02 4.105355e-02 5.229741e-02 1.396718e-02
<VARIANCE> 39
 6.242489e+01 7.298302e+01 5.725495e+01 8.176451e+01 1.177257e+02 8.324488e+01 7.218140e+01 1.036411e+02 7.234034e+01 6.177736e+01 5.428497e+01 5.487981e+01 5.302179e+01 2.626126e-01 5.238581e-01 6.255064e-01 7.857872e-01 9.003549e-01 1.101470e+00 1.124329e+00 1.163817e+00 1.202883e+00 1.127690e+00 1.053014e+00 9.685438e-01 8.324688e-01 2.851385e-02 8.686414e-02 1.102344e-01 1.402975e-01 1.618487e-01 2.251914e-01 2.079856e-01 2.131062e-01 2.167523e-01 2.148742e-01 2.037339e-01 1.897916e-01 1.576220e-01
<GCONST> 9.998086e+01
<TRANSP> 7
 0.000000e+00 1.000000e+00 0.000000e+00 0.000000e+00 0.000000e+00 0.000000e+00 0.000000e+00
 0.000000e+00 7.159216e-01 2.840784e-01 0.000000e+00 0.000000e+00 0.000000e+00 0.000000e+00
 0.000000e+00 0.000000e+00 7.187976e-01 2.812024e-01 0.000000e+00 0.000000e+00 0.000000e+00
 0.000000e+00 0.000000e+00 0.000000e+00 8.575118e-01 1.424882e-01 0.000000e+00 0.000000e+00
 0.000000e+00 0.000000e+00 0.000000e+00 0.000000e+00 7.677573e-01 2.322427e-01 0.000000e+00
 0.000000e+00 0.000000e+00 0.000000e+00 0.000000e+00 0.000000e+00 7.963975e-01 2.036025e-01
 0.000000e+00 0.000000e+00 0.000000e+00 0.000000e+00 0.000000e+00 0.000000e+00 0.000000e+00
<ENDHMM>
~o
<STREAMINFO> 1 39
<VECSIZE> 39<NULLD><MFCC_D_A><DIAGC>
~h "aa"
<BEGINHMM>
<NUMSTATES> 7
<STATE> 2
<NUMMIXES> 2
<MIXTURE> 1 2.718164e-01
<MEAN> 39
 1.757736e+01 -1.862585e+01 -3.566152e-01 4.659739e+00 -1.861436e+01 4.694963e+00 -1.604907e+00 -6.912400e+00 4.371696e+00 -8.440360e+00 -3.839554e+00 5.048488e+00 -7.126139e+00 6.161525e-02 -2.773085e-01 -4.920664e-01 -5.046616e-01 -3.205373e-01 -4.207492e-02 7.171639e-01 6.939081e-01 7.371892e-02 -8.499268e-02 -3.785606e-02 4.798282e-02 8.422279e-02 -7.255559e-02 7.449283e-02 5.789522e-02 5.623886e-02 9.725574e-02 4.666178e-02 3.649806e-02 5.797911e-03 -2.203207e-02 -2.668885e-02 -8.315343e-02 -2.509164e-02 3.404003e-02
<VARIANCE> 39
 9.051030e+00 4.032338e+01 3.265299e+01 3.547076e+01 4.980136e+01 4.975345e+01 6.795023e+01 6.341245e+01 6.625436e+01 4.165354e+01 5.112719e+01 3.362208e+01 4.492123e+01 4.548737e-01 8.194071e-01 5.556561e-01 6.623144e-01 1.198531e+00 1.215402e+00 9.857832e-01 1.003005e+00 1.020882e+00 9.171849e-01 8.808823e-01 6.635077e-01 7.070021e-01 9.267843e-02 1.229922e-01 7.618169e-02 9.166161e-02 1.951234e-01 2.076485e-01 1.435054e-01 1.323149e-01 1.739800e-01 1.429225e-01 1.321816e-01 1.116336e-01 1.147236e-01
<GCONST> 9.073717e+01
<MIXTURE> 2 7.281835e-01
<MEAN> 39
 3.502550e-01 -4.485026e+00 2.234607e+00 -3.998711e+00 3.715179e+00 -7.121149e+00 1.818271e+00 -5.112495e-01 -1.257246e+00 -5.513491e+00 -1.266394e+00 1.310945e+00 -1.905833e+00 1.145062e+00 -4.977885e-01 -8.664345e-01 -6.416624e-01 -5.492758e-01 -1.148371e+00 -1.804384e-01 4.158921e-01 -2.291476e-02 -2.445204e-01 2.341164e-01 2.835962e-01 -1.015425e-02 -6.994857e-02 -3.351963e-02 -7.346506e-02 1.723489e-02 7.498151e-04 6.718871e-02 5.913622e-02 9.048519e-02 6.330632e-02 4.182893e-02 1.606906e-02 -1.582784e-02 -1.828083e-02
<VARIANCE> 39
 8.813446e+01 7.709074e+01 6.174168e+01 8.274229e+01 1.250310e+02 1.143437e+02 7.753192e+01 1.012519e+02 7.860178e+01 6.158330e+01 4.570931e+01 3.940547e+01 4.547472e+01 2.836290e+00 3.551419e+00 3.008206e+00 3.266928e+00 3.054142e+00 4.173918e+00 3.751841e+00 3.468011e+00 3.086885e+00 2.991366e+00 2.334856e+00 2.081756e+00 1.944743e+00 4.244376e-01 5.912237e-01 4.774373e-01 5.384824e-01 4.976037e-01 7.060042e-01 6.032227e-01 5.693419e-01 4.872997e-01 4.899759e-01 3.893713e-01 3.431166e-01 3.067855e-01
<GCONST> 1.320669e+02
<STATE> 3
<NUMMIXES> 2
<MIXTURE> 1 3.254263e-01
<MEAN> 39
 1.700095e+01 -2.110187e+01 -4.761429e+00 2.342703e+00 -2.276773e+01 1.947278e+00 8.923889e+00 1.916517e+00 1.821347e+00 -1.164640e+01 -6.205615e+00 4.952356e+00 -4.741393e+00 -1.188544e-02 -2.704405e-02 -4.674458e-02 -1.278866e-02 8.793505e-02 6.519510e-02 -2.192138e-02 -4.550802e-02 -3.088108e-02 -3.086814e-02 -3.525419e-03 2.933950e-02 -1.714470e-02 -4.919275e-04 1.928544e-02 2.931968e-02 2.166082e-02 2.260793e-02 2.100447e-02 -7.808164e-02 -8.352837e-02 -1.204237e-03 2.453928e-02 2.883911e-02 -7.733336e-04 -2.378458e-02
<VARIANCE> 39
 5.674279e+00 1.771794e+01 1.827955e+01 1.088956e+01 2.842540e+01 3.152662e+01 3.316713e+01 3.777574e+01 2.615647e+01 2.475689e+01 1.618507e+01 1.632935e+01 2.273472e+01 3.770108e-01 4.759651e-01 1.910349e-01 2.970964e-01 6.704454e-01 5.728032e-01 5.032679e-01 6.839261e-01 4.685308e-01 4.242786e-01 2.902187e-01 2.834375e-01 3.238818e-01 6.661958e-02 7.217110e-02 2.423902e-02 4.856918e-02 1.080591e-01 8.574232e-02 3.998115e-02 5.409108e-02 7.544729e-02 5.794213e-02 3.675384e-02 4.488632e-02 4.946107e-02
<GCONST> 6.108929e+01
<MIXTURE> 2 6.745737e-01
<MEAN> 39
 6.093205e+00 -6.565237e+00 -4.567435e+00 -7.865327e+00 4.506461e+00 -1.661993e+01 -7.857806e-01 6.144168e+00 2.314886e+00 -7.139490e+00 -9.231758e-01 3.374148e+00 -1.154779e+00 1.523008e-01 -3.173283e-01 -5.231579e-01 -2.830697e-01 -3.454828e-01 7.733348e-02 3.361876e-01 4.565277e-01 3.646322e-01 2.904406e-02 -2.994988e-02 1.363447e-02 -6.147021e-03 -5.299330e-02 5.017968e-02 1.118149e-01 7.553181e-02 4.514553e-02 1.297724e-01 1.604559e-02 -6.676415e-02 -3.073317e-02 -2.082838e-02 -5.745080e-02 -3.690901e-02 -9.202457e-03
<VARIANCE> 39
 1.253615e+01 3.000272e+01 3.630197e+01 4.280532e+01 9.027466e+01 5.990020e+01 8.498164e+01 1.006658e+02 1.169664e+02 5.846851e+01 4.936436e+01 4.536944e+01 6.358216e+01 1.673697e-01 4.691164e-01 7.154281e-01 8.774820e-01 1.045678e+00 1.389119e+00 1.423225e+00 1.433329e+00 1.426153e+00 1.424988e+00 1.186675e+00 1.045594e+00 8.603277e-01 3.538573e-02 6.845096e-02 1.107787e-01 1.393294e-01 1.629835e-01 2.291334e-01 2.292370e-01 2.355417e-01 2.256269e-01 2.278011e-01 2.020685e-01 1.819701e-01 1.450833e-01
<GCONST> 9.755056e+01
<STATE> 4
<NUMMIXES> 2
<MIXTURE> 1 3.218338e-01
<MEAN> 39
 2.213441e+00 -4.376540e+00 1.180383e+00 -1.506705e+01 -6.318194e+00 -5.754356e+00 4.443859e+00 -2.345805e+00 2.757684e+00 -8.779420e-01 -4.070021e+00 -1.556565e+00 5.559309e+00 -1.030488e-02 1.230374e-02 -2.830763e-02 -2.172291e-02 8.850871e-02 8.770628e-02 -1.093400e-02 -1.804381e-01 -1.546877e-01 -1.602511e-02 2.397320e-02 3.384339e-02 4.646250e-02 2.559140e-03 3.858386e-02 2.659087e-02 9.533714e-02 9.413078e-02 -3.156320e-02 -4.424486e-02 -1.864316e-02 -8.108541e-02 -5.248454e-02 1.157867e-02 1.471614e-02 -2.791037e-02
<VARIANCE> 39
 1.221177e+01 2.816737e+01 2.031754e+01 2.847499e+01 4.625335e+01 3.737724e+01 5.302398e+01 9.380091e+01 5.422806e+01 3.112334e+01 3.770868e+01 3.029338e+01 2.036015e+01 9.127155e-02 3.319331e-01 4.283130e-01 7.163165e-01 9.544305e-01 9.026835e-01 1.165896e+00 1.235621e+00 1.358299e+00 1.004305e+00 9.287105e-01 8.274161e-01 6.549287e-01 1.425173e-02 4.341369e-02 5.952668e-02 9.252099e-02 1.169286e-01 1.381751e-01 1.656650e-01 1.805348e-01 1.812176e-01 1.654898e-01 1.544918e-01 1.360492e-01 1.077828e-01
<GCONST> 8.267120e+01
<MIXTURE> 2 6.781662e-01
<MEAN> 39
 7.637889e+00 -9.009889e+00 -8.590162e+00 -8.773260e+00 8.407199e-01 -1.355999e+01 3.552754e+00 6.486834e+00 -1.931684e+00 -9.496287e+00 -1.222547e+00 7.906523e-01 -5.891490e+00 -1.713685e-02 1.926863e-02 1.088951e-02 1.415232e-02 8.789913e-02 6.091002e-02 -7.810839e-02 -1.234996e-01 -3.147024e-02 1.812985e-02 3.576986e-02 8.644423e-03 -2.121012e-02 -1.589711e-02 4.373515e-02 5.079190e-02 9.601537e-03 3.096897e-02 -2.454215e-02 -4.615075e-02 -6.575713e-02 -2.955049e-02 3.445340e-02 1.534410e-02 -6.574647e-03 8.011360e-03
<VARIANCE> 39
 1.007104e+01 2.714990e+01 2.228209e+01 3.492115e+01 5.975508e+01 4.340034e+01 7.077399e+01 6.761668e+01 8.578244e+01 7.312200e+01 4.011499e+01 4.043498e+01 6.700517e+01 7.317560e-02 2.121653e-01 2.994992e-01 3.311450e-01 4.754803e-01 6.049470e-01 6.604183e-01 7.634171e-01 6.568438e-01 7.831377e-01 5.971722e-01 5.151771e-01 4.409173e-01 1.078180e-02 2.542269e-02 3.868243e-02 5.335963e-02 6.663220e-02 8.376820e-02 9.198342e-02 9.170451e-02 9.874366e-02 1.020089e-01 9.277008e-02 8.099980e-02 7.258102e-02
<GCONST> 7.308930e+01
<STATE> 5
<NUMMIXES> 2
<MIXTURE> 1 3.352758e-01
<MEAN> 39
 1.744359e+01 -1.776457e+01 -3.552675e+00 8.367188e-01 -1.571932e+01 3.659575e+00 -3.855651e+00 -4.871062e+00 1.512215e-02 -1.464502e+01 -3.066297e+00 2.378013e+00 -1.284236e+01 -9.752723e-02 4.154050e-01 3.926435e-01 4.123130e-01 4.357971e-01 1.712818e-01 -4.738823e-01 -5.990447e-01 -1.101417e-01 1.448546e-01 -6.458463e-02 -1.519007e-01 -6.135803e-02 -4.800171e-02 9.967890e-02 3.950955e-02 4.194315e-02 7.023945e-02 8.757803e-05 7.198704e-02 5.761582e-02 -1.319619e-02 1.190371e-02 -5.528602e-02 -3.786812e-02 4.227304e-02
<VARIANCE> 39
 8.758276e+00 3.078251e+01 3.672709e+01 5.020674e+01 5.050590e+01 4.413057e+01 6.483643e+01 9.973602e+01 4.465572e+01 8.075751e+01 4.156245e+01 3.505200e+01 5.476982e+01 5.256433e-01 1.198482e+00 7.233585e-01 7.210218e-01 1.377859e+00 1.219981e+00 1.296715e+00 1.285236e+00 1.141755e+00 1.169449e+00 9.085993e-01 7.650812e-01 8.837689e-01 9.807896e-02 1.561468e-01 9.083810e-02 9.632501e-02 1.968161e-01 1.994858e-01 1.803386e-01 1.728674e-01 1.838434e-01 1.863000e-01 1.410941e-01 1.181721e-01 1.392524e-01
<GCONST> 9.541132e+01
<MIXTURE> 2 6.647242e-01
<MEAN> 39
 5.520519e+00 -6.348177e+00 -4.539917e+00 -9.191795e+00 6.111331e+00 -1.478816e+01 -1.649174e+00 2.009802e-01 -2.444335e+00 -6.738208e+00 -2.804600e-01 1.814787e+00 -3.363403e+00 -1.974161e-01 5.967138e-01 6.315218e-01 4.070784e-01 6.693662e-01 1.553783e-01 -3.920928e-01 -6.933525e-01 -6.066096e-01 7.377747e-02 -4.251109e-02 -1.616609e-01 -3.156802e-02 -3.373015e-02 1.006556e-01 1.107425e-01 1.419023e-01 3.651916e-02 2.103526e-01 7.163232e-02 5.082275e-02 -1.416692e-02 -3.931514e-02 -9.666710e-02 -6.005422e-02 -2.483737e-02
<VARIANCE> 39
 1.152021e+01 3.127776e+01 3.930031e+01 4.745012e+01 7.701832e+01 6.044647e+01 7.005915e+01 9.607381e+01 8.256530e+01 7.024655e+01 5.171893e+01 5.369472e+01 8.557866e+01 1.540808e-01 4.650265e-01 6.657578e-01 9.710361e-01 1.153661e+00 1.733894e+00 1.514858e+00 1.601738e+00 1.579386e+00 1.663297e+00 1.402730e+00 1.178823e+00 1.062455e+00 2.659371e-02 6.353953e-02 9.896991e-02 1.381275e-01 1.641543e-01 2.659875e-01 2.365895e-01 2.511101e-01 2.450541e-01 2.580318e-01 2.231542e-01 1.989313e-01 1.676105e-01
<GCONST> 9.914449e+01
<STATE> 6
<NUMMIXES> 2
<MIXTURE> 1 3.690639e-01
<MEAN> 39
 3.294517e+00 -4.920621e-01 7.233723e-01 1.673923e+00 -3.132816e-01 -5.692138e-01 1.291740e+00 1.092776e+00 -2.347192e-01 -5.563328e+00 -4.661621e+00 9.585643e-01 -3.022156e+00 -4.182783e-01 5.602683e-01 1.656166e-01 3.728577e-01 2.463704e-01 2.531891e-01 3.252114e-02 1.190340e-01 1.117133e-01 1.790466e-01 -7.974730e-02 -7.775833e-02 2.879289e-02 -5.766987e-03 -1.260562e-01 -6.668572e-02 -1.208407e-01 -5.115183e-02 -1.047175e-01 -1.944810e-02 -3.599220e-02 -4.526697e-04 1.766589e-02 8.613262e-02 7.362109e-02 4.080508e-02
<VARIANCE> 39
 6.581385e+01 8.160679e+01 5.367439e+01 6.847063e+01 1.269524e+02 9.301930e+01 9.118561e+01 1.268136e+02 6.290585e+01 5.650088e+01 5.056205e+01 4.823100e+01 4.562616e+01 3.147212e-01 1.049922e+00 8.944564e-01 1.091633e+00 1.275039e+00 1.440002e+00 1.457047e+00 1.542216e+00 1.397401e+00 1.381449e+00 1.266873e+00 1.144167e+00 9.879701e-01 4.373163e-02 1.310646e-01 1.391734e-01 1.761428e-01 2.102869e-01 2.711306e-01 2.565921e-01 2.683560e-01 2.472637e-01 2.489187e-01 2.297310e-01 2.155475e-01 1.813886e-01
<GCONST> 1.063951e+02
<MIXTURE> 2 6.309361e-01
<MEAN> 39
 1.823818e+00 -2.187671e-01 1.094103e+00 -3.642989e+00 6.063756e+00 -4.863646e+00 7.046157e-01 -3.450130e-01 -3.858921e+00 -4.866911e+00 -1.621741e+00 7.302427e-01 -8.266141e-01 -5.526470e-01 7.865519e-01 7.978472e-01 1.063397e+00 2.690524e-01 1.179905e+00 1.547472e-01 1.423123e-01 1.315075e-02 8.778621e-02 -3.568900e-01 -3.074601e-01 -2.024809e-01 -3.466689e-02 -8.108650e-02 -5.032911e-02 -2.575203e-02 -1.031774e-01 -6.965946e-02 -2.631292e-02 5.163229e-02 1.253693e-01 2.306768e-02 1.428982e-02 8.056295e-03 -4.974387e-03
<VARIANCE> 39
 4.191809e+01 4.628174e+01 5.791528e+01 6.521604e+01 1.000039e+02 9.252058e+01 7.096631e+01 1.175633e+02 7.734563e+01 5.874776e+01 5.643050e+01 4.614293e+01 5.472456e+01 1.447210e+00 2.200509e+00 2.767371e+00 2.882722e+00 2.796972e+00 3.854368e+00 3.271924e+00 3.407336e+00 2.985964e+00 2.986609e+00 2.521156e+00 2.418611e+00 1.961120e+00 2.191981e-01 3.012125e-01 4.445629e-01 4.425687e-01 4.367876e-01 6.433439e-01 5.483223e-01 5.416350e-01 4.990275e-01 4.835593e-01 4.224813e-01 4.054037e-01 3.257126e-01
<GCONST> 1.274934e+02
<TRANSP> 7
 0.000000e+00 1.000000e+00 0.000000e+00 0.000000e+00 0.000000e+00 0.000000e+00 0.000000e+00
 0.000000e+00 8.184704e-01 1.815296e-01 0.000000e+00 0.000000e+00 0.000000e+00 0.000000e+00
 0.000000e+00 0.000000e+00 8.765878e-01 1.234122e-01 0.000000e+00 0.000000e+00 0.000000e+00
 0.000000e+00 0.000000e+00 0.000000e+00 9.145483e-01 8.545174e-02 0.000000e+00 0.000000e+00
 0.000000e+00 0.000000e+00 0.000000e+00 0.000000e+00 8.416378e-01 1.583622e-01 0.000000e+00
 0.000000e+00 0.000000e+00 0.000000e+00 0.000000e+00 0.000000e+00 8.445575e-01 1.554425e-01
 0.000000e+00 0.000000e+00 0.000000e+00 0.000000e+00 0.000000e+00 0.000000e+00 0.000000e+00
<ENDHMM>
~o
<STREAMINFO> 1 39
<VECSIZE> 39<NULLD><MFCC_D_A><DIAGC>
~h "ae"
<BEGINHMM>
<NUMSTATES> 7
<STATE> 2
<NUMMIXES> 2
<MIXTURE> 1 7.064996e-01
<MEAN> 39
 -1.082490e+01 -2.205731e+00 5.303984e+00 -3.936108e-01 9.573312e+00 -2.517352e+00 4.987957e+00 3.612279e-02 -4.478773e-01 -8.971024e-02 2.084468e+00 -2.158665e-01 3.738647e-01 8.231757e-01 1.290459e-01 1.323285e-01 3.894646e-02 1.901199e-01 -2.664116e-01 -8.731585e-02 -2.745119e-01 -4.014448e-01 -1.641015e-01 1.530674e-01 3.307842e-02 -9.732073e-03 1.960543e-01 -3.446602e-02 -1.439152e-01 -1.187873e-01 6.398010e-02 -1.389113e-01 -2.128841e-01 1.062796e-01 -1.460427e-01 -1.430613e-01 1.044815e-01 8.259702e-02 4.982735e-02
<VARIANCE> 39
 1.005825e+02 7.495232e+01 5.420060e+01 4.939668e+01 6.328093e+01 4.841603e+01 3.080686e+01 5.247520e+01 3.942926e+01 2.823616e+01 2.577264e+01 3.704416e+01 2.469362e+01 4.335318e+00 2.789690e+00 1.880179e+00 2.573489e+00 2.688108e+00 2.921860e+00 2.525325e+00 2.469796e+00 2.632134e+00 2.172953e+00 1.827694e+00 1.704116e+00 1.445082e+00 3.070583e-01 4.040945e-01 3.984106e-01 4.581141e-01 4.275272e-01 5.355807e-01 4.769048e-01 5.209459e-01 4.100277e-01 3.687295e-01 3.912844e-01 3.138223e-01 2.460617e-01
<GCONST> 1.201622e+02
<MIXTURE> 2 2.935003e-01
<MEAN> 39
 1.621419e+00 -4.223387e+00 1.606920e+00 -3.197364e+00 1.527731e+01 -8.797317e+00 -9.489897e-01 -5.779846e-01 -1.025954e+01 -7.974779e+00 5.101108e+00 3.405774e-01 1.752278e+00 1.479898e+00 -9.193066e-01 -1.646459e+00 -1.113508e+00 7.852168e-01 -1.465781e+00 -1.673946e+00 9.791315e-01 -9.839416e-01 -6.648808e-01 1.460986e+00 9.991900e-01 8.378551e-01 -4.764269e-01 -1.419585e-01 -1.286209e-02 9.669881e-02 -1.514018e-01 1.519575e-01 2.364313e-01 -2.686626e-02 4.614045e-01 4.455941e-01 1.262343e-02 4.440379e-02 5.882763e-02
<VARIANCE> 39
 9.984417e+00 1.468571e+01 3.508984e+01 2.553106e+01 4.605531e+01 1.942422e+01 3.688374e+01 3.740538e+01 2.684497e+01 3.106937e+01 3.354734e+01 1.528520e+01 2.727995e+01 2.104381e+00 1.520106e+00 1.687392e+00 1.581686e+00 2.083291e+00 1.994629e+00 2.213591e+00 2.392408e+00 2.403843e+00 2.034718e+00 2.175831e+00 1.289612e+00 1.606303e+00 4.023492e-01 3.171112e-01 2.972919e-01 3.019054e-01 4.092196e-01 3.100869e-01 4.298648e-01 4.412402e-01 2.856371e-01 3.130848e-01 3.256873e-01 2.002894e-01 2.232571e-01
<GCONST> 1.072500e+02
<STATE> 3
<NUMMIXES> 2
<MIXTURE> 1 3.523380e-01
<MEAN> 39
 -1.508663e+01 6.296096e+00 1.822169e-01 3.297626e+00 3.238006e+00 4.223138e+00 5.056267e+00 5.660669e+00 4.246583e+00 5.388397e+00 4.500048e+00 3.865308e+00 1.008486e+00 -7.187875e-02 -2.652027e-03 2.283872e-02 -1.681740e-02 -6.647720e-02 -4.430503e-02 6.076000e-03 -3.610508e-02 7.826580e-02 5.529538e-02 3.822698e-02 6.070056e-02 -9.582168e-03 9.099232e-03 -2.036782e-02 -3.255436e-03 -1.346219e-02 1.146254e-02 -3.407930e-02 5.707907e-03 -1.288960e-02 -2.473488e-02 -1.315990e-03 -3.694563e-03 -1.233401e-03 -1.823645e-02
<VARIANCE> 39
 1.008545e+01 3.217258e+00 2.469455e+01 2.445822e+01 1.914604e+01 1.405994e+01 1.031294e+01 2.020430e+01 2.434499e+01 1.419961e+01 9.284800e+00 1.686614e+01 9.590311e+00 2.071467e-01 3.063981e-01 4.153311e-01 6.016411e-01 6.037862e-01 1.107680e+00 8.279246e-01 8.566912e-01 1.327067e+00 1.143477e+00 1.182220e+00 9.519971e-01 6.893319e-01 4.254437e-02 7.107675e-02 8.889806e-02 1.310101e-01 1.518613e-01 2.695286e-01 1.810274e-01 1.576952e-01 2.902802e-01 2.490681e-01 2.612360e-01 2.078891e-01 1.538881e-01
<GCONST> 7.651099e+01
<MIXTURE> 2 6.476621e-01
<MEAN> 39
 3.283890e+00 -7.895270e+00 -1.941513e+00 -6.190095e+00 1.552262e+01 -1.285613e+01 -3.769540e+00 1.297561e+00 -1.032482e+01 -6.537862e+00 9.046926e+00 3.788548e+00 4.174431e+00 1.937566e-01 -5.510298e-01 -8.572172e-01 -2.433252e-01 -5.020617e-01 -3.539038e-01 -4.457293e-02 8.245524e-02 5.819988e-01 8.499765e-01 5.073387e-01 5.292348e-01 5.430620e-01 -8.471029e-02 6.109320e-02 1.188734e-01 1.503414e-01 -1.279891e-01 1.900488e-01 1.726432e-01 -3.753650e-02 1.631977e-01 6.985574e-02 -1.741709e-01 -1.627427e-01 -1.480994e-01
<VARIANCE> 39
 5.351778e+00 9.710109e+00 3.642688e+01 2.176006e+01 3.671233e+01 1.970531e+01 2.771502e+01 4.005486e+01 3.624114e+01 4.544476e+01 3.773447e+01 1.901162e+01 2.051909e+01 1.557740e-01 5.013130e-01 6.756966e-01 7.646043e-01 7.429130e-01 9.497079e-01 1.047560e+00 1.296490e+00 1.267531e+00 1.264604e+00 1.087551e+00 1.102167e+00 7.739215e-01 4.657182e-02 7.625840e-02 8.590098e-02 1.413886e-01 1.418175e-01 1.555981e-01 1.613878e-01 1.916410e-01 2.020262e-01 1.910238e-01 1.766402e-01 1.490279e-01 1.378814e-01
<GCONST> 8.383260e+01
<STATE> 4
<NUMMIXES> 2
<MIXTURE> 1 2.142849e-01
<MEAN> 39
 3.137337e+00 -9.107288e+00 -9.014344e+00 -4.690340e+00 1.011923e+01 -1.114458e+01 -3.086812e+00 3.661371e+00 -9.883485e-01 8.536100e-02 7.104829e+00 5.023608e+00 7.127949e+00 9.299809e-02 -1.462816e-01 -1.099418e-01 -1.519231e-02 3.038042e-01 -2.437244e-02 -2.461106e-01 -7.375387e-03 6.015589e-02 -3.310132e-01 1.708785e-01 -1.223913e-02 -4.833451e-02 -1.220406e-02 -5.230437e-03 1.559896e-01 -6.516115e-02 1.322008e-01 3.869599e-02 -7.849292e-02 4.116379e-02 -1.111977e-01 -8.636719e-02 8.267256e-02 -9.035444e-02 -8.594255e-04
<VARIANCE> 39
 2.577156e+01 2.366826e+01 4.007827e+01 2.101047e+01 5.361771e+01 4.646609e+01 4.688091e+01 5.242430e+01 5.198510e+01 5.236604e+01 2.252764e+01 3.406635e+01 3.716388e+01 2.301534e-01 4.938921e-01 6.810483e-01 6.863053e-01 8.775159e-01 1.082149e+00 1.216828e+00 1.441921e+00 1.128876e+00 8.610471e-01 7.578329e-01 9.116917e-01 7.150562e-01 4.372694e-02 9.014513e-02 1.178046e-01 1.372170e-01 1.756251e-01 1.973926e-01 2.275028e-01 3.086778e-01 2.433075e-01 2.415151e-01 1.810723e-01 1.985992e-01 1.533144e-01
<GCONST> 9.174976e+01
<MIXTURE> 2 7.857150e-01
<MEAN> 39
 4.874055e+00 -1.150560e+01 -9.221850e+00 -6.605359e+00 1.164856e+01 -1.396595e+01 -2.494819e+00 3.096429e+00 -4.710212e+00 -2.176702e-01 1.077278e+01 5.032379e+00 6.622934e+00 1.001617e-02 -5.528078e-02 -4.392760e-02 4.543986e-02 6.328816e-03 5.893537e-02 -4.425049e-02 -8.041992e-03 -1.811336e-02 2.087775e-01 7.926076e-02 -5.302944e-02 -9.592054e-02 -1.164118e-02 6.601864e-02 4.641119e-02 2.590652e-02 6.014734e-02 1.439844e-02 -4.329652e-03 -5.326664e-02 -7.223234e-02 -6.490315e-02 -1.864989e-02 -2.710998e-02 -3.180895e-02
<VARIANCE> 39
 2.609866e+00 7.510988e+00 1.699350e+01 1.294742e+01 1.529353e+01 1.586456e+01 1.945246e+01 4.103077e+01 2.165660e+01 1.828149e+01 1.535256e+01 1.784761e+01 1.504438e+01 1.144699e-01 2.564538e-01 4.266413e-01 4.387875e-01 5.617561e-01 5.146437e-01 6.348007e-01 8.332539e-01 7.944068e-01 6.437795e-01 6.556883e-01 5.088587e-01 4.289645e-01 1.830632e-02 3.598084e-02 5.174671e-02 6.837321e-02 7.916818e-02 8.728665e-02 9.126821e-02 1.090649e-01 8.491565e-02 8.488644e-02 9.299923e-02 8.784200e-02 7.339849e-02
<GCONST> 6.192383e+01
<STATE> 5
<NUMMIXES> 2
<MIXTURE> 1 1.818562e-01
<MEAN> 39
 -1.258942e+01 -2.051910e+00 6.001427e+00 -2.130520e+00 5.428039e+00 -5.309134e+00 5.100372e+00 1.717614e+00 -1.130705e+00 7.838966e-01 1.322709e+00 -4.199266e-01 2.235536e+00 2.270877e-01 -9.830248e-02 7.625796e-02 1.620363e-01 -3.972781e-02 -3.678275e-01 -1.528966e-01 -1.385931e-01 -9.447107e-02 -1.747895e-02 -8.012707e-02 -9.067421e-02 5.698858e-02 3.089823e-02 -5.675511e-02 -8.394551e-02 1.550171e-02 3.384239e-02 2.972231e-02 1.379463e-03 1.926086e-02 1.536973e-02 -9.566738e-02 2.719056e-02 3.350831e-02 -2.458024e-02
<VARIANCE> 39
 1.996935e+02 6.164389e+01 1.184274e+02 6.224012e+01 4.361804e+01 5.201657e+01 6.622955e+01 6.713322e+01 4.067316e+01 3.190049e+01 1.935164e+01 2.808122e+01 4.326141e+01 2.731851e+00 9.426956e-01 1.929505e+00 1.815002e+00 3.569479e+00 1.709310e+00 3.668130e+00 1.440583e+00 2.534862e+00 2.015565e+00 2.253910e+00 2.023376e+00 1.142689e+00 1.859575e-01 1.457333e-01 3.764107e-01 3.103217e-01 5.066103e-01 2.078403e-01 5.454744e-01 2.519660e-01 3.816143e-01 3.170525e-01 4.066909e-01 3.398869e-01 2.104767e-01
<GCONST> 1.166750e+02
<MIXTURE> 2 8.181438e-01
<MEAN> 39
 3.422006e+00 -9.222160e+00 -4.701403e+00 -4.530591e+00 1.995818e+01 -1.256304e+01 -8.100093e+00 -1.046332e-01 -1.048449e+01 -1.853488e+00 1.431545e+01 1.879082e+00 1.703806e+00 -2.637935e-01 3.616848e-01 6.534361e-01 1.490942e-01 8.825882e-01 3.068139e-01 -3.172646e-01 -2.977410e-01 -4.452788e-01 -2.098451e-01 3.742139e-02 -7.001880e-01 -6.070596e-01 -3.440213e-02 1.069116e-01 5.039085e-02 2.671682e-02 1.936217e-02 9.640548e-02 1.356123e-01 -1.238869e-03 6.959480e-02 1.075333e-02 -1.130850e-01 -6.159315e-02 -1.110438e-01
<VARIANCE> 39
 3.963513e+00 1.452075e+01 2.106199e+01 1.698277e+01 5.609300e+01 2.010023e+01 3.173288e+01 2.878377e+01 2.816006e+01 4.005441e+01 2.319600e+01 2.883650e+01 2.489282e+01 1.216715e-01 3.531081e-01 5.987297e-01 4.933640e-01 7.931445e-01 7.067512e-01 9.325082e-01 8.891934e-01 9.985898e-01 9.003676e-01 9.256855e-01 9.575348e-01 8.464371e-01 2.154919e-02 4.462291e-02 6.418961e-02 9.074898e-02 1.021879e-01 1.195574e-01 1.369372e-01 1.431279e-01 1.240400e-01 1.408998e-01 1.398452e-01 1.282497e-01 9.810066e-02
<GCONST> 7.585687e+01
<STATE> 6
<NUMMIXES> 2
<MIXTURE> 1 5.571052e-01
<MEAN> 39
 1.325289e+00 -2.674295e+00 4.498923e-01 -6.293489e-01 2.026154e+01 -5.226797e+00 -3.607728e+00 -1.202896e+00 -8.093799e+00 -2.748707e+00 8.372029e+00 -2.553293e+00 -3.789688e+00 -7.663887e-02 9.117849e-01 3.343691e-01 7.992439e-01 -1.737646e-01 9.005344e-01 7.976486e-01 3.259676e-01 7.930310e-01 2.982904e-02 -5.952691e-01 -4.455815e-01 -6.440197e-01 2.401105e-02 -1.990935e-02 -5.082392e-02 9.994243e-02 -1.773036e-01 -2.820672e-02 3.379366e-02 6.440907e-02 2.207324e-01 1.227092e-02 -5.809288e-02 7.168023e-02 4.466007e-02
<VARIANCE> 39
 1.985571e+01 2.888277e+01 4.355098e+01 3.551835e+01 7.808696e+01 4.954322e+01 4.928612e+01 4.837300e+01 4.574912e+01 6.163122e+01 4.612242e+01 5.863551e+01 3.662749e+01 8.704203e-01 1.129195e+00 1.372944e+00 1.790062e+00 2.667485e+00 1.964038e+00 2.248079e+00 2.105402e+00 2.113443e+00 2.249657e+00 1.676456e+00 2.365522e+00 1.801956e+00 1.476176e-01 1.684426e-01 2.380839e-01 2.917711e-01 3.904418e-01 3.529596e-01 4.231766e-01 3.492737e-01 3.902907e-01 3.729326e-01 3.554626e-01 4.020441e-01 3.154769e-01
<GCONST> 1.131949e+02
<MIXTURE> 2 4.428948e-01
<MEAN> 39
 2.620197e+00 -3.244501e+00 4.199865e+00 -3.937851e+00 1.105893e+01 -9.816847e+00 -4.253096e+00 3.008100e+00 1.018088e+00 -5.807038e+00 1.995775e+00 -2.552408e+00 -1.229272e+00 -6.524058e-02 6.241182e-02 2.631745e-02 3.668462e-02 1.213818e-01 1.235487e-01 2.641526e-01 -2.981214e-03 -4.664685e-02 -1.812509e-01 -1.917173e-01 -7.706284e-03 -2.381963e-01 -1.092562e-03 1.962901e-02 2.821833e-02 6.276248e-05 3.537462e-02 4.738472e-02 3.874872e-02 8.009715e-03 -1.267656e-01 3.496873e-03 -7.197106e-03 4.814128e-03 2.274845e-02
<VARIANCE> 39
 1.697639e+01 4.132334e+01 4.873791e+01 4.028762e+01 1.800135e+02 7.467239e+01 6.405746e+01 7.205424e+01 7.991106e+01 6.061185e+01 5.017668e+01 3.040575e+01 5.973383e+01 1.139247e-01 2.619302e-01 3.421783e-01 3.044715e-01 4.041284e-01 7.413601e-01 6.709923e-01 6.755909e-01 7.532345e-01 5.747313e-01 5.470916e-01 5.886809e-01 5.545218e-01 1.887819e-02 3.036578e-02 3.904897e-02 3.665830e-02 6.055739e-02 9.527116e-02 9.624234e-02 1.201517e-01 1.109437e-01 9.086500e-02 1.101257e-01 7.674372e-02 9.467179e-02
<GCONST> 7.797577e+01
<TRANSP> 7
 0.000000e+00 1.000000e+00 0.000000e+00 0.000000e+00 0.000000e+00 0.000000e+00 0.000000e+00
 0.000000e+00 8.916132e-01 1.083868e-01 0.000000e+00 0.000000e+00 0.000000e+00 0.000000e+00
 0.000000e+00 0.000000e+00 8.369225e-01 1.630775e-01 0.000000e+00 0.000000e+00 0.000000e+00
 0.000000e+00 0.000000e+00 0.000000e+00 9.128655e-01 8.713458e-02 0.000000e+00 0.000000e+00
 0.000000e+00 0.000000e+00 0.000000e+00 0.000000e+00 8.043194e-01 1.956807e-01 0.000000e+00
 0.000000e+00 0.000000e+00 0.000000e+00 0.000000e+00 0.000000e+00 8.203326e-01 1.796674e-01
 0.000000e+00 0.000000e+00 0.000000e+00 0.000000e+00 0.000000e+00 0.000000e+00 0.000000e+00
<ENDHMM>
~o
<STREAMINFO> 1 39
<VECSIZE> 39<NULLD><MFCC_D_A><DIAGC>
~h "ai"
<BEGINHMM>
<NUMSTATES> 7
<STATE> 2
<NUMMIXES> 2
<MIXTURE> 1 5.193887e-01
<MEAN> 39
 7.468105e-01 -3.573585e+00 -2.104879e+00 2.963350e-01 1.227083e+01 -6.690228e+00 -6.580944e+00 -1.427578e+00 -4.592329e+00 -7.913486e+00 -3.450474e+00 3.417530e+00 -2.768160e-01 2.975881e-01 -6.647163e-01 -1.757005e-01 -1.176579e-01 6.280584e-01 -5.329267e-01 -8.916429e-01 -7.592999e-01 -5.631614e-01 -1.012736e-01 7.288584e-01 4.428399e-01 -1.617911e-01 -5.680123e-02 -1.149407e-02 1.009623e-01 1.292782e-01 -6.093527e-02 9.465456e-02 -3.429959e-02 -3.120180e-02 1.183875e-01 1.061097e-01 -3.048378e-02 -1.101403e-01 -1.066048e-01
<VARIANCE> 39
 4.064439e+01 3.420739e+01 5.255289e+01 8.244189e+01 1.367043e+02 7.538455e+01 8.559066e+01 8.555353e+01 6.556559e+01 6.419658e+01 5.754729e+01 4.025488e+01 4.696377e+01 1.430018e+00 1.988147e+00 1.821957e+00 2.338903e+00 2.396036e+00 3.020715e+00 3.195509e+00 2.610888e+00 2.572279e+00 2.645048e+00 2.891765e+00 2.154220e+00 1.672483e+00 1.873181e-01 3.031445e-01 2.796339e-01 3.457373e-01 3.412879e-01 4.500374e-01 5.580609e-01 4.075806e-01 4.203169e-01 4.282927e-01 4.348745e-01 3.664034e-01 2.638125e-01
<GCONST> 1.227831e+02
<MIXTURE> 2 4.806113e-01
<MEAN> 39
 1.439720e+01 -1.963444e+01 3.090804e+00 1.220101e+01 -1.277808e+01 4.576316e+00 -9.018811e+00 -1.523170e+01 1.082677e+00 -8.268465e+00 -5.183987e+00 1.748287e+00 -7.952119e+00 2.959041e-01 -7.563431e-01 -3.548864e-02 1.081560e-01 -2.714838e-01 -6.151929e-01 -1.046713e+00 -5.072144e-01 1.409231e-01 1.789557e-01 4.008997e-01 -1.126524e-01 -2.854237e-01 -9.411043e-02 1.089693e-01 5.618626e-02 2.463677e-02 7.815634e-02 -2.932201e-02 9.214178e-04 1.008497e-01 8.801254e-02 3.898845e-02 -4.767366e-02 -4.377641e-02 2.626475e-02
<VARIANCE> 39
 1.942043e+01 4.402647e+01 4.201925e+01 5.834317e+01 3.960379e+01 5.468320e+01 7.044352e+01 5.995943e+01 4.161155e+01 3.849313e+01 4.067297e+01 2.891388e+01 3.257475e+01 9.666569e-01 2.578316e+00 1.329206e+00 1.338017e+00 2.147568e+00 1.940251e+00 2.013650e+00 1.652387e+00 2.032242e+00 1.631412e+00 1.562693e+00 1.179798e+00 1.076656e+00 1.392171e-01 4.579583e-01 1.898138e-01 1.779050e-01 3.640485e-01 3.220056e-01 3.237443e-01 2.668789e-01 3.224787e-01 2.651862e-01 2.559502e-01 1.913656e-01 1.821451e-01
<GCONST> 1.082849e+02
<STATE> 3
<NUMMIXES> 2
<MIXTURE> 1 5.217586e-01
<MEAN> 39
 1.378369e+00 -6.694307e+00 -2.789315e+00 4.780107e+00 2.440265e+01 -1.069232e+01 -1.805544e+01 -3.904528e+00 -8.480620e+00 -9.947763e+00 -5.244381e-01 6.133593e+00 -3.248804e+00 -2.100249e-01 -1.820846e-01 4.651861e-01 6.340344e-01 2.729197e-01 1.125065e-01 -3.345209e-01 -4.175837e-01 3.493270e-01 2.207659e-01 -6.070354e-02 -3.653789e-01 -6.407914e-01 -1.002898e-02 4.489484e-02 2.974297e-02 4.456853e-02 -3.856132e-02 6.332704e-02 9.887540e-02 7.335922e-02 8.343017e-02 -4.877260e-02 -1.156123e-01 -5.804088e-02 -2.250080e-02
<VARIANCE> 39
 6.563714e+00 1.153404e+01 2.087523e+01 3.473658e+01 3.947321e+01 3.590250e+01 3.721934e+01 3.891998e+01 3.433602e+01 3.306225e+01 3.593141e+01 2.171954e+01 2.641898e+01 9.619880e-02 2.416263e-01 4.682056e-01 6.284041e-01 7.548999e-01 9.556162e-01 1.063056e+00 1.170767e+00 1.160156e+00 1.129417e+00 1.117173e+00 8.178600e-01 7.348141e-01 1.426385e-02 3.374549e-02 6.137691e-02 8.685240e-02 1.145960e-01 1.476946e-01 1.737451e-01 1.840915e-01 1.784596e-01 1.829102e-01 1.689979e-01 1.451696e-01 1.111505e-01
<GCONST> 7.915126e+01
<MIXTURE> 2 4.782414e-01
<MEAN> 39
 1.362357e+01 -2.413416e+01 5.553016e+00 1.524301e+01 -1.444690e+01 -2.178685e+00 -1.884695e+01 -1.922787e+01 3.671170e+00 -7.371381e+00 -6.654024e+00 -1.575314e+00 -9.440121e+00 -1.940237e-01 -5.543260e-02 5.352331e-01 4.792476e-01 -1.557550e-02 -2.930691e-01 -3.048370e-01 1.816086e-01 3.821690e-01 -2.190030e-01 -5.274774e-01 -2.757443e-01 5.367833e-02 -5.979522e-03 5.937825e-02 2.734710e-02 3.642577e-02 3.027505e-02 5.013866e-02 7.508032e-02 2.346252e-02 -4.306866e-02 -6.303281e-02 -6.269807e-02 5.673485e-03 2.899753e-02
<VARIANCE> 39
 7.041549e+00 1.196406e+01 1.573402e+01 2.380247e+01 2.437512e+01 3.972217e+01 3.777824e+01 2.260821e+01 2.495412e+01 2.808542e+01 3.443069e+01 2.553881e+01 2.452322e+01 3.295986e-01 4.136655e-01 2.923302e-01 4.590409e-01 7.618662e-01 7.111132e-01 5.080186e-01 4.853198e-01 6.559977e-01 7.044703e-01 4.836658e-01 4.461737e-01 5.096946e-01 6.201910e-02 7.336347e-02 3.344537e-02 5.959053e-02 1.330706e-01 1.119967e-01 7.587907e-02 7.866426e-02 1.071289e-01 9.507108e-02 6.238834e-02 6.565044e-02 8.501269e-02
<GCONST> 6.971204e+01
<STATE> 4
<NUMMIXES> 2
<MIXTURE> 1 4.087025e-01
<MEAN> 39
 -5.210559e-01 -7.548771e+00 7.705153e+00 3.971828e+00 1.292892e+01 -1.216207e+01 -1.331990e+01 -1.011289e+01 -5.142111e+00 -5.016691e+00 -5.147232e+00 -5.634876e+00 -6.172864e+00 -1.811447e-01 7.248514e-02 4.713648e-01 5.416461e-01 2.210536e-01 3.174331e-02 -9.976008e-02 4.184015e-02 1.599961e-01 -8.106711e-02 -3.425513e-01 -3.548437e-01 -2.273950e-01 1.612755e-02 5.014693e-02 -4.518843e-02 -3.472810e-02 6.171261e-03 4.836800e-02 5.643129e-02 6.326950e-02 -4.224851e-02 -3.981628e-02 1.851638e-02 5.031217e-02 3.497457e-02
<VARIANCE> 39
 1.120737e+01 2.123987e+01 6.809513e+01 6.463702e+01 9.076991e+01 1.234286e+02 4.418890e+01 7.538873e+01 4.915117e+01 6.839685e+01 5.238081e+01 5.208529e+01 3.819865e+01 1.143769e-01 2.805757e-01 6.293262e-01 7.008172e-01 6.829062e-01 1.034079e+00 1.082749e+00 1.074034e+00 1.115469e+00 1.204759e+00 9.667249e-01 9.351307e-01 8.151428e-01 1.385393e-02 3.656218e-02 6.111787e-02 8.362006e-02 1.040152e-01 1.386068e-01 1.540378e-01 1.688837e-01 1.650203e-01 1.728435e-01 1.528085e-01 1.367429e-01 1.111858e-01
<GCONST> 8.780980e+01
<MIXTURE> 2 5.912976e-01
<MEAN> 39
 1.209244e+01 -2.112502e+01 1.271354e+01 2.351314e+01 -1.126919e+01 -1.806623e+00 -1.701662e+01 -1.433526e+01 6.315769e+00 -1.093932e+01 -1.135931e+01 -1.916506e+00 -6.199327e+00 -1.649090e-01 3.131330e-01 3.386153e-01 3.037271e-01 1.687477e-01 -2.134267e-02 2.837844e-02 2.589052e-01 1.236238e-01 -2.581472e-01 -3.516817e-01 -1.310385e-01 1.394327e-02 7.826824e-03 4.487970e-02 -5.796868e-02 -4.511430e-02 2.538984e-02 2.867733e-02 2.212828e-02 -2.218085e-02 -2.235102e-02 5.769121e-02 5.230625e-02 1.179238e-03 -1.830295e-02
<VARIANCE> 39
 4.464386e+00 1.254543e+01 1.196539e+01 1.462383e+01 1.701567e+01 2.147145e+01 2.316008e+01 2.352862e+01 2.217012e+01 2.511440e+01 1.838028e+01 1.806616e+01 1.634538e+01 2.127645e-01 2.897001e-01 2.598100e-01 3.694497e-01 6.006045e-01 5.920529e-01 3.885269e-01 4.551132e-01 5.783173e-01 5.718221e-01 3.997308e-01 4.080143e-01 4.345250e-01 3.551911e-02 4.375848e-02 2.869949e-02 5.240354e-02 1.015685e-01 9.317990e-02 6.165705e-02 6.864124e-02 9.800550e-02 8.495113e-02 5.894426e-02 6.631297e-02 7.104132e-02
<GCONST> 6.027113e+01
<STATE> 5
<NUMMIXES> 2
<MIXTURE> 1 6.080644e-01
<MEAN> 39
 -2.344244e+00 -6.285532e+00 4.977007e+00 1.489834e+01 2.722333e+01 -6.702801e+00 -1.879162e+01 -2.452791e+00 -2.214421e+00 -1.008684e+01 -3.646385e+00 1.354217e+00 -1.108520e+01 -1.297315e-01 2.611226e-01 2.123154e-01 3.593426e-01 -1.414348e-01 5.346941e-01 1.475720e-01 3.229977e-01 3.233734e-02 1.333943e-01 -1.315039e-01 -1.615754e-01 -9.385881e-02 7.468343e-03 8.789583e-02 -5.550790e-02 -5.487511e-02 -1.186906e-01 5.197357e-02 6.777169e-02 1.651347e-02 -7.648664e-02 5.860087e-02 2.778267e-02 1.364484e-02 1.084737e-01
<VARIANCE> 39
 9.089996e+00 1.571034e+01 2.725191e+01 3.911769e+01 3.272527e+01 4.170520e+01 3.523183e+01 4.641467e+01 3.572181e+01 3.227134e+01 3.908065e+01 2.494437e+01 1.891523e+01 1.734113e-01 5.193529e-01 6.920680e-01 8.566190e-01 1.055502e+00 1.471786e+00 1.294650e+00 1.345884e+00 1.237688e+00 1.271877e+00 1.030058e+00 9.493817e-01 8.283428e-01 2.358228e-02 7.588279e-02 9.553982e-02 1.274122e-01 1.826134e-01 2.178930e-01 2.250159e-01 2.424494e-01 2.072396e-01 2.257519e-01 1.810560e-01 1.679034e-01 1.399494e-01
<GCONST> 8.802065e+01
<MIXTURE> 2 3.919356e-01
<MEAN> 39
 1.037791e+01 -1.547479e+01 1.163635e+01 2.103586e+01 -9.792813e+00 -1.563737e+00 -1.702490e+01 -1.422579e+01 5.889223e+00 -1.142461e+01 -1.403633e+01 -4.184206e+00 -8.670780e+00 -2.116355e-01 1.025005e+00 -3.559140e-01 -1.499871e-01 5.575111e-01 2.580417e-01 6.755368e-01 2.201395e-01 -2.309128e-01 5.406559e-01 2.105408e-01 6.064327e-02 2.261214e-01 -4.292240e-02 2.645843e-02 -5.391543e-02 -4.114938e-02 -1.458440e-02 -3.114133e-02 5.139389e-02 3.593379e-02 -3.976497e-03 6.668981e-02 5.962467e-02 7.406221e-02 8.374797e-02
<VARIANCE> 39
 9.602634e+00 3.757681e+01 2.684946e+01 3.353148e+01 3.638122e+01 4.690136e+01 4.345906e+01 3.822882e+01 4.019123e+01 4.580720e+01 3.748864e+01 2.813565e+01 2.724116e+01 3.651887e-01 1.030450e+00 7.288054e-01 8.113927e-01 1.150932e+00 1.471882e+00 1.451634e+00 1.261015e+00 1.565478e+00 1.604516e+00 1.257215e+00 1.142797e+00 1.145487e+00 5.630040e-02 1.476379e-01 1.025518e-01 1.333033e-01 1.966207e-01 2.421605e-01 2.426932e-01 2.287355e-01 2.757303e-01 2.470480e-01 2.135616e-01 1.984945e-01 2.024787e-01
<GCONST> 9.559523e+01
<STATE> 6
<NUMMIXES> 2
<MIXTURE> 1 6.846591e-01
<MEAN> 39
 -8.427644e+00 3.086648e+00 2.341849e+00 1.282027e+01 9.738523e+00 2.787586e+00 -1.230241e+01 -2.093103e+00 -3.514483e+00 -2.109554e+00 -3.284567e+00 -9.175279e-01 -3.969326e+00 -4.189844e-01 6.501803e-01 -1.588041e-01 -1.511916e-01 -7.499545e-01 4.523883e-01 4.099655e-01 2.561516e-01 1.408829e-01 3.484114e-01 7.129623e-02 3.387049e-02 3.867756e-01 -1.075464e-02 -6.178789e-02 7.601003e-03 -9.536400e-03 3.083945e-02 -9.938497e-02 -4.773276e-02 -5.823158e-03 3.023641e-02 -1.847688e-02 -4.240672e-03 3.894547e-03 -1.833024e-02
<VARIANCE> 39
 1.085615e+02 7.654305e+01 6.413614e+01 6.544057e+01 1.117112e+02 6.234016e+01 6.816049e+01 6.984671e+01 4.819980e+01 4.456771e+01 3.702108e+01 3.491116e+01 3.527987e+01 1.266822e+00 2.419908e+00 2.087971e+00 2.276246e+00 2.595117e+00 2.726761e+00 3.107578e+00 2.514688e+00 2.279924e+00 2.315408e+00 1.817400e+00 1.830602e+00 1.502196e+00 1.875772e-01 3.737604e-01 3.609298e-01 3.856993e-01 4.346012e-01 4.540465e-01 5.312265e-01 4.421480e-01 4.335544e-01 4.152945e-01 3.287069e-01 3.337433e-01 2.694950e-01
<GCONST> 1.217889e+02
<MIXTURE> 2 3.153409e-01
<MEAN> 39
 1.541017e+00 -5.654701e+00 5.421839e+00 1.868214e+01 -3.630603e+00 -2.741939e+00 -1.121710e+01 -9.760196e+00 5.844640e+00 -1.295975e+00 -9.247666e+00 -1.307907e+00 -8.405245e-01 -5.520201e-01 2.812085e-01 -3.553635e-01 -4.312868e-01 1.135551e-01 4.316425e-02 2.335323e-01 1.833550e-01 2.396214e-02 3.689750e-01 2.816934e-01 2.264816e-01 2.913462e-01 3.108419e-02 -9.057888e-02 3.902679e-02 -3.702035e-02 -5.714758e-02 9.530681e-02 5.258397e-03 -3.031128e-02 -3.515332e-03 -8.684059e-02 -1.693233e-03 2.030065e-02 -5.896680e-02
<VARIANCE> 39
 4.049541e+01 3.230234e+01 2.577453e+01 3.265635e+01 2.510663e+01 3.732415e+01 4.326215e+01 4.120317e+01 2.729967e+01 3.385915e+01 2.446412e+01 2.069736e+01 2.356362e+01 2.608493e-01 4.323384e-01 6.223071e-01 6.955695e-01 8.626457e-01 1.314008e+00 1.226531e+00 1.227375e+00 1.321641e+00 1.227339e+00 1.109107e+00 1.038224e+00 1.038135e+00 2.642955e-02 8.161493e-02 9.778457e-02 1.303929e-01 1.641884e-01 2.171183e-01 2.274652e-01 2.401734e-01 2.571282e-01 2.394348e-01 2.115927e-01 2.030070e-01 1.958131e-01
<GCONST> 9.000219e+01
<TRANSP> 7
 0.000000e+00 1.000000e+00 0.000000e+00 0.000000e+00 0.000000e+00 0.000000e+00 0.000000e+00
 0.000000e+00 7.798734e-01 2.201266e-01 0.000000e+00 0.000000e+00 0.000000e+00 0.000000e+00
 0.000000e+00 0.000000e+00 8.849037e-01 1.150963e-01 0.000000e+00 0.000000e+00 0.000000e+00
 0.000000e+00 0.000000e+00 0.000000e+00 8.697057e-01 1.302943e-01 0.000000e+00 0.000000e+00
 0.000000e+00 0.000000e+00 0.000000e+00 0.000000e+00 8.596503e-01 1.403498e-01 0.000000e+00
 0.000000e+00 0.000000e+00 0.000000e+00 0.000000e+00 0.000000e+00 8.982337e-01 1.017664e-01
 0.000000e+00 0.000000e+00 0.000000e+00 0.000000e+00 0.000000e+00 0.000000e+00 0.000000e+00
<ENDHMM>
~o
<STREAMINFO> 1 39
<VECSIZE> 39<NULLD><MFCC_D_A><DIAGC>
~h "ax"
<BEGINHMM>
<NUMSTATES> 7
<STATE> 2
<NUMMIXES> 2
<MIXTURE> 1 5.222148e-01
<MEAN> 39
 -8.067544e+00 -9.463261e-01 6.317897e+00 -4.979451e+00 7.965087e+00 -4.754343e+00 5.185811e+00 1.174703e+00 1.296408e+00 -3.117348e+00 -1.035918e+00 1.111335e+00 -9.203525e-01 9.539804e-01 -3.293210e-01 1.852070e-01 -5.316008e-01 -2.701952e-01 -1.303163e+00 -3.172114e-01 3.078626e-01 -5.865321e-02 -4.493007e-01 -1.239085e-01 7.598513e-02 1.623077e-02 3.535086e-01 1.376096e-01 -1.235608e-01 2.173453e-01 -1.713243e-01 -3.517119e-01 -3.199141e-01 2.121824e-01 -9.040381e-02 -1.426840e-01 -4.331054e-02 4.213601e-02 -7.733081e-02
<VARIANCE> 39
 6.829300e+01 1.031031e+02 4.690065e+01 1.235488e+02 7.801481e+01 8.265928e+01 7.844009e+01 6.398357e+01 5.931602e+01 4.532605e+01 3.983823e+01 3.002143e+01 2.871066e+01 4.218358e+00 7.009360e+00 2.694780e+00 6.804280e+00 3.829074e+00 5.842188e+00 4.986008e+00 4.201653e+00 4.170944e+00 3.186054e+00 2.655509e+00 2.052688e+00 1.995200e+00 3.558102e-01 1.137004e+00 5.746695e-01 1.069341e+00 6.720090e-01 7.563208e-01 8.162308e-01 8.063728e-01 7.320501e-01 5.399719e-01 4.907768e-01 3.817295e-01 3.699483e-01
<GCONST> 1.361694e+02
<MIXTURE> 2 4.777852e-01
<MEAN> 39
 6.096126e+00 -2.984457e+00 6.067096e+00 -6.204392e+00 6.765644e+00 -1.926550e+01 -2.859204e+00 5.278730e+00 -1.557919e+00 -9.640631e+00 -3.130935e+00 2.028862e+00 -2.595848e+00 1.582579e+00 -2.310615e-01 -1.194510e+00 -1.274004e-01 -1.084638e+00 -2.359986e+00 -1.010373e+00 1.343225e+00 -5.777869e-02 -3.434655e-01 1.645831e-01 4.000317e-01 -9.252443e-02 -4.220783e-01 -1.970650e-01 -7.522937e-02 -1.350382e-01 3.999382e-02 3.479194e-01 3.322604e-01 -6.211052e-02 1.879736e-01 2.902688e-01 6.457961e-02 -5.097385e-02 6.206623e-02
<VARIANCE> 39
 1.581540e+01 4.021395e+01 5.118051e+01 6.948546e+01 1.505221e+02 1.037225e+02 8.283396e+01 9.725285e+01 1.494209e+02 5.414066e+01 4.343505e+01 3.429749e+01 3.228992e+01 2.372367e+00 1.831735e+00 2.217235e+00 3.475951e+00 4.261940e+00 4.718498e+00 6.619175e+00 4.357110e+00 4.896357e+00 3.328051e+00 2.479471e+00 1.915918e+00 1.930264e+00 2.734145e-01 3.894369e-01 3.750388e-01 4.334633e-01 5.093283e-01 7.085541e-01 6.012923e-01 6.440301e-01 5.944822e-01 4.861192e-01 3.837018e-01 3.101090e-01 2.496996e-01
<GCONST> 1.288374e+02
<STATE> 3
<NUMMIXES> 2
<MIXTURE> 1 5.312696e-01
<MEAN> 39
 8.710603e+00 -3.888000e+00 4.429042e+00 -8.064110e+00 1.423676e+01 -2.404218e+01 -9.253733e+00 1.099260e+01 1.115399e+01 -1.006266e+01 -6.683860e+00 3.924700e+00 -1.948222e+00 3.306658e-01 -1.492910e-01 -4.752717e-01 9.543641e-03 -8.260901e-01 -1.184044e+00 -7.423155e-01 9.235746e-01 6.953924e-01 4.383743e-01 4.091175e-01 -1.481013e-01 6.236562e-02 -1.045350e-01 -2.451329e-02 1.153011e-01 1.005579e-01 -7.993752e-02 2.294090e-01 2.077165e-01 -8.950007e-02 -1.371432e-01 9.627213e-02 7.989065e-02 -1.244875e-01 5.273442e-02
<VARIANCE> 39
 8.455062e+00 1.972778e+01 5.387976e+01 2.900027e+01 6.093063e+01 6.887668e+01 5.309625e+01 4.564610e+01 5.318235e+01 4.423761e+01 4.270668e+01 2.288726e+01 3.380669e+01 1.940383e-01 4.390910e-01 7.429842e-01 1.011303e+00 1.264596e+00 1.605939e+00 1.834938e+00 1.630554e+00 2.014529e+00 1.806761e+00 1.316779e+00 1.314260e+00 8.745378e-01 4.886483e-02 6.897167e-02 1.116029e-01 1.575844e-01 1.818223e-01 2.172935e-01 3.518670e-01 3.048604e-01 3.012375e-01 3.366019e-01 2.195073e-01 2.178451e-01 1.610383e-01
<GCONST> 9.686198e+01
<MIXTURE> 2 4.687304e-01
<MEAN> 39
 9.044257e+00 -5.782738e+00 -1.906666e+00 -9.990360e+00 -2.143230e+00 -2.355969e+01 5.188555e+00 3.495118e+00 -1.210694e+01 -6.841379e+00 -6.627206e-01 2.175742e+00 -1.394027e+00 1.956446e-01 -3.009375e-01 -5.929690e-01 -2.276180e-01 -1.241464e+00 -3.423902e-01 9.901806e-01 6.659937e-01 8.829787e-01 1.205520e-01 -3.766212e-01 7.003362e-02 -2.482963e-01 -1.221539e-01 6.902976e-02 1.474884e-01 5.652371e-02 1.898960e-01 2.653977e-01 -8.310872e-02 -1.140210e-01 2.567902e-01 -1.353997e-01 -7.092884e-02 1.068724e-02 -1.124403e-01
<VARIANCE> 39
 7.724710e+00 4.216013e+01 2.749829e+01 5.944770e+01 7.841402e+01 5.503330e+01 7.028503e+01 5.112461e+01 5.969958e+01 5.262110e+01 3.489338e+01 3.696461e+01 3.996508e+01 2.201228e-01 5.427835e-01 6.617185e-01 1.194355e+00 1.155595e+00 1.458964e+00 1.536767e+00 1.470945e+00 1.884559e+00 1.634106e+00 1.493218e+00 1.212938e+00 1.007863e+00 7.510166e-02 8.465732e-02 1.234565e-01 1.825125e-01 1.753446e-01 3.206404e-01 2.633526e-01 2.361264e-01 3.175199e-01 2.416797e-01 2.825931e-01 2.085362e-01 1.631093e-01
<GCONST> 9.930737e+01
<STATE> 4
<NUMMIXES> 2
<MIXTURE> 1 4.750346e-01
<MEAN> 39
 9.681771e+00 -4.230669e+00 2.120659e+00 -4.001784e+00 6.177425e+00 -2.895663e+01 -1.410238e+01 1.641189e+01 1.544448e+01 -7.634383e+00 -6.954823e-01 1.719992e+00 2.506541e-01 3.836177e-02 -9.693690e-02 -6.195331e-02 1.472821e-02 -2.452476e-01 3.442521e-03 -1.202768e-02 1.673626e-01 2.374543e-02 7.191835e-02 2.014522e-01 -1.415501e-01 9.988208e-03 -3.540776e-02 4.855032e-02 2.607343e-02 -4.092261e-02 9.313270e-02 9.225602e-02 1.205533e-01 -9.508950e-02 -6.663352e-02 -2.437041e-02 -6.429563e-02 2.588446e-02 -4.846958e-02
<VARIANCE> 39
 7.324630e+00 1.424454e+01 4.803601e+01 1.554767e+01 3.386581e+01 3.855381e+01 5.929070e+01 3.957444e+01 4.183947e+01 3.079064e+01 2.443710e+01 2.842063e+01 2.388047e+01 1.061975e-01 2.646840e-01 3.717642e-01 4.601074e-01 7.469290e-01 8.150125e-01 1.016992e+00 8.596901e-01 1.107079e+00 8.192692e-01 7.833030e-01 7.626326e-01 6.296442e-01 1.654738e-02 3.166329e-02 5.363980e-02 6.464881e-02 9.130306e-02 1.136836e-01 1.325317e-01 1.378247e-01 1.528898e-01 1.321765e-01 1.212383e-01 1.253108e-01 9.575460e-02
<GCONST> 7.548596e+01
<MIXTURE> 2 5.249654e-01
<MEAN> 39
 9.592618e+00 -4.141812e+00 -3.873254e+00 -6.976350e+00 -8.824678e+00 -2.432967e+01 1.104647e+01 8.484161e+00 -3.827492e+00 -6.611512e+00 -1.495445e+00 4.635138e-01 -5.020828e+00 1.250103e-02 -7.430099e-02 -1.498570e-01 -7.688506e-02 9.993628e-02 1.483259e-01 4.169908e-02 6.815109e-02 1.421048e-01 -1.239304e-01 -4.390365e-02 6.177879e-02 -1.000030e-01 -2.087465e-02 4.538435e-02 3.777790e-02 -2.990228e-02 1.105821e-01 3.153665e-02 -6.916954e-02 -2.428561e-02 -9.975535e-02 1.789126e-03 1.471368e-02 -1.368372e-02 4.729278e-02
<VARIANCE> 39
 1.190198e+01 2.646652e+01 2.346666e+01 3.009563e+01 4.880452e+01 7.659537e+01 5.836828e+01 3.454901e+01 5.386130e+01 3.885601e+01 3.248729e+01 3.244110e+01 2.909497e+01 7.854736e-02 2.873113e-01 2.901976e-01 3.814242e-01 6.848493e-01 6.909066e-01 7.394276e-01 7.059972e-01 1.074601e+00 6.251431e-01 5.752991e-01 4.712657e-01 5.347289e-01 1.194520e-02 2.869014e-02 3.911727e-02 5.931086e-02 7.471114e-02 9.083743e-02 1.015509e-01 9.033957e-02 9.381054e-02 9.069674e-02 8.972299e-02 7.468342e-02 6.070242e-02
<GCONST> 7.177980e+01
<STATE> 5
<NUMMIXES> 2
<MIXTURE> 1 3.946805e-01
<MEAN> 39
 9.591439e+00 -4.889376e+00 4.055405e+00 -7.461849e+00 7.762312e+00 -2.721371e+01 -8.877186e+00 1.544337e+01 1.181008e+01 -6.802409e+00 -2.194230e+00 1.733924e+00 -2.293210e+00 -2.115453e-01 2.867115e-01 7.250078e-02 -3.650484e-01 5.254637e-01 8.170612e-01 1.006042e+00 -8.575780e-01 -3.937631e-01 3.953697e-02 -3.036159e-01 -1.210990e-01 -2.773144e-01 -4.113764e-02 8.419312e-02 2.918699e-02 1.413342e-02 7.546358e-02 2.065365e-01 1.028972e-01 -1.818467e-01 -8.092622e-02 7.605425e-02 -4.576545e-02 -3.074785e-02 1.662413e-03
<VARIANCE> 39
 1.096181e+01 1.810026e+01 4.576118e+01 3.014137e+01 4.887230e+01 4.575366e+01 7.124327e+01 5.475795e+01 5.208138e+01 4.827285e+01 2.864289e+01 2.293252e+01 3.259097e+01 2.373076e-01 5.548807e-01 7.873418e-01 8.979223e-01 1.195865e+00 1.458400e+00 1.677533e+00 1.753310e+00 1.660226e+00 1.503230e+00 1.205885e+00 1.165473e+00 9.321865e-01 4.543403e-02 6.903854e-02 1.070873e-01 1.411396e-01 1.701132e-01 1.970399e-01 2.521704e-01 2.602926e-01 2.565916e-01 2.484811e-01 2.025532e-01 1.721715e-01 1.419340e-01
<GCONST> 9.428812e+01
<MIXTURE> 2 6.053196e-01
<MEAN> 39
 9.836015e+00 -8.442784e+00 -2.984773e+00 -1.764522e+01 -7.712828e+00 -2.190381e+01 3.492380e+00 7.783998e+00 -4.911643e+00 -1.510201e+01 -3.817396e+00 2.202724e+00 -9.094617e+00 -7.259735e-02 2.561726e-01 1.088786e-01 -2.227484e-01 4.159311e-01 2.723958e-01 -2.806327e-01 -2.506443e-01 -4.081401e-01 -2.228879e-01 7.795936e-02 -1.035765e-01 3.147705e-02 -1.059304e-02 5.868237e-02 5.109116e-02 6.693355e-02 7.346000e-02 2.743621e-02 -3.936571e-02 -7.779788e-02 -9.083539e-02 4.569065e-02 4.178312e-02 -2.700820e-02 1.829460e-02
<VARIANCE> 39
 5.623744e+00 3.562884e+01 2.384277e+01 5.430641e+01 4.520275e+01 6.289950e+01 7.660629e+01 4.561267e+01 5.944560e+01 6.087446e+01 3.730524e+01 3.066365e+01 4.223993e+01 1.479258e-01 7.230866e-01 6.345522e-01 8.526321e-01 1.160212e+00 1.109657e+00 1.485348e+00 1.536484e+00 1.673648e+00 1.471488e+00 1.250003e+00 1.059688e+00 9.239599e-01 2.636726e-02 6.824443e-02 7.984273e-02 1.333087e-01 1.279023e-01 1.804342e-01 2.019862e-01 1.730950e-01 2.064659e-01 2.029650e-01 1.837712e-01 1.492469e-01 1.367054e-01
<GCONST> 9.182217e+01
<STATE> 6
<NUMMIXES> 2
<MIXTURE> 1 4.139955e-01
<MEAN> 39
 2.347375e+00 4.518148e+00 3.953594e+00 -8.191380e+00 3.782311e-01 -1.540708e+01 3.544367e+00 1.087983e+01 3.947547e+00 -5.117417e+00 -3.146380e+00 6.969303e-02 -4.176014e+00 -1.182515e+00 6.183291e-01 4.143767e-01 1.205146e-01 3.754456e-01 1.366548e+00 2.918698e-01 -4.378990e-01 1.266273e-01 6.418495e-01 2.455770e-02 -4.416325e-02 2.856863e-01 -6.212954e-02 -1.751342e-01 -1.156049e-01 9.099421e-03 3.351999e-02 1.210601e-02 -1.242800e-01 -1.483101e-01 4.771677e-02 2.016307e-02 5.853115e-02 3.456646e-02 9.020544e-02
<VARIANCE> 39
 4.371764e+01 4.816080e+01 4.624344e+01 5.441342e+01 8.261565e+01 8.316822e+01 7.462291e+01 6.860854e+01 1.004108e+02 7.611530e+01 3.680018e+01 2.842283e+01 2.807912e+01 1.663539e+00 1.759151e+00 2.642755e+00 2.141624e+00 3.145452e+00 3.412530e+00 3.630463e+00 3.578538e+00 2.897550e+00 2.801314e+00 2.337209e+00 1.869866e+00 1.644976e+00 2.438231e-01 2.058244e-01 3.645064e-01 3.448373e-01 4.990083e-01 5.779738e-01 5.172367e-01 5.150784e-01 4.817508e-01 4.736460e-01 4.123966e-01 3.408087e-01 2.968108e-01
<GCONST> 1.232901e+02
<MIXTURE> 2 5.860045e-01
<MEAN> 39
 8.753773e+00 -4.106865e+00 2.420248e-01 -7.998338e+00 9.154110e+00 -1.507963e+01 -1.088620e+00 1.852439e+00 -5.522496e+00 -9.004871e+00 -2.803002e+00 -2.140960e-01 -3.684620e+00 -1.476694e-01 5.097189e-01 5.358403e-01 9.386089e-01 9.710466e-01 1.474445e+00 -1.305794e-02 -5.892222e-01 -8.338597e-01 3.941273e-02 -3.331202e-01 -2.909517e-01 -2.890726e-01 -7.988656e-02 3.402646e-02 1.282796e-01 7.654500e-02 -6.550119e-02 4.734465e-02 2.586540e-02 1.770991e-01 1.223229e-01 -4.259219e-02 -7.737818e-02 1.248145e-02 -1.461524e-02
<VARIANCE> 39
 9.314425e+00 3.503748e+01 4.240157e+01 7.985869e+01 1.056671e+02 9.020454e+01 7.991629e+01 8.554076e+01 1.675127e+02 6.196099e+01 5.818209e+01 4.324139e+01 4.316402e+01 3.076463e-01 7.935242e-01 1.327002e+00 2.089955e+00 1.780481e+00 3.425120e+00 3.361685e+00 3.569691e+00 3.169628e+00 2.708971e+00 2.495838e+00 2.115928e+00 1.500650e+00 5.048906e-02 1.113495e-01 2.109557e-01 3.133484e-01 2.620856e-01 5.698904e-01 4.432398e-01 5.287707e-01 5.162911e-01 4.563136e-01 4.216120e-01 3.731979e-01 2.764862e-01
<GCONST> 1.167206e+02
<TRANSP> 7
 0.000000e+00 1.000000e+00 0.000000e+00 0.000000e+00 0.000000e+00 0.000000e+00 0.000000e+00
 0.000000e+00 8.640716e-01 1.359285e-01 0.000000e+00 0.000000e+00 0.000000e+00 0.000000e+00
 0.000000e+00 0.000000e+00 8.185214e-01 1.814786e-01 0.000000e+00 0.000000e+00 0.000000e+00
 0.000000e+00 0.000000e+00 0.000000e+00 8.962556e-01 1.037444e-01 0.000000e+00 0.000000e+00
 0.000000e+00 0.000000e+00 0.000000e+00 0.000000e+00 8.542345e-01 1.457655e-01 0.000000e+00
 0.000000e+00 0.000000e+00 0.000000e+00 0.000000e+00 0.000000e+00 8.168794e-01 1.831206e-01
 0.000000e+00 0.000000e+00 0.000000e+00 0.000000e+00 0.000000e+00 0.000000e+00 0.000000e+00
<ENDHMM>
~o
<STREAMINFO> 1 39
<VECSIZE> 39<NULLD><MFCC_D_A><DIAGC>
~h "b"
<BEGINHMM>
<NUMSTATES> 5
<STATE> 2
<NUMMIXES> 2
<MIXTURE> 1 6.254463e-01
<MEAN> 39
 5.276238e+00 1.359254e+01 6.563162e+00 9.249601e+00 7.763066e+00 5.081459e-01 2.342535e+00 3.438782e+00 6.714603e-02 -7.709406e+00 -8.783448e+00 -5.351194e+00 -6.217983e+00 -3.166383e-01 8.264739e-01 3.107322e-01 2.735951e-01 -2.346976e-02 2.413750e-01 4.365512e-01 1.745837e-01 5.132895e-01 3.381214e-01 -1.170546e-01 1.821971e-01 1.880535e-01 -3.594141e-02 -1.663161e-01 -1.409258e-02 -1.442748e-01 2.085780e-02 -8.940816e-02 2.959200e-03 -5.879813e-02 -8.286271e-02 -5.750663e-03 4.330558e-02 3.098334e-02 1.410469e-02
<VARIANCE> 39
 1.372148e+01 2.254624e+01 2.091895e+01 3.014576e+01 3.976023e+01 3.986739e+01 3.929168e+01 5.313496e+01 5.490186e+01 3.366869e+01 2.871269e+01 5.141415e+01 3.186424e+01 1.616920e-01 4.854058e-01 5.000173e-01 6.104644e-01 7.162290e-01 8.688774e-01 8.944885e-01 1.018658e+00 9.643214e-01 9.256196e-01 9.607023e-01 9.014900e-01 7.472792e-01 2.318862e-02 1.010122e-01 8.075910e-02 1.193750e-01 1.248273e-01 1.637440e-01 1.682443e-01 1.829858e-01 1.766511e-01 1.736065e-01 1.835475e-01 1.529412e-01 1.349785e-01
<GCONST> 8.517452e+01
<MIXTURE> 2 3.745537e-01
<MEAN> 39
 6.287806e-01 4.428144e+00 3.261359e+00 2.614933e+00 5.926475e+00 -4.859926e+00 2.574557e+00 1.864498e+00 -9.623124e-01 -5.400100e+00 -4.172265e+00 -3.027025e-01 -2.868529e+00 1.915415e-01 1.135122e+00 4.291498e-01 6.610444e-01 -1.219887e-02 6.695285e-01 2.205777e-01 2.479864e-01 2.608920e-01 -3.186037e-02 -3.604657e-01 -1.882721e-01 -2.258905e-01 -1.143779e-02 2.447067e-02 5.269235e-02 -3.062896e-02 4.092770e-02 -6.148186e-02 1.304699e-02 -5.031164e-02 2.625524e-02 6.891474e-03 5.671158e-03 1.551528e-02 -1.198271e-02
<VARIANCE> 39
 9.035126e+01 7.559274e+01 5.835904e+01 6.576295e+01 5.899236e+01 1.206263e+02 6.104222e+01 6.482955e+01 7.700953e+01 5.683230e+01 3.645185e+01 3.917602e+01 3.272013e+01 2.108833e+00 2.905157e+00 1.769954e+00 2.518145e+00 2.165082e+00 3.765341e+00 2.391483e+00 2.331658e+00 2.180428e+00 2.318224e+00 2.045811e+00 1.814467e+00 1.557198e+00 2.469374e-01 4.153772e-01 2.784568e-01 3.533644e-01 3.471233e-01 5.248318e-01 3.992042e-01 3.993874e-01 3.730053e-01 3.866000e-01 3.475057e-01 3.192192e-01 2.707117e-01
<GCONST> 1.219703e+02
<STATE> 3
<NUMMIXES> 2
<MIXTURE> 1 6.437035e-01
<MEAN> 39
 2.590768e+00 1.967043e+01 9.908381e+00 1.046470e+01 7.563465e+00 1.438166e+00 5.830291e+00 4.391024e+00 4.716619e+00 -2.287669e+00 -7.044056e+00 -1.824473e+00 -4.983422e+00 -2.499873e-01 2.267907e-01 1.994957e-01 8.555695e-02 7.519090e-02 1.765219e-01 2.006477e-01 3.933572e-02 9.368420e-02 1.384287e-01 4.213484e-02 1.645958e-02 -9.057473e-03 -2.140359e-02 -1.010799e-01 5.712159e-04 -1.846736e-02 2.519565e-02 1.728892e-02 -1.318588e-02 -2.128575e-02 -3.069734e-02 -1.351108e-02 5.000049e-03 -2.031101e-02 -1.476249e-02
<VARIANCE> 39
 1.673325e+01 1.245805e+01 1.293477e+01 1.615974e+01 3.453255e+01 3.666621e+01 2.951082e+01 3.528972e+01 2.771270e+01 2.236773e+01 2.166177e+01 2.420105e+01 2.290147e+01 1.245954e-01 2.273925e-01 2.699553e-01 3.336528e-01 4.104428e-01 5.040878e-01 5.096493e-01 5.737041e-01 5.726607e-01 5.382701e-01 5.182950e-01 4.871023e-01 4.162177e-01 1.256379e-02 4.977782e-02 4.398355e-02 5.891210e-02 6.926593e-02 8.349657e-02 9.232445e-02 1.022237e-01 1.028182e-01 9.876537e-02 9.542797e-02 8.947516e-02 7.806358e-02
<GCONST> 6.501639e+01
<MIXTURE> 2 3.562965e-01
<MEAN> 39
 1.561115e+00 1.718970e+01 9.827394e+00 9.943781e+00 7.430373e+00 1.888713e+00 4.905643e+00 4.149629e+00 3.709512e+00 -2.920719e+00 -7.254154e+00 -3.259544e+00 -5.377938e+00 -3.470676e-01 -8.176648e-02 2.591182e-01 -3.319548e-02 2.149512e-01 -8.870040e-02 3.153626e-01 -5.818690e-02 1.116381e-01 1.333890e-01 6.762434e-02 1.189281e-01 -2.982325e-02 -1.663041e-01 -7.395247e-01 -5.123096e-02 -3.406064e-01 1.544987e-01 -9.438193e-02 3.511014e-03 -2.210529e-01 -1.458083e-01 -4.325452e-02 1.846883e-01 1.020029e-01 1.289999e-01
<VARIANCE> 39
 2.842401e+01 3.168367e+01 1.985901e+01 2.761417e+01 3.625371e+01 3.846246e+01 3.330334e+01 4.296822e+01 4.042548e+01 3.196546e+01 2.382623e+01 2.916352e+01 2.428372e+01 8.591247e-01 1.694001e+00 9.494895e-01 1.144901e+00 1.278273e+00 1.419413e+00 1.368717e+00 1.435856e+00 1.291108e+00 1.229202e+00 1.053755e+00 1.005998e+00 7.843707e-01 1.470694e-01 5.984582e-01 2.346133e-01 2.997577e-01 3.382207e-01 3.500127e-01 3.147240e-01 3.629860e-01 3.036632e-01 2.786155e-01 2.649895e-01 2.408891e-01 2.060243e-01
<GCONST> 1.020095e+02
<STATE> 4
<NUMMIXES> 2
<MIXTURE> 1 4.165794e-01
<MEAN> 39
 3.320030e-01 1.494030e+01 1.055202e+01 8.863206e+00 9.850726e+00 1.170240e+00 6.511908e+00 3.341196e+00 3.522069e+00 -3.152606e+00 -6.981445e+00 -2.898702e+00 -5.684723e+00 -9.981934e-01 -3.329042e+00 5.722574e-02 -1.719323e+00 8.293310e-01 -4.612646e-01 2.819927e-01 -1.249772e+00 -5.940130e-01 -1.199512e-01 8.369901e-01 4.233884e-01 6.686804e-01 2.273427e-01 -9.690933e-01 -3.493888e-01 -7.034281e-01 -2.144513e-01 -4.696783e-01 -3.766347e-01 -3.294990e-01 -2.877875e-01 -2.945226e-01 1.239521e-01 9.965461e-02 3.056014e-01
<VARIANCE> 39
 2.720846e+01 3.930357e+01 1.888993e+01 2.619691e+01 3.543431e+01 3.824253e+01 3.153669e+01 4.030999e+01 3.819079e+01 2.735852e+01 2.311474e+01 2.482491e+01 2.158010e+01 1.430482e+00 6.977193e+00 2.358232e+00 3.747116e+00 3.707153e+00 3.806203e+00 3.641615e+00 3.664140e+00 2.795040e+00 2.567761e+00 2.399807e+00 2.301248e+00 2.045704e+00 2.540076e-01 8.152252e-01 2.818174e-01 3.582723e-01 5.270429e-01 5.338123e-01 4.500179e-01 4.610802e-01 4.043524e-01 3.188118e-01 3.493001e-01 2.709226e-01 2.528243e-01
<GCONST> 1.172144e+02
<MIXTURE> 2 5.834206e-01
<MEAN> 39
 1.127063e+00 -3.843927e-01 7.405085e+00 -5.394061e-01 7.770227e+00 -3.994201e+00 2.390750e+00 -2.381147e+00 -4.225295e-01 -6.176585e+00 -4.780356e+00 -1.310194e+00 -2.184664e+00 9.328766e-01 -1.762203e+00 -8.649372e-01 -1.577285e+00 -7.158595e-01 -1.994570e+00 -1.189856e+00 -5.052575e-01 -4.272296e-01 -7.554318e-01 -4.393011e-02 2.072850e-01 4.835441e-01 2.464655e-01 6.753079e-01 -3.655260e-02 3.817832e-01 -1.235543e-01 -1.229682e-01 -1.173151e-01 3.575966e-01 1.358342e-01 4.181306e-02 -1.553821e-01 -8.322782e-02 -1.684873e-01
<VARIANCE> 39
 5.750654e+01 4.380451e+01 3.665458e+01 6.895858e+01 1.261586e+02 1.086182e+02 5.846122e+01 5.809205e+01 7.758012e+01 3.912049e+01 3.369460e+01 3.005034e+01 2.781381e+01 2.377057e+00 7.417659e+00 2.787290e+00 4.900379e+00 5.434824e+00 6.534115e+00 4.617019e+00 5.045584e+00 4.899991e+00 3.341634e+00 3.138503e+00 2.705736e+00 2.523584e+00 4.988686e-01 1.071933e+00 5.125961e-01 6.758664e-01 8.852303e-01 1.116039e+00 8.814676e-01 8.572525e-01 7.960414e-01 6.179444e-01 5.359701e-01 4.705388e-01 3.992449e-01
<GCONST> 1.363426e+02
<TRANSP> 5
 0.000000e+00 1.000000e+00 0.000000e+00 0.000000e+00 0.000000e+00
 0.000000e+00 7.957898e-01 2.042101e-01 0.000000e+00 0.000000e+00
 0.000000e+00 0.000000e+00 8.390936e-01 1.609064e-01 0.000000e+00
 0.000000e+00 0.000000e+00 0.000000e+00 7.821594e-01 2.178406e-01
 0.000000e+00 0.000000e+00 0.000000e+00 0.000000e+00 0.000000e+00
<ENDHMM>
~o
<STREAMINFO> 1 39
<VECSIZE> 39<NULLD><MFCC_D_A><DIAGC>
~h "bh"
<BEGINHMM>
<NUMSTATES> 5
<STATE> 2
<NUMMIXES> 2
<MIXTURE> 1 5.915358e-01
<MEAN> 39
 3.546923e+00 1.745101e+01 8.445734e+00 9.600785e+00 6.717954e+00 6.853536e-01 4.636545e+00 4.981788e+00 3.304903e+00 -4.019077e+00 -7.511245e+00 -3.510167e+00 -5.833421e+00 -3.077722e-01 4.153912e-01 2.374852e-01 1.810977e-01 7.282574e-02 2.086570e-01 3.014688e-01 8.840608e-02 2.487840e-01 2.269099e-01 3.119607e-03 1.043549e-01 8.716067e-02 -6.446777e-02 -1.723174e-01 -4.622101e-03 -6.813037e-02 4.524716e-02 1.702101e-02 -8.272456e-03 -5.916196e-02 -6.051473e-02 -1.146959e-02 3.922772e-02 1.017027e-02 1.323616e-02
<VARIANCE> 39
 1.805003e+01 2.446604e+01 1.801102e+01 2.191595e+01 3.730373e+01 3.711308e+01 3.189170e+01 4.180067e+01 4.193388e+01 3.813011e+01 2.603902e+01 3.929291e+01 2.682581e+01 1.936472e-01 4.124607e-01 3.790487e-01 4.671100e-01 5.592201e-01 6.641814e-01 6.623180e-01 8.024435e-01 7.734308e-01 6.882364e-01 7.195373e-01 6.557176e-01 5.488479e-01 2.355879e-02 9.723163e-02 6.601966e-02 9.397579e-02 1.012879e-01 1.251900e-01 1.274112e-01 1.506670e-01 1.426633e-01 1.345098e-01 1.359641e-01 1.220023e-01 1.059771e-01
<GCONST> 7.812933e+01
<MIXTURE> 2 4.084642e-01
<MEAN> 39
 8.999846e-01 1.201341e+01 6.702276e+00 7.340715e+00 6.303545e+00 2.574385e-01 3.733721e+00 2.742909e+00 1.277240e+00 -4.995972e+00 -6.716096e+00 -2.592371e+00 -5.319499e+00 -1.956991e-01 6.906813e-01 4.587745e-01 3.709764e-01 1.449294e-01 2.540408e-01 3.323680e-01 8.060581e-02 4.244035e-01 1.468971e-01 -2.211933e-01 -3.228707e-02 -1.010187e-01 -1.246740e-01 -4.159418e-01 -1.356824e-02 -1.998140e-01 9.683291e-02 -1.043633e-01 4.295060e-03 -1.465846e-01 -5.195460e-02 1.188583e-02 1.471466e-01 7.065895e-02 6.857249e-02
<VARIANCE> 39
 6.211427e+01 6.324026e+01 3.822591e+01 4.294464e+01 4.910794e+01 5.446408e+01 4.148236e+01 5.189006e+01 5.328831e+01 4.949836e+01 3.492219e+01 4.752109e+01 3.252077e+01 1.818486e+00 2.371012e+00 1.378622e+00 1.548491e+00 1.610112e+00 2.073897e+00 1.698058e+00 1.920629e+00 1.796116e+00 1.783877e+00 1.643388e+00 1.499912e+00 1.265937e+00 2.381380e-01 5.904872e-01 2.641363e-01 3.196224e-01 3.668678e-01 4.051650e-01 3.506614e-01 4.023925e-01 3.473230e-01 3.434893e-01 3.451605e-01 3.053229e-01 2.614221e-01
<GCONST> 1.145903e+02
<STATE> 3
<NUMMIXES> 2
<MIXTURE> 1 4.690129e-01
<MEAN> 39
 -3.483343e-01 1.524399e+01 1.001655e+01 9.053004e+00 9.420709e+00 1.261590e+00 6.488168e+00 2.994418e+00 3.418315e+00 -3.571547e+00 -7.071799e+00 -2.511952e+00 -5.544759e+00 -1.459903e+00 -3.445986e+00 1.445464e-01 -1.459092e+00 9.127446e-01 3.455000e-03 2.763400e-01 -1.304322e+00 -2.927238e-01 2.148107e-01 1.177404e+00 5.606898e-01 7.891921e-01 8.406266e-02 -1.212439e+00 -3.479954e-01 -6.995726e-01 -8.506712e-02 -3.008658e-01 -2.467665e-01 -3.446898e-01 -2.496203e-01 -1.477094e-01 3.661085e-01 1.795681e-01 3.453871e-01
<VARIANCE> 39
 2.929648e+01 3.933286e+01 1.951685e+01 2.525146e+01 3.848867e+01 4.188975e+01 3.275413e+01 4.760834e+01 3.801662e+01 3.156581e+01 2.453264e+01 2.692776e+01 2.192371e+01 1.402869e+00 6.628170e+00 2.242293e+00 3.618940e+00 3.611712e+00 3.714533e+00 3.726098e+00 3.662139e+00 3.060339e+00 2.632046e+00 2.699583e+00 2.495917e+00 2.184223e+00 2.712955e-01 7.298280e-01 2.750632e-01 3.540406e-01 5.073933e-01 5.008470e-01 4.018052e-01 5.032803e-01 3.933330e-01 3.517059e-01 3.905988e-01 3.121457e-01 2.739787e-01
<GCONST> 1.183498e+02
<MIXTURE> 2 5.309871e-01
<MEAN> 39
 -5.411159e+00 -1.230225e+00 6.826133e+00 -6.655207e-01 1.259781e+01 -1.783290e+00 5.588443e+00 -2.819354e+00 1.344276e-01 -3.122524e+00 -4.428063e-01 2.090595e-01 9.672461e-02 3.366828e-01 -2.270763e+00 -7.134203e-01 -1.616815e+00 -3.545459e-02 -1.207243e+00 -2.246983e-01 -2.749582e-01 -2.004955e-01 -3.572366e-02 7.936406e-01 3.711209e-01 6.970005e-01 5.526041e-01 1.089644e+00 5.027431e-02 5.190732e-01 -3.371313e-01 -1.970886e-01 4.435417e-02 6.988879e-01 2.931441e-01 1.342186e-02 -4.536041e-01 -1.838033e-01 -4.314680e-01
<VARIANCE> 39
 1.617546e+01 2.985781e+01 2.352481e+01 3.233710e+01 4.334069e+01 3.405642e+01 3.222625e+01 4.267532e+01 2.738464e+01 2.503467e+01 2.484276e+01 1.910185e+01 1.718207e+01 2.136206e+00 7.904069e+00 2.144263e+00 5.019139e+00 4.713197e+00 4.210854e+00 4.037489e+00 5.744718e+00 3.474717e+00 2.898901e+00 3.545797e+00 2.628070e+00 2.791780e+00 3.091666e-01 8.087066e-01 5.075315e-01 6.915306e-01 7.191596e-01 7.290753e-01 9.017322e-01 8.750790e-01 7.675716e-01 6.195004e-01 5.806395e-01 5.320537e-01 4.432390e-01
<GCONST> 1.254069e+02
<STATE> 4
<NUMMIXES> 2
<MIXTURE> 1 5.338969e-01
<MEAN> 39
 7.729216e-01 -5.565889e+00 3.530369e+00 -6.272335e+00 4.081560e+00 -6.426612e+00 1.232353e+01 9.161498e+00 6.060942e+00 -3.713254e+00 -2.203225e-01 1.633855e+00 -1.791244e+00 1.127934e-01 -2.567511e-01 -7.956434e-02 -8.586754e-02 -9.603128e-02 1.042675e-01 -3.773902e-02 -1.378812e-01 -1.298631e-01 -8.766741e-02 -4.067025e-02 -6.809369e-02 -1.596012e-01 1.721573e-02 9.769100e-02 1.277369e-02 1.677582e-02 2.846830e-02 -3.988277e-02 -1.436592e-01 -1.324252e-01 -9.782948e-02 -4.558189e-02 -3.281811e-02 -3.843876e-02 -2.878751e-03
<VARIANCE> 39
 1.252764e+01 4.360516e+01 4.145091e+01 2.206794e+01 4.879269e+01 5.575482e+01 5.738409e+01 4.940250e+01 7.805411e+01 4.317850e+01 2.679364e+01 3.032713e+01 3.778648e+01 2.635065e-01 8.688796e-01 6.802644e-01 8.482817e-01 1.120120e+00 1.608726e+00 1.795485e+00 1.498181e+00 1.660498e+00 1.512474e+00 1.316109e+00 1.192445e+00 1.038850e+00 3.666314e-02 8.418943e-02 1.186220e-01 1.544676e-01 1.967441e-01 2.585494e-01 2.817252e-01 3.009744e-01 2.934136e-01 2.645618e-01 2.529963e-01 2.325295e-01 1.990738e-01
<GCONST> 9.784680e+01
<MIXTURE> 2 4.661032e-01
<MEAN> 39
 3.029233e+00 -5.655249e+00 6.499969e+00 1.657842e+00 3.597345e+00 -1.722188e+00 4.229325e+00 1.007126e+00 3.724157e+00 -6.200739e+00 -2.627544e+00 6.322114e-01 -4.272494e+00 5.126800e-01 -4.465689e-01 -7.505361e-02 -2.005399e-01 -4.938178e-01 -7.661175e-01 -1.599730e-02 6.543571e-01 2.487350e-01 -2.260752e-01 -1.614991e-01 -2.484198e-02 -2.692414e-01 -1.268122e-01 1.063423e-01 7.657857e-02 8.408781e-02 1.235855e-01 1.343387e-01 1.243954e-03 -3.594252e-02 -6.574611e-02 4.451753e-03 -1.406269e-02 -6.074622e-02 -8.119717e-03
<VARIANCE> 39
 5.763465e+01 1.114956e+02 4.300163e+01 8.030423e+01 2.131878e+02 1.775940e+02 6.686781e+01 7.567987e+01 7.009420e+01 5.393612e+01 3.323819e+01 4.063372e+01 4.036892e+01 1.228531e+00 4.890902e+00 2.395770e+00 2.627556e+00 3.630573e+00 4.560678e+00 3.991234e+00 4.696123e+00 3.358623e+00 2.723073e+00 2.639409e+00 2.432442e+00 1.971839e+00 1.940201e-01 7.685664e-01 3.095566e-01 4.210542e-01 5.325058e-01 8.121679e-01 5.511627e-01 7.313976e-01 4.943946e-01 4.677323e-01 3.963127e-01 3.818853e-01 3.270118e-01
<GCONST> 1.307720e+02
<TRANSP> 5
 0.000000e+00 1.000000e+00 0.000000e+00 0.000000e+00 0.000000e+00
 0.000000e+00 8.872107e-01 1.127892e-01 0.000000e+00 0.000000e+00
 0.000000e+00 0.000000e+00 8.038977e-01 1.961023e-01 0.000000e+00
 0.000000e+00 0.000000e+00 0.000000e+00 8.790165e-01 1.209836e-01
 0.000000e+00 0.000000e+00 0.000000e+00 0.000000e+00 0.000000e+00
<ENDHMM>
~o
<STREAMINFO> 1 39
<VECSIZE> 39<NULLD><MFCC_D_A><DIAGC>
~h "c"
<BEGINHMM>
<NUMSTATES> 5
<STATE> 2
<NUMMIXES> 2
<MIXTURE> 1 7.655104e-01
<MEAN> 39
 -1.276998e+01 -2.904458e+00 7.391088e+00 3.554850e+00 4.655876e+00 -5.759826e-01 1.168683e+00 -1.230067e+00 -1.697746e+00 -3.181241e+00 -1.325218e+00 9.446376e-01 -1.196612e+00 -9.762737e-01 -1.488894e+00 5.403570e-01 -5.920993e-01 -3.426586e-01 -2.160272e-01 4.999880e-01 3.280582e-02 3.056272e-01 -7.448050e-02 4.081903e-01 2.703413e-02 1.953012e-01 -7.850464e-02 -1.237193e-01 1.049992e-01 -4.809294e-02 -1.298675e-02 -6.001426e-02 -5.008927e-02 -4.067840e-02 5.513506e-02 -2.290411e-02 1.454018e-02 3.921530e-03 -1.359938e-02
<VARIANCE> 39
 6.393328e+01 1.129642e+02 6.758242e+01 5.934843e+01 6.136208e+01 6.048317e+01 5.855462e+01 6.203602e+01 4.951944e+01 4.105365e+01 3.466132e+01 2.969128e+01 2.551049e+01 2.786735e+00 7.190244e+00 4.104833e+00 3.510748e+00 2.991369e+00 3.526868e+00 3.236286e+00 2.676061e+00 2.661107e+00 2.611045e+00 2.424805e+00 1.880323e+00 1.638370e+00 3.662995e-01 1.159823e+00 6.803278e-01 6.135032e-01 5.503865e-01 5.617306e-01 5.571216e-01 4.817974e-01 4.757152e-01 4.822449e-01 4.158528e-01 3.543675e-01 3.002819e-01
<GCONST> 1.283895e+02
<MIXTURE> 2 2.344896e-01
<MEAN> 39
 1.547436e+00 -2.163777e+01 1.395921e+01 1.006289e+01 -1.567923e+01 1.361595e+01 -6.224043e+00 -1.194527e+01 7.274455e+00 -9.127717e+00 -4.506311e+00 3.944980e+00 -9.285722e+00 -7.623243e-01 -1.363760e+00 9.596383e-01 -3.022951e-01 -6.812905e-01 8.435134e-01 -5.873580e-02 -3.918729e-02 7.407303e-01 -8.054297e-02 2.964878e-01 4.556030e-01 -1.862368e-01 -2.119349e-02 2.377949e-01 -1.094219e-01 -2.095819e-02 1.804401e-01 -1.642089e-01 -7.060765e-02 2.389868e-02 -9.235230e-02 5.793127e-02 1.196890e-02 -6.027628e-02 5.442720e-02
<VARIANCE> 39
 5.107851e+01 1.186899e+02 7.623879e+01 3.850352e+01 4.673582e+01 6.036834e+01 5.202988e+01 5.262239e+01 3.975911e+01 4.258292e+01 3.534668e+01 2.828863e+01 3.105750e+01 1.701222e+00 6.481469e+00 3.609771e+00 2.100979e+00 4.028710e+00 3.176259e+00 2.109592e+00 2.034745e+00 2.596387e+00 2.397739e+00 1.625919e+00 1.596207e+00 1.559635e+00 2.315965e-01 8.513258e-01 5.523686e-01 3.562644e-01 6.330381e-01 5.305784e-01 3.629196e-01 3.612815e-01 4.726889e-01 4.178298e-01 3.294402e-01 3.019637e-01 2.785376e-01
<GCONST> 1.220885e+02
<STATE> 3
<NUMMIXES> 2
<MIXTURE> 1 3.751214e-01
<MEAN> 39
 -1.952988e+01 -1.916464e+01 1.272695e+01 1.214120e-01 4.145599e+00 -4.239137e+00 2.322166e+00 -3.761305e+00 1.810187e+00 -4.132285e+00 1.966249e+00 1.370542e+00 -9.586452e-01 1.211173e+00 8.612634e-01 4.347600e-01 7.672012e-01 1.034686e+00 6.208756e-01 -2.598673e-01 -3.497137e-01 -2.662558e-01 -1.476930e-02 -3.795649e-01 -1.354353e-01 -4.194928e-01 6.777077e-01 5.848470e-01 -9.672348e-02 1.401912e-01 2.619465e-02 3.248331e-02 -2.922304e-01 -1.374893e-01 -2.729541e-01 -2.425130e-01 -3.424480e-01 -1.895526e-01 -1.432615e-01
<VARIANCE> 39
 5.195686e+01 6.089422e+01 4.722573e+01 5.250676e+01 8.940791e+01 9.307322e+01 4.087870e+01 5.207507e+01 4.820156e+01 3.044600e+01 3.082863e+01 2.886136e+01 2.372836e+01 5.527220e+00 4.201773e+00 2.442461e+00 2.624549e+00 2.627923e+00 2.804498e+00 2.120414e+00 2.246828e+00 2.246647e+00 2.028856e+00 2.106284e+00 1.682311e+00 1.462851e+00 3.022621e-01 2.923619e-01 5.597535e-01 4.118542e-01 4.232463e-01 5.164009e-01 4.624107e-01 4.260796e-01 3.955650e-01 3.959311e-01 3.480194e-01 3.106751e-01 2.694748e-01
<GCONST> 1.207872e+02
<MIXTURE> 2 6.248786e-01
<MEAN> 39
 -2.794480e+01 -1.437164e+01 1.345981e+01 -5.200001e+00 3.806878e+00 -5.338872e+00 4.432661e+00 -4.774643e-01 -1.923388e+00 -3.968178e+00 3.914371e+00 7.509211e-01 1.044888e+00 -5.122040e-02 -3.115382e-01 -2.994466e-01 -1.328443e-01 -3.430635e-02 -2.710252e-01 -2.051319e-01 -2.751344e-01 8.035258e-02 5.138881e-02 1.143911e-01 3.639355e-02 -5.312980e-03 2.829552e-01 1.236043e-01 -9.788311e-02 1.372731e-01 1.069195e-01 1.127536e-01 -5.036801e-03 1.380412e-02 -3.849041e-02 2.419851e-02 -5.701376e-02 2.880690e-02 -3.267800e-02
<VARIANCE> 39
 1.410624e+01 4.493296e+01 2.091286e+01 5.233178e+01 2.203515e+01 3.305107e+01 2.490351e+01 3.786079e+01 2.916884e+01 2.645552e+01 1.900458e+01 1.766791e+01 1.162947e+01 1.243226e+00 5.836539e-01 9.114361e-01 1.185236e+00 1.101917e+00 1.159954e+00 1.220968e+00 1.314093e+00 1.322812e+00 1.270460e+00 1.178883e+00 1.091371e+00 8.590777e-01 1.068851e-01 1.058631e-01 1.623957e-01 1.829676e-01 1.991430e-01 2.310317e-01 2.398109e-01 2.625337e-01 2.605916e-01 2.580018e-01 2.419544e-01 2.191111e-01 1.812129e-01
<GCONST> 9.339223e+01
<STATE> 4
<NUMMIXES> 2
<MIXTURE> 1 4.980190e-01
<MEAN> 39
 -3.448811e+00 -1.031071e+01 1.127347e+01 4.898414e+00 3.507127e+00 -7.637648e-01 -4.531873e+00 -8.733285e+00 -2.964062e+00 -8.238262e+00 -3.727796e+00 -9.592672e-01 -5.112011e+00 2.550193e+00 1.403187e+00 -9.143888e-01 7.293779e-02 2.040676e-01 -6.288481e-01 -1.444828e+00 -6.718403e-01 -8.112426e-01 -7.180414e-01 -8.833697e-01 -4.109909e-01 -1.659004e-01 -3.778983e-01 -4.301589e-01 -2.587830e-01 -2.838432e-01 -2.340574e-01 -2.371594e-01 2.230363e-02 1.650296e-01 1.935423e-01 1.026689e-01 2.332647e-01 1.685556e-01 1.561784e-01
<VARIANCE> 39
 1.015140e+02 9.243784e+01 4.835482e+01 6.350841e+01 1.490972e+02 1.145891e+02 6.219958e+01 8.467887e+01 5.808811e+01 4.220994e+01 4.383870e+01 4.274885e+01 4.476070e+01 4.067884e+00 3.879906e+00 3.020151e+00 2.542909e+00 2.745887e+00 4.336526e+00 3.546409e+00 3.531803e+00 3.211752e+00 2.839720e+00 2.887880e+00 2.206426e+00 1.835222e+00 5.176725e-01 4.793373e-01 4.504067e-01 3.494017e-01 4.016464e-01 5.348400e-01 5.466485e-01 4.203226e-01 3.852376e-01 4.072906e-01 3.815093e-01 2.924310e-01 2.520960e-01
<GCONST> 1.291079e+02
<MIXTURE> 2 5.019810e-01
<MEAN> 39
 -6.830075e+00 -3.213207e+01 1.656493e+01 1.868148e+00 -2.217429e+01 2.075378e+01 -8.029414e+00 -1.419876e+01 1.427442e+01 -8.652562e+00 -4.154548e+00 8.978322e+00 -7.866136e+00 1.177691e-01 -8.728829e-02 -2.129946e-01 4.422669e-02 3.089888e-02 -1.266644e-01 -1.111963e-01 -6.871580e-02 -2.965582e-02 2.503053e-02 5.690631e-03 -1.040984e-02 -9.392219e-03 1.478204e-01 1.857038e-01 -2.522131e-02 1.210011e-01 1.310161e-01 -4.455815e-02 2.867625e-02 -3.015396e-02 -1.224652e-01 -1.253660e-02 -6.554329e-02 -9.312492e-02 -2.993832e-02
<VARIANCE> 39
 1.284677e+01 1.669540e+01 1.954716e+01 2.662042e+01 1.859621e+01 2.622299e+01 2.617591e+01 2.167973e+01 2.067298e+01 2.141884e+01 1.469952e+01 1.445323e+01 1.428124e+01 8.587147e-01 1.143301e+00 8.775072e-01 1.226248e+00 1.633308e+00 1.409980e+00 1.294816e+00 1.338160e+00 1.572867e+00 1.414545e+00 1.166797e+00 1.188044e+00 1.125390e+00 1.155567e-01 1.869176e-01 1.506609e-01 1.650757e-01 2.783657e-01 2.870889e-01 2.564996e-01 2.637101e-01 3.274418e-01 3.048908e-01 2.593852e-01 2.513005e-01 2.336672e-01
<GCONST> 9.338656e+01
<TRANSP> 5
 0.000000e+00 1.000000e+00 0.000000e+00 0.000000e+00 0.000000e+00
 0.000000e+00 8.593848e-01 1.406152e-01 0.000000e+00 0.000000e+00
 0.000000e+00 0.000000e+00 8.660858e-01 1.339142e-01 0.000000e+00
 0.000000e+00 0.000000e+00 0.000000e+00 8.216809e-01 1.783191e-01
 0.000000e+00 0.000000e+00 0.000000e+00 0.000000e+00 0.000000e+00
<ENDHMM>
~o
<STREAMINFO> 1 39
<VECSIZE> 39<NULLD><MFCC_D_A><DIAGC>
~h "ch"
<BEGINHMM>
<NUMSTATES> 5
<STATE> 2
<NUMMIXES> 2
<MIXTURE> 1 6.471888e-01
<MEAN> 39
 -6.208437e+00 2.877211e+00 8.453526e+00 4.473539e+00 1.065223e+01 -3.089465e+00 1.084488e+00 -1.398203e+00 -3.882203e+00 -7.885325e+00 -2.610863e+00 1.741441e+00 -3.196295e+00 -1.026325e+00 -9.052370e-01 -1.841590e-02 9.603566e-03 -5.145965e-01 4.012808e-02 3.180228e-01 -1.015091e-01 6.832334e-01 1.190658e-01 4.863166e-02 -8.841082e-02 2.389250e-01 -1.035832e-01 -7.463805e-01 9.459792e-02 -3.097165e-01 -8.356324e-02 -2.524619e-01 3.687315e-02 3.736600e-02 1.656585e-01 -6.453737e-02 8.916726e-02 -7.526930e-02 9.811005e-02
<VARIANCE> 39
 6.618948e+01 6.504219e+01 5.111854e+01 4.935494e+01 5.003806e+01 5.676589e+01 6.167886e+01 5.688261e+01 6.220668e+01 6.488948e+01 3.369936e+01 3.021364e+01 2.497948e+01 1.986236e+00 9.661132e+00 3.372917e+00 3.303113e+00 2.909365e+00 3.723487e+00 3.698601e+00 3.154012e+00 3.290735e+00 3.280384e+00 2.364317e+00 2.120770e+00 1.851735e+00 2.653976e-01 1.206300e+00 5.824432e-01 5.295067e-01 4.624869e-01 5.579745e-01 6.035277e-01 5.480729e-01 5.727089e-01 5.809703e-01 4.416026e-01 3.831166e-01 3.592916e-01
<GCONST> 1.285743e+02
<MIXTURE> 2 3.528112e-01
<MEAN> 39
 -1.398083e+01 -1.539435e+01 9.519205e+00 -7.105469e-01 5.495162e+00 -6.444285e+00 3.267236e+00 -1.229340e+00 4.124438e+00 -7.713459e+00 -5.640376e-01 1.154438e-01 1.439365e-01 -1.800463e+00 -3.438819e+00 1.600048e+00 -1.596430e+00 -4.996302e-01 -1.035783e+00 2.300529e-01 -2.851801e-01 1.148188e+00 2.326884e-02 5.033159e-01 -8.215924e-02 6.192777e-01 -2.724990e-01 8.537963e-01 4.656255e-01 3.895681e-01 3.223494e-01 1.806462e-01 -1.420031e-01 -1.814463e-01 -2.379518e-01 2.151150e-01 -8.104992e-02 1.206147e-01 -1.852454e-01
<VARIANCE> 39
 2.315190e+01 3.884821e+01 4.871628e+01 4.144333e+01 4.157901e+01 3.706994e+01 3.556768e+01 2.993822e+01 4.170698e+01 2.746167e+01 3.079278e+01 2.215501e+01 1.645439e+01 3.259118e+00 6.781191e+00 5.358679e+00 4.027344e+00 3.006480e+00 3.161729e+00 2.946421e+00 3.382993e+00 3.123975e+00 3.098006e+00 3.057367e+00 2.110134e+00 1.774379e+00 5.663450e-01 7.341169e-01 1.032643e+00 8.022225e-01 5.732083e-01 5.916963e-01 5.915112e-01 5.744699e-01 5.468533e-01 6.051932e-01 5.117927e-01 4.510092e-01 3.411035e-01
<GCONST> 1.253219e+02
<STATE> 3
<NUMMIXES> 2
<MIXTURE> 1 4.414694e-01
<MEAN> 39
 -2.275753e+01 -2.219108e+01 1.978186e+01 -3.833088e+00 8.671200e+00 -9.508566e+00 4.549946e+00 -4.446940e+00 5.472899e+00 -6.422884e+00 1.545131e+00 2.561527e-01 -1.873211e-01 -1.248207e+00 -1.102056e+00 5.579060e-01 -1.818244e-01 3.455055e-01 -3.899275e-01 -9.444518e-02 -5.117421e-01 4.056162e-01 8.122369e-01 4.474400e-01 1.722315e-01 -5.570138e-02 6.006590e-01 4.088438e-01 -6.928788e-01 -2.592929e-02 -1.827275e-02 6.806939e-02 -1.507135e-01 -7.280152e-02 -1.895587e-01 8.281910e-02 -3.282104e-02 3.800093e-02 -4.430326e-02
<VARIANCE> 39
 2.094753e+01 4.476006e+01 2.311112e+01 4.832610e+01 4.579314e+01 3.798682e+01 3.813204e+01 3.502198e+01 4.750059e+01 2.761709e+01 3.369135e+01 2.022969e+01 1.606446e+01 2.146485e+00 1.474947e+00 3.007555e+00 1.643537e+00 1.897059e+00 1.696110e+00 1.839513e+00 2.512486e+00 1.799027e+00 1.803313e+00 1.560120e+00 1.347531e+00 1.107857e+00 2.491281e-01 2.653103e-01 4.048065e-01 3.599327e-01 3.478717e-01 3.467041e-01 3.163247e-01 3.710323e-01 3.708451e-01 3.483815e-01 3.012510e-01 2.598845e-01 2.255816e-01
<GCONST> 1.091663e+02
<MIXTURE> 2 5.585306e-01
<MEAN> 39
 -2.344917e+01 -2.141432e+01 1.474752e+01 -3.686111e+00 6.001824e+00 -8.785018e+00 5.401788e-02 -5.547688e+00 4.673243e+00 -1.574035e+00 2.911583e+00 -3.816146e-02 1.668992e-01 7.189911e-01 1.402001e-01 -9.599646e-01 -4.054805e-01 3.863682e-01 -6.549046e-02 -4.302933e-01 -7.932181e-01 -2.581242e-01 4.260868e-01 1.620714e-01 6.416081e-02 -5.223441e-02 2.114266e-01 1.514265e-01 -5.643934e-02 3.356852e-03 4.982981e-02 1.089160e-01 5.517570e-02 2.577658e-02 -1.288071e-01 -1.414469e-01 -6.370950e-02 1.888497e-02 1.203510e-02
<VARIANCE> 39
 1.102592e+01 1.940118e+01 1.945179e+01 2.242180e+01 1.657430e+01 1.579707e+01 1.904077e+01 2.913848e+01 2.477250e+01 2.073178e+01 2.428917e+01 1.453796e+01 1.249315e+01 5.923421e-01 7.327443e-01 8.505289e-01 9.693257e-01 1.169056e+00 1.311386e+00 1.309730e+00 1.647754e+00 1.667329e+00 1.401258e+00 1.347142e+00 1.080023e+00 9.967334e-01 1.314140e-01 1.627501e-01 1.657108e-01 1.761416e-01 2.353810e-01 2.495716e-01 2.582942e-01 2.999328e-01 3.005605e-01 2.755810e-01 2.656609e-01 2.328058e-01 2.050964e-01
<GCONST> 9.139993e+01
<STATE> 4
<NUMMIXES> 2
<MIXTURE> 1 4.863122e-01
<MEAN> 39
 -7.548367e+00 -9.681061e+00 9.836427e+00 -9.774043e-01 1.167901e+01 -3.012731e+00 2.904752e+00 -1.549114e+00 8.496298e-01 -2.308672e+00 7.145339e-02 2.345829e+00 -1.053296e+00 1.166879e+00 1.586589e+00 -3.425519e-03 9.053467e-01 9.405865e-02 3.176729e-01 -7.585428e-02 8.181973e-01 -3.578106e-01 -2.484814e-01 -4.855290e-01 -1.371369e-01 -3.339902e-01 -7.600097e-02 -3.792021e-02 -2.068991e-02 -1.222012e-01 -1.033188e-01 -2.649266e-01 -1.491086e-01 -1.640386e-01 -7.835137e-02 -1.143474e-01 1.406895e-02 -4.011636e-02 -3.837474e-03
<VARIANCE> 39
 6.538120e+01 7.080282e+01 6.284784e+01 6.543590e+01 6.886250e+01 6.906601e+01 6.994782e+01 4.635194e+01 5.810440e+01 4.132780e+01 5.235156e+01 3.501114e+01 3.369535e+01 2.124529e+00 2.462983e+00 2.405887e+00 2.678873e+00 2.984180e+00 3.464849e+00 3.658459e+00 3.092272e+00 3.154466e+00 2.672453e+00 2.336527e+00 2.008485e+00 1.749940e+00 2.310409e-01 3.559174e-01 4.062735e-01 4.033579e-01 4.706043e-01 5.342706e-01 5.720062e-01 4.386531e-01 4.974033e-01 4.415577e-01 3.802095e-01 3.563280e-01 3.042913e-01
<GCONST> 1.245481e+02
<MIXTURE> 2 5.136878e-01
<MEAN> 39
 -1.515761e+01 -2.114634e+01 9.393661e+00 -8.068988e+00 1.093358e+01 -8.987806e+00 2.365949e+00 -1.090227e+01 3.233762e+00 -2.409623e+00 1.025851e+00 2.778467e+00 9.236395e-01 1.386611e+00 9.961051e-01 -7.542633e-01 -1.957091e-01 1.377033e-01 7.249523e-01 2.797913e-01 5.046152e-01 -5.038244e-01 -6.097074e-03 -1.551394e-01 3.003449e-01 1.307628e-01 9.529468e-02 1.853856e-01 1.821021e-01 2.913285e-01 2.154098e-02 1.546567e-01 1.557127e-01 4.129786e-01 1.460469e-01 -3.184779e-03 -6.780303e-02 -4.106054e-02 -6.017129e-02
<VARIANCE> 39
 2.343526e+01 2.884550e+01 2.987848e+01 2.702281e+01 4.083856e+01 4.648051e+01 5.306421e+01 3.077010e+01 3.059939e+01 2.702209e+01 3.338903e+01 2.008587e+01 2.044807e+01 5.810500e-01 7.334043e-01 1.137486e+00 1.683242e+00 1.561475e+00 1.744643e+00 2.080612e+00 2.409208e+00 2.119741e+00 2.023028e+00 1.789323e+00 1.409156e+00 1.192045e+00 8.338635e-02 1.461103e-01 1.759686e-01 2.205280e-01 2.804307e-01 3.174840e-01 3.521171e-01 3.593554e-01 3.627976e-01 3.856277e-01 3.328649e-01 2.853586e-01 2.340261e-01
<GCONST> 1.031288e+02
<TRANSP> 5
 0.000000e+00 1.000000e+00 0.000000e+00 0.000000e+00 0.000000e+00
 0.000000e+00 8.883337e-01 1.116663e-01 0.000000e+00 0.000000e+00
 0.000000e+00 0.000000e+00 8.874678e-01 1.125322e-01 0.000000e+00
 0.000000e+00 0.000000e+00 0.000000e+00 8.944671e-01 1.055329e-01
 0.000000e+00 0.000000e+00 0.000000e+00 0.000000e+00 0.000000e+00
<ENDHMM>
~o
<STREAMINFO> 1 39
<VECSIZE> 39<NULLD><MFCC_D_A><DIAGC>
~h "d"
<BEGINHMM>
<NUMSTATES> 5
<STATE> 2
<NUMMIXES> 2
<MIXTURE> 1 5.796319e-01
<MEAN> 39
 1.790525e+00 1.548930e+01 1.050380e+01 1.247450e+01 1.091170e+01 3.077132e+00 1.533925e+00 -3.304739e+00 -2.685660e+00 -4.719213e+00 -4.144773e+00 9.616949e-01 -2.566659e+00 -3.163460e-01 4.991788e-01 9.384618e-02 1.854930e-01 8.000522e-02 1.635974e-01 2.873493e-01 4.599327e-02 1.524239e-01 8.783519e-02 -6.416964e-02 1.108669e-01 5.072169e-02 -7.005759e-02 -2.151436e-01 4.034683e-02 -7.880041e-02 1.436943e-04 -5.104033e-03 2.755016e-02 2.416522e-02 -2.726167e-03 -1.620178e-03 -1.380362e-02 -6.204441e-02 -2.830295e-02
<VARIANCE> 39
 2.068938e+01 2.853305e+01 1.613087e+01 2.351674e+01 4.169268e+01 4.355621e+01 3.674961e+01 3.694481e+01 2.540508e+01 2.631267e+01 2.813219e+01 2.777962e+01 3.050484e+01 1.738031e-01 4.555989e-01 4.024365e-01 4.712307e-01 5.122836e-01 5.916635e-01 7.144611e-01 7.457516e-01 7.731107e-01 6.954286e-01 7.271755e-01 6.585036e-01 5.406991e-01 1.892250e-02 9.719744e-02 7.245678e-02 9.658868e-02 9.931371e-02 1.203756e-01 1.318286e-01 1.443655e-01 1.438328e-01 1.349819e-01 1.364107e-01 1.230205e-01 1.047351e-01
<GCONST> 7.737038e+01
<MIXTURE> 2 4.203682e-01
<MEAN> 39
 8.219471e-01 9.180249e+00 1.008764e+01 7.389422e+00 8.945368e+00 1.768477e+00 1.716422e+00 -3.486192e+00 -3.947317e+00 -5.124890e+00 -4.208127e+00 -2.000946e-01 -2.453640e+00 -1.974729e-01 7.277863e-01 9.383725e-02 6.207719e-01 4.133178e-02 3.319595e-01 3.307400e-01 1.445841e-01 1.316580e-01 2.007862e-03 1.669523e-02 1.881257e-01 -1.841191e-02 -1.008731e-01 -4.266264e-01 -2.290003e-02 -1.378952e-01 1.708424e-02 -1.469531e-01 4.907610e-02 -1.190918e-02 4.810468e-02 -9.604198e-03 2.319210e-02 -3.392682e-02 -1.617574e-02
<VARIANCE> 39
 4.289161e+01 6.387100e+01 3.665965e+01 5.681648e+01 5.955124e+01 6.805638e+01 4.983274e+01 5.598347e+01 4.537728e+01 4.461301e+01 3.659527e+01 3.488428e+01 3.749423e+01 1.110960e+00 2.725329e+00 1.725011e+00 1.943701e+00 1.759600e+00 2.263540e+00 2.069606e+00 2.137056e+00 1.958166e+00 1.873840e+00 1.544575e+00 1.390283e+00 1.133567e+00 1.826877e-01 6.073975e-01 3.477514e-01 3.943970e-01 3.594499e-01 4.183824e-01 4.042684e-01 4.178881e-01 3.730620e-01 3.617783e-01 3.103298e-01 2.758646e-01 2.316706e-01
<GCONST> 1.154593e+02
<STATE> 3
<NUMMIXES> 2
<MIXTURE> 1 8.053016e-01
<MEAN> 39
 -1.756720e+00 1.193719e+01 1.183802e+01 1.096080e+01 1.087584e+01 3.372874e+00 3.771723e+00 -2.750238e+00 -2.505848e+00 -4.915583e+00 -5.146753e+00 -5.049285e-01 -2.897688e+00 -1.007162e+00 -2.804857e+00 -1.813065e-01 -6.480380e-01 1.615852e-02 -4.075114e-01 7.828861e-01 5.172760e-01 4.266897e-01 2.508785e-01 4.873017e-01 -1.582734e-01 -1.396120e-01 3.827249e-02 -1.124864e+00 -1.929938e-01 -6.758838e-01 -1.919874e-01 -2.767226e-01 -1.577659e-01 -1.288475e-01 3.409079e-02 6.777392e-02 2.136772e-01 -6.880777e-02 4.119371e-02
<VARIANCE> 39
 3.161078e+01 4.533047e+01 2.188283e+01 3.910812e+01 4.044218e+01 3.875995e+01 3.737304e+01 4.224370e+01 2.909729e+01 2.684187e+01 2.802890e+01 2.888224e+01 3.134528e+01 1.159996e+00 7.264074e+00 2.790164e+00 4.529029e+00 3.168412e+00 3.240679e+00 3.013069e+00 3.212563e+00 2.711923e+00 2.515573e+00 2.504327e+00 2.038733e+00 1.716401e+00 2.196776e-01 8.453366e-01 3.757071e-01 5.729369e-01 4.769995e-01 4.677395e-01 4.796363e-01 5.174524e-01 4.130879e-01 3.604583e-01 3.770585e-01 3.272069e-01 2.831988e-01
<GCONST> 1.192065e+02
<MIXTURE> 2 1.946984e-01
<MEAN> 39
 1.191866e+01 -1.201735e+01 1.058421e+01 1.529316e+01 -1.027894e+01 1.204600e+01 -1.809453e-01 -8.416222e+00 5.384990e+00 -9.244080e+00 -7.935837e+00 3.136243e+00 -8.213373e+00 9.277595e-01 -1.740016e+00 -1.738343e-01 -6.870504e-01 -1.524700e+00 -2.283288e-01 -1.202662e+00 -1.260658e+00 3.535984e-01 -4.937746e-01 -4.772175e-01 2.859403e-01 -1.294407e-01 7.230937e-02 6.420599e-01 -2.514174e-02 -1.029385e-01 3.152247e-01 -2.629991e-01 -2.718934e-01 -1.160978e-01 -2.101662e-01 1.576113e-02 -1.069326e-01 -6.122763e-02 2.053986e-01
<VARIANCE> 39
 1.962045e+01 6.206980e+01 3.061846e+01 4.153206e+01 5.049626e+01 4.007604e+01 6.693837e+01 5.284755e+01 4.604701e+01 3.486831e+01 4.601350e+01 2.464125e+01 2.400535e+01 1.249021e+00 1.202293e+01 2.558324e+00 3.017768e+00 5.947533e+00 4.435397e+00 3.333477e+00 3.918983e+00 5.803726e+00 2.639781e+00 3.443838e+00 2.531475e+00 2.829881e+00 2.018686e-01 1.596105e+00 4.939630e-01 5.932940e-01 9.407430e-01 7.859221e-01 6.297496e-01 8.154257e-01 1.042131e+00 4.815235e-01 5.978111e-01 4.294287e-01 4.303118e-01
<GCONST> 1.296162e+02
<STATE> 4
<NUMMIXES> 2
<MIXTURE> 1 5.304408e-01
<MEAN> 39
 -5.960867e+00 -3.570202e+00 9.507327e+00 2.461542e+00 1.050049e+01 -1.002564e+00 5.026332e+00 -2.106628e+00 -1.396899e+00 -3.269614e+00 -1.574222e+00 -1.753432e+00 -2.316017e+00 5.404528e-02 -2.436507e+00 -1.131421e-01 -2.010257e+00 -2.283622e-01 -1.070808e+00 -8.108972e-01 -1.104292e+00 -4.984519e-01 -1.989568e-01 2.333876e-01 -3.107715e-01 2.941080e-01 5.591445e-01 9.568694e-01 2.156981e-01 2.158644e-01 1.381548e-02 -3.054440e-02 -6.270005e-01 -5.066681e-01 -4.319266e-01 -2.680098e-01 -3.675258e-01 -7.760053e-03 4.144738e-02
<VARIANCE> 39
 2.680400e+01 5.072412e+01 3.094897e+01 6.792947e+01 4.106907e+01 3.877210e+01 4.245966e+01 4.683808e+01 3.592613e+01 3.185135e+01 2.680775e+01 2.295175e+01 2.159239e+01 2.077205e+00 9.404163e+00 3.435438e+00 5.657697e+00 3.575246e+00 4.027056e+00 4.325644e+00 4.515090e+00 3.995108e+00 3.205133e+00 3.466128e+00 2.587858e+00 2.230791e+00 2.606226e-01 1.314861e+00 7.435173e-01 1.315094e+00 7.399924e-01 8.801910e-01 7.143351e-01 8.317723e-01 7.823712e-01 6.495529e-01 6.321554e-01 5.095341e-01 4.747482e-01
<GCONST> 1.305751e+02
<MIXTURE> 2 4.695592e-01
<MEAN> 39
 -4.086959e-01 -2.252187e+00 1.095159e+01 7.844597e-01 9.156922e+00 -3.023440e+00 -2.146419e+00 -9.206723e+00 -6.850807e+00 -6.723479e+00 -5.012598e+00 -2.930106e+00 -1.615943e+00 7.740140e-01 2.100460e-03 -3.259289e-02 -4.019079e-01 -1.047337e-01 -7.344314e-01 -1.206074e+00 -6.210018e-01 -4.395818e-01 -2.035058e-01 -4.242857e-01 -1.427207e-01 1.283350e-01 -1.616955e-01 -6.340332e-02 -1.501372e-01 1.220174e-01 -4.066984e-02 -1.529032e-02 2.357857e-01 4.094481e-01 3.100479e-01 1.541791e-01 1.363267e-01 6.868700e-02 -6.719157e-02
<VARIANCE> 39
 3.715074e+01 6.295872e+01 3.198745e+01 6.445218e+01 8.229505e+01 8.084136e+01 5.859675e+01 7.594639e+01 6.420951e+01 4.683991e+01 4.693310e+01 4.132273e+01 3.972906e+01 1.534291e+00 2.016885e+00 2.162738e+00 3.329209e+00 2.383236e+00 4.235436e+00 3.521721e+00 4.162294e+00 4.105124e+00 2.801888e+00 2.817524e+00 2.361974e+00 1.887056e+00 1.539320e-01 3.491505e-01 2.721979e-01 3.738732e-01 3.158426e-01 4.507153e-01 4.253035e-01 5.035994e-01 4.730533e-01 3.681838e-01 3.340822e-01 2.914519e-01 2.470282e-01
<GCONST> 1.224300e+02
<TRANSP> 5
 0.000000e+00 1.000000e+00 0.000000e+00 0.000000e+00 0.000000e+00
 0.000000e+00 8.300849e-01 1.699152e-01 0.000000e+00 0.000000e+00
 0.000000e+00 0.000000e+00 6.380531e-01 3.619470e-01 0.000000e+00
 0.000000e+00 0.000000e+00 0.000000e+00 7.560194e-01 2.439807e-01
 0.000000e+00 0.000000e+00 0.000000e+00 0.000000e+00 0.000000e+00
<ENDHMM>
~o
<STREAMINFO> 1 39
<VECSIZE> 39<NULLD><MFCC_D_A><DIAGC>
~h "dh"
<BEGINHMM>
<NUMSTATES> 5
<STATE> 2
<NUMMIXES> 2
<MIXTURE> 1 4.730666e-01
<MEAN> 39
 2.288773e+00 1.632631e+01 9.377928e+00 1.075352e+01 9.834296e+00 2.792890e+00 2.838240e+00 -3.120318e+00 -4.274849e+00 -6.024026e+00 -4.306987e+00 1.230918e+00 -3.336005e+00 -3.089674e-01 4.458632e-01 1.001886e-01 2.521787e-01 1.455671e-01 1.523445e-01 1.919785e-01 1.417712e-02 1.983533e-01 1.503799e-01 -1.580147e-02 1.078644e-01 3.623696e-02 -1.019330e-01 -2.004663e-01 6.116763e-02 -8.447009e-02 -8.590072e-03 9.493076e-03 3.148306e-02 2.863636e-02 2.665333e-02 1.927509e-02 -1.067665e-02 -5.531480e-02 -1.368943e-02
<VARIANCE> 39
 1.947991e+01 2.535824e+01 1.594681e+01 2.223092e+01 4.149592e+01 4.053182e+01 3.552578e+01 4.428940e+01 2.931071e+01 3.093544e+01 3.129131e+01 4.042027e+01 4.206920e+01 2.140916e-01 4.618907e-01 4.837974e-01 5.064144e-01 5.670062e-01 6.104978e-01 7.705884e-01 8.550758e-01 8.085430e-01 7.602913e-01 7.913575e-01 7.035324e-01 6.106688e-01 2.445498e-02 1.036808e-01 8.617461e-02 9.948499e-02 1.056993e-01 1.227495e-01 1.412295e-01 1.564982e-01 1.522380e-01 1.485398e-01 1.450739e-01 1.331231e-01 1.137887e-01
<GCONST> 8.066431e+01
<MIXTURE> 2 5.269334e-01
<MEAN> 39
 4.440011e-01 1.015259e+01 8.957834e+00 5.978780e+00 8.053596e+00 4.040689e-01 2.524585e+00 -3.377276e+00 -4.778091e+00 -5.849342e+00 -3.478304e+00 5.040407e-01 -3.516099e+00 -4.106517e-01 5.203543e-01 2.203401e-01 5.981609e-01 1.684792e-01 4.183007e-01 2.526062e-01 5.282463e-02 3.442431e-01 1.849599e-01 -5.503726e-02 1.212713e-01 -5.869469e-02 -1.385543e-01 -5.130112e-01 -3.405240e-02 -1.987349e-01 -8.538280e-03 -1.044526e-01 2.731329e-02 -1.429631e-02 9.994240e-02 2.454989e-02 4.112171e-02 -6.904235e-02 2.288815e-02
<VARIANCE> 39
 4.464786e+01 7.402248e+01 3.916748e+01 6.163973e+01 5.325657e+01 7.030670e+01 4.834061e+01 5.044547e+01 4.577045e+01 4.304642e+01 3.284398e+01 3.670469e+01 4.222586e+01 1.246659e+00 3.375552e+00 1.781626e+00 2.095303e+00 1.657371e+00 2.139904e+00 2.017300e+00 2.074131e+00 2.083736e+00 1.849843e+00 1.627028e+00 1.474046e+00 1.205041e+00 2.052635e-01 7.569364e-01 3.435064e-01 4.000207e-01 3.400031e-01 4.142972e-01 3.833974e-01 4.248572e-01 3.959892e-01 3.667150e-01 3.233296e-01 2.962529e-01 2.490577e-01
<GCONST> 1.165958e+02
<STATE> 3
<NUMMIXES> 2
<MIXTURE> 1 4.678168e-01
<MEAN> 39
 -4.169620e+00 9.148314e+00 1.130397e+01 8.593994e+00 1.050189e+01 2.682025e+00 5.322473e+00 -2.273084e+00 -1.537296e+00 -4.398637e+00 -4.061460e+00 -2.704328e-01 -3.771457e+00 -1.415896e+00 -3.963805e+00 -3.780794e-01 -1.646146e+00 -1.356418e-01 -5.010195e-01 4.117968e-01 2.091675e-01 1.002730e+00 5.562360e-01 5.570977e-01 -4.280776e-01 2.998175e-01 1.187504e-01 -7.858641e-01 -2.777472e-01 -7.267185e-01 -2.399877e-01 -3.677289e-01 -2.983743e-01 -2.258568e-01 -8.297264e-03 3.318942e-02 2.329535e-01 1.699254e-02 1.737077e-01
<VARIANCE> 39
 3.967216e+01 7.299852e+01 2.930803e+01 4.739090e+01 4.698180e+01 4.625236e+01 4.507175e+01 4.688634e+01 3.428044e+01 3.324430e+01 2.885973e+01 2.972272e+01 2.877954e+01 2.038105e+00 8.687958e+00 3.464445e+00 5.269389e+00 3.749116e+00 4.052609e+00 3.864555e+00 4.221306e+00 3.525813e+00 3.329642e+00 3.022701e+00 2.589343e+00 2.348273e+00 3.301101e-01 1.427046e+00 5.253100e-01 6.106564e-01 5.301123e-01 5.657506e-01 5.640512e-01 6.208498e-01 5.410489e-01 4.898732e-01 4.439128e-01 3.867319e-01 3.186786e-01
<GCONST> 1.276656e+02
<MIXTURE> 2 5.321832e-01
<MEAN> 39
 -1.023835e+01 -6.726864e+00 7.850749e+00 -3.853838e+00 9.315313e+00 -3.934557e+00 3.222841e+00 -3.951809e+00 1.816975e+00 -1.270659e+00 -1.870397e-03 -1.264110e+00 -3.647693e-01 -3.571197e-02 -1.263069e+00 3.707303e-01 -1.084420e+00 1.676735e-01 -7.347567e-01 -7.242793e-01 -8.041199e-01 -6.787458e-02 9.709295e-02 3.927135e-01 3.118508e-02 3.540062e-01 4.629692e-01 1.073206e+00 3.263531e-01 7.260429e-01 2.186112e-01 1.862455e-01 -6.878883e-02 1.221001e-02 -3.416078e-01 -2.649324e-01 -2.632792e-01 7.662871e-02 -2.566681e-01
<VARIANCE> 39
 2.149936e+01 2.225418e+01 2.376841e+01 4.184294e+01 2.873077e+01 2.931921e+01 4.008204e+01 3.448128e+01 3.493475e+01 2.477640e+01 2.341009e+01 1.845043e+01 1.615943e+01 1.921983e+00 6.663126e+00 2.894174e+00 6.455459e+00 3.037065e+00 3.609450e+00 3.175798e+00 3.330348e+00 3.299609e+00 3.029845e+00 3.048684e+00 2.205196e+00 2.337471e+00 2.752917e-01 9.637222e-01 5.395126e-01 7.467869e-01 5.983032e-01 7.177151e-01 7.241148e-01 8.058838e-01 6.630453e-01 6.518525e-01 5.426400e-01 4.528943e-01 4.388024e-01
<GCONST> 1.229334e+02
<STATE> 4
<NUMMIXES> 2
<MIXTURE> 1 8.406972e-01
<MEAN> 39
 -3.662678e+00 -4.483151e+00 9.487885e+00 -1.731319e+00 1.173765e+01 -5.522673e+00 3.550583e+00 -2.327564e+00 -6.315175e-01 -3.587808e+00 3.468299e-01 -4.844426e-01 -2.215935e+00 6.091665e-01 2.213200e-01 -1.196983e-01 2.015921e-02 -7.916418e-02 -3.846098e-01 -1.891251e-01 1.572868e-01 -2.643736e-01 -3.297154e-01 -1.560477e-01 -8.078217e-02 -2.883168e-01 -4.338152e-02 -1.676774e-02 -1.084367e-01 -5.563742e-02 -9.674940e-02 -2.676804e-02 -2.580738e-03 3.798010e-02 4.850931e-02 1.860395e-02 3.045375e-03 -1.549209e-02 8.128116e-03
<VARIANCE> 39
 2.542565e+01 3.043866e+01 4.703680e+01 4.555312e+01 5.512773e+01 5.775063e+01 6.964706e+01 6.398879e+01 6.241386e+01 4.715637e+01 4.743335e+01 3.741284e+01 4.589232e+01 7.477255e-01 1.106701e+00 1.241154e+00 1.755430e+00 1.743835e+00 2.432160e+00 2.564942e+00 2.432475e+00 2.557628e+00 2.196113e+00 1.923128e+00 1.564622e+00 1.506630e+00 9.800782e-02 1.621162e-01 1.845058e-01 2.524734e-01 2.698651e-01 3.509659e-01 3.772879e-01 3.906769e-01 3.851145e-01 3.477938e-01 3.184883e-01 2.718914e-01 2.379797e-01
<GCONST> 1.114911e+02
<MIXTURE> 2 1.593028e-01
<MEAN> 39
 8.675163e+00 -1.799908e+01 1.228563e+01 9.672447e+00 -1.064975e+01 1.446832e+01 -4.814093e+00 -6.822515e+00 8.858388e+00 -9.290821e+00 -2.032138e+00 4.074231e+00 -1.007510e+01 4.840867e-01 -1.557858e+00 -1.898333e-02 -3.610608e-01 -8.199300e-01 -2.185341e-01 -6.330041e-01 -4.917131e-01 2.605965e-01 -3.060217e-01 2.313036e-02 7.125246e-02 -3.698149e-01 7.660998e-02 5.617447e-01 6.969126e-03 5.529022e-02 2.457905e-01 -2.426112e-01 -5.202731e-02 -2.617807e-02 -3.082468e-01 -5.711687e-02 -3.716232e-02 -7.574251e-02 3.229618e-02
<VARIANCE> 39
 4.056689e+01 1.128297e+02 3.717507e+01 5.629657e+01 7.747755e+01 6.696118e+01 7.627569e+01 3.471268e+01 5.479458e+01 4.325599e+01 3.385979e+01 2.659243e+01 2.826923e+01 1.816811e+00 1.336976e+01 2.677155e+00 3.670621e+00 6.061986e+00 4.770236e+00 3.272641e+00 3.188965e+00 5.524909e+00 2.860323e+00 2.629304e+00 2.333042e+00 1.928273e+00 2.955732e-01 1.799013e+00 4.950984e-01 5.993766e-01 9.514357e-01 7.287268e-01 5.592911e-01 6.034930e-01 7.974287e-01 5.137777e-01 4.448715e-01 3.813268e-01 3.443602e-01
<GCONST> 1.314876e+02
<TRANSP> 5
 0.000000e+00 1.000000e+00 0.000000e+00 0.000000e+00 0.000000e+00
 0.000000e+00 8.701406e-01 1.298594e-01 0.000000e+00 0.000000e+00
 0.000000e+00 0.000000e+00 8.318718e-01 1.681282e-01 0.000000e+00
 0.000000e+00 0.000000e+00 0.000000e+00 8.562248e-01 1.437753e-01
 0.000000e+00 0.000000e+00 0.000000e+00 0.000000e+00 0.000000e+00
<ENDHMM>
~o
<STREAMINFO> 1 39
<VECSIZE> 39<NULLD><MFCC_D_A><DIAGC>
~h "dx"
<BEGINHMM>
<NUMSTATES> 5
<STATE> 2
<NUMMIXES> 2
<MIXTURE> 1 3.477938e-01
<MEAN> 39
 2.889493e+00 1.018579e+01 4.476655e+00 8.807657e+00 1.472886e+01 5.182794e+00 -1.862584e+00 -6.307084e+00 -4.165952e+00 -4.691501e+00 -3.598890e+00 1.418305e+00 -1.694453e+00 -2.690325e-01 3.770309e-01 1.513308e-01 2.229883e-01 -8.225697e-03 1.181390e-01 2.832097e-01 1.245052e-01 1.031673e-01 6.540531e-02 -3.958813e-02 5.546968e-02 1.109735e-01 -4.122803e-02 -1.408376e-01 7.781676e-03 -9.941500e-02 -1.805792e-02 -3.647626e-02 7.514168e-02 8.731971e-02 2.643417e-02 -6.083800e-03 -2.665406e-02 -3.736721e-02 -1.244576e-02
<VARIANCE> 39
 5.571553e+01 6.133804e+01 3.051339e+01 9.471757e+01 6.810465e+01 8.579105e+01 5.983328e+01 5.048296e+01 5.145208e+01 4.522596e+01 4.570798e+01 3.235049e+01 3.366803e+01 1.994014e-01 4.978867e-01 5.157444e-01 7.042879e-01 7.368711e-01 8.517339e-01 9.233822e-01 1.047765e+00 9.996631e-01 8.926670e-01 8.879205e-01 7.721393e-01 6.312622e-01 2.620115e-02 1.271345e-01 9.316085e-02 1.302784e-01 1.337714e-01 1.510499e-01 1.614860e-01 1.725847e-01 1.711766e-01 1.547559e-01 1.486463e-01 1.354238e-01 1.159557e-01
<GCONST> 9.097509e+01
<MIXTURE> 2 6.522061e-01
<MEAN> 39
 4.379151e+00 5.914761e+00 2.378072e+00 -4.745516e-01 1.396698e+01 4.700501e+00 -3.928228e-01 -5.593184e+00 -5.771723e+00 -7.035788e+00 -5.160434e+00 -1.031164e+00 -1.571215e+00 -1.240468e-01 6.566753e-01 2.874177e-01 1.345218e+00 -7.583054e-02 6.364091e-01 7.319052e-01 4.827836e-01 -1.208903e-01 -3.556255e-02 -4.839701e-02 1.503854e-01 -4.039510e-02 -6.002941e-02 -3.650290e-01 2.194395e-02 -6.061161e-03 -6.778141e-02 -4.246052e-01 -1.577817e-01 -1.542428e-02 3.886895e-02 -4.043881e-02 -1.704291e-02 -1.927627e-03 3.279249e-02
<VARIANCE> 39
 2.860505e+01 4.835121e+01 5.045191e+01 1.205929e+02 7.551163e+01 1.049387e+02 8.428280e+01 7.673942e+01 6.870710e+01 5.546916e+01 5.491088e+01 4.257477e+01 4.824844e+01 7.654590e-01 2.590634e+00 2.087074e+00 3.300089e+00 2.476054e+00 3.215163e+00 3.392939e+00 3.443537e+00 2.909364e+00 2.547723e+00 2.228839e+00 2.130642e+00 1.844323e+00 1.283567e-01 5.060219e-01 3.433008e-01 5.327466e-01 4.633182e-01 5.924101e-01 6.414611e-01 6.274487e-01 5.099449e-01 4.666655e-01 4.141512e-01 3.851100e-01 3.253304e-01
<GCONST> 1.255440e+02
<STATE> 3
<NUMMIXES> 2
<MIXTURE> 1 6.177709e-01
<MEAN> 39
 2.845601e+00 1.045067e+01 5.010282e+00 6.616279e+00 1.273179e+01 6.387066e+00 2.354333e+00 -4.146530e+00 -6.941739e+00 -6.776821e+00 -5.092056e+00 -6.010025e-01 -1.033092e+00 -7.239982e-01 -1.882776e+00 -1.990018e-01 3.155157e-01 3.640820e-01 -1.627933e+00 2.721389e-01 8.968357e-01 4.057451e-01 -2.613131e-01 -1.004307e-01 1.245569e-01 -5.245138e-03 -9.545763e-02 -1.152097e+00 -2.285113e-01 -7.046990e-01 2.873103e-02 -8.034981e-01 -3.843140e-01 -2.205279e-01 3.264031e-02 -6.576564e-02 9.937082e-02 -1.088883e-01 1.310437e-02
<VARIANCE> 39
 2.636384e+01 3.600382e+01 3.101748e+01 5.714838e+01 5.938157e+01 6.383921e+01 5.590200e+01 5.907682e+01 5.362524e+01 4.371574e+01 4.159442e+01 3.454283e+01 3.936631e+01 9.706190e-01 5.153237e+00 3.329103e+00 4.880787e+00 3.633132e+00 4.708484e+00 4.325498e+00 4.336072e+00 3.375385e+00 3.268586e+00 2.928433e+00 2.768767e+00 2.241592e+00 2.233451e-01 5.178636e-01 4.335728e-01 5.432820e-01 5.991325e-01 6.640565e-01 6.666137e-01 7.849477e-01 5.965687e-01 4.943048e-01 4.878516e-01 4.979376e-01 3.895379e-01
<GCONST> 1.277771e+02
<MIXTURE> 2 3.822292e-01
<MEAN> 39
 -8.992921e-01 5.013469e-01 2.320979e-01 1.029286e+00 1.317140e+01 -2.415920e+00 2.756857e+00 -2.053709e+00 -1.015787e+01 -1.122697e+01 -3.651332e+00 1.502327e-01 1.196378e+00 -2.910846e-01 -2.360187e+00 -5.310300e-02 -1.597188e+00 -7.726906e-01 -2.377275e+00 -1.628577e+00 -1.713620e+00 -1.068278e+00 -1.648767e-01 2.792586e-01 -4.207263e-01 3.801110e-01 2.709686e-01 4.943624e-01 6.813766e-01 -3.166084e-01 -6.999403e-01 4.639206e-01 -2.660238e-01 -7.358972e-01 -1.684773e-01 4.427016e-01 -8.073268e-02 -3.642146e-01 1.143374e-01
<VARIANCE> 39
 1.283343e+01 3.120782e+01 2.246076e+01 6.814048e+01 4.399575e+01 4.095583e+01 3.361506e+01 6.211983e+01 4.472926e+01 6.022343e+01 3.552147e+01 2.718473e+01 2.712535e+01 1.267207e+00 3.648936e+00 3.549844e+00 3.737963e+00 4.122838e+00 4.248947e+00 3.161346e+00 5.040396e+00 3.204241e+00 3.510627e+00 3.651996e+00 3.258856e+00 2.731767e+00 2.050913e-01 5.029709e-01 4.791010e-01 9.104276e-01 5.687448e-01 9.309881e-01 7.865915e-01 1.063561e+00 8.539118e-01 6.969000e-01 5.844136e-01 6.217899e-01 5.330485e-01
<GCONST> 1.277902e+02
<STATE> 4
<NUMMIXES> 2
<MIXTURE> 1 5.144572e-01
<MEAN> 39
 1.304038e+00 -3.826500e+00 6.021630e+00 6.175017e+00 1.004110e+01 -1.051249e+00 -1.445690e+00 -6.072801e+00 -1.338095e+00 -5.182062e+00 -5.728939e+00 -1.206223e+00 -3.603485e+00 1.355563e-01 -1.796751e+00 2.821131e-01 -4.652932e-01 -6.337036e-01 -1.468599e+00 -9.642082e-01 -5.935700e-01 -6.565513e-02 -2.348114e-01 -9.968906e-03 -1.340821e-01 3.521292e-02 1.630715e-01 4.066289e-01 2.339488e-02 -3.494004e-02 -1.146302e-02 -5.041872e-04 -3.027828e-01 -1.009018e-01 -2.471170e-01 -1.121299e-01 -4.356373e-03 -4.462063e-02 -1.466819e-02
<VARIANCE> 39
 9.428517e+01 8.756977e+01 5.213117e+01 9.088174e+01 1.334019e+02 1.095279e+02 6.804443e+01 6.112454e+01 7.004240e+01 4.551554e+01 5.190263e+01 4.174542e+01 3.835419e+01 2.114189e+00 8.353209e+00 3.573508e+00 4.250682e+00 4.264010e+00 6.124862e+00 5.717679e+00 4.655291e+00 5.027117e+00 3.676001e+00 3.402382e+00 3.178438e+00 2.625059e+00 3.060624e-01 1.228163e+00 6.866867e-01 6.974409e-01 7.027560e-01 9.804463e-01 1.049883e+00 9.245799e-01 8.562171e-01 6.677560e-01 5.815073e-01 5.387393e-01 4.450884e-01
<GCONST> 1.402295e+02
<MIXTURE> 2 4.855427e-01
<MEAN> 39
 3.259215e-01 -2.646016e+00 6.140371e+00 -2.564234e+00 8.298019e+00 -7.315099e+00 -4.320319e+00 -9.402939e+00 -1.163840e+01 -8.306192e+00 -5.469001e+00 -5.116939e+00 -2.197038e-02 -1.562899e-01 -2.484818e-01 1.162366e+00 -5.396860e-01 -1.106851e+00 -2.602355e-01 -4.604877e-01 -6.235237e-01 2.888412e-01 6.298583e-01 -3.480512e-01 -7.912727e-01 -1.145652e-01 -1.118974e-01 2.732650e-01 -8.332775e-02 2.911717e-01 1.196523e-01 3.684159e-01 4.111207e-01 4.280088e-01 4.027213e-01 2.415644e-02 -2.245751e-02 1.612222e-01 -1.101171e-01
<VARIANCE> 39
 1.931584e+01 3.953872e+01 4.033069e+01 7.935562e+01 6.856788e+01 8.142310e+01 5.105621e+01 7.207124e+01 7.043251e+01 5.365372e+01 6.157260e+01 4.176398e+01 4.981958e+01 6.240329e-01 1.161438e+00 1.831095e+00 2.287025e+00 1.975704e+00 3.107929e+00 3.158792e+00 3.377515e+00 3.254831e+00 2.687284e+00 2.237648e+00 2.321991e+00 1.595702e+00 7.988831e-02 1.853087e-01 2.348931e-01 2.832656e-01 2.943574e-01 4.257243e-01 4.362736e-01 4.746621e-01 4.902019e-01 3.909092e-01 3.759446e-01 3.202386e-01 2.572111e-01
<GCONST> 1.170972e+02
<TRANSP> 5
 0.000000e+00 1.000000e+00 0.000000e+00 0.000000e+00 0.000000e+00
 0.000000e+00 7.323524e-01 2.676476e-01 0.000000e+00 0.000000e+00
 0.000000e+00 0.000000e+00 6.725615e-01 3.274385e-01 0.000000e+00
 0.000000e+00 0.000000e+00 0.000000e+00 7.317356e-01 2.682644e-01
 0.000000e+00 0.000000e+00 0.000000e+00 0.000000e+00 0.000000e+00
<ENDHMM>
~o
<STREAMINFO> 1 39
<VECSIZE> 39<NULLD><MFCC_D_A><DIAGC>
~h "dxh"
<BEGINHMM>
<NUMSTATES> 5
<STATE> 2
<NUMMIXES> 2
<MIXTURE> 1 0.000000e+00
<MEAN> 39
 1.043081e-07 -9.536743e-07 7.450581e-09 -2.861023e-06 5.960464e-06 7.152557e-07 7.823110e-08 7.748604e-07 5.960464e-08 3.874302e-07 1.043081e-07 4.768372e-07 -6.407499e-07 3.259629e-08 -9.313226e-10 1.164153e-08 4.365575e-10 -2.328306e-09 -2.095476e-09 -2.887100e-08 1.024455e-08 1.280569e-09 -2.444722e-09 -3.958121e-09 8.847564e-09 -1.303852e-08 -4.253439e-02 2.777828e-03 -6.555079e-03 -4.639674e-04 -1.033430e-03 -6.078167e-04 8.620945e-04 -2.746784e-03 -6.344778e-04 -2.517392e-03 -1.904017e-03 -1.362099e-03 7.770474e-04
<VARIANCE> 39
 0.000000e+00 0.000000e+00 0.000000e+00 0.000000e+00 1.192093e-05 2.086163e-07 2.095476e-09 0.000000e+00 7.450581e-08 0.000000e+00 0.000000e+00 4.768372e-07 1.471490e-07 0.000000e+00 0.000000e+00 8.549250e-11 2.486900e-13 7.958079e-13 9.094947e-13 0.000000e+00 5.275069e-11 0.000000e+00 9.322321e-12 1.500666e-11 1.055014e-10 0.000000e+00 3.344616e-02 1.522795e-03 2.047306e-03 1.186047e-03 2.135218e-03 1.138784e-03 1.087328e-03 8.570093e-04 1.339896e-03 1.065624e-03 1.118617e-03 9.533270e-04 5.354394e-04
<GCONST> -1.200000e+11
<MIXTURE> 2 1.000000e+00
<MEAN> 39
 2.492465e+00 9.550135e-01 -1.101219e+00 -1.877216e+00 1.146183e+01 -3.907370e+00 -3.975732e+00 -3.113522e+00 -3.343320e+00 -4.018222e+00 -7.277733e-02 -1.197170e+00 -1.240786e+00 -2.266211e-01 2.270802e-01 3.196142e-01 1.893860e-01 5.044004e-02 4.428600e-01 3.201533e-01 -2.103519e-01 -2.602118e-02 5.032713e-02 -4.652511e-02 -2.997370e-02 -2.320717e-02 -5.713640e-02 -2.423387e-02 6.959873e-02 2.675087e-02 -4.570042e-02 2.871182e-03 7.105734e-02 4.226161e-02 3.388099e-02 1.559915e-02 8.881097e-03 4.999082e-03 -6.573000e-03
<VARIANCE> 39
 4.325293e+01 3.876181e+01 5.982573e+01 8.963661e+01 1.098688e+02 8.760181e+01 5.313800e+01 4.625338e+01 8.769214e+01 5.212685e+01 3.678538e+01 4.600294e+01 2.219918e+01 6.342939e-01 6.882035e-01 1.165199e+00 9.987207e-01 1.391689e+00 1.995004e+00 1.665356e+00 1.492261e+00 1.708999e+00 1.248258e+00 1.298264e+00 1.121861e+00 8.770224e-01 9.902272e-02 1.027655e-01 1.768953e-01 1.675223e-01 2.018065e-01 2.814628e-01 2.361709e-01 2.371407e-01 2.607597e-01 2.172032e-01 2.273396e-01 1.911640e-01 1.495213e-01
<GCONST> 1.041217e+02
<STATE> 3
<NUMMIXES> 2
<MIXTURE> 1 2.978156e-01
<MEAN> 39
 1.981950e+00 1.523821e+01 4.334241e+00 1.338865e+01 1.970812e+01 6.662396e+00 1.153276e+00 -5.604343e+00 -3.900293e+00 -5.497316e+00 -3.531127e+00 3.253936e+00 -2.467221e+00 -3.474054e-01 2.787938e-01 2.601868e-01 -4.662922e-02 -1.294555e-01 1.428420e-01 3.850613e-01 1.655086e-01 1.354207e-01 1.487255e-01 -6.631412e-02 3.193215e-02 1.707245e-01 -1.125495e-01 -2.035403e-01 5.379409e-02 -1.067603e-01 -6.625047e-02 -6.227495e-02 4.086395e-02 9.986737e-02 5.930614e-02 1.786994e-02 2.085390e-02 -4.075902e-02 -6.283742e-03
<VARIANCE> 39
 1.173193e+01 1.750493e+01 2.404418e+01 2.243972e+01 3.966035e+01 7.444058e+01 4.276645e+01 4.222361e+01 2.566100e+01 3.544457e+01 2.521249e+01 2.681374e+01 2.699366e+01 3.411506e-01 4.829361e-01 7.510308e-01 4.314710e-01 6.710703e-01 6.319502e-01 7.357373e-01 7.728533e-01 6.895760e-01 7.008822e-01 5.999492e-01 5.832667e-01 4.843232e-01 3.783927e-02 2.516844e-01 1.289712e-01 1.040301e-01 1.343976e-01 1.481646e-01 1.571964e-01 1.760968e-01 1.565381e-01 1.566278e-01 1.309371e-01 1.223024e-01 9.428878e-02
<GCONST> 8.187935e+01
<MIXTURE> 2 7.021844e-01
<MEAN> 39
 -3.588555e+00 1.443405e+00 7.054263e+00 3.302140e+00 1.521574e+01 -1.713158e-01 2.868644e+00 -3.037384e+00 -1.152528e+00 -2.553776e+00 -3.527337e-01 1.022169e+00 -8.188586e-01 -2.434660e-01 -1.245079e+00 3.040697e-01 -7.162817e-01 -7.352649e-02 -5.450964e-01 1.497460e-01 1.777052e-01 1.492159e-01 1.239782e-01 3.688461e-01 -4.993471e-02 1.574889e-01 1.140665e-01 7.764201e-02 -6.906483e-02 -7.138429e-03 2.962526e-02 -4.238100e-02 -8.587390e-02 3.530263e-02 -3.068526e-02 -3.215727e-03 7.054178e-03 -4.958783e-03 -5.091105e-03
<VARIANCE> 39
 4.147244e+01 1.243172e+02 4.680680e+01 7.769697e+01 5.321700e+01 7.229405e+01 5.014820e+01 4.357724e+01 4.081964e+01 4.478048e+01 4.681012e+01 3.472901e+01 2.603173e+01 2.362944e+00 1.122808e+01 3.318376e+00 4.788383e+00 3.551018e+00 4.507329e+00 4.184742e+00 4.047039e+00 3.643320e+00 3.150995e+00 3.110385e+00 2.445886e+00 1.960663e+00 3.208126e-01 1.984987e+00 5.938211e-01 7.468510e-01 6.113694e-01 7.864916e-01 7.025171e-01 7.878292e-01 6.832727e-01 5.716422e-01 5.494117e-01 4.618117e-01 3.630127e-01
<GCONST> 1.334088e+02
<STATE> 4
<NUMMIXES> 2
<MIXTURE> 1 1.000000e+00
<MEAN> 39
 -1.331984e+00 -3.457242e+00 7.136047e+00 -2.048091e+00 1.254112e+01 -4.460431e+00 4.227099e+00 2.200619e+00 2.175540e+00 -6.729368e-01 1.840354e+00 -7.604986e-02 -2.586857e-01 1.441143e-01 2.260681e-01 9.505107e-03 -6.912854e-02 -2.696822e-01 -9.664933e-02 9.519216e-02 2.728319e-01 4.769010e-02 -1.333484e-01 -1.004295e-01 -6.869293e-02 -9.527583e-02 1.301146e-02 -1.141319e-02 -3.602172e-02 3.409930e-03 -9.315923e-03 -2.100232e-02 -4.707497e-02 -7.517197e-02 -4.405005e-02 -5.929612e-02 -2.375382e-02 1.182090e-02 -5.327607e-03
<VARIANCE> 39
 1.652635e+01 3.512252e+01 5.603109e+01 4.766420e+01 7.992665e+01 4.182236e+01 7.473769e+01 4.546066e+01 5.412237e+01 4.833499e+01 4.535654e+01 3.137370e+01 2.197951e+01 3.731473e-01 8.616292e-01 8.279588e-01 9.236189e-01 1.176844e+00 1.396894e+00 1.831812e+00 1.660598e+00 1.810547e+00 1.801198e+00 1.557513e+00 1.292407e+00 1.049695e+00 5.241289e-02 1.305793e-01 1.349326e-01 1.532498e-01 1.956174e-01 2.570168e-01 2.812895e-01 2.891606e-01 3.246397e-01 3.235484e-01 2.741654e-01 2.259847e-01 1.951411e-01
<GCONST> 1.015021e+02
<MIXTURE> 2 0.000000e+00
<MEAN> 39
 0.000000e+00 0.000000e+00 0.000000e+00 0.000000e+00 0.000000e+00 0.000000e+00 0.000000e+00 0.000000e+00 0.000000e+00 0.000000e+00 0.000000e+00 0.000000e+00 0.000000e+00 0.000000e+00 0.000000e+00 0.000000e+00 0.000000e+00 0.000000e+00 0.000000e+00 0.000000e+00 0.000000e+00 0.000000e+00 0.000000e+00 0.000000e+00 0.000000e+00 0.000000e+00 -5.398045e-02 3.861444e-03 -1.104870e-02 -2.350809e-04 2.214204e-03 -6.287876e-04 3.084737e-03 -4.167745e-03 -2.875697e-03 -1.632787e-03 -1.867059e-03 1.249729e-03 6.230290e-04
<VARIANCE> 39
 0.000000e+00 0.000000e+00 0.000000e+00 0.000000e+00 0.000000e+00 0.000000e+00 0.000000e+00 0.000000e+00 0.000000e+00 0.000000e+00 0.000000e+00 0.000000e+00 0.000000e+00 0.000000e+00 0.000000e+00 0.000000e+00 0.000000e+00 0.000000e+00 0.000000e+00 0.000000e+00 0.000000e+00 0.000000e+00 0.000000e+00 0.000000e+00 0.000000e+00 0.000000e+00 4.220059e-02 3.011367e-03 4.949609e-03 2.329584e-03 5.079313e-03 2.523421e-03 3.766337e-03 2.070856e-03 3.247438e-03 2.641586e-03 2.000884e-03 1.933219e-03 1.549780e-03
<GCONST> -2.600001e+11
<TRANSP> 5
 0.000000e+00 1.000000e+00 0.000000e+00 0.000000e+00 0.000000e+00
 0.000000e+00 8.202717e-01 1.797284e-01 0.000000e+00 0.000000e+00
 0.000000e+00 0.000000e+00 9.178052e-01 8.219481e-02 0.000000e+00
 0.000000e+00 0.000000e+00 0.000000e+00 8.840514e-01 1.159486e-01
 0.000000e+00 0.000000e+00 0.000000e+00 0.000000e+00 0.000000e+00
<ENDHMM>
~o
<STREAMINFO> 1 39
<VECSIZE> 39<NULLD><MFCC_D_A><DIAGC>
~h "dxq"
<BEGINHMM>
<NUMSTATES> 5
<STATE> 2
<NUMMIXES> 2
<MIXTURE> 1 2.890187e-01
<MEAN> 39
 1.127432e+01 -3.518244e+00 -1.346734e+01 -1.360790e+00 1.935069e+01 -2.064110e+01 -7.051727e+00 -6.163376e+00 -1.433870e+01 3.280689e+00 1.958700e+00 8.672072e-01 -1.160625e+00 -1.780951e-02 3.739873e-01 2.254589e-02 4.588638e-01 1.120576e+00 5.025861e-01 -7.857969e-01 -9.260433e-01 -2.443170e-01 2.589875e-01 -2.874030e-01 -2.089685e-01 -9.597918e-02 -6.756441e-02 8.084700e-02 1.779361e-01 1.290405e-02 -1.144513e-01 2.808825e-01 8.485173e-02 -3.391939e-02 2.482008e-01 -1.841969e-01 -1.612752e-01 6.468940e-02 -7.186078e-02
<VARIANCE> 39
 6.379529e+00 3.581019e+01 2.015243e+01 6.532322e+01 3.010541e+01 6.396254e+01 4.682775e+01 3.346164e+01 3.878138e+01 3.339960e+01 4.096272e+01 2.769051e+01 1.687935e+01 9.709667e-02 3.132731e-01 4.677055e-01 6.542786e-01 8.170392e-01 1.123469e+00 1.176347e+00 9.754673e-01 1.177069e+00 1.054072e+00 1.277125e+00 1.018737e+00 5.284163e-01 1.818310e-02 3.368385e-02 7.152803e-02 8.634425e-02 1.295984e-01 1.991765e-01 1.529935e-01 1.485109e-01 2.304353e-01 1.402257e-01 1.429471e-01 1.294556e-01 8.863287e-02
<GCONST> 8.168180e+01
<MIXTURE> 2 7.109812e-01
<MEAN> 39
 9.109398e+00 -5.215113e-01 -3.245310e+00 -1.202036e+01 1.875056e+01 -9.086401e+00 -1.346419e+01 1.133208e-01 7.091676e+00 -8.558418e+00 -5.042045e+00 2.354672e+00 -8.185607e-01 6.480313e-02 1.462376e-01 -2.793714e-01 -2.861797e-01 5.754077e-01 1.033887e+00 4.095108e-01 -8.067639e-01 -1.131076e+00 1.857622e-02 2.519759e-01 2.718180e-02 -1.470330e-01 -4.494127e-02 3.947613e-02 8.307228e-02 1.164010e-01 -7.067959e-02 4.328523e-02 2.604326e-01 1.239803e-02 -1.461533e-01 -3.903447e-03 2.754073e-02 -4.750654e-02 -7.218343e-02
<VARIANCE> 39
 1.033197e+01 3.963924e+01 5.963716e+01 4.398035e+01 6.302397e+01 6.608401e+01 6.741842e+01 4.762946e+01 1.539662e+02 5.008524e+01 4.094930e+01 4.082388e+01 4.605789e+01 2.088594e-01 4.715947e-01 6.802309e-01 9.223354e-01 1.231316e+00 1.471296e+00 1.896431e+00 1.696189e+00 1.947186e+00 1.509865e+00 1.202289e+00 1.417520e+00 1.057162e+00 3.167836e-02 6.496323e-02 9.344804e-02 1.278538e-01 1.770582e-01 1.999660e-01 2.291876e-01 2.416444e-01 2.338680e-01 2.235682e-01 1.897356e-01 1.905206e-01 1.746867e-01
<GCONST> 9.795731e+01
<STATE> 3
<NUMMIXES> 2
<MIXTURE> 1 3.878135e-01
<MEAN> 39
 9.461271e+00 -8.671471e-01 -8.854937e+00 1.440423e+00 2.371756e+01 -1.339260e+01 -1.088794e+01 -1.112341e+01 -1.071567e+01 1.765297e+00 -3.200279e+00 -3.571647e-01 -2.583851e+00 -5.813911e-01 6.204565e-01 1.434584e+00 4.596429e-01 -4.639587e-01 2.577446e+00 2.288196e-01 -3.388342e-01 1.591027e+00 -5.855783e-01 -4.300394e-01 1.996325e-01 -4.216560e-01 -1.639221e-01 -1.238713e-01 3.341932e-01 4.613398e-02 -4.086336e-01 -1.510401e-01 3.417943e-01 3.133008e-01 3.505621e-02 -1.459108e-01 1.444993e-01 1.217621e-02 6.761220e-02
<VARIANCE> 39
 7.410074e+00 3.367188e+01 2.595413e+01 5.746484e+01 2.340206e+01 8.278170e+01 4.093547e+01 2.728788e+01 5.187531e+01 3.085341e+01 3.075355e+01 3.191733e+01 1.502612e+01 3.203413e-01 8.322288e-01 1.539853e+00 1.550242e+00 1.551955e+00 2.431457e+00 2.446464e+00 2.892900e+00 2.538299e+00 1.700688e+00 1.641913e+00 1.559247e+00 1.033742e+00 5.757584e-02 1.925754e-01 2.706341e-01 2.400117e-01 2.475802e-01 9.305192e-01 3.626630e-01 4.256552e-01 6.683788e-01 2.711053e-01 2.660021e-01 2.511356e-01 1.800384e-01
<GCONST> 1.046363e+02
<MIXTURE> 2 6.121864e-01
<MEAN> 39
 8.580741e+00 1.596041e+00 -2.024133e+00 -1.132416e+01 2.028685e+01 -1.001379e+00 -4.438951e+00 -3.555695e+00 -2.635086e+00 -9.942076e+00 -3.838634e+00 2.085278e+00 -4.442235e+00 -3.575647e-01 2.265932e-02 6.613991e-01 1.168290e+00 -7.144235e-01 8.058174e-01 2.071309e+00 4.425953e-01 -5.656622e-01 -4.006207e-01 -3.263398e-01 4.958890e-02 -5.900277e-02 -1.269021e-01 -1.708176e-01 2.085143e-01 2.545573e-01 -9.290627e-02 -3.001037e-01 -2.211249e-01 1.644273e-01 4.488860e-01 6.222543e-02 -1.998442e-01 -2.845180e-02 2.497315e-01
<VARIANCE> 39
 1.101652e+01 3.879178e+01 4.250762e+01 4.793834e+01 8.630866e+01 4.423166e+01 7.363634e+01 6.452523e+01 7.790352e+01 4.397570e+01 4.412258e+01 3.313173e+01 3.475423e+01 3.230199e-01 7.235911e-01 1.559932e+00 1.851241e+00 1.882340e+00 2.573976e+00 3.541229e+00 3.764965e+00 3.472226e+00 3.305269e+00 2.573590e+00 2.306822e+00 3.091276e+00 4.786022e-02 1.148325e-01 2.043246e-01 2.990486e-01 4.154633e-01 3.665473e-01 6.644915e-01 7.633473e-01 4.814566e-01 6.135927e-01 4.143474e-01 4.202819e-01 4.426417e-01
<GCONST> 1.158261e+02
<STATE> 4
<NUMMIXES> 2
<MIXTURE> 1 4.158314e-01
<MEAN> 39
 5.236131e+00 -3.157529e+00 3.001314e+00 -1.657032e+00 1.794749e+01 -9.863174e+00 -5.180480e+00 -5.602600e+00 -6.616839e+00 -8.897928e+00 -2.132282e+00 1.020624e+00 -2.662347e+00 -2.855982e-01 -2.926525e-02 6.566517e-01 3.870399e-01 -3.055757e-01 -6.070529e-01 9.327557e-02 2.449860e-01 -3.987765e-01 -6.763248e-02 5.526966e-01 -7.832737e-02 -1.940255e-01 -8.928067e-02 2.343079e-01 1.702589e-02 -8.682726e-04 1.259810e-03 3.646826e-01 2.203745e-01 1.359590e-01 1.830580e-01 1.278215e-01 -6.107611e-02 -5.300219e-02 -5.439682e-02
<VARIANCE> 39
 1.278046e+01 2.998784e+01 5.578336e+01 6.967949e+01 6.897479e+01 1.002856e+02 6.432359e+01 5.394108e+01 9.350742e+01 6.285743e+01 5.213127e+01 4.171520e+01 2.794869e+01 4.839385e-01 1.413370e+00 1.473007e+00 1.514292e+00 1.938532e+00 4.909263e+00 3.135772e+00 2.703845e+00 3.362210e+00 2.619952e+00 2.800528e+00 2.142524e+00 1.798347e+00 8.216271e-02 1.897771e-01 2.358711e-01 2.334985e-01 2.915144e-01 5.558114e-01 4.488911e-01 4.589180e-01 5.643913e-01 4.438066e-01 4.732510e-01 3.545090e-01 3.079919e-01
<GCONST> 1.171392e+02
<MIXTURE> 2 5.841686e-01
<MEAN> 39
 1.400167e+00 2.502311e+00 4.264393e+00 -2.554348e-01 1.547514e+01 -1.980576e+00 4.164938e-01 -4.032283e+00 -3.584322e+00 -5.634127e+00 -4.180539e+00 5.727047e-01 -2.620826e+00 -5.534189e-01 -2.403275e-01 5.869634e-01 5.863754e-01 -1.946153e-01 -2.652356e-01 -9.523872e-02 -1.601048e-01 1.546035e-01 9.260329e-02 -1.253698e-01 -2.012970e-01 1.715882e-01 1.209175e-01 -1.802644e-01 -1.602210e-01 -1.363166e-01 5.438675e-02 -4.691134e-01 -3.560005e-01 -7.279027e-02 -2.206649e-01 -6.282146e-02 1.467079e-01 2.149228e-02 -3.602368e-02
<VARIANCE> 39
 4.315427e+01 5.934836e+01 5.976461e+01 8.235978e+01 6.327391e+01 7.585494e+01 6.184123e+01 6.742010e+01 6.330238e+01 4.957853e+01 4.851316e+01 3.460279e+01 2.531990e+01 1.713354e+00 4.665776e+00 3.604262e+00 3.540406e+00 3.262985e+00 5.815393e+00 5.079296e+00 4.184405e+00 3.744524e+00 3.274999e+00 2.836624e+00 2.310637e+00 2.151613e+00 2.194170e-01 6.935156e-01 5.545770e-01 5.973905e-01 5.317665e-01 8.905911e-01 8.401958e-01 8.701327e-01 6.858314e-01 6.364797e-01 5.876417e-01 4.547466e-01 4.231443e-01
<GCONST> 1.322686e+02
<TRANSP> 5
 0.000000e+00 1.000000e+00 0.000000e+00 0.000000e+00 0.000000e+00
 0.000000e+00 8.249133e-01 1.750867e-01 0.000000e+00 0.000000e+00
 0.000000e+00 0.000000e+00 7.480533e-01 2.519467e-01 0.000000e+00
 0.000000e+00 0.000000e+00 0.000000e+00 8.829650e-01 1.170350e-01
 0.000000e+00 0.000000e+00 0.000000e+00 0.000000e+00 0.000000e+00
<ENDHMM>
~o
<STREAMINFO> 1 39
<VECSIZE> 39<NULLD><MFCC_D_A><DIAGC>
~h "e"
<BEGINHMM>
<NUMSTATES> 7
<STATE> 2
<NUMMIXES> 2
<MIXTURE> 1 5.055937e-01
<MEAN> 39
 -5.586452e+00 -3.044321e+00 8.281448e+00 1.046905e+01 6.185012e+00 -3.291313e-01 -5.151639e+00 -2.242756e+00 3.588001e-01 -4.412363e+00 -3.830522e+00 1.562473e-01 -3.744337e+00 1.357415e+00 -6.849577e-01 4.034195e-01 5.445365e-01 6.643959e-01 -1.095895e+00 -1.394920e+00 -5.438152e-01 -5.023760e-01 -8.674662e-01 -3.134426e-01 -4.263634e-01 -4.766835e-01 5.646185e-02 -2.325960e-02 -1.106061e-01 -1.407574e-02 -2.763486e-03 -1.907476e-01 -2.202384e-01 -5.368413e-02 -5.397395e-02 -2.875246e-02 5.325805e-02 -2.670698e-02 2.001428e-02
<VARIANCE> 39
 9.840443e+01 1.115303e+02 5.567244e+01 1.107229e+02 1.386283e+02 9.157660e+01 7.387566e+01 9.151711e+01 5.152076e+01 4.396101e+01 3.695648e+01 3.319226e+01 2.908267e+01 3.211108e+00 6.178424e+00 3.992971e+00 4.953744e+00 4.660983e+00 5.212784e+00 5.244181e+00 3.697550e+00 3.476709e+00 3.240716e+00 2.702798e+00 2.625998e+00 2.044235e+00 4.966705e-01 1.051682e+00 6.145462e-01 8.095970e-01 7.190475e-01 7.612948e-01 8.207239e-01 6.115990e-01 5.735217e-01 5.651840e-01 4.783601e-01 4.168277e-01 3.554304e-01
<GCONST> 1.369938e+02
<MIXTURE> 2 4.944063e-01
<MEAN> 39
 6.037862e-01 -4.370481e+00 6.435696e+00 5.529255e+00 7.566026e+00 -5.555312e+00 -8.761675e+00 -7.986669e+00 -4.574007e+00 -5.484306e+00 -3.201845e+00 -2.652458e+00 -3.948713e+00 1.163949e-01 -6.061513e-01 -1.513581e-01 -1.602886e-02 1.065522e-01 -9.773654e-01 -9.592482e-01 -1.178177e-01 6.144578e-02 5.461690e-02 2.818452e-01 -7.763107e-02 2.605299e-02 -1.824871e-01 -8.354694e-03 1.139655e-01 3.168204e-02 -6.650737e-02 1.746757e-01 2.229694e-01 1.805692e-01 2.121819e-01 2.359706e-02 -2.994559e-02 6.790835e-02 -7.385388e-04
<VARIANCE> 39
 8.402024e+01 9.049932e+01 5.495935e+01 9.005421e+01 1.344534e+02 1.643432e+02 6.677794e+01 8.029290e+01 7.861961e+01 5.618322e+01 3.962067e+01 5.218439e+01 4.883667e+01 5.689404e-01 1.230885e+00 1.126019e+00 1.299208e+00 1.368655e+00 3.014838e+00 2.460294e+00 2.369436e+00 2.039789e+00 1.933473e+00 1.532628e+00 1.423829e+00 1.208780e+00 1.450020e-01 2.247545e-01 2.069483e-01 2.342133e-01 2.475303e-01 4.527953e-01 3.892100e-01 3.601581e-01 3.607996e-01 3.560834e-01 2.783110e-01 2.584056e-01 2.154212e-01
<GCONST> 1.163499e+02
<STATE> 3
<NUMMIXES> 2
<MIXTURE> 1 5.237356e-01
<MEAN> 39
 -9.901808e-01 -6.101150e+00 1.156375e+01 1.421268e+01 1.732321e+01 -9.976310e+00 -1.254025e+01 -1.702545e+00 -2.804730e+00 -9.602030e+00 -4.905558e+00 -1.871683e+00 -6.334709e+00 1.292955e-01 -3.504726e-01 -1.831826e-01 -2.759558e-01 2.831376e-02 -3.498978e-01 -3.444415e-01 -2.942891e-01 5.855336e-03 -1.209495e-01 9.670117e-02 -1.589988e-02 9.840153e-02 -4.543878e-02 5.492763e-02 -1.985871e-02 -6.952490e-02 -5.977615e-02 1.096190e-01 1.160161e-01 -1.228967e-02 9.385379e-03 6.129969e-02 -3.121463e-04 2.065921e-02 4.657056e-02
<VARIANCE> 39
 3.413633e+01 3.185453e+01 8.890582e+01 9.724216e+01 1.631305e+02 9.598808e+01 6.141569e+01 8.157117e+01 5.775130e+01 4.026244e+01 3.755485e+01 5.507912e+01 3.565561e+01 2.938211e-01 6.825123e-01 9.176226e-01 1.101951e+00 9.787624e-01 1.303513e+00 1.514054e+00 1.604781e+00 1.296461e+00 1.205562e+00 1.091030e+00 9.703535e-01 8.250096e-01 5.254387e-02 9.834802e-02 1.232984e-01 1.439872e-01 1.674065e-01 2.354817e-01 2.589236e-01 2.334142e-01 2.150846e-01 2.140598e-01 1.847739e-01 1.707931e-01 1.386811e-01
<GCONST> 1.008726e+02
<MIXTURE> 2 4.762643e-01
<MEAN> 39
 2.625900e-01 -1.105876e+01 1.351953e+01 6.539937e+00 8.578033e+00 -2.266978e+01 -1.560627e+01 -1.551976e+00 -3.638566e+00 -1.014875e+01 -3.669031e+00 -8.890262e+00 -8.073324e-01 -6.018434e-02 6.701593e-02 8.928492e-02 1.709849e-02 -7.064160e-02 -2.757353e-02 -1.276350e-02 7.064705e-02 4.056580e-02 -1.577934e-01 -7.916156e-02 5.627095e-02 8.610059e-03 1.227435e-03 5.275757e-02 -1.693324e-02 6.620210e-03 2.748414e-02 3.740407e-02 3.017066e-02 -2.546182e-02 -2.776814e-02 1.478255e-02 -1.406161e-02 7.158491e-03 -3.117832e-02
<VARIANCE> 39
 4.235684e+00 1.148205e+01 1.746074e+01 1.810703e+01 1.269286e+01 1.662937e+01 1.619517e+01 2.579992e+01 2.665861e+01 4.280279e+01 1.598458e+01 2.088489e+01 2.263227e+01 8.959787e-02 2.524270e-01 3.612265e-01 3.269924e-01 3.466098e-01 3.440394e-01 3.571493e-01 4.687128e-01 4.744270e-01 5.865833e-01 3.816456e-01 3.272179e-01 2.940373e-01 1.328058e-02 3.611571e-02 4.143151e-02 4.767007e-02 5.219100e-02 6.136343e-02 6.458440e-02 6.864674e-02 7.580916e-02 7.218662e-02 6.056409e-02 5.383590e-02 4.621723e-02
<GCONST> 5.521196e+01
<STATE> 4
<NUMMIXES> 2
<MIXTURE> 1 5.513127e-01
<MEAN> 39
 1.234422e+00 -7.744982e+00 8.754622e+00 3.709652e+00 1.886691e+01 -7.435546e+00 -1.703187e+01 -9.641672e+00 -1.507222e+00 -6.507306e+00 -3.839372e+00 -1.904656e+00 -1.966164e+00 -1.917613e-02 1.144271e-01 -9.465466e-02 -1.066311e-01 -2.748758e-02 2.623152e-02 2.120213e-02 1.983304e-02 -1.038515e-02 6.785223e-03 7.618497e-03 6.011792e-02 2.243521e-02 -1.341691e-02 7.424623e-02 7.058725e-03 4.271010e-02 -1.154706e-02 8.078771e-02 1.235429e-01 6.206427e-02 -6.540282e-03 -7.954726e-03 -2.833020e-02 -4.086639e-04 -1.727288e-02
<VARIANCE> 39
 9.292018e+00 1.764754e+01 6.688080e+01 3.214893e+01 4.805629e+01 6.246389e+01 2.958085e+01 5.080261e+01 5.414632e+01 4.160973e+01 3.630365e+01 4.033794e+01 2.019466e+01 1.398238e-01 4.546505e-01 5.673245e-01 7.876205e-01 7.398097e-01 9.502603e-01 1.100246e+00 1.134770e+00 1.021796e+00 9.726439e-01 8.845841e-01 7.253895e-01 5.988973e-01 2.046717e-02 6.645581e-02 7.969079e-02 1.056853e-01 1.253376e-01 1.540168e-01 1.786429e-01 1.839938e-01 1.664943e-01 1.682198e-01 1.494250e-01 1.245816e-01 9.883912e-02
<GCONST> 8.451985e+01
<MIXTURE> 2 4.486872e-01
<MEAN> 39
 1.370993e+01 -1.904460e+01 1.011217e+01 2.031211e+01 -1.047777e+01 -3.662222e+00 -1.660431e+01 -1.195121e+01 3.527297e+00 -1.214681e+01 -7.617382e+00 -1.645020e+00 -9.772802e+00 6.094734e-02 -3.943068e-02 -1.538815e-01 -3.186065e-02 7.936208e-02 -4.160535e-02 -3.617557e-03 -9.841000e-04 -2.093029e-02 1.139264e-01 7.905692e-02 -2.402261e-02 4.690052e-03 -1.895870e-02 8.402868e-02 -5.492025e-03 -6.699223e-03 5.404812e-02 6.735831e-02 7.310120e-02 6.733638e-04 -2.943052e-02 2.693549e-02 -8.329234e-03 -1.166086e-03 1.086037e-02
<VARIANCE> 39
 9.230035e+00 2.546272e+01 3.570216e+01 5.213865e+01 2.519425e+01 5.187111e+01 3.449972e+01 4.042756e+01 3.527919e+01 5.554674e+01 3.837548e+01 2.321471e+01 2.916163e+01 3.559307e-01 6.939524e-01 5.047079e-01 5.496183e-01 8.098994e-01 8.480021e-01 6.510255e-01 5.826303e-01 7.763171e-01 7.791176e-01 5.453798e-01 4.742930e-01 5.120522e-01 6.019241e-02 9.852879e-02 5.491858e-02 7.678011e-02 1.308254e-01 1.293656e-01 9.766670e-02 8.714345e-02 1.234883e-01 1.174575e-01 7.404134e-02 7.580235e-02 8.761715e-02
<GCONST> 7.898474e+01
<STATE> 5
<NUMMIXES> 2
<MIXTURE> 1 5.901286e-01
<MEAN> 39
 -1.614797e+00 -2.078771e+00 7.212551e+00 5.184408e+00 1.061157e+01 -6.310866e+00 -1.089556e+01 -7.872727e+00 -3.163029e+00 -5.712753e+00 -5.071951e+00 -2.673458e+00 -3.567323e+00 -2.504409e-01 7.233927e-01 -3.007717e-03 3.197682e-01 -3.108203e-01 9.830262e-01 8.529809e-01 3.980521e-01 2.868228e-01 2.737828e-01 -1.779724e-01 6.878583e-02 5.709007e-02 -1.776642e-02 1.239740e-03 3.107781e-02 2.031038e-02 -3.472770e-02 -3.118378e-02 -2.058138e-02 2.283608e-02 5.312144e-02 1.539181e-02 -1.104829e-02 -2.326614e-02 -1.370134e-04
<VARIANCE> 39
 5.603028e+01 5.524280e+01 6.262285e+01 7.019599e+01 1.084701e+02 1.127577e+02 8.415453e+01 8.037388e+01 6.581816e+01 6.011290e+01 4.827133e+01 4.844057e+01 4.384967e+01 1.168738e+00 2.384218e+00 2.340661e+00 2.569489e+00 2.687053e+00 3.652263e+00 3.380491e+00 3.119370e+00 2.956481e+00 2.588242e+00 2.404891e+00 2.173248e+00 1.524206e+00 1.767607e-01 3.920714e-01 3.762327e-01 4.230801e-01 4.770019e-01 5.685682e-01 5.640093e-01 5.470011e-01 5.251191e-01 4.304571e-01 3.865555e-01 3.550254e-01 2.708768e-01
<GCONST> 1.259569e+02
<MIXTURE> 2 4.098714e-01
<MEAN> 39
 -8.080509e-01 -4.553621e+00 7.985434e+00 1.020826e+00 7.391949e+00 -2.865661e+01 -1.379202e+01 -6.099421e+00 -9.094636e+00 -1.254814e+01 -7.445219e+00 -9.848862e+00 -9.681396e+00 -2.745931e-02 1.620492e-01 -4.690880e-02 -1.243558e-03 3.297815e-02 1.862350e-01 9.671442e-02 -3.134582e-02 -6.107321e-02 6.909102e-03 -1.249498e-01 1.749500e-02 -1.190146e-01 8.965509e-03 2.843288e-02 -2.496691e-03 2.579660e-02 2.671704e-02 1.227130e-01 5.325607e-02 -6.516360e-03 -1.365115e-02 2.678416e-02 2.143086e-02 2.508607e-02 2.400780e-02
<VARIANCE> 39
 6.842423e+00 3.125722e+01 3.734100e+01 4.173849e+01 3.612700e+01 3.823655e+01 2.906048e+01 3.139523e+01 2.901306e+01 4.157333e+01 4.258162e+01 3.479290e+01 2.152899e+01 9.845922e-02 3.256317e-01 4.767929e-01 6.129264e-01 6.801048e-01 9.334528e-01 8.108588e-01 7.939301e-01 9.368517e-01 9.272817e-01 8.870019e-01 8.031277e-01 7.318424e-01 1.304828e-02 4.437505e-02 5.870646e-02 8.793399e-02 1.018026e-01 1.380531e-01 1.357938e-01 1.323579e-01 1.582249e-01 1.501031e-01 1.373158e-01 1.383425e-01 1.179368e-01
<GCONST> 7.870377e+01
<STATE> 6
<NUMMIXES> 2
<MIXTURE> 1 6.912331e-01
<MEAN> 39
 -6.685548e+00 2.130386e+00 4.356542e+00 7.158335e+00 8.494016e+00 -1.460337e+00 -4.364885e+00 -3.483830e+00 3.789645e-01 -1.944952e+00 -3.879103e+00 -8.253593e-01 -2.334146e+00 -2.825023e-01 1.313391e-01 -9.473901e-02 -5.709793e-02 -1.441940e-01 2.273967e-01 3.911274e-01 2.565053e-01 1.428780e-01 1.166647e-01 7.242233e-02 1.251560e-01 7.600924e-02 -5.599069e-03 -8.204137e-02 5.385492e-03 -5.469659e-02 1.497496e-02 -5.850477e-02 -3.623114e-02 -1.956259e-02 -3.526011e-02 -3.540175e-02 7.135582e-03 -6.445016e-04 5.333317e-04
<VARIANCE> 39
 5.749267e+01 4.980758e+01 4.653042e+01 4.296732e+01 5.714450e+01 7.171713e+01 5.485637e+01 5.177972e+01 4.296052e+01 4.023228e+01 3.174337e+01 3.509719e+01 2.592717e+01 5.352716e-01 8.248502e-01 8.004366e-01 9.465463e-01 9.647313e-01 1.285137e+00 1.499383e+00 1.425488e+00 1.344761e+00 1.289144e+00 1.180108e+00 1.107540e+00 8.755785e-01 7.100479e-02 1.228193e-01 1.431457e-01 1.726539e-01 1.849201e-01 2.476990e-01 2.745578e-01 2.679980e-01 2.599459e-01 2.498450e-01 2.320099e-01 2.154560e-01 1.770842e-01
<GCONST> 1.002017e+02
<MIXTURE> 2 3.087670e-01
<MEAN> 39
 1.311176e+01 -9.997472e+00 7.716427e+00 1.847471e+01 -3.792827e+00 4.269261e+00 -1.033057e+01 -1.239125e+01 3.766520e+00 -6.294832e+00 -7.991358e+00 -1.798187e+00 -8.384443e+00 -2.607389e-01 8.440700e-01 1.225589e-01 -1.398207e-01 2.732224e-01 3.914587e-01 3.509856e-01 1.335326e-01 1.314835e-01 1.918642e-01 -2.523192e-01 -5.899570e-02 1.987247e-01 -4.060147e-03 -9.019629e-02 5.225467e-03 -3.357229e-02 -8.135892e-02 -4.890789e-02 -6.474618e-02 3.832580e-04 2.330274e-02 -4.387095e-02 2.536733e-02 3.706363e-02 2.819874e-04
<VARIANCE> 39
 1.631619e+01 5.997483e+01 3.025491e+01 3.957790e+01 3.420876e+01 5.911804e+01 3.884206e+01 4.111271e+01 5.349216e+01 6.085125e+01 3.952733e+01 3.958315e+01 2.471369e+01 3.989092e-01 1.786481e+00 7.995600e-01 9.862605e-01 1.350988e+00 1.666885e+00 1.604175e+00 1.328836e+00 1.597947e+00 1.476461e+00 1.265916e+00 1.138820e+00 9.761053e-01 4.695672e-02 2.125347e-01 1.254376e-01 1.402474e-01 2.131375e-01 2.548324e-01 2.322605e-01 2.123694e-01 2.703482e-01 2.372804e-01 2.040438e-01 1.840418e-01 1.656363e-01
<GCONST> 9.908585e+01
<TRANSP> 7
 0.000000e+00 1.000000e+00 0.000000e+00 0.000000e+00 0.000000e+00 0.000000e+00 0.000000e+00
 0.000000e+00 8.150686e-01 1.849314e-01 0.000000e+00 0.000000e+00 0.000000e+00 0.000000e+00
 0.000000e+00 0.000000e+00 8.462696e-01 1.537304e-01 0.000000e+00 0.000000e+00 0.000000e+00
 0.000000e+00 0.000000e+00 0.000000e+00 8.898654e-01 1.101346e-01 0.000000e+00 0.000000e+00
 0.000000e+00 0.000000e+00 0.000000e+00 0.000000e+00 8.986763e-01 1.013237e-01 0.000000e+00
 0.000000e+00 0.000000e+00 0.000000e+00 0.000000e+00 0.000000e+00 8.200258e-01 1.799742e-01
 0.000000e+00 0.000000e+00 0.000000e+00 0.000000e+00 0.000000e+00 0.000000e+00 0.000000e+00
<ENDHMM>
~o
<STREAMINFO> 1 39
<VECSIZE> 39<NULLD><MFCC_D_A><DIAGC>
~h "ee"
<BEGINHMM>
<NUMSTATES> 7
<STATE> 2
<NUMMIXES> 2
<MIXTURE> 1 6.000286e-01
<MEAN> 39
 -3.815061e+00 -5.716343e+00 9.815293e+00 2.837677e+00 1.438347e+01 -6.883389e+00 -3.128239e+00 -6.504176e+00 -2.542342e+00 -5.007204e+00 -1.894915e+00 -2.146501e+00 -3.404219e+00 1.401895e+00 -5.808957e-01 -4.887970e-02 8.043175e-01 9.937001e-01 -1.524360e+00 -1.616669e+00 -2.545039e-01 -7.129363e-01 -6.527141e-01 1.894701e-03 -1.947393e-01 -4.871309e-01 3.296953e-02 -1.699642e-03 -1.560240e-01 2.115321e-02 2.666205e-02 -2.098297e-01 -2.726273e-01 1.784320e-01 -7.956915e-02 -3.134837e-02 5.432446e-02 -2.724648e-02 -5.805894e-02
<VARIANCE> 39
 7.743642e+01 7.166859e+01 5.407025e+01 8.170375e+01 1.092817e+02 1.011947e+02 6.909552e+01 6.032011e+01 5.364382e+01 4.899887e+01 4.602763e+01 3.245618e+01 3.295029e+01 3.581038e+00 5.818820e+00 3.810714e+00 5.073675e+00 4.048142e+00 5.345435e+00 5.328135e+00 4.207658e+00 3.891964e+00 3.810206e+00 3.229196e+00 3.035040e+00 2.615579e+00 4.821291e-01 9.140081e-01 6.216424e-01 7.800466e-01 5.626029e-01 7.005078e-01 8.039876e-01 6.362128e-01 5.596054e-01 5.690903e-01 4.944534e-01 4.305785e-01 3.884457e-01
<GCONST> 1.363586e+02
<MIXTURE> 2 3.999713e-01
<MEAN> 39
 4.636882e-01 -5.349158e+00 1.011736e+01 8.891739e+00 1.065567e+01 -4.023773e+00 -7.609991e+00 -8.277880e+00 -2.348199e+00 -5.069698e+00 -4.625520e+00 -3.260567e+00 -4.545160e+00 7.055890e-02 -3.599822e-01 1.047222e-02 2.051852e-02 -4.001188e-02 -4.699001e-01 -5.308110e-01 -2.730952e-01 1.033476e-01 2.255569e-02 -2.833746e-02 -1.574849e-01 5.283449e-04 -7.171624e-02 -3.437322e-02 -7.283399e-04 -1.315145e-02 7.593245e-04 -1.249099e-02 1.083459e-01 1.232181e-01 4.049720e-02 -4.282674e-02 1.398339e-02 7.152307e-02 3.130944e-02
<VARIANCE> 39
 1.016472e+02 9.367979e+01 6.023561e+01 1.174273e+02 1.549928e+02 1.302125e+02 6.876384e+01 1.176822e+02 8.073550e+01 6.439767e+01 4.957961e+01 4.876087e+01 4.051693e+01 4.117044e-01 8.616777e-01 8.688861e-01 1.062652e+00 1.073966e+00 1.683713e+00 1.909359e+00 1.839640e+00 1.602204e+00 1.532617e+00 1.216541e+00 1.131366e+00 8.819395e-01 8.398636e-02 1.867979e-01 1.429168e-01 1.965199e-01 1.969692e-01 2.931671e-01 2.976478e-01 3.503573e-01 2.874815e-01 2.712605e-01 2.353619e-01 2.095056e-01 1.678823e-01
<GCONST> 1.103021e+02
<STATE> 3
<NUMMIXES> 2
<MIXTURE> 1 4.188221e-01
<MEAN> 39
 2.616840e+00 -7.203820e+00 7.275509e+00 4.404321e+00 2.176987e+01 -1.618620e+01 -1.236325e+01 -5.287780e+00 -7.685015e+00 -9.018108e+00 -9.995288e-01 -2.593231e+00 -6.639347e+00 1.583452e-01 -5.257035e-01 -2.636604e-01 1.627027e-01 4.308366e-01 -1.268625e+00 -1.204896e+00 4.953252e-01 -2.525733e-01 -2.280469e-01 2.178043e-01 1.251514e-02 -2.843440e-01 -2.587560e-01 1.424055e-01 2.354835e-01 -7.659762e-02 -2.644885e-01 3.965346e-01 4.393926e-01 -8.160401e-02 2.086305e-01 1.613016e-01 -1.255603e-01 -1.422089e-02 1.454682e-01
<VARIANCE> 39
 1.109948e+01 2.779165e+01 4.863535e+01 4.831657e+01 1.192391e+02 1.189574e+02 5.438336e+01 6.553458e+01 3.930994e+01 5.885982e+01 6.075193e+01 6.524558e+01 4.222798e+01 3.667848e-01 6.414564e-01 1.157118e+00 9.862592e-01 1.704695e+00 1.737439e+00 2.051126e+00 1.888567e+00 1.804618e+00 1.996406e+00 1.677769e+00 1.496324e+00 1.381593e+00 1.104577e-01 1.253438e-01 1.583610e-01 2.060421e-01 2.480006e-01 3.004637e-01 3.445514e-01 3.197747e-01 3.106280e-01 3.747725e-01 2.659944e-01 2.798488e-01 2.081352e-01
<GCONST> 1.075119e+02
<MIXTURE> 2 5.811780e-01
<MEAN> 39
 1.277569e+01 -2.031895e+01 1.120901e+01 2.177977e+01 -1.056691e+01 -4.069675e+00 -1.769783e+01 -1.268286e+01 4.707297e+00 -1.291465e+01 -1.078377e+01 -2.357082e+00 -8.614450e+00 -2.032023e-02 3.842378e-02 -5.216067e-02 -6.359558e-02 -3.010475e-02 -1.082992e-01 -5.956158e-02 1.835066e-02 9.988279e-03 6.154449e-03 -2.053620e-02 -1.184866e-02 1.556434e-02 -6.419816e-03 4.142674e-02 -1.552752e-02 -1.571803e-02 2.823471e-02 5.133437e-02 4.173709e-02 -1.043027e-02 -1.784175e-02 2.304259e-02 1.019755e-02 5.986187e-03 -3.506114e-03
<VARIANCE> 39
 7.890365e+00 2.329871e+01 2.505865e+01 3.401243e+01 3.309885e+01 5.647569e+01 3.114344e+01 4.050317e+01 3.879958e+01 4.694370e+01 2.966567e+01 2.514869e+01 2.685369e+01 3.315893e-01 5.439113e-01 3.427653e-01 4.128815e-01 7.625164e-01 7.567147e-01 4.934128e-01 5.132065e-01 6.601909e-01 6.165208e-01 3.985740e-01 4.230191e-01 4.785186e-01 6.031769e-02 8.237463e-02 4.238989e-02 6.419087e-02 1.242859e-01 1.186897e-01 8.109799e-02 7.630444e-02 1.097041e-01 9.803248e-02 5.912176e-02 6.881706e-02 7.889573e-02
<GCONST> 7.362800e+01
<STATE> 4
<NUMMIXES> 2
<MIXTURE> 1 3.784675e-01
<MEAN> 39
 2.039866e+00 -7.914943e+00 4.600566e+00 5.909040e+00 3.105631e+01 -1.103960e+01 -1.642671e+01 -2.423534e+00 -6.182862e+00 -1.208693e+01 3.174117e+00 3.103787e+00 -9.659690e+00 -1.979727e-02 8.343457e-03 9.024052e-03 2.118046e-02 -4.843873e-02 1.052958e-02 2.424129e-02 -3.462589e-02 -4.509062e-02 1.101240e-01 2.014534e-02 -6.871038e-02 -2.072842e-02 -3.411836e-03 5.290449e-02 7.338067e-03 -3.071776e-03 -8.047425e-02 9.924500e-02 1.300331e-01 3.452828e-03 1.726874e-03 3.167039e-02 -2.976681e-02 -3.117889e-02 5.335825e-02
<VARIANCE> 39
 7.195860e+00 1.278579e+01 5.233561e+01 2.738059e+01 3.565393e+01 2.822571e+01 4.359874e+01 3.513743e+01 3.921439e+01 2.678882e+01 4.870744e+01 2.345465e+01 3.405137e+01 9.983993e-02 2.452177e-01 4.088759e-01 4.906826e-01 5.561302e-01 7.341456e-01 8.629850e-01 8.151381e-01 7.667733e-01 8.574147e-01 7.085369e-01 6.421616e-01 5.648913e-01 1.455186e-02 3.681654e-02 5.548531e-02 6.826524e-02 1.003563e-01 1.120834e-01 1.421361e-01 1.387222e-01 1.316497e-01 1.513684e-01 1.222473e-01 1.057731e-01 9.469108e-02
<GCONST> 7.475652e+01
<MIXTURE> 2 6.215324e-01
<MEAN> 39
 6.274202e-01 -7.586982e+00 1.063191e+01 6.788133e+00 1.085927e+01 -2.145267e+01 -1.395527e+01 -7.279831e+00 -6.198148e+00 -6.779225e+00 -6.445516e+00 -8.775116e+00 -2.625417e+00 -3.144582e-02 4.547688e-02 1.447774e-02 -4.635224e-02 -2.364955e-02 -1.318637e-02 -5.136163e-02 2.889804e-02 2.662930e-02 -4.343976e-02 -3.757612e-02 9.810353e-03 2.145663e-02 4.027591e-03 4.149586e-02 -1.719018e-02 -8.733038e-03 3.889257e-02 7.574671e-02 3.960556e-02 -2.562126e-02 -8.869232e-03 -2.789945e-03 1.163823e-02 2.120655e-02 -2.742731e-02
<VARIANCE> 39
 1.050054e+01 2.881260e+01 3.237959e+01 5.277761e+01 4.848970e+01 1.518456e+02 3.958589e+01 8.600721e+01 5.053308e+01 6.314476e+01 2.858712e+01 2.673918e+01 3.566424e+01 7.357314e-02 2.053608e-01 3.439261e-01 3.862202e-01 4.793607e-01 5.386431e-01 6.029018e-01 6.550354e-01 6.266406e-01 6.606710e-01 5.446805e-01 4.805125e-01 4.200628e-01 1.067484e-02 2.945342e-02 4.199631e-02 5.706770e-02 6.969391e-02 9.173363e-02 1.013001e-01 1.022008e-01 1.077670e-01 1.038214e-01 9.156426e-02 8.359703e-02 7.140534e-02
<GCONST> 7.284138e+01
<STATE> 5
<NUMMIXES> 2
<MIXTURE> 1 3.729246e-01
<MEAN> 39
 -1.158915e-02 -4.609920e+00 6.831917e+00 6.562211e+00 2.903170e+01 -8.742414e+00 -9.400968e+00 -5.967097e-01 -8.830015e+00 -6.911770e+00 7.170210e+00 -1.583830e-01 -1.053280e+01 -2.398145e-01 7.624341e-01 1.054050e-01 3.182232e-01 -1.122741e+00 1.008682e+00 8.936346e-01 1.221928e-01 3.018693e-01 7.000840e-01 -2.780533e-01 -2.246479e-01 4.159011e-01 -5.743813e-02 1.001889e-01 5.278412e-02 7.822885e-02 -2.136344e-01 1.238510e-01 4.228937e-02 -5.019327e-02 1.580351e-01 1.248297e-01 -1.422860e-01 -3.133557e-02 9.323797e-02
<VARIANCE> 39
 2.374256e+01 2.564996e+01 5.366492e+01 3.340060e+01 4.401073e+01 4.895251e+01 5.929096e+01 4.477873e+01 3.839508e+01 7.332324e+01 5.319360e+01 3.616922e+01 2.792423e+01 9.386206e-01 1.541892e+00 1.943380e+00 1.528426e+00 2.205622e+00 2.299389e+00 3.071947e+00 2.932394e+00 2.181341e+00 2.883355e+00 2.230896e+00 1.478047e+00 1.332009e+00 1.940938e-01 2.401859e-01 3.642429e-01 2.710737e-01 3.654038e-01 3.619669e-01 5.271245e-01 5.085103e-01 3.717355e-01 5.437521e-01 3.741726e-01 2.775579e-01 2.246385e-01
<GCONST> 1.144956e+02
<MIXTURE> 2 6.270754e-01
<MEAN> 39
 1.690297e+00 -7.793707e+00 9.350328e+00 2.823331e+00 1.106294e+01 -1.700143e+01 -1.507121e+01 -1.013423e+01 -6.864896e+00 -7.037051e+00 -6.733965e+00 -6.686882e+00 -4.598641e+00 -1.911080e-02 5.284545e-01 -7.431225e-02 -1.008409e-01 9.566526e-02 7.714810e-01 5.666964e-01 4.041532e-03 -6.043935e-02 -1.260977e-02 2.433899e-02 2.235056e-01 -3.697251e-02 -4.512136e-02 1.197979e-01 4.903313e-02 2.222206e-02 -3.827794e-02 1.650502e-01 1.761629e-01 9.072147e-02 5.879992e-02 -5.565982e-03 6.395600e-03 8.410560e-02 4.196565e-02
<VARIANCE> 39
 2.119236e+01 4.309134e+01 4.972404e+01 8.209233e+01 9.956918e+01 1.680562e+02 6.805738e+01 1.015937e+02 5.415846e+01 7.929523e+01 4.789154e+01 4.814757e+01 4.874587e+01 2.380678e-01 6.979259e-01 8.819423e-01 1.016661e+00 1.077346e+00 1.754371e+00 1.777937e+00 1.754957e+00 1.787182e+00 1.677261e+00 1.393783e+00 1.176646e+00 9.932835e-01 3.440254e-02 1.045855e-01 1.167103e-01 1.524192e-01 1.771499e-01 2.609852e-01 2.597409e-01 2.888295e-01 2.870431e-01 2.769721e-01 2.288907e-01 2.059477e-01 1.658520e-01
<GCONST> 1.041224e+02
<STATE> 6
<NUMMIXES> 2
<MIXTURE> 1 5.847967e-01
<MEAN> 39
 -2.956204e+00 -6.209705e-01 8.229374e+00 6.970788e+00 1.071386e+01 -4.108260e+00 -6.092785e+00 -5.978376e+00 -3.716721e+00 -4.049291e+00 -3.660570e+00 -2.180805e+00 -2.963815e+00 -6.291880e-01 6.934278e-01 7.959486e-02 6.066975e-02 -5.423452e-01 9.917346e-01 7.922699e-01 4.384480e-01 5.092746e-01 2.563672e-01 -8.856788e-02 1.539100e-01 1.591734e-01 -3.198535e-02 -1.212651e-01 -3.532143e-02 -2.798226e-02 7.393256e-02 -2.054110e-01 -1.538488e-01 1.066945e-02 -2.304763e-02 -4.165876e-02 3.938879e-02 -4.312210e-02 -5.386737e-02
<VARIANCE> 39
 7.197872e+01 6.471016e+01 6.970279e+01 7.561149e+01 9.389875e+01 1.082251e+02 8.510759e+01 8.202952e+01 6.116951e+01 5.346452e+01 5.277773e+01 3.845174e+01 3.734713e+01 1.801758e+00 3.230272e+00 2.928635e+00 3.285210e+00 2.827252e+00 4.085217e+00 3.866557e+00 3.829856e+00 3.143495e+00 2.967665e+00 2.641744e+00 2.384499e+00 1.761013e+00 2.252040e-01 4.342246e-01 4.555578e-01 4.849916e-01 4.573976e-01 5.668249e-01 6.460373e-01 6.107587e-01 5.543306e-01 4.922043e-01 4.288357e-01 3.791203e-01 2.969253e-01
<GCONST> 1.294614e+02
<MIXTURE> 2 4.152033e-01
<MEAN> 39
 -3.108484e+00 1.168354e+00 7.229253e+00 1.176921e+01 8.966617e+00 -5.375657e+00 -7.955759e+00 -3.061095e+00 -2.049932e-01 -3.701235e+00 -5.595145e+00 -1.379415e+00 -2.085832e+00 -4.441312e-01 3.558882e-01 -1.642776e-01 -7.433501e-02 -1.391244e-01 3.224953e-01 3.970410e-01 1.086983e-01 2.389906e-01 2.275734e-01 3.783160e-02 1.676767e-01 7.975731e-02 -9.063770e-03 -1.084065e-01 -8.496086e-03 -8.472700e-02 8.915759e-04 -1.578701e-02 2.261017e-02 -2.746314e-02 -3.630536e-02 -1.112332e-02 3.409123e-02 1.217097e-02 -3.308020e-03
<VARIANCE> 39
 6.784283e+01 8.223371e+01 6.937041e+01 6.772324e+01 1.089643e+02 1.333157e+02 5.880894e+01 7.470840e+01 5.120964e+01 4.477429e+01 4.935592e+01 3.301065e+01 3.328812e+01 3.495393e-01 7.457319e-01 8.351197e-01 8.922335e-01 1.016077e+00 1.262661e+00 1.389439e+00 1.481439e+00 1.395071e+00 1.282403e+00 1.195761e+00 1.042560e+00 9.233084e-01 4.930321e-02 1.173452e-01 1.350467e-01 1.658423e-01 1.861377e-01 2.400827e-01 2.548567e-01 2.664314e-01 2.558644e-01 2.458671e-01 2.243914e-01 2.007182e-01 1.753296e-01
<GCONST> 1.030675e+02
<TRANSP> 7
 0.000000e+00 1.000000e+00 0.000000e+00 0.000000e+00 0.000000e+00 0.000000e+00 0.000000e+00
 0.000000e+00 7.947956e-01 2.052044e-01 0.000000e+00 0.000000e+00 0.000000e+00 0.000000e+00
 0.000000e+00 0.000000e+00 8.180932e-01 1.819068e-01 0.000000e+00 0.000000e+00 0.000000e+00
 0.000000e+00 0.000000e+00 0.000000e+00 9.171771e-01 8.282287e-02 0.000000e+00 0.000000e+00
 0.000000e+00 0.000000e+00 0.000000e+00 0.000000e+00 8.249215e-01 1.750785e-01 0.000000e+00
 0.000000e+00 0.000000e+00 0.000000e+00 0.000000e+00 0.000000e+00 8.645466e-01 1.354534e-01
 0.000000e+00 0.000000e+00 0.000000e+00 0.000000e+00 0.000000e+00 0.000000e+00 0.000000e+00
<ENDHMM>
~o
<STREAMINFO> 1 39
<VECSIZE> 39<NULLD><MFCC_D_A><DIAGC>
~h "ei"
<BEGINHMM>
<NUMSTATES> 7
<STATE> 2
<NUMMIXES> 2
<MIXTURE> 1 7.461852e-01
<MEAN> 39
 4.248628e+00 -9.125830e+00 1.602641e+00 -3.522508e+00 2.194401e+01 -1.484651e+01 -7.262309e+00 -1.427832e+00 -3.933089e+00 -3.398726e+00 8.460169e+00 2.407796e+00 -5.216900e+00 9.313963e-02 3.856015e-04 -1.716223e-01 3.048313e-02 1.927175e-01 -1.171725e-01 -2.557156e-01 -1.107336e-01 -2.510172e-01 -1.518337e-01 6.062524e-02 5.713385e-04 -5.609936e-02 -2.915825e-02 3.407898e-02 5.311660e-02 3.398952e-02 -3.454320e-02 5.381112e-02 4.581945e-02 -2.012058e-02 -1.374189e-02 1.183741e-02 -5.039932e-02 -2.848753e-02 2.102233e-02
<VARIANCE> 39
 1.606800e+01 3.095265e+01 5.753322e+01 4.264058e+01 7.485764e+01 5.673425e+01 6.966647e+01 5.577477e+01 5.162157e+01 8.335237e+01 8.026470e+01 4.075171e+01 3.659994e+01 1.942215e-01 5.030850e-01 8.481705e-01 7.519522e-01 9.733199e-01 1.028835e+00 1.277961e+00 1.110957e+00 1.222857e+00 1.434160e+00 1.092417e+00 8.503026e-01 7.169606e-01 2.726698e-02 6.923103e-02 1.076857e-01 1.204908e-01 1.535767e-01 1.764858e-01 1.920534e-01 1.939019e-01 1.943454e-01 2.272303e-01 1.779723e-01 1.549619e-01 1.215623e-01
<GCONST> 9.376871e+01
<MIXTURE> 2 2.538149e-01
<MEAN> 39
 -1.400535e+00 -5.424905e+00 4.628923e+00 -7.398131e-01 1.503961e+01 -1.163997e+01 -2.676075e+00 -3.596879e+00 -2.579095e+00 -2.524663e+00 1.924354e+00 3.230226e-01 -2.190285e+00 9.887326e-01 -5.525728e-01 -8.225424e-01 -6.868176e-02 4.688089e-01 -1.223720e+00 -7.702858e-01 -6.288155e-02 -4.209259e-01 -1.918741e-02 4.870482e-01 2.143236e-01 -3.689267e-02 -5.842914e-02 -2.616217e-02 -3.633438e-02 1.486260e-02 -9.768933e-03 2.948693e-02 1.424991e-03 3.746526e-02 2.054676e-02 6.764266e-02 4.048706e-02 -1.547853e-02 -2.012776e-02
<VARIANCE> 39
 7.995169e+01 7.345794e+01 6.958798e+01 6.452953e+01 7.709431e+01 1.028946e+02 7.750613e+01 6.711028e+01 5.917198e+01 7.063982e+01 6.383784e+01 3.727896e+01 3.184529e+01 2.985245e+00 3.734612e+00 3.471448e+00 3.130759e+00 3.073969e+00 4.310399e+00 4.152534e+00 3.000181e+00 3.005660e+00 3.989161e+00 2.899761e+00 2.500504e+00 1.938421e+00 4.251397e-01 5.796981e-01 5.695193e-01 5.153129e-01 4.621788e-01 6.725978e-01 6.660680e-01 5.293089e-01 4.835329e-01 5.673786e-01 4.569559e-01 3.826091e-01 3.246965e-01
<GCONST> 1.319052e+02
<STATE> 3
<NUMMIXES> 2
<MIXTURE> 1 4.189755e-01
<MEAN> 39
 -7.445233e-01 -4.877898e+00 3.052173e+00 3.027318e+00 2.788225e+01 -1.174839e+01 -1.025744e+01 1.260288e+00 -1.274197e+01 -1.097053e-01 1.399815e+01 5.152916e-01 -5.591323e+00 -2.731336e-01 1.672287e-01 2.743619e-02 2.477085e-01 -1.871968e-01 2.840235e-01 2.983782e-03 2.669536e-02 -1.494652e-01 9.032986e-02 2.307079e-02 -1.066642e-02 -5.625935e-02 -4.933970e-02 3.186965e-02 1.806045e-02 3.073306e-03 -1.299701e-01 1.090368e-01 5.441186e-02 -3.691718e-02 1.123305e-01 6.258745e-02 -3.826899e-02 -4.052149e-03 3.209913e-02
<VARIANCE> 39
 2.459127e+01 2.226082e+01 4.364964e+01 2.273089e+01 2.923317e+01 3.334449e+01 5.755335e+01 5.576760e+01 3.686834e+01 4.034211e+01 2.720852e+01 2.661272e+01 2.849747e+01 2.011953e+00 1.682109e+00 3.449895e+00 1.404695e+00 2.665972e+00 2.307908e+00 3.877874e+00 4.139584e+00 2.274431e+00 2.576118e+00 2.099778e+00 1.788419e+00 1.311607e+00 4.634159e-01 3.613628e-01 7.165854e-01 2.997352e-01 5.907579e-01 4.440468e-01 8.160692e-01 8.875685e-01 4.552801e-01 5.041772e-01 4.314030e-01 3.771367e-01 2.662809e-01
<GCONST> 1.182339e+02
<MIXTURE> 2 5.810246e-01
<MEAN> 39
 3.178765e+00 -4.433733e+00 4.032445e+00 6.573009e+00 1.288157e+01 -2.462073e+01 -6.258821e+00 -1.435952e+00 -5.701355e-01 5.702725e+00 -3.283361e+00 -3.841023e+00 4.634595e-01 3.166767e-02 1.680433e-01 -3.729118e-02 1.880364e-01 -6.601591e-02 4.832199e-03 -2.322475e-01 -1.595743e-01 -8.147548e-02 2.023693e-02 -9.698668e-02 5.168105e-02 7.570100e-02 -3.921019e-02 2.991507e-02 2.120431e-02 -1.032080e-03 1.206006e-02 7.129389e-02 8.267447e-03 2.481453e-02 2.706664e-02 -3.150129e-02 1.103018e-02 2.639193e-02 -6.633995e-03
<VARIANCE> 39
 1.232294e+01 3.217602e+01 3.886541e+01 3.624655e+01 2.655883e+01 2.788066e+01 3.509991e+01 6.217514e+01 3.643484e+01 2.655398e+01 2.835603e+01 2.201486e+01 1.586729e+01 2.085524e-01 6.141834e-01 5.985941e-01 6.785390e-01 8.130117e-01 9.466549e-01 9.912492e-01 1.121720e+00 1.050650e+00 9.321798e-01 7.237465e-01 6.136056e-01 5.696113e-01 2.218637e-02 8.603119e-02 8.881510e-02 1.070928e-01 1.386869e-01 1.565711e-01 1.758709e-01 1.775083e-01 1.626063e-01 1.667657e-01 1.392634e-01 1.152450e-01 1.018163e-01
<GCONST> 8.253687e+01
<STATE> 4
<NUMMIXES> 2
<MIXTURE> 1 1.000000e+00
<MEAN> 39
 -1.916339e+00 1.376356e-01 4.920701e+00 7.287684e+00 1.317943e+01 -1.429091e+01 -1.029631e+01 -1.495248e+00 -6.543851e-01 1.802487e+00 -5.887256e-01 7.467564e-01 -4.513382e-03 -8.943663e-01 4.798566e-01 -1.009639e-01 -1.325268e-01 -7.695612e-01 1.383738e+00 5.631325e-01 8.365211e-02 5.606003e-01 -1.206948e-01 6.917134e-02 1.031538e-02 -3.774537e-02 7.860921e-03 -7.170034e-02 -2.593880e-02 -1.469285e-01 -3.652940e-02 1.222115e-01 2.023462e-01 1.095829e-01 3.601327e-03 -6.506828e-03 2.623748e-02 -5.619485e-02 -6.453118e-02
<VARIANCE> 39
 3.196226e+01 4.664289e+01 4.135133e+01 7.024498e+01 6.918505e+01 7.037904e+01 5.376511e+01 6.632448e+01 6.894704e+01 4.442654e+01 7.008261e+01 3.065444e+01 3.859964e+01 1.534813e+00 2.383111e+00 2.540568e+00 2.496408e+00 4.444395e+00 3.202826e+00 3.263514e+00 3.143430e+00 2.589147e+00 2.191156e+00 2.131111e+00 1.662675e+00 1.630603e+00 3.194538e-01 4.095528e-01 3.695567e-01 3.798956e-01 6.003316e-01 5.004964e-01 5.255011e-01 6.500722e-01 4.262724e-01 3.670161e-01 3.651034e-01 3.147562e-01 2.987707e-01
<GCONST> 1.230984e+02
<MIXTURE> 2 0.000000e+00
<MEAN> 39
 2.451241e-05 -3.945827e-05 -6.578863e-06 -7.152557e-07 -2.774596e-05 1.187921e-04 -1.449883e-05 1.633167e-05 -6.984919e-06 -4.756451e-05 -2.284069e-07 1.892447e-05 7.908791e-06 -7.654307e-09 2.645538e-08 3.352761e-08 1.137960e-07 9.124051e-09 1.990702e-07 1.084991e-07 -6.868504e-08 -1.708395e-08 1.569279e-07 2.568122e-07 2.303568e-08 -8.591451e-08 -1.363271e-02 1.440285e-03 -1.899552e-03 5.156639e-04 -4.873953e-04 -4.111854e-04 -4.649502e-04 -8.853489e-04 -2.279049e-04 -6.240061e-04 -1.173968e-04 -5.409846e-04 -2.049126e-04
<VARIANCE> 39
 9.626150e-06 2.426654e-05 3.815629e-06 0.000000e+00 0.000000e+00 0.000000e+00 2.935529e-06 0.000000e+00 1.143431e-06 0.000000e+00 0.000000e+00 0.000000e+00 0.000000e+00 1.686828e-11 0.000000e+00 1.923581e-10 0.000000e+00 0.000000e+00 2.846718e-10 0.000000e+00 0.000000e+00 2.116707e-11 0.000000e+00 0.000000e+00 0.000000e+00 8.787993e-11 8.329379e-03 3.102372e-04 3.842243e-04 2.258328e-04 2.910108e-04 3.261111e-04 3.767133e-04 3.033899e-04 2.445394e-04 2.236361e-04 1.965368e-04 1.861692e-04 1.587977e-04
<GCONST> -1.600000e+11
<STATE> 5
<NUMMIXES> 2
<MIXTURE> 1 1.000000e+00
<MEAN> 39
 -7.865492e+00 5.359160e-01 1.212554e+00 4.359671e+00 1.021922e+01 -1.218772e+00 -1.552015e+00 5.049896e-01 -6.823176e-01 3.363208e+00 5.916351e+00 1.223518e+00 -3.057784e+00 -2.948485e-03 1.006729e-01 -1.976037e-01 -3.157154e-01 -8.552634e-01 4.606631e-01 5.165703e-01 -3.962069e-02 2.865021e-01 -1.185766e-01 -4.898930e-01 2.460888e-02 1.460439e-01 1.273172e-01 -1.628196e-02 4.532855e-02 3.941749e-02 8.957245e-02 -1.518829e-01 -1.009292e-01 -2.555352e-02 -5.485095e-02 -3.858504e-02 -1.194563e-02 2.238183e-02 2.051704e-02
<VARIANCE> 39
 5.023702e+01 4.588489e+01 3.600633e+01 4.295181e+01 8.027321e+01 6.019676e+01 4.715525e+01 4.282978e+01 5.040482e+01 3.367031e+01 6.812363e+01 2.640409e+01 2.591954e+01 2.025907e+00 1.620921e+00 1.759463e+00 1.747237e+00 2.687442e+00 2.391248e+00 2.332827e+00 2.408867e+00 2.672054e+00 2.031797e+00 2.424619e+00 1.553764e+00 1.394200e+00 3.197165e-01 2.294721e-01 2.943650e-01 3.019778e-01 4.381941e-01 4.112805e-01 4.094220e-01 4.350106e-01 4.200073e-01 3.771299e-01 3.955809e-01 2.949921e-01 2.497862e-01
<GCONST> 1.164437e+02
<MIXTURE> 2 0.000000e+00
<MEAN> 39
 -1.609325e-06 -8.135103e-07 4.749745e-07 -6.807968e-07 -4.202593e-08 -3.618188e-07 2.407432e-09 2.424931e-07 1.277658e-07 -1.313165e-07 1.412118e-07 2.625166e-07 -2.114102e-07 1.533401e-01 -5.503851e-03 3.785035e-02 1.390424e-03 1.759262e-02 1.390478e-02 1.895499e-02 1.250848e-02 7.013478e-03 6.770252e-03 6.135121e-03 5.650446e-03 4.476010e-03 -1.806013e-01 2.015203e-02 -3.495460e-02 2.499425e-02 1.963463e-02 -3.039902e-02 -3.971753e-02 -2.047334e-02 -8.192796e-04 8.419420e-03 5.635804e-03 4.006127e-03 -1.858771e-03
<VARIANCE> 39
 0.000000e+00 0.000000e+00 0.000000e+00 0.000000e+00 4.588401e-10 0.000000e+00 9.299506e-14 0.000000e+00 1.959961e-10 7.395329e-10 9.354153e-10 0.000000e+00 0.000000e+00 5.519691e-01 1.833294e-02 3.783517e-02 1.655615e-02 2.303718e-02 2.295028e-02 2.466567e-02 1.928537e-02 1.440313e-02 1.338319e-02 1.233723e-02 1.081821e-02 9.576578e-03 1.242094e-01 1.541650e-02 1.599239e-02 1.925049e-02 2.621124e-02 3.162269e-02 3.145853e-02 1.910103e-02 1.752691e-02 1.237346e-02 1.492543e-02 9.388872e-03 1.088586e-02
<GCONST> -8.000000e+10
<STATE> 6
<NUMMIXES> 2
<MIXTURE> 1 1.000000e+00
<MEAN> 39
 -5.802298e-01 -3.393304e-01 5.476580e-01 3.558113e-01 2.325147e+00 -1.384124e+00 -6.450759e-01 -2.674053e-01 -3.315994e-01 -5.778505e-02 4.434619e-01 6.829696e-02 -5.802717e-01 8.897552e-02 6.001107e-02 9.222887e-02 1.233380e-02 -3.397413e-02 1.544163e-01 7.790987e-02 5.082644e-03 4.509222e-02 -5.089586e-03 -3.591283e-02 4.566477e-03 2.811601e-02 -1.637188e-01 2.064685e-02 -2.486942e-02 2.214948e-02 2.311437e-02 -2.432363e-02 -3.059571e-02 -1.835101e-02 5.021792e-03 1.311713e-02 7.840097e-03 7.775698e-03 -6.992398e-05
<VARIANCE> 39
 1.538763e+01 1.027038e+01 1.256299e+01 1.267580e+01 4.311047e+01 2.943803e+01 1.396695e+01 1.124193e+01 1.084212e+01 9.376896e+00 1.292259e+01 5.955760e+00 6.932015e+00 1.167997e+00 2.937348e-01 4.066255e-01 2.906115e-01 4.402954e-01 5.248705e-01 3.988440e-01 4.247722e-01 3.631016e-01 3.332505e-01 3.340277e-01 2.525329e-01 2.210269e-01 1.585808e-01 5.103276e-02 6.195777e-02 6.417693e-02 8.525392e-02 9.567427e-02 9.519374e-02 8.345735e-02 7.460440e-02 6.497988e-02 6.506006e-02 4.951504e-02 4.615871e-02
<GCONST> 5.824297e+01
<MIXTURE> 2 0.000000e+00
<MEAN> 39
 0.000000e+00 0.000000e+00 0.000000e+00 0.000000e+00 0.000000e+00 0.000000e+00 0.000000e+00 0.000000e+00 0.000000e+00 0.000000e+00 0.000000e+00 0.000000e+00 0.000000e+00 4.237878e-23 -3.786909e-23 1.582470e-23 -1.329638e-24 3.023070e-24 -8.363062e-24 6.443591e-24 -1.243620e-24 4.356885e-25 -2.915257e-24 3.233656e-24 -1.075627e-24 3.332135e-26 -1.259776e-01 9.946360e-03 -3.100975e-02 6.726459e-03 -2.000426e-04 -2.277133e-02 -2.668727e-02 -1.526267e-02 -5.181108e-03 1.760355e-04 -1.211648e-03 -1.074032e-03 -3.869191e-03
<VARIANCE> 39
 0.000000e+00 0.000000e+00 0.000000e+00 0.000000e+00 0.000000e+00 0.000000e+00 0.000000e+00 0.000000e+00 0.000000e+00 0.000000e+00 0.000000e+00 0.000000e+00 0.000000e+00 5.779452e-23 4.550961e-23 7.666999e-24 4.672506e-26 3.242006e-25 2.289604e-24 1.269824e-24 4.119810e-26 1.051707e-26 3.016532e-25 3.258485e-25 3.081342e-26 3.416759e-28 8.857191e-02 9.054033e-03 1.131149e-02 9.210194e-03 1.184606e-02 1.578277e-02 1.645681e-02 1.080695e-02 9.119515e-03 6.624663e-03 7.254379e-03 5.319290e-03 5.618778e-03
<GCONST> -1.300000e+11
<TRANSP> 7
 0.000000e+00 1.000000e+00 0.000000e+00 0.000000e+00 0.000000e+00 0.000000e+00 0.000000e+00
 0.000000e+00 9.108626e-01 8.913741e-02 0.000000e+00 0.000000e+00 0.000000e+00 0.000000e+00
 0.000000e+00 0.000000e+00 9.349329e-01 6.506713e-02 0.000000e+00 0.000000e+00 0.000000e+00
 0.000000e+00 0.000000e+00 0.000000e+00 7.510970e-01 2.489031e-01 0.000000e+00 0.000000e+00
 0.000000e+00 0.000000e+00 0.000000e+00 0.000000e+00 8.199054e-01 1.800946e-01 0.000000e+00
 0.000000e+00 0.000000e+00 0.000000e+00 0.000000e+00 0.000000e+00 7.859842e-01 2.140158e-01
 0.000000e+00 0.000000e+00 0.000000e+00 0.000000e+00 0.000000e+00 0.000000e+00 0.000000e+00
<ENDHMM>
~o
<STREAMINFO> 1 39
<VECSIZE> 39<NULLD><MFCC_D_A><DIAGC>
~h "f"
<BEGINHMM>
<NUMSTATES> 5
<STATE> 2
<NUMMIXES> 2
<MIXTURE> 1 4.100485e-01
<MEAN> 39
 1.796626e+00 -2.920646e+00 3.328315e+00 -7.091978e+00 1.037280e+01 -1.379629e+01 3.908077e+00 8.448477e-01 -2.057373e-01 -8.035532e+00 -9.948564e-01 6.539431e-01 -2.011877e+00 -1.513874e+00 6.325385e-01 9.353766e-01 -2.593111e-01 6.007780e-01 8.229501e-01 9.886359e-01 -4.244708e-01 7.200250e-01 4.758841e-01 2.096466e-01 -3.279363e-01 3.381763e-01 -3.900596e-01 -8.997226e-02 6.651916e-02 3.467078e-02 2.103547e-01 1.920445e-01 3.898295e-02 -5.589335e-02 5.496615e-02 9.450307e-02 1.410294e-01 1.555638e-02 5.770981e-02
<VARIANCE> 39
 4.840082e+01 3.766865e+01 5.686463e+01 7.138457e+01 8.623193e+01 9.169394e+01 8.531567e+01 9.287457e+01 9.225405e+01 6.162929e+01 2.983795e+01 3.665627e+01 3.204198e+01 2.397337e+00 1.368760e+00 1.806692e+00 1.677475e+00 2.736062e+00 3.095439e+00 2.815392e+00 2.638134e+00 2.493922e+00 2.601500e+00 1.817744e+00 1.682723e+00 1.447363e+00 1.764950e-01 2.318801e-01 2.815489e-01 2.755100e-01 3.228418e-01 3.677081e-01 4.061754e-01 3.700526e-01 3.808383e-01 3.835453e-01 2.876844e-01 2.890187e-01 2.334393e-01
<GCONST> 1.187095e+02
<MIXTURE> 2 5.899515e-01
<MEAN> 39
 -1.585175e+01 -1.551351e+00 7.729309e+00 -7.243529e+00 1.722945e+01 -4.595492e+00 8.562895e+00 -3.340965e+00 3.503048e+00 -4.349793e+00 2.257324e+00 -9.441703e-01 1.405435e+00 -2.463601e+00 -8.618322e-01 -7.031665e-01 -4.471729e-01 2.791805e-01 3.659815e-01 -1.137626e-01 -3.731829e-01 -3.769362e-02 -3.910118e-02 3.242532e-01 -1.921992e-02 3.981748e-01 4.077158e-01 -1.006740e-01 -2.800901e-01 -9.457918e-02 -3.625076e-01 -3.459834e-01 -2.940953e-01 2.188951e-02 -1.688870e-01 -1.846896e-01 -1.475902e-01 -2.191112e-03 -1.261082e-01
<VARIANCE> 39
 3.794474e+01 3.006912e+01 3.696891e+01 3.629724e+01 4.906600e+01 3.866109e+01 4.917469e+01 3.866268e+01 3.933981e+01 3.216502e+01 2.111969e+01 2.085070e+01 1.584314e+01 1.946436e+00 1.199190e+00 1.955029e+00 2.033741e+00 2.686450e+00 2.348367e+00 2.500819e+00 2.211571e+00 1.997479e+00 1.933216e+00 1.770481e+00 1.567442e+00 1.408696e+00 2.019766e-01 2.254066e-01 2.903521e-01 2.933460e-01 3.599655e-01 3.714276e-01 4.149454e-01 4.019520e-01 3.977194e-01 3.726283e-01 3.362232e-01 2.893453e-01 2.591272e-01
<GCONST> 1.105595e+02
<STATE> 3
<NUMMIXES> 2
<MIXTURE> 1 2.312202e-01
<MEAN> 39
 -2.011849e+01 -1.268467e+01 1.066750e+01 -1.882523e+01 2.300354e+01 -1.231113e+01 1.386601e+01 -8.649330e+00 8.390205e+00 -8.659396e+00 4.164458e+00 -1.585101e+00 2.067865e+00 -1.955011e-01 -3.926468e-01 -2.771595e-01 -2.176236e-01 -2.698450e-01 -2.959367e-02 -1.311230e-01 -1.358750e-01 -8.424135e-02 -1.042079e-01 4.081220e-02 3.979540e-02 1.035495e-01 2.222494e-01 1.292186e-01 7.949185e-03 1.927112e-01 -8.391973e-02 1.359200e-01 -9.247421e-02 1.498608e-01 -1.294253e-01 1.108364e-01 -9.564154e-02 9.194741e-02 -9.228626e-02
<VARIANCE> 39
 1.970302e+01 2.360036e+01 3.149397e+01 2.502757e+01 3.166649e+01 3.244806e+01 5.077802e+01 3.219571e+01 2.699042e+01 4.276358e+01 2.910762e+01 2.657889e+01 2.859613e+01 1.453753e+00 7.729778e-01 1.173149e+00 1.426417e+00 1.551524e+00 1.835235e+00 1.832194e+00 2.005302e+00 1.886367e+00 1.831237e+00 1.569326e+00 1.489383e+00 1.208199e+00 9.893120e-02 1.367817e-01 1.941786e-01 2.308668e-01 2.778208e-01 3.365157e-01 3.443621e-01 3.773537e-01 3.653231e-01 3.544822e-01 3.166410e-01 2.902647e-01 2.480013e-01
<GCONST> 1.034923e+02
<MIXTURE> 2 7.687797e-01
<MEAN> 39
 -2.546515e+01 -5.316592e+00 5.182599e-01 -1.014452e+01 1.336730e+01 -4.508892e+00 4.143860e+00 -4.057298e+00 1.675601e+00 -5.046123e+00 2.272683e+00 -1.283370e+00 2.229477e+00 -1.519309e-01 -3.431510e-01 -2.302347e-01 -2.690792e-01 -1.743130e-01 -7.424696e-02 -3.065879e-02 -5.297905e-02 3.275013e-02 -3.512295e-02 8.244935e-02 3.946884e-02 7.528704e-02 2.312994e-01 2.895865e-02 1.394252e-01 3.060656e-02 6.189735e-02 -5.252600e-03 9.213040e-02 -9.943989e-03 4.179194e-02 1.035141e-04 3.644056e-02 5.465960e-03 1.392528e-02
<VARIANCE> 39
 1.176915e+01 2.009933e+01 2.096771e+01 2.293049e+01 2.208943e+01 2.328727e+01 2.455520e+01 2.513758e+01 2.492216e+01 2.296042e+01 1.801677e+01 1.398869e+01 1.294775e+01 9.981424e-01 6.281391e-01 9.135668e-01 1.018384e+00 1.192862e+00 1.366520e+00 1.546908e+00 1.590251e+00 1.575584e+00 1.404581e+00 1.335052e+00 1.189907e+00 1.009449e+00 1.105499e-01 1.091064e-01 1.587749e-01 1.862282e-01 2.259963e-01 2.640838e-01 2.930050e-01 3.118650e-01 3.037787e-01 2.800012e-01 2.679037e-01 2.386677e-01 2.069542e-01
<GCONST> 9.260374e+01
<STATE> 4
<NUMMIXES> 2
<MIXTURE> 1 5.026887e-01
<MEAN> 39
 -6.554524e+00 -1.732575e+00 7.797787e+00 -5.445904e+00 1.219855e+01 -5.831824e+00 2.768046e+00 -1.089322e+00 -5.544649e-01 -4.672772e+00 -2.975711e-01 -1.970967e-01 -1.863883e+00 2.324662e+00 8.881272e-01 -3.351239e-02 8.781236e-01 -7.107453e-01 -8.743104e-01 -1.324313e+00 7.436566e-01 -7.447327e-01 -2.047707e-01 -5.990433e-01 2.354418e-02 -8.337958e-01 -3.035954e-01 -3.591199e-01 -3.079649e-01 -1.562093e-01 -3.049450e-02 -1.832630e-01 -9.233725e-02 4.418395e-02 1.603609e-02 -2.960376e-02 1.214927e-01 9.185350e-02 9.832729e-02
<VARIANCE> 39
 7.204004e+01 5.468912e+01 5.470092e+01 7.215884e+01 7.836866e+01 8.615635e+01 7.058906e+01 7.936926e+01 5.410368e+01 5.358977e+01 3.055553e+01 3.417274e+01 2.753362e+01 6.128239e+00 4.085661e+00 3.022760e+00 3.187831e+00 4.095376e+00 5.717117e+00 4.752763e+00 3.900616e+00 3.879366e+00 3.539257e+00 2.827886e+00 2.653683e+00 2.563690e+00 5.137429e-01 5.599077e-01 4.912560e-01 4.450137e-01 5.639826e-01 7.041965e-01 6.550837e-01 6.212690e-01 4.883000e-01 5.920529e-01 4.176550e-01 3.991055e-01 3.497005e-01
<GCONST> 1.323875e+02
<MIXTURE> 2 4.973113e-01
<MEAN> 39
 -1.919306e+01 -9.236015e+00 3.689552e+00 -1.223476e+01 1.489335e+01 -6.318414e+00 7.143879e+00 -6.103525e+00 3.174531e+00 -6.095226e+00 4.311400e+00 -2.684157e-01 3.222131e+00 2.403928e+00 6.682029e-01 1.196788e+00 8.050752e-01 2.333375e-01 1.086554e-01 -3.363338e-03 2.492941e-01 -2.023524e-01 1.609932e-01 -2.533848e-01 3.826904e-02 -4.694991e-01 5.983038e-01 5.120639e-01 1.572707e-01 3.195376e-01 -1.208165e-01 -2.085501e-01 -3.490097e-01 1.940116e-01 -1.673514e-01 -7.740311e-02 -3.054772e-01 -1.087985e-01 -3.564875e-01
<VARIANCE> 39
 3.042087e+01 2.921870e+01 3.283026e+01 3.405130e+01 4.104346e+01 3.583276e+01 4.287782e+01 3.903381e+01 3.163493e+01 3.066770e+01 2.307189e+01 1.659729e+01 1.461290e+01 2.254787e+00 2.112019e+00 1.727328e+00 2.238523e+00 2.263419e+00 2.361685e+00 2.342651e+00 2.605778e+00 2.095444e+00 2.131377e+00 2.099487e+00 1.836933e+00 1.663770e+00 2.622992e-01 2.496722e-01 3.391603e-01 3.445290e-01 4.448123e-01 5.514072e-01 5.425829e-01 4.482497e-01 4.572209e-01 4.257733e-01 3.892074e-01 3.408262e-01 2.868415e-01
<GCONST> 1.128664e+02
<TRANSP> 5
 0.000000e+00 1.000000e+00 0.000000e+00 0.000000e+00 0.000000e+00
 0.000000e+00 8.219813e-01 1.780188e-01 0.000000e+00 0.000000e+00
 0.000000e+00 0.000000e+00 9.210073e-01 7.899267e-02 0.000000e+00
 0.000000e+00 0.000000e+00 0.000000e+00 8.296440e-01 1.703560e-01
 0.000000e+00 0.000000e+00 0.000000e+00 0.000000e+00 0.000000e+00
<ENDHMM>
~o
<STREAMINFO> 1 39
<VECSIZE> 39<NULLD><MFCC_D_A><DIAGC>
~h "g"
<BEGINHMM>
<NUMSTATES> 5
<STATE> 2
<NUMMIXES> 2
<MIXTURE> 1 5.047534e-01
<MEAN> 39
 1.449849e+00 1.442797e+01 1.154600e+01 1.202866e+01 1.097214e+01 -3.973374e-01 -2.060579e+00 -3.637791e+00 -1.113597e+00 -2.939684e+00 -5.378789e+00 -2.430029e+00 -3.694557e+00 -3.086825e-01 5.254557e-01 1.503197e-01 2.805315e-01 9.932362e-02 2.745268e-01 2.370524e-01 -1.540926e-02 1.203777e-01 1.629366e-02 -3.138165e-02 1.888743e-01 6.585543e-02 -7.795297e-02 -2.436828e-01 1.244914e-02 -1.483744e-01 1.894231e-02 -1.387703e-02 8.106045e-02 5.132820e-02 -4.104696e-02 -9.807146e-03 3.092874e-02 -5.233004e-02 -2.688839e-02
<VARIANCE> 39
 1.831004e+01 4.598378e+01 1.985147e+01 4.351403e+01 5.002993e+01 4.182606e+01 3.799604e+01 3.419193e+01 2.841230e+01 2.907515e+01 2.683872e+01 3.067874e+01 2.336567e+01 1.879771e-01 5.419513e-01 4.461514e-01 6.740388e-01 6.160668e-01 7.434595e-01 8.291053e-01 8.474376e-01 8.468958e-01 8.084075e-01 7.676679e-01 7.357590e-01 5.901744e-01 2.678848e-02 1.251580e-01 8.963638e-02 1.347938e-01 1.304212e-01 1.491727e-01 1.667235e-01 1.667397e-01 1.604581e-01 1.501698e-01 1.473051e-01 1.362218e-01 1.154250e-01
<GCONST> 8.304459e+01
<MIXTURE> 2 4.952466e-01
<MEAN> 39
 1.259235e-01 7.739567e+00 1.033796e+01 5.978479e+00 9.535686e+00 -1.859487e+00 -8.063973e-01 -2.944725e+00 -3.462896e+00 -4.403709e+00 -4.372110e+00 -2.876544e+00 -4.588729e+00 -2.103615e-01 6.774786e-01 2.054534e-01 5.162272e-01 8.963785e-02 4.046420e-01 1.261239e-01 -1.491703e-01 1.778664e-01 5.816387e-02 -5.719509e-02 1.128634e-01 1.287055e-02 -3.019272e-02 -3.082358e-01 -8.068219e-02 -1.739421e-01 -1.405794e-02 -6.365901e-02 6.583378e-02 -4.724504e-02 1.009450e-03 -2.856886e-02 2.482494e-02 2.212469e-02 2.993951e-02
<VARIANCE> 39
 4.562650e+01 6.843841e+01 4.347278e+01 8.293884e+01 8.649751e+01 7.675122e+01 6.308530e+01 6.115996e+01 6.461277e+01 5.212228e+01 4.531574e+01 4.776323e+01 3.477900e+01 1.072925e+00 2.421226e+00 1.543509e+00 2.131602e+00 1.870442e+00 2.249665e+00 2.411822e+00 2.314842e+00 2.061014e+00 1.864723e+00 1.666667e+00 1.578209e+00 1.229198e+00 1.529870e-01 4.500897e-01 2.922738e-01 4.020308e-01 3.480639e-01 3.884146e-01 4.632056e-01 4.044499e-01 3.540525e-01 3.355252e-01 3.114055e-01 2.760726e-01 2.258090e-01
<GCONST> 1.175805e+02
<STATE> 3
<NUMMIXES> 2
<MIXTURE> 1 5.630286e-01
<MEAN> 39
 -1.315917e+00 1.309337e+01 1.277070e+01 1.202186e+01 1.239106e+01 -2.247662e-01 -6.945166e-01 -3.952782e+00 -1.426793e+00 -2.953732e+00 -5.317192e+00 -2.455853e+00 -4.067894e+00 -8.929115e-01 -2.292101e+00 -5.546284e-01 -1.287344e+00 2.291207e-01 3.773854e-01 1.558807e+00 5.257026e-01 -1.300727e-01 -1.311157e-01 5.398985e-01 -8.314580e-02 3.593372e-02 -3.287204e-02 -1.299602e+00 -4.908539e-01 -9.278699e-01 -1.956175e-01 -6.532594e-02 3.972237e-01 2.276551e-01 -7.392897e-02 -5.775370e-02 2.913610e-01 -7.578953e-02 7.091225e-02
<VARIANCE> 39
 2.512487e+01 4.493646e+01 2.350426e+01 4.505097e+01 5.174033e+01 4.397720e+01 3.965852e+01 3.763944e+01 3.026741e+01 2.729992e+01 3.111652e+01 2.890394e+01 2.524813e+01 9.272251e-01 7.340211e+00 3.038862e+00 4.937647e+00 3.028450e+00 3.965602e+00 3.670251e+00 3.331609e+00 2.412216e+00 2.356063e+00 2.181641e+00 1.881326e+00 1.484143e+00 1.809396e-01 7.664888e-01 4.277197e-01 6.122340e-01 5.311627e-01 5.728489e-01 5.313466e-01 4.682265e-01 4.091550e-01 3.595639e-01 3.613983e-01 3.171845e-01 2.659974e-01
<GCONST> 1.193137e+02
<MIXTURE> 2 4.369714e-01
<MEAN> 39
 -6.535829e-03 -1.929371e+00 8.780300e+00 5.445911e+00 5.513634e+00 4.629543e+00 4.119717e+00 -3.888719e+00 -1.732512e+00 -5.563974e+00 -4.798166e+00 -2.415071e+00 -5.237418e+00 -1.859306e-01 -3.049937e+00 -1.107790e+00 -2.029852e+00 -6.460636e-01 1.906574e-03 8.326680e-01 4.319797e-02 4.366890e-02 -1.683951e-01 7.080817e-01 1.423809e-01 2.250089e-01 1.762338e-01 4.225668e-01 1.296545e-01 -1.764350e-03 -6.269058e-02 -5.238735e-01 -5.318007e-01 -2.142306e-01 -1.359642e-02 6.337833e-03 -8.636861e-02 -6.368239e-03 1.003080e-01
<VARIANCE> 39
 6.821972e+01 1.043742e+02 5.088971e+01 1.115774e+02 1.685025e+02 9.552536e+01 6.383250e+01 7.345737e+01 7.540266e+01 4.881958e+01 4.190001e+01 4.438935e+01 2.947304e+01 1.924770e+00 1.205291e+01 5.419466e+00 8.442758e+00 5.929431e+00 5.605418e+00 6.187267e+00 4.658153e+00 3.927750e+00 3.453241e+00 3.673344e+00 2.911975e+00 2.376645e+00 2.098636e-01 1.292457e+00 7.121227e-01 6.898831e-01 8.276371e-01 7.427504e-01 6.457694e-01 6.118854e-01 5.690104e-01 4.950604e-01 3.963856e-01 3.992693e-01 2.955309e-01
<GCONST> 1.383696e+02
<STATE> 4
<NUMMIXES> 2
<MIXTURE> 1 5.861529e-01
<MEAN> 39
 -4.146631e-01 -1.722928e+00 1.169776e+01 1.720336e+00 8.852439e+00 -4.624846e+00 -2.267503e+00 -7.089497e+00 -5.766953e+00 -6.082223e+00 -4.701855e+00 -4.607608e+00 -3.016189e+00 7.331511e-01 -3.671109e-01 1.092076e-01 -1.353703e-01 -5.653940e-02 -8.939482e-01 -1.493977e+00 -6.480024e-01 -5.353642e-02 -1.463972e-01 -4.201849e-01 -3.625871e-02 1.300064e-01 -1.580799e-02 -1.007462e-01 -2.728133e-01 -1.364245e-01 -3.632029e-02 6.812081e-02 1.285612e-01 1.461801e-01 1.512746e-01 5.326872e-02 1.104639e-01 9.534338e-02 4.455091e-02
<VARIANCE> 39
 3.681129e+01 5.996312e+01 4.409509e+01 9.703181e+01 1.146995e+02 8.254640e+01 6.448520e+01 8.953325e+01 8.531213e+01 4.919457e+01 4.710205e+01 3.921342e+01 3.556969e+01 9.313724e-01 1.481613e+00 2.052597e+00 2.502363e+00 1.938568e+00 3.517726e+00 3.480986e+00 3.009017e+00 2.666637e+00 2.145877e+00 2.033128e+00 1.850831e+00 1.440328e+00 1.134298e-01 2.468685e-01 2.837521e-01 3.015946e-01 2.705736e-01 3.673364e-01 4.552799e-01 3.988020e-01 3.329561e-01 3.017308e-01 2.946832e-01 2.482407e-01 1.928553e-01
<GCONST> 1.180437e+02
<MIXTURE> 2 4.138471e-01
<MEAN> 39
 -5.921536e+00 -3.933580e+00 5.254464e+00 -3.783179e+00 9.990376e+00 -2.591610e+00 6.996046e+00 -8.869953e-01 -3.013382e+00 -3.775295e+00 1.375491e-02 -2.993833e+00 -2.263869e+00 1.956741e-02 -8.833661e-01 3.644253e-01 -1.007708e+00 -3.358366e-01 -1.138838e+00 -3.772489e-01 -4.320619e-01 -4.165100e-01 -3.157053e-01 1.610528e-02 -8.931796e-02 2.039507e-01 4.099641e-01 9.741222e-01 7.053953e-01 1.001796e+00 1.614515e-01 -2.370677e-01 -8.695596e-01 -3.159288e-01 -1.647304e-01 -1.177604e-01 -4.804118e-01 -8.428413e-02 -1.836521e-01
<VARIANCE> 39
 2.210148e+01 7.058672e+01 4.839906e+01 1.042308e+02 8.266833e+01 6.297320e+01 5.750225e+01 7.101214e+01 4.895734e+01 3.759069e+01 3.583689e+01 3.154362e+01 2.517480e+01 1.481961e+00 7.545859e+00 4.756136e+00 7.538972e+00 3.065474e+00 3.582432e+00 4.263396e+00 2.984627e+00 2.494832e+00 2.198022e+00 2.930928e+00 1.956150e+00 1.671568e+00 2.377103e-01 1.380613e+00 7.856106e-01 1.084295e+00 7.307870e-01 9.140170e-01 8.195000e-01 7.094969e-01 5.572805e-01 5.316862e-01 5.331464e-01 4.476573e-01 3.508816e-01
<GCONST> 1.311807e+02
<TRANSP> 5
 0.000000e+00 1.000000e+00 0.000000e+00 0.000000e+00 0.000000e+00
 0.000000e+00 7.948797e-01 2.051203e-01 0.000000e+00 0.000000e+00
 0.000000e+00 0.000000e+00 6.813928e-01 3.186072e-01 0.000000e+00
 0.000000e+00 0.000000e+00 0.000000e+00 7.688193e-01 2.311807e-01
 0.000000e+00 0.000000e+00 0.000000e+00 0.000000e+00 0.000000e+00
<ENDHMM>
~o
<STREAMINFO> 1 39
<VECSIZE> 39<NULLD><MFCC_D_A><DIAGC>
~h "gh"
<BEGINHMM>
<NUMSTATES> 5
<STATE> 2
<NUMMIXES> 2
<MIXTURE> 1 4.682730e-01
<MEAN> 39
 8.644326e-01 1.490908e+01 1.144772e+01 1.448827e+01 1.259714e+01 -1.290432e+00 -1.037705e+00 -4.352517e+00 -2.094812e+00 -4.268267e+00 -4.817360e+00 -9.087104e-01 -5.729655e+00 -2.254989e-01 4.549438e-01 1.219974e-01 1.183658e-01 3.376317e-02 2.203792e-01 2.611400e-01 -4.389531e-02 1.617941e-01 2.109786e-01 3.112944e-02 1.351206e-01 1.098183e-01 -9.503958e-02 -2.023338e-01 8.423321e-03 -1.792462e-01 1.085215e-03 5.359229e-02 1.169389e-01 7.045887e-02 -1.413909e-02 -1.334632e-02 2.538027e-02 -3.460591e-02 3.830585e-04
<VARIANCE> 39
 2.494245e+01 7.155690e+01 2.084467e+01 3.763486e+01 5.972277e+01 7.534790e+01 3.651933e+01 4.163271e+01 2.950587e+01 3.245839e+01 3.321171e+01 2.659614e+01 2.823500e+01 3.473500e-01 6.823775e-01 6.206638e-01 8.884073e-01 7.111671e-01 8.397177e-01 1.020212e+00 1.027951e+00 9.329234e-01 8.841712e-01 8.367590e-01 8.184940e-01 7.454655e-01 5.103306e-02 1.753154e-01 1.294586e-01 1.815057e-01 1.497634e-01 1.637190e-01 2.103881e-01 2.159163e-01 1.836282e-01 1.708085e-01 1.593191e-01 1.619464e-01 1.399028e-01
<GCONST> 9.083552e+01
<MIXTURE> 2 5.317271e-01
<MEAN> 39
 -2.378720e+00 1.100134e+01 1.148845e+01 8.479171e+00 1.075334e+01 1.814079e-02 1.363737e+00 -3.636257e+00 -2.473208e+00 -4.487997e+00 -4.444975e+00 -1.658323e+00 -4.574906e+00 -6.711451e-01 -1.582425e+00 -5.803778e-01 -1.347496e+00 8.214172e-02 6.918015e-01 1.217397e+00 -9.689856e-02 -2.416435e-02 1.365680e-01 5.976889e-01 -3.348535e-02 1.114209e-01 -2.453682e-02 -8.349391e-01 -4.614148e-01 -7.331470e-01 -1.772578e-01 -6.645986e-02 1.931220e-01 1.390067e-02 -6.409742e-02 -2.601588e-02 2.660353e-01 6.285954e-03 1.084084e-01
<VARIANCE> 39
 4.930663e+01 8.365108e+01 3.996239e+01 7.425526e+01 7.843160e+01 7.118715e+01 6.111990e+01 5.111949e+01 4.338204e+01 4.102519e+01 3.638576e+01 3.215094e+01 2.691674e+01 2.227530e+00 1.076163e+01 4.356382e+00 7.498026e+00 3.799562e+00 4.437634e+00 5.306344e+00 4.082210e+00 2.957785e+00 2.800863e+00 2.813575e+00 2.445138e+00 1.749103e+00 2.871548e-01 1.193665e+00 6.077724e-01 9.373674e-01 6.259557e-01 6.475359e-01 6.948026e-01 5.926763e-01 5.153825e-01 4.416794e-01 4.649571e-01 4.220268e-01 3.027874e-01
<GCONST> 1.319524e+02
<STATE> 3
<NUMMIXES> 2
<MIXTURE> 1 6.550281e-01
<MEAN> 39
 -7.931734e+00 -5.379948e+00 4.062683e+00 -9.661695e+00 8.768199e+00 -4.031101e+00 6.502433e+00 -5.592039e+00 -4.085848e+00 -2.493098e+00 3.675464e+00 2.930655e-01 -2.089807e-01 4.573436e-01 1.635470e-01 8.787919e-01 1.029870e+00 6.034482e-01 -2.250897e-01 -2.835619e-01 2.896115e-01 2.573353e-01 7.822702e-02 -2.411497e-01 2.334338e-01 -2.319945e-01 1.419216e-01 6.973794e-02 -1.476337e-02 1.989191e-01 1.259504e-01 8.319355e-02 7.360902e-02 2.029109e-01 8.102269e-02 -3.238920e-02 -1.266568e-01 -6.569446e-02 -1.249013e-01
<VARIANCE> 39
 1.761475e+01 3.182782e+01 3.832729e+01 7.485448e+01 6.747504e+01 4.793411e+01 4.956275e+01 5.972980e+01 4.297500e+01 3.592201e+01 3.296178e+01 3.393840e+01 2.208918e+01 8.559942e-01 1.601192e+00 1.719262e+00 2.094802e+00 2.332665e+00 2.623399e+00 2.929214e+00 2.716794e+00 2.217677e+00 1.950975e+00 2.081836e+00 1.928123e+00 1.714849e+00 1.271305e-01 3.154490e-01 3.762301e-01 6.263753e-01 5.319190e-01 5.186195e-01 4.902146e-01 4.559541e-01 4.136911e-01 3.553461e-01 3.722272e-01 3.262903e-01 2.786019e-01
<GCONST> 1.156245e+02
<MIXTURE> 2 3.449718e-01
<MEAN> 39
 -7.016655e+00 -5.252388e+00 1.850199e+00 -8.587146e+00 9.791251e+00 9.817052e-01 1.002282e+01 -3.960491e+00 -3.788136e+00 -3.861176e+00 2.268339e+00 -1.713624e+00 -1.824020e+00 -4.227597e-01 -2.905840e+00 -1.602625e+00 -3.706972e+00 -1.263713e+00 -9.004415e-01 5.862044e-01 -6.389476e-01 -3.972133e-01 5.048631e-02 1.394792e+00 2.860382e-01 8.134876e-01 2.948602e-01 1.408755e+00 8.912366e-01 1.144278e+00 4.260109e-02 -3.896023e-01 -8.296098e-01 -1.853954e-01 5.698415e-02 -4.099282e-03 -3.799576e-01 1.317602e-01 -1.131833e-01
<VARIANCE> 39
 2.615876e+01 4.974195e+01 4.038161e+01 8.793549e+01 7.964752e+01 7.162610e+01 6.146703e+01 7.010265e+01 4.725254e+01 3.782289e+01 3.062751e+01 3.090588e+01 2.466897e+01 1.696607e+00 1.067649e+01 4.704671e+00 8.272078e+00 4.351841e+00 5.793781e+00 5.095895e+00 3.817748e+00 2.958908e+00 2.986771e+00 3.158031e+00 2.677914e+00 1.962949e+00 2.369490e-01 1.028738e+00 6.800183e-01 1.392278e+00 9.484298e-01 1.018291e+00 7.866167e-01 8.459060e-01 5.767258e-01 5.527074e-01 5.538905e-01 5.011604e-01 3.746513e-01
<GCONST> 1.340145e+02
<STATE> 4
<NUMMIXES> 2
<MIXTURE> 1 7.840225e-01
<MEAN> 39
 -1.487823e+00 -3.697357e+00 7.401285e+00 -4.509852e+00 1.275900e+01 -5.375053e+00 7.066244e+00 -7.011330e-01 -7.742812e-01 -2.386136e+00 2.967401e+00 1.397896e+00 -1.081758e+00 4.493117e-01 1.673022e-01 -2.683819e-01 -5.693864e-02 -2.560933e-01 -4.682620e-01 -2.018551e-01 3.100569e-01 9.050885e-02 -7.603821e-02 -1.176212e-01 -3.617745e-02 -2.433510e-02 -2.893113e-02 -1.236144e-02 -9.389742e-02 -7.798439e-02 -6.653599e-02 -3.991736e-02 -5.399530e-02 -1.005613e-01 -7.153217e-02 -2.126485e-02 9.465985e-03 -1.377623e-02 2.282582e-02
<VARIANCE> 39
 1.200951e+01 2.638341e+01 3.763970e+01 3.567517e+01 5.456322e+01 4.935552e+01 5.564004e+01 5.675357e+01 7.781672e+01 4.897253e+01 3.789642e+01 4.218441e+01 3.341582e+01 3.241791e-01 6.116269e-01 8.249257e-01 1.006255e+00 1.257932e+00 1.756235e+00 2.022905e+00 1.946250e+00 2.022600e+00 1.634154e+00 1.351514e+00 1.331956e+00 1.097493e+00 4.376652e-02 8.831671e-02 1.364670e-01 1.885281e-01 2.344642e-01 2.799570e-01 3.229737e-01 3.102688e-01 3.144763e-01 2.865976e-01 2.620307e-01 2.469286e-01 1.997553e-01
<GCONST> 1.009658e+02
<MIXTURE> 2 2.159776e-01
<MEAN> 39
 1.029636e+01 -1.698318e+01 8.086507e+00 3.656602e+00 -1.247391e+01 1.453399e+01 -2.085945e+00 -7.665547e+00 4.248897e+00 -9.811321e+00 -7.596974e-01 2.955302e+00 -1.000267e+01 4.355772e-01 -1.020869e-01 -1.431876e-02 1.903380e-02 -2.976739e-01 -7.353492e-01 -2.629669e-01 6.338342e-02 -9.364813e-02 -1.935896e-01 1.662789e-02 -5.123439e-03 -2.861855e-01 1.386031e-03 3.072544e-01 3.166421e-02 1.089877e-01 1.517696e-01 -2.587611e-01 -7.096779e-02 8.097845e-02 -9.366296e-02 -3.202196e-02 -7.037731e-02 -1.060527e-01 3.582385e-02
<VARIANCE> 39
 3.582306e+01 1.270731e+02 3.727781e+01 9.023820e+01 1.117751e+02 1.262576e+02 5.250108e+01 6.025857e+01 5.604535e+01 4.769836e+01 7.574537e+01 3.922710e+01 2.365993e+01 1.236112e+00 4.943333e+00 2.565385e+00 3.643845e+00 3.817870e+00 4.644053e+00 2.831089e+00 2.486946e+00 2.660613e+00 2.252224e+00 2.704748e+00 2.300188e+00 1.527754e+00 2.038876e-01 8.601012e-01 5.030494e-01 5.884333e-01 6.418775e-01 7.265545e-01 5.065340e-01 4.405440e-01 4.632229e-01 3.989407e-01 4.225388e-01 3.439097e-01 2.829776e-01
<GCONST> 1.277010e+02
<TRANSP> 5
 0.000000e+00 1.000000e+00 0.000000e+00 0.000000e+00 0.000000e+00
 0.000000e+00 8.953214e-01 1.046786e-01 0.000000e+00 0.000000e+00
 0.000000e+00 0.000000e+00 8.772258e-01 1.227742e-01 0.000000e+00
 0.000000e+00 0.000000e+00 0.000000e+00 8.708782e-01 1.291219e-01
 0.000000e+00 0.000000e+00 0.000000e+00 0.000000e+00 0.000000e+00
<ENDHMM>
~o
<STREAMINFO> 1 39
<VECSIZE> 39<NULLD><MFCC_D_A><DIAGC>
~h "h"
<BEGINHMM>
<NUMSTATES> 5
<STATE> 2
<NUMMIXES> 2
<MIXTURE> 1 7.015254e-01
<MEAN> 39
 4.275684e-01 -6.115173e+00 7.107664e+00 -3.456184e+00 1.637200e+01 -1.000270e+01 3.711624e+00 1.712138e+00 -2.070984e-01 1.277309e+00 6.012212e+00 3.779102e-01 -4.023896e+00 -2.992777e-01 -1.688144e-01 2.327423e-01 1.063561e-01 -9.402797e-02 3.510736e-01 3.645484e-01 2.767054e-01 4.505948e-01 5.291839e-01 4.398039e-02 -4.520386e-02 2.785408e-02 2.218038e-02 1.217737e-02 -1.520657e-02 1.276943e-02 -9.899859e-03 -5.321410e-02 -7.355506e-02 -2.429395e-02 -4.076118e-02 -1.072731e-01 -5.728526e-02 4.216036e-03 1.787918e-02
<VARIANCE> 39
 1.288744e+01 3.088383e+01 5.870804e+01 4.289401e+01 9.961277e+01 7.415533e+01 8.179133e+01 6.668178e+01 6.166282e+01 8.467671e+01 8.608783e+01 3.311208e+01 3.461523e+01 2.011991e-01 5.964836e-01 8.663130e-01 1.005745e+00 1.214859e+00 1.464109e+00 1.746262e+00 1.725528e+00 1.757434e+00 1.924095e+00 1.584477e+00 1.365087e+00 1.075474e+00 2.709551e-02 7.453889e-02 1.127419e-01 1.477081e-01 1.909249e-01 2.438598e-01 2.673248e-01 2.858783e-01 3.005252e-01 3.079229e-01 2.731495e-01 2.390435e-01 1.951667e-01
<GCONST> 1.018687e+02
<MIXTURE> 2 2.984746e-01
<MEAN> 39
 -8.759434e+00 -1.777258e+00 1.120680e+00 -3.588566e-01 2.378547e+00 -1.430719e+00 1.470510e+00 2.893746e+00 1.877447e+00 -8.518037e-01 -5.451325e-01 2.290287e+00 1.388303e-01 -1.151255e-03 -5.334368e-01 -1.122409e-01 -2.638937e-01 -2.086725e-01 -1.894872e-01 1.355343e-01 1.869685e-01 1.340538e-01 4.476217e-02 4.982850e-02 1.698528e-01 8.346280e-02 2.840496e-02 -3.959074e-03 2.365837e-02 -1.314482e-02 1.922880e-02 -3.223258e-02 -2.543444e-02 -4.782002e-03 -1.514037e-02 -2.166009e-02 -8.360863e-03 -3.829378e-02 -3.707846e-02
<VARIANCE> 39
 1.150847e+02 1.090843e+02 7.437200e+01 7.656644e+01 8.889364e+01 8.742703e+01 8.023141e+01 7.018890e+01 5.273444e+01 3.535907e+01 3.317365e+01 3.099039e+01 2.638060e+01 2.089748e+00 2.898164e+00 2.380535e+00 2.528626e+00 2.518986e+00 2.827490e+00 2.766367e+00 2.582809e+00 2.348575e+00 2.117094e+00 1.989688e+00 1.775126e+00 1.462567e+00 2.769979e-01 4.231688e-01 3.946112e-01 4.090101e-01 4.117160e-01 4.496937e-01 4.616012e-01 4.543208e-01 4.167531e-01 3.842468e-01 3.556230e-01 3.273656e-01 2.738589e-01
<GCONST> 1.233735e+02
<STATE> 3
<NUMMIXES> 2
<MIXTURE> 1 3.280691e-01
<MEAN> 39
 -4.271024e+00 -5.942619e+00 1.212263e+01 5.244058e+00 1.684366e+01 -1.249004e+01 -3.771316e-01 5.808814e+00 5.181298e+00 3.704636e+00 1.338161e+00 -2.615775e+00 -1.603142e+00 -1.852322e-02 6.491954e-02 1.243860e-01 7.379353e-02 1.649929e-02 -1.301172e-01 -1.420091e-01 1.566127e-02 -8.111186e-02 -1.863812e-01 -1.387138e-01 -7.178110e-02 -1.062064e-02 5.914329e-02 8.403150e-02 4.331165e-03 -2.991314e-02 4.692836e-03 -2.916978e-02 -5.834661e-02 -7.843689e-02 -1.459095e-01 -1.105707e-01 -2.598111e-02 7.853326e-04 -2.442172e-02
<VARIANCE> 39
 1.134053e+01 2.162485e+01 4.289744e+01 2.374099e+01 3.942080e+01 6.628187e+01 3.489383e+01 6.474347e+01 3.940305e+01 4.131193e+01 5.389513e+01 2.357196e+01 2.011807e+01 1.882447e-01 4.258722e-01 6.386337e-01 7.075575e-01 8.515537e-01 1.034478e+00 1.277410e+00 1.390187e+00 1.517502e+00 1.402544e+00 1.276669e+00 1.039863e+00 8.861913e-01 2.109387e-02 4.648746e-02 7.478527e-02 1.126617e-01 1.502630e-01 1.888774e-01 2.192708e-01 2.512028e-01 2.599550e-01 2.521781e-01 2.285580e-01 2.044463e-01 1.711593e-01
<GCONST> 8.956923e+01
<MIXTURE> 2 6.719310e-01
<MEAN> 39
 -1.424825e+00 -7.734455e+00 1.056152e+00 -6.169796e+00 1.150405e+00 -3.976797e+00 1.031817e+01 7.834908e+00 3.646432e+00 -2.668132e+00 -8.697077e-01 2.425082e+00 -7.851098e-01 -2.499660e-02 -8.276532e-02 -7.924692e-03 -9.549754e-02 -1.019581e-01 -2.195089e-02 -2.064813e-02 -2.663844e-02 2.355209e-02 1.060490e-02 -2.307241e-02 -6.042214e-03 1.026153e-02 4.064859e-02 1.029722e-01 3.542322e-02 3.948857e-02 3.594321e-02 -5.531049e-02 -8.633471e-02 -5.937072e-02 -5.366074e-02 -3.313584e-02 -1.220651e-02 -4.812565e-02 -3.699271e-02
<VARIANCE> 39
 2.676486e+01 7.066727e+01 5.429027e+01 3.830030e+01 6.506153e+01 4.881608e+01 5.969460e+01 4.905294e+01 6.042406e+01 3.544495e+01 3.093964e+01 3.240009e+01 3.449982e+01 2.152487e-01 5.974646e-01 5.367787e-01 7.880600e-01 9.663860e-01 1.121579e+00 1.215414e+00 1.332092e+00 1.357826e+00 1.320091e+00 1.227308e+00 1.148649e+00 9.604959e-01 2.747205e-02 6.424556e-02 8.867906e-02 1.337174e-01 1.622312e-01 2.031311e-01 2.293217e-01 2.446744e-01 2.561204e-01 2.464387e-01 2.342859e-01 2.212984e-01 1.894329e-01
<GCONST> 9.511243e+01
<STATE> 4
<NUMMIXES> 2
<MIXTURE> 1 4.961262e-01
<MEAN> 39
 1.599186e+00 -3.055596e+00 8.579569e+00 -3.497406e+00 1.112522e+01 -1.139804e+01 1.825117e+00 3.945368e+00 -8.791305e-01 -2.495639e+00 7.556744e-01 -1.405416e+00 -3.406736e+00 4.066982e-01 3.462629e-01 -2.012393e-01 -1.265553e-01 -7.899517e-02 -5.978591e-01 -7.497070e-01 -2.648837e-01 -5.170015e-01 -4.498818e-01 -8.499691e-02 -5.344445e-02 -1.102328e-01 1.487989e-02 -6.766052e-02 -9.814796e-02 -9.768678e-03 1.124487e-02 6.792995e-03 -3.698562e-03 1.403172e-02 3.358828e-02 -2.362765e-02 -1.721334e-02 4.109329e-02 1.476503e-02
<VARIANCE> 39
 1.684111e+01 4.411466e+01 6.418481e+01 5.562994e+01 1.006084e+02 7.937534e+01 1.021811e+02 7.769568e+01 7.702671e+01 7.271526e+01 7.645163e+01 3.924692e+01 3.458989e+01 2.293966e-01 6.282968e-01 8.606338e-01 9.685348e-01 1.216611e+00 1.494462e+00 1.479814e+00 1.598487e+00 1.512828e+00 1.582545e+00 1.268731e+00 1.070583e+00 8.936591e-01 2.649432e-02 9.244836e-02 1.235252e-01 1.592395e-01 1.944306e-01 2.452151e-01 2.458631e-01 2.621401e-01 2.503656e-01 2.550437e-01 2.279968e-01 1.967181e-01 1.617286e-01
<GCONST> 1.016175e+02
<MIXTURE> 2 5.038739e-01
<MEAN> 39
 1.412153e+00 -8.839365e+00 3.946385e+00 6.217187e-01 6.413592e-02 -1.844309e+00 3.864218e+00 7.359453e-01 2.712910e+00 -5.089229e+00 -2.915376e+00 1.470403e+00 -4.387725e+00 3.254372e-01 7.107028e-01 5.098227e-01 4.594584e-01 1.573689e-01 1.010752e-01 -2.732128e-01 -1.472964e-01 -1.107548e-01 -2.889328e-01 -3.856833e-01 -3.310764e-01 -2.688234e-01 6.695323e-02 3.303208e-02 -7.908799e-03 -3.328947e-02 -3.421188e-02 -1.348195e-01 -1.115116e-01 -3.017380e-02 -6.076716e-02 -1.949114e-02 4.584112e-03 -4.365828e-02 -9.168973e-03
<VARIANCE> 39
 7.016749e+01 1.394046e+02 8.225754e+01 9.903092e+01 2.111304e+02 1.336062e+02 7.765161e+01 7.230619e+01 8.675249e+01 6.270107e+01 4.844270e+01 4.490033e+01 4.233225e+01 1.473453e+00 2.362964e+00 1.971811e+00 2.100739e+00 2.404446e+00 3.524065e+00 2.698725e+00 2.453797e+00 2.558430e+00 2.365756e+00 2.003704e+00 1.795874e+00 1.438492e+00 1.556517e-01 3.285463e-01 3.127464e-01 3.462312e-01 3.812935e-01 4.689772e-01 4.226930e-01 3.987054e-01 3.925787e-01 3.671592e-01 3.255213e-01 2.886574e-01 2.401813e-01
<GCONST> 1.244974e+02
<TRANSP> 5
 0.000000e+00 1.000000e+00 0.000000e+00 0.000000e+00 0.000000e+00
 0.000000e+00 7.871646e-01 2.128354e-01 0.000000e+00 0.000000e+00
 0.000000e+00 0.000000e+00 8.625640e-01 1.374360e-01 0.000000e+00
 0.000000e+00 0.000000e+00 0.000000e+00 7.935839e-01 2.064161e-01
 0.000000e+00 0.000000e+00 0.000000e+00 0.000000e+00 0.000000e+00
<ENDHMM>
~o
<STREAMINFO> 1 39
<VECSIZE> 39<NULLD><MFCC_D_A><DIAGC>
~h "hq"
<BEGINHMM>
<NUMSTATES> 5
<STATE> 2
<NUMMIXES> 2
<MIXTURE> 1 6.541421e-01
<MEAN> 39
 -8.200112e+00 3.665027e+00 8.967334e-01 1.511359e+00 2.954172e+00 -3.275927e+00 -1.405421e+00 6.503269e+00 3.019283e+00 -1.448517e+00 -3.239919e+00 1.359545e+00 1.518495e-01 -1.390709e+00 -1.561660e-01 1.560815e-01 -3.249035e-01 3.631171e-01 5.553783e-01 8.465706e-01 -2.907346e-01 -1.228758e-01 2.608187e-01 6.326916e-01 1.045590e-01 1.386421e-01 -4.973185e-02 -9.582982e-02 -9.436620e-02 -4.305620e-02 2.646530e-03 -5.790820e-02 -8.864656e-02 -3.903020e-02 -5.718707e-03 -3.726437e-02 -9.678391e-03 5.212897e-02 3.060643e-02
<VARIANCE> 39
 1.094026e+02 4.648541e+01 4.135276e+01 4.465988e+01 8.310970e+01 1.205038e+02 7.954192e+01 4.290200e+01 6.164483e+01 3.575030e+01 4.338648e+01 2.357306e+01 1.876422e+01 2.332431e+00 2.154953e+00 1.973158e+00 1.883258e+00 2.547297e+00 3.246023e+00 3.997440e+00 1.719410e+00 2.234249e+00 1.458185e+00 2.454867e+00 1.700694e+00 1.220598e+00 2.852592e-01 2.503297e-01 2.770438e-01 2.754266e-01 4.113208e-01 5.470351e-01 6.222210e-01 2.821666e-01 4.067323e-01 2.651658e-01 4.187786e-01 2.947491e-01 2.058692e-01
<GCONST> 1.180735e+02
<MIXTURE> 2 3.458579e-01
<MEAN> 39
 -3.464935e+01 1.676827e+01 -7.770327e+00 1.806740e+00 -1.202782e+00 1.227579e+01 -1.438308e+01 5.785958e+00 -2.158770e-01 4.154367e-01 -1.968019e+00 -9.232865e-02 3.767672e+00 1.841486e-03 -9.001310e-03 6.510797e-03 8.077710e-03 -5.330187e-03 9.857436e-03 1.511253e-03 7.784647e-03 -1.111299e-02 -6.173057e-03 1.484481e-02 -1.120073e-03 -5.092876e-04 1.091044e-01 -3.799542e-02 -8.850587e-03 3.393492e-02 -4.264216e-02 -4.251885e-02 5.764697e-02 1.227279e-02 -3.596839e-02 4.982740e-03 1.654250e-02 -1.130404e-02 -1.718465e-02
<VARIANCE> 39
 3.929868e-01 6.654013e-01 1.347914e+00 1.026200e+00 1.865447e+00 1.776163e+00 2.617370e+00 2.302554e+00 2.839853e+00 2.791416e+00 3.084019e+00 3.119692e+00 2.122420e+00 5.265992e-02 7.918460e-02 1.585227e-01 1.427156e-01 2.565564e-01 2.113241e-01 4.101606e-01 2.908273e-01 3.880691e-01 3.514298e-01 3.650435e-01 4.220105e-01 2.394123e-01 1.010870e-01 3.755935e-02 4.088643e-02 4.923041e-02 6.911861e-02 7.126497e-02 1.145168e-01 6.631548e-02 9.907564e-02 7.421910e-02 7.993650e-02 9.322102e-02 5.414424e-02
<GCONST> 2.443582e+01
<STATE> 3
<NUMMIXES> 2
<MIXTURE> 1 3.575251e-01
<MEAN> 39
 -1.736627e+01 9.625421e+00 -1.865420e+00 1.147453e+01 4.830766e-02 9.906800e+00 -3.552534e+00 7.697696e+00 -2.857266e+00 1.558482e+00 -1.348452e-01 9.517261e-01 1.340570e+00 3.242922e-01 -2.700438e-01 2.175088e-01 2.126426e-01 1.468979e-01 -1.572939e-01 3.581280e-01 -3.063844e-02 -9.516000e-02 5.102597e-02 8.406590e-03 3.394673e-02 -9.765717e-02 -1.565976e-02 -8.352569e-02 -1.063275e-02 -7.981855e-02 3.177523e-02 -5.313369e-02 2.243577e-02 -2.582337e-03 2.854959e-02 -7.557156e-03 -2.489500e-02 9.452404e-03 -1.888733e-02
<VARIANCE> 39
 3.328574e+01 5.528450e+01 3.562239e+01 3.116347e+01 1.884394e+01 2.489908e+01 2.830400e+01 1.749051e+01 2.104768e+01 1.824028e+01 1.474538e+01 1.075447e+01 1.019225e+01 2.039135e+00 1.727077e+00 1.524414e+00 1.583734e+00 1.252051e+00 1.253079e+00 1.838487e+00 1.170501e+00 1.486617e+00 1.359645e+00 1.194189e+00 1.135714e+00 1.126678e+00 3.026644e-01 2.897243e-01 2.732399e-01 2.644036e-01 2.197918e-01 2.497432e-01 3.189143e-01 2.609423e-01 3.025381e-01 2.892048e-01 2.732838e-01 2.432516e-01 2.359667e-01
<GCONST> 9.934441e+01
<MIXTURE> 2 6.424749e-01
<MEAN> 39
 -2.187137e+01 -7.892125e+00 -4.407277e-01 -4.895261e+00 8.283013e+00 -3.488881e+00 6.099502e+00 6.923499e-01 8.483813e-01 -1.570208e+00 1.593918e+00 2.425588e+00 1.507375e+00 -1.825531e-01 -3.053082e-01 -2.267805e-01 -2.408237e-01 -4.244925e-02 -1.363735e-01 -3.585040e-02 -1.627633e-01 -8.373305e-02 -1.075958e-01 4.180671e-02 -4.559190e-02 7.499191e-02 1.222064e-01 8.553701e-02 4.969767e-02 9.194891e-02 2.055271e-03 6.492527e-02 1.250778e-02 5.807035e-02 -1.456607e-02 8.279696e-03 -3.535278e-02 -1.889257e-02 -3.095684e-02
<VARIANCE> 39
 1.252421e+01 1.644130e+01 1.358105e+01 2.478104e+01 1.867353e+01 2.169913e+01 2.079649e+01 2.322128e+01 1.975540e+01 2.292781e+01 1.909450e+01 1.510290e+01 1.313715e+01 5.889515e-01 5.427993e-01 6.736396e-01 8.255606e-01 1.023708e+00 1.356536e+00 1.194128e+00 1.383453e+00 1.225811e+00 1.241540e+00 1.285224e+00 1.113568e+00 9.191656e-01 5.235022e-02 8.517580e-02 1.105389e-01 1.392134e-01 1.862676e-01 2.491475e-01 2.320969e-01 2.674413e-01 2.602853e-01 2.607817e-01 2.640145e-01 2.315258e-01 1.993007e-01
<GCONST> 8.662600e+01
<STATE> 4
<NUMMIXES> 2
<MIXTURE> 1 5.052931e-01
<MEAN> 39
 -9.983441e+00 4.786623e+00 -5.157437e-01 2.028387e+00 1.132579e+00 1.387324e+00 -3.668234e+00 6.388237e+00 6.412188e-01 -1.651966e-02 -4.507946e+00 2.511005e-01 -7.730533e-01 7.404778e-01 -2.558637e-01 -3.190456e-01 -1.593737e-01 -1.675427e-02 -1.895328e-01 -3.054934e-01 -1.386928e-01 1.616507e-01 -1.459215e-01 -5.239132e-01 -3.686192e-02 -1.193573e-01 -1.922652e-01 -1.385295e-01 -9.130007e-02 -1.305492e-01 8.737049e-02 -1.877721e-02 1.528491e-01 -5.396467e-02 5.306539e-02 -4.484542e-02 1.564469e-01 5.912653e-02 1.209306e-01
<VARIANCE> 39
 7.473362e+01 7.098466e+01 3.933744e+01 4.662580e+01 9.742847e+01 4.393890e+01 6.358973e+01 6.577684e+01 4.377238e+01 3.952411e+01 5.681617e+01 2.342931e+01 2.417520e+01 3.482218e+00 6.957030e+00 2.615785e+00 3.292732e+00 3.551498e+00 3.454084e+00 6.849302e+00 3.436297e+00 2.707140e+00 2.304902e+00 3.504195e+00 2.238520e+00 2.148809e+00 3.434986e-01 7.048872e-01 5.060543e-01 4.601866e-01 4.292654e-01 5.869051e-01 7.691759e-01 6.049483e-01 5.302153e-01 4.373449e-01 4.821775e-01 4.227827e-01 3.586428e-01
<GCONST> 1.288690e+02
<MIXTURE> 2 4.947069e-01
<MEAN> 39
 -1.884748e+01 -7.891524e+00 -1.308887e+00 -2.840624e+00 8.025384e+00 -1.180804e+00 7.868892e+00 1.635242e+00 -8.986222e-01 -1.572992e+00 4.831677e-01 1.936635e+00 1.358531e+00 1.110596e+00 6.644741e-01 5.104179e-01 7.885213e-01 2.894405e-01 6.686261e-01 1.128396e-01 4.513669e-01 -1.133639e-01 7.313189e-02 -1.520884e-01 8.432738e-02 -2.069624e-01 3.876573e-01 4.482794e-01 1.382417e-01 2.309407e-01 -1.034469e-01 3.713747e-02 -4.040993e-01 4.433554e-02 -4.682109e-02 -1.942566e-02 -2.235084e-01 -1.271605e-01 -1.387846e-01
<VARIANCE> 39
 2.394351e+01 1.290182e+01 1.327020e+01 3.389697e+01 2.964349e+01 2.775724e+01 2.162324e+01 4.030100e+01 2.279426e+01 2.269690e+01 1.977940e+01 1.618058e+01 1.164886e+01 1.575468e+00 1.899821e+00 1.374617e+00 2.029705e+00 2.117948e+00 2.239731e+00 2.032088e+00 1.889335e+00 1.692782e+00 1.917559e+00 1.376278e+00 1.364115e+00 1.364848e+00 1.819153e-01 2.645723e-01 2.235746e-01 3.015523e-01 3.185093e-01 4.875956e-01 4.710224e-01 3.676709e-01 3.063904e-01 3.510316e-01 2.739960e-01 2.831888e-01 2.264734e-01
<GCONST> 1.029996e+02
<TRANSP> 5
 0.000000e+00 1.000000e+00 0.000000e+00 0.000000e+00 0.000000e+00
 0.000000e+00 9.105193e-01 8.948068e-02 0.000000e+00 0.000000e+00
 0.000000e+00 0.000000e+00 9.394736e-01 6.052634e-02 0.000000e+00
 0.000000e+00 0.000000e+00 0.000000e+00 8.491336e-01 1.508664e-01
 0.000000e+00 0.000000e+00 0.000000e+00 0.000000e+00 0.000000e+00
<ENDHMM>
~o
<STREAMINFO> 1 39
<VECSIZE> 39<NULLD><MFCC_D_A><DIAGC>
~h "i"
<BEGINHMM>
<NUMSTATES> 7
<STATE> 2
<NUMMIXES> 2
<MIXTURE> 1 7.742081e-01
<MEAN> 39
 -5.979442e+00 -3.017176e+00 9.503029e+00 6.175606e+00 1.322304e+01 -4.502265e+00 -3.911720e+00 -4.786547e+00 -2.628564e+00 -4.555143e+00 -4.192713e+00 -2.853862e+00 -3.744853e+00 8.241134e-01 -5.370505e-01 4.269569e-01 6.005388e-01 7.740754e-01 -8.961772e-01 -1.208498e+00 -3.493696e-01 -3.864257e-01 -6.423649e-01 -4.259038e-01 -4.197153e-01 -5.009216e-01 3.105989e-02 -1.567589e-02 -5.078480e-02 2.770779e-02 -3.542688e-02 -1.017631e-01 -1.263882e-01 1.046215e-01 1.445805e-02 -8.843330e-02 -1.230652e-02 1.881923e-02 -3.011160e-02
<VARIANCE> 39
 6.684476e+01 6.813289e+01 6.408382e+01 7.263132e+01 8.477589e+01 8.821261e+01 6.938441e+01 7.544804e+01 5.426479e+01 5.112875e+01 4.224826e+01 4.410694e+01 3.090966e+01 2.709587e+00 4.363573e+00 3.082015e+00 3.531988e+00 3.413436e+00 4.553438e+00 4.544102e+00 3.531542e+00 3.321117e+00 3.555300e+00 2.853963e+00 2.500586e+00 1.971626e+00 3.498433e-01 6.928328e-01 4.855378e-01 5.671273e-01 4.876513e-01 6.113851e-01 7.181310e-01 6.190270e-01 5.145854e-01 5.430378e-01 4.688995e-01 3.790623e-01 3.197827e-01
<GCONST> 1.315382e+02
<MIXTURE> 2 2.257919e-01
<MEAN> 39
 9.250393e+00 -1.750236e+01 1.169400e+01 1.807353e+01 -9.169675e+00 8.615869e+00 -1.012347e+01 -1.377663e+01 6.201259e+00 -1.046726e+01 -1.002254e+01 4.574559e-01 -9.591707e+00 7.671488e-01 -4.762309e-01 3.270125e-01 9.028585e-01 1.520707e-01 -9.226797e-01 -1.350840e+00 -5.263072e-01 -2.225914e-01 -7.443950e-01 -5.095223e-01 -6.752489e-01 -5.617381e-01 -1.156540e-01 1.911015e-01 -1.226691e-01 -1.129396e-01 1.043751e-01 -1.867010e-01 5.391798e-03 1.984247e-01 -3.927787e-02 6.782474e-02 1.115770e-01 -1.871018e-02 9.461787e-02
<VARIANCE> 39
 3.801220e+01 7.058620e+01 4.101623e+01 5.866894e+01 5.232430e+01 7.043718e+01 5.259268e+01 4.140181e+01 5.174823e+01 4.488955e+01 3.395118e+01 3.527032e+01 2.690465e+01 1.618819e+00 5.902225e+00 2.173015e+00 2.160456e+00 3.591635e+00 4.080468e+00 3.066707e+00 2.525279e+00 3.278234e+00 2.813741e+00 2.205243e+00 2.351562e+00 1.677513e+00 2.365007e-01 9.940485e-01 3.385959e-01 3.682085e-01 6.260269e-01 6.158942e-01 5.363459e-01 4.224004e-01 5.614007e-01 4.639880e-01 3.856386e-01 4.155585e-01 2.840672e-01
<GCONST> 1.239047e+02
<STATE> 3
<NUMMIXES> 2
<MIXTURE> 1 6.587686e-01
<MEAN> 39
 -3.040742e-01 -5.385273e+00 9.668592e+00 8.090082e+00 1.949880e+01 -1.028612e+01 -1.173156e+01 -6.376863e+00 -5.945470e+00 -8.917437e+00 -6.240308e+00 -5.034822e+00 -7.141135e+00 7.584649e-02 -3.643805e-01 1.542406e-01 2.140966e-01 2.935648e-01 -8.037733e-01 -9.177669e-01 3.020257e-01 6.487713e-02 -4.032601e-01 -1.620200e-01 -1.416587e-01 -2.426800e-01 -1.888375e-01 1.072400e-01 7.059224e-02 -7.638942e-02 -1.831007e-01 2.535359e-01 3.846526e-01 7.700595e-02 1.089557e-01 1.123424e-01 3.537399e-02 7.990018e-02 1.295838e-01
<VARIANCE> 39
 1.387048e+01 2.733608e+01 6.469219e+01 5.450045e+01 9.104712e+01 1.319346e+02 4.792384e+01 7.718106e+01 5.892452e+01 5.789431e+01 4.681147e+01 6.957555e+01 3.254329e+01 3.949796e-01 7.304015e-01 1.186725e+00 1.109752e+00 1.421127e+00 2.223740e+00 2.147650e+00 2.270743e+00 1.971164e+00 1.941812e+00 1.522144e+00 1.459971e+00 1.117435e+00 8.955331e-02 1.313618e-01 1.825154e-01 1.959276e-01 2.441281e-01 3.843270e-01 3.720436e-01 3.859157e-01 3.418046e-01 3.639005e-01 2.766726e-01 2.690533e-01 1.925183e-01
<GCONST> 1.087071e+02
<MIXTURE> 2 3.412314e-01
<MEAN> 39
 1.294164e+01 -1.693056e+01 1.082553e+01 1.778445e+01 -8.561887e+00 2.339875e-01 -1.717189e+01 -1.355218e+01 9.426855e-01 -1.646972e+01 -9.444414e+00 -3.634353e+00 -1.424359e+01 -4.322678e-02 -1.553293e-01 1.285467e-01 2.118404e-01 -1.740725e-02 -4.945476e-01 -3.263330e-01 2.037856e-01 7.969961e-02 -2.419736e-01 -1.177678e-01 -1.449470e-01 -7.844904e-02 -6.861051e-02 5.828033e-02 4.822739e-02 -6.037526e-02 -2.686029e-02 1.797693e-01 1.906204e-01 2.116208e-02 4.758849e-02 7.939301e-02 -5.597774e-03 8.926816e-02 8.434255e-02
<VARIANCE> 39
 7.619051e+00 3.256885e+01 3.954881e+01 5.137679e+01 3.911996e+01 6.132214e+01 4.388034e+01 5.687560e+01 4.832758e+01 7.120213e+01 4.367207e+01 3.152881e+01 3.486200e+01 3.777755e-01 1.005210e+00 7.907434e-01 8.560959e-01 1.152444e+00 1.885286e+00 1.615839e+00 1.306331e+00 1.370087e+00 1.433021e+00 1.079996e+00 9.852700e-01 9.388682e-01 8.380138e-02 1.655051e-01 1.170556e-01 1.349467e-01 2.043102e-01 2.877691e-01 2.558500e-01 2.197560e-01 2.304634e-01 2.426302e-01 1.788072e-01 1.605057e-01 1.648594e-01
<GCONST> 9.779832e+01
<STATE> 4
<NUMMIXES> 2
<MIXTURE> 1 7.512571e-01
<MEAN> 39
 -1.686256e+00 -6.636096e+00 1.394396e+01 1.034661e+01 1.726002e+01 -1.381159e+01 -1.321273e+01 -3.894342e+00 -4.973746e+00 -1.087903e+01 -8.968244e+00 -6.908988e+00 -7.082775e+00 -2.640377e-02 9.395985e-02 9.703176e-04 -4.195682e-02 -1.776434e-02 3.971819e-02 -1.711071e-02 3.721604e-03 -1.192668e-02 -2.665840e-02 -2.921832e-02 -1.766834e-02 1.151343e-02 7.219528e-03 6.340194e-02 -5.274347e-02 -2.588922e-02 -4.966049e-03 9.775996e-02 8.507320e-02 -3.040222e-02 -1.395942e-02 5.477873e-02 3.743799e-02 2.178402e-02 1.559796e-02
<VARIANCE> 39
 1.086202e+01 2.282559e+01 6.310503e+01 5.059936e+01 9.784918e+01 1.368627e+02 4.029344e+01 6.865548e+01 6.498732e+01 6.580668e+01 4.410524e+01 6.841592e+01 3.265688e+01 1.242395e-01 3.152134e-01 5.422703e-01 5.928647e-01 6.579586e-01 8.245016e-01 8.536413e-01 9.662212e-01 8.575361e-01 9.026564e-01 7.970726e-01 6.968552e-01 5.992013e-01 1.691512e-02 4.729894e-02 6.350933e-02 8.289132e-02 1.068842e-01 1.355650e-01 1.532678e-01 1.535528e-01 1.477096e-01 1.486707e-01 1.323006e-01 1.215332e-01 1.002449e-01
<GCONST> 8.540057e+01
<MIXTURE> 2 2.487429e-01
<MEAN> 39
 1.168231e+01 -1.821012e+01 1.317120e+01 2.345965e+01 -7.894081e+00 1.306379e-02 -1.639878e+01 -1.283858e+01 5.514289e+00 -1.403932e+01 -1.321113e+01 -3.212975e+00 -1.027586e+01 6.414728e-04 1.110529e-01 -5.583068e-02 -4.577621e-02 7.304917e-02 -1.778468e-02 -3.169101e-02 5.513408e-03 -7.049519e-03 2.885645e-02 1.309110e-02 5.503697e-03 2.155197e-02 2.665237e-03 7.169395e-02 -5.796297e-02 -3.150015e-02 4.238272e-02 7.551546e-02 7.639254e-02 -3.120698e-02 -3.972911e-02 7.775744e-02 4.543824e-02 1.318279e-02 5.743969e-03
<VARIANCE> 39
 6.831066e+00 2.420663e+01 2.930906e+01 3.190496e+01 3.405370e+01 5.376439e+01 3.525060e+01 4.742684e+01 4.296151e+01 4.473426e+01 3.092100e+01 3.123792e+01 2.411377e+01 2.249319e-01 4.308664e-01 4.137668e-01 4.450954e-01 6.859266e-01 7.263284e-01 5.406027e-01 5.933700e-01 6.934612e-01 6.510409e-01 4.931182e-01 4.889414e-01 4.980329e-01 3.683638e-02 6.031495e-02 4.190076e-02 6.800453e-02 1.091339e-01 1.105841e-01 8.971412e-02 8.437274e-02 1.117266e-01 1.060830e-01 7.226298e-02 7.704563e-02 8.253617e-02
<GCONST> 7.401125e+01
<STATE> 5
<NUMMIXES> 2
<MIXTURE> 1 6.512209e-01
<MEAN> 39
 -1.041919e+00 -2.786924e+00 9.860159e+00 7.416717e+00 1.704086e+01 -9.115982e+00 -1.103910e+01 -6.330783e+00 -6.294369e+00 -9.118047e+00 -7.448782e+00 -5.935427e+00 -6.683127e+00 -1.051670e-01 8.774828e-01 -1.054806e-01 -2.353076e-03 -4.915902e-01 1.056073e+00 9.206837e-01 1.795270e-01 1.941378e-01 4.456087e-01 8.427078e-02 2.414569e-01 2.726885e-01 -6.893002e-02 9.386440e-02 6.093278e-02 4.984974e-02 -1.391810e-01 8.153873e-02 1.222002e-01 8.099272e-02 9.833525e-02 6.219515e-02 -1.681693e-02 3.317365e-02 4.938568e-02
<VARIANCE> 39
 1.690499e+01 3.143714e+01 6.852041e+01 5.884163e+01 9.453552e+01 1.238279e+02 4.864959e+01 7.942477e+01 5.942011e+01 6.530582e+01 5.227763e+01 7.773045e+01 3.628482e+01 5.029560e-01 1.247336e+00 1.273196e+00 1.793010e+00 1.844646e+00 2.607074e+00 2.375181e+00 2.658356e+00 2.358963e+00 2.343642e+00 2.024681e+00 1.911075e+00 1.314162e+00 6.095332e-02 1.691689e-01 1.840127e-01 2.498969e-01 2.788287e-01 3.776982e-01 3.858283e-01 4.006652e-01 3.671963e-01 3.775519e-01 3.191237e-01 3.033528e-01 2.173500e-01
<GCONST> 1.135467e+02
<MIXTURE> 2 3.487791e-01
<MEAN> 39
 1.115436e+01 -1.293106e+01 1.013175e+01 2.038288e+01 -4.995245e+00 4.297773e+00 -1.267995e+01 -1.419938e+01 3.817908e+00 -9.636578e+00 -1.038148e+01 -1.919305e+00 -9.339579e+00 -3.199672e-01 7.842613e-01 -2.023975e-01 -2.292493e-01 2.165424e-01 2.846245e-01 6.915528e-01 1.663454e-01 -1.265430e-01 5.524648e-01 1.693278e-01 1.475118e-01 4.071717e-01 -4.200242e-02 -1.161744e-02 1.674819e-02 -3.043789e-02 -4.247269e-02 -3.598884e-02 -1.353658e-02 4.210770e-02 1.614051e-02 -3.643278e-02 -1.004870e-02 4.278175e-03 1.464636e-02
<VARIANCE> 39
 1.766879e+01 4.485316e+01 3.897330e+01 3.886754e+01 4.284289e+01 6.874126e+01 4.259187e+01 4.611113e+01 5.015949e+01 6.018126e+01 4.017134e+01 3.267328e+01 2.861095e+01 5.610372e-01 2.017767e+00 1.168669e+00 1.215334e+00 1.829488e+00 2.351638e+00 2.282152e+00 1.782332e+00 2.038655e+00 2.117980e+00 1.515993e+00 1.406831e+00 1.380613e+00 7.252128e-02 2.967609e-01 1.846318e-01 1.907687e-01 3.104731e-01 3.696077e-01 3.782719e-01 3.168806e-01 3.482791e-01 3.540745e-01 2.614221e-01 2.429421e-01 2.587097e-01
<GCONST> 1.079991e+02
<STATE> 6
<NUMMIXES> 2
<MIXTURE> 1 5.416607e-01
<MEAN> 39
 -8.473478e+00 5.194607e-01 9.023309e+00 9.139920e+00 1.025388e+01 4.704597e-01 -3.066558e+00 -4.802942e+00 -2.166343e+00 -2.153009e+00 -4.178633e+00 -2.911197e+00 -2.528983e+00 -4.827762e-01 2.375747e-01 -2.560028e-01 -1.024737e-01 -4.147337e-01 3.061411e-01 4.708730e-01 4.614017e-01 2.576672e-01 2.121510e-01 1.996271e-01 2.757633e-01 1.682216e-01 1.867464e-02 -1.157175e-01 -4.272354e-02 -4.255174e-02 6.778123e-02 -1.293673e-01 -1.522377e-01 -3.137131e-02 -4.103694e-02 -7.889441e-02 -1.142648e-02 -3.185862e-02 -3.831197e-02
<VARIANCE> 39
 7.019752e+01 6.135444e+01 7.576720e+01 6.382971e+01 7.561959e+01 6.884187e+01 6.955402e+01 7.002031e+01 4.689964e+01 4.774713e+01 4.944462e+01 4.535415e+01 3.100114e+01 1.762363e+00 3.785982e+00 3.010484e+00 3.078833e+00 2.748863e+00 3.443295e+00 3.925668e+00 3.622240e+00 2.983535e+00 2.791850e+00 2.496671e+00 2.306641e+00 1.689025e+00 2.286995e-01 5.742146e-01 4.894498e-01 5.070890e-01 4.915740e-01 5.801361e-01 6.830912e-01 6.199325e-01 5.389746e-01 4.972551e-01 4.329771e-01 4.038467e-01 3.121714e-01
<GCONST> 1.281001e+02
<MIXTURE> 2 4.583394e-01
<MEAN> 39
 -6.682550e+00 4.342317e-02 4.889247e+00 9.228745e+00 6.694648e+00 9.286383e-01 -4.128017e+00 -2.952974e+00 -1.563792e-01 -2.242546e+00 -4.318093e+00 -1.165914e+00 -1.798773e+00 -2.245629e-01 1.510231e-01 -1.529668e-01 -1.776756e-01 -8.706546e-02 8.838905e-02 2.143563e-01 1.394773e-01 5.635660e-02 8.363777e-02 9.297488e-02 1.226090e-01 9.487393e-02 6.115546e-03 -7.705281e-02 2.087115e-02 -2.782494e-02 9.002964e-03 -9.568861e-03 1.440425e-02 -2.290682e-02 -2.631141e-02 -2.430785e-02 1.099637e-02 5.089070e-03 -1.917371e-02
<VARIANCE> 39
 8.624384e+01 7.823113e+01 7.516998e+01 7.886152e+01 8.467178e+01 6.689144e+01 6.457384e+01 6.406469e+01 4.037433e+01 5.204641e+01 4.946116e+01 3.775169e+01 3.388731e+01 3.273883e-01 5.158687e-01 5.981753e-01 7.325399e-01 8.309572e-01 1.030118e+00 1.214516e+00 1.241760e+00 1.207294e+00 1.172170e+00 1.098116e+00 1.034394e+00 8.557277e-01 3.834221e-02 8.988611e-02 1.045142e-01 1.360954e-01 1.596479e-01 2.027091e-01 2.315169e-01 2.385322e-01 2.390209e-01 2.311925e-01 2.156499e-01 2.033682e-01 1.730736e-01
<GCONST> 9.880028e+01
<TRANSP> 7
 0.000000e+00 1.000000e+00 0.000000e+00 0.000000e+00 0.000000e+00 0.000000e+00 0.000000e+00
 0.000000e+00 7.098055e-01 2.901945e-01 0.000000e+00 0.000000e+00 0.000000e+00 0.000000e+00
 0.000000e+00 0.000000e+00 7.020291e-01 2.979709e-01 0.000000e+00 0.000000e+00 0.000000e+00
 0.000000e+00 0.000000e+00 0.000000e+00 8.794848e-01 1.205152e-01 0.000000e+00 0.000000e+00
 0.000000e+00 0.000000e+00 0.000000e+00 0.000000e+00 8.074896e-01 1.925103e-01 0.000000e+00
 0.000000e+00 0.000000e+00 0.000000e+00 0.000000e+00 0.000000e+00 8.526089e-01 1.473912e-01
 0.000000e+00 0.000000e+00 0.000000e+00 0.000000e+00 0.000000e+00 0.000000e+00 0.000000e+00
<ENDHMM>
~o
<STREAMINFO> 1 39
<VECSIZE> 39<NULLD><MFCC_D_A><DIAGC>
~h "ii"
<BEGINHMM>
<NUMSTATES> 7
<STATE> 2
<NUMMIXES> 2
<MIXTURE> 1 4.371104e-01
<MEAN> 39
 -1.082337e+01 -6.493004e+00 1.138608e+01 3.605801e+00 1.224937e+01 -3.894894e+00 1.641080e+00 -3.464065e+00 1.428479e+00 -1.698274e+00 -2.011809e+00 -1.135773e+00 -1.169803e+00 7.075313e-01 -3.334865e-01 1.151652e+00 1.009580e+00 1.016695e+00 -2.258125e-01 -6.084689e-01 -3.185144e-01 -3.216376e-01 -3.945566e-01 -4.284058e-01 -4.507521e-01 -4.069975e-01 3.148803e-01 2.071722e-01 3.393018e-02 2.978992e-01 1.934682e-01 -1.796385e-01 -4.452198e-01 5.545574e-02 -1.516314e-01 -2.171551e-01 -1.693670e-01 -1.122995e-01 -1.872983e-01
<VARIANCE> 39
 7.007746e+01 1.086712e+02 7.078821e+01 7.788960e+01 9.040990e+01 8.295993e+01 4.937810e+01 5.718678e+01 4.194315e+01 3.858612e+01 3.559357e+01 2.836346e+01 2.469125e+01 3.036339e+00 6.500842e+00 3.415379e+00 5.546023e+00 3.702680e+00 3.679640e+00 3.946323e+00 3.456334e+00 2.834011e+00 2.797405e+00 3.018275e+00 2.118916e+00 2.059054e+00 2.793817e-01 8.926423e-01 5.696895e-01 7.368728e-01 5.386879e-01 6.996894e-01 7.376192e-01 6.331739e-01 5.385292e-01 5.252354e-01 4.438700e-01 3.784525e-01 3.415756e-01
<GCONST> 1.312939e+02
<MIXTURE> 2 5.628896e-01
<MEAN> 39
 -1.158089e-01 -6.148215e+00 1.445430e+01 1.045012e+01 1.757327e+01 -7.772316e+00 -8.111089e+00 -6.231388e+00 -3.274820e+00 -7.864223e+00 -6.541372e+00 -5.270781e+00 -6.814214e+00 8.604091e-01 -4.241094e-01 8.249704e-02 9.569390e-01 7.261617e-01 -1.598468e+00 -1.946404e+00 5.824879e-01 -3.182327e-01 -9.585387e-01 -4.968034e-01 -3.149065e-01 -6.935596e-01 -3.232309e-01 -1.350649e-01 -1.204826e-01 -3.090276e-01 -2.678491e-01 1.339116e-02 2.458198e-01 2.453527e-01 1.754787e-01 8.593266e-02 1.423982e-01 1.489823e-01 1.696682e-01
<VARIANCE> 39
 3.669290e+01 4.798687e+01 6.381780e+01 5.863971e+01 1.599261e+02 1.301732e+02 5.398877e+01 6.906458e+01 6.238849e+01 5.810578e+01 5.472133e+01 4.129955e+01 3.227666e+01 1.839950e+00 1.957739e+00 2.139200e+00 2.046870e+00 2.914384e+00 3.732162e+00 4.128145e+00 3.273787e+00 3.356124e+00 3.172690e+00 2.405019e+00 2.247646e+00 1.784896e+00 1.821406e-01 3.726936e-01 3.901566e-01 3.479164e-01 3.108011e-01 4.946995e-01 5.283614e-01 4.510447e-01 4.063339e-01 4.115587e-01 3.886958e-01 3.111859e-01 2.320255e-01
<GCONST> 1.239644e+02
<STATE> 3
<NUMMIXES> 2
<MIXTURE> 1 4.907223e-01
<MEAN> 39
 -1.774766e+00 -4.873075e+00 1.834643e+01 1.080511e+01 1.966342e+01 -1.558151e+01 -8.237932e+00 3.752029e-01 -4.104031e+00 -9.944249e+00 -6.967494e+00 -4.835241e+00 -5.271833e+00 5.706847e-02 -1.210665e-01 1.321023e-01 2.008814e-01 5.698047e-02 -4.696843e-01 -5.593501e-01 4.218647e-01 -6.151795e-02 -4.895707e-01 -2.413729e-01 -1.539962e-02 -1.724947e-01 -6.730916e-02 1.596337e-02 -1.140232e-02 -5.802746e-02 -6.859872e-02 1.596316e-01 1.626925e-01 -8.938685e-02 4.334116e-02 9.095652e-02 3.362148e-02 3.303427e-02 4.795562e-02
<VARIANCE> 39
 1.754630e+01 4.379814e+01 4.888791e+01 4.950451e+01 1.032769e+02 1.200405e+02 6.332252e+01 7.588750e+01 5.699660e+01 6.866092e+01 5.661515e+01 3.960828e+01 3.552488e+01 2.959371e-01 6.941888e-01 1.047573e+00 8.743449e-01 1.164997e+00 1.486058e+00 1.678270e+00 1.542894e+00 1.575834e+00 1.534796e+00 1.185262e+00 1.032130e+00 8.927915e-01 4.941588e-02 1.080564e-01 1.369923e-01 1.548896e-01 2.004413e-01 2.727399e-01 3.026288e-01 2.665500e-01 2.639565e-01 2.625645e-01 2.137829e-01 1.906769e-01 1.675484e-01
<GCONST> 1.022098e+02
<MIXTURE> 2 5.092777e-01
<MEAN> 39
 -2.208270e+00 -4.924166e+00 1.908871e+01 1.414313e+01 1.305121e+01 -2.550124e+01 -8.712596e+00 3.256981e+00 -1.020494e+01 -1.600216e+01 -1.043865e+01 -7.724840e+00 -3.884650e+00 -3.069684e-02 5.741307e-02 2.626543e-02 -1.140945e-02 -5.099841e-03 1.462645e-03 -7.175154e-02 2.450622e-02 1.508959e-02 -8.209687e-02 -2.880517e-02 4.053793e-02 1.540386e-02 4.400872e-03 3.426807e-02 -3.873229e-02 -2.918413e-02 4.017396e-02 7.009056e-02 -1.632413e-02 -6.592760e-02 5.973514e-02 5.484207e-02 -7.151864e-03 -6.910361e-03 -2.705606e-03
<VARIANCE> 39
 5.265318e+00 3.126786e+01 2.337614e+01 3.727947e+01 3.152877e+01 2.943056e+01 3.225301e+01 2.729765e+01 2.195340e+01 2.848150e+01 2.092086e+01 3.419135e+01 3.785925e+01 6.421357e-02 2.003726e-01 3.487247e-01 3.611105e-01 4.247755e-01 4.733264e-01 5.225756e-01 5.518345e-01 5.403954e-01 5.455791e-01 4.727846e-01 4.464683e-01 3.817663e-01 9.004888e-03 2.605502e-02 4.109941e-02 5.433235e-02 6.215053e-02 8.339533e-02 8.227700e-02 8.697993e-02 9.257926e-02 8.818587e-02 8.279812e-02 7.263009e-02 6.514387e-02
<GCONST> 6.347967e+01
<STATE> 4
<NUMMIXES> 2
<MIXTURE> 1 7.337171e-01
<MEAN> 39
 -1.604929e-01 -8.488877e+00 1.469307e+01 1.261982e+01 2.960384e+01 -8.282173e+00 -1.566563e+01 -7.427028e-01 1.217044e+00 -8.710762e+00 -6.700907e+00 -3.076139e+00 -9.391946e+00 -1.405097e-02 4.836638e-02 6.701358e-03 1.252356e-02 -2.473589e-02 7.366101e-02 -6.045747e-02 -8.393286e-02 3.537758e-02 6.639018e-02 -9.095640e-02 -9.651313e-02 -3.147009e-03 -5.640975e-03 5.834993e-02 -3.414008e-02 -4.144150e-02 -7.287990e-02 7.033282e-02 1.378891e-01 -5.846338e-02 -5.322507e-02 5.125556e-02 5.495963e-02 8.511581e-05 4.081229e-02
<VARIANCE> 39
 7.589558e+00 1.701640e+01 5.024787e+01 3.005930e+01 7.638871e+01 5.796793e+01 4.694123e+01 4.528897e+01 4.635081e+01 3.812204e+01 5.508044e+01 2.911067e+01 2.989944e+01 1.073833e-01 2.626757e-01 4.803221e-01 5.032640e-01 5.973657e-01 7.232351e-01 8.887281e-01 8.528569e-01 7.916594e-01 8.149145e-01 7.235133e-01 6.275632e-01 5.639517e-01 1.559784e-02 3.988983e-02 5.711341e-02 6.800113e-02 1.051760e-01 1.127709e-01 1.541615e-01 1.382693e-01 1.303172e-01 1.423586e-01 1.182639e-01 1.071078e-01 1.016634e-01
<GCONST> 7.840756e+01
<MIXTURE> 2 2.662829e-01
<MEAN> 39
 1.061474e+01 -1.844026e+01 1.671071e+01 2.399979e+01 -1.027922e+01 -2.421296e+00 -1.558087e+01 -8.835161e+00 6.722648e+00 -1.804234e+01 -1.559107e+01 -2.572034e+00 -1.134766e+01 3.311083e-03 3.572896e-03 -1.057820e-01 -1.085737e-01 -1.135462e-02 -9.494022e-02 -1.205132e-01 -7.776660e-02 -6.294792e-02 -2.628887e-02 -2.892494e-02 -4.685268e-02 -1.991212e-02 4.776987e-03 2.563716e-02 -3.843911e-02 -2.574918e-02 3.192480e-02 5.104187e-02 1.828915e-02 -4.199349e-02 -1.812719e-02 5.577994e-02 3.010827e-02 -3.344384e-03 -4.745005e-03
<VARIANCE> 39
 6.896870e+00 2.232109e+01 3.277270e+01 3.203786e+01 4.788767e+01 6.234629e+01 4.173611e+01 3.801241e+01 5.554584e+01 6.317213e+01 2.579585e+01 3.894222e+01 3.255024e+01 2.668417e-01 4.340972e-01 4.219504e-01 4.366281e-01 7.577820e-01 7.428472e-01 5.107389e-01 5.858675e-01 6.343243e-01 6.609469e-01 4.355645e-01 4.802243e-01 4.808592e-01 4.811823e-02 6.966643e-02 4.395715e-02 6.939623e-02 1.177178e-01 1.178524e-01 8.079877e-02 8.335010e-02 1.090370e-01 1.014823e-01 6.633095e-02 7.328181e-02 7.880984e-02
<GCONST> 7.566486e+01
<STATE> 5
<NUMMIXES> 2
<MIXTURE> 1 3.971605e-01
<MEAN> 39
 -1.741104e+00 -4.466399e+00 1.314369e+01 1.220047e+01 2.999146e+01 -6.585607e+00 -1.124956e+01 1.256776e+00 -2.990812e+00 -6.295993e+00 -7.067580e-01 -3.670639e+00 -1.057345e+01 -2.004784e-01 7.828040e-01 -2.187704e-01 -8.585107e-02 -1.144482e+00 6.768489e-01 1.064398e+00 -1.990182e-01 -1.070764e-01 5.628161e-01 2.621486e-01 1.887251e-02 4.984734e-01 -4.543662e-02 1.260193e-01 -1.627567e-02 8.741550e-03 -2.290016e-01 8.964554e-02 1.222995e-01 8.785686e-03 1.146606e-01 6.500662e-02 -5.188478e-02 2.667508e-02 1.273575e-01
<VARIANCE> 39
 2.316291e+01 3.024795e+01 5.501446e+01 3.208892e+01 5.424657e+01 5.302838e+01 5.211878e+01 5.492492e+01 3.523561e+01 4.989201e+01 5.255765e+01 2.856623e+01 2.710438e+01 8.852447e-01 1.560379e+00 1.727109e+00 1.361160e+00 2.598421e+00 1.820533e+00 3.089641e+00 2.527041e+00 1.854650e+00 2.360566e+00 1.940898e+00 1.330086e+00 1.405630e+00 1.587550e-01 2.304931e-01 2.959045e-01 2.615805e-01 3.992743e-01 2.985272e-01 5.125791e-01 4.531043e-01 3.169809e-01 4.294807e-01 3.515668e-01 2.530020e-01 2.341955e-01
<GCONST> 1.119483e+02
<MIXTURE> 2 6.028394e-01
<MEAN> 39
 -2.919896e+00 -9.018103e+00 1.506226e+01 7.123868e+00 8.728341e+00 -1.603954e+01 -1.268743e+01 -9.172779e+00 -8.024694e+00 -1.069999e+01 -9.975403e+00 -1.171497e+01 -7.083449e+00 2.465600e-02 6.622205e-02 -2.000389e-01 -1.651611e-01 -4.180966e-03 1.050438e-01 -6.540618e-02 -2.090613e-01 -2.184158e-02 5.347171e-02 6.841146e-02 -2.927030e-02 -1.080851e-02 1.715579e-02 5.800064e-02 -5.319178e-02 -2.787012e-02 4.156320e-02 9.023156e-02 6.477887e-02 -2.911537e-02 -1.481160e-02 3.824851e-02 4.744087e-02 5.491139e-02 -3.811645e-03
<VARIANCE> 39
 1.649325e+01 3.027698e+01 5.207540e+01 6.412358e+01 6.190956e+01 1.883614e+02 6.380479e+01 8.939211e+01 5.726019e+01 1.321653e+02 6.048028e+01 4.877933e+01 4.113580e+01 1.030297e-01 2.730969e-01 5.228242e-01 5.442020e-01 6.963603e-01 8.028957e-01 8.748950e-01 1.014351e+00 9.970152e-01 1.005061e+00 8.851457e-01 7.326147e-01 6.123996e-01 1.397781e-02 3.621105e-02 5.340802e-02 7.438728e-02 9.085575e-02 1.295700e-01 1.421721e-01 1.468336e-01 1.545350e-01 1.500709e-01 1.326810e-01 1.165700e-01 9.822210e-02
<GCONST> 8.652354e+01
<STATE> 6
<NUMMIXES> 2
<MIXTURE> 1 6.256942e-01
<MEAN> 39
 -5.939651e+00 2.854904e+00 1.078251e+01 1.014776e+01 1.323661e+01 -2.815162e+00 -3.013551e+00 -2.786552e+00 -1.854909e+00 -3.993724e+00 -4.372183e+00 -2.520070e+00 -3.338579e+00 -4.518648e-01 5.351919e-01 -3.913501e-01 -2.112869e-01 -6.246722e-01 5.988231e-01 6.407518e-01 2.207325e-01 4.028897e-01 3.673446e-01 1.201193e-01 2.300718e-01 1.793433e-01 -4.552243e-03 -2.015198e-01 -3.811565e-03 -1.337415e-02 1.221855e-01 -1.658205e-01 -1.729577e-01 -2.108488e-02 -4.770192e-02 -8.688354e-02 -1.841911e-02 -7.110190e-02 -9.283361e-02
<VARIANCE> 39
 5.925611e+01 6.048678e+01 6.878243e+01 6.945216e+01 6.819655e+01 7.563599e+01 6.083866e+01 5.948810e+01 4.122027e+01 4.410762e+01 4.187708e+01 3.477626e+01 2.633659e+01 1.434332e+00 2.895530e+00 2.336209e+00 2.970317e+00 2.506799e+00 2.766008e+00 3.067140e+00 3.065392e+00 2.346684e+00 2.372569e+00 2.146836e+00 1.829436e+00 1.434464e+00 1.814238e-01 3.663695e-01 3.748240e-01 4.688535e-01 4.120795e-01 4.346614e-01 5.351887e-01 5.030564e-01 4.221236e-01 4.233515e-01 3.590565e-01 3.231565e-01 2.577426e-01
<GCONST> 1.214064e+02
<MIXTURE> 2 3.743057e-01
<MEAN> 39
 1.438371e+00 -5.999616e+00 1.143382e+01 8.699044e+00 9.290994e+00 -1.109293e+01 -1.244223e+01 -8.339027e+00 -5.197928e+00 -1.086621e+01 -9.460133e+00 -7.174194e+00 -7.145681e+00 -3.937354e-02 9.282830e-01 -3.978751e-01 -5.200821e-01 -1.307830e-01 1.235711e+00 8.991783e-01 -1.987717e-01 -3.084423e-02 5.403200e-01 3.669460e-01 4.380347e-01 2.691156e-01 -8.522176e-02 1.250303e-01 8.111659e-02 -3.569943e-02 -1.193878e-01 8.880646e-02 2.119914e-01 1.875309e-01 7.391303e-02 1.625919e-02 1.372544e-02 1.171987e-01 8.988956e-02
<VARIANCE> 39
 4.132316e+01 6.174273e+01 5.039330e+01 1.010548e+02 1.391476e+02 1.753041e+02 6.409800e+01 7.838946e+01 8.704475e+01 6.849101e+01 5.010318e+01 5.577180e+01 4.417620e+01 6.229986e-01 1.371202e+00 1.416915e+00 1.656628e+00 1.707561e+00 3.149021e+00 2.634837e+00 2.792057e+00 2.618355e+00 2.552982e+00 1.993479e+00 1.965210e+00 1.476240e+00 6.645820e-02 2.115673e-01 1.925103e-01 2.496267e-01 2.786257e-01 4.197750e-01 3.828723e-01 4.245797e-01 4.282744e-01 3.625813e-01 3.598473e-01 3.143764e-01 2.407240e-01
<GCONST> 1.183980e+02
<TRANSP> 7
 0.000000e+00 1.000000e+00 0.000000e+00 0.000000e+00 0.000000e+00 0.000000e+00 0.000000e+00
 0.000000e+00 8.128419e-01 1.871581e-01 0.000000e+00 0.000000e+00 0.000000e+00 0.000000e+00
 0.000000e+00 0.000000e+00 8.729517e-01 1.270482e-01 0.000000e+00 0.000000e+00 0.000000e+00
 0.000000e+00 0.000000e+00 0.000000e+00 8.831558e-01 1.168442e-01 0.000000e+00 0.000000e+00
 0.000000e+00 0.000000e+00 0.000000e+00 0.000000e+00 8.359388e-01 1.640613e-01 0.000000e+00
 0.000000e+00 0.000000e+00 0.000000e+00 0.000000e+00 0.000000e+00 8.805189e-01 1.194810e-01
 0.000000e+00 0.000000e+00 0.000000e+00 0.000000e+00 0.000000e+00 0.000000e+00 0.000000e+00
<ENDHMM>
~o
<STREAMINFO> 1 39
<VECSIZE> 39<NULLD><MFCC_D_A><DIAGC>
~h "j"
<BEGINHMM>
<NUMSTATES> 5
<STATE> 2
<NUMMIXES> 2
<MIXTURE> 1 4.389079e-01
<MEAN> 39
 -3.535966e-01 1.054984e+01 9.201606e+00 1.329139e+01 1.047312e+01 8.173923e-01 -2.323610e+00 -2.910526e+00 -1.548092e+00 -2.554297e+00 -2.600393e+00 7.116762e-01 -3.204933e+00 -2.107341e-01 3.268480e-01 1.248554e-01 2.191421e-01 8.178988e-02 1.277047e-01 1.515446e-01 5.154711e-02 1.608870e-01 1.567920e-01 5.641888e-02 1.358974e-01 9.049781e-02 -1.157122e-01 -2.403665e-01 9.654411e-02 -7.775532e-02 -5.215727e-02 5.222672e-02 1.138732e-01 3.180435e-02 -3.785335e-03 -3.924236e-02 -1.080226e-02 -3.807468e-02 -1.305735e-02
<VARIANCE> 39
 5.754264e+01 9.181834e+01 4.791438e+01 5.932693e+01 7.386531e+01 6.357105e+01 3.965955e+01 4.509243e+01 3.695258e+01 3.746822e+01 3.473402e+01 3.814637e+01 3.005592e+01 3.210508e-01 8.058441e-01 7.941136e-01 8.119030e-01 8.341395e-01 9.115986e-01 1.079005e+00 1.096697e+00 1.024531e+00 9.444252e-01 9.001107e-01 8.851005e-01 6.901199e-01 5.675547e-02 2.761770e-01 1.664640e-01 1.622559e-01 1.846191e-01 2.021744e-01 2.234331e-01 2.236921e-01 1.972714e-01 1.994014e-01 1.796387e-01 1.734617e-01 1.400687e-01
<GCONST> 9.672188e+01
<MIXTURE> 2 5.610921e-01
<MEAN> 39
 -4.078108e+00 5.167031e+00 1.170187e+01 8.431139e+00 1.073616e+01 1.205149e+00 -3.027190e-01 -1.953081e+00 -2.916511e+00 -3.278738e+00 -1.816087e+00 5.673742e-01 -2.658648e+00 -2.571225e-02 5.438415e-01 6.152660e-01 5.679972e-01 8.507612e-02 3.844352e-01 1.066516e-01 2.511290e-02 1.942312e-01 -4.775729e-03 -1.783519e-02 5.105304e-02 -6.018817e-02 -5.963950e-03 -1.822432e-01 -9.568217e-02 -2.026481e-02 -6.179946e-02 -1.137394e-01 1.775699e-02 -1.944318e-02 6.633905e-02 -3.805366e-02 8.856733e-03 8.948703e-03 1.940365e-03
<VARIANCE> 39
 6.703072e+01 8.721470e+01 7.731790e+01 7.242375e+01 7.733706e+01 6.568021e+01 5.959035e+01 6.024878e+01 4.602153e+01 4.594572e+01 3.407539e+01 3.515114e+01 3.145461e+01 3.135623e+00 5.464707e+00 4.543560e+00 3.702101e+00 3.180017e+00 3.466620e+00 3.751915e+00 3.091243e+00 2.745642e+00 2.748645e+00 2.066206e+00 1.959682e+00 1.595920e+00 4.449876e-01 9.071666e-01 8.474817e-01 6.545176e-01 5.595534e-01 5.955998e-01 7.063485e-01 5.794275e-01 5.088060e-01 5.169438e-01 3.882571e-01 3.693182e-01 3.057767e-01
<GCONST> 1.303440e+02
<STATE> 3
<NUMMIXES> 2
<MIXTURE> 1 4.229397e-01
<MEAN> 39
 -2.477041e+00 8.090852e+00 1.360923e+01 1.426039e+01 1.144695e+01 2.065096e+00 1.697573e+00 -2.335218e+00 -6.077553e-01 -2.696448e+00 -2.301390e+00 8.282037e-01 -3.344964e+00 -1.506925e+00 -4.236642e+00 5.727858e-01 -9.802240e-01 -9.317306e-01 1.960582e-01 1.941779e+00 7.627621e-01 8.768853e-01 -5.581011e-01 1.955110e-01 -4.157253e-01 1.142419e-01 -4.530838e-01 -1.232282e+00 2.299562e-01 -8.019119e-01 -2.246674e-01 -1.276642e-01 2.201501e-01 1.016398e-01 1.852489e-01 -1.482898e-01 1.439983e-01 -1.264595e-01 9.703926e-02
<VARIANCE> 39
 2.805383e+01 8.579697e+01 3.224777e+01 3.976024e+01 5.297948e+01 4.229132e+01 4.635458e+01 4.232346e+01 3.077374e+01 2.705712e+01 2.692499e+01 2.484841e+01 2.135898e+01 1.688944e+00 1.039765e+01 4.526274e+00 4.542394e+00 3.756227e+00 3.956044e+00 3.718248e+00 3.590146e+00 3.008437e+00 2.661481e+00 2.367273e+00 2.393655e+00 1.788715e+00 2.182661e-01 1.395859e+00 5.678307e-01 4.975727e-01 4.937932e-01 5.175102e-01 6.188709e-01 5.003266e-01 3.796007e-01 3.563988e-01 3.233500e-01 3.349013e-01 2.538402e-01
<GCONST> 1.231997e+02
<MIXTURE> 2 5.770603e-01
<MEAN> 39
 -6.981917e+00 -1.546310e+01 1.695738e+01 6.884848e+00 6.222897e-01 4.941772e+00 5.026218e+00 -2.759155e+00 5.504269e+00 -6.330083e+00 -1.969105e+00 8.087116e-01 -4.326583e+00 -1.934697e+00 -2.805251e+00 1.531825e+00 -1.451748e+00 -6.128439e-01 -4.977727e-01 2.815114e-01 -2.395046e-01 6.565475e-01 -2.861389e-01 3.870530e-01 -1.762140e-01 6.876569e-02 4.257861e-02 9.700993e-01 2.049855e-01 4.586238e-01 4.599752e-01 -2.135765e-01 -4.562795e-01 -3.164083e-01 -2.932261e-01 1.430817e-01 -6.778321e-02 -2.722555e-03 -8.783190e-02
<VARIANCE> 39
 6.029840e+01 1.072618e+02 6.073957e+01 9.863902e+01 1.870000e+02 1.080190e+02 5.481831e+01 6.042514e+01 5.533776e+01 3.062349e+01 2.898546e+01 3.280592e+01 3.483511e+01 3.316588e+00 7.394644e+00 4.364780e+00 5.431443e+00 3.997855e+00 3.435989e+00 3.252474e+00 2.430575e+00 2.498058e+00 2.040421e+00 1.837675e+00 1.738817e+00 1.666617e+00 4.083975e-01 8.510643e-01 9.629424e-01 8.371660e-01 6.437509e-01 5.956685e-01 5.490392e-01 5.023600e-01 4.973579e-01 4.395058e-01 3.639104e-01 3.749138e-01 3.147242e-01
<GCONST> 1.311789e+02
<STATE> 4
<NUMMIXES> 2
<MIXTURE> 1 5.779805e-01
<MEAN> 39
 -1.874461e+01 -1.348981e+01 2.299131e+01 3.453452e+00 1.062231e+01 -3.239693e+00 6.474882e+00 -2.308702e+00 1.243235e+00 -5.213141e+00 8.560944e-01 -1.998105e+00 -1.957418e+00 1.609953e-01 -2.065913e-01 2.785162e-01 3.733465e-01 5.392252e-01 -3.844800e-01 -6.532470e-01 -8.455138e-01 -4.075897e-01 -2.091192e-01 -2.298007e-01 -2.022620e-01 -2.895687e-01 7.846143e-01 4.038755e-01 -4.929147e-01 1.470531e-01 5.456428e-02 3.299366e-02 -3.578094e-01 -1.759263e-01 -2.484282e-01 -8.674122e-02 -2.068132e-01 1.275575e-02 -4.816468e-02
<VARIANCE> 39
 2.859940e+01 5.034313e+01 3.990093e+01 7.044902e+01 4.395550e+01 3.623159e+01 3.586538e+01 4.600581e+01 5.073798e+01 3.384743e+01 2.483279e+01 2.510371e+01 1.682685e+01 4.665747e+00 2.276028e+00 2.831097e+00 2.080141e+00 1.974934e+00 1.848544e+00 2.245038e+00 2.195691e+00 2.098685e+00 1.701496e+00 1.631625e+00 1.248009e+00 1.078497e+00 3.273588e-01 2.763025e-01 4.629084e-01 4.496635e-01 3.392897e-01 3.382698e-01 3.718390e-01 3.497822e-01 3.374460e-01 3.130860e-01 2.759787e-01 2.361002e-01 2.171605e-01
<GCONST> 1.127819e+02
<MIXTURE> 2 4.220195e-01
<MEAN> 39
 -2.384676e+00 -1.118181e+01 1.555768e+01 7.341373e+00 8.628513e+00 -3.192720e+00 -4.503456e+00 -1.065558e+01 -3.771967e+00 -9.473571e+00 -4.985037e+00 -2.132586e+00 -4.942686e+00 2.013915e+00 6.328124e-01 -1.810340e+00 -2.318496e-01 1.173531e-01 -7.787474e-01 -1.482181e+00 -5.079206e-01 -7.611017e-01 -1.785581e-01 -4.001330e-01 5.484956e-02 7.356206e-02 -2.507145e-01 -1.284017e-01 -7.685407e-02 -1.382603e-01 -1.514296e-01 -5.478349e-02 2.269035e-01 3.601106e-01 1.820578e-01 1.095797e-01 1.853434e-01 9.609623e-02 7.669587e-02
<VARIANCE> 39
 6.527608e+01 6.349725e+01 6.229628e+01 6.466261e+01 1.544447e+02 9.416349e+01 6.090850e+01 4.972955e+01 6.008916e+01 3.725156e+01 3.673331e+01 3.838420e+01 3.868333e+01 2.331516e+00 1.549368e+00 2.488318e+00 1.921886e+00 2.009776e+00 3.007909e+00 3.347084e+00 3.113198e+00 2.225790e+00 2.103603e+00 1.827821e+00 1.515681e+00 1.253122e+00 2.188402e-01 1.933790e-01 3.755955e-01 2.154330e-01 2.618043e-01 3.226242e-01 3.890634e-01 3.645648e-01 2.924508e-01 2.968339e-01 2.683446e-01 2.285392e-01 1.884736e-01
<GCONST> 1.173039e+02
<TRANSP> 5
 0.000000e+00 1.000000e+00 0.000000e+00 0.000000e+00 0.000000e+00
 0.000000e+00 8.780468e-01 1.219532e-01 0.000000e+00 0.000000e+00
 0.000000e+00 0.000000e+00 7.956079e-01 2.043921e-01 0.000000e+00
 0.000000e+00 0.000000e+00 0.000000e+00 8.812737e-01 1.187263e-01
 0.000000e+00 0.000000e+00 0.000000e+00 0.000000e+00 0.000000e+00
<ENDHMM>
~o
<STREAMINFO> 1 39
<VECSIZE> 39<NULLD><MFCC_D_A><DIAGC>
~h "jh"
<BEGINHMM>
<NUMSTATES> 5
<STATE> 2
<NUMMIXES> 2
<MIXTURE> 1 3.833741e-01
<MEAN> 39
 2.107673e+00 4.744800e+00 8.737737e+00 7.646923e+00 1.503040e+01 -5.774251e+00 6.968632e-02 -6.163669e-01 -5.364191e+00 -8.996351e+00 -1.653828e+00 2.412977e+00 -3.804082e+00 -4.588892e-01 6.026065e-01 4.470358e-01 6.421213e-01 3.089382e-02 7.351974e-01 1.393257e-01 -4.325903e-01 1.632223e-01 3.679419e-01 -1.209553e-02 1.324777e-01 1.099156e-01 -2.600716e-01 -2.137380e-01 2.763002e-01 -2.029746e-01 -1.312950e-01 1.169584e-01 1.390328e-01 -3.171403e-02 1.746191e-01 5.818248e-02 -4.526958e-02 -1.452537e-01 8.348619e-02
<VARIANCE> 39
 1.957091e+01 1.207484e+02 3.761403e+01 1.052955e+02 5.518725e+01 7.273356e+01 5.262647e+01 5.956907e+01 7.039673e+01 7.817793e+01 4.303391e+01 3.863479e+01 2.596878e+01 5.478163e-01 2.260861e+00 1.665558e+00 1.424782e+00 1.557912e+00 2.021782e+00 2.445960e+00 1.971890e+00 1.958812e+00 2.279420e+00 1.705768e+00 1.466952e+00 1.230127e+00 1.133896e-01 6.986735e-01 2.742215e-01 2.722876e-01 2.560154e-01 2.860060e-01 3.924449e-01 3.677212e-01 3.527989e-01 4.054477e-01 2.984067e-01 2.757661e-01 2.345544e-01
<GCONST> 1.142102e+02
<MIXTURE> 2 6.166258e-01
<MEAN> 39
 -5.113439e+00 4.266169e+00 1.555814e+01 7.360532e+00 1.361456e+01 4.828596e-01 2.430920e+00 -2.396457e+00 -2.701578e+00 -5.644956e+00 -1.450118e+00 -3.153736e-01 -2.427668e+00 -1.293682e+00 -1.518005e+00 9.554175e-01 -2.443545e-01 -5.960523e-01 2.605617e-01 8.264698e-01 1.887895e-01 9.805382e-01 -2.754507e-02 1.744472e-01 -2.568625e-01 2.376295e-01 -1.547454e-01 -6.675056e-01 -1.346952e-01 -2.631793e-01 -8.356474e-02 -3.280846e-01 9.996247e-03 1.062686e-01 1.201553e-01 -8.212180e-02 1.133139e-01 4.176299e-02 5.805929e-03
<VARIANCE> 39
 4.511811e+01 9.026486e+01 6.169051e+01 7.188065e+01 4.316644e+01 4.722856e+01 6.201719e+01 5.044858e+01 4.829810e+01 4.178618e+01 2.752597e+01 3.251463e+01 2.125191e+01 3.881043e+00 1.262571e+01 6.421666e+00 4.875812e+00 3.047813e+00 3.360202e+00 4.216662e+00 3.591897e+00 3.532384e+00 3.644587e+00 2.507754e+00 2.533743e+00 1.875813e+00 5.268899e-01 1.392619e+00 9.718961e-01 8.416983e-01 4.608306e-01 4.988511e-01 7.039078e-01 6.208063e-01 5.312964e-01 5.519670e-01 4.205628e-01 4.158059e-01 3.456486e-01
<GCONST> 1.320902e+02
<STATE> 3
<NUMMIXES> 2
<MIXTURE> 1 2.615899e-01
<MEAN> 39
 -1.139392e+01 -1.350163e+01 1.427678e+01 2.287512e+00 7.993436e+00 -1.845715e+00 7.210479e+00 2.736708e-01 6.127525e+00 -6.397832e+00 4.174092e-01 -2.703962e-01 -2.731726e-01 -3.118259e+00 -3.945782e+00 1.764787e+00 -2.395777e+00 -1.017442e+00 -1.303857e+00 4.998214e-01 -3.672673e-01 1.074037e+00 1.140459e-02 6.647563e-01 -1.933757e-01 3.913567e-01 -1.643480e-01 1.209296e+00 5.336831e-01 5.360391e-01 5.288716e-01 -9.890360e-02 -4.667802e-01 -3.922342e-01 -4.546700e-01 2.084090e-01 -4.975697e-02 8.971748e-02 -1.912795e-01
<VARIANCE> 39
 2.230792e+01 2.278634e+01 4.800444e+01 5.455795e+01 3.209054e+01 3.274226e+01 3.295176e+01 3.030225e+01 4.177664e+01 2.488598e+01 2.675840e+01 2.004080e+01 1.691347e+01 1.874004e+00 6.375493e+00 4.410266e+00 4.429492e+00 3.123723e+00 2.747415e+00 3.098820e+00 2.850878e+00 2.815839e+00 2.682718e+00 2.467207e+00 1.915625e+00 1.795092e+00 3.485928e-01 6.086111e-01 8.268904e-01 9.012014e-01 5.682285e-01 5.775708e-01 5.455751e-01 5.223563e-01 5.088220e-01 6.752294e-01 4.787561e-01 4.115051e-01 3.459103e-01
<GCONST> 1.216746e+02
<MIXTURE> 2 7.384101e-01
<MEAN> 39
 -2.090855e+01 -1.506014e+01 2.496614e+01 -1.390826e+00 1.019202e+01 -3.936899e+00 6.135111e+00 -3.670130e+00 2.402996e+00 -5.340507e+00 2.174002e+00 -2.350871e+00 -1.977574e+00 -1.121498e+00 -1.119826e+00 1.976597e-02 -4.117165e-01 -1.210270e-02 -5.362006e-01 -1.339258e-01 -3.218991e-01 4.060319e-01 6.224660e-01 4.318007e-01 1.823625e-01 4.232542e-02 6.242443e-01 2.919295e-01 -5.870574e-01 2.543432e-02 2.346489e-02 2.337807e-02 -1.974455e-01 -9.966920e-02 -1.577041e-01 5.987823e-02 -6.743668e-02 6.124407e-02 9.758821e-03
<VARIANCE> 39
 3.442025e+01 5.773374e+01 3.523461e+01 6.982580e+01 3.779292e+01 4.040148e+01 4.661844e+01 4.088165e+01 5.667176e+01 2.713252e+01 2.474763e+01 2.896307e+01 1.890598e+01 2.392500e+00 1.224460e+00 3.034896e+00 2.023324e+00 1.884203e+00 1.649895e+00 1.897047e+00 2.038255e+00 1.736677e+00 1.685976e+00 1.405710e+00 1.242786e+00 1.108731e+00 2.681184e-01 2.477269e-01 4.004003e-01 3.903877e-01 3.086165e-01 2.941914e-01 3.156138e-01 3.225767e-01 3.347481e-01 3.181038e-01 2.797818e-01 2.300141e-01 2.139086e-01
<GCONST> 1.101506e+02
<STATE> 4
<NUMMIXES> 2
<MIXTURE> 1 5.219646e-01
<MEAN> 39
 -5.187554e+00 -8.824591e+00 1.211300e+01 4.381370e-02 1.356936e+01 -2.855977e+00 3.364094e+00 -3.753106e+00 -1.043047e-01 -2.717182e+00 1.086179e+00 -3.049866e-01 -1.560873e+00 1.303426e+00 1.187238e+00 -5.644392e-01 1.197118e-01 4.969017e-03 -3.609230e-02 -3.280386e-01 6.533005e-01 -3.354545e-01 -2.569537e-01 -2.010211e-01 -1.013616e-01 -1.109774e-01 -1.513501e-01 -1.021298e-01 -4.194797e-02 -1.321571e-01 -1.400762e-01 -1.992859e-01 -5.886711e-02 4.009594e-02 3.983122e-02 -3.491559e-02 5.237681e-02 -8.261968e-03 5.190840e-03
<VARIANCE> 39
 3.370275e+01 3.836107e+01 6.677717e+01 4.348285e+01 6.967525e+01 5.547879e+01 5.143554e+01 5.878896e+01 4.443051e+01 3.701875e+01 3.182165e+01 4.431248e+01 3.606071e+01 1.413054e+00 1.365593e+00 1.648475e+00 1.764398e+00 1.881862e+00 2.276080e+00 2.862523e+00 2.322685e+00 2.149655e+00 1.982046e+00 1.807948e+00 1.489213e+00 1.215975e+00 1.177827e-01 1.450545e-01 2.215497e-01 2.437496e-01 2.927290e-01 3.378046e-01 3.682497e-01 3.721332e-01 3.493966e-01 3.358419e-01 2.970068e-01 2.572894e-01 2.111747e-01
<GCONST> 1.114824e+02
<MIXTURE> 2 4.780354e-01
<MEAN> 39
 -1.902229e+01 -1.973572e+01 1.617999e+01 -3.585749e+00 9.745102e+00 -7.636999e+00 2.489887e+00 -7.310040e+00 4.254108e+00 -1.305824e+00 2.895042e+00 2.118390e-01 -6.339156e-01 1.399158e+00 5.874025e-01 -9.997560e-01 9.471075e-02 6.822063e-01 2.764495e-01 -3.584980e-01 -4.830039e-01 -4.851668e-01 2.537154e-01 -1.674001e-01 1.597326e-01 -6.094799e-02 2.817059e-01 3.510514e-01 1.320713e-01 2.537472e-01 1.489480e-01 2.568107e-01 1.056916e-01 2.172105e-01 -8.340688e-02 -1.427449e-01 -1.235550e-01 -5.172590e-02 -5.649263e-02
<VARIANCE> 39
 2.652707e+01 2.450265e+01 3.710877e+01 3.837278e+01 3.853657e+01 3.393084e+01 4.689020e+01 3.166940e+01 3.056813e+01 2.198299e+01 2.229491e+01 2.370807e+01 1.564571e+01 9.470128e-01 1.233280e+00 1.260427e+00 2.109966e+00 1.661252e+00 1.924906e+00 1.887093e+00 2.251744e+00 1.851597e+00 1.641077e+00 1.512425e+00 1.248334e+00 1.140283e+00 1.272760e-01 1.528102e-01 1.986675e-01 2.701772e-01 2.983258e-01 2.979556e-01 3.684818e-01 3.731989e-01 3.276756e-01 3.200101e-01 2.928342e-01 2.504228e-01 2.228138e-01
<GCONST> 1.034074e+02
<TRANSP> 5
 0.000000e+00 1.000000e+00 0.000000e+00 0.000000e+00 0.000000e+00
 0.000000e+00 8.718272e-01 1.281727e-01 0.000000e+00 0.000000e+00
 0.000000e+00 0.000000e+00 8.584660e-01 1.415340e-01 0.000000e+00
 0.000000e+00 0.000000e+00 0.000000e+00 9.068299e-01 9.317017e-02
 0.000000e+00 0.000000e+00 0.000000e+00 0.000000e+00 0.000000e+00
<ENDHMM>
~o
<STREAMINFO> 1 39
<VECSIZE> 39<NULLD><MFCC_D_A><DIAGC>
~h "k"
<BEGINHMM>
<NUMSTATES> 5
<STATE> 2
<NUMMIXES> 2
<MIXTURE> 1 4.985388e-01
<MEAN> 39
 -7.138788e+00 4.184998e+00 1.714878e+00 7.036258e+00 1.538324e+00 3.522162e-01 -2.138766e+00 -3.007183e+00 5.801383e-01 -9.372015e-01 -3.095064e+00 1.981338e+00 -1.448276e+00 -4.669180e-01 1.278428e-01 6.961066e-03 -2.697493e-02 5.664891e-02 1.522344e-01 2.072386e-01 1.196297e-01 1.416123e-01 1.939622e-01 9.712783e-02 1.051629e-01 1.146362e-01 2.620395e-02 -1.113341e-01 3.552041e-02 -4.757546e-02 1.941215e-02 2.229097e-02 4.721367e-02 1.512679e-02 -3.617860e-02 -3.727529e-02 1.048630e-02 -1.543840e-02 -2.387879e-02
<VARIANCE> 39
 7.051999e+01 7.485078e+01 3.201509e+01 5.110745e+01 8.217918e+01 6.263902e+01 7.124825e+01 6.678353e+01 4.316820e+01 3.924074e+01 3.607908e+01 2.936827e+01 3.130283e+01 2.383850e-01 4.565280e-01 5.615101e-01 7.174523e-01 8.936122e-01 1.057125e+00 1.123778e+00 1.192067e+00 1.243549e+00 1.170941e+00 1.123149e+00 1.045431e+00 9.111572e-01 3.578640e-02 1.127346e-01 1.105370e-01 1.463647e-01 1.797446e-01 2.132879e-01 2.301725e-01 2.366191e-01 2.485837e-01 2.393222e-01 2.258028e-01 2.133831e-01 1.858258e-01
<GCONST> 9.671229e+01
<MIXTURE> 2 5.014613e-01
<MEAN> 39
 -7.041527e+00 3.810672e+00 4.813154e+00 5.233371e+00 6.134707e+00 -9.475095e-01 -1.966230e+00 -2.280032e+00 -2.263016e+00 -3.273344e+00 -3.241173e+00 4.253142e-02 -3.214985e+00 -6.152405e-01 1.771956e-01 -1.607569e-01 7.379834e-02 -2.016420e-01 2.882972e-01 2.898836e-01 1.254354e-03 1.867679e-01 2.195377e-01 7.315022e-02 1.681137e-01 1.115210e-01 4.920951e-02 -3.248175e-01 -1.089267e-01 -2.116922e-01 4.410703e-03 -1.167277e-01 1.051465e-01 9.642605e-03 1.349657e-03 -4.983380e-02 6.495303e-02 1.572591e-02 2.443261e-03
<VARIANCE> 39
 6.755374e+01 8.264255e+01 5.394857e+01 8.129719e+01 1.068147e+02 8.571809e+01 7.937748e+01 6.566252e+01 5.451221e+01 4.776547e+01 4.660510e+01 4.053215e+01 3.628156e+01 1.176290e+00 3.126614e+00 2.285821e+00 2.466619e+00 2.599696e+00 2.938491e+00 3.020284e+00 2.569808e+00 2.490181e+00 2.260746e+00 2.026039e+00 1.871467e+00 1.531189e+00 2.172224e-01 8.035309e-01 4.711933e-01 5.950880e-01 5.546517e-01 6.122091e-01 6.574863e-01 5.324291e-01 5.089553e-01 4.692889e-01 4.325999e-01 3.923480e-01 3.242815e-01
<GCONST> 1.264944e+02
<STATE> 3
<NUMMIXES> 2
<MIXTURE> 1 5.259829e-01
<MEAN> 39
 -1.079764e+01 2.032358e+00 3.086672e+00 5.012427e+00 4.692664e+00 1.282922e+00 8.240757e-01 -1.331386e+00 1.286412e-02 -1.319393e+00 -2.148058e+00 1.340544e+00 -1.959939e+00 2.828087e-01 -2.970860e+00 -1.180194e+00 -2.176138e+00 -5.079159e-01 -5.853442e-01 1.126941e+00 5.467792e-02 -1.724613e-01 -4.868204e-01 6.630191e-01 9.774052e-02 3.238812e-02 4.023130e-01 -6.733037e-01 -2.338687e-01 -6.622248e-01 -2.766422e-01 -2.821675e-01 3.501206e-02 -1.460478e-01 -1.459487e-01 -2.780327e-01 1.064922e-01 -5.599843e-02 5.302027e-03
<VARIANCE> 39
 6.511068e+01 9.205840e+01 4.252409e+01 6.186702e+01 9.825996e+01 6.513591e+01 6.850316e+01 6.475379e+01 4.560229e+01 4.103671e+01 3.594833e+01 3.079015e+01 2.784258e+01 3.101903e+00 9.755487e+00 3.980987e+00 6.933011e+00 6.810925e+00 7.354893e+00 6.178757e+00 4.747602e+00 4.287550e+00 3.855510e+00 3.507903e+00 2.998604e+00 2.790220e+00 3.220694e-01 1.292767e+00 5.265730e-01 7.456216e-01 8.014341e-01 7.859789e-01 7.258421e-01 6.272157e-01 5.901330e-01 5.255308e-01 4.707296e-01 4.106756e-01 3.787274e-01
<GCONST> 1.366422e+02
<MIXTURE> 2 4.740171e-01
<MEAN> 39
 -1.121325e+01 -8.138613e+00 -2.692942e+00 -1.012520e+01 4.286013e+00 -6.046825e+00 6.515878e+00 -1.008731e+00 -3.482765e+00 -4.441652e+00 2.139355e+00 2.990742e-01 -7.634023e-02 4.051624e-01 -6.908742e-01 3.914682e-01 -1.520828e+00 -2.614133e-01 -1.099442e+00 4.313740e-01 -2.892884e-01 -3.288007e-01 -4.664739e-01 3.288873e-01 -8.089367e-02 3.283351e-01 -1.508817e-02 1.046538e+00 7.967185e-01 1.080972e+00 2.118353e-01 2.947462e-01 -4.021945e-01 -1.383866e-02 9.900104e-02 1.267231e-01 -3.636357e-01 -1.932928e-02 -1.502353e-01
<VARIANCE> 39
 1.937051e+01 6.211171e+01 3.981936e+01 6.253659e+01 8.933640e+01 8.130318e+01 5.743015e+01 6.570049e+01 4.542739e+01 3.866054e+01 3.544643e+01 3.261789e+01 2.562208e+01 1.512047e+00 6.823313e+00 4.008775e+00 6.725837e+00 3.293457e+00 4.056559e+00 3.426139e+00 2.905209e+00 2.877011e+00 2.693624e+00 2.662033e+00 2.063182e+00 1.836081e+00 3.302108e-01 1.011320e+00 4.913919e-01 6.799238e-01 7.861924e-01 8.763186e-01 7.925355e-01 6.717334e-01 6.307586e-01 5.942413e-01 5.276312e-01 4.789941e-01 4.283811e-01
<GCONST> 1.299601e+02
<STATE> 4
<NUMMIXES> 2
<MIXTURE> 1 6.975959e-01
<MEAN> 39
 -7.363898e+00 -2.374076e+00 5.764695e+00 -3.251647e+00 6.350447e+00 -7.680995e+00 1.286785e+00 -1.257780e+00 -3.409942e+00 -5.370948e+00 -1.991335e+00 -6.048226e-01 -1.818978e+00 1.248371e+00 4.098692e-01 8.371248e-01 8.426899e-01 6.200147e-01 -3.293722e-01 -1.223913e+00 -3.187846e-01 -1.276427e-01 -2.648037e-01 -6.843464e-01 -3.377793e-01 -4.240390e-01 1.388505e-01 -1.020765e-01 -2.705634e-01 -3.704592e-02 -1.760024e-02 -6.110512e-02 -1.737796e-01 2.058019e-02 2.034512e-02 -3.970202e-02 2.034524e-03 2.443481e-02 -3.550534e-02
<VARIANCE> 39
 5.169479e+01 6.884185e+01 6.300326e+01 9.934492e+01 9.828686e+01 7.326522e+01 7.680960e+01 7.024170e+01 5.238337e+01 4.209514e+01 4.693547e+01 4.097366e+01 3.185400e+01 2.537093e+00 2.805058e+00 3.750150e+00 4.538541e+00 3.317478e+00 4.485744e+00 4.475512e+00 3.196763e+00 2.822316e+00 2.721007e+00 2.599620e+00 2.202226e+00 1.975752e+00 4.084309e-01 4.762338e-01 5.183000e-01 7.345405e-01 5.365728e-01 6.995507e-01 7.749326e-01 5.151598e-01 4.429268e-01 4.420793e-01 4.266839e-01 3.543956e-01 3.199526e-01
<GCONST> 1.302545e+02
<MIXTURE> 2 3.024041e-01
<MEAN> 39
 8.931600e+00 -1.883653e+01 3.643475e+00 5.767961e+00 -1.776789e+01 1.128433e+01 -2.435086e+00 -1.126361e+01 3.325125e+00 -9.656693e+00 -4.378107e+00 3.648442e+00 -7.528606e+00 9.783891e-01 -4.489090e-01 3.979926e-01 1.135072e-01 -5.856075e-01 -3.105480e-01 -5.915299e-01 -3.599149e-01 -1.793246e-01 -7.655064e-01 -1.779496e-01 -1.396901e-01 -5.236436e-01 -1.579914e-01 5.150887e-01 1.208620e-01 1.586921e-01 3.477618e-01 -3.116262e-01 -1.315127e-01 1.399988e-01 -5.514942e-02 1.223194e-01 -2.075686e-03 -9.723753e-02 8.554303e-02
<VARIANCE> 39
 2.761403e+01 7.965015e+01 5.788287e+01 8.871629e+01 7.413130e+01 6.939296e+01 6.813024e+01 5.852562e+01 4.503999e+01 4.538273e+01 3.931169e+01 3.307251e+01 2.832211e+01 2.415762e+00 9.067578e+00 2.824875e+00 2.935924e+00 6.218365e+00 5.043323e+00 3.107617e+00 2.725486e+00 2.509886e+00 2.644441e+00 2.087182e+00 2.359015e+00 1.734838e+00 4.048164e-01 1.409750e+00 5.743545e-01 5.039281e-01 9.188771e-01 7.318318e-01 5.697117e-01 4.364274e-01 4.554115e-01 4.561144e-01 3.851109e-01 4.120819e-01 3.133038e-01
<GCONST> 1.295498e+02
<TRANSP> 5
 0.000000e+00 1.000000e+00 0.000000e+00 0.000000e+00 0.000000e+00
 0.000000e+00 8.303280e-01 1.696719e-01 0.000000e+00 0.000000e+00
 0.000000e+00 0.000000e+00 7.584260e-01 2.415741e-01 0.000000e+00
 0.000000e+00 0.000000e+00 0.000000e+00 7.490475e-01 2.509525e-01
 0.000000e+00 0.000000e+00 0.000000e+00 0.000000e+00 0.000000e+00
<ENDHMM>
~o
<STREAMINFO> 1 39
<VECSIZE> 39<NULLD><MFCC_D_A><DIAGC>
~h "kh"
<BEGINHMM>
<NUMSTATES> 5
<STATE> 2
<NUMMIXES> 2
<MIXTURE> 1 4.230597e-01
<MEAN> 39
 -9.768888e+00 8.231947e+00 3.957747e+00 3.395489e+00 4.549700e+00 -3.590443e+00 2.165569e+00 -2.168592e-01 1.973650e+00 -9.896510e-01 -2.868546e+00 8.843656e-01 -3.858999e+00 -5.947025e-01 -2.352229e-02 -5.395262e-02 1.310360e-01 1.563096e-01 3.215905e-01 2.103919e-01 -7.312240e-03 2.032452e-01 1.730127e-01 -1.222745e-02 1.429563e-01 1.523486e-01 1.679448e-02 -1.472217e-01 4.371897e-02 -9.136492e-02 5.160680e-02 2.224091e-02 4.262184e-02 2.946235e-02 -8.137890e-02 -1.021280e-02 7.184295e-02 -3.852105e-02 1.519349e-02
<VARIANCE> 39
 5.404128e+01 4.494806e+01 3.596176e+01 5.257806e+01 5.713919e+01 8.164199e+01 4.924776e+01 4.284559e+01 3.816787e+01 3.330965e+01 3.642626e+01 3.750080e+01 3.482688e+01 3.042853e-01 5.930216e-01 7.173772e-01 9.381679e-01 1.070026e+00 1.166367e+00 1.244164e+00 1.382040e+00 1.458223e+00 1.267062e+00 1.312173e+00 1.179211e+00 1.028103e+00 4.940700e-02 1.549190e-01 1.421588e-01 1.923475e-01 2.031849e-01 2.469673e-01 2.433661e-01 2.716425e-01 2.916843e-01 2.606503e-01 2.661824e-01 2.424861e-01 2.084585e-01
<GCONST> 9.970544e+01
<MIXTURE> 2 5.769403e-01
<MEAN> 39
 -5.887882e+00 3.250324e+00 8.020040e+00 2.212474e+00 9.688855e+00 -5.233762e+00 -5.223609e-01 -1.774406e+00 -1.545048e+00 -3.224751e+00 -1.678731e+00 -1.277915e+00 -4.007307e+00 -9.235646e-01 2.269177e-01 -2.897109e-01 4.610164e-02 -1.672824e-01 5.870015e-01 4.888469e-01 -2.759875e-01 2.716637e-01 3.494815e-01 -4.853543e-03 1.413927e-01 1.527594e-01 1.367801e-02 -2.279089e-01 -1.390801e-01 -2.083076e-01 1.288443e-02 -1.043056e-01 1.083208e-01 1.297475e-02 1.561422e-02 -4.531718e-02 4.168750e-02 2.136371e-02 2.720286e-02
<VARIANCE> 39
 4.969200e+01 6.937912e+01 6.054622e+01 8.884654e+01 1.250655e+02 8.514791e+01 8.039082e+01 6.166173e+01 5.519420e+01 4.834463e+01 5.236820e+01 4.413068e+01 4.221642e+01 1.127161e+00 2.679407e+00 2.666263e+00 2.643291e+00 2.927025e+00 3.127334e+00 3.656608e+00 2.904965e+00 2.963666e+00 2.767128e+00 2.344274e+00 2.071927e+00 1.703942e+00 1.995469e-01 6.237921e-01 4.855023e-01 6.064800e-01 5.487732e-01 5.863210e-01 7.433108e-01 5.646443e-01 5.550066e-01 5.556245e-01 4.801678e-01 4.018170e-01 3.436741e-01
<GCONST> 1.282267e+02
<STATE> 3
<NUMMIXES> 2
<MIXTURE> 1 4.455453e-01
<MEAN> 39
 -1.317605e+01 3.882361e+00 5.321622e+00 3.623747e+00 8.793180e+00 -1.291281e+00 3.267688e+00 -1.362469e+00 1.648077e+00 -8.582280e-01 -1.864529e+00 4.647807e-01 -2.664546e+00 -4.771755e-03 -3.075683e+00 -1.336667e+00 -2.356671e+00 -3.177380e-01 -2.151989e-01 1.246417e+00 1.437314e-01 -3.787163e-01 -1.999082e-01 8.755332e-01 -1.258564e-01 5.129982e-01 4.526431e-01 -9.124501e-01 -3.935037e-01 -8.984156e-01 -3.238991e-01 -2.937258e-01 4.283249e-02 -7.532015e-02 -3.063441e-01 -1.745412e-01 2.642115e-01 -1.136794e-01 1.614294e-01
<VARIANCE> 39
 3.199711e+01 6.722755e+01 2.955313e+01 5.927147e+01 6.957617e+01 5.665085e+01 5.291276e+01 5.367527e+01 3.724757e+01 3.548510e+01 3.396881e+01 3.098239e+01 2.759877e+01 2.645555e+00 8.897854e+00 3.919803e+00 7.917122e+00 5.782217e+00 6.378231e+00 5.639779e+00 4.213850e+00 4.136934e+00 3.839652e+00 3.516490e+00 2.904813e+00 2.649400e+00 2.873935e-01 1.091321e+00 4.595255e-01 7.347119e-01 6.604601e-01 6.917469e-01 6.764961e-01 6.314117e-01 6.009286e-01 5.582500e-01 5.285838e-01 4.492599e-01 3.958955e-01
<GCONST> 1.326108e+02
<MIXTURE> 2 5.544547e-01
<MEAN> 39
 -9.875643e+00 -9.579840e+00 -1.895453e+00 -1.172780e+01 6.309956e+00 -4.886848e+00 7.732522e+00 -2.489227e+00 -3.120092e+00 -3.066066e+00 2.817509e+00 -1.387596e+00 2.207927e-01 4.337703e-01 -1.508847e+00 -3.097773e-01 -2.333249e+00 -5.640061e-01 -9.292451e-01 6.001058e-01 -4.771994e-01 -5.178612e-01 -3.859257e-01 7.589447e-01 -8.458286e-03 7.680891e-01 -1.481422e-01 1.095766e+00 7.980937e-01 9.934727e-01 1.305019e-01 6.355710e-02 -3.370485e-01 -2.047444e-02 2.623320e-01 8.518744e-02 -2.809181e-01 1.986976e-01 -1.013798e-01
<VARIANCE> 39
 1.934589e+01 5.034544e+01 3.138940e+01 7.312037e+01 9.110607e+01 7.549409e+01 6.064223e+01 6.652992e+01 4.286586e+01 4.129430e+01 3.224558e+01 2.751458e+01 2.503037e+01 1.898775e+00 8.393780e+00 4.185419e+00 6.824279e+00 3.787186e+00 4.465665e+00 4.062477e+00 3.153435e+00 3.363587e+00 3.133117e+00 3.206020e+00 2.541750e+00 2.128332e+00 3.181033e-01 9.860200e-01 4.831620e-01 7.704432e-01 7.478332e-01 8.760400e-01 7.501451e-01 6.707082e-01 6.006582e-01 5.943370e-01 5.130328e-01 4.505476e-01 4.118083e-01
<GCONST> 1.309908e+02
<STATE> 4
<NUMMIXES> 2
<MIXTURE> 1 2.058754e-01
<MEAN> 39
 -7.156575e-01 -1.199405e+01 8.485677e+00 9.827793e-01 1.285349e+00 -3.529404e+00 -4.767426e-02 -3.318770e+00 1.383598e+00 -7.825639e+00 -2.649397e+00 7.777704e-02 -5.622746e+00 1.229051e+00 8.442466e-01 3.075346e-01 3.260706e-01 -8.259695e-03 -6.955355e-01 -1.045782e+00 -4.627546e-01 -6.667130e-01 -7.349786e-01 -4.529803e-01 -5.735409e-01 -7.293829e-01 -6.637061e-02 -2.219809e-02 -2.371570e-01 -2.411323e-01 -1.388292e-01 -1.813804e-01 -1.083733e-01 -5.004456e-02 -5.733339e-02 8.186464e-02 1.420638e-01 8.558651e-02 1.616993e-01
<VARIANCE> 39
 6.903452e+01 1.401521e+02 5.653945e+01 1.024917e+02 2.465361e+02 2.053333e+02 1.120152e+02 5.458001e+01 6.994012e+01 5.878836e+01 3.572093e+01 5.216540e+01 3.670771e+01 1.853795e+00 3.884613e+00 2.607924e+00 3.057558e+00 3.359008e+00 3.947813e+00 3.338486e+00 2.926894e+00 2.674093e+00 2.880939e+00 2.529303e+00 2.319451e+00 2.190147e+00 2.606906e-01 6.643287e-01 3.997480e-01 4.490288e-01 5.668873e-01 6.200265e-01 5.775850e-01 4.652441e-01 4.477540e-01 4.547015e-01 3.853995e-01 3.487256e-01 3.040237e-01
<GCONST> 1.314142e+02
<MIXTURE> 2 7.941245e-01
<MEAN> 39
 -1.030038e+01 -9.842304e+00 3.707329e+00 -1.100818e+01 6.206442e+00 -7.419498e+00 8.094017e+00 -1.665107e+00 -2.913967e-02 -2.665607e+00 2.854585e+00 1.481180e+00 2.070530e+00 2.120614e-01 -3.185820e-02 3.215178e-01 4.636323e-01 1.419438e-01 1.954353e-02 -1.133696e-01 2.780222e-01 3.156354e-01 1.023762e-01 -1.394591e-01 1.838547e-01 -1.063517e-01 1.020231e-01 7.859468e-02 -1.712584e-02 1.190494e-01 7.600075e-02 3.973212e-02 -4.046439e-02 4.474286e-02 -1.217540e-02 -4.030709e-02 -8.200394e-02 -7.476479e-02 -1.163139e-01
<VARIANCE> 39
 3.035231e+01 4.240799e+01 4.038033e+01 7.142523e+01 7.058284e+01 6.322416e+01 6.972108e+01 5.621615e+01 5.251225e+01 3.646241e+01 3.552462e+01 2.830829e+01 2.060321e+01 8.701440e-01 1.518244e+00 1.693011e+00 1.665948e+00 1.893705e+00 1.865221e+00 1.956583e+00 2.124851e+00 1.904000e+00 1.815202e+00 1.636326e+00 1.536414e+00 1.474591e+00 1.235611e-01 2.679777e-01 2.672487e-01 2.971031e-01 3.373638e-01 3.488348e-01 3.746314e-01 3.798904e-01 3.686730e-01 3.541473e-01 3.140939e-01 2.874023e-01 2.573476e-01
<GCONST> 1.117017e+02
<TRANSP> 5
 0.000000e+00 1.000000e+00 0.000000e+00 0.000000e+00 0.000000e+00
 0.000000e+00 8.594821e-01 1.405179e-01 0.000000e+00 0.000000e+00
 0.000000e+00 0.000000e+00 8.177164e-01 1.822836e-01 0.000000e+00
 0.000000e+00 0.000000e+00 0.000000e+00 9.214607e-01 7.853923e-02
 0.000000e+00 0.000000e+00 0.000000e+00 0.000000e+00 0.000000e+00
<ENDHMM>
~o
<STREAMINFO> 1 39
<VECSIZE> 39<NULLD><MFCC_D_A><DIAGC>
~h "kq"
<BEGINHMM>
<NUMSTATES> 5
<STATE> 2
<NUMMIXES> 2
<MIXTURE> 1 7.330084e-01
<MEAN> 39
 -6.142607e+00 3.795066e+00 4.673460e+00 1.396321e+00 5.570821e+00 -9.384103e-01 9.973927e-01 2.359020e+00 -1.414074e+00 -1.725171e+00 -1.050809e+00 1.748734e+00 -9.680838e-01 -6.194738e-01 2.854281e-01 -2.097684e-01 1.731548e-01 -2.585615e-01 3.825010e-01 3.645758e-02 -1.175697e-01 3.699674e-01 2.945655e-01 3.237706e-02 3.237306e-02 1.177346e-01 -3.727314e-02 -1.936780e-01 4.467104e-02 -1.678922e-01 1.524453e-01 -2.110344e-01 1.588609e-01 -9.248319e-02 -2.347664e-02 -4.302633e-02 8.210908e-03 -7.978538e-03 -4.336223e-02
<VARIANCE> 39
 3.638780e+01 6.169400e+01 3.906076e+01 7.264634e+01 7.767038e+01 6.119583e+01 6.510322e+01 6.860158e+01 5.517875e+01 3.376135e+01 3.332380e+01 3.104419e+01 2.681934e+01 6.785574e-01 1.483455e+00 1.582338e+00 2.076975e+00 2.409415e+00 2.256559e+00 2.804545e+00 2.610334e+00 2.573778e+00 2.110818e+00 1.791127e+00 1.800297e+00 1.364708e+00 1.301279e-01 3.399954e-01 3.212900e-01 4.143972e-01 4.482615e-01 4.614176e-01 5.413274e-01 5.175169e-01 5.042568e-01 4.496773e-01 3.839093e-01 3.819809e-01 2.703103e-01
<GCONST> 1.173359e+02
<MIXTURE> 2 2.669915e-01
<MEAN> 39
 5.791074e+00 -4.492669e+00 3.894667e+00 -9.523135e+00 6.265731e+00 -1.689944e+01 6.551317e+00 5.725637e+00 -2.148361e+00 -9.380256e+00 -3.150019e+00 2.317621e+00 -4.457298e+00 -7.761663e-01 1.046234e+00 4.775687e-01 4.913501e-01 -1.237853e-01 1.300309e+00 3.429634e-01 5.074136e-02 -3.512385e-01 6.426716e-01 -1.513405e-01 -1.706731e-01 2.451474e-01 -9.035526e-02 9.016515e-02 -9.299178e-02 9.004597e-02 -8.519529e-02 1.903867e-01 -1.021915e-01 6.701508e-03 1.252764e-01 8.995241e-02 4.575595e-02 5.391222e-03 1.276490e-01
<VARIANCE> 39
 2.380455e+01 5.111976e+01 6.920171e+01 6.020411e+01 8.991202e+01 6.054741e+01 9.849834e+01 5.490401e+01 1.614336e+02 5.367315e+01 4.586688e+01 2.844329e+01 4.065512e+01 9.524487e-01 1.422929e+00 1.977667e+00 1.616333e+00 2.446800e+00 2.812407e+00 3.496082e+00 2.582738e+00 2.492967e+00 2.603193e+00 2.264802e+00 1.434045e+00 1.515762e+00 1.245058e-01 1.854448e-01 3.294851e-01 2.688120e-01 4.117474e-01 3.695358e-01 5.174032e-01 4.404240e-01 4.369372e-01 4.362574e-01 3.897904e-01 2.548029e-01 2.576617e-01
<GCONST> 1.184420e+02
<STATE> 3
<NUMMIXES> 2
<MIXTURE> 1 5.972512e-01
<MEAN> 39
 -1.118748e+01 4.222328e+00 5.420894e+00 6.867321e-01 8.327623e+00 -2.532035e+00 4.644125e+00 -6.945719e-01 1.046522e+00 -1.060690e+00 -1.049512e+00 1.580169e+00 -1.465261e+00 -5.445991e-01 -1.884276e+00 -3.250379e-01 -1.606748e+00 2.037849e-01 -8.787114e-01 1.188336e+00 -4.264516e-01 1.297170e-01 -8.991518e-02 4.662092e-01 -1.465251e-01 2.055456e-01 3.388019e-01 -9.190015e-01 -1.277256e-01 -7.398852e-01 -1.382080e-02 -3.541397e-01 1.803063e-01 -5.317240e-02 -2.787082e-01 -1.702409e-01 1.477916e-01 -7.181277e-02 4.897504e-02
<VARIANCE> 39
 3.455345e+01 4.898388e+01 3.543359e+01 6.167069e+01 7.271716e+01 5.981037e+01 6.113890e+01 5.898843e+01 5.059740e+01 3.649335e+01 3.787108e+01 3.214125e+01 2.679989e+01 2.552297e+00 8.499901e+00 4.346954e+00 7.107437e+00 5.494819e+00 6.614083e+00 6.431140e+00 5.506891e+00 4.655175e+00 4.015448e+00 3.503765e+00 3.184202e+00 2.388634e+00 3.437749e-01 8.889469e-01 5.726672e-01 7.856151e-01 6.888780e-01 7.665219e-01 8.919108e-01 7.245259e-01 7.012329e-01 6.626053e-01 5.552686e-01 4.713953e-01 3.891892e-01
<GCONST> 1.350514e+02
<MIXTURE> 2 4.027488e-01
<MEAN> 39
 -9.144662e+00 -1.085190e+01 2.487288e+00 -1.142048e+01 9.091313e+00 -7.393849e+00 1.013189e+01 -2.492219e+00 -2.083823e+00 -2.730236e+00 1.697431e+00 5.476944e-01 -8.210904e-01 6.181174e-01 -2.216788e+00 3.418295e-02 -2.548954e+00 2.039897e-01 -1.432034e+00 1.047057e+00 -6.526691e-01 -6.740835e-01 -6.767666e-01 5.068760e-01 -1.607842e-01 4.035706e-01 -3.763907e-02 1.277422e+00 5.287393e-01 8.799397e-01 -3.730278e-02 1.705794e-01 -4.465275e-01 1.418833e-01 2.038630e-01 -1.270511e-02 -2.230136e-01 8.762470e-02 2.304805e-02
<VARIANCE> 39
 2.811943e+01 5.590689e+01 5.138860e+01 5.985010e+01 8.257680e+01 9.356506e+01 9.130145e+01 6.917067e+01 5.650699e+01 4.511433e+01 4.426826e+01 3.874450e+01 2.598160e+01 2.566708e+00 9.680593e+00 4.161523e+00 7.216826e+00 4.671002e+00 6.382133e+00 5.655156e+00 4.454991e+00 3.997593e+00 3.404021e+00 2.876725e+00 2.797944e+00 2.241453e+00 4.511472e-01 1.001460e+00 9.200958e-01 9.733946e-01 9.591758e-01 1.160517e+00 1.139998e+00 9.615224e-01 8.391783e-01 7.223103e-01 5.838380e-01 5.567925e-01 4.413411e-01
<GCONST> 1.389118e+02
<STATE> 4
<NUMMIXES> 2
<MIXTURE> 1 4.260747e-01
<MEAN> 39
 -5.350269e+00 -3.938627e+00 9.047765e+00 -3.195988e+00 1.010481e+01 -6.018409e+00 5.509327e+00 -3.772444e-01 -2.756710e+00 -3.516532e+00 -6.944243e-01 9.923601e-01 -1.568312e+00 1.423955e+00 3.742560e-01 6.939181e-02 1.131469e+00 1.773520e-01 -5.466669e-01 -1.581022e+00 2.562709e-01 -4.395263e-01 -6.181352e-01 -4.330034e-01 -1.047562e-01 -5.202913e-01 8.010314e-02 -2.871974e-01 -3.733359e-01 -2.907193e-01 -1.562396e-01 -3.391885e-01 -1.234497e-01 2.964357e-02 -1.908984e-02 -1.218721e-01 1.488337e-01 6.404595e-02 1.867338e-02
<VARIANCE> 39
 5.374159e+01 7.331507e+01 6.780358e+01 1.062138e+02 7.803702e+01 8.929061e+01 7.420587e+01 6.136070e+01 6.399572e+01 4.527011e+01 6.196663e+01 3.852632e+01 2.856255e+01 4.191114e+00 4.970666e+00 4.321394e+00 5.784891e+00 5.645486e+00 6.089559e+00 6.934423e+00 3.713326e+00 3.975934e+00 3.452620e+00 3.681423e+00 2.745409e+00 2.767677e+00 4.671584e-01 6.245608e-01 7.229583e-01 6.296651e-01 5.938109e-01 6.338885e-01 9.035070e-01 5.871560e-01 5.773471e-01 4.897932e-01 5.172537e-01 4.290390e-01 3.548303e-01
<GCONST> 1.367698e+02
<MIXTURE> 2 5.739254e-01
<MEAN> 39
 -1.184612e+01 -9.969267e+00 7.212082e+00 -1.336669e+01 8.744695e+00 -1.127601e+01 1.176796e+01 -2.604754e+00 4.998190e-01 -5.210482e+00 2.487869e+00 5.696736e-01 1.444055e+00 -1.997580e-01 4.726593e-01 1.277789e+00 6.909803e-01 3.654495e-01 9.137773e-02 -1.429011e-01 1.318081e-01 1.089492e-01 4.920356e-02 -1.848214e-01 4.418506e-02 5.405676e-02 2.648496e-01 4.063142e-01 8.491528e-02 7.402660e-01 1.761400e-01 2.971469e-01 -4.252359e-01 1.069279e-01 -4.346918e-02 4.785736e-02 -1.868266e-01 -1.762111e-02 -2.467432e-01
<VARIANCE> 39
 5.873468e+01 5.976014e+01 5.135357e+01 8.551861e+01 8.570158e+01 8.306589e+01 1.161853e+02 5.492502e+01 4.380456e+01 3.918995e+01 4.125063e+01 3.509104e+01 3.233389e+01 1.879574e+00 2.125473e+00 2.811998e+00 3.826702e+00 2.994143e+00 2.992357e+00 2.788040e+00 2.120243e+00 2.026880e+00 1.800210e+00 2.137640e+00 1.721059e+00 1.582159e+00 4.155406e-01 6.848440e-01 4.911264e-01 8.761209e-01 7.244020e-01 7.271509e-01 8.386346e-01 5.176702e-01 4.474983e-01 4.410177e-01 4.650230e-01 3.788937e-01 3.505356e-01
<GCONST> 1.268653e+02
<TRANSP> 5
 0.000000e+00 1.000000e+00 0.000000e+00 0.000000e+00 0.000000e+00
 0.000000e+00 8.727546e-01 1.272454e-01 0.000000e+00 0.000000e+00
 0.000000e+00 0.000000e+00 8.134490e-01 1.865510e-01 0.000000e+00
 0.000000e+00 0.000000e+00 0.000000e+00 7.823263e-01 2.176737e-01
 0.000000e+00 0.000000e+00 0.000000e+00 0.000000e+00 0.000000e+00
<ENDHMM>
~o
<STREAMINFO> 1 39
<VECSIZE> 39<NULLD><MFCC_D_A><DIAGC>
~h "l"
<BEGINHMM>
<NUMSTATES> 5
<STATE> 2
<NUMMIXES> 2
<MIXTURE> 1 5.087211e-01
<MEAN> 39
 3.123106e+00 -3.787081e+00 6.229569e+00 7.853858e+00 1.300458e+01 -8.490462e+00 -5.320298e+00 2.061219e+00 -5.927851e+00 -1.391633e+01 -1.133080e+01 -1.598680e+00 -3.809146e+00 -8.715114e-02 1.406527e-01 9.852915e-02 2.906270e-01 7.836602e-02 1.746890e-01 9.178258e-02 1.307473e-01 -4.931587e-02 -1.374047e-01 -1.748914e-01 -1.034902e-01 -5.749443e-02 -3.895108e-02 4.302199e-03 -9.105472e-02 -1.894023e-01 -2.819499e-02 -6.758014e-03 8.429897e-03 -1.877826e-01 7.245934e-03 1.349168e-01 1.799069e-01 3.766827e-02 2.531001e-02
<VARIANCE> 39
 2.059784e+01 3.472536e+01 6.829043e+01 9.063491e+01 1.063353e+02 8.270444e+01 7.441112e+01 1.385368e+02 1.183098e+02 5.387844e+01 8.199210e+01 4.621717e+01 4.604802e+01 3.308561e-01 6.005862e-01 1.130033e+00 1.585455e+00 1.237468e+00 1.725743e+00 1.761586e+00 2.336580e+00 2.126455e+00 2.079077e+00 2.060991e+00 1.450280e+00 1.127439e+00 4.667481e-02 9.090298e-02 1.769282e-01 2.355005e-01 1.997288e-01 2.765954e-01 3.141300e-01 4.165140e-01 3.623349e-01 3.607223e-01 3.502728e-01 2.653257e-01 2.024353e-01
<GCONST> 1.103965e+02
<MIXTURE> 2 4.912789e-01
<MEAN> 39
 1.761432e+00 -4.457231e+00 1.133061e+01 1.006164e+01 1.193692e+01 -9.849639e+00 -1.388303e+00 -1.787017e-01 -9.631914e+00 -1.316891e+01 -1.093869e+01 -3.755263e+00 -2.709544e+00 -4.895663e-02 7.302718e-02 6.719252e-02 9.728750e-02 1.016360e-02 3.580167e-02 3.372751e-02 8.172909e-02 2.807041e-02 -8.906826e-02 -9.707186e-02 3.244575e-03 1.642654e-02 -1.060461e-03 1.611840e-03 -5.420154e-02 -6.777505e-02 2.781641e-03 2.531331e-02 -2.713936e-02 -5.130220e-02 4.562411e-02 4.294247e-02 4.510770e-02 1.508346e-02 -1.067523e-02
<VARIANCE> 39
 1.390948e+01 2.145274e+01 6.459065e+01 7.274929e+01 8.153177e+01 7.672251e+01 6.900137e+01 9.494645e+01 1.318264e+02 4.520430e+01 7.314477e+01 4.248762e+01 5.549627e+01 6.890556e-02 1.596977e-01 2.776438e-01 3.938140e-01 4.653428e-01 5.384966e-01 5.747294e-01 6.035175e-01 6.711294e-01 6.500548e-01 6.214363e-01 5.309658e-01 4.679456e-01 1.022626e-02 2.382951e-02 4.861462e-02 6.671564e-02 7.372378e-02 9.039520e-02 1.025388e-01 1.120839e-01 1.195343e-01 1.172271e-01 1.144699e-01 9.524675e-02 8.123792e-02
<GCONST> 7.742205e+01
<STATE> 3
<NUMMIXES> 2
<MIXTURE> 1 6.598545e-01
<MEAN> 39
 -1.455726e+00 -5.332644e-01 5.636519e+00 9.013714e+00 7.349961e+00 -2.109495e+00 -3.746896e+00 -1.335011e+00 -4.352198e+00 -9.510771e+00 -9.180128e+00 -1.240044e+00 -3.015205e+00 -4.645705e-01 2.839825e-01 -2.395204e-01 -4.361794e-01 -2.300445e-01 2.378564e-01 1.895233e-01 -4.049558e-01 1.515669e-01 5.853329e-01 5.703311e-01 1.572358e-01 9.790549e-02 2.200028e-02 -3.262560e-02 -8.017741e-02 -1.082450e-01 -4.225959e-02 -1.148188e-01 -9.380966e-02 -4.796869e-02 -3.030667e-02 4.565011e-02 1.111285e-01 4.365117e-02 9.161270e-03
<VARIANCE> 39
 7.065792e+01 7.854710e+01 7.593597e+01 7.834370e+01 1.293156e+02 9.088726e+01 6.620077e+01 1.229865e+02 8.077400e+01 6.552734e+01 6.293922e+01 4.200007e+01 4.603486e+01 1.485891e+00 2.619210e+00 2.456488e+00 2.932526e+00 2.682076e+00 3.129628e+00 3.193852e+00 3.708212e+00 3.680676e+00 3.276048e+00 3.035828e+00 2.274608e+00 1.857738e+00 2.010832e-01 4.277944e-01 4.345317e-01 4.938779e-01 4.644571e-01 5.080262e-01 5.648540e-01 6.490530e-01 6.054634e-01 6.037351e-01 5.226510e-01 4.138597e-01 3.434397e-01
<GCONST> 1.305781e+02
<MIXTURE> 2 3.401454e-01
<MEAN> 39
 1.268925e+01 -1.413183e+01 9.225339e+00 2.149663e+01 -9.455783e+00 2.308185e+00 -4.179817e+00 -1.332557e+01 -3.973829e+00 -1.249202e+01 -1.114275e+01 8.580720e-01 -5.295429e+00 -1.113283e-01 1.897101e-01 3.234223e-02 -7.962045e-03 1.117881e-01 2.027347e-03 -8.931291e-03 7.843854e-02 -2.445020e-03 -7.131454e-02 -6.518058e-02 -2.135645e-02 1.412099e-02 9.597531e-03 -2.045787e-02 -6.605723e-02 -1.078907e-01 -8.041452e-03 4.214570e-02 -3.924963e-02 -3.558170e-02 3.458944e-02 5.529467e-02 6.532528e-02 1.917872e-02 -2.118392e-02
<VARIANCE> 39
 6.588699e+00 2.827073e+01 2.715805e+01 5.082136e+01 4.353584e+01 3.997753e+01 4.517719e+01 4.245170e+01 5.439724e+01 3.866279e+01 3.913134e+01 3.477652e+01 3.178313e+01 1.529744e-01 4.059114e-01 3.998153e-01 6.622411e-01 6.884369e-01 7.390262e-01 6.839007e-01 7.348321e-01 8.680974e-01 7.645975e-01 7.304859e-01 6.606382e-01 6.106495e-01 2.559209e-02 5.347054e-02 6.374888e-02 9.956907e-02 1.135583e-01 1.270887e-01 1.224231e-01 1.355234e-01 1.457706e-01 1.400679e-01 1.292108e-01 1.130968e-01 1.064940e-01
<GCONST> 8.002991e+01
<STATE> 4
<NUMMIXES> 2
<MIXTURE> 1 4.075198e-01
<MEAN> 39
 -6.085051e+00 2.076912e+00 8.537079e-01 9.676404e+00 -1.625054e+00 3.793733e+00 -4.459026e+00 -2.750360e+00 -9.238958e-01 -3.207828e+00 -4.742902e+00 1.869685e+00 -1.074969e+00 -3.516554e-01 9.625089e-02 -1.708719e-02 -1.881909e-01 -4.696338e-02 1.318754e-01 1.611626e-01 2.126042e-01 2.675416e-01 2.538607e-01 2.039286e-01 6.915280e-02 4.130816e-02 3.130629e-02 -7.282066e-02 1.666536e-02 5.391445e-03 1.012215e-02 6.231417e-03 3.403256e-02 5.387659e-03 -3.065990e-02 -6.063880e-02 -4.068771e-02 -2.177072e-02 -2.981377e-02
<VARIANCE> 39
 1.538917e+02 1.240072e+02 5.640411e+01 4.314783e+01 6.944107e+01 4.381158e+01 4.718778e+01 1.040214e+02 3.124611e+01 3.491277e+01 3.428420e+01 2.449485e+01 3.110750e+01 3.564643e-01 7.108231e-01 6.758988e-01 7.844893e-01 9.227567e-01 1.049659e+00 1.173510e+00 1.275645e+00 1.311503e+00 1.201251e+00 1.135983e+00 1.001163e+00 9.391825e-01 6.274663e-02 1.425511e-01 1.291396e-01 1.518829e-01 1.822155e-01 2.088004e-01 2.283191e-01 2.431821e-01 2.495950e-01 2.391846e-01 2.289058e-01 2.039310e-01 1.892281e-01
<GCONST> 9.954434e+01
<MIXTURE> 2 5.924802e-01
<MEAN> 39
 2.545703e+00 -5.448231e+00 5.846114e+00 3.299320e+00 8.571332e+00 -9.465013e+00 -3.614873e+00 -5.421181e+00 -8.296217e+00 -1.098316e+01 -6.314910e+00 -2.452480e+00 -2.818996e+00 2.356085e-01 -2.760855e-01 -8.153666e-01 -1.474990e+00 -3.849439e-01 -5.490023e-01 -9.900339e-01 -7.986485e-01 8.560061e-02 7.751911e-01 1.044555e+00 3.059310e-01 9.825426e-02 7.150048e-03 -9.650520e-03 1.209770e-01 6.144649e-02 -4.432935e-02 1.044886e-02 -8.671874e-02 1.954564e-01 1.854716e-01 -2.318653e-02 -1.582334e-01 -4.166952e-02 -1.269915e-02
<VARIANCE> 39
 3.038593e+01 3.829314e+01 5.985431e+01 9.225157e+01 1.435138e+02 9.010177e+01 6.439079e+01 9.103361e+01 7.632381e+01 5.422229e+01 6.085273e+01 5.225972e+01 5.725732e+01 4.656293e-01 7.681053e-01 2.181523e+00 2.256380e+00 1.920889e+00 2.293069e+00 2.873791e+00 3.618761e+00 3.686762e+00 3.409054e+00 3.350375e+00 2.345279e+00 1.878949e+00 7.058364e-02 1.055385e-01 2.702418e-01 3.406828e-01 2.681452e-01 3.572203e-01 4.865525e-01 5.262866e-01 4.735455e-01 4.886664e-01 4.808570e-01 3.326315e-01 2.756798e-01
<GCONST> 1.199724e+02
<TRANSP> 5
 0.000000e+00 1.000000e+00 0.000000e+00 0.000000e+00 0.000000e+00
 0.000000e+00 8.481412e-01 1.518588e-01 0.000000e+00 0.000000e+00
 0.000000e+00 0.000000e+00 7.754636e-01 2.245363e-01 0.000000e+00
 0.000000e+00 0.000000e+00 0.000000e+00 7.097123e-01 2.902876e-01
 0.000000e+00 0.000000e+00 0.000000e+00 0.000000e+00 0.000000e+00
<ENDHMM>
~o
<STREAMINFO> 1 39
<VECSIZE> 39<NULLD><MFCC_D_A><DIAGC>
~h "ln"
<BEGINHMM>
<NUMSTATES> 5
<STATE> 2
<NUMMIXES> 2
<MIXTURE> 1 2.933340e-01
<MEAN> 39
 9.464100e+00 -5.939041e+00 5.965528e+00 6.223954e+00 -4.961853e+00 7.407287e+00 -1.210327e+01 -1.061914e+01 -9.322033e-01 -1.593859e+01 -4.551615e+00 3.048608e+00 -9.698857e+00 -7.876602e-01 1.919564e-01 3.516990e-01 2.478122e-01 -1.540021e-01 2.917483e-01 5.923415e-01 3.665424e-01 4.792399e-01 6.494063e-01 1.037622e-01 4.553907e-02 3.315194e-01 -2.709510e-02 -3.377674e-03 -3.516483e-02 -4.254790e-02 -9.759914e-04 -4.665624e-02 2.583413e-02 6.465337e-02 1.119813e-02 1.390783e-02 2.469818e-02 -1.238896e-02 1.258784e-03
<VARIANCE> 39
 5.024189e+01 5.760609e+01 4.858127e+01 5.603149e+01 4.686605e+01 6.580534e+01 6.911076e+01 5.683242e+01 5.733989e+01 5.979948e+01 4.486811e+01 3.316502e+01 3.186292e+01 8.025612e-01 2.899384e+00 2.115737e+00 1.789073e+00 2.248831e+00 2.920798e+00 2.829413e+00 2.852125e+00 3.289629e+00 2.855092e+00 2.110828e+00 1.850081e+00 1.814743e+00 1.089117e-01 5.554037e-01 3.732008e-01 2.985645e-01 4.394780e-01 5.130154e-01 4.504516e-01 4.686843e-01 5.908242e-01 5.244248e-01 3.745113e-01 3.394400e-01 3.404884e-01
<GCONST> 1.207612e+02
<MIXTURE> 2 7.066661e-01
<MEAN> 39
 4.488910e+00 6.620519e-01 -3.621307e+00 -5.720069e+00 1.292735e+01 -1.831052e+01 -9.470437e+00 -1.088387e+01 -1.286645e+01 -1.096788e+01 -4.666904e+00 -5.145816e-01 -7.991482e+00 -1.014331e-01 1.159742e-01 3.935206e-01 3.037421e-01 2.353339e-01 5.363284e-01 -2.191827e-01 -6.478508e-01 -3.464485e-01 1.103124e-01 -2.952775e-01 -1.895056e-01 -1.607393e-01 -1.610655e-02 3.646739e-02 2.892213e-02 5.630477e-03 -6.649730e-02 2.716076e-02 9.796759e-02 7.638332e-02 -8.062398e-03 -2.661359e-02 3.682905e-02 2.902102e-02 -2.010773e-02
<VARIANCE> 39
 4.389666e+00 1.556557e+01 2.529585e+01 3.606196e+01 3.894971e+01 3.485056e+01 4.364157e+01 4.931827e+01 4.340339e+01 3.887923e+01 3.499420e+01 2.748514e+01 2.871549e+01 1.005188e-01 4.322840e-01 7.239730e-01 6.167969e-01 8.901113e-01 1.332230e+00 1.266188e+00 1.571691e+00 1.541571e+00 1.155592e+00 1.208032e+00 1.085660e+00 9.163611e-01 1.542288e-02 6.028523e-02 9.747003e-02 9.387341e-02 1.280951e-01 1.886433e-01 1.673359e-01 2.110070e-01 2.456795e-01 1.835701e-01 1.800091e-01 1.637006e-01 1.406159e-01
<GCONST> 8.561373e+01
<STATE> 3
<NUMMIXES> 2
<MIXTURE> 1 4.605889e-01
<MEAN> 39
 -2.720509e+00 5.071128e+00 3.531498e+00 -1.374589e+00 7.316914e+00 -7.925704e+00 -2.264664e+00 -7.252913e+00 -6.768951e+00 -1.114754e+01 -8.355567e+00 2.198118e+00 -4.718162e+00 -1.146766e+00 2.933721e-01 1.769301e-01 3.824077e-01 -1.937347e-01 6.671954e-01 3.277862e-01 -1.573035e-01 9.200112e-01 9.658294e-01 4.680846e-01 7.124180e-02 1.236692e-01 -7.766897e-03 2.845042e-02 -5.785416e-02 -7.682690e-02 -1.318745e-02 -3.928522e-02 9.357179e-03 -9.332429e-02 -2.115920e-01 -2.056479e-02 1.227581e-01 1.127571e-02 -1.538300e-01
<VARIANCE> 39
 4.853745e+01 5.870605e+01 6.103068e+01 5.049825e+01 5.731844e+01 7.744889e+01 6.249765e+01 7.688891e+01 6.577494e+01 5.995051e+01 6.813503e+01 4.727397e+01 2.774719e+01 1.699787e+00 4.131487e+00 3.561461e+00 3.182184e+00 3.199640e+00 3.771590e+00 3.527689e+00 5.214901e+00 6.058905e+00 3.624654e+00 3.795678e+00 3.250603e+00 2.313870e+00 2.735917e-01 7.647375e-01 6.416525e-01 5.377494e-01 5.529752e-01 6.469068e-01 6.609446e-01 8.820031e-01 1.013562e+00 7.089828e-01 7.692897e-01 5.923645e-01 4.071896e-01
<GCONST> 1.342311e+02
<MIXTURE> 2 5.394111e-01
<MEAN> 39
 3.054856e+00 4.978692e+00 1.372533e-01 -6.410669e+00 9.426555e+00 -1.008291e+01 -5.685977e+00 -1.160712e+01 -1.510206e+01 -1.472039e+01 -8.194555e+00 -3.454808e-01 -9.711186e+00 -3.924729e-01 5.377496e-01 4.485797e-01 6.873932e-01 -2.765283e-01 3.565651e-01 5.043654e-01 4.985439e-01 6.906341e-01 -4.735515e-02 -3.530011e-01 4.140876e-01 2.201850e-01 -1.193037e-01 8.195872e-03 8.952596e-03 1.132273e-01 -4.210870e-02 -8.497819e-02 -2.709385e-02 1.291320e-01 3.671860e-01 1.486174e-01 -5.282585e-02 2.969530e-02 1.506295e-01
<VARIANCE> 39
 1.130457e+01 3.235839e+01 3.253816e+01 5.959602e+01 4.997601e+01 7.258323e+01 8.066634e+01 7.562343e+01 6.878270e+01 4.826310e+01 4.622226e+01 3.698421e+01 4.280543e+01 4.029008e-01 9.950546e-01 1.030127e+00 1.238593e+00 1.261793e+00 1.983210e+00 1.869660e+00 2.394645e+00 3.119924e+00 2.225316e+00 2.109167e+00 1.633890e+00 1.505304e+00 5.929369e-02 1.431416e-01 1.588179e-01 2.011168e-01 2.078372e-01 3.115212e-01 2.991942e-01 3.721043e-01 4.216012e-01 3.583244e-01 3.149699e-01 2.768492e-01 2.409116e-01
<GCONST> 1.078013e+02
<STATE> 4
<NUMMIXES> 2
<MIXTURE> 1 3.627448e-01
<MEAN> 39
 -8.967457e+00 -8.864550e+00 -5.757581e+00 -2.897480e+00 5.321014e+00 -9.021049e+00 5.059978e+00 7.912012e-01 -4.279946e+00 6.922159e-01 2.381555e+00 5.251264e+00 -6.766680e+00 -2.971050e-02 3.163844e-02 -3.849033e-02 -7.433713e-02 -9.123243e-02 6.484075e-02 1.662704e-01 6.248007e-02 -6.127710e-02 -4.844049e-03 1.005727e-02 2.523597e-02 8.683086e-02 -1.612583e-02 7.868405e-02 7.705055e-03 1.671237e-02 7.831303e-03 9.064326e-03 -1.688386e-02 -3.780469e-02 4.218585e-02 -6.060830e-03 -4.438322e-02 2.748538e-03 1.362241e-03
<VARIANCE> 39
 8.011082e+00 2.326750e+01 1.603784e+01 2.070011e+01 1.705025e+01 2.489639e+01 2.832490e+01 2.203855e+01 2.545385e+01 2.083321e+01 1.619231e+01 1.961597e+01 1.977859e+01 1.414993e-01 6.513359e-01 4.889106e-01 6.052988e-01 7.017542e-01 9.156375e-01 1.038054e+00 1.153330e+00 1.344570e+00 1.135376e+00 1.142829e+00 1.048825e+00 1.044286e+00 2.945182e-02 5.934189e-02 9.337163e-02 1.177912e-01 1.399901e-01 1.841597e-01 2.075269e-01 2.379121e-01 2.509448e-01 2.404112e-01 2.295885e-01 2.199250e-01 2.134159e-01
<GCONST> 8.213563e+01
<MIXTURE> 2 6.372552e-01
<MEAN> 39
 -8.843585e+00 8.104310e+00 1.500470e+00 1.676123e+00 6.614586e+00 -6.403237e+00 -1.348827e+00 -9.442630e+00 -2.214870e+00 -4.747996e+00 -5.957234e+00 3.932168e+00 -7.357575e+00 -6.022049e-01 -2.879509e-02 -3.151245e-02 1.126709e-01 -1.215331e-01 1.928300e-01 5.450517e-01 4.193720e-01 4.720073e-01 4.174685e-01 1.459016e-01 5.716950e-02 9.228398e-02 7.846028e-02 -1.313515e-01 -1.261562e-02 -7.997543e-02 3.213821e-02 -5.782860e-03 -2.357203e-02 3.365673e-02 -7.940046e-02 -7.515725e-02 9.213968e-03 -6.055773e-02 -1.609652e-02
<VARIANCE> 39
 5.159188e+01 6.202397e+01 4.492381e+01 3.487368e+01 3.850522e+01 5.855409e+01 6.307200e+01 4.603369e+01 3.716426e+01 4.011282e+01 3.243835e+01 2.730412e+01 2.526278e+01 8.251309e-01 2.696163e+00 1.871636e+00 1.633920e+00 1.337493e+00 1.681159e+00 1.921625e+00 2.235105e+00 2.033285e+00 1.966791e+00 1.916126e+00 1.641384e+00 1.535059e+00 9.441227e-02 4.158760e-01 3.611122e-01 2.998801e-01 2.697507e-01 3.248247e-01 3.505095e-01 4.129154e-01 3.875914e-01 3.710031e-01 3.606638e-01 3.211209e-01 3.127990e-01
<GCONST> 1.121823e+02
<TRANSP> 5
 0.000000e+00 1.000000e+00 0.000000e+00 0.000000e+00 0.000000e+00
 0.000000e+00 8.871535e-01 1.128465e-01 0.000000e+00 0.000000e+00
 0.000000e+00 0.000000e+00 8.652540e-01 1.347460e-01 0.000000e+00
 0.000000e+00 0.000000e+00 0.000000e+00 8.834180e-01 1.165821e-01
 0.000000e+00 0.000000e+00 0.000000e+00 0.000000e+00 0.000000e+00
<ENDHMM>
~o
<STREAMINFO> 1 39
<VECSIZE> 39<NULLD><MFCC_D_A><DIAGC>
~h "lx"
<BEGINHMM>
<NUMSTATES> 5
<STATE> 2
<NUMMIXES> 2
<MIXTURE> 1 6.454895e-01
<MEAN> 39
 4.363548e+00 -1.360209e+00 1.535350e+00 -1.835227e+00 1.322327e+01 -5.981724e-01 -3.513051e+00 -6.536929e+00 -9.997956e+00 -1.102704e+01 -6.988338e+00 -4.422304e-01 -3.539994e+00 -1.667188e-01 9.119209e-03 4.745415e-01 5.212555e-01 -1.537013e-01 3.835886e-02 4.859454e-01 3.557512e-01 -2.838762e-01 -3.149367e-01 -1.700487e-01 -6.127775e-02 -9.264757e-02 -1.265379e-02 -3.413423e-02 -1.897913e-02 6.814683e-03 -2.941514e-02 -1.395950e-01 -6.748508e-02 8.571157e-02 1.105387e-01 -8.964089e-04 -2.759922e-02 4.583862e-03 5.559658e-02
<VARIANCE> 39
 1.642786e+01 3.311225e+01 6.543490e+01 1.074983e+02 7.615936e+01 1.426960e+02 7.251343e+01 1.437383e+02 8.949650e+01 7.972050e+01 7.329279e+01 6.997009e+01 6.181760e+01 1.517321e-01 3.915444e-01 9.377629e-01 1.004694e+00 1.003753e+00 1.667548e+00 1.736650e+00 1.822565e+00 2.048207e+00 1.696832e+00 1.521819e+00 1.278647e+00 1.189714e+00 1.990250e-02 4.907393e-02 1.051399e-01 1.272153e-01 1.361858e-01 1.883688e-01 2.207721e-01 2.472159e-01 2.730449e-01 2.334227e-01 2.179847e-01 1.903497e-01 1.817621e-01
<GCONST> 1.023318e+02
<MIXTURE> 2 3.545106e-01
<MEAN> 39
 1.417254e+01 -1.447325e+01 3.902853e+00 1.784919e+01 -4.752604e+00 7.118101e+00 -8.897551e+00 -1.900218e+01 -3.993795e+00 -8.551065e+00 -5.380025e+00 1.380010e+00 -9.017735e+00 -2.296922e-01 2.545794e-01 3.740170e-01 4.482650e-01 5.249502e-03 -1.411736e-01 2.846725e-01 2.718642e-01 2.276102e-03 -1.844329e-01 -3.037959e-01 8.436679e-02 1.296241e-01 2.389732e-04 -5.678282e-03 -6.408481e-02 -6.808763e-02 -1.360427e-02 -4.362065e-02 6.033302e-03 4.589439e-02 1.883972e-02 2.956111e-02 2.615374e-03 -2.631940e-03 7.164598e-02
<VARIANCE> 39
 6.389803e+00 2.747567e+01 2.341639e+01 3.821233e+01 3.717300e+01 4.071087e+01 4.302195e+01 3.071317e+01 3.965378e+01 3.697775e+01 3.369937e+01 2.805943e+01 3.370473e+01 1.709207e-01 4.391997e-01 5.713760e-01 7.074412e-01 8.873751e-01 1.156314e+00 1.093953e+00 1.017365e+00 9.973658e-01 1.087770e+00 8.496283e-01 8.213774e-01 1.074300e+00 2.697436e-02 5.527904e-02 7.091813e-02 9.696330e-02 1.217606e-01 1.665976e-01 1.473880e-01 1.449241e-01 1.547401e-01 1.659700e-01 1.378607e-01 1.323858e-01 1.508073e-01
<GCONST> 8.345203e+01
<STATE> 3
<NUMMIXES> 2
<MIXTURE> 1 4.146856e-01
<MEAN> 39
 -9.937271e+00 7.100276e+00 -6.145583e+00 4.879259e+00 5.334648e+00 5.780061e+00 -7.518273e+00 1.373602e+00 -1.031050e+01 -4.726265e+00 -2.502775e+00 3.261068e+00 2.238938e+00 -8.235636e-01 2.972812e-01 1.881700e-01 6.661591e-02 -6.271837e-01 3.112454e-01 1.847297e-02 1.257810e-01 5.226406e-01 4.394159e-01 2.151302e-02 -1.247281e-01 9.523400e-02 5.402748e-04 -2.300323e-02 2.744225e-02 6.084397e-03 3.746743e-02 -1.426364e-02 -4.952308e-03 1.727556e-02 3.653055e-02 -2.475556e-02 -1.504971e-02 -7.052152e-03 -3.093627e-02
<VARIANCE> 39
 7.372948e+01 4.975747e+01 4.283273e+01 4.044817e+01 8.677435e+01 5.135839e+01 4.562526e+01 5.369868e+01 8.063931e+01 5.517145e+01 2.972831e+01 2.467976e+01 2.135116e+01 2.439736e+00 2.716350e+00 2.355909e+00 2.140517e+00 3.331616e+00 2.611126e+00 2.655116e+00 2.840739e+00 3.080902e+00 2.557775e+00 1.929820e+00 1.612894e+00 1.774171e+00 3.803509e-01 4.736106e-01 4.162771e-01 3.723334e-01 5.925350e-01 4.664638e-01 4.729631e-01 5.211402e-01 5.636085e-01 4.842810e-01 3.733899e-01 3.128556e-01 3.547128e-01
<GCONST> 1.223269e+02
<MIXTURE> 2 5.853144e-01
<MEAN> 39
 8.367524e+00 -7.916905e+00 4.144750e+00 9.806179e+00 -1.152770e+00 3.939669e+00 -4.136091e+00 -1.186020e+01 -5.151519e+00 -9.752344e+00 -7.571000e+00 5.234904e-01 -5.986859e+00 -1.926317e-01 -2.484253e-01 -5.158075e-02 -1.627398e-01 -3.051336e-01 -3.767189e-01 -2.798139e-01 2.629023e-01 4.292376e-01 1.892373e-01 1.708015e-01 8.740774e-02 1.365437e-01 2.495125e-02 -6.251096e-02 -1.305065e-01 -1.569334e-01 -5.062011e-04 -9.456290e-02 -2.094368e-01 -6.598125e-02 1.401411e-01 1.106312e-01 1.062485e-01 2.290229e-02 1.317145e-02
<VARIANCE> 39
 5.309881e+01 6.896021e+01 3.836882e+01 1.122651e+02 1.362214e+02 1.006822e+02 6.781577e+01 9.589343e+01 9.764327e+01 7.178037e+01 6.250341e+01 3.958338e+01 4.231791e+01 4.741690e-01 1.380473e+00 1.462205e+00 1.957331e+00 1.784475e+00 2.094107e+00 2.748234e+00 2.362448e+00 2.708127e+00 2.224083e+00 2.144866e+00 1.660245e+00 1.585833e+00 6.863306e-02 2.522181e-01 2.636557e-01 2.631700e-01 3.110219e-01 3.568635e-01 5.082621e-01 4.345343e-01 5.525631e-01 4.286945e-01 3.984308e-01 3.123071e-01 2.971290e-01
<GCONST> 1.191437e+02
<STATE> 4
<NUMMIXES> 2
<MIXTURE> 1 3.900286e-01
<MEAN> 39
 -1.286439e+01 3.514355e+00 -2.119944e+00 7.022263e+00 -2.733660e+00 8.242932e+00 -3.441079e+00 -1.852414e+00 4.212230e-01 9.345387e-01 -1.448741e+00 2.363472e+00 -5.235495e-02 -1.157905e-01 5.522826e-02 4.895562e-02 -2.896666e-02 -3.357472e-02 1.981321e-02 1.426839e-01 1.908456e-01 9.156189e-02 3.738998e-02 1.878892e-02 2.742317e-03 3.594293e-02 6.771234e-02 -5.321590e-02 1.192551e-02 3.385901e-02 -2.163851e-02 -1.839586e-02 2.267155e-02 -1.259362e-02 -2.336912e-02 -2.740949e-02 -1.769092e-02 -1.191868e-03 -2.201812e-02
<VARIANCE> 39
 1.903440e+02 1.097715e+02 2.943976e+01 2.390759e+01 1.685018e+01 2.015003e+01 6.856490e+01 6.045609e+01 2.143755e+01 1.529949e+01 1.203018e+01 1.394142e+01 1.762005e+01 2.990556e-01 3.401213e-01 4.234016e-01 5.347939e-01 6.408066e-01 7.728425e-01 9.170915e-01 9.709781e-01 9.926829e-01 8.940057e-01 8.710204e-01 8.231512e-01 7.441633e-01 8.354592e-02 7.886679e-02 8.689173e-02 1.138432e-01 1.356051e-01 1.705721e-01 1.980258e-01 1.992574e-01 2.117916e-01 1.913939e-01 1.866012e-01 1.754993e-01 1.596053e-01
<GCONST> 8.568832e+01
<MIXTURE> 2 6.099714e-01
<MEAN> 39
 3.642834e+00 -3.818117e+00 1.461473e+00 2.987351e+00 1.172314e+01 -6.726003e+00 -5.965143e+00 -2.130580e+00 -6.794912e+00 -1.209703e+01 -8.338954e+00 -1.000302e-01 -3.283679e+00 -5.674314e-02 -4.245281e-01 -1.886246e-01 -4.172808e-01 -1.789300e-01 -9.127312e-01 -7.323653e-01 -2.612259e-01 3.078580e-01 3.374964e-01 6.435683e-01 1.891220e-01 1.723570e-01 1.757786e-02 1.114976e-02 -2.998636e-02 -1.335792e-01 -5.308090e-02 1.456296e-02 -5.688213e-02 -7.572213e-02 1.851369e-02 4.559452e-02 8.349214e-02 4.743197e-02 -1.988882e-02
<VARIANCE> 39
 2.468667e+01 3.689933e+01 5.996333e+01 1.079022e+02 1.154426e+02 1.133277e+02 6.878602e+01 1.311846e+02 9.254227e+01 5.497858e+01 7.810736e+01 5.878780e+01 4.607525e+01 3.957287e-01 8.162044e-01 1.828699e+00 2.608448e+00 1.948908e+00 2.624290e+00 3.632695e+00 3.912431e+00 4.379177e+00 2.989085e+00 3.808765e+00 2.943544e+00 2.100646e+00 6.607354e-02 1.379108e-01 3.149687e-01 4.048822e-01 2.832283e-01 4.248507e-01 6.522667e-01 6.600496e-01 7.018521e-01 5.498216e-01 6.602628e-01 4.902324e-01 3.439886e-01
<GCONST> 1.242345e+02
<TRANSP> 5
 0.000000e+00 1.000000e+00 0.000000e+00 0.000000e+00 0.000000e+00
 0.000000e+00 8.346047e-01 1.653953e-01 0.000000e+00 0.000000e+00
 0.000000e+00 0.000000e+00 7.504244e-01 2.495756e-01 0.000000e+00
 0.000000e+00 0.000000e+00 0.000000e+00 7.803077e-01 2.196923e-01
 0.000000e+00 0.000000e+00 0.000000e+00 0.000000e+00 0.000000e+00
<ENDHMM>
~o
<STREAMINFO> 1 39
<VECSIZE> 39<NULLD><MFCC_D_A><DIAGC>
~h "m"
<BEGINHMM>
<NUMSTATES> 5
<STATE> 2
<NUMMIXES> 2
<MIXTURE> 1 3.350921e-01
<MEAN> 39
 -2.712383e+00 5.506188e+00 3.750182e+00 8.025181e+00 3.333114e+00 1.959682e+00 -3.959122e+00 5.468877e+00 1.305953e+00 -2.910583e+00 -4.979714e+00 -3.641919e+00 -4.911457e+00 9.050936e-03 1.983587e-01 1.206957e-01 7.237284e-02 1.164439e-02 2.377646e-01 2.827277e-02 -8.075580e-03 -8.494911e-02 1.021755e-01 -9.402440e-02 -2.729866e-01 -8.519313e-02 -1.243951e-02 -3.806639e-02 -3.115038e-02 -5.282375e-02 5.982393e-03 -4.424838e-02 -8.655659e-03 -4.064255e-03 3.012473e-03 -1.829636e-02 1.012567e-02 4.157486e-02 3.401758e-02
<VARIANCE> 39
 9.427635e+01 5.934970e+01 4.241510e+01 7.576469e+01 8.596388e+01 6.664745e+01 8.242101e+01 8.374984e+01 6.286309e+01 5.688372e+01 4.206377e+01 3.926033e+01 3.673889e+01 2.417815e+00 2.459462e+00 2.008776e+00 2.298549e+00 2.668297e+00 3.115791e+00 2.600637e+00 2.426288e+00 2.375988e+00 2.353692e+00 2.047082e+00 2.130220e+00 1.757314e+00 2.880565e-01 4.096704e-01 3.246655e-01 3.450355e-01 4.134460e-01 4.856877e-01 4.288771e-01 4.194575e-01 4.072671e-01 4.015148e-01 3.450615e-01 3.499145e-01 2.854990e-01
<GCONST> 1.232755e+02
<MIXTURE> 2 6.649079e-01
<MEAN> 39
 7.772372e+00 1.977812e+00 5.128065e+00 6.406708e+00 4.525751e+00 2.061409e+00 -3.539364e+00 3.002405e+00 1.434016e+00 -8.576522e+00 -9.829365e+00 -6.867623e+00 -9.210574e+00 -2.687387e-02 5.509161e-02 5.251530e-02 3.169499e-02 7.094657e-02 3.288147e-02 -4.453722e-05 8.068794e-02 8.188134e-02 6.029874e-02 1.769707e-02 -1.922910e-02 -6.109634e-03 -5.250425e-03 -4.630596e-03 -1.217292e-02 -3.707559e-02 -5.372203e-02 -4.585041e-02 1.794576e-02 -2.850022e-02 -1.519769e-02 1.104484e-02 2.971452e-02 4.216208e-02 2.790785e-02
<VARIANCE> 39
 3.023849e+01 3.400212e+01 2.144777e+01 6.571685e+01 1.106785e+02 6.162727e+01 8.850297e+01 9.156624e+01 1.114906e+02 8.087510e+01 5.038449e+01 4.728161e+01 4.196688e+01 6.900307e-02 2.572027e-01 2.412878e-01 3.351057e-01 4.402611e-01 4.955766e-01 5.663083e-01 6.242828e-01 6.225264e-01 5.611725e-01 5.638865e-01 4.978624e-01 4.454328e-01 1.084545e-02 3.429720e-02 4.304924e-02 6.536186e-02 8.406405e-02 1.022246e-01 1.016853e-01 1.059112e-01 1.107800e-01 1.045568e-01 1.047694e-01 9.578072e-02 8.229351e-02
<GCONST> 7.745649e+01
<STATE> 3
<NUMMIXES> 2
<MIXTURE> 1 4.970680e-01
<MEAN> 39
 -4.169657e+00 -1.510376e+00 -2.253829e-01 7.788954e+00 -6.140315e+00 6.890404e+00 3.359510e+00 1.291730e-01 2.467111e+00 -1.047402e+00 -3.801559e+00 2.344303e+00 -2.083563e+00 -2.028127e-01 -7.990035e-02 -4.729536e-02 -3.735225e-02 1.187978e-02 3.881735e-02 4.075779e-02 9.427397e-03 -1.654555e-02 7.418399e-02 1.560932e-01 1.458038e-01 1.133723e-01 1.940822e-02 -7.445764e-03 1.442980e-02 1.689311e-02 1.268907e-02 1.689792e-03 -2.036140e-02 -8.144834e-03 3.791530e-03 -1.452207e-02 -2.000078e-02 -2.152048e-02 -2.670028e-02
<VARIANCE> 39
 8.936906e+01 1.127027e+02 3.238794e+01 1.877382e+01 4.027304e+01 2.151984e+01 4.085016e+01 4.249580e+01 2.339123e+01 2.889418e+01 2.532344e+01 2.266453e+01 1.644670e+01 3.526728e-01 6.425571e-01 6.025579e-01 7.052745e-01 9.185099e-01 1.042001e+00 1.120650e+00 1.212712e+00 1.245270e+00 1.181458e+00 1.176015e+00 1.128737e+00 9.668637e-01 3.876513e-02 9.185543e-02 1.051288e-01 1.300709e-01 1.727824e-01 2.055773e-01 2.190261e-01 2.385060e-01 2.524883e-01 2.374241e-01 2.275008e-01 2.225915e-01 1.950675e-01
<GCONST> 9.210459e+01
<MIXTURE> 2 5.029321e-01
<MEAN> 39
 4.262359e+00 4.889904e+00 9.509597e+00 3.875635e+00 7.259515e+00 1.024128e+00 -3.673396e+00 8.406262e-01 1.860945e+00 -2.205937e+00 -9.590184e+00 -9.212532e+00 -6.590000e+00 -6.820824e-02 6.126071e-03 3.245864e-02 -1.208607e-01 -4.307677e-02 -1.523197e-01 9.668618e-02 -8.011170e-02 2.345306e-02 7.230468e-02 1.244403e-01 1.167892e-01 8.958255e-02 -2.592684e-02 -5.728859e-02 -7.592625e-02 -1.041242e-01 -1.012571e-01 -1.547740e-01 6.591420e-02 -8.256298e-02 -3.539468e-02 -6.629126e-02 7.034917e-02 1.757807e-01 9.236855e-02
<VARIANCE> 39
 2.373257e+01 2.545583e+01 4.571786e+01 7.065750e+01 6.758971e+01 5.494183e+01 9.200938e+01 9.832495e+01 1.262563e+02 1.304451e+02 4.293679e+01 4.913966e+01 4.916918e+01 1.559275e-01 4.254015e-01 4.998164e-01 6.485997e-01 7.718852e-01 1.005841e+00 1.116894e+00 1.152865e+00 1.095332e+00 1.142440e+00 9.105795e-01 8.575571e-01 7.257822e-01 2.963046e-02 9.025267e-02 1.144582e-01 1.490244e-01 1.907236e-01 2.626893e-01 2.440436e-01 2.538554e-01 2.426626e-01 2.625567e-01 1.980602e-01 2.023776e-01 1.651604e-01
<GCONST> 9.702529e+01
<STATE> 4
<NUMMIXES> 2
<MIXTURE> 1 9.347808e-02
<MEAN> 39
 -3.465476e+01 1.675967e+01 -7.743439e+00 1.826633e+00 -1.155705e+00 1.236522e+01 -1.445375e+01 5.846484e+00 -1.598039e-01 2.253834e-01 -2.058068e+00 -9.824362e-02 3.765816e+00 -1.362455e-01 8.215038e-02 1.575990e-02 -2.231550e-02 5.907191e-02 6.852118e-02 -5.401044e-02 8.545254e-03 3.942942e-02 2.500927e-04 -6.214541e-04 1.159003e-02 3.031951e-02 2.616155e-01 -1.072249e-01 2.894851e-02 8.718687e-02 -5.242795e-02 -9.323000e-02 1.351443e-01 9.685402e-03 -5.067167e-02 2.049104e-02 2.124489e-02 -7.652363e-03 -4.976257e-02
<VARIANCE> 39
 4.483082e-01 6.496472e-01 1.372011e+00 1.126045e+00 1.920628e+00 1.941905e+00 2.517905e+00 2.499093e+00 2.399876e+00 2.720778e+00 3.064659e+00 2.732042e+00 2.229308e+00 1.086354e+00 3.270376e-01 2.173789e-01 2.914865e-01 3.910311e-01 4.624964e-01 5.924420e-01 3.902425e-01 4.446459e-01 4.080288e-01 4.378160e-01 3.926591e-01 3.533571e-01 2.683040e-01 8.656988e-02 6.370471e-02 7.948849e-02 7.781372e-02 1.027722e-01 1.615612e-01 9.150107e-02 9.617190e-02 9.459340e-02 9.706742e-02 8.784577e-02 8.113205e-02
<GCONST> 3.729400e+01
<MIXTURE> 2 9.065220e-01
<MEAN> 39
 4.914233e+00 1.206787e+00 5.306340e+00 1.116775e+00 2.796268e+00 -4.160009e+00 -2.925667e+00 8.859073e-01 8.922811e-01 -6.989518e+00 -7.324137e+00 -4.144957e+00 -5.992627e+00 -1.609747e-02 -6.023557e-01 -5.911309e-01 -8.594309e-01 -6.581952e-01 -1.254963e+00 1.139531e-01 -1.030593e-01 -7.000041e-02 -3.117295e-01 4.322477e-01 8.687468e-01 4.786819e-01 -1.611294e-03 -8.972617e-02 -3.644765e-02 8.903343e-03 3.332383e-02 -4.918811e-02 -5.309665e-02 8.297218e-02 4.349581e-04 -3.655846e-03 1.843564e-02 -9.305982e-04 -1.917411e-02
<VARIANCE> 39
 5.390390e+01 5.633140e+01 4.737552e+01 8.194575e+01 1.517333e+02 1.091957e+02 7.836147e+01 9.706047e+01 1.047904e+02 7.618449e+01 4.159396e+01 4.942586e+01 4.942767e+01 8.395443e-01 2.017697e+00 1.992148e+00 2.706819e+00 3.374678e+00 4.860074e+00 3.667907e+00 3.534077e+00 3.086560e+00 3.110380e+00 2.398330e+00 2.440264e+00 1.926413e+00 1.100297e-01 2.841312e-01 3.197061e-01 3.878402e-01 4.896636e-01 7.534810e-01 5.785655e-01 5.758330e-01 4.718261e-01 4.660240e-01 3.872144e-01 4.124732e-01 3.090347e-01
<GCONST> 1.272092e+02
<TRANSP> 5
 0.000000e+00 1.000000e+00 0.000000e+00 0.000000e+00 0.000000e+00
 0.000000e+00 8.970228e-01 1.029772e-01 0.000000e+00 0.000000e+00
 0.000000e+00 0.000000e+00 8.339227e-01 1.660772e-01 0.000000e+00
 0.000000e+00 0.000000e+00 0.000000e+00 7.737483e-01 2.262517e-01
 0.000000e+00 0.000000e+00 0.000000e+00 0.000000e+00 0.000000e+00
<ENDHMM>
~o
<STREAMINFO> 1 39
<VECSIZE> 39<NULLD><MFCC_D_A><DIAGC>
~h "mq"
<BEGINHMM>
<NUMSTATES> 5
<STATE> 2
<NUMMIXES> 2
<MIXTURE> 1 1.000000e+00
<MEAN> 39
 5.306033e+00 6.133058e+00 4.333579e+00 -2.085482e+00 7.743805e+00 -9.536825e+00 4.062232e-01 2.848051e+00 -5.097841e+00 -3.804904e+00 6.841651e-01 -2.252598e+00 -3.663225e+00 -1.179356e-01 2.956066e-01 2.097728e-01 3.295449e-01 2.036719e-01 2.460292e-01 -2.087607e-01 -3.671359e-01 -3.214915e-02 9.485683e-02 -1.461116e-02 -1.838888e-02 -5.019318e-02 -4.026464e-02 1.075429e-02 1.631114e-02 1.517586e-02 6.695851e-03 5.015138e-02 2.603890e-02 -2.428575e-03 2.215366e-02 5.990195e-04 -1.223650e-02 6.643903e-03 -5.193835e-04
<VARIANCE> 39
 1.159292e+01 6.260080e+01 4.954290e+01 6.581078e+01 6.489910e+01 6.883899e+01 1.318774e+02 9.973436e+01 9.413602e+01 5.008303e+01 4.764804e+01 4.235271e+01 3.053248e+01 1.989568e-01 5.663212e-01 6.476925e-01 8.463287e-01 8.882610e-01 1.226485e+00 1.344006e+00 1.312318e+00 1.092194e+00 1.303136e+00 1.051754e+00 9.205012e-01 7.592112e-01 2.476163e-02 6.929609e-02 8.666080e-02 1.249712e-01 1.337933e-01 1.871217e-01 1.901413e-01 1.947439e-01 1.731599e-01 1.991610e-01 1.744173e-01 1.554644e-01 1.279616e-01
<GCONST> 9.473623e+01
<MIXTURE> 2 0.000000e+00
<MEAN> 39
 -9.685755e-07 -6.519258e-07 -1.657754e-07 6.034970e-07 1.440640e-09 1.266599e-07 -8.195639e-08 7.823110e-08 2.533197e-07 1.257285e-08 1.639128e-07 7.078052e-07 2.328306e-08 3.019522e-10 -4.656613e-09 -1.216540e-08 1.164153e-10 1.781154e-08 1.982698e-10 -3.026798e-09 5.587935e-09 -1.746230e-09 4.097819e-08 2.363231e-08 1.315493e-08 -2.043089e-08 -3.744487e-03 2.978991e-04 -4.746468e-04 6.844162e-05 -1.603577e-04 -3.450464e-05 5.754238e-05 -8.061554e-05 1.271995e-04 -1.902887e-04 4.669849e-05 -1.564687e-04 -6.364408e-05
<VARIANCE> 39
 0.000000e+00 0.000000e+00 0.000000e+00 0.000000e+00 0.000000e+00 9.313226e-09 0.000000e+00 3.492460e-10 0.000000e+00 1.473381e-10 1.781154e-08 0.000000e+00 0.000000e+00 0.000000e+00 0.000000e+00 0.000000e+00 2.110312e-12 0.000000e+00 0.000000e+00 1.409717e-11 0.000000e+00 1.318767e-11 3.419700e-10 0.000000e+00 0.000000e+00 0.000000e+00 1.827128e-03 6.024704e-05 5.945166e-05 2.794358e-05 3.412523e-05 3.360989e-05 3.020229e-05 3.188291e-05 2.277736e-05 2.193036e-05 1.852728e-05 2.304439e-05 1.544051e-05
<GCONST> -1.800000e+11
<STATE> 3
<NUMMIXES> 2
<MIXTURE> 1 1.000000e+00
<MEAN> 39
 -1.855212e+00 5.986961e+00 5.438191e+00 2.120297e+00 1.066147e+01 -4.734187e+00 1.833656e-02 2.443206e+00 -2.541976e+00 -3.045074e+00 1.453148e+00 -1.355979e+00 -3.880694e+00 -6.087524e-01 1.647814e-01 1.006645e-01 1.355234e-01 -1.096655e-01 5.371815e-01 1.316619e-01 -2.781003e-01 2.252001e-01 1.556625e-01 -2.290747e-01 -2.480463e-02 1.553058e-02 -3.240718e-03 -7.378324e-02 -2.548614e-02 -5.024663e-02 -3.798769e-02 -6.135106e-02 1.525366e-02 2.906451e-02 1.599383e-02 -1.361254e-02 1.692370e-03 9.020566e-03 1.707010e-02
<VARIANCE> 39
 4.987474e+01 6.779016e+01 5.537480e+01 7.574305e+01 8.340823e+01 6.504440e+01 1.017060e+02 7.135842e+01 5.806193e+01 5.291911e+01 5.147311e+01 3.550064e+01 3.432506e+01 1.550723e+00 2.399285e+00 2.625700e+00 2.254431e+00 2.459517e+00 2.835036e+00 3.025117e+00 2.645393e+00 2.360261e+00 2.282935e+00 2.107140e+00 1.866561e+00 1.433037e+00 2.418082e-01 3.292843e-01 4.151927e-01 3.524982e-01 4.003951e-01 4.570311e-01 5.099568e-01 4.546790e-01 4.000112e-01 4.043179e-01 3.899863e-01 3.269128e-01 2.575512e-01
<GCONST> 1.223872e+02
<MIXTURE> 2 0.000000e+00
<MEAN> 39
 1.769513e-08 2.514571e-08 -9.313226e-09 1.443550e-08 7.078052e-08 3.911555e-08 -6.798655e-08 3.725290e-09 -1.192093e-07 4.773028e-08 -2.095476e-08 3.818423e-08 3.492460e-09 -1.477929e-11 -3.783498e-10 1.746230e-10 1.011358e-09 1.149601e-09 4.911271e-10 2.779416e-09 1.760782e-09 3.929017e-10 5.966285e-10 -5.209586e-09 2.590241e-09 4.249159e-09 -2.047057e-02 1.739704e-03 -2.860196e-03 4.944406e-04 -9.179143e-04 -4.275220e-04 -1.494129e-04 -1.110907e-03 -5.215620e-04 -1.377407e-03 -4.617415e-04 -8.713729e-04 -4.312473e-04
<VARIANCE> 39
 0.000000e+00 1.964509e-09 0.000000e+00 3.888090e-11 0.000000e+00 0.000000e+00 0.000000e+00 0.000000e+00 1.804437e-09 3.074092e-10 3.783498e-10 0.000000e+00 3.836931e-13 0.000000e+00 2.060574e-13 0.000000e+00 1.962874e-13 1.108447e-12 1.085798e-13 0.000000e+00 8.490986e-13 0.000000e+00 0.000000e+00 4.021672e-12 0.000000e+00 1.989520e-13 1.418590e-02 4.708500e-04 6.059122e-04 2.832045e-04 2.438255e-04 1.964814e-04 2.386844e-04 2.203498e-04 2.247814e-04 1.830704e-04 2.037936e-04 1.436218e-04 1.237932e-04
<GCONST> -1.300000e+11
<STATE> 4
<NUMMIXES> 2
<MIXTURE> 1 1.000000e+00
<MEAN> 39
 -8.734880e-01 1.745921e+00 1.327211e+00 1.865111e-01 2.152984e+00 -9.290705e-01 3.753144e-01 1.437335e-01 -6.511342e-01 -8.992656e-01 -3.602587e-01 -5.017713e-01 -8.865063e-01 -7.675922e-02 -2.449547e-02 7.109872e-02 1.703212e-02 3.014915e-04 8.007253e-02 3.623668e-02 -3.794554e-02 6.900710e-02 2.894931e-02 -1.813610e-02 1.222040e-02 1.500219e-02 -7.832812e-02 -4.822917e-03 4.770450e-03 6.657870e-03 1.123504e-02 1.002897e-03 2.247398e-02 1.942252e-02 7.377486e-03 -2.533569e-04 1.306765e-02 2.150707e-03 9.165577e-04
<VARIANCE> 39
 2.500516e+01 2.828142e+01 1.874722e+01 1.681684e+01 3.100801e+01 1.865426e+01 1.993929e+01 1.595214e+01 1.558766e+01 1.342563e+01 9.636231e+00 1.052323e+01 9.237335e+00 1.437721e+00 5.773989e-01 5.537745e-01 4.162456e-01 4.311493e-01 4.794759e-01 5.023318e-01 4.716296e-01 5.189018e-01 3.783635e-01 4.080511e-01 3.296864e-01 2.665946e-01 2.001468e-01 1.172181e-01 8.486585e-02 9.246291e-02 8.851148e-02 9.326869e-02 9.804684e-02 9.291442e-02 8.586236e-02 8.657905e-02 7.620726e-02 7.163321e-02 5.490552e-02
<GCONST> 6.756485e+01
<MIXTURE> 2 0.000000e+00
<MEAN> 39
 0.000000e+00 0.000000e+00 0.000000e+00 0.000000e+00 0.000000e+00 0.000000e+00 0.000000e+00 0.000000e+00 0.000000e+00 0.000000e+00 0.000000e+00 0.000000e+00 0.000000e+00 0.000000e+00 0.000000e+00 0.000000e+00 0.000000e+00 0.000000e+00 0.000000e+00 0.000000e+00 0.000000e+00 0.000000e+00 0.000000e+00 0.000000e+00 0.000000e+00 0.000000e+00 -7.323198e-02 1.123042e-02 -1.038370e-02 1.682460e-03 -2.594927e-03 -1.410091e-03 -1.503533e-03 -3.022441e-03 -2.858302e-03 -3.888699e-03 -2.411382e-03 -1.670942e-03 -2.166644e-03
<VARIANCE> 39
 0.000000e+00 0.000000e+00 0.000000e+00 0.000000e+00 0.000000e+00 0.000000e+00 0.000000e+00 0.000000e+00 0.000000e+00 0.000000e+00 0.000000e+00 0.000000e+00 0.000000e+00 0.000000e+00 0.000000e+00 0.000000e+00 0.000000e+00 0.000000e+00 0.000000e+00 0.000000e+00 0.000000e+00 0.000000e+00 0.000000e+00 0.000000e+00 0.000000e+00 0.000000e+00 6.110287e-02 6.616157e-03 5.196090e-03 3.621858e-03 3.050250e-03 4.287072e-03 4.344802e-03 3.931833e-03 3.373807e-03 2.996578e-03 2.947920e-03 2.834462e-03 2.042745e-03
<GCONST> -2.600001e+11
<TRANSP> 5
 0.000000e+00 1.000000e+00 0.000000e+00 0.000000e+00 0.000000e+00
 0.000000e+00 8.748145e-01 1.251856e-01 0.000000e+00 0.000000e+00
 0.000000e+00 0.000000e+00 8.862371e-01 1.137629e-01 0.000000e+00
 0.000000e+00 0.000000e+00 0.000000e+00 7.849262e-01 2.150738e-01
 0.000000e+00 0.000000e+00 0.000000e+00 0.000000e+00 0.000000e+00
<ENDHMM>
~o
<STREAMINFO> 1 39
<VECSIZE> 39<NULLD><MFCC_D_A><DIAGC>
~h "n"
<BEGINHMM>
<NUMSTATES> 5
<STATE> 2
<NUMMIXES> 2
<MIXTURE> 1 4.852004e-01
<MEAN> 39
 4.502057e+00 2.552559e+00 7.238564e+00 1.202095e+00 1.043871e+01 -3.672061e+00 -6.271083e+00 -5.689785e+00 -8.434999e+00 -8.212306e+00 -5.006123e+00 -6.446465e+00 -7.074565e+00 -4.751333e-02 2.419732e-01 1.715462e-01 1.086826e-01 1.209229e-01 3.212075e-01 -1.210885e-01 -2.014688e-01 2.867732e-02 1.053364e-01 -1.002440e-01 -1.606757e-01 2.363696e-03 -6.517702e-02 -1.464863e-01 -4.153414e-02 -7.038620e-02 -4.751680e-02 -1.728874e-01 1.121316e-01 8.904861e-03 6.604214e-02 2.606272e-02 3.368020e-02 1.090579e-01 4.571940e-02
<VARIANCE> 39
 2.859041e+01 4.178281e+01 3.876283e+01 7.823083e+01 9.283806e+01 9.606400e+01 6.592820e+01 7.678100e+01 1.015368e+02 8.192064e+01 5.482102e+01 6.008989e+01 6.215835e+01 3.655821e-01 1.216408e+00 1.230384e+00 1.849774e+00 1.491362e+00 2.470985e+00 2.218113e+00 1.982367e+00 1.811852e+00 2.000212e+00 1.703429e+00 1.741610e+00 1.264258e+00 6.193124e-02 2.017160e-01 1.981413e-01 2.979797e-01 2.482469e-01 4.192873e-01 3.754084e-01 3.569958e-01 3.224082e-01 3.654011e-01 2.951707e-01 2.906135e-01 2.264526e-01
<GCONST> 1.135035e+02
<MIXTURE> 2 5.147995e-01
<MEAN> 39
 4.774312e+00 5.265203e+00 8.081415e+00 2.920070e+00 1.013510e+01 -5.008577e+00 -5.691402e+00 -6.498403e+00 -1.106600e+01 -8.445321e+00 -4.543405e+00 -1.046283e+01 -9.598897e+00 -9.826095e-03 1.163885e-01 3.442451e-02 -3.142474e-02 1.912157e-02 1.058707e-01 1.186589e-02 -2.732207e-02 7.550711e-03 -1.366450e-02 -2.105899e-02 -4.715772e-03 4.358950e-02 -1.270425e-02 -4.628631e-02 -1.964058e-02 -1.537611e-02 3.542682e-03 -2.289103e-02 3.444853e-02 4.803478e-03 1.606020e-03 -1.821736e-02 -1.281036e-02 6.111437e-02 2.584266e-02
<VARIANCE> 39
 9.011777e+00 2.517051e+01 2.177062e+01 4.878257e+01 5.901708e+01 5.574994e+01 4.612278e+01 5.535928e+01 6.292213e+01 8.920564e+01 4.725614e+01 5.616230e+01 5.408531e+01 3.826839e-02 1.738846e-01 2.024340e-01 2.845918e-01 3.304553e-01 3.860553e-01 4.477727e-01 4.702346e-01 5.269834e-01 5.057690e-01 5.211703e-01 4.684148e-01 3.860618e-01 8.067805e-03 3.232744e-02 3.869759e-02 5.778865e-02 6.412096e-02 8.202874e-02 8.574484e-02 9.005167e-02 9.364719e-02 9.822181e-02 9.091605e-02 8.470897e-02 6.725913e-02
<GCONST> 6.863236e+01
<STATE> 3
<NUMMIXES> 2
<MIXTURE> 1 5.413680e-01
<MEAN> 39
 3.561750e+00 4.349735e+00 1.023931e+01 4.134443e+00 1.343284e+01 4.253049e+00 -7.600680e+00 -4.083122e+00 9.460464e-01 -3.892651e+00 -1.016803e+01 -4.948434e+00 -1.708315e+00 -5.784786e-02 8.142034e-02 7.549611e-02 -3.584671e-02 -6.584921e-02 1.745851e-02 3.330357e-02 -1.242343e-02 4.734499e-02 4.654194e-02 2.673168e-02 -2.349824e-02 -1.560835e-02 -1.587880e-02 -4.440976e-02 -3.671702e-02 -1.565252e-02 -4.126335e-02 -5.166474e-02 9.582309e-02 5.944503e-02 -3.241704e-02 -4.662525e-02 3.975030e-02 5.087952e-02 -1.559936e-02
<VARIANCE> 39
 2.154669e+01 2.418037e+01 3.546059e+01 7.848225e+01 6.754555e+01 4.740480e+01 8.917231e+01 7.012144e+01 6.145495e+01 6.364806e+01 4.368196e+01 3.411170e+01 3.773921e+01 7.797579e-02 2.722420e-01 3.413151e-01 4.365211e-01 5.819730e-01 6.530763e-01 8.436382e-01 8.122160e-01 7.878803e-01 8.358155e-01 7.114007e-01 6.470335e-01 5.364854e-01 1.494894e-02 5.137686e-02 6.670053e-02 9.298763e-02 1.078676e-01 1.391071e-01 1.702913e-01 1.550120e-01 1.554789e-01 1.666288e-01 1.375143e-01 1.333288e-01 1.036307e-01
<GCONST> 8.295998e+01
<MIXTURE> 2 4.586319e-01
<MEAN> 39
 -1.045919e+00 4.242127e+00 9.936978e+00 4.157180e+00 1.087475e+01 8.391784e-01 -2.767157e+00 -5.390211e+00 -3.984807e+00 -3.974396e+00 -5.637195e+00 -4.882720e+00 -2.811796e+00 -4.635524e-02 -4.033782e-01 -7.753967e-02 -2.483826e-02 1.152070e-01 -4.698259e-01 3.918646e-01 2.111130e-02 -1.276917e-01 -2.560743e-01 1.685831e-02 2.660525e-01 1.915951e-03 1.858390e-02 -1.999784e-01 -1.920330e-01 -8.925744e-02 8.540158e-03 -2.552569e-01 -1.386753e-02 9.787904e-02 -3.442494e-02 -8.841161e-02 1.084388e-01 1.539983e-01 -7.453394e-03
<VARIANCE> 39
 5.710981e+01 4.686790e+01 4.942122e+01 6.251667e+01 7.467327e+01 6.326947e+01 7.088170e+01 8.021612e+01 6.695724e+01 6.859552e+01 4.687556e+01 4.503219e+01 4.960378e+01 2.028438e+00 3.077539e+00 2.963416e+00 3.492580e+00 2.844573e+00 3.606372e+00 4.680262e+00 3.638702e+00 3.290243e+00 3.518397e+00 2.651081e+00 2.737637e+00 1.841934e+00 2.589974e-01 5.145410e-01 5.111394e-01 5.427920e-01 4.664803e-01 5.926170e-01 7.797884e-01 6.494602e-01 5.571834e-01 6.003358e-01 4.869593e-01 4.525606e-01 3.229507e-01
<GCONST> 1.300747e+02
<STATE> 4
<NUMMIXES> 2
<MIXTURE> 1 6.323105e-01
<MEAN> 39
 4.950752e+00 -2.229697e+00 6.858036e+00 2.907037e+00 6.164955e+00 -2.469014e+00 -3.756845e+00 -6.476599e+00 -4.942904e+00 -8.621816e+00 -5.634589e+00 -2.283490e+00 -4.805792e+00 -1.672818e-02 -1.060197e+00 -6.349877e-01 -7.057830e-01 -5.088825e-01 -1.127765e+00 9.734843e-02 3.531235e-01 -2.686273e-02 -4.079157e-02 6.415054e-01 6.465992e-01 -6.404681e-03 1.748781e-02 5.697506e-02 8.336412e-02 -5.547375e-02 -7.349287e-02 1.615618e-02 -1.613189e-01 -2.191873e-03 1.003663e-01 1.184229e-01 -1.808078e-02 -1.247034e-01 -1.792559e-02
<VARIANCE> 39
 4.337997e+01 5.665115e+01 3.850713e+01 8.941076e+01 1.509660e+02 1.192039e+02 5.708193e+01 8.258642e+01 9.402264e+01 6.264741e+01 5.368330e+01 5.086757e+01 6.084755e+01 5.742885e-01 3.021202e+00 2.182198e+00 3.063707e+00 2.864353e+00 4.236718e+00 3.536476e+00 3.185526e+00 2.977623e+00 3.380435e+00 2.654130e+00 2.629180e+00 1.849108e+00 8.038039e-02 4.554980e-01 3.219516e-01 3.926272e-01 4.184715e-01 5.734585e-01 5.486481e-01 5.240831e-01 4.577978e-01 5.354978e-01 4.056025e-01 4.056572e-01 2.871558e-01
<GCONST> 1.263142e+02
<MIXTURE> 2 3.676895e-01
<MEAN> 39
 1.351018e+01 -1.954506e+00 8.471702e+00 1.188475e+01 -3.298193e+00 7.983092e+00 -8.331656e+00 -1.124918e+01 5.450717e+00 -6.831359e+00 -1.138735e+01 -1.894368e+00 -6.831114e+00 -8.041839e-02 2.295846e-01 7.155798e-02 -1.126097e-02 4.931572e-02 -1.148134e-02 3.063558e-02 3.114360e-02 2.151289e-02 6.877984e-02 -1.226423e-02 2.464141e-02 4.889436e-02 -1.375214e-02 -6.265416e-02 1.529581e-03 6.906816e-03 -4.463428e-02 9.622593e-03 6.060921e-02 8.453525e-03 -4.213841e-02 -1.944834e-02 4.390793e-02 3.833544e-02 -1.169961e-02
<VARIANCE> 39
 1.087521e+01 5.162584e+01 1.661000e+01 2.998391e+01 5.970350e+01 3.597641e+01 3.541051e+01 3.409940e+01 9.186629e+01 7.313757e+01 4.452727e+01 3.699535e+01 2.723122e+01 1.214560e-01 4.204182e-01 2.741184e-01 3.677677e-01 5.451311e-01 5.829066e-01 6.096690e-01 5.480618e-01 7.041485e-01 5.826929e-01 6.322727e-01 4.828826e-01 4.442911e-01 1.763327e-02 8.091949e-02 4.638587e-02 6.469878e-02 1.020921e-01 1.042271e-01 9.828651e-02 9.460884e-02 1.186811e-01 1.047794e-01 9.863497e-02 8.620133e-02 8.076790e-02
<GCONST> 7.485767e+01
<TRANSP> 5
 0.000000e+00 1.000000e+00 0.000000e+00 0.000000e+00 0.000000e+00
 0.000000e+00 7.761196e-01 2.238804e-01 0.000000e+00 0.000000e+00
 0.000000e+00 0.000000e+00 8.098956e-01 1.901044e-01 0.000000e+00
 0.000000e+00 0.000000e+00 0.000000e+00 7.615736e-01 2.384265e-01
 0.000000e+00 0.000000e+00 0.000000e+00 0.000000e+00 0.000000e+00
<ENDHMM>
~o
<STREAMINFO> 1 39
<VECSIZE> 39<NULLD><MFCC_D_A><DIAGC>
~h "nd"
<BEGINHMM>
<NUMSTATES> 5
<STATE> 2
<NUMMIXES> 2
<MIXTURE> 1 4.946851e-01
<MEAN> 39
 1.367583e+01 -4.926758e+00 6.027098e+00 1.487805e+01 -4.159991e+00 7.007767e+00 -7.563922e+00 -1.230736e+01 5.152361e+00 -4.457588e+00 -1.090212e+01 -2.623570e+00 -6.970690e+00 -1.384769e-01 5.885910e-01 7.401753e-02 -1.035277e-01 2.895958e-01 1.719676e-01 -6.652795e-03 -3.686641e-02 5.504478e-02 9.389067e-02 -1.960157e-01 -9.491128e-02 6.947971e-02 -1.431115e-02 -7.543930e-02 -5.057984e-03 1.023676e-02 -4.466777e-02 -1.300086e-02 4.823525e-02 2.053840e-02 -4.599703e-02 -2.260341e-02 5.639371e-02 3.611485e-02 -9.887333e-03
<VARIANCE> 39
 3.406319e+00 4.993384e+01 1.617088e+01 2.518238e+01 2.767913e+01 2.766856e+01 3.576507e+01 2.692408e+01 3.662688e+01 3.214902e+01 3.463828e+01 3.176527e+01 2.284142e+01 9.959910e-02 6.344491e-01 3.285185e-01 4.425349e-01 6.382969e-01 6.604628e-01 6.803864e-01 6.421711e-01 8.533245e-01 6.758668e-01 8.066987e-01 6.335794e-01 5.660102e-01 1.505731e-02 9.395808e-02 5.376543e-02 6.944001e-02 1.048856e-01 1.138337e-01 1.153571e-01 1.068311e-01 1.518641e-01 1.177665e-01 1.338486e-01 1.044569e-01 9.842426e-02
<GCONST> 7.377682e+01
<MIXTURE> 2 5.053149e-01
<MEAN> 39
 1.530940e+00 3.257977e+00 3.148582e+00 1.045901e+01 1.703806e+01 5.820117e+00 -1.410377e+01 1.994447e+00 7.963609e-02 -7.315967e+00 -1.086241e+01 -3.370810e+00 -1.381512e+00 -9.905873e-02 2.717482e-01 2.164964e-01 1.293771e-01 -2.088565e-01 3.335931e-01 1.957197e-02 -2.440959e-02 5.427510e-02 1.587657e-01 -1.530093e-01 -2.375032e-01 2.314186e-02 -2.106372e-02 -1.946712e-02 -6.197537e-02 -7.342730e-02 -2.730761e-02 -1.190129e-01 1.091627e-01 5.885080e-02 -2.051622e-02 -1.908814e-02 7.673490e-02 8.274576e-02 -2.174582e-02
<VARIANCE> 39
 5.822714e+00 1.885758e+01 2.891099e+01 4.024720e+01 3.946049e+01 5.580921e+01 3.755034e+01 5.172356e+01 3.625772e+01 4.126044e+01 4.411457e+01 3.155852e+01 2.203009e+01 1.121137e-01 3.885343e-01 6.750259e-01 9.703093e-01 1.003038e+00 1.766718e+00 1.288841e+00 1.274332e+00 1.116113e+00 1.168633e+00 1.074709e+00 1.151186e+00 7.347898e-01 1.866338e-02 5.967627e-02 1.154713e-01 1.658492e-01 1.625162e-01 3.023157e-01 2.427259e-01 2.141723e-01 1.979498e-01 2.162956e-01 1.868454e-01 2.151993e-01 1.317404e-01
<GCONST> 8.891058e+01
<STATE> 3
<NUMMIXES> 2
<MIXTURE> 1 5.628577e-01
<MEAN> 39
 -5.592314e+00 3.728954e+00 5.666624e-01 8.366702e+00 8.592515e+00 3.653504e+00 -5.180015e+00 4.760565e+00 -1.805085e+00 -4.473883e+00 -5.878465e+00 -9.378367e-01 -6.707280e-01 -4.606400e-01 -3.289237e-01 -3.501814e-01 -5.309855e-01 -1.826654e-01 -7.861812e-01 3.483358e-01 7.193188e-02 -1.961220e-01 -8.321656e-02 4.188842e-01 5.803736e-01 1.865798e-01 2.629187e-02 -5.906499e-03 3.570588e-03 -3.400285e-02 3.282060e-02 -1.942421e-02 -1.510593e-01 -3.169767e-02 2.573017e-02 -6.341017e-03 1.409869e-03 2.149733e-02 3.070557e-02
<VARIANCE> 39
 6.625082e+01 6.420325e+01 4.094694e+01 5.419687e+01 8.916280e+01 7.716133e+01 5.616394e+01 5.097507e+01 4.120951e+01 5.025203e+01 4.285858e+01 4.087368e+01 2.216045e+01 2.220112e+00 4.586205e+00 2.964369e+00 3.598265e+00 3.475781e+00 5.771055e+00 4.482328e+00 3.106571e+00 2.811119e+00 3.327437e+00 3.286431e+00 3.143568e+00 1.790227e+00 3.144715e-01 7.810785e-01 5.231218e-01 5.951453e-01 6.089357e-01 8.203254e-01 7.640606e-01 5.777642e-01 5.067260e-01 5.946128e-01 5.392212e-01 5.100251e-01 3.283682e-01
<GCONST> 1.305226e+02
<MIXTURE> 2 4.371423e-01
<MEAN> 39
 2.427484e+00 3.518915e+00 4.963067e+00 1.260398e+01 1.726020e+00 8.809966e+00 -4.393813e+00 -4.558567e+00 2.626676e+00 -2.006289e+00 -9.139088e+00 -2.996134e+00 -4.027728e+00 -5.006064e-01 7.170413e-02 4.483808e-03 -8.166534e-02 -2.140227e-01 2.548485e-02 3.857923e-01 2.526524e-01 -7.979208e-02 1.138096e-01 3.336349e-01 2.250537e-01 7.713259e-02 -6.886609e-03 -1.713505e-01 -7.724393e-02 -8.828213e-03 -3.917615e-02 -7.955590e-02 4.060615e-02 4.573771e-02 -5.120587e-02 -5.719469e-02 6.715384e-02 8.402570e-02 -4.458766e-03
<VARIANCE> 39
 6.446543e+01 3.855761e+01 2.153219e+01 2.423615e+01 5.888877e+01 3.230933e+01 6.087143e+01 6.947279e+01 3.829740e+01 3.255090e+01 3.299879e+01 2.822687e+01 2.541884e+01 3.034176e-01 7.266771e-01 6.992477e-01 7.306447e-01 9.940083e-01 1.066091e+00 1.262567e+00 1.273334e+00 1.335295e+00 1.231689e+00 1.156408e+00 1.089120e+00 9.205542e-01 3.670345e-02 1.956444e-01 1.312749e-01 1.519824e-01 2.097483e-01 2.214494e-01 2.464700e-01 2.417050e-01 2.638541e-01 2.413102e-01 2.311916e-01 2.231607e-01 1.849533e-01
<GCONST> 9.570194e+01
<STATE> 4
<NUMMIXES> 2
<MIXTURE> 1 5.357540e-01
<MEAN> 39
 9.533925e+00 -1.177412e+01 5.123431e+00 1.336110e+01 -8.491403e+00 6.961651e+00 -5.134064e+00 -1.221573e+01 1.886145e+00 -6.803241e+00 -6.927273e+00 1.130066e+00 -8.735527e+00 -5.381287e-02 -1.857351e+00 -1.428605e-01 -7.524341e-02 -1.067058e+00 -8.511401e-02 1.097885e-01 1.798184e-02 2.102779e-02 -4.522621e-01 5.468025e-01 6.410808e-01 -2.373880e-01 3.481258e-02 1.040095e-01 2.212013e-02 -8.003128e-02 8.289305e-03 -2.320758e-02 -1.393745e-01 -4.127866e-02 6.766783e-02 5.961949e-03 -6.093429e-02 -3.040260e-02 4.254569e-02
<VARIANCE> 39
 5.008848e+01 1.137177e+02 3.659951e+01 3.565631e+01 6.923129e+01 5.160950e+01 4.797900e+01 5.034550e+01 5.253621e+01 4.361749e+01 4.105152e+01 3.804224e+01 3.259118e+01 9.051467e-01 8.243757e+00 2.377089e+00 1.871667e+00 3.787825e+00 3.025251e+00 2.816379e+00 2.697858e+00 3.024980e+00 2.852924e+00 1.887946e+00 1.871083e+00 1.583388e+00 1.213805e-01 1.601383e+00 4.084381e-01 2.808726e-01 7.107020e-01 4.645748e-01 4.438079e-01 4.765912e-01 5.565944e-01 4.459245e-01 2.985567e-01 3.283794e-01 2.815447e-01
<GCONST> 1.224419e+02
<MIXTURE> 2 4.642460e-01
<MEAN> 39
 -1.194680e+01 5.258155e+00 -2.183189e+00 4.122131e+00 6.151464e+00 2.682150e+00 -7.797069e+00 5.015953e+00 -1.782246e+00 -4.013116e+00 -3.737738e+00 1.596451e+00 8.034975e-01 -1.033414e-01 2.273228e-04 -1.204070e-01 -2.170364e-01 -3.223699e-02 -1.738894e-01 -2.006485e-01 4.122784e-02 -6.205519e-04 1.074518e-01 1.531654e-01 1.814476e-01 9.377809e-02 3.756233e-02 -2.149708e-02 6.423503e-02 1.073475e-01 -3.893926e-02 8.167310e-02 7.077344e-02 -5.427759e-02 3.338393e-02 7.497713e-02 -7.525862e-02 -1.021459e-01 -6.438978e-02
<VARIANCE> 39
 2.176022e+02 8.957584e+01 4.283561e+01 4.425539e+01 1.059332e+02 9.574267e+01 6.500517e+01 4.309131e+01 3.063043e+01 6.002134e+01 3.879327e+01 3.019683e+01 1.745329e+01 4.542151e-01 4.940099e-01 6.756330e-01 8.527853e-01 9.161919e-01 1.328794e+00 1.421812e+00 1.148766e+00 1.135607e+00 1.223597e+00 1.281749e+00 1.181547e+00 8.695892e-01 1.138063e-01 1.044388e-01 1.349490e-01 1.488960e-01 1.682520e-01 2.598485e-01 2.617315e-01 2.131346e-01 2.213890e-01 2.483429e-01 2.344859e-01 2.275242e-01 1.585265e-01
<GCONST> 1.009232e+02
<TRANSP> 5
 0.000000e+00 1.000000e+00 0.000000e+00 0.000000e+00 0.000000e+00
 0.000000e+00 8.958747e-01 1.041254e-01 0.000000e+00 0.000000e+00
 0.000000e+00 0.000000e+00 8.598129e-01 1.401871e-01 0.000000e+00
 0.000000e+00 0.000000e+00 0.000000e+00 7.561751e-01 2.438249e-01
 0.000000e+00 0.000000e+00 0.000000e+00 0.000000e+00 0.000000e+00
<ENDHMM>
~o
<STREAMINFO> 1 39
<VECSIZE> 39<NULLD><MFCC_D_A><DIAGC>
~h "ng"
<BEGINHMM>
<NUMSTATES> 5
<STATE> 2
<NUMMIXES> 2
<MIXTURE> 1 5.712398e-01
<MEAN> 39
 1.412622e+01 -3.137592e+00 6.991466e+00 1.113663e+01 -5.394366e+00 6.673516e+00 -9.888218e+00 -7.774198e+00 8.256654e+00 -1.144094e+01 -1.449479e+01 -1.733732e+00 -7.911828e+00 -1.139078e-01 4.990381e-01 1.081533e-01 2.869125e-02 3.637760e-01 -1.214549e-01 -3.413717e-01 4.329503e-02 1.324345e-01 -2.420389e-02 -1.889226e-01 -1.011480e-01 5.892269e-02 -2.038225e-02 -1.947043e-02 1.935751e-02 2.167896e-02 -3.727034e-02 4.434062e-03 7.379057e-02 -2.418301e-02 -5.743565e-02 6.356826e-02 5.717180e-02 -1.504071e-02 1.348857e-02
<VARIANCE> 39
 2.028363e+00 1.796953e+01 1.091697e+01 1.354642e+01 2.108965e+01 1.881071e+01 3.015158e+01 2.714256e+01 3.394757e+01 3.101869e+01 2.731885e+01 2.151274e+01 1.989886e+01 5.019937e-02 1.476911e-01 1.471325e-01 2.545297e-01 3.607550e-01 3.909430e-01 5.017087e-01 4.169602e-01 5.106587e-01 5.044158e-01 4.174834e-01 3.822742e-01 3.414623e-01 8.663807e-03 2.397675e-02 2.543719e-02 4.261092e-02 6.274321e-02 6.989902e-02 8.115245e-02 7.017784e-02 9.106660e-02 8.466557e-02 7.237472e-02 6.726817e-02 6.189696e-02
<GCONST> 5.443148e+01
<MIXTURE> 2 4.287603e-01
<MEAN> 39
 7.914360e+00 -3.458335e+00 6.084015e+00 5.903075e+00 -4.060740e-01 -1.989820e+00 -8.903669e+00 -3.412969e+00 4.133657e-01 -1.085982e+01 -8.325782e+00 -2.044394e+00 -7.257707e+00 4.041753e-02 5.743545e-01 2.171310e-01 2.434509e-01 1.401365e-01 5.152033e-01 -2.933996e-01 -7.205073e-02 1.789123e-01 7.232435e-02 -3.687606e-01 -3.780067e-01 5.176084e-02 2.302940e-03 -3.530993e-02 -4.243942e-02 -1.781626e-02 6.457644e-03 -5.788676e-02 -1.367327e-02 2.772708e-02 -3.248163e-03 -2.789060e-02 4.692667e-02 5.501236e-02 -2.829625e-02
<VARIANCE> 39
 4.901220e+01 1.090761e+02 3.858178e+01 7.897021e+01 2.128496e+02 1.322691e+02 8.002701e+01 7.898292e+01 5.170824e+01 7.012765e+01 4.608501e+01 4.802925e+01 3.784690e+01 3.341216e-01 1.217009e+00 7.455087e-01 1.465600e+00 1.761805e+00 1.972735e+00 2.084590e+00 1.882981e+00 1.829474e+00 1.808628e+00 1.689293e+00 1.367033e+00 1.112138e+00 4.961780e-02 1.304880e-01 9.248615e-02 1.652223e-01 2.116616e-01 2.728789e-01 2.609445e-01 2.580464e-01 2.474933e-01 2.548943e-01 2.317642e-01 1.983015e-01 1.680139e-01
<GCONST> 1.083561e+02
<STATE> 3
<NUMMIXES> 2
<MIXTURE> 1 5.761937e-01
<MEAN> 39
 1.714542e+00 4.575911e+00 7.489676e+00 1.281491e+01 1.382323e+01 3.470719e+00 -1.923917e+01 -1.492334e+00 2.873908e+00 -2.837291e+00 -1.158874e+01 -6.306833e+00 -2.948603e+00 -1.354112e-01 2.593494e-01 2.274107e-01 1.766046e-01 -1.273423e-01 3.557572e-01 2.207762e-03 5.113608e-02 6.562959e-02 3.113480e-02 3.229380e-03 -1.450078e-01 -1.130152e-01 -4.839579e-02 3.890241e-03 -1.629489e-02 -9.161346e-02 1.939144e-02 -1.203512e-02 1.289798e-01 3.711360e-02 -2.807614e-02 -2.095585e-02 4.744792e-02 6.240403e-02 -3.619256e-02
<VARIANCE> 39
 5.867977e+00 1.406393e+01 2.295721e+01 2.618801e+01 3.393825e+01 3.592920e+01 3.212769e+01 3.068355e+01 2.676792e+01 3.415610e+01 3.123028e+01 2.150455e+01 2.219630e+01 9.731172e-02 2.143979e-01 3.563600e-01 5.795209e-01 6.479440e-01 7.738529e-01 9.162714e-01 8.384696e-01 8.414688e-01 8.112249e-01 7.639455e-01 7.032822e-01 6.021398e-01 1.707388e-02 3.509939e-02 6.494548e-02 1.159138e-01 1.186752e-01 1.395019e-01 1.997650e-01 1.502085e-01 1.604836e-01 1.549806e-01 1.409425e-01 1.361313e-01 1.120482e-01
<GCONST> 7.525246e+01
<MIXTURE> 2 4.238063e-01
<MEAN> 39
 7.279527e+00 5.395362e+00 8.209553e+00 -1.805797e+00 -1.909088e+00 -9.511702e+00 -1.100788e+01 -5.799896e-01 -2.984629e+00 -1.905685e+01 -1.112371e+01 -7.783379e+00 -1.119799e+01 -6.030916e-02 -4.050474e-03 1.816240e-02 -1.553732e-02 -3.939996e-02 4.382970e-02 1.357890e-01 -6.967216e-02 -1.541664e-01 8.950593e-02 1.943450e-01 7.021337e-02 2.584654e-02 -4.164143e-02 -1.119477e-01 -2.733799e-02 6.211029e-03 3.220096e-03 2.183370e-02 1.706051e-01 -1.273262e-01 -1.226899e-01 1.198525e-01 9.087222e-02 2.713867e-02 2.664886e-02
<VARIANCE> 39
 2.896325e+01 4.116339e+01 2.413631e+01 5.513740e+01 6.057792e+01 1.015389e+02 3.460992e+01 5.853294e+01 4.837433e+01 4.194247e+01 4.112611e+01 2.718741e+01 3.034239e+01 1.799863e-01 4.573646e-01 3.784427e-01 5.117742e-01 5.796773e-01 8.283119e-01 8.831378e-01 1.056388e+00 9.821901e-01 1.071369e+00 8.977178e-01 6.646973e-01 5.970511e-01 3.369559e-02 1.025374e-01 6.497120e-02 9.084363e-02 1.192269e-01 1.781285e-01 1.812709e-01 1.970444e-01 1.863063e-01 1.739655e-01 1.533679e-01 1.177156e-01 1.153437e-01
<GCONST> 8.682886e+01
<STATE> 4
<NUMMIXES> 2
<MIXTURE> 1 3.863338e-01
<MEAN> 39
 1.291293e+01 -9.913307e+00 6.595924e+00 1.201601e+01 -8.378398e+00 8.178153e+00 -7.540133e+00 -1.342793e+01 1.918914e-01 -1.125303e+01 -8.535698e+00 -9.958953e-01 -8.782502e+00 3.859028e-02 -1.508924e+00 -2.333696e-01 9.673066e-02 -7.534274e-01 2.439811e-01 4.507725e-01 -5.897250e-01 -8.168801e-01 -8.256721e-02 8.518109e-01 4.511748e-01 -7.592390e-02 4.513093e-02 -8.559310e-02 -4.269192e-02 -3.581503e-02 -4.757262e-02 -1.363067e-01 -1.690317e-01 4.055163e-02 5.938993e-02 -1.017479e-01 -9.315967e-03 3.510496e-02 -1.321272e-02
<VARIANCE> 39
 8.106790e+00 9.339855e+01 2.761621e+01 4.068255e+01 3.868528e+01 5.425314e+01 6.056190e+01 4.890985e+01 5.443970e+01 4.753006e+01 5.045405e+01 3.179291e+01 2.890585e+01 3.476744e-01 6.202006e+00 1.456279e+00 1.118269e+00 1.934120e+00 5.308614e+00 5.852503e+00 2.199126e+00 2.794046e+00 1.818871e+00 1.821340e+00 1.412917e+00 1.189276e+00 5.294280e-02 1.340454e+00 2.749533e-01 1.717440e-01 3.609421e-01 9.381498e-01 9.784456e-01 3.568524e-01 4.446613e-01 2.895696e-01 3.171147e-01 2.616957e-01 2.102786e-01
<GCONST> 1.145291e+02
<MIXTURE> 2 6.136662e-01
<MEAN> 39
 -6.773345e-01 4.143396e+00 4.747203e+00 4.349532e+00 1.150146e+01 -3.398096e+00 -7.837336e+00 7.772092e-01 -4.059871e+00 -9.079679e+00 -7.098269e+00 -2.363389e+00 -5.300720e+00 -1.540673e-01 -5.917630e-01 -6.246123e-01 -5.192189e-01 2.429036e-01 -7.663350e-01 8.217576e-01 1.080792e-01 -6.851595e-01 -3.202432e-01 3.963290e-01 7.872607e-01 1.393920e-01 8.221471e-02 -9.067471e-02 -8.293433e-02 1.855043e-02 3.816555e-02 -1.265219e-01 -1.456538e-01 6.693902e-03 1.314285e-02 -2.716624e-02 -4.627359e-02 4.761299e-02 2.652188e-02
<VARIANCE> 39
 1.935677e+01 3.549894e+01 4.239270e+01 9.280431e+01 7.724796e+01 1.188486e+02 8.609002e+01 5.218596e+01 6.976381e+01 6.534090e+01 5.083498e+01 5.017497e+01 2.622311e+01 1.083174e+00 1.699181e+00 1.558658e+00 3.095009e+00 2.081098e+00 2.975044e+00 8.043567e+00 2.886797e+00 2.495526e+00 2.614070e+00 2.379877e+00 1.900743e+00 1.393605e+00 1.566741e-01 2.850475e-01 2.611090e-01 5.671523e-01 3.284380e-01 4.515580e-01 1.424507e+00 4.835329e-01 4.302385e-01 3.938856e-01 3.621255e-01 3.193651e-01 2.346399e-01
<GCONST> 1.217443e+02
<TRANSP> 5
 0.000000e+00 1.000000e+00 0.000000e+00 0.000000e+00 0.000000e+00
 0.000000e+00 8.447515e-01 1.552486e-01 0.000000e+00 0.000000e+00
 0.000000e+00 0.000000e+00 8.412047e-01 1.587953e-01 0.000000e+00
 0.000000e+00 0.000000e+00 0.000000e+00 8.290462e-01 1.709538e-01
 0.000000e+00 0.000000e+00 0.000000e+00 0.000000e+00 0.000000e+00
<ENDHMM>
~o
<STREAMINFO> 1 39
<VECSIZE> 39<NULLD><MFCC_D_A><DIAGC>
~h "nj"
<BEGINHMM>
<NUMSTATES> 5
<STATE> 2
<NUMMIXES> 2
<MIXTURE> 1 6.448376e-01
<MEAN> 39
 2.500529e+00 4.883284e+00 9.640644e+00 7.663284e+00 8.983262e+00 1.102280e+00 -1.110930e+01 -4.794134e+00 -1.288087e+00 -5.336167e+00 -8.651181e+00 -5.994543e+00 -4.689224e+00 -8.037093e-03 3.616399e-01 2.282659e-01 1.904264e-01 -7.341486e-02 2.493188e-01 -1.645973e-01 1.039757e-01 1.836264e-01 -2.358938e-02 -1.693905e-01 -2.100465e-01 6.134257e-02 -2.933799e-02 -8.245458e-02 -2.934181e-02 -2.555616e-02 -3.167558e-02 -6.560107e-02 9.943750e-02 4.022849e-02 -2.891495e-02 -3.393753e-02 8.488162e-02 6.642201e-02 -4.307508e-02
<VARIANCE> 39
 2.984620e+01 6.743415e+01 3.440329e+01 6.486826e+01 9.630917e+01 1.111856e+02 7.206052e+01 3.914428e+01 4.361893e+01 6.400179e+01 5.133936e+01 4.753320e+01 6.246100e+01 3.205257e-01 9.356377e-01 8.799419e-01 1.011097e+00 1.131665e+00 1.602336e+00 1.676275e+00 1.622988e+00 1.393007e+00 1.544790e+00 1.534638e+00 1.262773e+00 1.005133e+00 5.129976e-02 1.324087e-01 1.310566e-01 1.649362e-01 1.886846e-01 2.602298e-01 2.799097e-01 2.472048e-01 2.361487e-01 2.447439e-01 2.395605e-01 1.899032e-01 1.721881e-01
<GCONST> 1.035840e+02
<MIXTURE> 2 3.551624e-01
<MEAN> 39
 2.709807e+00 8.928315e+00 1.147999e+01 -1.502002e+00 5.525277e+00 -1.202266e+01 -1.337622e+01 -2.554715e-01 -4.602529e+00 -1.768139e+01 -1.319073e+01 -1.517253e+01 -1.372431e+01 -3.641024e-02 1.717343e-01 7.861748e-02 2.967181e-02 -1.046537e-01 -5.441139e-03 -2.671677e-02 6.079637e-02 1.669364e-01 -1.932618e-01 -2.864245e-01 5.561825e-02 9.325963e-02 -4.810160e-02 -6.521460e-02 -1.482642e-02 1.193514e-02 -1.650132e-02 -1.109369e-02 1.465435e-01 -1.707742e-01 -4.778483e-02 1.308504e-01 6.270327e-02 7.036697e-02 2.437993e-02
<VARIANCE> 39
 2.806140e+00 1.555293e+01 1.314208e+01 1.840736e+01 2.262506e+01 2.127437e+01 3.199649e+01 3.318005e+01 3.093358e+01 4.198512e+01 4.848846e+01 2.774301e+01 2.260729e+01 5.275457e-02 2.340834e-01 2.735551e-01 3.459295e-01 4.041417e-01 4.254854e-01 6.606404e-01 7.842113e-01 6.592637e-01 7.675110e-01 6.076438e-01 6.638942e-01 4.363255e-01 1.427971e-02 5.345663e-02 5.262011e-02 7.491710e-02 9.308103e-02 1.030196e-01 1.470128e-01 1.566586e-01 1.284100e-01 1.334793e-01 1.117656e-01 1.170488e-01 9.097067e-02
<GCONST> 6.805726e+01
<STATE> 3
<NUMMIXES> 2
<MIXTURE> 1 5.768365e-01
<MEAN> 39
 -1.650130e+00 4.293084e+00 1.251531e+01 7.997261e+00 8.073728e+00 -5.246037e-01 -5.022378e+00 -3.656913e+00 -1.169887e+00 -5.260289e+00 -6.472120e+00 -5.230941e+00 -5.362416e+00 -2.457572e-01 -1.055694e+00 5.425199e-02 6.005565e-02 -8.472940e-02 -6.629400e-01 5.229853e-01 -3.181231e-01 -3.388248e-01 -7.298808e-02 3.639769e-01 1.593710e-01 -1.386185e-01 1.520792e-02 -1.310300e-01 -6.702862e-02 -3.907461e-02 5.318189e-02 -1.073812e-01 -1.160357e-01 4.202005e-03 -2.860112e-02 -1.644950e-02 3.863433e-02 3.098836e-02 1.592401e-03
<VARIANCE> 39
 3.918433e+01 6.900724e+01 3.661243e+01 5.426512e+01 7.157546e+01 9.625215e+01 7.617765e+01 5.381805e+01 4.801081e+01 6.558137e+01 4.535140e+01 4.882023e+01 3.880204e+01 1.803826e+00 4.185937e+00 2.995981e+00 3.165112e+00 2.961892e+00 4.166068e+00 5.236826e+00 3.490489e+00 2.493116e+00 2.927037e+00 2.647161e+00 2.256471e+00 1.742612e+00 2.675167e-01 6.951686e-01 5.092847e-01 5.361979e-01 4.958111e-01 6.914724e-01 8.867679e-01 5.816731e-01 4.441610e-01 4.559211e-01 3.934963e-01 3.435938e-01 2.966835e-01
<GCONST> 1.282403e+02
<MIXTURE> 2 4.231635e-01
<MEAN> 39
 1.295004e+01 -1.990565e+00 1.135198e+01 1.051720e+01 -6.057696e+00 5.887888e+00 -1.010513e+01 -1.137384e+01 1.444680e+00 -1.270348e+01 -1.434898e+01 -7.786644e+00 -1.003824e+01 -9.293678e-02 2.690157e-01 1.644063e-01 -4.434790e-02 4.908991e-03 -1.315278e-02 2.359147e-02 2.516896e-02 3.590895e-02 -1.700219e-02 -1.722138e-01 -5.740685e-02 3.323376e-02 -9.219238e-03 -9.527378e-02 1.038478e-02 5.471010e-02 -4.705711e-02 -1.766123e-03 5.385786e-02 9.632568e-03 -1.593223e-02 1.461344e-02 6.699349e-02 4.784431e-02 -4.166522e-02
<VARIANCE> 39
 3.856699e+00 2.329041e+01 2.029645e+01 2.178050e+01 2.279533e+01 2.924805e+01 4.529770e+01 3.117255e+01 4.292793e+01 9.096780e+01 3.922691e+01 2.936979e+01 2.970384e+01 1.036110e-01 3.492112e-01 2.670597e-01 3.809765e-01 4.285590e-01 5.403163e-01 4.986794e-01 4.888597e-01 5.781164e-01 5.797477e-01 5.508767e-01 4.750876e-01 4.293715e-01 1.962212e-02 7.488119e-02 4.759888e-02 7.101423e-02 9.162906e-02 9.864736e-02 9.496345e-02 9.101721e-02 1.042438e-01 1.084253e-01 8.732623e-02 8.894771e-02 7.543494e-02
<GCONST> 6.937938e+01
<STATE> 4
<NUMMIXES> 2
<MIXTURE> 1 6.193125e-01
<MEAN> 39
 1.028075e+01 -1.288878e+01 1.373863e+01 1.291313e+01 -1.063704e+01 3.015265e+00 -1.051210e+01 -9.272548e+00 1.731557e+00 -1.466234e+01 -7.812191e+00 -3.781766e+00 -1.403609e+01 -1.313824e-01 -1.218131e+00 -2.753857e-02 8.111192e-02 -5.507110e-01 -1.762661e-01 1.277021e-02 -2.771645e-02 9.013085e-02 -2.377615e-02 5.405732e-01 4.540587e-01 -2.427453e-01 1.725942e-02 3.638613e-02 -6.293325e-02 -6.635727e-02 3.109851e-02 -2.954077e-03 -4.337660e-02 -9.599536e-03 -1.934156e-02 8.019480e-03 4.517408e-03 -5.125827e-03 2.411142e-02
<VARIANCE> 39
 5.360118e+01 1.147594e+02 5.651950e+01 4.958639e+01 6.452203e+01 8.099206e+01 6.030843e+01 4.255379e+01 4.687903e+01 6.013706e+01 5.901341e+01 4.074115e+01 4.006900e+01 1.196394e+00 4.081296e+00 2.274762e+00 1.764822e+00 2.229019e+00 2.915065e+00 2.342601e+00 1.784886e+00 1.712513e+00 1.735224e+00 1.473653e+00 1.255965e+00 1.251955e+00 1.512755e-01 5.907288e-01 2.923045e-01 2.467913e-01 3.750200e-01 4.103101e-01 3.571459e-01 2.759851e-01 2.797883e-01 2.719341e-01 2.224235e-01 2.094979e-01 1.860853e-01
<GCONST> 1.158219e+02
<MIXTURE> 2 3.806876e-01
<MEAN> 39
 7.986883e-01 -2.793469e+00 4.055068e+00 2.384333e+00 1.088714e+01 -1.595118e+01 -9.973896e+00 -5.408926e+00 -6.926043e+00 -7.952407e+00 -2.742266e+00 -4.678221e+00 -8.477713e+00 1.703769e-01 -3.709843e-01 -7.981473e-01 -6.735662e-01 5.414159e-02 -6.422171e-01 -1.553994e-01 1.988008e-01 -1.845535e-01 -3.992972e-03 4.756051e-01 5.521997e-01 5.975723e-02 -9.899956e-03 9.672721e-02 2.898581e-02 -8.035121e-02 -5.190688e-02 1.995320e-01 1.440018e-01 3.425548e-02 4.790647e-02 -3.596259e-02 -8.568133e-02 2.389571e-02 3.080674e-02
<VARIANCE> 39
 9.078952e+00 3.836557e+01 4.360814e+01 6.360629e+01 1.041817e+02 1.081912e+02 7.833575e+01 4.377275e+01 4.398346e+01 6.020568e+01 4.762598e+01 8.173207e+01 5.883461e+01 1.580081e-01 6.745912e-01 6.551996e-01 1.306109e+00 1.275327e+00 2.599120e+00 1.752467e+00 1.489350e+00 1.622001e+00 1.614136e+00 1.536328e+00 1.120704e+00 1.123707e+00 2.352860e-02 7.751360e-02 8.667944e-02 1.638183e-01 1.665535e-01 2.938957e-01 2.637431e-01 2.522829e-01 2.238973e-01 2.590835e-01 2.209582e-01 1.880653e-01 1.505378e-01
<GCONST> 1.003273e+02
<TRANSP> 5
 0.000000e+00 1.000000e+00 0.000000e+00 0.000000e+00 0.000000e+00
 0.000000e+00 8.560609e-01 1.439391e-01 0.000000e+00 0.000000e+00
 0.000000e+00 0.000000e+00 8.582612e-01 1.417388e-01 0.000000e+00
 0.000000e+00 0.000000e+00 0.000000e+00 8.322633e-01 1.677367e-01
 0.000000e+00 0.000000e+00 0.000000e+00 0.000000e+00 0.000000e+00
<ENDHMM>
~o
<STREAMINFO> 1 39
<VECSIZE> 39<NULLD><MFCC_D_A><DIAGC>
~h "nn"
<BEGINHMM>
<NUMSTATES> 5
<STATE> 2
<NUMMIXES> 2
<MIXTURE> 1 4.107218e-01
<MEAN> 39
 4.385409e+00 2.182720e+00 4.403735e+00 2.321899e-02 7.865315e+00 -1.302095e+01 -7.732693e+00 -6.449234e+00 -1.187763e+01 -1.069178e+01 -1.543093e+00 -9.181737e+00 -1.564691e+01 9.790409e-02 9.833937e-01 9.224721e-01 7.102072e-01 -1.408005e-01 1.438348e+00 -7.836173e-01 -2.509091e-01 3.305131e-01 -6.153232e-01 -6.267027e-01 -6.518946e-01 -2.152184e-01 -6.076534e-02 -9.393156e-02 -1.342361e-01 -1.470630e-01 -9.832608e-03 -2.745572e-01 3.008547e-02 7.380378e-02 8.570573e-02 6.244637e-02 3.634412e-02 4.645574e-02 4.736094e-02
<VARIANCE> 39
 2.025904e+01 3.707197e+01 3.720787e+01 3.723419e+01 5.098726e+01 7.881161e+01 4.385236e+01 3.317773e+01 3.599455e+01 4.606524e+01 4.991078e+01 3.565866e+01 2.773284e+01 3.484360e-01 8.943216e-01 1.468686e+00 1.829021e+00 1.615401e+00 3.716346e+00 1.891611e+00 2.277257e+00 2.262091e+00 2.200117e+00 2.151503e+00 1.484226e+00 1.725182e+00 4.548072e-02 1.475024e-01 2.460613e-01 2.541615e-01 2.427105e-01 7.651378e-01 3.500141e-01 3.152545e-01 3.518551e-01 3.991556e-01 3.946095e-01 2.409179e-01 2.407316e-01
<GCONST> 1.083159e+02
<MIXTURE> 2 5.892782e-01
<MEAN> 39
 1.287606e+01 -3.927557e+00 1.135009e+01 8.072590e+00 -3.351629e+00 4.708465e+00 -1.604293e+01 -1.428784e+01 -7.346981e+00 -1.885250e+01 -8.221067e+00 -1.196880e+01 -1.632450e+01 -1.004699e-01 2.425894e-01 1.569510e-01 2.511702e-02 5.286655e-02 1.119879e-01 6.930666e-02 2.211593e-02 1.574280e-01 4.672923e-02 -2.275150e-01 1.376125e-03 2.078030e-01 1.888178e-02 -7.509433e-02 -4.072846e-02 1.798423e-03 -8.581293e-02 -6.937509e-03 9.326038e-02 7.192548e-02 5.198463e-02 4.212586e-02 5.635859e-02 9.858311e-02 -6.401900e-03
<VARIANCE> 39
 4.797262e+00 1.570724e+01 1.463155e+01 1.846591e+01 2.193924e+01 2.351669e+01 1.854239e+01 2.604901e+01 2.360864e+01 3.766826e+01 5.190974e+01 2.459714e+01 3.174435e+01 1.829621e-01 6.043262e-01 4.074461e-01 5.303366e-01 5.837616e-01 6.955034e-01 7.786270e-01 6.430801e-01 7.877739e-01 7.910619e-01 7.912941e-01 6.814168e-01 6.192631e-01 3.603362e-02 1.173537e-01 8.619042e-02 1.034240e-01 1.161730e-01 1.522151e-01 1.364076e-01 1.271841e-01 1.519932e-01 1.545813e-01 1.522017e-01 1.156944e-01 1.189992e-01
<GCONST> 7.633339e+01
<STATE> 3
<NUMMIXES> 2
<MIXTURE> 1 3.212584e-01
<MEAN> 39
 8.235277e+00 -4.449848e+00 1.113267e+01 9.525926e+00 -5.754965e+00 7.793997e+00 -9.680770e+00 -9.476789e+00 -1.742215e+00 -1.489309e+01 -5.723916e+00 -4.042285e+00 -1.210997e+01 -6.930118e-01 2.664815e-02 2.480014e-02 -1.310701e-02 -1.998294e-01 3.831712e-01 5.851453e-01 4.007754e-01 5.893770e-01 3.631389e-01 -3.126882e-02 5.181712e-01 3.692157e-01 -3.945926e-02 -3.610919e-02 -4.205880e-02 -2.099510e-02 2.504321e-02 -2.689121e-02 5.264520e-03 3.337106e-02 1.440398e-03 3.889703e-02 4.140095e-02 -1.910875e-02 -2.976285e-03
<VARIANCE> 39
 4.997294e+01 5.356218e+01 3.774347e+01 3.134758e+01 3.697148e+01 4.817309e+01 3.864941e+01 4.196497e+01 4.323074e+01 4.573221e+01 4.394971e+01 4.182460e+01 3.028045e+01 9.471989e-01 2.893756e+00 1.824315e+00 1.676298e+00 2.090056e+00 2.276241e+00 1.792044e+00 2.053608e+00 2.339672e+00 2.163941e+00 1.999550e+00 1.877784e+00 1.523682e+00 1.230501e-01 5.137640e-01 3.079665e-01 2.913468e-01 3.776677e-01 4.167333e-01 3.263465e-01 3.641003e-01 4.289507e-01 3.865193e-01 3.406911e-01 3.292984e-01 2.749895e-01
<GCONST> 1.139661e+02
<MIXTURE> 2 6.787416e-01
<MEAN> 39
 3.358802e+00 7.013754e+00 8.167849e+00 2.159389e-01 6.751740e+00 -1.096778e+01 -1.151248e+01 -5.550204e+00 -9.815330e+00 -1.372539e+01 -6.102776e+00 -1.384935e+01 -1.705315e+01 -6.766830e-02 1.918782e-01 7.699937e-02 4.428291e-02 -3.169515e-02 2.322474e-02 -7.069797e-02 1.657707e-02 1.674288e-01 -6.368770e-02 -1.327675e-01 -6.767855e-03 -9.617919e-03 -2.258530e-02 -8.743462e-03 -3.651672e-02 -1.620773e-02 1.338664e-02 -4.575175e-03 1.083361e-01 -3.702973e-02 -2.939417e-02 2.660061e-02 -1.694250e-03 9.772901e-02 5.509450e-02
<VARIANCE> 39
 2.741932e+00 1.584864e+01 1.712275e+01 2.225842e+01 3.040821e+01 2.368983e+01 3.469450e+01 3.332986e+01 3.449118e+01 3.315914e+01 4.643596e+01 3.336937e+01 2.880879e+01 4.737330e-02 2.555139e-01 2.699696e-01 3.595260e-01 4.323221e-01 4.380755e-01 6.214060e-01 5.899742e-01 6.491419e-01 6.442834e-01 6.281615e-01 6.584191e-01 4.605040e-01 9.708170e-03 4.383009e-02 5.472513e-02 7.534491e-02 8.346536e-02 9.969745e-02 1.257964e-01 1.125605e-01 1.228357e-01 1.266683e-01 1.205817e-01 1.091314e-01 9.097002e-02
<GCONST> 6.763869e+01
<STATE> 4
<NUMMIXES> 2
<MIXTURE> 1 5.154878e-01
<MEAN> 39
 -6.984150e+00 6.497149e+00 6.556408e+00 2.647050e+00 6.021156e+00 -5.873864e+00 -1.361306e+00 -7.526800e+00 -3.775169e+00 -6.785738e+00 -5.693692e+00 -2.751030e+00 -9.611351e+00 -9.040274e-01 -3.326591e-01 -1.716799e-01 -1.586365e-01 -9.176439e-02 3.127397e-01 7.716445e-01 2.176497e-01 5.474209e-01 6.525938e-01 5.266290e-02 5.398946e-01 5.589067e-01 8.274421e-02 -8.866035e-02 -1.309850e-02 -2.906528e-02 -4.261348e-03 -1.601345e-02 -1.024702e-01 4.755658e-02 -3.257538e-02 -6.807803e-02 2.888732e-02 -9.656408e-02 -8.930541e-02
<VARIANCE> 39
 7.205599e+01 7.084997e+01 5.287708e+01 4.099516e+01 3.997215e+01 6.016319e+01 4.140744e+01 3.627940e+01 3.861131e+01 4.113729e+01 4.098186e+01 3.140716e+01 3.220674e+01 1.957626e+00 3.316642e+00 2.544277e+00 2.091575e+00 2.098167e+00 2.397489e+00 2.534554e+00 2.614350e+00 2.349195e+00 2.183203e+00 2.569537e+00 2.002293e+00 1.918661e+00 2.626947e-01 5.752350e-01 4.561187e-01 3.742287e-01 3.641244e-01 4.316036e-01 4.475195e-01 4.657089e-01 4.576414e-01 3.911522e-01 4.720145e-01 3.649854e-01 3.260893e-01
<GCONST> 1.202969e+02
<MIXTURE> 2 4.845122e-01
<MEAN> 39
 1.659384e+00 9.240129e+00 7.288688e+00 2.641127e-01 6.026529e+00 -9.464291e+00 -8.659068e+00 -6.494979e+00 -8.943406e+00 -1.522228e+01 -8.928991e+00 -1.143449e+01 -1.558264e+01 -5.473866e-01 4.762795e-01 -4.508128e-03 1.541771e-01 -4.179639e-02 3.215981e-01 8.753899e-01 -7.701734e-02 4.575265e-01 2.716886e-01 -3.221199e-01 6.866720e-01 4.835405e-01 -1.626220e-01 -1.393127e-01 -1.650401e-02 6.292183e-02 1.800558e-02 1.081662e-02 1.873835e-01 -4.572488e-02 4.971559e-02 1.987943e-01 8.805820e-02 1.425598e-01 1.391056e-01
<VARIANCE> 39
 1.036366e+01 2.090035e+01 1.978998e+01 2.598951e+01 3.278316e+01 2.668572e+01 4.384817e+01 4.107153e+01 3.191705e+01 3.727773e+01 5.542978e+01 3.070818e+01 3.467432e+01 4.385858e-01 9.653773e-01 8.621993e-01 1.048848e+00 1.157606e+00 1.169671e+00 1.780369e+00 1.753468e+00 1.560519e+00 2.109513e+00 1.887841e+00 1.563949e+00 1.269742e+00 5.518827e-02 2.206673e-01 1.538677e-01 1.916827e-01 2.447756e-01 2.424617e-01 3.459028e-01 3.213557e-01 2.623889e-01 3.164133e-01 3.435085e-01 2.559257e-01 2.319945e-01
<GCONST> 9.929592e+01
<TRANSP> 5
 0.000000e+00 1.000000e+00 0.000000e+00 0.000000e+00 0.000000e+00
 0.000000e+00 8.388911e-01 1.611088e-01 0.000000e+00 0.000000e+00
 0.000000e+00 0.000000e+00 8.840160e-01 1.159841e-01 0.000000e+00
 0.000000e+00 0.000000e+00 0.000000e+00 8.636546e-01 1.363454e-01
 0.000000e+00 0.000000e+00 0.000000e+00 0.000000e+00 0.000000e+00
<ENDHMM>
~o
<STREAMINFO> 1 39
<VECSIZE> 39<NULLD><MFCC_D_A><DIAGC>
~h "nw"
<BEGINHMM>
<NUMSTATES> 5
<STATE> 2
<NUMMIXES> 2
<MIXTURE> 1 4.442888e-01
<MEAN> 39
 2.463091e+00 -1.361873e-01 -7.722782e-01 -3.682001e-01 1.433173e+01 -2.852353e+01 -1.182320e+01 -5.275566e+00 -1.081693e+01 -6.307253e+00 -5.453362e+00 -1.063998e+01 -1.351427e+01 2.549486e-01 5.271584e-01 8.555969e-01 -7.531734e-02 -2.865927e-01 3.029441e+00 -4.821107e-01 -7.399258e-02 3.216830e-02 -6.045198e-01 -4.284510e-01 -6.877463e-01 -4.470153e-01 2.116284e-02 1.046550e-01 2.958568e-01 8.713817e-03 -4.388818e-01 3.208774e-01 1.388768e-01 2.605518e-02 -5.645738e-03 -2.316798e-01 8.456732e-02 -1.924878e-01 -8.061966e-02
<VARIANCE> 39
 3.597386e+00 7.347379e+00 1.597167e+01 2.457616e+01 2.649440e+01 7.909184e+01 2.894077e+01 1.740908e+01 2.595021e+01 3.273103e+01 5.028428e+01 2.964402e+01 1.327773e+01 1.305061e-01 4.593024e-01 1.154042e+00 7.429353e-01 1.823848e+00 4.407393e+00 1.486888e+00 1.419626e+00 1.693360e+00 1.850202e+00 1.188944e+00 1.071074e+00 1.158010e+00 1.964377e-02 7.211346e-02 1.086208e-01 1.173312e-01 2.398701e-01 5.017639e-01 2.679678e-01 2.330357e-01 3.250080e-01 2.974054e-01 2.566795e-01 1.853753e-01 1.864406e-01
<GCONST> 8.995078e+01
<MIXTURE> 2 5.557113e-01
<MEAN> 39
 4.923701e+00 3.454872e+00 4.585980e+00 -1.914632e+00 5.906892e+00 -1.184330e+01 -1.164267e+01 -6.201330e+00 -1.127077e+01 -1.295455e+01 -5.930214e+00 -1.261233e+01 -1.582560e+01 -4.930939e-02 6.864586e-01 1.398803e+00 4.470659e-01 -1.324098e+00 9.694504e-01 4.303700e-02 3.358243e-02 -1.541730e-01 -9.572575e-01 -3.675571e-02 -8.362349e-01 -1.516479e-01 -5.389827e-02 -1.423515e-01 -2.924789e-01 -4.317283e-02 1.845854e-01 -5.885463e-01 7.894959e-02 1.361174e-01 1.821250e-02 9.250426e-02 2.099822e-02 1.888382e-01 1.374409e-01
<VARIANCE> 39
 1.278837e+01 2.258469e+01 3.349836e+01 3.091380e+01 5.217326e+01 5.397322e+01 3.367006e+01 4.914097e+01 4.065471e+01 3.209492e+01 5.147811e+01 5.105013e+01 3.634557e+01 2.064870e-01 8.192941e-01 1.809880e+00 1.781551e+00 1.917406e+00 3.075130e+00 1.377347e+00 1.835334e+00 1.966920e+00 2.047676e+00 2.157029e+00 1.650472e+00 1.976406e+00 3.871861e-02 1.264810e-01 3.032566e-01 2.539080e-01 2.641083e-01 4.778342e-01 1.940018e-01 3.250546e-01 3.487829e-01 3.197574e-01 3.637276e-01 2.335601e-01 2.932391e-01
<GCONST> 1.051183e+02
<STATE> 3
<NUMMIXES> 2
<MIXTURE> 1 8.227527e-01
<MEAN> 39
 3.618747e+00 5.273158e+00 7.063498e+00 -5.337417e-01 4.306541e+00 -1.171674e+01 -1.056005e+01 -5.962636e+00 -1.301304e+01 -1.705829e+01 -8.345943e+00 -1.487370e+01 -1.491830e+01 -4.601871e-02 2.191269e-01 1.028522e-02 -4.131181e-02 -1.389749e-01 -1.369226e-02 7.679368e-02 -7.335978e-03 7.089577e-02 -2.778310e-01 -3.385705e-01 2.080469e-01 1.652374e-01 -3.919662e-03 1.669204e-02 -5.305088e-02 -4.062436e-02 4.087392e-02 -8.609537e-03 3.846518e-02 5.285041e-03 4.760735e-02 4.753071e-02 -5.801094e-02 4.827867e-02 2.517380e-03
<VARIANCE> 39
 2.308877e+00 1.441839e+01 1.743676e+01 1.869738e+01 2.426447e+01 1.576813e+01 2.114055e+01 3.207164e+01 2.951004e+01 2.556688e+01 4.321584e+01 3.822854e+01 2.917386e+01 4.175581e-02 2.493195e-01 3.164915e-01 4.626259e-01 5.180587e-01 5.210516e-01 7.069861e-01 7.265657e-01 7.692133e-01 7.985827e-01 8.183703e-01 8.148460e-01 5.638193e-01 8.297333e-03 3.509718e-02 7.214528e-02 8.332813e-02 1.144507e-01 1.015592e-01 1.269823e-01 1.362536e-01 1.433516e-01 1.539782e-01 1.311896e-01 1.520745e-01 1.035370e-01
<GCONST> 6.915428e+01
<MIXTURE> 2 1.772473e-01
<MEAN> 39
 1.270279e+01 -3.067099e+00 7.878164e+00 6.033839e+00 -5.719007e+00 4.703397e-01 -1.356195e+01 -1.369324e+01 -1.099496e+01 -2.066542e+01 -1.222533e+01 -1.375233e+01 -1.633140e+01 -1.012484e-01 3.130425e-01 1.568418e-01 -6.503619e-02 -3.624488e-02 8.086710e-02 2.000109e-01 1.560179e-01 2.124022e-01 -2.030140e-02 -4.224349e-01 6.638058e-02 3.161317e-01 1.343402e-02 -3.026314e-02 -5.274800e-02 -2.565009e-02 1.266867e-02 6.137478e-02 4.880686e-02 6.600737e-02 8.537864e-02 5.520184e-02 5.167558e-02 6.410593e-02 1.698851e-03
<VARIANCE> 39
 3.086377e+00 1.852257e+01 2.051165e+01 1.452147e+01 2.259155e+01 2.893845e+01 1.940597e+01 3.618826e+01 2.807643e+01 2.166246e+01 3.180921e+01 2.509344e+01 2.020531e+01 1.294491e-01 4.584392e-01 5.009454e-01 6.314437e-01 5.662827e-01 8.232503e-01 7.319728e-01 8.834715e-01 1.087221e+00 9.555007e-01 1.161184e+00 1.179046e+00 6.062025e-01 2.617154e-02 9.795181e-02 9.726464e-02 1.189397e-01 1.071986e-01 1.456555e-01 1.378845e-01 1.494212e-01 1.686689e-01 1.593257e-01 1.772579e-01 1.690903e-01 1.096597e-01
<GCONST> 7.743076e+01
<STATE> 4
<NUMMIXES> 2
<MIXTURE> 1 4.762059e-01
<MEAN> 39
 2.857031e+00 4.808204e+00 7.712562e+00 2.223152e+00 -4.634189e-01 -1.402133e+00 -5.490515e+00 -8.288107e+00 -5.713094e+00 -1.549935e+01 -1.147313e+01 -7.579001e+00 -1.238009e+01 -9.818044e-01 -1.206112e-01 9.151876e-02 2.244604e-01 -6.457737e-02 5.193185e-01 8.055506e-01 4.925835e-02 5.670934e-01 8.666159e-01 3.948939e-01 5.740280e-01 3.881473e-01 2.479039e-02 -3.302896e-01 -1.570767e-01 -9.000485e-02 8.822615e-03 -1.264570e-01 3.066791e-02 7.060181e-02 -1.168231e-01 7.605799e-03 1.985222e-01 4.732871e-02 7.523509e-02
<VARIANCE> 39
 7.930875e+01 9.530139e+01 3.042759e+01 4.025098e+01 6.180540e+01 8.209305e+01 4.832764e+01 4.282895e+01 3.615834e+01 3.919782e+01 3.191754e+01 3.556266e+01 2.772871e+01 1.193022e+00 2.912034e+00 2.259512e+00 1.827086e+00 2.361832e+00 2.296900e+00 2.092118e+00 2.829921e+00 2.539973e+00 2.468406e+00 2.672307e+00 2.490096e+00 1.760641e+00 1.657209e-01 7.738112e-01 4.374073e-01 3.350582e-01 4.180096e-01 4.864765e-01 4.217596e-01 5.547547e-01 4.701219e-01 4.044509e-01 4.800449e-01 5.134821e-01 4.005556e-01
<GCONST> 1.209330e+02
<MIXTURE> 2 5.237941e-01
<MEAN> 39
 2.627235e+00 8.109484e+00 3.691905e+00 -5.343461e+00 3.251654e+00 -1.182347e+01 -7.100538e+00 -5.607995e+00 -1.222201e+01 -1.935841e+01 -1.214384e+01 -9.709964e+00 -1.200340e+01 -4.266041e-01 6.383045e-01 -1.858749e-01 -1.021896e-01 1.284513e-01 4.584473e-01 8.882787e-01 6.901646e-02 5.266834e-01 1.617297e-01 -4.184737e-01 4.776075e-01 1.364787e-01 -1.924779e-01 -1.842850e-03 9.989589e-02 1.362663e-01 7.146083e-02 1.585711e-01 8.618422e-02 -9.015977e-02 6.203733e-02 2.296981e-01 1.774599e-01 5.934479e-02 1.596734e-02
<VARIANCE> 39
 5.507573e+00 2.172623e+01 3.512378e+01 4.023795e+01 3.913906e+01 3.792585e+01 4.608525e+01 4.991410e+01 4.375297e+01 2.760439e+01 4.786073e+01 5.955356e+01 3.186045e+01 4.552858e-01 1.702781e+00 2.794227e+00 1.469751e+00 2.580468e+00 2.149867e+00 2.753430e+00 3.164938e+00 3.098463e+00 2.411521e+00 2.563050e+00 2.459674e+00 1.542780e+00 6.620302e-02 3.304364e-01 5.944734e-01 2.303367e-01 5.215967e-01 4.022408e-01 5.073023e-01 5.976880e-01 5.362725e-01 3.763371e-01 4.771424e-01 4.490365e-01 2.782165e-01
<GCONST> 1.136087e+02
<TRANSP> 5
 0.000000e+00 1.000000e+00 0.000000e+00 0.000000e+00 0.000000e+00
 0.000000e+00 8.367646e-01 1.632354e-01 0.000000e+00 0.000000e+00
 0.000000e+00 0.000000e+00 9.192873e-01 8.071278e-02 0.000000e+00
 0.000000e+00 0.000000e+00 0.000000e+00 8.957829e-01 1.042170e-01
 0.000000e+00 0.000000e+00 0.000000e+00 0.000000e+00 0.000000e+00
<ENDHMM>
~o
<STREAMINFO> 1 39
<VECSIZE> 39<NULLD><MFCC_D_A><DIAGC>
~h "nx"
<BEGINHMM>
<NUMSTATES> 5
<STATE> 2
<NUMMIXES> 2
<MIXTURE> 1 5.615381e-01
<MEAN> 39
 7.538177e+00 -1.096062e+00 -6.311048e-01 4.644888e-01 1.117911e+01 -2.107241e+00 -7.727684e+00 -3.031533e+00 -2.597852e+00 -7.875621e+00 -5.363003e+00 -2.869653e+00 -5.096684e+00 -1.145662e-01 4.731342e-01 8.584314e-01 6.793132e-01 -7.335605e-02 7.286073e-01 -1.057000e-01 -2.052716e-01 -9.726159e-02 -2.463944e-01 -4.013106e-01 -3.383408e-01 3.165798e-02 -1.992334e-02 -3.879826e-02 -7.599107e-03 -4.547385e-02 -6.196349e-02 -1.024015e-01 4.140491e-02 2.795070e-02 -1.336450e-03 -4.412533e-03 3.764437e-02 3.538829e-02 6.352216e-03
<VARIANCE> 39
 2.942716e+01 4.681593e+01 6.043222e+01 1.088308e+02 1.368745e+02 1.239087e+02 6.064143e+01 8.578147e+01 8.881127e+01 6.868574e+01 7.007943e+01 4.750488e+01 6.158489e+01 2.147362e-01 7.415438e-01 1.683360e+00 1.961689e+00 1.571062e+00 2.221576e+00 1.854029e+00 1.651516e+00 1.748598e+00 1.933171e+00 1.635849e+00 1.367653e+00 1.181443e+00 2.968854e-02 9.062287e-02 2.307391e-01 2.834984e-01 2.140187e-01 3.213361e-01 2.797439e-01 2.636811e-01 2.666155e-01 2.838811e-01 2.516898e-01 2.295989e-01 1.765445e-01
<GCONST> 1.097600e+02
<MIXTURE> 2 4.384619e-01
<MEAN> 39
 1.361686e+01 -1.383072e+00 7.618060e+00 1.232223e+01 -2.383529e+00 8.959254e+00 -1.035662e+01 -1.021862e+01 8.851387e+00 -8.332142e+00 -1.389112e+01 -1.311377e+00 -7.191798e+00 -1.457334e-01 3.850303e-01 1.832990e-01 7.829956e-02 1.980715e-01 -5.036991e-02 -1.340757e-01 -1.179461e-01 -3.900307e-02 1.584407e-01 2.003755e-02 -8.778737e-02 -5.617338e-02 -8.385319e-04 -4.167615e-02 -5.001837e-02 5.873689e-03 7.726591e-03 -9.950018e-03 4.415042e-02 -3.027088e-03 -5.418176e-02 3.586245e-02 5.732016e-02 -7.334471e-04 -7.240163e-03
<VARIANCE> 39
 2.374427e+00 2.125168e+01 1.217588e+01 1.771664e+01 1.535122e+01 2.714209e+01 2.611153e+01 3.003095e+01 4.948417e+01 3.589555e+01 2.532868e+01 2.865796e+01 2.461707e+01 5.158678e-02 1.692707e-01 2.307495e-01 3.434558e-01 3.976840e-01 4.632231e-01 5.185775e-01 4.969022e-01 5.959083e-01 6.742363e-01 5.816705e-01 4.702742e-01 4.794611e-01 8.847732e-03 2.771878e-02 3.858319e-02 5.424614e-02 6.815128e-02 7.742334e-02 8.735045e-02 8.348746e-02 1.017274e-01 9.737392e-02 8.988705e-02 7.854709e-02 8.157872e-02
<GCONST> 6.095366e+01
<STATE> 3
<NUMMIXES> 2
<MIXTURE> 1 6.080908e-01
<MEAN> 39
 3.734502e+00 3.882473e+00 6.038798e+00 2.482125e+00 1.086426e+01 -2.396978e+00 -9.089412e+00 -3.872447e+00 -5.451159e+00 -8.818344e+00 -7.144184e+00 -5.523940e+00 -5.471202e+00 -7.269610e-02 1.745624e-01 1.352633e-01 3.289757e-02 -1.406228e-02 2.303603e-01 1.184722e-02 -1.416329e-01 -6.546444e-02 4.698643e-02 -4.728397e-03 3.008216e-02 3.675799e-02 3.822846e-04 -1.372668e-02 -4.966506e-02 -2.425138e-02 7.083896e-04 2.659533e-02 4.667675e-02 5.643214e-03 7.881450e-03 1.215014e-02 1.050460e-02 3.406403e-02 -1.383366e-02
<VARIANCE> 39
 1.225372e+01 2.244935e+01 3.730706e+01 9.172090e+01 6.247952e+01 1.223597e+02 6.976645e+01 5.435066e+01 7.894845e+01 7.712560e+01 8.099230e+01 5.711032e+01 7.476994e+01 4.828285e-02 1.753503e-01 2.532437e-01 3.485193e-01 4.681770e-01 5.454494e-01 6.270193e-01 6.575181e-01 7.003787e-01 7.243015e-01 6.544187e-01 6.717842e-01 5.196169e-01 8.112405e-03 2.881522e-02 5.023397e-02 6.788487e-02 8.187164e-02 9.216449e-02 1.104936e-01 1.116535e-01 1.170298e-01 1.261476e-01 1.093631e-01 1.036021e-01 8.769233e-02
<GCONST> 7.802325e+01
<MIXTURE> 2 3.919092e-01
<MEAN> 39
 3.178030e+00 2.075139e+00 2.182604e+00 -4.379980e+00 7.280300e+00 -8.953444e+00 -4.414558e+00 -5.929789e+00 -1.247827e+01 -1.249952e+01 -6.124650e-01 -2.801608e+00 -1.027419e+01 -3.146214e-01 -1.248411e-01 -3.005426e-02 -2.854696e-01 -3.454196e-01 -3.672810e-01 3.306860e-01 -1.086601e-01 6.572583e-02 3.297990e-01 1.781377e-01 2.369553e-01 -3.160725e-02 -2.209691e-02 -9.417883e-02 -1.513955e-01 -9.939524e-02 1.208804e-02 -1.546917e-01 4.477934e-02 1.632206e-02 8.448343e-02 1.360450e-01 4.915085e-02 7.748292e-02 -8.705823e-03
<VARIANCE> 39
 1.973087e+01 3.008334e+01 3.262617e+01 7.542869e+01 5.722153e+01 7.560173e+01 4.657462e+01 5.575161e+01 4.769366e+01 5.720065e+01 5.533316e+01 6.155834e+01 4.586475e+01 3.763668e-01 1.777715e+00 2.006000e+00 2.698796e+00 1.525940e+00 3.339630e+00 1.918407e+00 2.284790e+00 2.201736e+00 2.672642e+00 2.090300e+00 1.849281e+00 1.592936e+00 6.324186e-02 3.251890e-01 3.530724e-01 4.207749e-01 2.857718e-01 5.500385e-01 3.495905e-01 4.445200e-01 4.184592e-01 4.942608e-01 3.857610e-01 3.532549e-01 2.860950e-01
<GCONST> 1.156364e+02
<STATE> 4
<NUMMIXES> 2
<MIXTURE> 1 4.882782e-01
<MEAN> 39
 4.920125e+00 1.102724e+00 6.320504e+00 8.341042e+00 5.889297e+00 5.133976e+00 -9.694734e+00 -5.450603e+00 1.104737e-01 -6.535663e+00 -8.620687e+00 -2.219992e+00 -3.537454e+00 -1.630249e-01 2.788001e-01 -2.176958e-02 -1.194766e-02 -2.256524e-01 2.241203e-01 3.320805e-01 1.674049e-01 -1.526395e-02 1.149742e-01 1.889078e-01 1.163893e-01 -3.690380e-02 -1.052345e-02 -7.989354e-02 -9.330562e-02 -7.381461e-04 -9.674642e-03 -7.305534e-02 1.116606e-01 6.379415e-02 -5.273358e-02 -4.399301e-02 4.570837e-02 5.600348e-02 -8.941980e-03
<VARIANCE> 39
 4.768426e+01 9.614195e+01 4.204322e+01 6.300902e+01 1.433244e+02 8.847172e+01 6.440501e+01 9.087049e+01 5.756810e+01 6.171246e+01 5.954177e+01 4.821561e+01 5.380758e+01 1.701036e-01 5.228919e-01 6.661803e-01 6.699314e-01 9.295055e-01 1.068752e+00 1.181449e+00 1.110155e+00 1.194454e+00 1.129779e+00 1.069319e+00 9.429955e-01 7.774242e-01 3.255692e-02 1.460592e-01 1.166763e-01 1.360050e-01 1.805860e-01 2.192020e-01 2.157608e-01 1.956182e-01 2.097879e-01 2.129851e-01 1.851425e-01 1.758422e-01 1.408059e-01
<GCONST> 9.894987e+01
<MIXTURE> 2 5.117218e-01
<MEAN> 39
 3.618193e+00 -1.046089e+00 3.618328e+00 3.720088e+00 6.413563e+00 -1.297526e-01 -5.077619e+00 -5.338973e+00 -3.415380e+00 -7.149996e+00 -5.212827e+00 -1.226603e+00 -4.915930e+00 -1.606094e-02 -1.062109e+00 -5.834418e-01 -2.006200e-01 -3.597598e-01 -9.761296e-01 6.667261e-02 2.809094e-01 2.159330e-03 -4.904058e-02 5.555654e-01 5.335625e-01 -4.425690e-02 3.857434e-02 -7.729047e-02 -1.317897e-03 -6.982999e-02 -4.832051e-02 -8.551379e-02 -1.435341e-01 3.315653e-02 4.852239e-02 -1.500333e-02 2.492871e-02 -9.730102e-03 -9.645857e-03
<VARIANCE> 39
 6.051471e+01 7.930697e+01 5.079076e+01 8.943972e+01 1.309609e+02 1.032543e+02 6.233982e+01 9.714574e+01 6.175700e+01 6.169717e+01 5.715565e+01 4.926212e+01 5.410110e+01 1.276014e+00 4.069671e+00 2.798956e+00 3.563977e+00 3.416819e+00 4.717342e+00 4.065041e+00 3.211433e+00 3.399289e+00 3.441010e+00 3.110467e+00 2.915638e+00 2.285370e+00 1.833401e-01 6.527486e-01 4.923921e-01 4.726722e-01 4.956591e-01 6.875697e-01 6.573257e-01 5.722880e-01 5.477926e-01 5.493043e-01 5.154369e-01 4.858262e-01 3.528375e-01
<GCONST> 1.324998e+02
<TRANSP> 5
 0.000000e+00 1.000000e+00 0.000000e+00 0.000000e+00 0.000000e+00
 0.000000e+00 8.054543e-01 1.945457e-01 0.000000e+00 0.000000e+00
 0.000000e+00 0.000000e+00 8.518253e-01 1.481747e-01 0.000000e+00
 0.000000e+00 0.000000e+00 0.000000e+00 8.099149e-01 1.900851e-01
 0.000000e+00 0.000000e+00 0.000000e+00 0.000000e+00 0.000000e+00
<ENDHMM>
~o
<STREAMINFO> 1 39
<VECSIZE> 39<NULLD><MFCC_D_A><DIAGC>
~h "o"
<BEGINHMM>
<NUMSTATES> 7
<STATE> 2
<NUMMIXES> 2
<MIXTURE> 1 5.328658e-01
<MEAN> 39
 -6.382240e+00 2.090712e-01 5.596314e+00 -4.157696e+00 -4.816156e-01 -4.070079e+00 3.433444e+00 1.543893e+00 1.873436e+00 -2.737305e+00 -1.186482e+00 8.191605e-01 -3.015936e+00 1.096480e+00 3.147271e-01 6.263614e-01 2.375388e-02 8.372556e-02 -3.609046e-01 -2.740953e-01 5.050301e-02 -1.505135e-01 -3.974423e-01 -3.904524e-01 -2.697603e-01 -3.531991e-01 3.091798e-01 2.768620e-01 7.634620e-02 2.588287e-01 4.570639e-02 -2.454044e-01 -3.885626e-01 1.629684e-02 -5.375151e-02 -2.095058e-01 -2.213694e-01 -4.981547e-02 -1.123157e-01
<VARIANCE> 39
 7.186044e+01 1.293761e+02 4.947402e+01 1.293751e+02 1.549156e+02 1.147595e+02 6.455297e+01 7.249128e+01 4.496265e+01 3.643668e+01 3.376743e+01 3.349067e+01 2.991415e+01 2.679377e+00 5.415060e+00 2.318481e+00 6.503211e+00 4.988101e+00 4.843136e+00 3.616814e+00 2.956575e+00 3.056093e+00 2.757461e+00 3.095854e+00 2.069031e+00 1.864768e+00 3.283539e-01 8.023697e-01 4.254031e-01 8.554535e-01 8.206014e-01 1.027153e+00 6.929280e-01 5.851438e-01 5.675507e-01 4.851585e-01 4.844310e-01 3.806776e-01 3.467440e-01
<GCONST> 1.337421e+02
<MIXTURE> 2 4.671341e-01
<MEAN> 39
 4.081091e+00 3.580678e+00 9.804426e+00 -2.181217e+00 1.841889e+00 -1.039293e+01 -3.470517e+00 1.075128e+00 -5.244707e-01 -8.542735e+00 -6.425073e+00 -1.669064e+00 -6.066890e+00 1.893429e+00 4.854153e-01 -2.342693e-01 6.269611e-02 -5.612858e-01 -2.354368e+00 -2.075021e+00 6.426301e-01 3.870410e-02 -1.171568e+00 -8.460997e-01 -7.632627e-02 -5.529321e-01 -4.149680e-01 -4.894777e-01 -3.416911e-01 -3.002188e-01 -1.385385e-01 2.227125e-02 2.470659e-01 2.024718e-01 1.778469e-01 1.212467e-01 2.850856e-01 1.275125e-01 1.128413e-01
<VARIANCE> 39
 3.302179e+01 7.741497e+01 3.933251e+01 7.557490e+01 1.592481e+02 1.061567e+02 7.027071e+01 6.904939e+01 9.669383e+01 4.827915e+01 3.726657e+01 3.924002e+01 3.710770e+01 1.930849e+00 2.264719e+00 2.319455e+00 2.935155e+00 3.405658e+00 4.526627e+00 4.458166e+00 3.640770e+00 5.232870e+00 2.909885e+00 2.950047e+00 2.173954e+00 1.938295e+00 2.317066e-01 3.091261e-01 3.038061e-01 4.115017e-01 4.645649e-01 7.311019e-01 5.185898e-01 4.529868e-01 4.531722e-01 3.795775e-01 3.441980e-01 2.991112e-01 2.543229e-01
<GCONST> 1.266058e+02
<STATE> 3
<NUMMIXES> 2
<MIXTURE> 1 3.866957e-01
<MEAN> 39
 6.100097e+00 3.192319e+00 7.929397e+00 -6.146463e+00 1.974988e+00 -1.531752e+01 -4.867255e+00 2.755749e+00 -3.542724e+00 -1.042302e+01 -6.334839e+00 -2.247847e+00 -5.833656e+00 3.372198e-01 -1.926622e-01 -2.847839e-01 -4.569529e-01 -5.538347e-01 -9.709831e-01 -3.637812e-01 6.251886e-01 2.158898e-01 -4.649626e-01 -1.388890e-01 -6.024072e-02 -1.178970e-01 -2.011041e-01 -4.266797e-02 6.259126e-02 3.698067e-02 6.613068e-02 2.826570e-01 2.519734e-01 -6.847271e-02 4.850113e-02 1.175418e-01 5.148476e-02 -2.838004e-02 3.565243e-02
<VARIANCE> 39
 1.936232e+01 6.973040e+01 4.533183e+01 8.700233e+01 1.556681e+02 1.186564e+02 7.298168e+01 6.396642e+01 1.554342e+02 7.065927e+01 4.799952e+01 4.986967e+01 4.889465e+01 2.932474e-01 1.040324e+00 1.031324e+00 1.271251e+00 1.578131e+00 1.966685e+00 2.372449e+00 2.056478e+00 2.118076e+00 1.694239e+00 1.523798e+00 1.336129e+00 1.267220e+00 9.524444e-02 1.347504e-01 1.749919e-01 2.044314e-01 2.505921e-01 4.205429e-01 3.614029e-01 3.373722e-01 4.004208e-01 3.098872e-01 2.826360e-01 2.365571e-01 2.053658e-01
<GCONST> 1.120231e+02
<MIXTURE> 2 6.133044e-01
<MEAN> 39
 6.531127e+00 3.939898e+00 4.587626e+00 -1.022004e+01 -3.515312e+00 -2.353038e+01 6.776897e-01 5.113696e+00 -1.239275e+01 -1.195281e+01 -3.199617e+00 -6.630562e+00 -5.694616e+00 -1.025722e-02 3.743024e-02 -5.718375e-02 -6.028196e-02 4.275114e-02 8.998174e-02 5.863513e-02 -5.953777e-02 1.124839e-02 -9.379578e-03 -2.084208e-02 1.717104e-02 2.586113e-02 -1.678987e-02 1.743564e-02 1.238304e-02 3.770028e-02 1.060045e-01 8.839163e-02 -3.945311e-02 -6.990629e-02 -1.190896e-02 2.830031e-02 -4.183469e-03 4.724008e-02 -6.764233e-03
<VARIANCE> 39
 6.710270e+00 6.308873e+01 2.964126e+01 4.962755e+01 6.032407e+01 5.152919e+01 5.401858e+01 4.938004e+01 5.008174e+01 6.182456e+01 3.895465e+01 3.464363e+01 4.406739e+01 7.042797e-02 4.584382e-01 4.035007e-01 5.194744e-01 9.745526e-01 8.222109e-01 8.550471e-01 1.034830e+00 9.654336e-01 9.791931e-01 8.196468e-01 8.371723e-01 7.797712e-01 1.053328e-02 3.608781e-02 4.715279e-02 7.286336e-02 8.004779e-02 1.098468e-01 1.219602e-01 1.286504e-01 1.265398e-01 1.311019e-01 1.209289e-01 1.078268e-01 9.713208e-02
<GCONST> 8.075245e+01
<STATE> 4
<NUMMIXES> 2
<MIXTURE> 1 2.575381e-01
<MEAN> 39
 1.620207e+01 -7.120987e+00 7.553085e+00 4.208068e+00 -2.197823e+01 -2.696624e+00 -5.432068e+00 -2.399531e+00 3.019227e+00 -1.615087e+01 -8.349450e+00 -4.632190e-01 -1.097244e+01 1.143896e-01 -2.714191e-01 -3.721700e-01 -2.323957e-01 3.248618e-01 4.423582e-01 4.780876e-02 1.348625e-02 4.527346e-02 -2.636176e-01 -2.436693e-01 3.941337e-02 2.103782e-01 -3.239152e-02 4.005823e-02 -4.226218e-02 2.850295e-02 1.582216e-01 1.641528e-01 3.249556e-02 -1.313999e-01 -7.398825e-02 5.873212e-02 -2.374667e-03 2.329827e-02 6.066603e-02
<VARIANCE> 39
 4.928770e+00 5.195028e+01 3.084028e+01 2.755360e+01 3.771313e+01 7.969154e+01 3.226160e+01 3.915350e+01 6.359026e+01 5.329430e+01 3.190769e+01 2.660911e+01 2.996844e+01 1.868619e-01 6.294010e-01 4.554820e-01 5.179743e-01 1.168317e+00 1.375885e+00 6.699651e-01 9.623334e-01 9.606882e-01 1.000041e+00 7.366375e-01 7.670608e-01 7.969931e-01 3.774120e-02 6.315318e-02 5.480025e-02 7.422207e-02 1.246453e-01 1.272489e-01 1.092096e-01 1.121863e-01 1.325058e-01 1.407089e-01 1.062740e-01 1.004707e-01 1.062450e-01
<GCONST> 8.214921e+01
<MIXTURE> 2 7.424619e-01
<MEAN> 39
 5.945785e+00 3.459012e+00 1.032197e+01 -2.415033e+00 7.375331e+00 -1.849322e+01 -1.262989e+01 8.331664e+00 9.645968e+00 -9.689341e+00 -8.890892e+00 1.638609e+00 -7.417814e+00 3.118533e-02 -4.630100e-02 -8.380516e-02 -9.296387e-02 7.207169e-02 3.250836e-02 -6.514943e-03 2.612413e-02 -5.220551e-02 1.219666e-02 -1.706264e-02 -5.018504e-02 -9.495421e-02 -2.782299e-02 2.136515e-02 -2.060585e-02 1.464842e-02 3.417515e-02 1.768611e-01 1.431322e-01 -7.596750e-02 -1.161973e-01 4.469911e-02 3.844083e-02 -2.557738e-02 5.137787e-02
<VARIANCE> 39
 9.575730e+00 3.448951e+01 5.656918e+01 5.373158e+01 5.687107e+01 6.099450e+01 6.444964e+01 5.198072e+01 8.317474e+01 4.956498e+01 5.764118e+01 3.458108e+01 3.830620e+01 1.006760e-01 4.619526e-01 5.488597e-01 7.324557e-01 9.177178e-01 1.364787e+00 1.303928e+00 1.174875e+00 1.309679e+00 1.209159e+00 1.089977e+00 1.021501e+00 8.090273e-01 1.726336e-02 4.574673e-02 6.997256e-02 9.299786e-02 1.107955e-01 1.551804e-01 1.846744e-01 1.802770e-01 1.894545e-01 1.764308e-01 1.590840e-01 1.481071e-01 1.226153e-01
<GCONST> 8.947019e+01
<STATE> 5
<NUMMIXES> 2
<MIXTURE> 1 2.693870e-01
<MEAN> 39
 1.687069e+01 -8.595264e+00 1.655338e+00 4.313634e+00 -1.035847e+01 9.165386e+00 -4.165491e+00 -9.789684e+00 -1.672265e+00 -1.618361e+01 -9.264955e+00 1.852138e+00 -6.826225e+00 -1.717722e-01 2.109882e-01 -1.033856e-01 6.060693e-01 1.153131e+00 7.213365e-01 1.116466e-01 -7.134609e-01 -4.749413e-01 5.180473e-01 2.105527e-01 5.250800e-02 1.866296e-01 -4.955189e-02 4.871819e-02 1.197920e-01 7.856520e-02 -6.848270e-02 -1.507339e-01 -3.052425e-02 1.055939e-01 9.600297e-02 4.846467e-02 -2.818830e-03 -6.265114e-02 -5.387256e-02
<VARIANCE> 39
 6.339450e+00 3.884436e+01 3.784906e+01 4.306681e+01 5.711075e+01 7.817587e+01 5.154312e+01 5.724393e+01 1.016459e+02 6.455425e+01 4.526573e+01 2.946553e+01 3.161154e+01 3.989347e-01 1.896365e+00 1.228860e+00 1.331413e+00 1.983504e+00 2.447999e+00 3.073608e+00 2.351997e+00 2.322270e+00 2.388566e+00 1.781127e+00 1.485473e+00 1.717528e+00 6.889965e-02 3.002505e-01 1.522625e-01 1.858819e-01 2.924104e-01 3.100312e-01 4.713706e-01 3.841144e-01 3.316638e-01 4.065747e-01 2.909009e-01 2.327451e-01 2.812298e-01
<GCONST> 1.098932e+02
<MIXTURE> 2 7.306131e-01
<MEAN> 39
 5.701086e+00 2.574585e+00 3.921432e+00 -8.831234e+00 7.425150e+00 -1.275236e+01 -5.555585e+00 2.914333e+00 -3.737641e+00 -1.168412e+01 -8.856022e+00 -2.688762e+00 -5.249229e+00 -7.458684e-02 1.106279e-01 -1.708789e-01 6.011973e-01 6.489758e-01 1.664468e+00 5.472887e-01 -5.227867e-01 -5.760835e-01 1.712276e-01 7.418575e-02 5.764031e-02 1.972599e-01 -6.878936e-02 8.274293e-02 1.160955e-01 2.328121e-01 -6.577522e-02 1.462379e-01 7.428066e-02 9.848779e-04 1.085490e-01 9.323522e-02 2.583615e-02 -2.164820e-02 -1.764627e-02
<VARIANCE> 39
 1.044646e+01 4.598920e+01 6.293460e+01 6.992184e+01 8.914029e+01 1.048926e+02 7.595060e+01 8.231089e+01 1.761771e+02 7.512358e+01 7.608544e+01 5.093901e+01 4.982098e+01 2.286224e-01 9.353928e-01 1.194447e+00 2.040949e+00 1.980211e+00 2.832117e+00 3.460532e+00 2.819187e+00 2.919338e+00 2.822424e+00 2.356910e+00 2.074423e+00 1.690321e+00 3.749382e-02 1.123706e-01 1.581929e-01 2.275105e-01 2.692051e-01 4.227301e-01 4.499305e-01 4.254784e-01 4.224046e-01 4.163153e-01 3.829033e-01 3.332158e-01 2.585144e-01
<GCONST> 1.155879e+02
<STATE> 6
<NUMMIXES> 2
<MIXTURE> 1 6.226117e-01
<MEAN> 39
 2.886113e-01 6.687547e+00 6.742062e+00 -6.321917e-01 4.271134e+00 -5.148095e+00 1.524923e-01 3.660225e+00 -3.547618e-01 -6.004565e+00 -5.768404e+00 -1.706861e+00 -4.044665e+00 -6.842009e-01 2.359144e-01 8.169035e-02 7.643754e-01 1.794504e-01 9.494318e-01 3.075534e-01 -1.930468e-01 1.094887e-01 2.924498e-01 1.239120e-01 -4.133056e-02 1.027307e-01 -1.775238e-02 -9.617342e-02 7.263372e-03 -9.830301e-02 5.967716e-03 -2.387778e-01 -1.693373e-01 -2.424748e-02 9.024506e-03 -6.317119e-02 -3.645073e-02 6.114421e-03 8.784004e-03
<VARIANCE> 39
 4.949791e+01 7.158904e+01 5.861060e+01 6.716538e+01 1.000395e+02 1.063634e+02 8.046874e+01 8.483752e+01 8.611149e+01 5.545998e+01 5.509994e+01 4.269529e+01 3.680494e+01 1.396411e+00 3.391313e+00 2.581920e+00 3.191559e+00 2.911072e+00 4.389495e+00 4.573411e+00 3.713584e+00 3.485825e+00 3.145942e+00 2.801878e+00 2.430857e+00 1.936535e+00 1.940072e-01 4.749760e-01 4.154350e-01 4.832223e-01 4.785855e-01 6.658269e-01 7.325143e-01 5.920026e-01 5.471265e-01 5.192115e-01 4.820729e-01 4.067520e-01 3.223717e-01
<GCONST> 1.300988e+02
<MIXTURE> 2 3.773883e-01
<MEAN> 39
 2.892622e+00 6.250923e+00 6.745725e+00 1.790160e+00 2.396883e+00 -3.803701e+00 -3.235656e+00 -2.139945e+00 -7.521580e-01 -6.929382e+00 -8.082980e+00 -3.023305e+00 -4.768269e+00 -3.455669e-01 4.948925e-02 1.142901e-01 2.979211e-01 2.140696e-01 1.294881e-01 -6.281284e-02 -1.851695e-01 1.002593e-01 2.105307e-01 4.145530e-02 1.338073e-02 1.287040e-02 1.837313e-03 -4.947101e-02 -3.037157e-02 -6.021980e-02 -3.006403e-03 -8.347768e-03 7.445065e-02 5.989103e-02 -1.955134e-02 -7.343452e-03 3.582079e-02 2.313826e-02 -8.487817e-03
<VARIANCE> 39
 6.480520e+01 9.442214e+01 4.355056e+01 8.280834e+01 1.005441e+02 1.238916e+02 6.791246e+01 9.629875e+01 1.104655e+02 7.702322e+01 5.925897e+01 5.263373e+01 4.662822e+01 2.600485e-01 4.566866e-01 5.550569e-01 8.246934e-01 9.310505e-01 1.134029e+00 1.125808e+00 1.170239e+00 1.216735e+00 1.105357e+00 1.039994e+00 9.634882e-01 8.400020e-01 2.437365e-02 7.002128e-02 9.084281e-02 1.418310e-01 1.479300e-01 1.846164e-01 1.919854e-01 2.007955e-01 1.980807e-01 1.978405e-01 1.805698e-01 1.647942e-01 1.437581e-01
<GCONST> 9.900584e+01
<TRANSP> 7
 0.000000e+00 1.000000e+00 0.000000e+00 0.000000e+00 0.000000e+00 0.000000e+00 0.000000e+00
 0.000000e+00 8.012806e-01 1.987194e-01 0.000000e+00 0.000000e+00 0.000000e+00 0.000000e+00
 0.000000e+00 0.000000e+00 8.710555e-01 1.289445e-01 0.000000e+00 0.000000e+00 0.000000e+00
 0.000000e+00 0.000000e+00 0.000000e+00 8.634844e-01 1.365156e-01 0.000000e+00 0.000000e+00
 0.000000e+00 0.000000e+00 0.000000e+00 0.000000e+00 7.932419e-01 2.067582e-01 0.000000e+00
 0.000000e+00 0.000000e+00 0.000000e+00 0.000000e+00 0.000000e+00 8.347415e-01 1.652586e-01
 0.000000e+00 0.000000e+00 0.000000e+00 0.000000e+00 0.000000e+00 0.000000e+00 0.000000e+00
<ENDHMM>
~o
<STREAMINFO> 1 39
<VECSIZE> 39<NULLD><MFCC_D_A><DIAGC>
~h "oo"
<BEGINHMM>
<NUMSTATES> 7
<STATE> 2
<NUMMIXES> 2
<MIXTURE> 1 3.376049e-01
<MEAN> 39
 1.551853e+01 -7.400973e+00 9.633705e+00 4.375441e+00 -2.110434e+01 5.866041e-01 -7.038308e+00 -6.105208e+00 3.430548e+00 -1.629364e+01 -9.312799e+00 9.323236e-01 -1.048779e+01 2.068698e-02 3.243608e-01 1.842770e-01 -2.618464e-01 -7.102636e-01 -9.279326e-01 1.992632e-02 5.790889e-01 1.893773e-01 1.456150e-01 1.219532e-01 -2.339694e-01 -2.434679e-01 -5.670229e-02 -2.230874e-02 -1.476407e-02 7.396549e-02 1.332200e-01 9.501963e-02 3.256589e-02 -6.558932e-02 -5.344591e-03 1.222253e-01 4.488228e-02 1.417057e-02 1.077496e-02
<VARIANCE> 39
 5.627874e+00 6.703503e+01 3.782648e+01 3.328929e+01 6.299471e+01 7.968095e+01 4.534688e+01 4.619826e+01 1.072621e+02 8.768676e+01 3.669231e+01 3.069307e+01 2.713520e+01 2.348619e-01 6.225445e-01 4.787222e-01 7.970989e-01 1.179421e+00 1.319458e+00 1.092332e+00 1.149727e+00 1.139559e+00 1.292145e+00 9.979911e-01 9.652675e-01 8.723826e-01 5.293776e-02 9.224509e-02 7.369878e-02 9.274844e-02 1.737458e-01 2.182029e-01 1.514955e-01 1.502172e-01 1.765285e-01 1.931878e-01 1.423527e-01 1.391435e-01 1.375738e-01
<GCONST> 9.174367e+01
<MIXTURE> 2 6.623951e-01
<MEAN> 39
 1.518062e+00 7.229443e-01 6.209831e+00 1.049638e-01 -5.938343e-01 -6.362344e+00 -3.870578e+00 -5.117706e-01 -6.256965e-01 -7.941994e+00 -6.418289e+00 -9.318221e-01 -4.348008e+00 9.207834e-01 3.529371e-01 2.471526e-01 -5.931422e-01 -8.067231e-01 -1.516277e+00 -8.536755e-01 2.125320e-01 1.232313e-01 -6.328033e-01 -4.401175e-01 -8.437902e-02 -2.212501e-01 -1.147561e-01 -4.415160e-02 6.391235e-03 2.277232e-02 -4.290766e-02 7.800868e-03 7.704904e-02 7.342131e-02 7.383692e-02 2.414275e-02 2.678517e-02 -9.158053e-03 -6.770506e-04
<VARIANCE> 39
 6.692407e+01 1.049440e+02 4.261679e+01 9.028991e+01 1.492382e+02 1.523867e+02 7.808167e+01 6.867310e+01 9.351213e+01 6.130118e+01 4.947496e+01 4.323351e+01 4.673536e+01 1.730775e+00 4.137859e+00 2.075747e+00 2.884519e+00 3.269627e+00 5.629829e+00 4.443667e+00 2.797400e+00 3.889422e+00 2.695371e+00 2.856697e+00 1.914882e+00 1.764614e+00 2.708585e-01 7.381307e-01 3.194451e-01 4.053204e-01 5.167451e-01 8.970293e-01 6.784368e-01 4.567082e-01 5.233604e-01 4.294444e-01 4.604374e-01 3.175898e-01 2.900706e-01
<GCONST> 1.311359e+02
<STATE> 3
<NUMMIXES> 2
<MIXTURE> 1 4.843652e-01
<MEAN> 39
 4.003477e+00 5.131500e+00 4.451797e+00 1.603609e+00 2.546407e+00 -1.999810e+01 -2.029290e+01 6.614006e+00 1.446536e+01 -7.972669e+00 -1.348753e+01 3.306911e+00 -3.446184e+00 2.068850e-02 -8.842611e-02 -4.575018e-02 -2.281661e-01 -5.492881e-02 -4.926652e-02 4.859832e-02 9.220258e-03 1.282611e-01 2.100974e-02 -1.205491e-01 -6.820879e-02 -1.184765e-01 -2.211317e-02 1.109968e-03 -1.981692e-02 -1.334803e-03 3.408175e-02 1.371118e-01 1.233452e-01 1.189694e-03 -1.212817e-01 1.884211e-02 2.497669e-02 -2.693418e-02 9.209494e-03
<VARIANCE> 39
 7.781196e+00 2.581490e+01 3.639266e+01 4.678350e+01 4.740507e+01 5.752821e+01 6.161739e+01 4.604676e+01 4.541521e+01 3.904555e+01 5.518081e+01 2.865669e+01 2.636644e+01 9.653476e-02 3.296484e-01 5.139952e-01 7.299634e-01 9.099059e-01 1.438018e+00 1.391796e+00 1.167020e+00 1.493531e+00 1.127210e+00 1.141122e+00 9.209995e-01 7.092506e-01 1.810594e-02 3.834676e-02 7.061473e-02 9.996369e-02 1.218359e-01 1.804594e-01 2.061331e-01 1.914157e-01 2.081995e-01 1.834935e-01 1.835780e-01 1.490351e-01 1.148276e-01
<GCONST> 8.664935e+01
<MIXTURE> 2 5.156347e-01
<MEAN> 39
 5.068648e+00 5.872447e+00 5.097833e+00 -1.116379e+01 -7.187197e+00 -2.606509e+01 -7.091038e-01 4.141370e+00 -1.045284e+01 -1.466494e+01 -4.137105e+00 -7.400397e+00 -1.251202e+01 1.517971e-02 3.224764e-02 -4.431426e-02 -1.807608e-01 -1.908924e-01 -8.410224e-02 7.633574e-02 1.124688e-01 9.788404e-02 -4.959191e-02 -1.219268e-01 -7.885903e-02 -3.332848e-02 -1.248718e-02 -1.356813e-02 -1.967816e-02 4.194417e-02 9.650365e-02 1.080766e-01 -9.929549e-03 -6.355873e-02 4.052575e-03 1.956717e-02 -2.677586e-02 2.107741e-02 3.040980e-02
<VARIANCE> 39
 1.050863e+01 5.042429e+01 2.884803e+01 5.026388e+01 6.865129e+01 5.611598e+01 3.522522e+01 4.306743e+01 5.659271e+01 5.257849e+01 3.673770e+01 3.188435e+01 4.448455e+01 7.455461e-02 3.367850e-01 3.858550e-01 5.754611e-01 1.026450e+00 9.110049e-01 8.489813e-01 9.441960e-01 1.026688e+00 9.160631e-01 9.189579e-01 7.955447e-01 8.428099e-01 1.228780e-02 3.342840e-02 4.865177e-02 7.885496e-02 9.018010e-02 1.297232e-01 1.197562e-01 1.343707e-01 1.379908e-01 1.374945e-01 1.257849e-01 1.143892e-01 1.062101e-01
<GCONST> 8.125936e+01
<STATE> 4
<NUMMIXES> 2
<MIXTURE> 1 6.850841e-01
<MEAN> 39
 2.647007e+00 4.585393e+00 1.340628e+01 -1.075503e+01 -4.640948e+00 -1.410459e+01 -8.458508e+00 -1.522498e+00 6.226956e+00 -5.850516e+00 -1.318994e+01 -5.245884e+00 -4.534413e-01 -1.311868e-02 9.431361e-02 -5.703320e-03 7.185610e-03 -4.546554e-02 4.042073e-02 9.287369e-02 -1.560656e-02 2.139829e-02 6.750872e-02 -1.149450e-01 -8.187040e-02 -4.485212e-02 -8.840721e-03 -1.207032e-03 -4.399217e-02 7.006785e-02 8.367801e-02 9.468389e-02 7.157745e-02 -3.898305e-03 -1.066604e-01 -2.627044e-02 4.679760e-02 2.431567e-02 8.842325e-03
<VARIANCE> 39
 7.969529e+00 3.025951e+01 5.770120e+01 3.555372e+01 4.662316e+01 5.970769e+01 4.297733e+01 4.122199e+01 6.200824e+01 4.470571e+01 3.703867e+01 4.230091e+01 3.445782e+01 9.436440e-02 4.468929e-01 5.735080e-01 7.540517e-01 9.976552e-01 1.318407e+00 1.371560e+00 1.215843e+00 1.668159e+00 1.163671e+00 1.041501e+00 9.570395e-01 7.838175e-01 1.415269e-02 4.173727e-02 6.655699e-02 1.003782e-01 1.194289e-01 1.577112e-01 1.843263e-01 1.961301e-01 2.023987e-01 1.785885e-01 1.688374e-01 1.523740e-01 1.205521e-01
<GCONST> 8.739081e+01
<MIXTURE> 2 3.149159e-01
<MEAN> 39
 1.524714e+01 -4.349243e+00 1.081986e+01 8.854809e+00 -2.612084e+01 -1.291929e+01 -6.525844e+00 -2.388819e+00 9.026718e-01 -1.166220e+01 -3.807623e+00 2.120699e+00 -1.051737e+01 2.890400e-02 -9.043374e-02 -8.077525e-02 -7.997511e-02 -8.023346e-02 -3.773038e-02 -8.797267e-03 5.095516e-02 1.155962e-01 2.138391e-02 -3.712305e-02 1.968252e-02 -4.656463e-02 1.232223e-03 -7.670315e-03 -3.700341e-02 -5.079205e-02 3.050971e-02 1.003401e-01 2.206041e-02 4.790723e-03 3.110753e-02 -3.055874e-02 -6.007956e-02 -4.512910e-02 -1.623587e-02
<VARIANCE> 39
 2.508011e+00 2.679007e+01 1.103021e+01 2.086797e+01 2.439509e+01 4.631640e+01 2.108088e+01 1.838558e+01 2.863889e+01 2.768745e+01 2.002993e+01 2.070917e+01 2.276662e+01 1.022884e-01 2.380917e-01 1.805032e-01 3.673747e-01 4.564465e-01 5.778579e-01 2.937434e-01 3.272707e-01 5.379869e-01 4.234627e-01 3.981674e-01 3.835660e-01 3.484687e-01 1.695393e-02 2.460752e-02 2.267309e-02 4.533559e-02 6.885858e-02 5.926621e-02 4.303712e-02 5.139267e-02 7.417648e-02 6.207153e-02 4.781780e-02 4.723194e-02 4.984052e-02
<GCONST> 5.487622e+01
<STATE> 5
<NUMMIXES> 2
<MIXTURE> 1 5.973013e-01
<MEAN> 39
 3.638733e+00 4.299541e+00 2.691123e+00 -9.065642e+00 4.355979e+00 -1.001388e+01 -4.501004e+00 6.695521e-01 -3.804608e+00 -1.169847e+01 -1.284018e+01 -4.217217e+00 -4.052066e+00 -1.315595e-01 7.797229e-02 -2.173835e-01 8.997883e-01 8.700772e-01 1.787288e+00 7.416617e-01 -3.702740e-01 -9.480801e-01 7.712706e-02 3.786366e-01 2.344958e-01 1.923453e-01 -7.653870e-02 7.671314e-02 1.246259e-01 2.683935e-01 -6.690165e-02 1.682501e-02 -2.564884e-02 1.931075e-02 1.572210e-01 1.339448e-01 1.488828e-01 1.717940e-02 -7.267471e-02
<VARIANCE> 39
 1.073902e+01 4.218708e+01 6.424091e+01 6.787687e+01 8.622546e+01 1.168039e+02 8.650879e+01 9.263329e+01 1.507290e+02 6.281741e+01 5.999821e+01 5.424174e+01 5.283535e+01 2.336819e-01 1.002545e+00 1.132163e+00 2.331946e+00 2.061443e+00 2.908149e+00 3.531564e+00 3.588529e+00 3.329597e+00 2.669892e+00 2.649150e+00 2.184588e+00 1.841942e+00 4.099450e-02 1.118465e-01 1.569075e-01 2.550576e-01 2.724634e-01 4.453178e-01 5.105656e-01 4.496514e-01 4.738036e-01 3.877596e-01 4.072061e-01 3.563350e-01 2.864220e-01
<GCONST> 1.169329e+02
<MIXTURE> 2 4.026987e-01
<MEAN> 39
 1.582572e+01 -6.202769e+00 6.881067e+00 2.858558e-01 -2.601778e+01 -8.208780e+00 -6.798051e+00 -1.139870e-01 1.682165e+00 -1.792225e+01 -7.621427e+00 -2.239212e+00 -1.458724e+01 -2.733632e-03 -1.647056e-01 -3.673962e-01 -3.205020e-01 4.935503e-01 9.561538e-01 1.263859e-01 -1.896913e-01 -6.153570e-02 -4.654400e-01 -4.838985e-01 -8.922632e-02 2.567605e-01 -1.613671e-02 4.444433e-03 -1.519113e-02 5.139232e-02 1.248137e-01 1.131909e-01 3.793861e-03 -1.321838e-01 -9.692435e-02 1.398527e-02 2.531889e-02 7.762305e-02 9.905507e-02
<VARIANCE> 39
 5.933716e+00 4.769333e+01 2.530695e+01 3.261579e+01 4.755849e+01 7.007521e+01 3.930109e+01 4.202480e+01 5.116144e+01 5.697253e+01 4.018257e+01 2.714309e+01 3.269576e+01 2.700410e-01 6.552649e-01 4.877866e-01 6.364118e-01 1.116741e+00 1.414619e+00 7.733516e-01 9.783583e-01 1.008670e+00 1.262034e+00 8.557708e-01 8.252540e-01 9.170816e-01 4.715098e-02 7.089911e-02 5.895115e-02 8.461550e-02 1.501703e-01 1.361472e-01 1.189931e-01 1.311370e-01 1.403481e-01 1.654639e-01 1.182292e-01 1.076174e-01 1.211387e-01
<GCONST> 8.581306e+01
<STATE> 6
<NUMMIXES> 2
<MIXTURE> 1 7.418852e-01
<MEAN> 39
 -1.931639e+00 6.354217e+00 6.655194e+00 2.352744e+00 -1.112887e+00 -3.251048e+00 -1.781111e+00 1.318768e+00 -2.743069e-01 -4.627148e+00 -7.192349e+00 -2.142426e+00 -2.749979e+00 -7.660316e-01 8.046241e-02 -1.736430e-02 6.672155e-01 2.761200e-01 5.564119e-01 1.422630e-01 1.488003e-02 8.369113e-02 4.453238e-01 4.942843e-01 1.442186e-01 7.496043e-02 9.674396e-05 -1.230040e-01 -2.313048e-02 -1.418347e-01 -3.213444e-02 -1.401577e-01 -9.212473e-02 -3.685212e-02 2.072596e-02 -5.927422e-02 -4.416778e-02 9.485558e-03 1.508508e-02
<VARIANCE> 39
 6.383334e+01 8.166316e+01 6.118575e+01 6.164476e+01 1.237928e+02 8.615044e+01 7.864680e+01 9.572050e+01 7.676392e+01 5.448204e+01 4.861664e+01 4.246222e+01 3.940397e+01 1.136402e+00 2.438797e+00 1.832704e+00 2.429844e+00 2.271504e+00 2.905773e+00 2.847906e+00 2.573831e+00 2.456512e+00 2.170738e+00 2.309767e+00 1.868344e+00 1.476482e+00 1.449513e-01 3.524352e-01 2.837895e-01 3.496078e-01 3.833496e-01 4.886366e-01 4.879057e-01 4.512668e-01 4.134951e-01 3.819050e-01 3.886546e-01 3.253472e-01 2.583357e-01
<GCONST> 1.224952e+02
<MIXTURE> 2 2.581148e-01
<MEAN> 39
 1.520868e+01 -8.877212e+00 3.518018e+00 3.304025e+00 -1.401173e+01 6.747578e+00 -5.814385e+00 -9.971811e+00 -2.336093e+00 -1.857154e+01 -9.973271e+00 1.016440e+00 -8.539577e+00 -2.797544e-01 3.174688e-01 -1.576995e-02 7.443261e-01 1.190069e+00 7.493731e-01 2.797569e-01 -6.431233e-01 -4.041903e-01 7.296607e-01 2.997425e-01 1.481238e-01 2.761329e-01 -6.712969e-02 5.740683e-02 9.938130e-02 7.864222e-02 -7.519216e-02 -1.855871e-01 1.389941e-02 1.504540e-01 1.243988e-01 1.386428e-01 4.026350e-02 -6.355840e-02 -5.830751e-02
<VARIANCE> 39
 8.783712e+00 5.705370e+01 3.916326e+01 6.461752e+01 7.147317e+01 6.243583e+01 6.874426e+01 6.456558e+01 6.208865e+01 5.663277e+01 4.025060e+01 3.506156e+01 3.365897e+01 3.586242e-01 2.027707e+00 9.844086e-01 1.300604e+00 1.772046e+00 2.724610e+00 2.742066e+00 2.867016e+00 2.332943e+00 2.103287e+00 1.699950e+00 1.600044e+00 1.545526e+00 5.741469e-02 2.721964e-01 1.343825e-01 1.849984e-01 2.632550e-01 3.303590e-01 4.003462e-01 3.599223e-01 3.261644e-01 3.356936e-01 2.941208e-01 2.528005e-01 2.657315e-01
<GCONST> 1.096884e+02
<TRANSP> 7
 0.000000e+00 1.000000e+00 0.000000e+00 0.000000e+00 0.000000e+00 0.000000e+00 0.000000e+00
 0.000000e+00 8.296639e-01 1.703362e-01 0.000000e+00 0.000000e+00 0.000000e+00 0.000000e+00
 0.000000e+00 0.000000e+00 9.005457e-01 9.945428e-02 0.000000e+00 0.000000e+00 0.000000e+00
 0.000000e+00 0.000000e+00 0.000000e+00 8.959527e-01 1.040473e-01 0.000000e+00 0.000000e+00
 0.000000e+00 0.000000e+00 0.000000e+00 0.000000e+00 8.364699e-01 1.635300e-01 0.000000e+00
 0.000000e+00 0.000000e+00 0.000000e+00 0.000000e+00 0.000000e+00 8.647536e-01 1.352464e-01
 0.000000e+00 0.000000e+00 0.000000e+00 0.000000e+00 0.000000e+00 0.000000e+00 0.000000e+00
<ENDHMM>
~o
<STREAMINFO> 1 39
<VECSIZE> 39<NULLD><MFCC_D_A><DIAGC>
~h "ou"
<BEGINHMM>
<NUMSTATES> 7
<STATE> 2
<NUMMIXES> 2
<MIXTURE> 1 0.000000e+00
<MEAN> 39
 2.950430e-05 -1.596659e-05 2.567470e-05 -3.993511e-06 -5.960464e-07 1.929002e-07 -1.204014e-05 8.247793e-06 -1.933426e-06 2.965331e-06 -1.872890e-06 -3.390014e-05 -2.196059e-06 2.152519e-07 -1.188600e-07 -1.470326e-07 2.579764e-07 1.881272e-07 -7.177005e-08 7.529743e-07 5.150214e-07 -5.541369e-08 5.667098e-07 8.731149e-08 2.587331e-08 -1.939479e-07 -6.008020e-02 6.977572e-03 -1.033811e-02 -1.313004e-03 -2.156086e-03 -2.000537e-03 2.022802e-04 5.487027e-04 1.507605e-03 -2.313650e-03 -2.747252e-04 -8.833668e-04 -1.887041e-04
<VARIANCE> 39
 0.000000e+00 0.000000e+00 0.000000e+00 1.138542e-07 1.933426e-06 0.000000e+00 0.000000e+00 4.717149e-07 0.000000e+00 0.000000e+00 0.000000e+00 0.000000e+00 1.194421e-07 0.000000e+00 5.235279e-10 2.760316e-10 0.000000e+00 0.000000e+00 3.660716e-11 1.359149e-08 8.079951e-09 2.454215e-11 0.000000e+00 0.000000e+00 1.390887e-11 0.000000e+00 5.130608e-02 3.996924e-03 4.374815e-03 3.314181e-03 3.503656e-03 3.531398e-03 3.649473e-03 3.541191e-03 3.137489e-03 2.687086e-03 2.360017e-03 1.943796e-03 1.500225e-03
<GCONST> -1.500000e+11
<MIXTURE> 2 1.000000e+00
<MEAN> 39
 -2.109566e+00 -2.413673e+00 4.441372e+00 -5.033609e+00 4.064599e+00 -9.041075e+00 2.120723e+00 1.666117e+00 -1.544265e+00 -5.734269e+00 -1.795594e+00 1.798271e+00 -1.507233e+00 8.018343e-01 -4.207370e-02 -5.034280e-01 -3.660480e-01 -6.864195e-01 -1.055450e+00 -4.266699e-02 6.248215e-01 5.848245e-02 -1.964456e-01 -1.164211e-01 1.088953e-01 2.474803e-03 -4.922288e-02 -3.357781e-02 -1.797564e-02 3.256966e-02 -1.520504e-02 -8.456312e-03 1.929860e-02 5.125577e-02 5.103907e-02 4.064816e-02 1.765215e-04 -3.467243e-02 -5.333835e-03
<VARIANCE> 39
 9.429701e+01 8.186190e+01 6.436120e+01 8.225718e+01 1.169081e+02 1.271517e+02 7.649299e+01 8.636314e+01 8.378101e+01 6.195742e+01 4.175195e+01 3.660329e+01 3.581296e+01 3.612437e+00 3.069255e+00 2.806201e+00 3.606408e+00 3.157744e+00 4.535131e+00 4.197118e+00 3.657338e+00 3.708790e+00 3.017883e+00 2.483088e+00 2.077839e+00 1.774188e+00 4.398997e-01 5.100543e-01 4.769849e-01 5.938483e-01 5.008246e-01 6.689500e-01 6.159760e-01 6.096433e-01 5.536917e-01 5.147039e-01 4.222462e-01 3.637438e-01 3.066834e-01
<GCONST> 1.326735e+02
<STATE> 3
<NUMMIXES> 2
<MIXTURE> 1 0.000000e+00
<MEAN> 39
 0.000000e+00 0.000000e+00 0.000000e+00 0.000000e+00 0.000000e+00 0.000000e+00 0.000000e+00 0.000000e+00 0.000000e+00 0.000000e+00 0.000000e+00 0.000000e+00 0.000000e+00 6.126449e-30 -5.464483e-30 2.270194e-30 -1.821515e-31 4.406674e-31 -1.213802e-30 9.256382e-31 -1.708705e-31 6.429896e-32 -4.287194e-31 4.667875e-31 -1.477681e-31 3.115776e-33 -5.948948e-02 7.116884e-03 -1.043719e-02 -1.810754e-03 -2.071288e-03 -1.224210e-03 1.069486e-03 9.119928e-04 2.393554e-03 -1.654138e-03 -8.557731e-05 -5.460818e-04 -2.131514e-04
<VARIANCE> 39
 0.000000e+00 0.000000e+00 0.000000e+00 0.000000e+00 0.000000e+00 0.000000e+00 0.000000e+00 0.000000e+00 0.000000e+00 0.000000e+00 0.000000e+00 0.000000e+00 0.000000e+00 7.215268e-30 5.740278e-30 9.907425e-31 6.378229e-33 3.732989e-32 2.832244e-31 1.647090e-31 5.612664e-33 7.947721e-34 3.533306e-32 4.188642e-32 4.197554e-33 1.866239e-36 5.242730e-02 4.308010e-03 4.828463e-03 3.723914e-03 3.905280e-03 3.459802e-03 3.704401e-03 3.736516e-03 3.287535e-03 2.844681e-03 2.523395e-03 2.245883e-03 1.678810e-03
<GCONST> -1.300000e+11
<MIXTURE> 2 1.000000e+00
<MEAN> 39
 -1.280701e+01 4.756906e+00 -1.927220e+00 -2.579999e+00 2.951190e+00 -2.003875e+00 8.622402e+00 4.263934e+00 4.434746e+00 4.959923e-01 -1.072480e+00 4.889691e+00 -1.153323e+00 -1.600183e-01 7.478337e-03 3.922622e-02 6.875449e-03 -5.208397e-02 -2.989497e-02 3.400084e-03 3.242648e-02 1.519353e-01 1.107193e-01 -1.990739e-02 -1.751671e-02 2.711753e-02 4.324902e-03 -2.065639e-03 1.914201e-02 4.784775e-03 1.012947e-02 9.411772e-04 -1.197449e-02 -6.379053e-03 -5.135654e-03 -4.098499e-03 4.932901e-04 -6.281308e-03 -4.936156e-03
<VARIANCE> 39
 5.539112e+01 3.240533e+01 3.966918e+01 4.824503e+01 4.199891e+01 5.603036e+01 4.780831e+01 3.574446e+01 4.262104e+01 3.383352e+01 2.347317e+01 3.151471e+01 2.050611e+01 6.263108e-01 7.141330e-01 1.389064e+00 1.635720e+00 1.554670e+00 1.409392e+00 1.374572e+00 1.677071e+00 1.696028e+00 1.552155e+00 1.373117e+00 1.287466e+00 1.060388e+00 9.312864e-02 1.168115e-01 2.497515e-01 2.827002e-01 2.713852e-01 2.726054e-01 2.721325e-01 3.190309e-01 3.248306e-01 3.092300e-01 2.834457e-01 2.686509e-01 2.229054e-01
<GCONST> 1.034731e+02
<STATE> 4
<NUMMIXES> 2
<MIXTURE> 1 1.000000e+00
<MEAN> 39
 -7.194802e-01 5.320293e-02 2.894306e-01 -7.845845e-01 1.667134e-01 -1.911846e+00 5.171649e-01 9.148747e-01 3.823113e-01 -6.341949e-01 -3.872614e-01 3.816344e-01 -1.825590e-01 -2.320622e-02 5.043196e-03 -7.395993e-03 -3.253867e-03 -5.298958e-02 -6.297351e-02 1.352207e-02 7.500052e-02 7.792939e-02 2.633213e-02 -1.214396e-02 -8.041868e-03 -9.303389e-05 -6.416770e-02 1.885094e-02 1.160079e-02 -3.176087e-03 5.024109e-03 -7.209181e-03 8.951697e-03 1.600079e-02 1.620876e-02 -1.627114e-03 2.880093e-03 2.897914e-03 -5.609239e-03
<VARIANCE> 39
 3.181061e+01 1.020486e+01 7.216634e+00 1.398009e+01 1.776587e+01 4.583976e+01 1.373211e+01 1.366090e+01 1.756725e+01 1.404817e+01 6.582854e+00 6.266281e+00 5.626930e+00 5.682507e-01 1.234935e-01 1.633751e-01 1.760816e-01 2.687257e-01 2.788240e-01 2.903918e-01 2.877964e-01 2.852548e-01 2.306682e-01 2.107959e-01 1.855881e-01 1.517542e-01 1.132361e-01 2.964850e-02 3.381490e-02 3.826502e-02 4.918020e-02 6.329954e-02 4.894837e-02 5.998548e-02 5.010733e-02 4.484934e-02 3.793598e-02 3.488406e-02 2.798649e-02
<GCONST> 4.558894e+01
<MIXTURE> 2 0.000000e+00
<MEAN> 39
 1.208484e-05 -8.553267e-06 -2.384186e-07 -1.952052e-06 -1.340359e-05 -3.114343e-05 -5.429611e-07 -6.236136e-06 2.693385e-06 -4.857779e-06 -7.867813e-06 4.526228e-07 9.596348e-06 -5.797483e-08 -3.934838e-07 1.234002e-08 -5.355105e-09 2.961606e-07 -4.060566e-07 -2.242159e-07 7.650815e-07 -7.157214e-07 2.267188e-08 -1.420267e-08 1.264270e-07 -1.518056e-07 -1.733069e-02 2.135032e-03 -2.558388e-03 2.833310e-04 -6.236576e-04 -1.803544e-04 -3.749149e-05 -4.109075e-04 1.268192e-04 -8.433932e-04 1.034832e-04 -7.428668e-04 1.402625e-04
<VARIANCE> 39
 3.943220e-06 1.306646e-06 2.658926e-07 0.000000e+00 4.642643e-06 1.331419e-05 0.000000e+00 0.000000e+00 0.000000e+00 4.651025e-06 1.906883e-06 0.000000e+00 0.000000e+00 0.000000e+00 0.000000e+00 0.000000e+00 0.000000e+00 2.783054e-10 4.038156e-10 0.000000e+00 1.731314e-08 0.000000e+00 3.075229e-11 7.235030e-10 0.000000e+00 6.684786e-10 1.100459e-02 5.213512e-04 5.872871e-04 3.387984e-04 4.089739e-04 3.906928e-04 4.339819e-04 3.915064e-04 3.306664e-04 3.511715e-04 2.671561e-04 2.600339e-04 1.677476e-04
<GCONST> -1.300000e+11
<STATE> 5
<NUMMIXES> 2
<MIXTURE> 1 6.279457e-01
<MEAN> 39
 -1.134325e+01 3.925147e+00 2.332419e+00 -2.234094e+00 -5.082996e-01 -7.141212e+00 3.777564e+00 8.448711e+00 6.523410e+00 1.584993e+00 -4.054926e-01 3.016639e+00 -7.225316e-01 1.197955e+00 -1.812970e-01 1.818994e-01 -1.855244e-01 -6.100588e-01 -1.593457e+00 -1.702073e-01 6.973662e-01 4.162713e-02 -3.503134e-01 -1.198100e-01 -1.429032e-01 -1.772631e-01 2.974551e-01 -1.157566e-01 -3.429294e-02 -8.952612e-03 -6.894421e-02 -1.799686e-01 -4.978814e-03 2.731452e-02 -2.497179e-02 -3.855965e-02 -8.081556e-03 -3.869404e-02 1.678658e-02
<VARIANCE> 39
 6.731393e+01 3.261472e+01 3.262733e+01 4.575409e+01 6.598118e+01 1.149892e+02 6.130729e+01 6.109669e+01 4.224984e+01 3.736356e+01 2.650904e+01 2.392607e+01 2.091173e+01 6.634047e+00 2.361763e+00 2.411406e+00 3.064639e+00 5.377823e+00 6.997009e+00 3.692349e+00 3.925517e+00 3.358174e+00 3.059058e+00 2.218752e+00 1.939181e+00 1.615929e+00 7.014008e-01 4.122256e-01 4.631999e-01 5.488634e-01 8.104723e-01 1.039569e+00 6.170359e-01 7.092707e-01 5.744712e-01 5.579061e-01 4.256217e-01 3.612047e-01 3.158655e-01
<GCONST> 1.282504e+02
<MIXTURE> 2 3.720543e-01
<MEAN> 39
 7.334477e+00 -1.906986e+00 2.310461e+00 -3.856545e+00 -3.947105e+00 -2.525011e+01 -3.802516e-01 1.285570e+01 6.425344e+00 -3.758724e+00 -2.443129e+00 1.058940e+00 -1.043297e+00 8.011569e-01 -6.798778e-01 -2.932922e-01 -1.357029e-01 -1.296787e-01 -7.198817e-01 1.138178e-02 5.934145e-04 3.545350e-01 -1.168128e-01 -1.205692e-01 -1.388896e-01 1.944677e-01 -4.165767e-01 1.221675e-01 2.933679e-02 -2.498106e-02 2.125103e-01 3.759916e-01 6.656029e-03 -1.587244e-01 -7.446830e-03 -4.415393e-03 -8.854903e-03 4.969811e-02 -1.384890e-02
<VARIANCE> 39
 1.448723e+01 3.257531e+01 3.748643e+01 3.081356e+01 1.230102e+02 7.251581e+01 1.536699e+02 5.099353e+01 8.625795e+01 3.628775e+01 2.573932e+01 2.268064e+01 2.436339e+01 1.323717e+00 1.449650e+00 1.093754e+00 1.122637e+00 1.703207e+00 2.215564e+00 2.585702e+00 1.640262e+00 2.229677e+00 1.444500e+00 1.141696e+00 1.064054e+00 8.397502e-01 2.521241e-01 2.295647e-01 2.072805e-01 2.230140e-01 3.521387e-01 3.809316e-01 4.380833e-01 3.015585e-01 3.196183e-01 2.612436e-01 2.100222e-01 2.037364e-01 1.490314e-01
<GCONST> 1.078849e+02
<STATE> 6
<NUMMIXES> 2
<MIXTURE> 1 3.303734e-01
<MEAN> 39
 5.415169e+00 2.105001e+00 8.286717e+00 -6.781950e+00 -8.577926e-01 -1.254419e+01 -1.649989e+00 1.208340e+00 9.645579e-01 -7.114693e+00 -6.873232e+00 -1.654133e+00 -3.871116e+00 -2.851391e-01 3.130485e-01 6.052674e-02 2.815401e-01 4.954672e-01 9.175517e-01 1.049259e-01 -3.888978e-01 -1.480689e-01 1.405251e-01 -1.270562e-03 -1.086269e-02 2.120528e-02 -3.672368e-02 -2.195066e-02 -1.909135e-02 2.803851e-02 -7.964722e-03 1.874656e-02 3.934168e-03 2.252965e-02 2.355867e-02 1.675401e-02 8.226101e-03 4.230997e-03 1.670455e-02
<VARIANCE> 39
 3.891982e+01 7.730728e+01 8.255802e+01 8.064613e+01 1.305227e+02 1.286988e+02 6.922740e+01 7.507511e+01 1.480531e+02 7.129701e+01 5.800704e+01 5.402071e+01 4.836290e+01 7.266253e-01 1.603099e+00 1.564424e+00 2.075258e+00 2.120817e+00 3.529207e+00 2.809938e+00 2.678776e+00 2.492136e+00 2.212294e+00 2.099703e+00 1.925633e+00 1.442251e+00 9.360091e-02 2.035649e-01 2.363898e-01 2.910679e-01 3.036974e-01 5.074446e-01 4.358215e-01 4.069343e-01 3.906559e-01 3.719486e-01 3.426550e-01 3.045939e-01 2.422782e-01
<GCONST> 1.209570e+02
<MIXTURE> 2 6.696266e-01
<MEAN> 39
 8.810984e+00 -3.566041e+00 6.217023e-01 -7.260309e+00 -4.461994e+00 -2.485660e+01 2.432517e+00 9.325836e+00 1.235634e+00 -7.774257e+00 -3.069009e+00 -3.168888e-02 -3.020636e+00 -3.273367e-02 4.029116e-02 -3.859648e-02 -1.400290e-01 3.972071e-01 2.248058e-01 -5.231507e-02 -2.534755e-01 -2.483289e-01 -9.225403e-02 2.048376e-03 1.380528e-02 -6.198340e-03 -1.778702e-02 3.932827e-02 1.004815e-02 -6.330296e-04 7.541443e-02 7.819501e-02 -1.600245e-02 -7.203474e-02 -5.974763e-02 1.717827e-02 1.298147e-02 8.088445e-03 -6.416142e-03
<VARIANCE> 39
 8.803520e+00 3.534943e+01 4.147694e+01 4.379413e+01 1.019291e+02 4.979808e+01 1.382900e+02 5.018952e+01 1.425190e+02 4.362959e+01 2.884781e+01 3.640536e+01 5.056278e+01 1.045018e-01 4.192748e-01 4.532607e-01 5.845540e-01 1.074193e+00 9.599702e-01 1.090158e+00 1.052506e+00 1.115235e+00 8.992944e-01 8.216611e-01 6.843343e-01 6.692764e-01 1.718481e-02 5.066930e-02 6.037806e-02 8.477132e-02 1.009075e-01 1.276130e-01 1.459071e-01 1.342569e-01 1.376681e-01 1.342044e-01 1.249247e-01 1.065229e-01 9.409270e-02
<GCONST> 8.537233e+01
<TRANSP> 7
 0.000000e+00 1.000000e+00 0.000000e+00 0.000000e+00 0.000000e+00 0.000000e+00 0.000000e+00
 0.000000e+00 7.990998e-01 2.009002e-01 0.000000e+00 0.000000e+00 0.000000e+00 0.000000e+00
 0.000000e+00 0.000000e+00 9.136109e-01 8.638918e-02 0.000000e+00 0.000000e+00 0.000000e+00
 0.000000e+00 0.000000e+00 0.000000e+00 8.074576e-01 1.925425e-01 0.000000e+00 0.000000e+00
 0.000000e+00 0.000000e+00 0.000000e+00 0.000000e+00 9.052695e-01 9.473053e-02 0.000000e+00
 0.000000e+00 0.000000e+00 0.000000e+00 0.000000e+00 0.000000e+00 9.455795e-01 5.442048e-02
 0.000000e+00 0.000000e+00 0.000000e+00 0.000000e+00 0.000000e+00 0.000000e+00 0.000000e+00
<ENDHMM>
~o
<STREAMINFO> 1 39
<VECSIZE> 39<NULLD><MFCC_D_A><DIAGC>
~h "p"
<BEGINHMM>
<NUMSTATES> 5
<STATE> 2
<NUMMIXES> 2
<MIXTURE> 1 6.548613e-01
<MEAN> 39
 -6.529410e+00 9.265936e+00 -4.754146e-01 6.692258e+00 -1.010106e+00 1.034284e+00 -3.929449e+00 -8.045034e-01 9.082197e-01 -1.168303e+00 -4.655844e+00 1.002760e+00 -6.649396e-01 -5.994765e-01 6.891086e-02 1.220976e-01 -7.629960e-02 -6.926736e-02 1.054095e-01 1.751424e-01 7.871214e-03 6.386814e-02 2.420229e-01 1.460634e-01 6.020441e-02 1.002274e-01 3.309000e-02 -6.057196e-02 3.321564e-02 1.476549e-02 4.341658e-02 3.223274e-02 5.172091e-02 3.616959e-02 8.234985e-03 -9.072933e-03 1.075229e-02 6.170325e-03 -2.633367e-02
<VARIANCE> 39
 8.619159e+01 9.005613e+01 3.514727e+01 5.408350e+01 6.778961e+01 5.769750e+01 6.721435e+01 8.577148e+01 3.756863e+01 2.693132e+01 2.635403e+01 2.877508e+01 3.158457e+01 2.446520e-01 2.943833e-01 4.280230e-01 5.587532e-01 7.495356e-01 8.121263e-01 8.951542e-01 1.032620e+00 1.058578e+00 9.464941e-01 9.283788e-01 8.636349e-01 7.528583e-01 2.372804e-02 6.220230e-02 7.530552e-02 1.042874e-01 1.314608e-01 1.567009e-01 1.805382e-01 1.955158e-01 1.987933e-01 1.921756e-01 1.849300e-01 1.749435e-01 1.558067e-01
<GCONST> 8.983270e+01
<MIXTURE> 2 3.451388e-01
<MEAN> 39
 -3.270164e+00 6.422336e+00 1.839309e+00 4.783679e+00 1.272440e+00 -8.820377e-01 -1.282290e+00 1.492113e-01 4.575896e-01 -4.134608e+00 -5.359123e+00 1.892623e-01 -3.223164e+00 -6.329859e-01 2.489376e-01 -1.176340e-02 1.863077e-01 -2.752085e-02 3.659469e-01 2.189890e-01 1.060380e-02 2.227643e-01 3.579130e-01 1.320145e-01 1.585719e-01 1.619923e-01 1.557024e-02 -2.614360e-01 6.692572e-03 -1.227642e-01 4.698839e-02 -9.576293e-02 1.135341e-02 -5.683682e-02 -2.140195e-02 -5.869600e-03 8.750928e-02 4.618074e-02 3.672687e-02
<VARIANCE> 39
 9.044048e+01 9.298467e+01 4.779222e+01 7.013512e+01 8.817563e+01 8.111058e+01 7.116142e+01 7.951229e+01 5.417300e+01 4.384365e+01 3.714578e+01 3.714086e+01 3.547397e+01 1.608684e+00 2.571577e+00 1.566489e+00 2.035458e+00 2.108413e+00 2.644958e+00 2.260398e+00 2.223971e+00 2.148828e+00 2.076044e+00 1.830889e+00 1.693603e+00 1.438496e+00 2.180577e-01 5.663590e-01 2.995440e-01 3.951207e-01 4.257579e-01 5.087301e-01 4.830398e-01 4.311304e-01 4.293186e-01 3.961376e-01 3.740312e-01 3.464852e-01 3.002768e-01
<GCONST> 1.214802e+02
<STATE> 3
<NUMMIXES> 2
<MIXTURE> 1 4.342800e-01
<MEAN> 39
 -1.118581e+01 6.631098e+00 2.156339e+00 7.004804e+00 1.199106e+00 3.345248e+00 -1.182326e-03 1.323652e+00 1.724799e+00 7.195799e-01 -2.323846e+00 1.480338e+00 -7.009118e-01 4.065107e-01 -2.089387e+00 2.081226e-01 -6.374778e-01 4.095348e-01 -2.374129e-01 6.400948e-01 -4.476283e-01 -1.735278e-01 -5.282153e-01 6.749002e-02 2.088112e-01 -1.476615e-01 4.687114e-01 -5.250897e-01 1.123738e-03 -2.797312e-01 3.668570e-02 -1.395448e-01 -5.626840e-03 -1.877588e-01 -7.671396e-02 -3.647197e-01 -1.016123e-01 -4.085739e-02 -1.805833e-02
<VARIANCE> 39
 6.469291e+01 6.943014e+01 2.775968e+01 3.751670e+01 5.152280e+01 4.457821e+01 4.905082e+01 4.807463e+01 3.467488e+01 2.673223e+01 2.438631e+01 2.210191e+01 2.139389e+01 3.577304e+00 6.022654e+00 2.267912e+00 3.539975e+00 4.060835e+00 3.930761e+00 3.747476e+00 3.120609e+00 2.955219e+00 2.810895e+00 2.387784e+00 2.162487e+00 2.033705e+00 4.371213e-01 8.557001e-01 3.150386e-01 4.415730e-01 5.663242e-01 5.671254e-01 5.579132e-01 4.593184e-01 4.777787e-01 4.426805e-01 3.671808e-01 3.355842e-01 3.097764e-01
<GCONST> 1.233037e+02
<MIXTURE> 2 5.657201e-01
<MEAN> 39
 -1.339001e+01 5.605368e+00 2.748972e+00 8.482920e+00 9.883122e-01 5.767195e+00 2.189145e+00 1.904348e+00 3.263440e+00 2.719775e+00 -5.464441e-01 2.633616e+00 7.087818e-01 -2.175746e-01 -6.624714e-02 2.100583e-02 5.229732e-02 8.638217e-02 9.618425e-02 1.269373e-01 1.072390e-01 9.810916e-02 1.018982e-01 9.766967e-02 8.162817e-02 3.849161e-02 7.697292e-02 -7.157008e-02 -9.950407e-03 -4.637252e-02 -1.423191e-02 -5.293635e-02 -2.841714e-02 -5.319961e-02 -4.967979e-02 -7.161355e-02 -5.361619e-02 -3.287214e-02 -2.904992e-02
<VARIANCE> 39
 3.477512e+01 4.251936e+01 1.224086e+01 2.328643e+01 3.424157e+01 2.301149e+01 3.069214e+01 3.293821e+01 2.478902e+01 1.458890e+01 1.599568e+01 1.723528e+01 1.276564e+01 1.974753e-01 3.354330e-01 4.343296e-01 5.908806e-01 7.401435e-01 8.783693e-01 1.016441e+00 1.115966e+00 1.158862e+00 1.132960e+00 1.076538e+00 1.014433e+00 8.727205e-01 4.830079e-02 1.018471e-01 9.088425e-02 1.314799e-01 1.592544e-01 1.978310e-01 2.194068e-01 2.422969e-01 2.535823e-01 2.533881e-01 2.323207e-01 2.191538e-01 1.897688e-01
<GCONST> 8.460043e+01
<STATE> 4
<NUMMIXES> 2
<MIXTURE> 1 4.648662e-01
<MEAN> 39
 -9.511083e+00 -1.515961e+00 3.062264e+00 -3.353250e-01 8.056663e+00 -1.411129e+00 4.822044e+00 -5.497944e-01 -7.701830e-01 -2.705666e+00 -1.616444e+00 7.023423e-01 1.545601e-02 1.911473e+00 -4.783574e-01 2.564025e-01 -9.522917e-01 3.099446e-01 -9.508571e-01 -1.347922e-01 -1.792045e-01 -1.235751e-01 -7.555293e-01 -2.877484e-01 -3.063694e-01 -6.991760e-02 4.580419e-01 8.002834e-01 -1.068631e-01 1.918386e-01 -4.479915e-01 -3.373792e-01 -6.320761e-01 1.600796e-01 1.607968e-01 -2.794804e-02 -2.617513e-01 -7.366656e-02 -2.147930e-01
<VARIANCE> 39
 2.126116e+01 3.142403e+01 2.377733e+01 3.452168e+01 3.107186e+01 2.975102e+01 2.697002e+01 3.411332e+01 2.716059e+01 2.412583e+01 1.911496e+01 1.781043e+01 1.734785e+01 2.631030e+00 7.508147e+00 2.556628e+00 3.982949e+00 4.338752e+00 4.821083e+00 5.214778e+00 3.769123e+00 4.160820e+00 2.944216e+00 2.747490e+00 2.137095e+00 2.450844e+00 3.321486e-01 9.302302e-01 5.886200e-01 6.984502e-01 6.796075e-01 9.164934e-01 9.620290e-01 7.429344e-01 7.482343e-01 6.188274e-01 4.955072e-01 4.358808e-01 4.742741e-01
<GCONST> 1.242883e+02
<MIXTURE> 2 5.351338e-01
<MEAN> 39
 5.575391e+00 -2.860727e+00 2.772343e+00 2.015958e+00 -3.721030e+00 -2.111733e+00 -3.877848e+00 -2.620986e+00 2.470147e+00 -7.952610e+00 -6.932092e+00 6.750330e-01 -4.373814e+00 1.598501e+00 -3.464244e-01 -5.016539e-01 -7.010765e-01 -7.173635e-01 -1.436791e+00 -1.158932e+00 1.702695e-02 -8.632448e-02 -1.004322e+00 -4.682959e-01 -1.805829e-01 -3.974162e-01 -4.055298e-01 -1.478230e-02 -5.598316e-02 1.300035e-02 2.154000e-01 5.316204e-02 1.850382e-01 8.545933e-02 -1.610934e-01 1.160770e-01 1.965577e-01 1.584915e-02 1.244788e-01
<VARIANCE> 39
 5.085406e+01 1.230939e+02 4.408906e+01 8.193147e+01 1.638609e+02 1.647309e+02 6.549468e+01 7.657068e+01 8.530836e+01 5.663442e+01 3.560547e+01 3.747542e+01 3.432499e+01 3.004914e+00 5.860768e+00 2.796662e+00 3.274845e+00 4.989992e+00 7.926629e+00 5.098965e+00 3.982728e+00 5.117090e+00 3.611081e+00 2.914007e+00 2.784197e+00 2.203512e+00 2.981839e-01 1.169100e+00 4.089372e-01 4.723954e-01 6.003661e-01 1.287749e+00 6.650918e-01 5.916075e-01 6.774400e-01 5.283658e-01 4.036909e-01 4.769398e-01 3.043843e-01
<GCONST> 1.363694e+02
<TRANSP> 5
 0.000000e+00 1.000000e+00 0.000000e+00 0.000000e+00 0.000000e+00
 0.000000e+00 8.513117e-01 1.486883e-01 0.000000e+00 0.000000e+00
 0.000000e+00 0.000000e+00 8.155290e-01 1.844710e-01 0.000000e+00
 0.000000e+00 0.000000e+00 0.000000e+00 7.770231e-01 2.229769e-01
 0.000000e+00 0.000000e+00 0.000000e+00 0.000000e+00 0.000000e+00
<ENDHMM>
~o
<STREAMINFO> 1 39
<VECSIZE> 39<NULLD><MFCC_D_A><DIAGC>
~h "ph"
<BEGINHMM>
<NUMSTATES> 5
<STATE> 2
<NUMMIXES> 2
<MIXTURE> 1 5.421964e-01
<MEAN> 39
 -1.274303e+01 5.894961e+00 7.101383e-01 3.329358e+00 4.304179e+00 9.117288e-01 4.177005e+00 9.416249e-01 2.987409e+00 1.008761e+00 -8.420026e-01 2.804038e+00 -4.604839e-01 -2.911583e-01 -3.222716e-02 5.467923e-02 4.525688e-02 2.368679e-02 5.993981e-02 7.414219e-02 4.380245e-02 1.130814e-01 1.377621e-01 2.674849e-02 3.240749e-03 4.146182e-02 3.465130e-02 -2.764453e-02 1.230978e-02 -9.281121e-03 2.230681e-02 -5.505478e-03 -6.961564e-03 -4.097028e-03 -1.567648e-02 -2.344767e-02 -8.869462e-03 -1.724547e-02 -7.355524e-03
<VARIANCE> 39
 6.351586e+01 2.855404e+01 1.391894e+01 2.120301e+01 2.783934e+01 3.099687e+01 2.748202e+01 2.878584e+01 2.200319e+01 1.946620e+01 1.672026e+01 1.806717e+01 1.501106e+01 2.453144e-01 2.444887e-01 3.708371e-01 5.129755e-01 6.264263e-01 6.881907e-01 8.276388e-01 9.552923e-01 9.917171e-01 9.338828e-01 8.861253e-01 8.607888e-01 7.266477e-01 3.465810e-02 5.175100e-02 7.046427e-02 1.003364e-01 1.264381e-01 1.499898e-01 1.747224e-01 1.982700e-01 2.029570e-01 1.970397e-01 1.877107e-01 1.818280e-01 1.582049e-01
<GCONST> 7.952052e+01
<MIXTURE> 2 4.578037e-01
<MEAN> 39
 -1.061314e+01 4.508859e+00 2.351955e+00 2.261839e+00 4.435443e+00 -9.616234e-01 3.621585e+00 -3.179631e-03 1.726201e+00 -9.315487e-01 -2.114223e+00 1.563895e+00 -1.609833e+00 -5.161710e-01 -3.526477e-01 2.911143e-02 -1.825184e-01 2.357730e-01 9.824577e-02 2.119606e-01 -1.543282e-01 1.060664e-01 5.051107e-02 1.331901e-01 9.739643e-02 1.832348e-01 1.354675e-01 -3.477523e-01 2.938760e-02 -1.948917e-01 1.088313e-01 -7.755677e-02 1.115812e-02 -1.059558e-01 -6.498038e-02 -8.320712e-02 8.114140e-02 -3.041801e-03 7.394757e-02
<VARIANCE> 39
 8.061089e+01 5.951883e+01 3.953808e+01 6.187191e+01 5.538287e+01 5.808527e+01 4.760559e+01 4.358854e+01 3.575487e+01 3.177996e+01 2.974129e+01 3.050714e+01 2.478148e+01 2.753065e+00 2.864376e+00 1.952141e+00 2.356028e+00 2.306758e+00 2.407666e+00 2.283975e+00 2.247595e+00 2.180012e+00 1.958684e+00 1.709298e+00 1.586406e+00 1.248816e+00 4.194567e-01 4.736438e-01 3.539990e-01 4.393770e-01 4.242186e-01 4.323037e-01 4.412841e-01 4.398552e-01 4.384551e-01 3.943117e-01 3.524971e-01 3.299528e-01 2.679860e-01
<GCONST> 1.183022e+02
<STATE> 3
<NUMMIXES> 2
<MIXTURE> 1 5.600119e-01
<MEAN> 39
 -9.317332e+00 -2.969177e+00 3.725650e+00 -2.643999e+00 9.110510e+00 -2.567680e+00 5.409853e+00 -3.234438e+00 1.219144e+00 -2.246027e+00 6.266018e-01 2.164307e+00 1.596908e+00 1.298671e+00 -1.730554e+00 7.103637e-02 -1.233329e+00 3.953851e-01 -3.804650e-01 4.321009e-01 -1.527873e-01 1.062152e-01 -1.401625e-02 7.881256e-01 3.190215e-01 4.907874e-01 1.124778e-01 2.114899e-01 -1.642549e-01 1.432932e-01 -2.661680e-01 6.998989e-03 -9.256005e-02 2.665987e-01 1.427002e-01 1.973448e-01 -1.908456e-02 4.282961e-02 -1.714229e-01
<VARIANCE> 39
 3.698630e+01 4.712070e+01 2.628488e+01 4.189140e+01 5.385840e+01 4.272078e+01 4.106637e+01 4.158817e+01 3.187658e+01 2.619904e+01 2.968308e+01 2.163716e+01 2.216924e+01 3.535106e+00 6.263989e+00 2.898583e+00 4.180197e+00 4.933668e+00 3.992505e+00 4.809509e+00 5.642339e+00 3.904264e+00 3.681919e+00 3.301386e+00 2.862070e+00 2.587319e+00 4.915293e-01 9.746984e-01 4.319783e-01 6.542584e-01 5.815032e-01 6.478136e-01 7.206054e-01 8.275326e-01 6.219364e-01 6.004931e-01 5.268276e-01 4.884654e-01 4.209011e-01
<GCONST> 1.286550e+02
<MIXTURE> 2 4.399882e-01
<MEAN> 39
 -2.060373e+01 -6.786757e+00 6.234400e-02 -9.011068e+00 8.619248e+00 -3.625537e+00 3.869573e+00 -6.938273e-01 3.053864e-01 -3.026185e+00 7.343073e-01 2.833228e-02 1.542731e+00 2.179769e-01 -2.029739e-01 -1.098837e-01 -2.294746e-01 -7.805532e-02 2.337237e-02 7.540257e-02 8.582928e-02 7.344497e-03 5.367020e-02 8.905365e-02 1.251723e-01 6.915379e-02 1.848875e-01 1.529854e-01 8.884373e-02 1.101771e-01 -2.353713e-02 -4.515754e-03 1.349411e-02 3.842100e-02 2.582745e-02 2.231824e-02 -4.808695e-02 1.572744e-03 -7.321626e-02
<VARIANCE> 39
 5.819139e+01 2.071790e+01 1.794646e+01 3.994051e+01 2.364512e+01 1.702312e+01 1.729119e+01 2.330138e+01 2.033211e+01 1.893722e+01 1.625776e+01 1.413106e+01 1.517375e+01 1.221073e+00 8.374184e-01 9.214890e-01 1.149662e+00 1.223604e+00 1.413716e+00 1.501709e+00 1.642686e+00 1.560365e+00 1.447211e+00 1.309582e+00 1.279333e+00 1.070645e+00 1.387147e-01 1.802206e-01 1.822132e-01 2.193455e-01 2.232915e-01 2.827133e-01 3.009810e-01 3.140347e-01 3.109321e-01 2.907129e-01 2.741935e-01 2.583091e-01 2.384470e-01
<GCONST> 9.586796e+01
<STATE> 4
<NUMMIXES> 2
<MIXTURE> 1 7.333320e-01
<MEAN> 39
 -3.971851e+00 -7.744315e+00 2.375155e+00 -4.927644e+00 8.123004e+00 -6.714871e+00 5.037884e+00 1.719847e+00 3.279331e+00 3.969265e-01 2.666446e+00 2.106113e+00 1.502638e-01 5.495300e-01 2.513824e-01 2.880155e-01 1.680617e-01 4.022587e-02 -7.311085e-01 -4.893901e-01 2.664528e-01 -2.130930e-01 -2.744949e-01 -3.436046e-01 -5.143590e-01 -5.559302e-01 -3.917928e-03 1.381881e-01 9.701883e-02 5.097167e-02 6.621895e-02 -3.552786e-02 -1.242885e-01 -1.346477e-01 -1.428025e-01 -1.942507e-01 -1.048988e-01 -1.003974e-01 -2.463484e-02
<VARIANCE> 39
 3.121281e+01 4.909148e+01 4.574644e+01 6.365828e+01 1.095605e+02 6.651155e+01 7.444904e+01 6.755801e+01 5.853874e+01 5.245796e+01 4.853618e+01 3.650225e+01 3.282740e+01 1.178648e+00 2.259491e+00 1.819727e+00 2.127737e+00 2.429826e+00 2.982758e+00 2.431505e+00 2.852778e+00 2.711019e+00 2.801728e+00 2.295430e+00 1.917224e+00 1.692433e+00 1.631441e-01 2.927351e-01 2.899472e-01 3.359090e-01 3.911131e-01 5.110273e-01 4.276449e-01 5.104122e-01 4.417577e-01 4.396488e-01 3.971434e-01 3.448369e-01 2.990418e-01
<GCONST> 1.203555e+02
<MIXTURE> 2 2.666681e-01
<MEAN> 39
 5.007752e+00 -2.283543e+01 4.224558e+00 7.395911e+00 -1.496770e+01 1.634329e+01 -3.899620e-01 -7.362168e+00 1.045351e+01 -8.315866e+00 -4.072007e+00 7.575201e+00 -7.643221e+00 4.026023e-01 -7.765181e-02 -8.578298e-02 -6.968217e-02 -1.323925e-01 -1.894298e-01 -1.235157e-01 -2.788639e-02 -4.998827e-02 -1.253398e-01 -5.394829e-02 -4.789721e-02 -1.341058e-01 -2.680980e-02 2.108817e-01 -1.997906e-02 -1.188034e-02 7.128937e-02 -1.880370e-01 -1.090263e-02 7.185538e-02 -9.433557e-02 3.775261e-02 -1.023603e-02 -9.081265e-02 7.448491e-03
<VARIANCE> 39
 4.348479e+01 6.712718e+01 3.071273e+01 2.897330e+01 3.015086e+01 3.144908e+01 3.685800e+01 4.986613e+01 2.770036e+01 2.634098e+01 2.861377e+01 1.982357e+01 1.831832e+01 2.071848e+00 4.567060e+00 1.638904e+00 1.625862e+00 2.427497e+00 3.893136e+00 2.698308e+00 2.704647e+00 2.611578e+00 1.984589e+00 1.565095e+00 1.808744e+00 1.519972e+00 2.321895e-01 5.215378e-01 2.863469e-01 2.859152e-01 3.921969e-01 5.372592e-01 4.658649e-01 5.187892e-01 4.154823e-01 3.823926e-01 2.791561e-01 2.746449e-01 2.874104e-01
<GCONST> 1.139793e+02
<TRANSP> 5
 0.000000e+00 1.000000e+00 0.000000e+00 0.000000e+00 0.000000e+00
 0.000000e+00 9.142428e-01 8.575717e-02 0.000000e+00 0.000000e+00
 0.000000e+00 0.000000e+00 8.645878e-01 1.354122e-01 0.000000e+00
 0.000000e+00 0.000000e+00 0.000000e+00 8.740607e-01 1.259393e-01
 0.000000e+00 0.000000e+00 0.000000e+00 0.000000e+00 0.000000e+00
<ENDHMM>
~o
<STREAMINFO> 1 39
<VECSIZE> 39<NULLD><MFCC_D_A><DIAGC>
~h "q"
<BEGINHMM>
<NUMSTATES> 5
<STATE> 2
<NUMMIXES> 2
<MIXTURE> 1 5.179222e-01
<MEAN> 39
 3.737250e+00 8.912767e-01 7.037804e+00 5.938897e-01 9.301629e+00 -6.929886e+00 -4.197398e+00 -1.746112e+00 -5.570182e+00 -7.992732e+00 -4.039252e+00 -5.006489e+00 -7.103028e+00 -1.283985e-01 7.096553e-01 4.214233e-01 5.972672e-01 7.157595e-02 1.105033e+00 2.855513e-02 -1.909817e-01 1.828655e-01 1.738840e-01 -4.476680e-01 -4.507990e-01 -5.803679e-02 -4.466935e-02 -4.316536e-02 -1.657449e-02 -2.679574e-02 -2.875564e-02 -8.627043e-02 1.039658e-02 4.205944e-03 3.960441e-02 1.835112e-02 1.330134e-02 3.375527e-02 2.875425e-02
<VARIANCE> 39
 4.159643e+01 5.130703e+01 5.715439e+01 8.038074e+01 1.255068e+02 9.544424e+01 7.672579e+01 8.539934e+01 8.241685e+01 9.107448e+01 7.881516e+01 5.415878e+01 6.187122e+01 7.665395e-01 1.468539e+00 1.700497e+00 2.291821e+00 2.453067e+00 3.091220e+00 3.083260e+00 2.624078e+00 2.567680e+00 2.735411e+00 2.302066e+00 2.179157e+00 1.622254e+00 9.553334e-02 1.965109e-01 2.387292e-01 3.062672e-01 3.274921e-01 4.627539e-01 4.286349e-01 3.894365e-01 3.671925e-01 3.878024e-01 3.575727e-01 3.188768e-01 2.414622e-01
<GCONST> 1.211931e+02
<MIXTURE> 2 4.820777e-01
<MEAN> 39
 5.710394e+00 2.963940e+00 6.056170e+00 3.080832e-01 5.376526e+00 -8.475425e+00 -4.734757e+00 -1.438195e-01 -8.744423e+00 -1.565927e+01 -8.384358e+00 -1.107538e+01 -1.328412e+01 -1.096690e-01 2.962646e-01 2.123498e-01 1.360086e-01 4.144040e-02 1.032200e-01 -5.018243e-02 -9.506951e-02 8.253952e-02 5.676464e-02 -1.042328e-01 -1.843421e-02 2.219234e-02 -2.202640e-02 1.562596e-02 2.213927e-03 -2.052697e-02 -1.559987e-02 9.329134e-03 5.274419e-02 -6.315019e-02 6.511991e-04 6.691203e-02 2.355191e-02 7.423068e-02 4.667878e-02
<VARIANCE> 39
 1.745577e+01 4.472640e+01 3.262405e+01 6.087054e+01 8.560138e+01 7.422048e+01 6.638924e+01 9.071877e+01 8.019254e+01 8.167798e+01 7.206494e+01 6.041340e+01 5.540987e+01 8.211654e-02 3.367452e-01 3.424647e-01 4.738723e-01 5.184531e-01 6.237243e-01 7.355037e-01 7.980320e-01 7.719935e-01 7.696841e-01 7.208031e-01 6.959534e-01 5.792440e-01 1.349587e-02 5.122327e-02 5.958925e-02 9.205293e-02 9.761377e-02 1.278063e-01 1.294913e-01 1.300671e-01 1.357472e-01 1.363341e-01 1.338982e-01 1.215436e-01 9.449073e-02
<GCONST> 8.432992e+01
<STATE> 3
<NUMMIXES> 2
<MIXTURE> 1 6.378455e-01
<MEAN> 39
 2.894570e+00 5.679820e+00 1.368542e+01 4.267816e+00 9.334054e+00 9.036813e-01 -3.672370e+00 -7.164851e+00 -4.178850e-01 -2.157474e+00 -8.793777e+00 -6.902225e+00 -3.309574e+00 -3.512173e-01 3.773590e-01 1.669174e-01 3.249767e-01 -3.290616e-02 1.600231e-01 3.746614e-01 4.692329e-02 1.701566e-03 8.552469e-02 1.223512e-01 2.443592e-01 1.985955e-03 -6.861670e-02 -5.614867e-02 -9.060837e-02 -6.160638e-03 -2.654327e-02 -3.714593e-02 1.401329e-01 8.284596e-02 -3.428839e-02 -4.769433e-02 1.028816e-01 9.231857e-02 -1.242572e-02
<VARIANCE> 39
 3.111362e+01 3.232133e+01 3.247263e+01 5.035974e+01 6.975001e+01 7.807693e+01 6.107484e+01 7.089330e+01 7.825602e+01 7.800374e+01 4.205013e+01 4.285513e+01 5.068501e+01 3.004190e-01 6.207808e-01 7.415555e-01 8.243599e-01 1.036872e+00 1.145415e+00 1.499338e+00 1.424497e+00 1.329736e+00 1.390340e+00 1.203035e+00 1.101239e+00 8.935772e-01 4.032942e-02 1.064196e-01 1.278005e-01 1.502160e-01 1.855958e-01 2.079401e-01 2.466221e-01 2.384789e-01 2.347891e-01 2.416988e-01 2.074432e-01 1.835619e-01 1.528249e-01
<GCONST> 9.913998e+01
<MIXTURE> 2 3.621545e-01
<MEAN> 39
 5.297575e+00 2.616130e+00 8.230859e+00 3.780894e+00 8.337855e+00 1.327866e+00 -2.754996e+00 -3.521433e+00 -7.714105e-01 -3.415853e+00 -6.357171e+00 -6.192711e+00 -4.196424e+00 -6.697769e-02 2.694438e-01 1.244101e-01 5.904865e-02 7.537216e-02 1.380614e-02 -7.832868e-02 8.911840e-03 5.049819e-02 -3.579984e-02 -6.531403e-02 -1.383321e-02 -1.462310e-02 -1.671284e-02 3.462246e-02 1.370850e-02 4.420245e-03 7.964600e-03 6.313437e-03 1.035719e-02 5.120596e-03 -8.764199e-03 -2.698187e-03 4.540076e-03 1.844635e-02 -5.761215e-03
<VARIANCE> 39
 2.302816e+01 2.116664e+01 3.135099e+01 4.636094e+01 6.380219e+01 4.957136e+01 4.030606e+01 4.493915e+01 8.212357e+01 5.463105e+01 4.945677e+01 4.243265e+01 2.555061e+01 3.210756e-02 1.538842e-01 1.281364e-01 1.654882e-01 2.282334e-01 2.299273e-01 2.944416e-01 2.892386e-01 3.240485e-01 3.110683e-01 3.198185e-01 2.786751e-01 2.189799e-01 5.724421e-03 1.335157e-02 1.984590e-02 2.920402e-02 3.812086e-02 4.207652e-02 5.091634e-02 4.910728e-02 5.510361e-02 5.274742e-02 5.247228e-02 4.830405e-02 3.826081e-02
<GCONST> 5.476146e+01
<STATE> 4
<NUMMIXES> 2
<MIXTURE> 1 3.665271e-01
<MEAN> 39
 -6.769800e+00 5.754156e+00 5.688527e+00 4.510858e+00 6.475800e+00 -1.493603e+00 1.886045e+00 -1.535592e+00 -5.453607e-01 -3.275230e+00 -3.957410e+00 -1.198782e+00 -4.755603e+00 -4.765398e-01 3.630743e-02 -1.474058e-01 7.435149e-02 6.664952e-02 2.017559e-01 3.082542e-01 2.441250e-02 2.147689e-01 2.625036e-01 7.961617e-02 2.636211e-01 1.506468e-01 -1.727923e-02 -4.663379e-02 -1.234862e-02 -2.563637e-02 3.385124e-02 -2.277556e-02 -5.478282e-02 -1.384423e-02 -2.173841e-02 -1.559326e-02 -3.303892e-03 -2.595660e-02 -4.469082e-03
<VARIANCE> 39
 7.647881e+01 8.751649e+01 5.779483e+01 4.373236e+01 5.385494e+01 5.666669e+01 3.992036e+01 3.957736e+01 3.610953e+01 4.441091e+01 5.158067e+01 3.475899e+01 3.692513e+01 9.054064e-01 7.186224e-01 7.728822e-01 7.656261e-01 8.741273e-01 9.615780e-01 1.150654e+00 1.286859e+00 1.168324e+00 1.250130e+00 1.177576e+00 9.943873e-01 8.407782e-01 1.153716e-01 1.288107e-01 1.348602e-01 1.462428e-01 1.749400e-01 1.920340e-01 2.123315e-01 2.327876e-01 2.208339e-01 2.257464e-01 2.313760e-01 1.883341e-01 1.679820e-01
<GCONST> 9.936629e+01
<MIXTURE> 2 6.334729e-01
<MEAN> 39
 -5.319338e+00 3.908506e+00 9.765618e+00 4.517181e+00 7.224969e+00 -2.524659e+00 1.341581e-01 -3.575062e+00 -1.980114e+00 -3.661600e+00 -4.701972e+00 -3.358752e+00 -4.655612e+00 -8.138422e-01 -4.446359e-01 -4.638458e-01 -1.463980e-01 -2.399132e-01 2.318776e-01 6.197164e-01 1.767525e-01 3.816545e-02 1.594620e-01 4.029043e-01 4.368484e-01 2.294767e-01 4.056688e-02 -1.587793e-01 -5.183765e-02 -7.056245e-02 1.310102e-03 -5.921960e-02 -4.810539e-02 5.220350e-02 9.504995e-03 -3.751103e-02 1.044478e-02 -1.301236e-02 1.808623e-02
<VARIANCE> 39
 6.884225e+01 8.240288e+01 6.735724e+01 6.966645e+01 7.896207e+01 7.669936e+01 6.444556e+01 6.368564e+01 5.814693e+01 6.136944e+01 4.855447e+01 4.232252e+01 3.924857e+01 2.143609e+00 4.140748e+00 3.341889e+00 3.128668e+00 3.228419e+00 3.688860e+00 3.824965e+00 4.053697e+00 3.297222e+00 3.359243e+00 2.888748e+00 2.240053e+00 2.020563e+00 3.042410e-01 7.088687e-01 5.449464e-01 5.362306e-01 5.458933e-01 6.072692e-01 6.573058e-01 6.613342e-01 5.535352e-01 5.316866e-01 4.989210e-01 4.036575e-01 3.479850e-01
<GCONST> 1.314226e+02
<TRANSP> 5
 0.000000e+00 1.000000e+00 0.000000e+00 0.000000e+00 0.000000e+00
 0.000000e+00 8.537211e-01 1.462789e-01 0.000000e+00 0.000000e+00
 0.000000e+00 0.000000e+00 8.530422e-01 1.469578e-01 0.000000e+00
 0.000000e+00 0.000000e+00 0.000000e+00 8.256277e-01 1.743723e-01
 0.000000e+00 0.000000e+00 0.000000e+00 0.000000e+00 0.000000e+00
<ENDHMM>
~o
<STREAMINFO> 1 39
<VECSIZE> 39<NULLD><MFCC_D_A><DIAGC>
~h "r"
<BEGINHMM>
<NUMSTATES> 5
<STATE> 2
<NUMMIXES> 2
<MIXTURE> 1 8.267533e-01
<MEAN> 39
 4.320879e+00 -2.988060e+00 5.860051e-01 -3.827303e+00 1.293300e+01 -9.007554e+00 -4.017791e+00 -3.923120e+00 -4.698931e+00 -7.243696e+00 -3.380682e+00 2.467835e+00 -9.350190e-01 -1.405082e-01 4.154887e-01 1.621425e-01 3.172957e-01 3.307789e-01 7.883680e-01 1.696070e-01 -9.625246e-02 -2.225730e-03 -1.654041e-02 -2.455808e-01 -3.069879e-02 1.344477e-02 -7.286609e-02 9.013652e-04 6.559625e-02 6.332918e-02 -1.001466e-01 1.746120e-02 9.041764e-02 5.051746e-02 3.913686e-02 5.142173e-02 1.661209e-02 -6.071448e-02 -3.316689e-02
<VARIANCE> 39
 2.547942e+01 3.348895e+01 5.019610e+01 6.535137e+01 8.335959e+01 1.036628e+02 6.972830e+01 7.521735e+01 7.988779e+01 6.515751e+01 5.456202e+01 4.149642e+01 3.679317e+01 8.675652e-01 1.398577e+00 1.865135e+00 1.976449e+00 2.256136e+00 3.958472e+00 3.596335e+00 2.589968e+00 2.555354e+00 2.493748e+00 2.023793e+00 1.920053e+00 1.376989e+00 1.298713e-01 2.331563e-01 3.000041e-01 3.099690e-01 3.496448e-01 6.750952e-01 5.685299e-01 4.053048e-01 4.288377e-01 4.210539e-01 3.389654e-01 3.246852e-01 2.414699e-01
<GCONST> 1.193638e+02
<MIXTURE> 2 1.732467e-01
<MEAN> 39
 1.569898e+01 -1.802215e+01 9.265162e-01 1.019751e+01 -1.072550e+01 5.615017e+00 -1.143868e+01 -1.722447e+01 -2.017890e-01 -9.475775e+00 -4.757292e+00 2.126110e+00 -8.063658e+00 2.949588e-02 6.702301e-02 -3.066486e-02 -3.966323e-02 1.050157e-01 -9.078034e-02 -3.294577e-01 -6.433359e-02 5.047856e-02 -2.806903e-02 1.026607e-01 -4.106275e-02 -1.635190e-01 -5.277334e-02 7.834458e-02 4.399873e-02 2.473845e-02 1.610585e-02 5.942100e-02 1.350645e-01 6.211165e-02 2.669346e-02 4.338378e-02 -3.935020e-02 1.517931e-02 5.012108e-02
<VARIANCE> 39
 5.907144e+00 3.082161e+01 2.793346e+01 5.646662e+01 5.726834e+01 5.433395e+01 6.479215e+01 4.272953e+01 3.673057e+01 4.033901e+01 3.313852e+01 3.313653e+01 3.042803e+01 3.045501e-01 7.061527e-01 4.799359e-01 6.327236e-01 1.164151e+00 1.118823e+00 1.249831e+00 8.941136e-01 9.101204e-01 9.053285e-01 7.578267e-01 7.287020e-01 7.924991e-01 4.994485e-02 8.401114e-02 6.044912e-02 7.805185e-02 1.476280e-01 1.401956e-01 1.676446e-01 1.237128e-01 1.411410e-01 1.431865e-01 1.047548e-01 1.003688e-01 1.210867e-01
<GCONST> 8.540700e+01
<STATE> 3
<NUMMIXES> 2
<MIXTURE> 1 7.557703e-01
<MEAN> 39
 -1.497575e+00 -6.166546e-01 3.982077e+00 -2.967221e-01 1.137959e+01 -3.475296e+00 -1.332602e-02 -3.193328e+00 -4.402064e+00 -5.894583e+00 -3.522408e+00 5.281299e-01 -8.171602e-01 4.643505e-02 -1.426755e-02 6.516005e-02 7.567474e-02 2.800733e-02 -2.527128e-01 -2.818631e-01 -6.537868e-02 -2.653672e-01 -5.207391e-02 1.923715e-03 -2.246954e-01 -1.295303e-01 1.192680e-01 -3.091116e-02 -1.789705e-01 -1.443944e-01 4.901343e-02 -2.789089e-01 -2.816298e-01 1.532648e-02 -6.093488e-02 -4.881500e-02 6.280544e-02 1.238693e-02 -2.042154e-02
<VARIANCE> 39
 4.352587e+01 4.307881e+01 5.623653e+01 6.163593e+01 7.047304e+01 6.384770e+01 5.904125e+01 7.130070e+01 5.547367e+01 4.745451e+01 4.501657e+01 3.766587e+01 3.637840e+01 2.266971e+00 3.068575e+00 3.102363e+00 3.697172e+00 2.946051e+00 4.354396e+00 4.193625e+00 3.259162e+00 3.367419e+00 2.994033e+00 2.472517e+00 2.273322e+00 1.889992e+00 3.006687e-01 5.652723e-01 5.145571e-01 6.665213e-01 5.333174e-01 8.142611e-01 7.430675e-01 6.616962e-01 6.420637e-01 5.668103e-01 4.776702e-01 4.475027e-01 3.607613e-01
<GCONST> 1.292870e+02
<MIXTURE> 2 2.442297e-01
<MEAN> 39
 1.325360e+01 -1.440450e+01 3.898567e+00 1.084372e+01 -9.780531e+00 8.700272e+00 -8.260877e+00 -1.483943e+01 1.805274e+00 -8.909100e+00 -5.294563e+00 3.250412e+00 -7.954986e+00 -7.440357e-02 2.380291e-01 -1.302848e-01 8.864849e-02 1.812462e-01 -2.661414e-01 1.978172e-02 1.047246e-01 -1.252362e-01 7.553817e-02 -3.405773e-02 -1.005002e-01 6.190650e-02 -1.830936e-02 6.240064e-02 -6.409664e-02 -6.932782e-02 1.411439e-02 -1.308833e-01 -2.142632e-02 8.058844e-02 -4.215751e-02 2.793024e-03 3.616193e-02 -3.465046e-02 6.091932e-03
<VARIANCE> 39
 2.214893e+01 4.762377e+01 5.579502e+01 4.520837e+01 4.687226e+01 5.865359e+01 5.463620e+01 4.166151e+01 4.848417e+01 5.006963e+01 4.116112e+01 3.306663e+01 3.415726e+01 1.195190e+00 3.659152e+00 2.037240e+00 1.616079e+00 2.892081e+00 3.196429e+00 3.125879e+00 2.370292e+00 2.543052e+00 2.512843e+00 1.767460e+00 1.602169e+00 1.684309e+00 1.850761e-01 6.874587e-01 3.427392e-01 2.636180e-01 5.383197e-01 5.389344e-01 5.810396e-01 4.549852e-01 4.704755e-01 4.612606e-01 3.245578e-01 2.980595e-01 3.231598e-01
<GCONST> 1.189464e+02
<STATE> 4
<NUMMIXES> 2
<MIXTURE> 1 4.561851e-01
<MEAN> 39
 -4.978819e+00 1.780536e+00 -4.001078e-01 4.933503e+00 1.635229e+00 3.343413e+00 -2.880786e+00 -2.048393e+00 -4.591296e-01 -1.581135e+00 -2.440279e+00 2.450518e+00 -3.752708e-01 -4.095123e-01 3.302573e-01 1.546894e-02 4.334967e-02 -1.718228e-01 8.745598e-02 4.171458e-02 9.293155e-02 1.597133e-01 1.794306e-01 5.245255e-02 -5.399360e-02 3.699951e-02 2.187336e-02 -8.573642e-02 6.579784e-03 -4.729539e-02 3.469929e-02 -6.804916e-02 -1.677143e-02 -9.037809e-03 -2.903961e-02 -5.105362e-02 -1.063144e-02 3.055861e-03 -1.703537e-02
<VARIANCE> 39
 1.627643e+02 1.173069e+02 5.955406e+01 4.676582e+01 1.024746e+02 5.251867e+01 6.041818e+01 9.817975e+01 3.847023e+01 3.956258e+01 3.232473e+01 3.175605e+01 3.026348e+01 1.087496e+00 1.476899e+00 1.313495e+00 1.280529e+00 1.566880e+00 1.654227e+00 1.811912e+00 1.592895e+00 1.606359e+00 1.436327e+00 1.303820e+00 1.218457e+00 1.076978e+00 1.508851e-01 2.369404e-01 2.160485e-01 2.278698e-01 2.686447e-01 3.062153e-01 3.332604e-01 3.006561e-01 2.950878e-01 2.717958e-01 2.538505e-01 2.366919e-01 2.075943e-01
<GCONST> 1.107479e+02
<MIXTURE> 2 5.438149e-01
<MEAN> 39
 3.789169e+00 -3.258855e+00 -2.180311e-01 -2.895721e+00 1.429042e+01 -1.326423e+01 -8.561747e+00 -5.217856e+00 -9.026098e+00 -8.280689e+00 -3.826486e+00 -2.249301e+00 -3.894010e+00 1.728116e-01 9.250868e-03 -3.848515e-01 -2.270984e-01 1.084833e-01 -7.181213e-01 -4.158341e-01 4.305067e-01 -5.161708e-02 -5.791042e-02 1.920371e-01 -1.930879e-01 -2.312868e-01 -1.046693e-01 2.224603e-02 1.325050e-01 8.676789e-02 -1.506985e-01 2.171813e-01 2.162750e-01 3.970721e-02 1.740255e-01 4.870516e-02 -2.891221e-02 2.104944e-02 -2.784165e-03
<VARIANCE> 39
 1.840811e+01 3.390608e+01 5.552953e+01 8.150609e+01 8.831635e+01 1.245838e+02 5.985512e+01 7.757008e+01 7.681539e+01 6.713322e+01 7.015402e+01 6.656693e+01 4.993885e+01 3.143370e-01 6.691025e-01 1.287306e+00 1.324132e+00 1.666679e+00 2.629548e+00 2.351286e+00 1.752430e+00 1.989565e+00 1.815671e+00 1.625203e+00 1.584446e+00 1.079686e+00 4.341174e-02 8.456755e-02 1.457543e-01 1.582884e-01 1.958044e-01 2.970761e-01 2.804744e-01 2.558010e-01 2.678442e-01 2.437375e-01 2.346771e-01 2.235600e-01 1.593000e-01
<GCONST> 1.069937e+02
<TRANSP> 5
 0.000000e+00 1.000000e+00 0.000000e+00 0.000000e+00 0.000000e+00
 0.000000e+00 7.264948e-01 2.735052e-01 0.000000e+00 0.000000e+00
 0.000000e+00 0.000000e+00 7.771175e-01 2.228825e-01 0.000000e+00
 0.000000e+00 0.000000e+00 0.000000e+00 7.567493e-01 2.432507e-01
 0.000000e+00 0.000000e+00 0.000000e+00 0.000000e+00 0.000000e+00
<ENDHMM>
~o
<STREAMINFO> 1 39
<VECSIZE> 39<NULLD><MFCC_D_A><DIAGC>
~h "rq"
<BEGINHMM>
<NUMSTATES> 7
<STATE> 2
<NUMMIXES> 2
<MIXTURE> 1 7.676986e-01
<MEAN> 39
 -7.279638e+00 -2.352124e+00 4.732859e+00 -3.955155e+00 9.584253e+00 -1.179197e+00 5.114442e+00 -2.214753e+00 -1.718363e+00 -5.577294e+00 -2.161641e+00 2.519405e-02 -9.579840e-01 8.322878e-01 -6.240508e-02 3.067787e-01 1.738964e-01 5.534313e-01 -2.676867e-01 -5.009401e-01 -4.786879e-01 -4.685794e-01 -5.524613e-01 -4.266381e-01 -9.473213e-02 -5.180279e-03 1.533110e-01 9.466787e-02 -1.766613e-02 4.734317e-02 2.683416e-02 -7.442410e-02 -1.872165e-01 -5.062943e-02 -5.376653e-02 -4.533451e-02 -1.242718e-01 -3.723653e-02 -2.832449e-02
<VARIANCE> 39
 4.393925e+01 7.745375e+01 5.927277e+01 8.722811e+01 6.525989e+01 4.231665e+01 4.554568e+01 5.899816e+01 5.798460e+01 4.510821e+01 3.723385e+01 3.693950e+01 2.771942e+01 2.461646e+00 4.820298e+00 3.168506e+00 5.779650e+00 3.479895e+00 3.376042e+00 3.840356e+00 3.337296e+00 3.703871e+00 2.949943e+00 2.913020e+00 2.227274e+00 1.972157e+00 2.988644e-01 7.954497e-01 5.712602e-01 9.199683e-01 5.690053e-01 6.342775e-01 6.472653e-01 6.250358e-01 6.121877e-01 5.399730e-01 4.751108e-01 4.075597e-01 3.435838e-01
<GCONST> 1.301129e+02
<MIXTURE> 2 2.323014e-01
<MEAN> 39
 1.395576e+01 -1.374587e+01 8.834466e+00 8.708439e+00 -1.055022e+01 1.266305e+01 -5.941751e+00 -1.216252e+01 -3.771069e-01 -1.633370e+01 -7.309145e+00 2.236315e+00 -1.084687e+01 3.967457e-01 2.575673e-01 -2.488994e-01 -2.024147e-02 2.332173e-01 -3.665027e-01 -3.012588e-01 -3.212260e-01 -6.286739e-01 -4.451746e-01 -2.135300e-01 -5.208881e-02 -1.880481e-02 -7.234262e-02 8.243121e-02 -9.000977e-02 -6.094762e-02 7.367847e-02 -7.986740e-02 9.793514e-03 9.984028e-02 -3.136243e-02 1.336855e-04 2.742742e-02 -6.865140e-03 4.202782e-02
<VARIANCE> 39
 2.002401e+01 5.858644e+01 4.376087e+01 4.649490e+01 5.335083e+01 5.347505e+01 5.773172e+01 3.877431e+01 7.023766e+01 6.533255e+01 4.522467e+01 2.721881e+01 3.434383e+01 1.500385e+00 4.693194e+00 2.308959e+00 2.664883e+00 3.755470e+00 4.553729e+00 3.469811e+00 2.496117e+00 4.185989e+00 3.450945e+00 2.288747e+00 1.820198e+00 1.776341e+00 2.436166e-01 8.641476e-01 4.005885e-01 4.671685e-01 6.849230e-01 6.809128e-01 6.498953e-01 5.109667e-01 7.184256e-01 6.389758e-01 4.012032e-01 3.312072e-01 3.266994e-01
<GCONST> 1.255396e+02
<STATE> 3
<NUMMIXES> 2
<MIXTURE> 1 6.112373e-01
<MEAN> 39
 1.570335e+00 -1.677514e+00 7.986803e+00 -3.091777e+00 1.532513e+01 2.043146e-01 1.060760e-01 -5.993508e+00 -2.829732e+00 -9.418765e+00 -9.384083e+00 -2.690146e+00 -8.271375e-02 2.693251e-01 -2.943845e-01 -3.694611e-02 5.016359e-02 1.842333e-01 5.268790e-02 -3.536520e-01 -2.787133e-01 -1.458803e-01 -1.537499e-01 -2.278932e-01 5.241694e-03 -2.023686e-02 -7.909685e-02 -5.908519e-03 -4.470243e-02 -6.051508e-02 -3.582239e-02 -2.001636e-01 -3.535050e-02 1.346621e-01 -1.355703e-01 -6.269767e-02 1.697718e-01 1.360328e-02 -9.637329e-02
<VARIANCE> 39
 1.863494e+01 2.368881e+01 2.192601e+01 3.688602e+01 4.899208e+01 4.277526e+01 3.921122e+01 4.911723e+01 4.897316e+01 2.770632e+01 4.250275e+01 2.561588e+01 2.395314e+01 9.842056e-01 1.213554e+00 1.253384e+00 1.525429e+00 1.594169e+00 2.643852e+00 3.467947e+00 2.828908e+00 2.368499e+00 2.061377e+00 2.317756e+00 1.743347e+00 1.469395e+00 1.576927e-01 2.375453e-01 2.402198e-01 3.450006e-01 3.278361e-01 5.353294e-01 6.488068e-01 5.779628e-01 4.486304e-01 3.934079e-01 4.225813e-01 3.333528e-01 2.844635e-01
<GCONST> 1.115226e+02
<MIXTURE> 2 3.887627e-01
<MEAN> 39
 1.437593e+00 -2.707844e+00 5.010466e+00 -5.363724e+00 1.022526e+01 -1.035500e+01 -4.856229e+00 -9.565794e+00 -1.603002e+01 -1.402016e+01 -6.084515e+00 -4.811167e+00 -6.166055e+00 7.518375e-01 2.177655e-01 -7.561831e-01 -4.079516e-01 4.268128e-01 -9.009060e-01 -8.326665e-01 1.873099e-01 -7.730501e-01 -5.887864e-01 -3.179369e-01 3.968141e-02 4.083477e-02 -2.473783e-01 -1.590121e-02 -5.354657e-02 7.282995e-02 6.825467e-02 2.937001e-01 2.562387e-01 1.889760e-01 3.542373e-01 1.907703e-01 9.787533e-02 5.952312e-02 8.612625e-02
<VARIANCE> 39
 2.020712e+01 3.302775e+01 2.941447e+01 5.011605e+01 6.784598e+01 4.856870e+01 5.115788e+01 4.905640e+01 4.331361e+01 4.628822e+01 3.553510e+01 3.382255e+01 2.878375e+01 1.081616e+00 1.722281e+00 1.634363e+00 2.778037e+00 2.608930e+00 5.343119e+00 4.201979e+00 2.727370e+00 4.299162e+00 3.383743e+00 2.421014e+00 2.300089e+00 1.673293e+00 1.825714e-01 3.725747e-01 3.206407e-01 4.650701e-01 4.474269e-01 7.611691e-01 6.684618e-01 5.160463e-01 6.549783e-01 5.786599e-01 4.051322e-01 3.615201e-01 2.973803e-01
<GCONST> 1.207411e+02
<STATE> 4
<NUMMIXES> 2
<MIXTURE> 1 4.183809e-01
<MEAN> 39
 1.403591e+01 -9.149653e+00 5.694362e+00 5.966675e+00 -6.731691e+00 4.092331e+00 -7.347340e+00 -1.039988e+01 -7.729426e+00 -2.081069e+01 -8.229285e+00 -2.406904e-01 -1.021124e+01 -1.826163e-01 1.231928e-01 3.498148e-01 2.611545e-01 -1.013720e-01 8.878419e-02 2.616277e-01 1.511277e-01 1.442328e-01 1.994171e-01 1.212013e-01 -6.035694e-02 -4.259781e-02 -7.865483e-02 -3.764508e-02 1.146860e-01 9.310859e-02 -1.606184e-02 1.388697e-01 8.595987e-02 -2.550107e-03 1.278794e-01 1.335534e-01 4.843198e-02 3.236207e-02 -1.907743e-03
<VARIANCE> 39
 3.866200e+01 3.459007e+01 5.805907e+01 6.062842e+01 9.195748e+01 6.885786e+01 6.085486e+01 4.950172e+01 5.727487e+01 6.187548e+01 6.551522e+01 3.971437e+01 5.443515e+01 4.203781e-01 1.170784e+00 1.000370e+00 1.027168e+00 1.551168e+00 2.215649e+00 1.824538e+00 1.866655e+00 1.782082e+00 1.743607e+00 1.203239e+00 1.217741e+00 9.343706e-01 7.854158e-02 1.943999e-01 1.518373e-01 1.579013e-01 2.294029e-01 2.840812e-01 2.598704e-01 2.450434e-01 2.506854e-01 2.646455e-01 1.959404e-01 1.894011e-01 1.625274e-01
<GCONST> 1.058448e+02
<MIXTURE> 2 5.816191e-01
<MEAN> 39
 4.689605e+00 -2.980791e+00 1.093579e+00 -4.262809e+00 2.170128e+01 -1.068092e+01 -1.072725e+01 -3.348963e+00 -1.072169e+01 -1.562575e+01 -6.430991e+00 -7.274980e-01 -4.887151e+00 9.291562e-02 2.058200e-01 -4.665179e-01 1.012177e-01 4.782569e-01 -1.407344e+00 -4.133043e-01 9.499072e-01 -5.858890e-01 -5.592170e-01 5.768169e-01 -6.257498e-02 -5.551582e-01 -1.702370e-01 -7.188136e-02 2.660086e-01 1.833189e-01 -3.083856e-01 1.913452e-01 4.821556e-01 -1.733943e-01 3.124921e-02 2.776645e-01 1.081117e-01 -1.283019e-01 3.937076e-02
<VARIANCE> 39
 7.971909e+00 2.153328e+01 2.879846e+01 6.873799e+01 7.284427e+01 7.480673e+01 4.524637e+01 6.125986e+01 6.864031e+01 6.065119e+01 5.676168e+01 6.275871e+01 3.386779e+01 2.167276e-01 5.505148e-01 8.787763e-01 9.413903e-01 1.426930e+00 1.453424e+00 2.190341e+00 1.602310e+00 1.424736e+00 1.923060e+00 1.604646e+00 1.861150e+00 1.151858e+00 3.534424e-02 8.257870e-02 1.083188e-01 1.377924e-01 1.666192e-01 2.557321e-01 2.346728e-01 2.752793e-01 2.573597e-01 2.689963e-01 2.190303e-01 2.480878e-01 1.774570e-01
<GCONST> 9.964278e+01
<STATE> 5
<NUMMIXES> 2
<MIXTURE> 1 2.838039e-01
<MEAN> 39
 7.064479e+00 -1.232150e+01 1.083097e+01 1.250547e+01 -5.598655e+00 1.287261e+01 -5.569075e-01 -7.987670e+00 4.873964e+00 -1.062767e+01 -8.358408e+00 3.930194e+00 -5.978974e+00 -6.478674e-01 1.149247e-01 1.796929e-01 3.104103e-01 1.034628e-01 -3.322018e-02 1.950842e-01 3.361217e-01 1.874201e-01 2.341356e-01 2.525710e-01 8.551330e-03 -2.814001e-02 -2.602311e-02 2.486509e-02 -4.461988e-02 -1.561004e-02 2.311816e-02 -5.091095e-02 -1.833536e-02 2.942996e-02 -2.545973e-02 7.237846e-03 1.645991e-02 -2.107447e-02 1.475761e-02
<VARIANCE> 39
 7.729574e+01 1.666524e+02 2.984589e+01 7.367299e+01 9.555537e+01 6.813190e+01 4.193346e+01 4.299168e+01 6.814304e+01 3.342120e+01 3.911303e+01 3.864929e+01 2.851140e+01 9.311773e-01 3.286961e+00 1.466504e+00 1.620838e+00 2.061978e+00 2.401055e+00 2.158097e+00 2.280937e+00 2.100328e+00 1.820406e+00 1.814773e+00 1.436425e+00 1.381240e+00 1.022946e-01 3.629829e-01 2.176365e-01 2.482122e-01 3.306840e-01 4.019798e-01 3.632068e-01 4.020205e-01 3.596998e-01 3.173281e-01 2.867441e-01 2.416675e-01 2.518077e-01
<GCONST> 1.149445e+02
<MIXTURE> 2 7.161961e-01
<MEAN> 39
 2.827606e+00 -2.196081e+00 1.869143e+00 -5.060361e+00 1.316146e+01 -1.761046e+01 -6.666723e+00 -5.941877e+00 -1.893242e+01 -1.335489e+01 -4.101882e+00 -5.700573e+00 -6.268758e+00 -1.481138e-01 -4.704588e-02 3.897807e-01 2.330685e-01 -4.430490e-01 4.141694e-02 3.815569e-01 -2.799934e-01 -1.325688e-01 3.093994e-01 1.232945e-01 -2.114908e-01 -8.312979e-02 -3.453880e-02 2.450063e-02 1.022176e-01 2.532899e-02 -1.853055e-02 2.649089e-01 3.616829e-02 -7.531106e-02 1.723171e-01 4.783072e-02 -7.772961e-02 5.686203e-02 3.707632e-02
<VARIANCE> 39
 9.066987e+00 3.388803e+01 3.312666e+01 9.099397e+01 7.847246e+01 7.471602e+01 5.204642e+01 6.506851e+01 6.826452e+01 7.110701e+01 4.799360e+01 4.455399e+01 3.946087e+01 8.962721e-02 3.404087e-01 4.788662e-01 6.558480e-01 9.215850e-01 1.140838e+00 1.254642e+00 1.197214e+00 1.237932e+00 1.095934e+00 9.654751e-01 9.586095e-01 6.686100e-01 1.610897e-02 5.168552e-02 7.843675e-02 9.096569e-02 1.290251e-01 1.745931e-01 1.788034e-01 1.788259e-01 1.958835e-01 1.814505e-01 1.565738e-01 1.470859e-01 1.129368e-01
<GCONST> 8.912644e+01
<STATE> 6
<NUMMIXES> 2
<MIXTURE> 1 6.744300e-01
<MEAN> 39
 -6.661329e+00 2.727593e+00 1.106111e+01 4.908137e+00 1.039768e+01 -9.392346e-01 2.766310e+00 -4.655879e+00 -4.512670e+00 -6.974257e+00 -4.980823e+00 -1.617651e+00 -3.059472e+00 -8.385341e-01 2.274588e-01 -7.324366e-02 5.759453e-01 -1.408139e-01 2.928338e-01 1.507223e-01 2.865918e-01 4.214888e-01 3.888322e-01 2.363931e-01 2.722769e-01 -3.966576e-02 2.731429e-02 -1.478301e-01 -1.422009e-01 -1.357651e-01 7.085433e-03 -1.203304e-01 -1.031120e-01 -3.695493e-02 -5.723380e-02 -5.569673e-02 -2.899945e-02 -1.569539e-02 2.152254e-02
<VARIANCE> 39
 5.697705e+01 1.120664e+02 3.227263e+01 4.396888e+01 6.146431e+01 4.521220e+01 4.623043e+01 5.999995e+01 4.322512e+01 3.325129e+01 3.092679e+01 3.023278e+01 2.551002e+01 1.266883e+00 2.844424e+00 2.068572e+00 2.347539e+00 1.792728e+00 2.143694e+00 2.351692e+00 2.299849e+00 1.960760e+00 1.849340e+00 1.804715e+00 1.521231e+00 1.308489e+00 1.653325e-01 3.543535e-01 3.776419e-01 3.990256e-01 3.519269e-01 4.224291e-01 4.353390e-01 4.310901e-01 3.919113e-01 3.576265e-01 3.189416e-01 3.105230e-01 2.502679e-01
<GCONST> 1.153966e+02
<MIXTURE> 2 3.255700e-01
<MEAN> 39
 1.267725e+00 -3.863521e-01 6.270339e+00 -2.351284e+00 1.173563e+01 -1.112815e+01 -3.748781e+00 -7.930568e+00 -1.443781e+01 -1.223361e+01 -5.113386e+00 -5.059523e+00 -6.629068e+00 -6.491375e-01 6.163583e-01 1.048058e+00 6.528950e-01 -3.268085e-01 1.891048e+00 7.189669e-01 -2.119739e-01 1.457649e+00 7.535663e-01 -1.531044e-01 2.755651e-01 2.069814e-01 -1.884423e-01 7.437439e-02 7.753805e-02 1.570081e-01 2.804939e-02 1.286436e-01 7.720076e-02 1.021858e-01 1.697857e-01 8.758308e-02 7.790714e-02 1.281977e-01 1.644441e-02
<VARIANCE> 39
 1.118742e+01 4.798566e+01 2.716906e+01 7.102140e+01 9.615412e+01 7.018734e+01 5.935512e+01 7.274415e+01 6.915340e+01 5.541486e+01 4.647840e+01 3.900984e+01 3.585538e+01 6.829672e-01 2.339536e+00 1.942655e+00 2.011805e+00 1.865332e+00 2.591728e+00 2.432032e+00 2.826771e+00 2.307251e+00 2.484350e+00 1.773944e+00 1.839185e+00 1.522186e+00 8.075137e-02 2.976724e-01 2.512742e-01 2.686943e-01 2.814425e-01 4.343972e-01 3.941024e-01 4.332579e-01 3.964334e-01 3.659992e-01 3.080533e-01 2.700547e-01 2.360103e-01
<GCONST> 1.145796e+02
<TRANSP> 7
 0.000000e+00 1.000000e+00 0.000000e+00 0.000000e+00 0.000000e+00 0.000000e+00 0.000000e+00
 0.000000e+00 8.392783e-01 1.607217e-01 0.000000e+00 0.000000e+00 0.000000e+00 0.000000e+00
 0.000000e+00 0.000000e+00 8.701265e-01 1.298735e-01 0.000000e+00 0.000000e+00 0.000000e+00
 0.000000e+00 0.000000e+00 0.000000e+00 7.374701e-01 2.625300e-01 0.000000e+00 0.000000e+00
 0.000000e+00 0.000000e+00 0.000000e+00 0.000000e+00 8.383686e-01 1.616315e-01 0.000000e+00
 0.000000e+00 0.000000e+00 0.000000e+00 0.000000e+00 0.000000e+00 8.649225e-01 1.350775e-01
 0.000000e+00 0.000000e+00 0.000000e+00 0.000000e+00 0.000000e+00 0.000000e+00 0.000000e+00
<ENDHMM>
~o
<STREAMINFO> 1 39
<VECSIZE> 39<NULLD><MFCC_D_A><DIAGC>
~h "rw"
<BEGINHMM>
<NUMSTATES> 5
<STATE> 2
<NUMMIXES> 2
<MIXTURE> 1 4.752979e-01
<MEAN> 39
 1.745877e+01 -1.111596e+01 3.933782e+00 3.159759e-01 -1.356543e+01 6.895748e+00 -7.235846e+00 -6.716102e+00 -1.962023e+00 -1.865926e+01 -2.313751e+00 3.581888e+00 -1.127319e+01 -3.531736e-01 3.768531e-01 5.835879e-01 4.119996e-01 2.999703e-01 6.538537e-01 2.286798e-01 -2.500261e-01 9.837590e-02 1.692169e-01 -2.678463e-01 -1.329331e-02 2.855731e-01 -9.139467e-02 -1.003895e-02 6.013026e-02 4.750729e-02 -4.362461e-03 -7.404602e-03 -4.317801e-02 2.973440e-02 5.664585e-02 1.580600e-02 2.709896e-02 -2.852113e-02 -4.633218e-02
<VARIANCE> 39
 1.486832e+01 4.006991e+01 3.982919e+01 3.646878e+01 4.237846e+01 4.512414e+01 3.195650e+01 4.632661e+01 3.544691e+01 4.094959e+01 4.306892e+01 3.142465e+01 3.031795e+01 1.796130e+00 2.967861e+00 2.804978e+00 2.526502e+00 2.943569e+00 3.946735e+00 2.466862e+00 2.307426e+00 2.657167e+00 3.434446e+00 2.007608e+00 1.720765e+00 1.682212e+00 3.604760e-01 5.460037e-01 4.767353e-01 4.475727e-01 5.586143e-01 7.212025e-01 4.584209e-01 3.909591e-01 5.095186e-01 6.390978e-01 3.568944e-01 2.917427e-01 3.333383e-01
<GCONST> 1.196198e+02
<MIXTURE> 2 5.247022e-01
<MEAN> 39
 4.380008e+00 1.032607e+00 -4.260833e+00 -1.256755e+01 3.895713e+00 -1.566332e+01 2.637535e-01 -2.372111e+00 -1.081768e+01 -1.198713e+01 -6.510713e-01 -4.571539e-01 -8.694195e+00 -8.710334e-02 2.953520e-01 4.232548e-01 6.437508e-01 1.617967e-01 9.745866e-01 3.592338e-01 -4.006517e-01 9.644488e-02 3.780729e-01 -2.104111e-01 1.375431e-01 6.081248e-01 -1.819869e-01 -7.072674e-02 2.675798e-01 2.336447e-01 -6.687236e-03 2.509440e-01 1.006590e-01 -6.656665e-02 1.666411e-01 1.319870e-01 -9.065717e-02 -3.767761e-02 3.224539e-02
<VARIANCE> 39
 9.354233e+00 2.041584e+01 3.897096e+01 2.969145e+01 3.460150e+01 3.739485e+01 3.735451e+01 5.149686e+01 4.962815e+01 4.956972e+01 4.470256e+01 2.656628e+01 2.603513e+01 6.089193e-01 8.510863e-01 2.446794e+00 2.022794e+00 1.665077e+00 3.972837e+00 2.309933e+00 2.222413e+00 2.627315e+00 2.925340e+00 2.276326e+00 1.641715e+00 1.814764e+00 1.539251e-01 1.697399e-01 3.885752e-01 3.143965e-01 2.691478e-01 6.451219e-01 3.417475e-01 3.598978e-01 5.147182e-01 4.463136e-01 3.832902e-01 2.808258e-01 3.110505e-01
<GCONST> 1.108170e+02
<STATE> 3
<NUMMIXES> 2
<MIXTURE> 1 2.623030e-01
<MEAN> 39
 8.638179e+00 -1.187029e+01 1.185526e+01 5.893204e+00 -1.226966e+01 1.470416e+01 -6.395660e+00 -9.245846e+00 2.876478e+00 -1.320794e+01 -3.162943e-01 5.043864e+00 -1.009899e+01 -7.774214e-01 2.404226e-01 1.953609e-01 2.199237e-01 1.794819e-01 6.550987e-02 -2.814121e-03 1.064178e-01 2.738915e-01 4.248367e-01 1.119245e-01 -5.891676e-02 1.548050e-01 7.665329e-02 5.486840e-02 -1.832479e-01 -1.306742e-01 1.579723e-04 -1.849798e-01 -1.235419e-02 8.215976e-02 -8.415732e-02 -5.238752e-02 -4.241137e-03 -1.987772e-02 7.570853e-03
<VARIANCE> 39
 4.382232e+01 1.119643e+02 6.321960e+01 3.856493e+01 4.563406e+01 4.919690e+01 3.137102e+01 3.497753e+01 4.381886e+01 4.502448e+01 3.463609e+01 2.959263e+01 2.668431e+01 1.481245e+00 6.203227e+00 3.001518e+00 2.271407e+00 3.007656e+00 3.756685e+00 2.190625e+00 2.237892e+00 2.800962e+00 2.758412e+00 1.677018e+00 1.716955e+00 1.575501e+00 2.070094e-01 1.074371e+00 4.918712e-01 4.191928e-01 5.993416e-01 6.242923e-01 4.414769e-01 4.038283e-01 5.237388e-01 5.022475e-01 3.248877e-01 3.386101e-01 3.102202e-01
<GCONST> 1.217012e+02
<MIXTURE> 2 7.376970e-01
<MEAN> 39
 1.637021e+00 3.879634e+00 1.400312e+00 -8.055321e+00 4.912688e+00 -9.018880e+00 2.320674e+00 -5.661942e+00 -1.087745e+01 -1.137410e+01 -3.800637e+00 -8.312855e-01 -4.969824e+00 -4.636442e-01 5.405544e-01 5.759485e-01 5.415779e-01 1.463343e-01 5.845137e-01 8.899515e-03 -1.129479e-01 2.488815e-01 -1.246426e-02 -3.498858e-01 8.722618e-03 7.319607e-02 -4.455512e-02 4.432006e-02 -9.907128e-02 -5.252499e-02 -7.954413e-03 -1.890269e-01 -9.840149e-02 7.756730e-02 2.846299e-02 -2.672264e-02 7.338114e-02 2.823395e-02 -1.159268e-01
<VARIANCE> 39
 1.352128e+01 3.422397e+01 3.851045e+01 3.275174e+01 3.451960e+01 3.212512e+01 3.042840e+01 4.139528e+01 4.088367e+01 4.626532e+01 3.558757e+01 3.118401e+01 2.303545e+01 1.875210e+00 2.544976e+00 3.232068e+00 3.631683e+00 2.503044e+00 4.189222e+00 2.495803e+00 2.721591e+00 3.940067e+00 3.949829e+00 2.199359e+00 2.111300e+00 1.661785e+00 3.418362e-01 4.483803e-01 5.444162e-01 6.572770e-01 4.747249e-01 8.623521e-01 4.576231e-01 4.966021e-01 7.302018e-01 7.247280e-01 4.253766e-01 3.979533e-01 3.188758e-01
<GCONST> 1.210442e+02
<STATE> 4
<NUMMIXES> 2
<MIXTURE> 1 5.839093e-01
<MEAN> 39
 -8.719545e+00 1.671871e+00 6.865802e+00 -2.541166e+00 5.612374e+00 -3.730333e+00 3.286508e+00 -7.621688e+00 -3.697675e+00 -3.523816e+00 -3.794909e-01 1.414348e+00 -4.910285e+00 -1.039267e+00 -2.466315e-02 1.056105e-01 3.458924e-01 -5.986030e-03 2.042562e-01 2.266604e-02 7.537422e-02 6.360572e-01 5.671391e-01 1.918845e-01 2.167412e-01 -1.702066e-02 1.555858e-01 5.018769e-02 -1.930356e-01 -1.590773e-01 -7.097410e-02 -1.657709e-01 -2.152013e-02 5.035182e-02 -1.246180e-01 -1.618033e-01 -6.083829e-02 -9.301570e-04 -4.777984e-02
<VARIANCE> 39
 5.157478e+01 1.153329e+02 7.009734e+01 4.234397e+01 4.335409e+01 3.800895e+01 3.716963e+01 4.080387e+01 3.988377e+01 3.713023e+01 4.352673e+01 3.420055e+01 2.314060e+01 2.143486e+00 4.994637e+00 3.348684e+00 3.007465e+00 2.793421e+00 2.517976e+00 2.541540e+00 2.631767e+00 2.698189e+00 2.498578e+00 2.358820e+00 2.394958e+00 1.850413e+00 3.054365e-01 8.294360e-01 5.666509e-01 5.359877e-01 5.206528e-01 4.948695e-01 4.978433e-01 5.020465e-01 5.340822e-01 4.822965e-01 4.414621e-01 4.564833e-01 3.611163e-01
<GCONST> 1.243456e+02
<MIXTURE> 2 4.160907e-01
<MEAN> 39
 -1.514561e+00 8.450760e+00 3.478968e+00 -9.086264e-01 1.317906e+00 -3.615191e+00 -3.265432e-02 -5.037591e+00 -3.039229e+00 -9.047519e+00 -5.790154e+00 1.766642e+00 -6.631918e+00 -5.731289e-01 1.641466e-01 1.908159e-01 4.128297e-01 -3.367709e-02 -5.268259e-02 1.257595e-01 1.583044e-01 4.889339e-01 3.189453e-01 -1.069080e-01 -6.847590e-02 -7.515547e-02 6.437583e-03 -1.995047e-01 3.086499e-02 -8.499323e-02 4.598280e-02 6.201987e-02 2.421499e-02 2.909808e-02 -3.231385e-02 1.123871e-02 9.066688e-02 -2.737559e-02 4.803826e-02
<VARIANCE> 39
 7.554453e+01 8.903970e+01 3.914848e+01 4.167193e+01 6.533616e+01 7.174545e+01 4.322387e+01 4.222689e+01 4.902384e+01 6.860191e+01 3.424037e+01 4.112748e+01 2.577420e+01 4.164453e-01 6.988932e-01 8.242270e-01 8.710219e-01 9.735203e-01 1.057325e+00 1.081467e+00 1.351378e+00 1.406394e+00 1.447387e+00 1.111186e+00 1.047945e+00 9.738412e-01 5.203839e-02 1.360695e-01 1.575972e-01 1.806590e-01 1.873126e-01 2.237600e-01 2.163979e-01 2.606664e-01 2.522041e-01 2.693756e-01 2.149520e-01 2.100135e-01 2.014419e-01
<GCONST> 1.002038e+02
<TRANSP> 5
 0.000000e+00 1.000000e+00 0.000000e+00 0.000000e+00 0.000000e+00
 0.000000e+00 8.347459e-01 1.652542e-01 0.000000e+00 0.000000e+00
 0.000000e+00 0.000000e+00 8.646958e-01 1.353042e-01 0.000000e+00
 0.000000e+00 0.000000e+00 0.000000e+00 8.417807e-01 1.582194e-01
 0.000000e+00 0.000000e+00 0.000000e+00 0.000000e+00 0.000000e+00
<ENDHMM>
~o
<STREAMINFO> 1 39
<VECSIZE> 39<NULLD><MFCC_D_A><DIAGC>
~h "rx"
<BEGINHMM>
<NUMSTATES> 5
<STATE> 2
<NUMMIXES> 2
<MIXTURE> 1 7.242725e-01
<MEAN> 39
 -1.308434e+00 2.134012e+00 -4.271176e-01 3.351930e+00 6.331000e+00 -3.382260e+00 -5.006396e+00 -2.586719e+00 -4.854493e+00 -7.993415e+00 -5.572024e+00 1.947824e+00 -2.555870e+00 -3.177842e-01 2.539293e-01 -4.719550e-02 4.936061e-02 -2.318536e-02 1.445280e-01 1.420525e-01 2.019627e-02 -1.634166e-03 2.504494e-01 5.749003e-02 4.371041e-02 1.307509e-01 -1.344609e-02 -1.040364e-01 3.773810e-02 1.986309e-02 -1.783796e-02 2.905634e-02 2.866644e-02 7.972150e-03 4.395040e-02 2.449130e-02 2.752141e-02 2.357151e-02 7.727027e-04
<VARIANCE> 39
 5.517929e+01 8.382140e+01 4.287322e+01 7.365214e+01 1.341931e+02 1.034259e+02 5.977863e+01 7.915553e+01 6.993991e+01 7.922659e+01 4.784793e+01 3.430455e+01 4.651165e+01 5.635180e-01 9.590204e-01 1.012003e+00 1.213748e+00 1.771482e+00 2.271878e+00 2.351245e+00 1.656788e+00 1.682215e+00 1.916959e+00 1.459598e+00 1.460216e+00 1.083962e+00 6.458237e-02 2.002925e-01 1.622071e-01 1.946016e-01 2.561838e-01 3.384972e-01 3.615640e-01 2.840684e-01 2.844127e-01 3.311358e-01 2.540509e-01 2.504516e-01 2.010556e-01
<GCONST> 1.111421e+02
<MIXTURE> 2 2.757275e-01
<MEAN> 39
 6.159798e+00 -1.604087e+01 4.825674e+00 1.002907e+01 -9.992601e+00 8.937172e+00 -5.391002e+00 -9.861521e+00 4.314206e+00 -7.899650e+00 -4.294640e+00 4.329414e+00 -6.356020e+00 3.556315e-01 -2.196091e+00 9.873577e-01 4.997005e-01 -1.253524e+00 8.922677e-01 -8.276878e-02 -6.920550e-01 4.749020e-01 -7.007048e-01 -6.959813e-02 5.674365e-01 -5.315423e-01 9.624883e-02 2.049691e-01 2.221573e-02 -2.019378e-02 1.111320e-01 -2.138065e-01 -2.414035e-01 -1.237217e-01 -1.677167e-01 -5.940513e-02 2.601889e-02 -8.893737e-02 -5.538956e-02
<VARIANCE> 39
 7.357435e+01 1.496389e+02 5.457122e+01 5.895305e+01 6.831604e+01 5.559417e+01 4.760110e+01 6.734906e+01 5.456689e+01 6.770077e+01 2.904142e+01 3.331039e+01 4.035404e+01 2.331423e+00 1.137709e+01 4.209340e+00 2.517416e+00 5.850502e+00 4.257732e+00 4.310634e+00 3.991980e+00 3.543040e+00 4.240802e+00 2.279074e+00 2.180465e+00 2.796409e+00 3.852266e-01 2.783344e+00 6.453158e-01 4.505629e-01 1.255410e+00 8.877329e-01 7.717828e-01 6.777103e-01 8.097674e-01 8.098611e-01 4.273728e-01 4.574626e-01 5.200329e-01
<GCONST> 1.367892e+02
<STATE> 3
<NUMMIXES> 2
<MIXTURE> 1 6.928505e-01
<MEAN> 39
 -9.326926e+00 -2.879069e+00 1.673190e+00 2.558836e+00 7.514938e+00 -1.906608e+00 -2.379697e-01 -1.210562e+00 -2.316865e+00 -4.407554e+00 -3.840118e+00 1.642681e+00 1.260103e-01 4.125718e-02 -7.720276e-01 3.575501e-01 -5.507588e-03 1.690294e-01 -2.968549e-01 1.491317e-01 -1.186813e-01 -7.103966e-02 -1.539632e-01 -1.714521e-02 -3.907395e-02 3.929440e-02 1.750515e-01 6.450833e-02 -1.122987e-01 -7.774842e-02 3.155611e-02 -1.853605e-01 -2.512764e-01 3.842499e-02 -1.036843e-01 -1.619368e-01 -2.961256e-02 6.879475e-03 -8.172951e-02
<VARIANCE> 39
 7.073499e+01 1.254073e+02 6.184054e+01 4.360800e+01 6.530437e+01 6.155258e+01 5.741137e+01 5.012370e+01 4.596105e+01 4.338038e+01 3.889795e+01 3.167422e+01 3.133380e+01 2.819147e+00 7.590398e+00 3.728064e+00 2.889393e+00 3.406432e+00 4.342928e+00 4.427477e+00 3.093940e+00 3.069333e+00 2.872730e+00 2.708065e+00 2.086050e+00 2.179969e+00 3.391389e-01 1.159928e+00 7.285310e-01 5.460698e-01 6.335493e-01 8.068292e-01 7.813498e-01 6.189849e-01 5.479628e-01 5.524174e-01 4.913754e-01 4.023706e-01 4.072378e-01
<GCONST> 1.315629e+02
<MIXTURE> 2 3.071495e-01
<MEAN> 39
 7.521407e+00 -2.527738e+01 1.277333e+01 1.575759e+01 -1.483187e+01 1.266585e+01 -6.610318e+00 -1.469043e+01 5.103068e+00 -1.232615e+01 -5.589334e+00 7.106814e+00 -9.243570e+00 6.868834e-01 8.773363e-01 -5.196802e-01 3.513550e-02 7.466263e-01 -7.653859e-01 -8.358256e-01 -7.263031e-01 -1.207891e+00 -4.400717e-01 -3.319287e-01 -4.059127e-01 1.337515e-01 8.557531e-02 3.250653e-01 -5.264431e-01 -1.634867e-01 4.180386e-01 -3.390012e-01 -1.190652e-01 2.303974e-01 -1.065014e-01 1.103027e-01 -1.649541e-02 -1.847084e-01 1.566636e-01
<VARIANCE> 39
 4.736553e+01 5.509247e+01 4.772956e+01 3.572778e+01 3.997725e+01 3.425233e+01 3.476207e+01 3.858242e+01 5.034713e+01 3.435293e+01 2.982457e+01 3.415225e+01 2.336593e+01 1.748435e+00 2.712081e+00 3.403242e+00 2.132637e+00 2.727735e+00 2.792385e+00 2.516517e+00 2.175056e+00 3.114578e+00 2.271345e+00 1.983096e+00 1.878480e+00 1.845007e+00 2.893620e-01 6.749859e-01 4.748681e-01 3.524592e-01 7.780272e-01 5.487714e-01 4.105297e-01 4.401287e-01 6.612400e-01 4.454623e-01 3.564996e-01 3.708761e-01 3.539047e-01
<GCONST> 1.198279e+02
<STATE> 4
<NUMMIXES> 2
<MIXTURE> 1 5.399693e-01
<MEAN> 39
 2.877777e-01 -9.013200e-01 -1.327248e+00 2.962416e+00 1.121205e+01 -4.982889e+00 -6.474027e+00 2.744787e-02 -6.525413e+00 -9.983867e+00 -6.725425e+00 1.936417e+00 -8.607216e-01 3.499734e-01 2.541380e-01 -6.921802e-01 -3.548024e-01 5.122666e-01 -7.959700e-01 -1.055828e+00 3.577040e-01 -3.192360e-01 -4.577559e-01 1.435653e-01 2.876411e-01 -2.066025e-01 -1.060321e-01 -7.128494e-02 5.869070e-02 1.926045e-03 -1.688165e-02 5.185521e-02 1.088720e-01 1.490344e-02 1.398452e-01 6.779265e-02 5.401091e-02 5.187439e-03 -3.920465e-02
<VARIANCE> 39
 3.326802e+01 6.764467e+01 4.629206e+01 5.956163e+01 1.436707e+02 1.025285e+02 5.940282e+01 8.130132e+01 5.954969e+01 6.039658e+01 5.363130e+01 4.040210e+01 3.170789e+01 1.132392e+00 1.850265e+00 1.916059e+00 1.575599e+00 2.935226e+00 3.474318e+00 3.083934e+00 2.131517e+00 2.470213e+00 2.485785e+00 1.969665e+00 1.943208e+00 1.291286e+00 1.383034e-01 3.774430e-01 2.856548e-01 2.526343e-01 4.469564e-01 4.988821e-01 5.320957e-01 4.043643e-01 3.775035e-01 4.163100e-01 3.226965e-01 3.250188e-01 2.214154e-01
<GCONST> 1.199544e+02
<MIXTURE> 2 4.600308e-01
<MEAN> 39
 1.403221e+01 -1.722627e+01 1.166442e+00 1.367045e+01 -7.168200e+00 4.939764e+00 -1.296077e+01 -1.808011e+01 -1.439896e+00 -1.053020e+01 -5.838101e+00 3.047497e+00 -6.625166e+00 7.239142e-02 2.683819e-01 -5.629663e-01 -2.657917e-01 2.794898e-01 -5.931253e-01 -3.716882e-01 2.064322e-01 -1.125291e-01 1.406852e-01 2.484388e-01 -1.670036e-01 7.263037e-02 -1.037460e-01 -4.690755e-02 1.583309e-01 2.196164e-02 -1.269456e-01 1.088190e-01 1.722359e-01 9.822309e-02 1.173968e-01 3.946920e-02 1.786828e-02 3.985451e-02 -3.457556e-02
<VARIANCE> 39
 1.612682e+01 2.706036e+01 2.545688e+01 4.189376e+01 3.218449e+01 4.556997e+01 3.789481e+01 2.547648e+01 2.674156e+01 4.581252e+01 3.206215e+01 3.101178e+01 2.957446e+01 5.786040e-01 8.590693e-01 1.257036e+00 8.235299e-01 1.581940e+00 1.603905e+00 1.759523e+00 1.031599e+00 1.205540e+00 1.284925e+00 1.043176e+00 1.009522e+00 1.071647e+00 7.446692e-02 1.264120e-01 1.428100e-01 1.141990e-01 2.093441e-01 2.142715e-01 2.581078e-01 2.004055e-01 2.125692e-01 2.113347e-01 1.743314e-01 1.538687e-01 1.737009e-01
<GCONST> 9.439288e+01
<TRANSP> 5
 0.000000e+00 1.000000e+00 0.000000e+00 0.000000e+00 0.000000e+00
 0.000000e+00 7.239771e-01 2.760229e-01 0.000000e+00 0.000000e+00
 0.000000e+00 0.000000e+00 7.282461e-01 2.717539e-01 0.000000e+00
 0.000000e+00 0.000000e+00 0.000000e+00 7.352580e-01 2.647420e-01
 0.000000e+00 0.000000e+00 0.000000e+00 0.000000e+00 0.000000e+00
<ENDHMM>
~o
<STREAMINFO> 1 39
<VECSIZE> 39<NULLD><MFCC_D_A><DIAGC>
~h "s"
<BEGINHMM>
<NUMSTATES> 5
<STATE> 2
<NUMMIXES> 2
<MIXTURE> 1 4.786089e-01
<MEAN> 39
 -5.028641e+00 -4.648486e+00 1.104136e+01 -4.004561e+00 7.637827e+00 -2.860209e+00 4.884654e-01 -6.292731e+00 -3.471388e+00 -5.693991e+00 -1.458777e+00 -5.727739e-01 -3.583226e+00 -1.833370e+00 -6.425352e-01 1.626296e+00 -6.387570e-01 2.473008e-01 1.005493e+00 6.327684e-01 -1.612699e-01 4.959262e-01 4.115112e-01 3.819442e-01 5.108625e-02 3.293543e-01 -2.852112e-01 -1.366301e-01 7.800875e-04 -7.249175e-02 3.130276e-02 -5.760869e-02 -8.231535e-04 1.516970e-01 1.245255e-01 3.231980e-02 7.857205e-02 2.242202e-02 8.989507e-03
<VARIANCE> 39
 8.944658e+01 6.504855e+01 8.808824e+01 8.623721e+01 1.281495e+02 9.775996e+01 9.015359e+01 8.149083e+01 6.522965e+01 5.921267e+01 4.761869e+01 4.723944e+01 4.183275e+01 3.360535e+00 3.139034e+00 3.298236e+00 2.683869e+00 2.790707e+00 3.323258e+00 3.090309e+00 2.849240e+00 3.325957e+00 2.612417e+00 2.264484e+00 1.840887e+00 1.611407e+00 2.787350e-01 4.038379e-01 5.002080e-01 3.893673e-01 3.738016e-01 4.868152e-01 4.483715e-01 4.666943e-01 4.586237e-01 4.232825e-01 3.736732e-01 3.215627e-01 2.645024e-01
<GCONST> 1.281599e+02
<MIXTURE> 2 5.213910e-01
<MEAN> 39
 -2.217921e+01 -8.240870e+00 2.092019e+01 -1.019795e+01 1.354477e+01 -6.821237e-01 5.933935e+00 -5.005332e+00 -8.350676e-01 -2.700977e+00 2.126844e+00 -1.710057e+00 -1.069203e+00 -2.209202e+00 -7.915462e-01 -3.139488e-01 -1.135559e+00 -3.711295e-01 -1.323054e-01 -5.238382e-03 4.811404e-01 3.744174e-01 2.052612e-01 3.010236e-01 9.219602e-02 2.607014e-01 4.081222e-01 8.239923e-02 -3.269702e-01 2.126797e-03 -1.731075e-01 -1.732649e-01 -2.138785e-01 -1.007766e-01 -1.771560e-01 -1.340196e-01 -1.421740e-01 -2.568060e-02 -5.714026e-02
<VARIANCE> 39
 3.103706e+01 4.669295e+01 4.926567e+01 5.346913e+01 4.923313e+01 4.294143e+01 7.042741e+01 4.987010e+01 3.433313e+01 3.327358e+01 3.209829e+01 2.927133e+01 2.017629e+01 1.384374e+00 6.987841e-01 1.725484e+00 1.405466e+00 1.584623e+00 1.595911e+00 1.895216e+00 1.986667e+00 1.915110e+00 1.710119e+00 1.636983e+00 1.383980e+00 1.155632e+00 9.581196e-02 1.343373e-01 2.833730e-01 2.466717e-01 2.684486e-01 3.060884e-01 3.184865e-01 3.295039e-01 3.489563e-01 3.183548e-01 3.051124e-01 2.682597e-01 2.230585e-01
<GCONST> 1.068312e+02
<STATE> 3
<NUMMIXES> 2
<MIXTURE> 1 1.824173e-01
<MEAN> 39
 -4.528866e+00 -2.829839e+01 1.676462e+01 3.571507e+00 -1.921861e+01 2.073961e+01 -5.704336e+00 -1.103662e+01 1.266107e+01 -9.236917e+00 -2.465117e+00 8.079627e+00 -9.347549e+00 -1.329022e-01 -1.210640e-01 -2.037637e-01 -9.583113e-02 -5.558745e-03 -9.902021e-03 4.082847e-02 1.059030e-01 1.028864e-01 8.847177e-02 1.055782e-01 1.111786e-01 8.757744e-02 1.398768e-01 1.717561e-01 -7.386552e-02 5.418919e-02 8.477799e-02 -9.734471e-02 7.787399e-03 -1.764124e-02 -1.165822e-01 -1.564962e-02 -5.808297e-02 -6.360640e-02 3.429122e-03
<VARIANCE> 39
 3.510951e+01 3.532171e+01 5.222897e+01 5.317537e+01 3.006669e+01 3.150651e+01 4.310057e+01 3.552274e+01 2.553184e+01 2.733068e+01 2.660826e+01 2.107984e+01 2.002766e+01 1.590572e+00 2.007889e+00 1.246990e+00 1.377549e+00 1.734608e+00 1.691148e+00 1.514763e+00 1.508321e+00 1.833813e+00 1.605994e+00 1.396013e+00 1.288992e+00 1.218180e+00 1.212709e-01 2.203742e-01 2.082845e-01 2.017161e-01 2.870715e-01 3.395895e-01 2.839619e-01 2.928729e-01 3.548875e-01 3.305161e-01 2.872378e-01 2.621384e-01 2.508641e-01
<GCONST> 1.045419e+02
<MIXTURE> 2 8.175827e-01
<MEAN> 39
 -2.987169e+01 -1.135784e+01 1.542941e+01 -1.624894e+01 9.763044e+00 -2.136357e+00 2.568376e+00 -2.907461e+00 -2.184685e-01 -2.090454e+00 2.637123e+00 -1.322274e+00 4.343333e-01 -1.054382e-01 -2.494788e-01 -3.260242e-01 -2.092568e-01 -1.526472e-01 -1.565079e-01 -7.304561e-02 -6.932992e-02 8.559337e-02 6.952939e-02 1.074348e-01 1.205771e-01 1.174162e-01 1.686140e-01 2.333354e-02 1.331232e-02 1.082350e-01 3.014114e-02 4.294755e-03 3.240260e-02 -4.822557e-02 3.454027e-03 1.266023e-02 1.799941e-02 2.312893e-02 5.478003e-03
<VARIANCE> 39
 1.238851e+01 3.080052e+01 3.778027e+01 3.615595e+01 4.203802e+01 2.656044e+01 3.932104e+01 2.970815e+01 2.643506e+01 2.322113e+01 2.175722e+01 1.828711e+01 1.349684e+01 5.111203e-01 4.582559e-01 6.196944e-01 7.648232e-01 8.657581e-01 9.736969e-01 1.068300e+00 1.246045e+00 1.196164e+00 1.186912e+00 1.150174e+00 1.049437e+00 8.729734e-01 5.397647e-02 6.828131e-02 1.029325e-01 1.345053e-01 1.612837e-01 1.894931e-01 2.111060e-01 2.323801e-01 2.393818e-01 2.371279e-01 2.301741e-01 2.109021e-01 1.774272e-01
<GCONST> 8.824134e+01
<STATE> 4
<NUMMIXES> 2
<MIXTURE> 1 4.077407e-01
<MEAN> 39
 -8.133633e+00 -5.977347e+00 1.184696e+01 -2.096297e+00 5.817322e+00 1.020099e+00 1.455644e+00 -4.333529e+00 -1.945436e+00 -5.359545e+00 -1.760261e+00 1.505389e-01 -2.290509e+00 2.549510e+00 1.260748e+00 -5.153659e-01 5.975268e-01 -2.098077e-01 -5.989259e-01 -8.636206e-01 2.526469e-03 -7.268599e-01 -6.930297e-01 -9.307578e-01 -3.926396e-01 -4.017422e-01 -2.944364e-01 -3.545647e-01 -2.771990e-01 -3.156634e-01 -1.851974e-01 -2.868725e-01 -1.236057e-01 3.862555e-02 1.091410e-01 7.605910e-02 1.617914e-01 1.099890e-01 8.669703e-02
<VARIANCE> 39
 1.095496e+02 7.385394e+01 5.736522e+01 9.305099e+01 1.313452e+02 9.033671e+01 7.300335e+01 8.642522e+01 6.194222e+01 4.781378e+01 3.922490e+01 3.814171e+01 3.838890e+01 4.929214e+00 3.503627e+00 3.068892e+00 3.207365e+00 3.345852e+00 4.217555e+00 3.270247e+00 3.408098e+00 4.102801e+00 3.301688e+00 2.788888e+00 2.195119e+00 2.267312e+00 4.722831e-01 4.578926e-01 4.664646e-01 4.315937e-01 4.574184e-01 6.067141e-01 5.758448e-01 4.868520e-01 5.137950e-01 4.853519e-01 4.065160e-01 3.232624e-01 2.916052e-01
<GCONST> 1.314333e+02
<MIXTURE> 2 5.922593e-01
<MEAN> 39
 -2.461175e+01 -1.271608e+01 1.242244e+01 -1.371697e+01 9.234671e+00 -4.089092e+00 4.249845e+00 -5.570837e+00 5.401075e-01 -1.478518e+00 4.103396e+00 8.604145e-01 1.554922e+00 1.768388e+00 4.840209e-01 -1.934271e-01 1.138585e+00 2.410927e-01 2.501656e-01 1.422279e-01 -1.526587e-01 -1.330231e-01 -5.113194e-02 -1.109252e-01 1.036545e-01 -1.379735e-01 4.589151e-01 3.773318e-01 1.451839e-01 2.805201e-01 1.052710e-01 1.313457e-01 -4.862640e-02 9.373950e-02 -1.765115e-01 -1.768101e-01 -2.546912e-01 -1.448362e-01 -1.945233e-01
<VARIANCE> 39
 2.921707e+01 4.472813e+01 5.292801e+01 5.682356e+01 4.209240e+01 3.751901e+01 5.460971e+01 5.538413e+01 3.783108e+01 2.884810e+01 2.237240e+01 1.959867e+01 1.546485e+01 1.778775e+00 1.554178e+00 1.809406e+00 2.034745e+00 1.902518e+00 1.973072e+00 1.994661e+00 2.330069e+00 2.060041e+00 1.828627e+00 1.744065e+00 1.516003e+00 1.394730e+00 2.152246e-01 2.413784e-01 2.688400e-01 3.069967e-01 3.318083e-01 3.854640e-01 4.051038e-01 4.168798e-01 4.301767e-01 3.877940e-01 3.464626e-01 2.967842e-01 2.684982e-01
<GCONST> 1.112008e+02
<TRANSP> 5
 0.000000e+00 1.000000e+00 0.000000e+00 0.000000e+00 0.000000e+00
 0.000000e+00 8.674710e-01 1.325290e-01 0.000000e+00 0.000000e+00
 0.000000e+00 0.000000e+00 9.199334e-01 8.006664e-02 0.000000e+00
 0.000000e+00 0.000000e+00 0.000000e+00 8.442560e-01 1.557440e-01
 0.000000e+00 0.000000e+00 0.000000e+00 0.000000e+00 0.000000e+00
<ENDHMM>
~o
<STREAMINFO> 1 39
<VECSIZE> 39<NULLD><MFCC_D_A><DIAGC>
~h "sh"
<BEGINHMM>
<NUMSTATES> 5
<STATE> 2
<NUMMIXES> 2
<MIXTURE> 1 4.942358e-01
<MEAN> 39
 -3.875317e+00 -8.912646e+00 9.510832e+00 4.271179e+00 9.803491e+00 -4.617728e+00 -2.678974e+00 -5.802851e+00 -1.177201e+00 -5.303537e+00 -2.388876e+00 -8.517367e-01 -3.851473e+00 -1.545377e+00 -1.504572e+00 1.318852e+00 1.622984e-01 1.649882e-01 9.376733e-01 8.384535e-01 -1.991595e-01 7.007848e-01 3.546531e-01 3.080000e-01 1.813042e-01 3.371691e-01 -2.309878e-01 -2.102269e-01 -8.624620e-02 -9.056507e-02 -4.714332e-03 -9.011670e-02 9.713952e-02 1.267792e-01 7.055579e-02 -3.977894e-02 9.563662e-02 9.493742e-03 1.093181e-02
<VARIANCE> 39
 8.354235e+01 7.808246e+01 9.416741e+01 7.958759e+01 1.276191e+02 1.193489e+02 7.541838e+01 6.122740e+01 5.601458e+01 5.696497e+01 5.045031e+01 5.439339e+01 5.219008e+01 2.696557e+00 3.879890e+00 2.788260e+00 2.278400e+00 2.372510e+00 3.292128e+00 3.426622e+00 2.972319e+00 2.654935e+00 2.562106e+00 2.417332e+00 1.785664e+00 1.765390e+00 2.122848e-01 4.502042e-01 4.707506e-01 3.370142e-01 3.622440e-01 4.782325e-01 4.217865e-01 4.640472e-01 3.944491e-01 4.136030e-01 3.647978e-01 3.127106e-01 2.730641e-01
<GCONST> 1.270572e+02
<MIXTURE> 2 5.057641e-01
<MEAN> 39
 -1.891747e+01 -1.756950e+01 1.639179e+01 1.778383e+00 1.338642e+01 -2.929090e+00 4.617009e+00 -5.414422e+00 2.618268e+00 -3.754485e+00 4.639708e-01 -1.520881e+00 -9.244672e-01 -2.013721e+00 -1.510988e+00 -5.423926e-01 -8.203191e-01 -6.058483e-01 -2.296695e-01 3.173036e-01 2.491212e-01 5.456389e-01 -5.072508e-04 2.938128e-01 7.932241e-02 3.364783e-01 3.598247e-01 2.407690e-01 -2.017670e-01 -6.018437e-02 -1.625212e-01 -1.793603e-01 -2.973019e-01 -1.096547e-01 -1.719442e-01 -8.365717e-02 -1.413639e-01 -3.521024e-02 -5.281307e-02
<VARIANCE> 39
 4.354546e+01 7.055933e+01 4.428656e+01 4.502763e+01 5.842493e+01 4.342107e+01 4.851216e+01 4.496929e+01 4.287063e+01 2.998388e+01 2.934106e+01 3.106973e+01 3.222617e+01 9.532613e-01 7.901019e-01 1.185027e+00 1.203791e+00 1.261629e+00 1.444439e+00 1.853833e+00 1.671795e+00 1.657601e+00 1.556038e+00 1.516424e+00 1.310317e+00 1.110183e+00 8.101902e-02 1.163728e-01 2.295009e-01 2.175793e-01 2.394598e-01 2.644206e-01 3.029204e-01 2.929658e-01 3.042611e-01 2.976412e-01 2.770277e-01 2.400329e-01 2.199476e-01
<GCONST> 1.043511e+02
<STATE> 3
<NUMMIXES> 2
<MIXTURE> 1 8.358697e-01
<MEAN> 39
 -2.565038e+01 -2.326558e+01 1.218256e+01 -2.260074e+00 8.383076e+00 -5.295588e+00 3.284291e+00 -4.962301e+00 4.018405e+00 -3.564227e+00 1.449631e+00 -5.916287e-01 4.642372e-01 -3.703253e-02 -1.505142e-01 -2.569925e-01 -1.906115e-01 -1.197935e-01 -1.394786e-01 -8.804992e-02 -4.528876e-02 6.030292e-02 8.821291e-02 8.458927e-02 1.205152e-01 6.792893e-02 1.385714e-01 7.353149e-02 6.836951e-03 4.791247e-02 5.600521e-02 2.860815e-02 -2.043874e-04 -7.997330e-03 -2.537066e-02 2.595391e-02 1.036378e-02 2.052847e-02 -1.381152e-02
<VARIANCE> 39
 2.642625e+01 6.113530e+01 4.014518e+01 3.754173e+01 3.943595e+01 3.492435e+01 3.688883e+01 4.063854e+01 3.404759e+01 2.454113e+01 2.598142e+01 2.000665e+01 2.160157e+01 4.740776e-01 4.177673e-01 5.650001e-01 6.692589e-01 7.943942e-01 9.042043e-01 1.035506e+00 1.159179e+00 1.187563e+00 1.171615e+00 1.103329e+00 1.014051e+00 8.563583e-01 4.524861e-02 6.657688e-02 9.378448e-02 1.244671e-01 1.516920e-01 1.786547e-01 2.041905e-01 2.260047e-01 2.343357e-01 2.333336e-01 2.241368e-01 2.048746e-01 1.772128e-01
<GCONST> 8.986784e+01
<MIXTURE> 2 1.641304e-01
<MEAN> 39
 -5.013169e+00 -3.608023e+01 1.778243e+01 1.308607e+01 -1.728464e+01 1.506527e+01 -4.912339e+00 -8.955367e+00 1.176417e+01 -8.634359e+00 -1.924750e+00 6.328804e+00 -1.030560e+01 -7.019468e-02 -1.778760e-01 -2.128107e-01 -1.555865e-01 -3.246437e-02 -6.998243e-03 -1.543709e-02 3.868021e-02 6.734262e-02 5.530502e-02 7.332807e-02 6.515630e-02 4.459666e-02 1.811550e-01 2.429720e-01 -4.806388e-02 4.171120e-02 1.112032e-01 -7.851084e-02 -4.613915e-02 -4.279339e-02 -1.068549e-01 -3.621164e-02 -7.738225e-02 -7.436488e-02 -2.111825e-02
<VARIANCE> 39
 2.662932e+01 3.311078e+01 5.971692e+01 4.900588e+01 2.862671e+01 3.798727e+01 2.704708e+01 2.960773e+01 2.952245e+01 2.679051e+01 3.706921e+01 2.668327e+01 1.892701e+01 1.684078e+00 2.321713e+00 1.064279e+00 1.103313e+00 1.735002e+00 1.478705e+00 1.376211e+00 1.362248e+00 1.541497e+00 1.461221e+00 1.307045e+00 1.214366e+00 1.171181e+00 1.306428e-01 2.393316e-01 1.851647e-01 1.897256e-01 2.505269e-01 3.113061e-01 2.593615e-01 2.621491e-01 3.057823e-01 3.044236e-01 2.769730e-01 2.462454e-01 2.414389e-01
<GCONST> 1.026212e+02
<STATE> 4
<NUMMIXES> 2
<MIXTURE> 1 4.053980e-01
<MEAN> 39
 -2.675454e+00 -9.489748e+00 1.031915e+01 3.146981e+00 6.226744e+00 -2.125604e+00 -2.689979e+00 -8.186378e+00 -2.078184e+00 -7.310596e+00 -3.763961e+00 -1.250034e+00 -4.771269e+00 2.697267e+00 1.798152e+00 -7.532027e-01 -1.803944e-02 -2.440872e-01 -1.157604e+00 -1.258945e+00 -5.487089e-01 -1.173070e+00 -8.430566e-01 -7.957360e-01 -4.887846e-01 -4.379111e-01 -4.057097e-01 -4.988799e-01 -3.705707e-01 -3.724807e-01 -2.402261e-01 -2.696621e-01 1.292568e-02 1.269142e-01 1.575725e-01 1.514991e-01 2.912535e-01 1.702756e-01 1.801127e-01
<VARIANCE> 39
 9.613622e+01 7.894347e+01 4.928042e+01 7.142488e+01 1.247090e+02 1.091098e+02 6.285215e+01 5.379106e+01 6.339722e+01 4.582561e+01 3.808687e+01 4.210517e+01 5.139461e+01 4.003740e+00 4.065117e+00 3.102186e+00 2.971081e+00 2.614838e+00 4.540186e+00 3.230644e+00 3.395308e+00 3.157208e+00 3.105392e+00 2.995421e+00 2.173616e+00 2.248440e+00 4.056837e-01 3.968078e-01 4.728682e-01 4.178374e-01 4.023018e-01 6.609924e-01 5.411958e-01 4.308213e-01 4.296903e-01 4.312330e-01 3.662978e-01 2.864655e-01 2.601709e-01
<GCONST> 1.290471e+02
<MIXTURE> 2 5.946020e-01
<MEAN> 39
 -2.061370e+01 -1.937623e+01 9.230562e+00 -3.782178e+00 9.105289e+00 -4.767179e+00 2.937012e+00 -5.325313e+00 2.736504e+00 -1.789132e+00 2.506970e+00 1.562969e+00 8.346626e-01 1.786662e+00 1.285174e+00 8.282555e-02 7.762828e-01 4.904804e-01 4.446424e-01 -1.737358e-01 1.258593e-03 -4.963640e-01 -7.493161e-02 -3.254621e-01 -2.898930e-02 -3.904759e-01 4.489339e-01 4.637521e-01 1.613796e-01 2.389842e-01 6.403647e-02 2.128935e-02 -1.482527e-01 -6.005460e-02 -2.260816e-01 -2.508450e-01 -2.924130e-01 -1.961551e-01 -1.941361e-01
<VARIANCE> 39
 4.276162e+01 6.567507e+01 3.722361e+01 4.187066e+01 5.579966e+01 4.627238e+01 4.516551e+01 4.467825e+01 3.423676e+01 2.855271e+01 2.690836e+01 2.398404e+01 2.183101e+01 1.945134e+00 2.203335e+00 1.875028e+00 2.199064e+00 1.962809e+00 2.044133e+00 2.115761e+00 2.104494e+00 1.999564e+00 1.949118e+00 2.018239e+00 1.620307e+00 1.528128e+00 2.348549e-01 2.744025e-01 2.722329e-01 3.325748e-01 3.538630e-01 4.281893e-01 4.178404e-01 4.113606e-01 3.868149e-01 3.762384e-01 3.493631e-01 2.946913e-01 2.772226e-01
<GCONST> 1.133218e+02
<TRANSP> 5
 0.000000e+00 1.000000e+00 0.000000e+00 0.000000e+00 0.000000e+00
 0.000000e+00 8.703200e-01 1.296799e-01 0.000000e+00 0.000000e+00
 0.000000e+00 0.000000e+00 9.336262e-01 6.637382e-02 0.000000e+00
 0.000000e+00 0.000000e+00 0.000000e+00 8.498996e-01 1.501004e-01
 0.000000e+00 0.000000e+00 0.000000e+00 0.000000e+00 0.000000e+00
<ENDHMM>
~o
<STREAMINFO> 1 39
<VECSIZE> 39<NULLD><MFCC_D_A><DIAGC>
~h "SIL"
<BEGINHMM>
<NUMSTATES> 5
<STATE> 2
<NUMMIXES> 2
<MIXTURE> 1 6.343535e-01
<MEAN> 39
 -9.558927e+00 -2.955737e+00 -2.506285e+00 4.132630e+00 -4.022208e-01 3.377083e+00 4.130420e+00 3.240064e-02 1.627516e+00 6.109094e-01 -1.318923e-01 4.498853e+00 -8.942712e-01 -6.928948e-02 3.829870e-02 -6.734582e-04 6.790166e-03 1.340300e-02 1.375837e-02 2.232590e-02 1.784532e-02 1.971374e-02 1.640245e-02 -5.062588e-03 -1.623879e-03 2.044486e-02 -2.696889e-03 4.180977e-03 1.697672e-02 -6.120666e-03 -4.228717e-03 6.320278e-04 -1.656370e-03 -2.444819e-03 6.286830e-03 -8.582719e-03 -1.216181e-02 -5.073556e-03 -4.548995e-03
<VARIANCE> 39
 4.186462e+01 7.402940e+01 3.099679e+01 3.340697e+01 4.645889e+01 4.345008e+01 2.968412e+01 3.228226e+01 3.052909e+01 2.290461e+01 1.840874e+01 1.938979e+01 2.506889e+01 1.440693e-01 3.649671e-01 4.392949e-01 5.817301e-01 7.149680e-01 8.990549e-01 1.019488e+00 1.134216e+00 1.207672e+00 1.148922e+00 1.105158e+00 1.056239e+00 9.328530e-01 2.465242e-02 5.432563e-02 8.521398e-02 1.176557e-01 1.502030e-01 1.916525e-01 2.139053e-01 2.402989e-01 2.571377e-01 2.458468e-01 2.369102e-01 2.262610e-01 2.008634e-01
<GCONST> 8.756295e+01
<MIXTURE> 2 3.656465e-01
<MEAN> 39
 -1.142323e+01 1.189757e+00 -1.150043e+00 2.073591e+00 1.984568e+00 1.458758e+00 4.666055e+00 1.247311e+00 2.303590e+00 6.847165e-01 -4.941858e-01 4.576219e+00 -1.241537e+00 -2.383977e-01 3.311241e-02 -1.279305e-02 2.437228e-02 2.793390e-02 1.407799e-01 9.608070e-02 8.677866e-02 1.114440e-01 1.082627e-01 3.608481e-02 3.226501e-02 6.382274e-02 1.940947e-02 3.630415e-03 8.181022e-03 2.361297e-02 2.753633e-02 -1.779759e-02 -3.005121e-02 -1.506858e-02 -2.992165e-02 -1.730591e-02 -1.236073e-02 -2.410082e-02 -2.872620e-03
<VARIANCE> 39
 4.480489e+01 6.668343e+01 4.001367e+01 5.130425e+01 5.788618e+01 6.144305e+01 5.531167e+01 4.810794e+01 4.128096e+01 3.064755e+01 2.747056e+01 2.852841e+01 3.160432e+01 1.514161e+00 2.485977e+00 2.332164e+00 2.129232e+00 2.084023e+00 2.247124e+00 2.255863e+00 2.281002e+00 2.357451e+00 2.077529e+00 1.851172e+00 1.746888e+00 1.433622e+00 2.191909e-01 3.888186e-01 4.058700e-01 3.762366e-01 3.878883e-01 4.263409e-01 4.298833e-01 4.452224e-01 4.540788e-01 4.104838e-01 3.682645e-01 3.519675e-01 2.906989e-01
<GCONST> 1.171093e+02
<STATE> 3
<NUMMIXES> 2
<MIXTURE> 1 6.952365e-01
<MEAN> 39
 -4.614826e-36 4.088473e-39 7.546833e-41 -2.003180e-38 -1.016468e-37 1.405099e-39 -7.973388e-43 7.664946e-39 -1.286953e-38 1.415171e-41 6.993320e-41 6.165994e-41 1.993908e-41 5.552645e-41 1.641061e-40 1.461414e-41 6.268008e-42 1.373272e-43 -2.054304e-42 1.018744e-41 -2.522337e-44 -2.642154e-39 1.558244e-42 1.841306e-42 3.833953e-42 -1.401298e-45 -1.041492e-02 1.165869e-03 -4.681267e-04 1.067939e-03 -3.674125e-04 -4.449329e-04 -4.800549e-04 -8.346118e-04 -4.919678e-04 -6.385805e-04 -4.974747e-04 3.757836e-04 -7.628010e-04
<VARIANCE> 39
 1.000000e-02 1.000000e-02 1.000000e-02 1.000000e-02 1.000000e-02 1.000000e-02 1.000000e-02 1.000000e-02 1.000000e-02 1.000000e-02 1.000000e-02 1.000000e-02 1.000000e-02 1.000000e-02 1.000000e-02 1.000000e-02 1.000000e-02 1.000000e-02 1.000000e-02 1.000000e-02 1.000000e-02 1.000000e-02 1.000000e-02 1.000000e-02 1.000000e-02 1.000000e-02 1.000000e-02 1.000000e-02 1.000000e-02 1.000000e-02 1.000000e-02 1.000000e-02 1.000000e-02 1.000000e-02 1.000000e-02 1.000000e-02 1.000000e-02 1.000000e-02 1.000000e-02
<GCONST> -1.079245e+02
<MIXTURE> 2 3.047635e-01
<MEAN> 39
 -3.073403e+01 1.425273e+01 -6.347635e+00 2.336389e+00 -7.483404e-01 1.066642e+01 -1.116233e+01 5.172227e+00 2.572465e-01 4.570226e-01 -1.853601e+00 4.806254e-01 3.082728e+00 -1.703352e-02 1.551152e-02 3.685159e-02 3.168634e-02 1.600667e-02 2.196852e-03 1.066339e-02 1.046215e-02 6.194680e-03 -2.002487e-03 -2.168891e-02 -2.960364e-02 -1.420306e-02 6.402527e-02 -2.888847e-02 1.946194e-02 2.577228e-02 -3.223030e-03 -2.393205e-02 1.966219e-02 7.751088e-04 -1.281637e-02 -3.375708e-03 5.767592e-03 -3.608371e-03 -2.195551e-02
<VARIANCE> 39
 7.722108e+01 3.633752e+01 1.621295e+01 8.805264e+00 1.116743e+01 2.184221e+01 5.614600e+01 9.989722e+00 7.891666e+00 5.587424e+00 5.826734e+00 7.160335e+00 7.011834e+00 2.358004e-01 2.073665e-01 2.922952e-01 2.998027e-01 3.982294e-01 4.320155e-01 5.057585e-01 5.343324e-01 5.329021e-01 5.498871e-01 5.658979e-01 5.152957e-01 4.229449e-01 9.825453e-02 6.422583e-02 7.037972e-02 7.732156e-02 9.463117e-02 1.049519e-01 1.273331e-01 1.155301e-01 1.163909e-01 1.174336e-01 1.189772e-01 1.076718e-01 9.144803e-02
<GCONST> 6.387524e+01
<STATE> 4
<NUMMIXES> 2
<MIXTURE> 1 5.103472e-01
<MEAN> 39
 -1.256804e+01 6.479373e+00 2.038786e+00 8.567524e+00 2.427899e+00 5.176943e+00 4.114543e-01 4.024741e+00 1.021508e+00 1.262775e+00 -1.256009e+00 9.477930e-01 3.137723e-02 -8.586787e-02 3.690922e-02 2.457621e-01 1.594240e-01 1.689443e-01 5.045222e-02 3.103973e-02 6.963865e-02 1.091670e-01 7.266748e-02 3.943156e-02 6.249414e-03 -1.648775e-02 1.051229e-02 -3.655927e-02 1.203187e-02 -3.837839e-02 1.769672e-03 -1.438639e-02 9.163395e-03 8.845959e-03 -7.347676e-03 -3.171584e-02 -5.209196e-03 1.373672e-02 -1.236865e-02
<VARIANCE> 39
 7.612381e+01 6.791934e+01 3.206618e+01 5.097443e+01 4.710615e+01 4.857334e+01 4.886001e+01 4.522910e+01 3.813118e+01 2.496777e+01 2.466132e+01 2.227277e+01 1.953887e+01 6.615518e-01 8.886616e-01 9.175950e-01 1.017072e+00 1.108420e+00 1.194592e+00 1.274129e+00 1.362965e+00 1.347271e+00 1.241394e+00 1.154082e+00 1.094268e+00 9.258087e-01 1.785030e-01 2.040161e-01 1.926394e-01 2.249779e-01 2.455316e-01 2.707347e-01 2.889727e-01 3.002017e-01 2.985176e-01 2.784478e-01 2.593574e-01 2.391664e-01 2.035334e-01
<GCONST> 1.016392e+02
<MIXTURE> 2 4.896528e-01
<MEAN> 39
 -1.020193e+01 3.199551e+00 2.373005e+00 5.452412e+00 2.385052e+00 2.486034e+00 1.580645e+00 3.328131e+00 1.332066e+00 -7.191740e-01 -2.476467e+00 1.183569e+00 -1.171889e+00 1.273982e+00 -3.833585e-01 4.658445e-01 1.614458e-01 4.792918e-02 -5.415885e-01 -1.025224e-01 -1.463170e-02 -2.565329e-01 -5.430909e-01 -4.399176e-01 -3.804746e-01 -3.820809e-01 6.029564e-02 -8.747855e-02 5.094163e-03 -3.020878e-02 5.573182e-03 -8.083791e-02 -5.798243e-02 -1.463480e-02 1.865065e-03 -3.867018e-02 -9.503978e-03 -1.724554e-02 6.533443e-03
<VARIANCE> 39
 9.643607e+01 9.792954e+01 6.559746e+01 7.856171e+01 8.060581e+01 7.181393e+01 7.312693e+01 5.997856e+01 4.726611e+01 4.559750e+01 3.356037e+01 3.527980e+01 2.955104e+01 5.178400e+00 5.150322e+00 3.770604e+00 3.737880e+00 3.884596e+00 3.836053e+00 4.076818e+00 3.454412e+00 3.297246e+00 2.993804e+00 2.481349e+00 2.278534e+00 1.766467e+00 7.921278e-01 8.026540e-01 6.029379e-01 5.582282e-01 6.184182e-01 6.333398e-01 6.467891e-01 5.800772e-01 5.622950e-01 5.424428e-01 4.485731e-01 3.958752e-01 3.163141e-01
<GCONST> 1.329065e+02
<TRANSP> 5
 0.000000e+00 1.000000e+00 0.000000e+00 0.000000e+00 0.000000e+00
 0.000000e+00 9.535479e-01 4.645211e-02 0.000000e+00 0.000000e+00
 0.000000e+00 0.000000e+00 9.280416e-01 7.195845e-02 0.000000e+00
 0.000000e+00 0.000000e+00 0.000000e+00 9.013939e-01 9.860606e-02
 0.000000e+00 0.000000e+00 0.000000e+00 0.000000e+00 0.000000e+00
<ENDHMM>
~o
<STREAMINFO> 1 39
<VECSIZE> 39<NULLD><MFCC_D_A><DIAGC>
~h "sp"
<BEGINHMM>
<NUMSTATES> 5
<STATE> 2
<NUMMIXES> 2
<MIXTURE> 1 6.343535e-01
<MEAN> 39
 -9.558927e+00 -2.955737e+00 -2.506285e+00 4.132630e+00 -4.022208e-01 3.377083e+00 4.130420e+00 3.240064e-02 1.627516e+00 6.109094e-01 -1.318923e-01 4.498853e+00 -8.942712e-01 -6.928948e-02 3.829870e-02 -6.734582e-04 6.790166e-03 1.340300e-02 1.375837e-02 2.232590e-02 1.784532e-02 1.971374e-02 1.640245e-02 -5.062588e-03 -1.623879e-03 2.044486e-02 -2.696889e-03 4.180977e-03 1.697672e-02 -6.120666e-03 -4.228717e-03 6.320278e-04 -1.656370e-03 -2.444819e-03 6.286830e-03 -8.582719e-03 -1.216181e-02 -5.073556e-03 -4.548995e-03
<VARIANCE> 39
 4.186462e+01 7.402940e+01 3.099679e+01 3.340697e+01 4.645889e+01 4.345008e+01 2.968412e+01 3.228226e+01 3.052909e+01 2.290461e+01 1.840874e+01 1.938979e+01 2.506889e+01 1.440693e-01 3.649671e-01 4.392949e-01 5.817301e-01 7.149680e-01 8.990549e-01 1.019488e+00 1.134216e+00 1.207672e+00 1.148922e+00 1.105158e+00 1.056239e+00 9.328530e-01 2.465242e-02 5.432563e-02 8.521398e-02 1.176557e-01 1.502030e-01 1.916525e-01 2.139053e-01 2.402989e-01 2.571377e-01 2.458468e-01 2.369102e-01 2.262610e-01 2.008634e-01
<GCONST> 8.756295e+01
<MIXTURE> 2 3.656465e-01
<MEAN> 39
 -1.142323e+01 1.189757e+00 -1.150043e+00 2.073591e+00 1.984568e+00 1.458758e+00 4.666055e+00 1.247311e+00 2.303590e+00 6.847165e-01 -4.941858e-01 4.576219e+00 -1.241537e+00 -2.383977e-01 3.311241e-02 -1.279305e-02 2.437228e-02 2.793390e-02 1.407799e-01 9.608070e-02 8.677866e-02 1.114440e-01 1.082627e-01 3.608481e-02 3.226501e-02 6.382274e-02 1.940947e-02 3.630415e-03 8.181022e-03 2.361297e-02 2.753633e-02 -1.779759e-02 -3.005121e-02 -1.506858e-02 -2.992165e-02 -1.730591e-02 -1.236073e-02 -2.410082e-02 -2.872620e-03
<VARIANCE> 39
 4.480489e+01 6.668343e+01 4.001367e+01 5.130425e+01 5.788618e+01 6.144305e+01 5.531167e+01 4.810794e+01 4.128096e+01 3.064755e+01 2.747056e+01 2.852841e+01 3.160432e+01 1.514161e+00 2.485977e+00 2.332164e+00 2.129232e+00 2.084023e+00 2.247124e+00 2.255863e+00 2.281002e+00 2.357451e+00 2.077529e+00 1.851172e+00 1.746888e+00 1.433622e+00 2.191909e-01 3.888186e-01 4.058700e-01 3.762366e-01 3.878883e-01 4.263409e-01 4.298833e-01 4.452224e-01 4.540788e-01 4.104838e-01 3.682645e-01 3.519675e-01 2.906989e-01
<GCONST> 1.171093e+02
<STATE> 3
<NUMMIXES> 2
<MIXTURE> 1 6.952365e-01
<MEAN> 39
 -4.614826e-36 4.088473e-39 7.546833e-41 -2.003180e-38 -1.016468e-37 1.405099e-39 -7.973388e-43 7.664946e-39 -1.286953e-38 1.415171e-41 6.993320e-41 6.165994e-41 1.993908e-41 5.552645e-41 1.641061e-40 1.461414e-41 6.268008e-42 1.373272e-43 -2.054304e-42 1.018744e-41 -2.522337e-44 -2.642154e-39 1.558244e-42 1.841306e-42 3.833953e-42 -1.401298e-45 -1.041492e-02 1.165869e-03 -4.681267e-04 1.067939e-03 -3.674125e-04 -4.449329e-04 -4.800549e-04 -8.346118e-04 -4.919678e-04 -6.385805e-04 -4.974747e-04 3.757836e-04 -7.628010e-04
<VARIANCE> 39
 1.000000e-02 1.000000e-02 1.000000e-02 1.000000e-02 1.000000e-02 1.000000e-02 1.000000e-02 1.000000e-02 1.000000e-02 1.000000e-02 1.000000e-02 1.000000e-02 1.000000e-02 1.000000e-02 1.000000e-02 1.000000e-02 1.000000e-02 1.000000e-02 1.000000e-02 1.000000e-02 1.000000e-02 1.000000e-02 1.000000e-02 1.000000e-02 1.000000e-02 1.000000e-02 1.000000e-02 1.000000e-02 1.000000e-02 1.000000e-02 1.000000e-02 1.000000e-02 1.000000e-02 1.000000e-02 1.000000e-02 1.000000e-02 1.000000e-02 1.000000e-02 1.000000e-02
<GCONST> -1.079245e+02
<MIXTURE> 2 3.047635e-01
<MEAN> 39
 -3.073403e+01 1.425273e+01 -6.347635e+00 2.336389e+00 -7.483404e-01 1.066642e+01 -1.116233e+01 5.172227e+00 2.572465e-01 4.570226e-01 -1.853601e+00 4.806254e-01 3.082728e+00 -1.703352e-02 1.551152e-02 3.685159e-02 3.168634e-02 1.600667e-02 2.196852e-03 1.066339e-02 1.046215e-02 6.194680e-03 -2.002487e-03 -2.168891e-02 -2.960364e-02 -1.420306e-02 6.402527e-02 -2.888847e-02 1.946194e-02 2.577228e-02 -3.223030e-03 -2.393205e-02 1.966219e-02 7.751088e-04 -1.281637e-02 -3.375708e-03 5.767592e-03 -3.608371e-03 -2.195551e-02
<VARIANCE> 39
 7.722108e+01 3.633752e+01 1.621295e+01 8.805264e+00 1.116743e+01 2.184221e+01 5.614600e+01 9.989722e+00 7.891666e+00 5.587424e+00 5.826734e+00 7.160335e+00 7.011834e+00 2.358004e-01 2.073665e-01 2.922952e-01 2.998027e-01 3.982294e-01 4.320155e-01 5.057585e-01 5.343324e-01 5.329021e-01 5.498871e-01 5.658979e-01 5.152957e-01 4.229449e-01 9.825453e-02 6.422583e-02 7.037972e-02 7.732156e-02 9.463117e-02 1.049519e-01 1.273331e-01 1.155301e-01 1.163909e-01 1.174336e-01 1.189772e-01 1.076718e-01 9.144803e-02
<GCONST> 6.387524e+01
<STATE> 4
<NUMMIXES> 2
<MIXTURE> 1 5.103472e-01
<MEAN> 39
 -1.256804e+01 6.479373e+00 2.038786e+00 8.567524e+00 2.427899e+00 5.176943e+00 4.114543e-01 4.024741e+00 1.021508e+00 1.262775e+00 -1.256009e+00 9.477930e-01 3.137723e-02 -8.586787e-02 3.690922e-02 2.457621e-01 1.594240e-01 1.689443e-01 5.045222e-02 3.103973e-02 6.963865e-02 1.091670e-01 7.266748e-02 3.943156e-02 6.249414e-03 -1.648775e-02 1.051229e-02 -3.655927e-02 1.203187e-02 -3.837839e-02 1.769672e-03 -1.438639e-02 9.163395e-03 8.845959e-03 -7.347676e-03 -3.171584e-02 -5.209196e-03 1.373672e-02 -1.236865e-02
<VARIANCE> 39
 7.612381e+01 6.791934e+01 3.206618e+01 5.097443e+01 4.710615e+01 4.857334e+01 4.886001e+01 4.522910e+01 3.813118e+01 2.496777e+01 2.466132e+01 2.227277e+01 1.953887e+01 6.615518e-01 8.886616e-01 9.175950e-01 1.017072e+00 1.108420e+00 1.194592e+00 1.274129e+00 1.362965e+00 1.347271e+00 1.241394e+00 1.154082e+00 1.094268e+00 9.258087e-01 1.785030e-01 2.040161e-01 1.926394e-01 2.249779e-01 2.455316e-01 2.707347e-01 2.889727e-01 3.002017e-01 2.985176e-01 2.784478e-01 2.593574e-01 2.391664e-01 2.035334e-01
<GCONST> 1.016392e+02
<MIXTURE> 2 4.896528e-01
<MEAN> 39
 -1.020193e+01 3.199551e+00 2.373005e+00 5.452412e+00 2.385052e+00 2.486034e+00 1.580645e+00 3.328131e+00 1.332066e+00 -7.191740e-01 -2.476467e+00 1.183569e+00 -1.171889e+00 1.273982e+00 -3.833585e-01 4.658445e-01 1.614458e-01 4.792918e-02 -5.415885e-01 -1.025224e-01 -1.463170e-02 -2.565329e-01 -5.430909e-01 -4.399176e-01 -3.804746e-01 -3.820809e-01 6.029564e-02 -8.747855e-02 5.094163e-03 -3.020878e-02 5.573182e-03 -8.083791e-02 -5.798243e-02 -1.463480e-02 1.865065e-03 -3.867018e-02 -9.503978e-03 -1.724554e-02 6.533443e-03
<VARIANCE> 39
 9.643607e+01 9.792954e+01 6.559746e+01 7.856171e+01 8.060581e+01 7.181393e+01 7.312693e+01 5.997856e+01 4.726611e+01 4.559750e+01 3.356037e+01 3.527980e+01 2.955104e+01 5.178400e+00 5.150322e+00 3.770604e+00 3.737880e+00 3.884596e+00 3.836053e+00 4.076818e+00 3.454412e+00 3.297246e+00 2.993804e+00 2.481349e+00 2.278534e+00 1.766467e+00 7.921278e-01 8.026540e-01 6.029379e-01 5.582282e-01 6.184182e-01 6.333398e-01 6.467891e-01 5.800772e-01 5.622950e-01 5.424428e-01 4.485731e-01 3.958752e-01 3.163141e-01
<GCONST> 1.329065e+02
<TRANSP> 5
 0.000000e+00 1.000000e+00 0.000000e+00 0.000000e+00 0.000000e+00
 0.000000e+00 9.535479e-01 4.645211e-02 0.000000e+00 0.000000e+00
 0.000000e+00 0.000000e+00 9.280416e-01 7.195845e-02 0.000000e+00
 0.000000e+00 0.000000e+00 0.000000e+00 9.013939e-01 9.860606e-02
 0.000000e+00 0.000000e+00 0.000000e+00 0.000000e+00 0.000000e+00
<ENDHMM>
~o
<STREAMINFO> 1 39
<VECSIZE> 39<NULLD><MFCC_D_A><DIAGC>
~h "sx"
<BEGINHMM>
<NUMSTATES> 5
<STATE> 2
<NUMMIXES> 2
<MIXTURE> 1 6.026406e-01
<MEAN> 39
 -3.125976e+00 -8.986138e+00 3.216582e+00 4.380617e+00 7.351794e+00 -4.538621e+00 -2.842101e+00 -5.904213e+00 -1.080087e+00 -5.930265e+00 -2.835168e+00 -5.379514e-01 -5.123676e+00 -1.010809e+00 -1.571711e+00 7.061348e-01 1.314274e-01 9.219652e-02 7.682375e-01 3.717589e-01 -1.089780e-01 5.202804e-01 2.230905e-01 4.469871e-01 2.219273e-01 1.875865e-01 -2.032651e-01 -2.228954e-01 6.291089e-02 -1.892380e-02 -1.201991e-02 -3.031546e-03 7.863782e-02 9.149092e-02 6.327660e-02 1.219827e-02 8.498439e-02 2.016330e-02 2.597674e-02
<VARIANCE> 39
 8.039326e+01 1.135285e+02 9.569474e+01 1.036986e+02 1.265530e+02 1.207718e+02 6.456944e+01 6.147753e+01 5.851213e+01 5.224930e+01 5.393029e+01 5.125582e+01 4.799524e+01 2.048551e+00 4.624458e+00 4.807626e+00 2.986049e+00 2.733943e+00 3.710960e+00 2.843323e+00 2.964134e+00 2.540730e+00 2.402259e+00 2.339106e+00 1.884806e+00 1.630832e+00 2.270243e-01 5.955952e-01 7.245151e-01 4.653111e-01 4.673306e-01 5.479049e-01 4.326811e-01 4.793716e-01 4.207304e-01 4.125201e-01 3.787285e-01 3.244881e-01 2.815320e-01
<GCONST> 1.297447e+02
<MIXTURE> 2 3.973595e-01
<MEAN> 39
 -1.638367e+01 -1.891448e+01 1.090450e+01 4.137511e+00 1.444732e+01 -2.779029e+00 3.048791e+00 -3.600857e+00 1.557016e+00 -4.534355e+00 1.375898e+00 -3.064731e-01 -1.263343e+00 -2.101124e+00 -1.776109e+00 -1.769247e-01 -4.588710e-01 -5.427610e-01 -2.550161e-01 4.246230e-01 3.568707e-01 6.200765e-01 1.362241e-01 5.056978e-01 1.643773e-01 3.448740e-01 2.791876e-01 2.997611e-01 -2.093497e-01 -1.345643e-01 -2.026617e-01 -2.418055e-01 -2.353781e-01 -1.357785e-01 -1.718232e-01 -1.085306e-01 -1.743017e-01 -6.080019e-02 -7.740121e-02
<VARIANCE> 39
 2.654637e+01 3.969106e+01 5.279945e+01 3.959034e+01 3.843307e+01 4.214229e+01 4.193034e+01 4.020326e+01 3.667797e+01 2.776302e+01 3.037377e+01 3.258355e+01 3.193969e+01 7.777140e-01 7.727472e-01 1.417752e+00 1.243155e+00 1.438977e+00 1.689618e+00 1.897599e+00 1.735796e+00 1.657013e+00 1.547472e+00 1.584679e+00 1.324505e+00 1.119291e+00 8.718109e-02 1.488403e-01 2.298867e-01 2.103466e-01 2.347445e-01 2.866611e-01 3.041661e-01 3.080728e-01 3.030243e-01 2.916277e-01 2.768552e-01 2.468985e-01 2.125780e-01
<GCONST> 1.032253e+02
<STATE> 3
<NUMMIXES> 2
<MIXTURE> 1 7.209242e-01
<MEAN> 39
 -2.460413e+01 -2.528620e+01 9.476417e+00 1.453254e+00 8.121964e+00 -6.020190e+00 2.558741e+00 -3.683615e+00 2.657288e+00 -4.109238e+00 2.908855e+00 4.739001e-02 -7.405792e-01 -1.435858e-01 -1.183302e-01 4.800704e-04 -1.259827e-01 -1.603135e-01 -9.897383e-02 -2.412239e-02 1.340315e-02 5.059737e-02 6.779682e-02 8.571308e-02 1.051517e-01 4.385307e-02 1.701642e-01 1.138292e-01 -9.650642e-03 3.541986e-02 8.229297e-02 5.383232e-02 -1.378253e-02 7.141295e-03 -2.082125e-02 2.484192e-02 -1.483140e-02 1.512020e-02 -1.248819e-02
<VARIANCE> 39
 1.287360e+01 1.845261e+01 3.968744e+01 2.419895e+01 2.596645e+01 2.354561e+01 2.662227e+01 3.145501e+01 2.725155e+01 2.397213e+01 2.824627e+01 2.035361e+01 2.221501e+01 5.440961e-01 4.177724e-01 5.778142e-01 6.248232e-01 8.203446e-01 8.965421e-01 1.009574e+00 1.112690e+00 1.137437e+00 1.150113e+00 1.086122e+00 9.778181e-01 8.340899e-01 5.372016e-02 7.531175e-02 9.407701e-02 1.193896e-01 1.523911e-01 1.770679e-01 2.031044e-01 2.243394e-01 2.324814e-01 2.318604e-01 2.228285e-01 1.993412e-01 1.736224e-01
<GCONST> 8.606846e+01
<MIXTURE> 2 2.790758e-01
<MEAN> 39
 -4.837193e+00 -3.847286e+01 1.470482e+01 1.443555e+01 -1.571408e+01 1.403273e+01 -5.518808e+00 -9.874098e+00 1.069261e+01 -8.148740e+00 -1.200430e-01 8.057387e+00 -1.070466e+01 -3.258155e-01 -1.417676e-01 -1.535815e-02 -7.669806e-02 -1.028806e-01 -1.835771e-02 8.594738e-02 1.081139e-01 1.265249e-01 1.376052e-01 1.289074e-01 9.348857e-02 3.892856e-02 1.529480e-01 2.573728e-01 -5.864635e-02 1.916353e-02 9.078229e-02 -7.354801e-02 -2.278293e-02 -2.858238e-02 -9.735613e-02 -3.070740e-02 -9.371482e-02 -8.631855e-02 -6.144637e-03
<VARIANCE> 39
 2.484052e+01 3.912586e+01 2.874293e+01 2.532626e+01 3.251396e+01 2.964253e+01 2.371614e+01 2.893026e+01 2.597410e+01 2.588097e+01 3.649353e+01 2.534872e+01 2.135032e+01 1.387901e+00 2.838852e+00 1.081413e+00 1.042201e+00 1.740264e+00 1.502995e+00 1.291130e+00 1.330638e+00 1.451436e+00 1.438432e+00 1.287830e+00 1.230089e+00 1.108599e+00 1.375906e-01 2.711439e-01 1.778708e-01 1.826838e-01 2.699739e-01 3.041134e-01 2.577468e-01 2.667704e-01 2.929557e-01 2.997078e-01 2.600051e-01 2.408353e-01 2.262730e-01
<GCONST> 1.006613e+02
<STATE> 4
<NUMMIXES> 2
<MIXTURE> 1 4.050565e-01
<MEAN> 39
 -2.729354e+00 -1.138645e+01 8.345839e+00 7.178344e+00 4.659736e+00 -1.348724e-01 -4.082793e+00 -6.655519e+00 -1.265413e+00 -7.179727e+00 -3.771127e+00 -1.543957e-01 -5.798695e+00 2.159393e+00 1.813380e+00 -6.802905e-01 -1.671893e-01 -6.186367e-02 -1.050943e+00 -1.113832e+00 -6.863366e-01 -9.748743e-01 -6.933957e-01 -8.450240e-01 -5.469793e-01 -3.257879e-01 -2.947717e-01 -4.092390e-01 -2.671548e-01 -2.694501e-01 -1.585929e-01 -2.335446e-01 6.463813e-02 1.161037e-01 1.330078e-01 1.168580e-01 2.503518e-01 1.525569e-01 1.792273e-01
<VARIANCE> 39
 8.931188e+01 1.061066e+02 5.320671e+01 7.353147e+01 1.452876e+02 1.175118e+02 5.939880e+01 6.247639e+01 7.072574e+01 4.001243e+01 4.075026e+01 4.922829e+01 5.096008e+01 4.210888e+00 5.106337e+00 3.312439e+00 3.039231e+00 2.681071e+00 4.600256e+00 3.482350e+00 3.163612e+00 3.018828e+00 2.915726e+00 3.103831e+00 2.365403e+00 2.029863e+00 4.242928e-01 5.312392e-01 5.744874e-01 4.175163e-01 4.293656e-01 6.606357e-01 5.471740e-01 4.401989e-01 4.327418e-01 4.188696e-01 3.975078e-01 3.260863e-01 2.805201e-01
<GCONST> 1.310956e+02
<MIXTURE> 2 5.949435e-01
<MEAN> 39
 -1.904400e+01 -1.871194e+01 8.297841e+00 1.864863e+00 9.852448e+00 -2.494736e+00 2.343299e+00 -9.662381e-01 2.870475e+00 -2.481032e+00 2.143700e+00 2.540869e+00 -1.282053e-01 1.160304e+00 1.437774e+00 1.377424e-01 5.259696e-01 2.356328e-01 5.963181e-01 -1.668237e-01 1.082841e-01 -2.890222e-01 8.282092e-02 -3.443567e-01 -2.800759e-02 -3.376409e-01 2.911697e-01 3.548450e-01 8.033924e-02 1.463012e-01 -8.000730e-03 -1.971931e-02 -1.327112e-01 -1.261746e-01 -1.625957e-01 -1.700123e-01 -2.156283e-01 -1.436003e-01 -1.440143e-01
<VARIANCE> 39
 2.620702e+01 7.650619e+01 4.674475e+01 4.579360e+01 4.720024e+01 5.475587e+01 3.717693e+01 4.781033e+01 3.441426e+01 2.917545e+01 3.240025e+01 2.520681e+01 2.495524e+01 2.056094e+00 1.991816e+00 1.749418e+00 1.784558e+00 2.012544e+00 1.892839e+00 1.924575e+00 1.940438e+00 1.820175e+00 1.804205e+00 1.901946e+00 1.512558e+00 1.376256e+00 2.984141e-01 3.627320e-01 2.865190e-01 3.300943e-01 3.456369e-01 4.246393e-01 3.975417e-01 3.749885e-01 3.607561e-01 3.723237e-01 3.722746e-01 2.940901e-01 2.527158e-01
<GCONST> 1.128934e+02
<TRANSP> 5
 0.000000e+00 1.000000e+00 0.000000e+00 0.000000e+00 0.000000e+00
 0.000000e+00 8.881226e-01 1.118774e-01 0.000000e+00 0.000000e+00
 0.000000e+00 0.000000e+00 9.290434e-01 7.095658e-02 0.000000e+00
 0.000000e+00 0.000000e+00 0.000000e+00 8.666024e-01 1.333976e-01
 0.000000e+00 0.000000e+00 0.000000e+00 0.000000e+00 0.000000e+00
<ENDHMM>
~o
<STREAMINFO> 1 39
<VECSIZE> 39<NULLD><MFCC_D_A><DIAGC>
~h "t"
<BEGINHMM>
<NUMSTATES> 5
<STATE> 2
<NUMMIXES> 2
<MIXTURE> 1 6.011360e-01
<MEAN> 39
 -9.023080e+00 6.376580e+00 2.545300e+00 6.927516e+00 2.309819e+00 1.990907e+00 -7.346200e-01 -2.087359e+00 4.521183e-01 -6.900493e-01 -2.553612e+00 2.492375e+00 -9.589221e-01 -4.340139e-01 5.921883e-02 -2.134266e-02 9.469260e-03 4.210554e-02 1.125339e-01 2.295839e-01 1.851901e-01 1.910645e-01 2.038480e-01 1.058308e-01 7.876422e-02 9.018099e-02 1.795279e-02 -1.391403e-01 5.513524e-02 -3.212026e-02 -7.454183e-03 1.436241e-02 2.230481e-02 -1.234881e-02 -2.431821e-02 -3.266468e-02 -1.550526e-03 -8.433594e-03 -1.792625e-02
<VARIANCE> 39
 6.646494e+01 6.050042e+01 2.722521e+01 4.357283e+01 6.043819e+01 5.421940e+01 5.771527e+01 6.629278e+01 4.034677e+01 3.391582e+01 3.201540e+01 2.706104e+01 3.012911e+01 2.175210e-01 4.032523e-01 5.124501e-01 6.291151e-01 7.895819e-01 9.272475e-01 1.029829e+00 1.137918e+00 1.157024e+00 1.083142e+00 1.043703e+00 9.581802e-01 8.273647e-01 3.249355e-02 1.233865e-01 1.041628e-01 1.322999e-01 1.651255e-01 1.982066e-01 2.158422e-01 2.275274e-01 2.341747e-01 2.281086e-01 2.161869e-01 2.006370e-01 1.759498e-01
<GCONST> 9.306617e+01
<MIXTURE> 2 3.988640e-01
<MEAN> 39
 -4.806767e+00 3.862062e+00 5.530273e+00 3.504828e+00 3.963041e+00 -6.429086e-01 -1.742410e+00 -4.047292e+00 -3.120932e+00 -4.853781e+00 -3.183183e+00 1.497462e+00 -3.171545e+00 -4.836124e-01 1.344809e-01 -1.107599e-01 2.162226e-01 -2.197162e-01 2.474640e-01 1.826136e-01 6.089529e-02 2.737812e-01 2.615402e-01 2.302662e-02 1.110482e-01 7.461528e-02 -1.441464e-02 -2.553504e-01 -1.099582e-02 -9.833361e-02 8.782305e-03 -7.181667e-02 5.109080e-02 5.401734e-03 6.192544e-02 1.615770e-02 3.545383e-02 -1.036690e-02 -6.869709e-03
<VARIANCE> 39
 7.651074e+01 8.498687e+01 4.751264e+01 8.584447e+01 9.621581e+01 8.913034e+01 6.807336e+01 7.600779e+01 6.170733e+01 5.214231e+01 4.505711e+01 4.169276e+01 4.128152e+01 1.435370e+00 4.047790e+00 2.643682e+00 2.558244e+00 2.651908e+00 3.116705e+00 2.983883e+00 2.643176e+00 2.624071e+00 2.345703e+00 1.983368e+00 1.923169e+00 1.576087e+00 2.289405e-01 9.050823e-01 4.887103e-01 5.047470e-01 5.218533e-01 5.821515e-01 5.561017e-01 5.059382e-01 5.021976e-01 4.536400e-01 3.959949e-01 3.792557e-01 3.245767e-01
<GCONST> 1.272396e+02
<STATE> 3
<NUMMIXES> 2
<MIXTURE> 1 1.830508e-01
<MEAN> 39
 2.909859e+00 -1.213833e+01 6.237896e+00 1.032554e+01 -1.017758e+01 1.065839e+01 -2.218004e+00 -8.811143e+00 5.701151e+00 -4.849821e+00 -4.433279e+00 4.445604e+00 -4.963247e+00 1.370789e+00 -4.380431e+00 5.437679e-01 -1.896142e-01 -2.630566e+00 1.611304e+00 -3.755902e-01 -9.543387e-01 1.344248e+00 -1.444335e+00 -5.490180e-01 5.370196e-01 -1.174889e+00 3.078974e-01 -5.091512e-02 1.985593e-01 2.934990e-02 -1.582925e-01 9.959709e-02 -3.326977e-01 -3.765762e-01 4.603594e-02 -2.174530e-01 -9.359659e-02 2.955063e-02 -1.920691e-01
<VARIANCE> 39
 5.048954e+01 1.193444e+02 3.403521e+01 3.236124e+01 5.326677e+01 3.642970e+01 3.990495e+01 3.807636e+01 3.627165e+01 4.011042e+01 2.712779e+01 2.117525e+01 2.652474e+01 3.573415e+00 9.320762e+00 2.388161e+00 2.288035e+00 4.601241e+00 3.551740e+00 3.547098e+00 3.410960e+00 3.608394e+00 3.239760e+00 2.534855e+00 2.089575e+00 2.070275e+00 3.754046e-01 2.723846e+00 4.359907e-01 3.928610e-01 1.185584e+00 7.284738e-01 5.226824e-01 5.115421e-01 7.358637e-01 5.578560e-01 3.683839e-01 3.523090e-01 3.824133e-01
<GCONST> 1.274394e+02
<MIXTURE> 2 8.169492e-01
<MEAN> 39
 -1.339344e+01 2.029771e+00 3.365797e+00 4.722795e+00 4.029716e+00 1.402229e+00 2.425338e+00 8.193254e-01 2.641429e-01 -1.219433e-01 -1.455538e+00 1.854642e+00 -4.624873e-01 -3.564657e-02 -2.276807e+00 -2.864322e-02 -1.106017e+00 1.864910e-01 -6.856910e-01 4.425201e-01 -3.094225e-01 2.840065e-03 -4.306206e-02 3.830250e-01 -3.531660e-02 3.861915e-02 2.925344e-01 -1.803053e-01 7.768507e-02 -2.318364e-01 6.486418e-02 -1.655955e-01 -1.897242e-01 -2.746943e-01 -1.264835e-01 -2.113255e-01 -4.414266e-02 -7.136169e-02 -5.188491e-03
<VARIANCE> 39
 4.129319e+01 7.586413e+01 2.968495e+01 5.192245e+01 4.844137e+01 4.539367e+01 4.823804e+01 4.435514e+01 3.425816e+01 2.730913e+01 2.745660e+01 2.105745e+01 2.165705e+01 2.265978e+00 7.225749e+00 2.731786e+00 4.412077e+00 3.591632e+00 3.766009e+00 3.817589e+00 3.611220e+00 2.894555e+00 2.526936e+00 2.371443e+00 2.059577e+00 1.922773e+00 3.065082e-01 1.510910e+00 4.897546e-01 7.182574e-01 6.202882e-01 6.295573e-01 6.195772e-01 5.624223e-01 5.029829e-01 4.496239e-01 4.229952e-01 3.484570e-01 3.225440e-01
<GCONST> 1.251088e+02
<STATE> 4
<NUMMIXES> 2
<MIXTURE> 1 7.778835e-01
<MEAN> 39
 -7.500731e+00 -4.333935e+00 6.051745e+00 -1.246416e+00 7.932649e+00 -4.074662e+00 1.627865e-01 -4.334964e+00 -2.720942e+00 -4.625560e+00 -2.621795e+00 2.231682e-01 -6.592750e-01 1.306311e+00 -9.409679e-02 3.736236e-01 -3.660480e-01 4.771502e-01 -6.668215e-01 -9.141525e-01 -5.563165e-01 -5.394968e-01 -8.318036e-01 -5.029364e-01 -1.832750e-01 -7.262625e-02 7.330663e-02 2.450244e-01 -8.346855e-02 2.049865e-01 -6.904857e-02 1.344069e-03 -1.319890e-01 1.474582e-01 1.905494e-02 -1.367570e-02 -7.189289e-02 4.632235e-02 -6.965480e-02
<VARIANCE> 39
 5.063903e+01 4.332609e+01 3.582511e+01 5.951371e+01 5.733441e+01 5.202664e+01 5.795432e+01 5.593716e+01 4.754960e+01 4.743627e+01 4.561354e+01 2.991533e+01 2.799870e+01 2.590782e+00 4.680002e+00 3.342098e+00 4.044041e+00 3.444103e+00 4.107876e+00 4.028163e+00 3.843613e+00 3.625384e+00 3.355407e+00 3.168589e+00 2.330652e+00 2.223524e+00 4.420630e-01 1.004665e+00 5.870190e-01 6.989157e-01 5.292786e-01 7.190271e-01 7.441688e-01 6.433171e-01 6.404814e-01 6.217080e-01 5.805542e-01 3.830536e-01 3.958920e-01
<GCONST> 1.304214e+02
<MIXTURE> 2 2.221166e-01
<MEAN> 39
 1.073572e+01 -2.016690e+01 9.403285e+00 1.037797e+01 -1.578949e+01 1.270034e+01 -8.845192e+00 -1.587935e+01 5.931071e+00 -1.140591e+01 -6.615389e+00 4.794315e+00 -9.582061e+00 9.189917e-01 1.437787e-01 1.074255e-01 1.076771e-01 1.202612e-01 -7.776324e-01 -1.183800e+00 -7.731113e-01 -7.412561e-01 -6.615146e-01 -1.696527e-01 -2.999203e-01 -3.015890e-01 -1.562350e-01 4.793846e-01 -2.153771e-01 -8.196605e-03 3.477675e-01 -4.298274e-01 5.200313e-02 2.743143e-01 -2.521131e-01 1.616732e-01 9.998576e-02 -1.342958e-01 1.594826e-01
<VARIANCE> 39
 2.375221e+01 4.688407e+01 2.646408e+01 3.988439e+01 4.142024e+01 4.807000e+01 5.579708e+01 4.361565e+01 5.678557e+01 3.602719e+01 3.938656e+01 2.811495e+01 2.502621e+01 1.566542e+00 5.915779e+00 2.554726e+00 2.259085e+00 4.324976e+00 4.474040e+00 2.960618e+00 2.988649e+00 4.527248e+00 2.704126e+00 2.409582e+00 2.175559e+00 1.966587e+00 2.443267e-01 1.607757e+00 3.750281e-01 3.199435e-01 9.775849e-01 8.126643e-01 5.003664e-01 4.434461e-01 1.004093e+00 4.673471e-01 3.982054e-01 3.982580e-01 3.401159e-01
<GCONST> 1.243943e+02
<TRANSP> 5
 0.000000e+00 1.000000e+00 0.000000e+00 0.000000e+00 0.000000e+00
 0.000000e+00 8.503493e-01 1.496507e-01 0.000000e+00 0.000000e+00
 0.000000e+00 0.000000e+00 6.862233e-01 3.137766e-01 0.000000e+00
 0.000000e+00 0.000000e+00 0.000000e+00 7.341875e-01 2.658125e-01
 0.000000e+00 0.000000e+00 0.000000e+00 0.000000e+00 0.000000e+00
<ENDHMM>
~o
<STREAMINFO> 1 39
<VECSIZE> 39<NULLD><MFCC_D_A><DIAGC>
~h "th"
<BEGINHMM>
<NUMSTATES> 5
<STATE> 2
<NUMMIXES> 2
<MIXTURE> 1 0.000000e+00
<MEAN> 39
 -3.886223e-05 -1.931190e-05 5.215406e-07 8.761883e-06 -2.145767e-06 5.111098e-06 8.314848e-06 2.488494e-06 -7.539988e-06 1.132488e-06 -3.003515e-07 5.424023e-06 -4.022149e-08 1.873821e-06 -4.437752e-07 5.909242e-07 1.825392e-07 -4.018657e-07 -3.222376e-07 3.189780e-07 -5.820766e-11 -6.482005e-07 -5.755574e-07 -2.846355e-08 6.949995e-08 9.033829e-08 -3.673423e-02 3.657988e-03 -6.203171e-03 1.457151e-03 -7.559096e-04 -1.241736e-03 -9.468020e-04 -1.675523e-03 -7.280131e-04 -1.245679e-03 7.821736e-05 -6.539826e-04 -5.843351e-06
<VARIANCE> 39
 6.791949e-05 0.000000e+00 1.187436e-07 1.545995e-06 3.539026e-07 4.889444e-07 7.301569e-06 3.557652e-07 0.000000e+00 0.000000e+00 0.000000e+00 3.034249e-06 1.224976e-10 0.000000e+00 0.000000e+00 8.043571e-09 0.000000e+00 0.000000e+00 0.000000e+00 2.622983e-09 1.563194e-12 0.000000e+00 0.000000e+00 0.000000e+00 0.000000e+00 0.000000e+00 2.939744e-02 1.510691e-03 1.924523e-03 1.205781e-03 1.539571e-03 1.394400e-03 1.598690e-03 1.480532e-03 1.398113e-03 1.215753e-03 1.174650e-03 9.854551e-04 6.629324e-04
<GCONST> -1.400000e+11
<MIXTURE> 2 1.000000e+00
<MEAN> 39
 -8.883134e+00 3.454239e+00 3.848743e+00 -3.922774e-01 6.383413e+00 -1.276576e+00 1.996639e+00 -7.581881e-01 1.281566e+00 -3.707721e-01 -5.378004e-01 1.918962e+00 -1.272477e+00 -2.396110e-01 3.038653e-01 -1.632485e-01 2.443635e-01 -1.511762e-01 1.986436e-01 1.077763e-01 8.388931e-02 1.483769e-01 1.573833e-01 -7.735694e-02 6.959634e-02 -1.340295e-02 3.132654e-03 -1.445681e-01 1.844673e-02 -6.647728e-02 1.193703e-02 -2.516163e-02 2.111970e-02 -1.740364e-02 -9.627840e-03 -1.507260e-02 1.954514e-02 -1.788111e-02 1.503755e-02
<VARIANCE> 39
 1.105073e+02 5.012700e+01 4.919869e+01 6.241787e+01 5.963333e+01 4.738413e+01 3.522862e+01 3.605519e+01 2.743182e+01 2.457384e+01 2.433253e+01 2.206865e+01 2.306897e+01 9.245167e-01 1.051653e+00 1.201107e+00 1.149064e+00 1.243026e+00 1.421083e+00 1.345946e+00 1.409965e+00 1.233122e+00 1.186044e+00 1.100725e+00 9.652364e-01 8.319840e-01 1.250974e-01 2.231695e-01 2.082127e-01 2.213056e-01 2.213584e-01 2.703307e-01 2.595403e-01 2.632355e-01 2.451051e-01 2.396009e-01 2.233208e-01 1.968053e-01 1.694989e-01
<GCONST> 1.012284e+02
<STATE> 3
<NUMMIXES> 2
<MIXTURE> 1 0.000000e+00
<MEAN> 39
 0.000000e+00 0.000000e+00 0.000000e+00 0.000000e+00 0.000000e+00 0.000000e+00 0.000000e+00 0.000000e+00 0.000000e+00 0.000000e+00 0.000000e+00 0.000000e+00 0.000000e+00 7.602786e-28 -6.781300e-28 2.817260e-28 -2.260459e-29 5.468585e-29 -1.506301e-28 1.148696e-28 -2.120465e-29 7.979356e-30 -5.320312e-29 5.792728e-29 -1.833769e-29 3.866608e-31 -4.988265e-02 4.965165e-03 -7.294576e-03 2.466788e-03 2.788171e-04 -1.618284e-03 -9.823618e-04 -1.922494e-03 -5.035132e-04 -1.812430e-03 -3.375670e-05 -6.368760e-04 -8.684045e-05
<VARIANCE> 39
 0.000000e+00 0.000000e+00 0.000000e+00 0.000000e+00 0.000000e+00 0.000000e+00 0.000000e+00 0.000000e+00 0.000000e+00 0.000000e+00 0.000000e+00 0.000000e+00 0.000000e+00 8.953985e-28 7.123556e-28 1.229489e-28 7.915240e-31 4.632556e-30 3.514752e-29 2.044002e-29 6.965190e-31 9.862945e-32 4.384753e-30 5.198011e-30 5.209071e-31 2.315961e-34 4.486060e-02 3.359458e-03 3.289693e-03 2.491937e-03 2.905590e-03 2.327311e-03 2.783720e-03 2.963404e-03 2.648251e-03 2.054753e-03 2.260878e-03 1.761504e-03 1.385205e-03
<GCONST> -1.300000e+11
<MIXTURE> 2 1.000000e+00
<MEAN> 39
 -1.135558e+01 -5.214590e-01 4.599605e+00 -3.269193e+00 7.928373e+00 -2.893137e+00 3.032588e+00 -3.260062e+00 1.599699e+00 -8.024036e-01 -4.204842e-01 1.439376e+00 -4.574257e-01 -4.455670e-02 -1.443885e+00 8.850405e-02 -9.969705e-01 -7.828986e-02 -4.582976e-01 3.618556e-02 -4.628034e-01 2.567220e-01 1.068998e-01 4.427659e-01 -7.069492e-02 4.350989e-01 1.182365e-01 -2.076286e-02 8.907806e-02 1.231575e-02 7.187819e-02 -2.299219e-02 -2.958477e-02 -1.476975e-02 3.557617e-02 6.259749e-02 1.020812e-01 5.480644e-02 2.037810e-02
<VARIANCE> 39
 4.615061e+01 7.139632e+01 3.722854e+01 6.697029e+01 4.859967e+01 4.870050e+01 4.484853e+01 4.535261e+01 3.603660e+01 2.979794e+01 2.986084e+01 2.327137e+01 2.527530e+01 2.473295e+00 6.743619e+00 3.421154e+00 5.578681e+00 3.622585e+00 3.986825e+00 3.750191e+00 3.675951e+00 3.253034e+00 3.029417e+00 2.730845e+00 2.242320e+00 2.074912e+00 3.513173e-01 1.297315e+00 5.962959e-01 1.020050e+00 6.329287e-01 7.160711e-01 6.663408e-01 7.001668e-01 5.874610e-01 5.966769e-01 4.852791e-01 4.401094e-01 3.824782e-01
<GCONST> 1.292353e+02
<STATE> 4
<NUMMIXES> 2
<MIXTURE> 1 2.126612e-01
<MEAN> 39
 1.788804e+00 -1.154452e+01 7.740295e+00 3.456498e+00 -2.987879e+00 4.716268e+00 -2.037872e+00 -5.170520e+00 3.457059e+00 -7.296158e+00 -1.908348e+00 2.319645e+00 -6.884529e+00 1.232666e+00 -4.926173e-02 -1.350948e-01 2.567445e-02 -4.339466e-01 -6.341559e-01 -5.959034e-01 -3.931781e-01 -6.385152e-01 -7.726169e-01 -3.391120e-01 -3.012635e-01 -5.591474e-01 -8.781649e-02 1.889985e-02 -1.253106e-01 -1.392815e-01 -2.237700e-02 -1.464562e-01 -7.784254e-03 5.650876e-02 2.799470e-02 1.042607e-01 8.978198e-02 4.384300e-02 9.674523e-02
<VARIANCE> 39
 7.765327e+01 1.241225e+02 5.517847e+01 7.737450e+01 2.385033e+02 1.764579e+02 6.955128e+01 4.816558e+01 9.445119e+01 4.397860e+01 3.669238e+01 5.585405e+01 3.672391e+01 3.064017e+00 6.267543e+00 2.787236e+00 2.573619e+00 3.887242e+00 4.769743e+00 3.023556e+00 3.148832e+00 4.232430e+00 3.250400e+00 2.502225e+00 2.267352e+00 2.419011e+00 4.143257e-01 8.889287e-01 5.107711e-01 3.839552e-01 6.439518e-01 7.428746e-01 5.024635e-01 5.327050e-01 6.329762e-01 4.963620e-01 4.133776e-01 3.559448e-01 3.334233e-01
<GCONST> 1.340185e+02
<MIXTURE> 2 7.873389e-01
<MEAN> 39
 -8.123275e+00 -1.002115e+01 5.177886e+00 -7.264246e+00 9.293315e+00 -6.888678e+00 5.264353e+00 -2.298393e+00 3.738380e+00 2.247267e+00 4.412934e+00 2.712308e+00 7.380678e-01 5.375106e-01 -2.251420e-02 6.613083e-02 4.010496e-01 1.803430e-01 -6.541776e-02 1.660557e-01 6.380618e-01 -1.864049e-01 -4.737831e-02 -1.030426e-01 -2.297827e-02 -3.822266e-01 7.530116e-02 1.657786e-01 -4.883206e-02 9.564801e-02 -2.598165e-02 -2.185089e-02 -5.645766e-02 5.397265e-02 -1.314944e-01 -1.999388e-01 -1.889809e-01 -1.003504e-01 -1.243738e-01
<VARIANCE> 39
 3.394203e+01 4.061105e+01 4.926118e+01 4.741045e+01 4.894434e+01 5.112601e+01 7.573982e+01 5.668742e+01 3.758758e+01 3.381191e+01 3.646639e+01 2.401509e+01 2.765076e+01 9.312404e-01 2.041123e+00 1.778928e+00 1.706407e+00 2.037293e+00 2.235502e+00 2.343958e+00 2.428462e+00 2.246712e+00 2.735394e+00 2.195604e+00 1.799299e+00 1.741692e+00 1.387064e-01 3.032748e-01 3.053397e-01 3.315684e-01 3.638377e-01 4.238250e-01 4.136123e-01 4.814570e-01 4.204688e-01 4.464442e-01 3.679612e-01 3.307581e-01 3.402614e-01
<GCONST> 1.150472e+02
<TRANSP> 5
 0.000000e+00 1.000000e+00 0.000000e+00 0.000000e+00 0.000000e+00
 0.000000e+00 8.791104e-01 1.208896e-01 0.000000e+00 0.000000e+00
 0.000000e+00 0.000000e+00 8.640810e-01 1.359190e-01 0.000000e+00
 0.000000e+00 0.000000e+00 0.000000e+00 8.819060e-01 1.180939e-01
 0.000000e+00 0.000000e+00 0.000000e+00 0.000000e+00 0.000000e+00
<ENDHMM>
~o
<STREAMINFO> 1 39
<VECSIZE> 39<NULLD><MFCC_D_A><DIAGC>
~h "tx"
<BEGINHMM>
<NUMSTATES> 5
<STATE> 2
<NUMMIXES> 2
<MIXTURE> 1 4.020896e-01
<MEAN> 39
 1.216201e+00 3.786387e+00 -6.744195e-01 4.213472e+00 8.934504e+00 2.905748e+00 -3.845667e+00 -3.062950e+00 -3.918201e+00 -6.023670e+00 -4.326549e+00 1.352251e+00 -3.720844e+00 -4.070356e-01 2.715078e-01 3.220673e-01 8.742781e-01 -3.728996e-01 3.710799e-01 4.437529e-01 6.727420e-02 2.617629e-01 4.658980e-01 1.350174e-01 7.063705e-02 9.813496e-02 -5.539553e-02 -4.514544e-01 1.161189e-01 -1.042154e-01 -6.067920e-02 -3.560261e-01 -9.155462e-02 -1.017229e-01 2.141050e-02 -4.143573e-02 3.602418e-02 -5.885625e-02 -3.295769e-02
<VARIANCE> 39
 8.994498e+01 9.805498e+01 7.368647e+01 9.172161e+01 9.978580e+01 1.089134e+02 6.836208e+01 9.496303e+01 5.990372e+01 5.687189e+01 4.860392e+01 4.374221e+01 4.402656e+01 1.185642e+00 4.322592e+00 2.459748e+00 3.241842e+00 3.124983e+00 4.003684e+00 3.540680e+00 3.256802e+00 2.704718e+00 2.779326e+00 2.304722e+00 2.368270e+00 1.704477e+00 1.924967e-01 9.752334e-01 4.178096e-01 5.769240e-01 6.557050e-01 7.461569e-01 6.762798e-01 6.224793e-01 5.018139e-01 5.189041e-01 4.413269e-01 4.609962e-01 3.575827e-01
<GCONST> 1.315205e+02
<MIXTURE> 2 5.979105e-01
<MEAN> 39
 -6.069382e+00 4.593661e+00 1.436109e-01 7.953266e+00 2.527701e+00 3.273960e+00 -3.515506e+00 -3.212495e+00 4.911171e-01 -2.325807e-01 -2.583938e+00 1.930919e+00 -1.244370e+00 -5.338563e-01 1.362334e-01 5.355180e-02 -5.300086e-02 -1.513133e-01 3.929361e-02 2.587625e-01 1.863720e-01 1.501254e-01 2.193524e-01 1.234335e-01 1.234601e-01 1.292976e-01 3.801761e-02 -1.237590e-01 7.676462e-03 -1.763000e-03 3.314633e-02 -1.548499e-02 3.376513e-02 9.868394e-03 -1.972405e-02 -4.111540e-02 -1.601443e-02 6.858235e-03 -1.564933e-02
<VARIANCE> 39
 8.436040e+01 9.998518e+01 5.995015e+01 5.713754e+01 7.079900e+01 7.279249e+01 6.324049e+01 5.704243e+01 5.196552e+01 3.595816e+01 3.581749e+01 2.758681e+01 3.280555e+01 2.907514e-01 5.396256e-01 6.112195e-01 7.388396e-01 9.704657e-01 1.076225e+00 1.139942e+00 1.203275e+00 1.164988e+00 1.118427e+00 1.044182e+00 9.896536e-01 8.495522e-01 3.564776e-02 1.309190e-01 1.080300e-01 1.383848e-01 1.815814e-01 2.067139e-01 2.246261e-01 2.331002e-01 2.348523e-01 2.285934e-01 2.122920e-01 2.003607e-01 1.751408e-01
<GCONST> 9.773402e+01
<STATE> 3
<NUMMIXES> 2
<MIXTURE> 1 8.040601e-01
<MEAN> 39
 -6.776940e+00 4.183045e+00 7.710950e-01 8.119195e+00 6.401152e+00 3.759638e+00 -1.348996e+00 -4.982878e-01 -5.024674e-01 -8.812186e-01 -2.884516e+00 1.666172e+00 -1.227928e+00 -6.890234e-02 -2.371291e+00 8.972719e-02 -2.553882e-01 1.356203e-01 -1.205627e+00 5.368865e-01 -1.820505e-01 4.201292e-02 -1.818215e-01 1.861444e-01 3.564342e-02 -1.619868e-01 3.741683e-01 -7.582809e-01 -1.692617e-03 -2.514116e-01 1.213386e-02 -3.339316e-01 -1.851300e-01 -2.912361e-01 -1.103375e-01 -3.843286e-01 1.815681e-02 2.504415e-02 -8.144385e-02
<VARIANCE> 39
 8.933220e+01 7.264345e+01 4.680019e+01 4.821054e+01 7.035343e+01 5.783836e+01 5.345610e+01 6.051838e+01 4.262787e+01 3.421454e+01 3.097785e+01 2.476547e+01 2.738022e+01 2.642493e+00 7.676398e+00 3.465957e+00 3.678759e+00 5.036482e+00 5.103528e+00 4.327436e+00 3.726016e+00 3.002302e+00 2.974823e+00 2.505970e+00 2.450927e+00 2.082572e+00 3.226238e-01 1.159063e+00 5.030069e-01 5.853140e-01 7.727738e-01 7.411307e-01 7.464812e-01 6.379047e-01 5.052592e-01 5.462703e-01 4.469884e-01 4.237082e-01 3.656581e-01
<GCONST> 1.306650e+02
<MIXTURE> 2 1.959399e-01
<MEAN> 39
 1.053089e+01 -2.055247e+01 6.308477e+00 1.455807e+01 -1.083748e+01 9.559465e+00 -5.781178e+00 -1.209475e+01 4.472277e+00 -8.044788e+00 -4.433344e+00 3.597618e+00 -8.873678e+00 1.718026e+00 -2.510548e+00 6.845546e-01 2.612941e-01 -1.828547e+00 -1.895884e-01 -1.769258e+00 -1.815754e+00 -1.875595e-01 -1.465637e+00 -1.941613e-01 1.573890e-01 -9.808847e-01 -1.829093e-01 1.111196e+00 -2.269149e-01 -4.481889e-01 5.117080e-01 -4.510650e-01 -4.644469e-01 8.412771e-02 -2.824341e-01 -4.553308e-03 3.880875e-02 -1.947649e-01 1.551291e-01
<VARIANCE> 39
 3.702062e+01 5.585181e+01 3.891296e+01 4.263893e+01 5.000251e+01 4.490949e+01 4.825325e+01 4.534425e+01 4.777723e+01 4.598360e+01 3.418814e+01 3.060180e+01 2.808087e+01 3.678277e+00 1.316353e+01 3.506486e+00 4.058904e+00 6.532607e+00 5.520247e+00 4.924483e+00 3.802247e+00 4.748216e+00 3.478152e+00 3.390227e+00 3.019737e+00 2.435022e+00 4.667203e-01 1.383745e+00 6.732850e-01 6.066570e-01 9.231431e-01 8.840881e-01 9.637880e-01 8.233653e-01 8.616030e-01 6.435657e-01 5.579927e-01 4.635587e-01 4.279089e-01
<GCONST> 1.346288e+02
<STATE> 4
<NUMMIXES> 2
<MIXTURE> 1 8.132937e-01
<MEAN> 39
 -4.746134e+00 -5.730172e+00 2.439653e+00 2.182794e+00 1.119393e+01 -5.165351e+00 -1.415403e+00 -3.174387e+00 -3.269023e+00 -5.754384e+00 -2.273680e+00 1.265456e+00 -1.481166e+00 9.073800e-01 -8.313966e-01 3.450624e-01 -6.449966e-01 2.700980e-01 -1.138171e+00 -9.260755e-01 -5.324609e-01 -5.767688e-01 -8.504102e-01 -9.484563e-02 -7.401197e-02 -5.095351e-02 5.417135e-02 4.415561e-01 -1.481075e-02 6.706557e-02 -1.266268e-01 1.940853e-01 -2.010063e-01 7.691380e-02 -9.226800e-03 1.839311e-02 -9.124984e-02 1.441660e-03 -5.887477e-02
<VARIANCE> 39
 6.117651e+01 7.190248e+01 6.477455e+01 6.657658e+01 8.545444e+01 7.577843e+01 7.701745e+01 6.900584e+01 6.108114e+01 5.695141e+01 4.803437e+01 3.992999e+01 3.395746e+01 2.965382e+00 7.266290e+00 4.091063e+00 4.161391e+00 4.070106e+00 5.531404e+00 5.751926e+00 4.680471e+00 3.969040e+00 3.891035e+00 3.639002e+00 3.218563e+00 2.481453e+00 4.557310e-01 1.194440e+00 7.965827e-01 6.887398e-01 6.331819e-01 8.687468e-01 1.058428e+00 8.055542e-01 7.354438e-01 7.038204e-01 6.022078e-01 5.271552e-01 4.383267e-01
<GCONST> 1.388504e+02
<MIXTURE> 2 1.867063e-01
<MEAN> 39
 1.207044e+01 -1.543515e+01 4.347429e+00 9.576838e+00 -1.093116e+01 4.173099e+00 -1.261647e+01 -1.459583e+01 7.293385e-01 -1.067338e+01 -3.312439e+00 3.095710e+00 -9.270146e+00 -1.116907e-01 7.166144e-02 -9.716587e-02 -4.350091e-01 -2.331965e-01 -4.781992e-01 -5.344432e-01 6.130645e-02 -1.862843e-02 -1.995937e-01 1.461969e-01 -5.188365e-02 -7.131449e-02 -1.658118e-01 1.322587e-01 7.302756e-03 4.136870e-02 1.303541e-01 9.350949e-02 3.309135e-01 2.567202e-01 8.368229e-02 1.388455e-01 -1.944533e-02 -2.023767e-02 5.765898e-02
<VARIANCE> 39
 4.908150e+01 7.457654e+01 3.808962e+01 6.551094e+01 6.379298e+01 5.380890e+01 5.801412e+01 5.542377e+01 4.577045e+01 7.306156e+01 6.130063e+01 4.513171e+01 4.354111e+01 6.779739e-01 1.939393e+00 1.232618e+00 1.319872e+00 2.068873e+00 2.399879e+00 2.974518e+00 1.848397e+00 1.910989e+00 2.181422e+00 1.533099e+00 1.334038e+00 1.337303e+00 1.225863e-01 4.051996e-01 1.645046e-01 1.789141e-01 3.394772e-01 3.137268e-01 4.113624e-01 3.413760e-01 3.041884e-01 2.956283e-01 2.552046e-01 2.295284e-01 2.026264e-01
<GCONST> 1.126633e+02
<TRANSP> 5
 0.000000e+00 1.000000e+00 0.000000e+00 0.000000e+00 0.000000e+00
 0.000000e+00 8.026175e-01 1.973824e-01 0.000000e+00 0.000000e+00
 0.000000e+00 0.000000e+00 6.164133e-01 3.835867e-01 0.000000e+00
 0.000000e+00 0.000000e+00 0.000000e+00 7.082331e-01 2.917669e-01
 0.000000e+00 0.000000e+00 0.000000e+00 0.000000e+00 0.000000e+00
<ENDHMM>
~o
<STREAMINFO> 1 39
<VECSIZE> 39<NULLD><MFCC_D_A><DIAGC>
~h "txh"
<BEGINHMM>
<NUMSTATES> 5
<STATE> 2
<NUMMIXES> 2
<MIXTURE> 1 4.855298e-01
<MEAN> 39
 -1.512794e+00 2.347475e+00 1.669153e+00 3.938631e-01 1.181317e+01 -9.790482e-01 -1.858834e+00 -3.219442e+00 -5.316672e-01 -3.254397e+00 -2.070858e+00 1.214464e+00 -2.662866e+00 -8.206738e-01 5.815269e-01 -3.829291e-02 5.386391e-01 -5.173135e-01 5.059860e-01 4.035114e-01 -2.118346e-02 1.811922e-01 2.170628e-01 -1.150735e-01 1.316408e-01 8.485565e-02 -5.576627e-02 -2.382878e-01 9.821105e-03 -3.380948e-02 3.525172e-03 -2.883038e-01 7.155488e-02 6.660499e-02 2.784923e-02 -1.506667e-04 4.344551e-02 -1.115702e-02 -1.643432e-02
<VARIANCE> 39
 5.371628e+01 7.613223e+01 5.728284e+01 8.514121e+01 7.527999e+01 1.081268e+02 7.745615e+01 5.388555e+01 5.689297e+01 5.483117e+01 6.129292e+01 4.289322e+01 3.424060e+01 1.223705e+00 4.076533e+00 3.029354e+00 2.435899e+00 2.916732e+00 4.630342e+00 4.133491e+00 3.425977e+00 2.841134e+00 2.403471e+00 2.130307e+00 2.150952e+00 1.739589e+00 2.104977e-01 1.035161e+00 5.937163e-01 4.880276e-01 5.860255e-01 7.069500e-01 8.122584e-01 6.311426e-01 5.335321e-01 4.812917e-01 4.197430e-01 4.230883e-01 3.584893e-01
<GCONST> 1.297109e+02
<MIXTURE> 2 5.144702e-01
<MEAN> 39
 -9.871593e+00 4.192465e+00 3.489049e+00 6.603550e+00 7.666527e+00 -1.097050e+00 6.606741e-01 -2.053562e+00 2.626390e+00 -6.305453e-01 -2.339175e+00 2.252537e+00 -3.383674e+00 -5.550676e-01 3.514642e-01 -6.914880e-02 -5.068400e-03 -1.444264e-01 6.728428e-02 3.379794e-01 1.474677e-01 1.693276e-01 1.954765e-01 -3.067596e-02 4.875883e-02 4.375166e-02 7.723262e-02 -2.773290e-01 -1.783851e-02 -8.444802e-02 4.334167e-02 -1.319440e-02 4.133616e-02 3.219417e-02 -2.678269e-02 -2.624156e-02 3.093471e-02 -8.350194e-03 4.984428e-02
<VARIANCE> 39
 7.777729e+01 1.048835e+02 5.707557e+01 5.755498e+01 4.517204e+01 7.724775e+01 5.135902e+01 4.059513e+01 3.463694e+01 3.437874e+01 3.532419e+01 3.302787e+01 2.745180e+01 4.403281e-01 7.685561e-01 6.894039e-01 8.300954e-01 9.634131e-01 1.168454e+00 1.167171e+00 1.240167e+00 1.243959e+00 1.241607e+00 1.123185e+00 1.061006e+00 8.537369e-01 7.503173e-02 2.871968e-01 1.538302e-01 1.843331e-01 1.958577e-01 2.607760e-01 2.517342e-01 2.635036e-01 2.595747e-01 2.554368e-01 2.393202e-01 2.318077e-01 1.866120e-01
<GCONST> 1.009644e+02
<STATE> 3
<NUMMIXES> 2
<MIXTURE> 1 5.265338e-01
<MEAN> 39
 -1.035709e+01 1.994139e+00 2.000080e+00 5.459961e+00 7.646173e+00 -8.641139e-01 2.481657e+00 -1.277478e+00 1.795063e+00 -1.157121e+00 -2.411482e+00 1.849784e+00 -2.585315e+00 5.009493e-01 -4.178474e+00 -2.837963e-01 -1.009144e+00 -7.182173e-02 -1.447001e+00 5.377650e-01 4.324309e-01 2.476852e-01 6.560598e-02 7.749869e-01 1.876802e-01 6.248392e-01 3.415074e-01 -9.942023e-01 3.767475e-01 -4.029438e-01 8.092262e-02 -1.700964e-01 -5.391948e-02 -1.552574e-01 6.375698e-02 2.827717e-02 3.576564e-01 6.840032e-02 2.090520e-01
<VARIANCE> 39
 4.321311e+01 9.573441e+01 4.226083e+01 5.051134e+01 4.660317e+01 5.550562e+01 4.780254e+01 4.043509e+01 3.612817e+01 3.015816e+01 3.174267e+01 2.931157e+01 2.502508e+01 4.102538e+00 1.013514e+01 4.249363e+00 5.140052e+00 4.897149e+00 4.932033e+00 5.762661e+00 4.306074e+00 3.908623e+00 3.499810e+00 3.371281e+00 3.424744e+00 2.807890e+00 4.305771e-01 1.505187e+00 7.128929e-01 5.568453e-01 6.031480e-01 7.287194e-01 7.165415e-01 6.374623e-01 5.682286e-01 4.827414e-01 4.687537e-01 4.801793e-01 3.788103e-01
<GCONST> 1.327282e+02
<MIXTURE> 2 4.734662e-01
<MEAN> 39
 -8.960209e+00 -1.538209e+01 5.731345e+00 -1.886761e+00 1.022786e+01 -7.259207e+00 4.291583e+00 -1.369914e+00 2.948910e+00 9.080146e-02 3.200901e+00 2.658900e+00 1.491403e+00 -5.472742e-01 -2.378056e+00 2.344416e+00 -9.607610e-01 6.694400e-01 -4.124997e-02 8.535928e-01 -7.659591e-01 3.478769e-01 7.906200e-01 1.680257e+00 3.852137e-01 6.735996e-01 -2.576863e-01 1.391955e+00 -6.366678e-02 4.802888e-01 1.262718e-02 6.425747e-01 -1.513142e-01 -2.171970e-01 -1.516797e-01 9.600283e-02 -1.545251e-01 -6.465071e-03 -3.480623e-01
<VARIANCE> 39
 1.598291e+01 1.636237e+01 4.079778e+01 3.058069e+01 3.831492e+01 3.233696e+01 4.211229e+01 3.436333e+01 3.206906e+01 3.159676e+01 2.974206e+01 2.596152e+01 2.183475e+01 2.510099e+00 7.796463e+00 2.915504e+00 4.003123e+00 2.740856e+00 4.178882e+00 3.909670e+00 3.442264e+00 2.958424e+00 3.358409e+00 2.682431e+00 3.063898e+00 2.395747e+00 4.929432e-01 7.401348e-01 1.139917e+00 7.243107e-01 7.307888e-01 7.863685e-01 8.732039e-01 8.707764e-01 7.129084e-01 7.504174e-01 5.873024e-01 5.768921e-01 5.214962e-01
<GCONST> 1.267843e+02
<STATE> 4
<NUMMIXES> 2
<MIXTURE> 1 6.638992e-01
<MEAN> 39
 -7.683477e+00 -1.217032e+01 4.472773e+00 -3.533041e+00 1.085783e+01 -4.758703e+00 4.608474e+00 -4.851856e-01 1.938534e+00 1.182835e+00 4.039779e+00 2.650135e+00 -4.311895e-01 5.201971e-01 8.364111e-01 -2.929613e-01 2.701943e-02 -1.341361e-01 -5.849378e-02 -1.105611e-01 4.313864e-01 -1.474650e-01 -4.108933e-01 -4.791806e-01 -3.245009e-01 -3.373795e-01 3.459509e-02 9.850279e-02 1.159665e-01 9.424075e-02 2.256492e-02 -2.609293e-02 1.505239e-02 -6.784811e-03 -2.479963e-02 -8.179897e-02 -4.133004e-02 -2.456492e-02 3.008466e-03
<VARIANCE> 39
 5.201675e+01 5.433635e+01 4.375408e+01 5.103542e+01 4.854357e+01 5.558182e+01 5.734550e+01 4.749438e+01 4.407133e+01 4.357734e+01 3.774619e+01 3.832758e+01 3.239209e+01 8.347358e-01 1.302565e+00 1.887540e+00 1.969799e+00 2.034731e+00 2.063865e+00 2.365795e+00 2.120471e+00 2.274951e+00 2.220544e+00 1.826125e+00 1.727726e+00 1.456097e+00 1.235730e-01 1.861784e-01 2.995221e-01 2.927408e-01 3.408116e-01 3.486070e-01 4.197384e-01 3.909598e-01 3.891000e-01 3.854868e-01 3.519996e-01 3.078761e-01 2.656995e-01
<GCONST> 1.134612e+02
<MIXTURE> 2 3.361007e-01
<MEAN> 39
 -6.346896e+00 -1.518068e+01 9.957471e+00 2.591744e+00 6.357148e+00 -1.307603e+00 3.117168e+00 -5.108572e+00 2.743233e+00 -1.041532e+00 2.603075e+00 2.781762e+00 -1.958790e+00 6.953357e-01 3.420557e-01 -2.400669e-01 9.162687e-02 -9.263651e-04 -9.105466e-02 -6.587988e-01 -4.069728e-01 -6.008800e-01 -2.012583e-01 -1.551260e-01 -3.196726e-01 -4.704097e-01 2.388196e-01 3.181982e-01 -5.512919e-01 -1.743662e-01 -1.243116e-01 -3.007537e-01 -2.628733e-01 2.357207e-01 -9.661522e-02 -1.925233e-01 -3.010407e-01 -1.325850e-01 -7.954036e-02
<VARIANCE> 39
 1.177148e+02 9.432392e+01 5.845532e+01 7.801089e+01 1.669982e+02 1.024583e+02 7.883043e+01 4.692888e+01 6.782185e+01 6.213118e+01 6.204369e+01 5.209600e+01 4.571155e+01 3.219407e+00 5.378635e+00 4.213468e+00 3.123703e+00 3.747826e+00 4.631718e+00 3.527009e+00 3.721638e+00 3.693871e+00 3.557144e+00 3.099489e+00 2.650380e+00 2.231711e+00 5.537924e-01 9.760144e-01 8.273075e-01 5.329030e-01 6.903431e-01 7.130470e-01 6.554490e-01 6.635676e-01 6.502349e-01 6.738666e-01 6.354809e-01 4.617690e-01 3.921028e-01
<GCONST> 1.380091e+02
<TRANSP> 5
 0.000000e+00 1.000000e+00 0.000000e+00 0.000000e+00 0.000000e+00
 0.000000e+00 8.797706e-01 1.202294e-01 0.000000e+00 0.000000e+00
 0.000000e+00 0.000000e+00 8.166722e-01 1.833278e-01 0.000000e+00
 0.000000e+00 0.000000e+00 0.000000e+00 8.818089e-01 1.181912e-01
 0.000000e+00 0.000000e+00 0.000000e+00 0.000000e+00 0.000000e+00
<ENDHMM>
~o
<STREAMINFO> 1 39
<VECSIZE> 39<NULLD><MFCC_D_A><DIAGC>
~h "u"
<BEGINHMM>
<NUMSTATES> 7
<STATE> 2
<NUMMIXES> 2
<MIXTURE> 1 4.522199e-01
<MEAN> 39
 1.052951e+00 -1.748570e+00 6.936663e+00 4.198964e-01 3.031223e+00 -3.393682e+00 -2.415325e+00 -2.616324e+00 -3.364737e+00 -8.857501e+00 -5.956406e+00 -1.120599e+00 -4.689754e+00 8.793546e-01 1.038553e-01 2.160388e-01 -4.084848e-01 -2.509102e-01 -9.333869e-01 -6.862040e-01 1.598390e-01 -3.920790e-01 -7.144025e-01 -4.904478e-01 -2.140837e-01 -2.773198e-01 -7.785896e-02 5.020729e-02 -6.105281e-03 9.205393e-03 -4.430888e-02 -2.360626e-02 2.604489e-02 1.002528e-01 6.281504e-02 2.476167e-02 1.054888e-02 -1.085724e-02 1.099158e-03
<VARIANCE> 39
 8.532615e+01 1.139855e+02 4.891747e+01 9.572353e+01 1.571071e+02 1.234725e+02 7.248463e+01 8.817774e+01 9.066522e+01 6.565027e+01 5.382669e+01 4.494799e+01 4.340661e+01 2.212352e+00 4.654462e+00 2.618805e+00 3.063019e+00 3.614009e+00 4.403634e+00 3.873855e+00 3.529109e+00 3.956307e+00 3.207935e+00 2.955049e+00 2.223695e+00 1.898016e+00 3.192766e-01 7.653973e-01 4.103190e-01 4.592243e-01 5.699058e-01 7.083884e-01 6.526876e-01 5.597615e-01 5.705826e-01 4.936717e-01 4.777882e-01 3.683021e-01 3.118499e-01
<GCONST> 1.338997e+02
<MIXTURE> 2 5.477802e-01
<MEAN> 39
 1.443261e+01 -9.127495e+00 6.769188e+00 8.430681e+00 -1.366846e+01 3.244669e+00 -9.239754e+00 -1.118072e+01 5.956299e-02 -1.453526e+01 -8.896471e+00 -1.174631e+00 -1.079762e+01 -6.675939e-02 3.301472e-01 -1.965874e-02 -1.297237e-01 3.257978e-02 -4.335192e-02 1.396047e-01 1.926648e-01 4.622835e-02 3.174493e-02 -1.535764e-01 -1.552520e-01 1.383246e-02 -3.246097e-02 3.647584e-02 -5.229032e-03 3.159500e-02 6.248057e-02 6.394217e-02 6.770788e-02 -2.579992e-03 1.135989e-02 6.670194e-02 -1.286446e-02 5.056459e-03 3.766038e-02
<VARIANCE> 39
 5.741698e+00 8.509703e+01 2.586477e+01 4.472901e+01 5.879397e+01 5.501507e+01 6.234031e+01 8.340434e+01 5.774340e+01 5.804083e+01 4.588679e+01 4.297346e+01 3.451162e+01 1.821098e-01 6.732085e-01 4.123251e-01 5.917163e-01 1.087093e+00 9.649192e-01 9.967599e-01 9.261700e-01 9.690332e-01 1.065642e+00 8.743876e-01 8.415895e-01 7.982250e-01 3.010664e-02 7.127744e-02 5.688979e-02 7.804517e-02 1.409666e-01 1.328219e-01 1.402287e-01 1.295304e-01 1.481003e-01 1.538209e-01 1.234029e-01 1.172270e-01 1.204977e-01
<GCONST> 8.708234e+01
<STATE> 3
<NUMMIXES> 2
<MIXTURE> 1 6.320156e-01
<MEAN> 39
 3.219323e+00 6.015472e+00 1.463309e+01 -3.572941e+00 8.754656e-01 -7.180652e+00 -8.609758e+00 9.359999e-01 5.993473e+00 -4.413512e+00 -1.241533e+01 -3.711953e+00 -4.001838e+00 -7.455824e-02 1.873145e-01 8.890631e-02 1.018585e-01 -9.248596e-02 5.067676e-02 -1.077669e-02 2.763937e-02 9.454283e-02 1.340773e-01 6.687436e-02 -3.155739e-03 -8.302272e-02 -3.424153e-02 -6.871733e-03 -8.721852e-02 6.370170e-02 8.030902e-02 9.821733e-02 9.916420e-02 5.884589e-03 -1.044684e-01 -3.919255e-02 9.365996e-02 5.258971e-02 2.482677e-02
<VARIANCE> 39
 2.000605e+01 4.902001e+01 7.788914e+01 7.207001e+01 6.663099e+01 8.499353e+01 6.633000e+01 6.727424e+01 6.487838e+01 5.334084e+01 5.009669e+01 4.755231e+01 3.179598e+01 2.112910e-01 7.180289e-01 9.433954e-01 1.124027e+00 1.186749e+00 1.814270e+00 1.611791e+00 1.540398e+00 1.634496e+00 1.558669e+00 1.496576e+00 1.238746e+00 9.702585e-01 3.285931e-02 8.309556e-02 1.211049e-01 1.579407e-01 1.682829e-01 2.521335e-01 2.550678e-01 2.496532e-01 2.543957e-01 2.362170e-01 2.401275e-01 2.002023e-01 1.583537e-01
<GCONST> 1.015358e+02
<MIXTURE> 2 3.679844e-01
<MEAN> 39
 2.439742e+00 -1.601650e+00 8.541552e-01 2.672975e+00 1.772074e+01 -1.004319e+01 -1.284506e+01 3.060616e+00 -8.075390e+00 -1.387700e+01 -7.272184e+00 4.226678e+00 -2.594269e+00 -2.177578e-02 2.030212e-01 1.106679e-02 -9.586826e-02 -3.642901e-01 -2.227097e-02 1.984865e-01 2.157364e-01 -8.472413e-02 4.979448e-02 3.728210e-02 -9.466643e-02 -1.324521e-02 -4.956186e-02 5.503174e-02 6.119374e-02 6.000661e-02 -1.231022e-01 1.384991e-01 1.190294e-01 -3.766096e-02 8.451827e-02 1.298070e-01 -6.433070e-03 -9.038631e-02 -2.566059e-03
<VARIANCE> 39
 8.991230e+00 2.654716e+01 3.025837e+01 5.249063e+01 5.114460e+01 6.727215e+01 5.590207e+01 7.204120e+01 1.104087e+02 3.717025e+01 7.343185e+01 4.545879e+01 3.099272e+01 1.312623e-01 4.531054e-01 5.941108e-01 9.677902e-01 1.234453e+00 1.647151e+00 1.516209e+00 1.498288e+00 1.418826e+00 1.424431e+00 1.148460e+00 1.050625e+00 7.751373e-01 2.479376e-02 5.962919e-02 8.820501e-02 1.191579e-01 1.573881e-01 2.264735e-01 2.374895e-01 2.334352e-01 2.252565e-01 2.231656e-01 1.835351e-01 1.691144e-01 1.309090e-01
<GCONST> 9.382995e+01
<STATE> 4
<NUMMIXES> 2
<MIXTURE> 1 3.707101e-01
<MEAN> 39
 7.655677e+00 -2.235727e+00 6.496672e+00 6.337353e+00 -5.351432e+00 2.839487e+00 -6.717082e+00 -7.860939e+00 -3.073260e-01 -1.019892e+01 -8.848209e+00 -1.059336e-01 -6.031992e+00 -5.352130e-01 4.622189e-01 -2.333382e-01 2.667313e-01 4.163878e-01 2.826283e-01 4.536423e-01 4.588981e-02 -1.337017e-01 5.695970e-01 3.074592e-01 1.272091e-01 3.988855e-01 -5.873370e-02 -7.078159e-03 1.542570e-02 3.660297e-02 -1.033451e-02 -1.106722e-02 -6.029624e-03 1.468653e-02 1.249135e-02 2.614680e-02 5.429494e-02 1.135318e-02 -1.435985e-03
<VARIANCE> 39
 4.898061e+01 6.694688e+01 5.960951e+01 6.696774e+01 1.335419e+02 7.956522e+01 5.978959e+01 1.004947e+02 7.851753e+01 8.270016e+01 4.929835e+01 4.499992e+01 4.463772e+01 4.881307e-01 1.643202e+00 1.244218e+00 1.458277e+00 2.160988e+00 2.415089e+00 2.234946e+00 2.187646e+00 2.297815e+00 2.259370e+00 1.819660e+00 1.594552e+00 1.402523e+00 6.755579e-02 2.385035e-01 1.974567e-01 2.260121e-01 3.224160e-01 3.679608e-01 3.737000e-01 3.675909e-01 3.663574e-01 3.716822e-01 3.138738e-01 2.763758e-01 2.471067e-01
<GCONST> 1.157924e+02
<MIXTURE> 2 6.292899e-01
<MEAN> 39
 3.417223e+00 7.293330e+00 8.330730e+00 -9.710498e+00 -1.625434e-01 -2.035127e+01 -9.064593e-01 1.561739e+00 -1.227357e+01 -1.039749e+01 -7.147142e+00 -1.017353e+01 -1.074242e+01 -2.990634e-02 2.168149e-01 1.001392e-02 -4.689300e-02 -1.589202e-01 -7.911995e-03 6.217949e-02 3.558638e-02 5.552286e-02 3.114433e-03 -1.407267e-01 -1.060831e-01 -1.548424e-01 -5.462008e-03 -1.843423e-02 -2.657526e-02 6.268177e-02 6.855920e-02 9.713328e-02 -2.289386e-02 -5.790818e-02 2.742950e-02 2.240322e-02 1.946409e-02 5.355634e-02 3.129942e-02
<VARIANCE> 39
 6.075173e+00 4.578182e+01 2.743917e+01 3.471677e+01 5.041447e+01 4.296664e+01 3.941714e+01 4.597451e+01 8.174229e+01 6.164312e+01 4.850667e+01 5.474281e+01 4.559898e+01 9.210440e-02 5.496898e-01 4.708762e-01 6.562652e-01 8.952708e-01 9.710230e-01 9.655681e-01 1.150128e+00 1.134475e+00 1.179296e+00 1.051585e+00 1.147964e+00 1.009993e+00 1.406629e-02 4.912791e-02 6.224088e-02 9.069604e-02 1.023018e-01 1.395229e-01 1.419330e-01 1.569344e-01 1.592698e-01 1.563243e-01 1.508348e-01 1.450534e-01 1.304802e-01
<GCONST> 8.581348e+01
<STATE> 5
<NUMMIXES> 2
<MIXTURE> 1 4.466925e-01
<MEAN> 39
 -4.625373e+00 5.387253e+00 7.555608e+00 2.217134e+00 1.907907e+00 -2.482082e+00 -4.284086e+00 -1.878417e+00 -3.006986e+00 -4.842531e+00 -5.015221e+00 1.155242e+00 -1.893373e+00 -6.563073e-01 1.144765e-03 -2.087305e-01 3.859551e-01 -7.119522e-02 5.774955e-01 2.702276e-01 5.553771e-02 1.789254e-01 4.102275e-01 3.542806e-01 3.750980e-02 1.391774e-01 3.966124e-02 -1.430764e-02 -2.962244e-02 -5.178158e-02 2.614412e-02 -7.714985e-02 -5.493675e-02 6.344990e-02 4.320054e-03 -5.676643e-02 -5.659798e-02 -5.988459e-02 -2.339852e-02
<VARIANCE> 39
 5.850128e+01 7.165784e+01 1.010742e+02 7.796785e+01 1.016737e+02 7.724444e+01 9.046603e+01 7.987304e+01 1.086616e+02 5.166146e+01 4.983134e+01 4.864491e+01 3.854758e+01 2.320784e+00 4.246994e+00 4.193044e+00 3.743282e+00 4.024185e+00 4.529909e+00 4.093184e+00 4.015946e+00 4.027125e+00 3.049289e+00 2.862605e+00 2.429598e+00 2.010292e+00 3.587485e-01 6.914976e-01 7.692140e-01 6.680337e-01 7.235250e-01 7.985512e-01 7.725973e-01 7.598586e-01 7.407432e-01 5.473166e-01 5.109825e-01 4.560435e-01 3.760380e-01
<GCONST> 1.363338e+02
<MIXTURE> 2 5.533074e-01
<MEAN> 39
 2.557153e+00 5.451685e+00 6.222560e+00 -3.369020e+00 4.277777e+00 -8.372000e+00 -1.527221e+00 3.226936e-01 -7.576495e+00 -1.198772e+01 -1.032283e+01 -6.013878e+00 -6.781127e+00 -2.686405e-01 3.030097e-01 -3.503414e-02 8.793841e-01 2.912660e-01 1.123155e+00 2.698469e-01 -1.557292e-01 3.932452e-01 3.062120e-01 1.808527e-01 3.045668e-01 2.066435e-01 -7.035790e-02 -6.751939e-03 6.904609e-02 8.987733e-02 -2.925749e-03 3.102079e-02 -6.179065e-02 -7.933885e-02 7.567867e-02 9.510525e-02 7.611077e-02 5.501519e-02 1.421150e-02
<VARIANCE> 39
 2.328245e+01 5.422759e+01 4.108444e+01 8.790768e+01 8.662522e+01 1.146944e+02 6.465266e+01 8.359129e+01 1.177507e+02 6.428851e+01 5.320887e+01 5.830955e+01 5.727073e+01 4.549530e-01 1.560633e+00 1.248956e+00 1.994724e+00 1.908756e+00 2.824071e+00 2.625263e+00 2.820343e+00 2.871299e+00 2.559033e+00 2.258335e+00 2.125577e+00 1.605627e+00 5.184826e-02 1.770759e-01 1.755359e-01 2.727775e-01 2.582678e-01 4.197381e-01 3.743305e-01 3.967972e-01 3.900883e-01 3.762122e-01 3.398440e-01 3.132545e-01 2.492796e-01
<GCONST> 1.167156e+02
<STATE> 6
<NUMMIXES> 2
<MIXTURE> 1 4.844660e-01
<MEAN> 39
 -1.274343e+01 3.903363e+00 1.551758e-01 5.268116e+00 1.011818e+00 4.351602e+00 2.022784e-01 1.417190e+00 7.210066e-01 6.789124e-01 -5.280586e-01 2.469493e+00 1.331329e+00 -1.643758e-01 -2.911920e-02 -3.326992e-02 -1.362805e-02 3.402322e-02 6.717723e-02 1.031517e-01 1.068568e-01 9.269566e-02 1.067877e-01 8.033083e-02 4.384815e-02 4.758422e-02 1.470666e-02 -1.180686e-02 2.276913e-02 -2.710514e-03 -1.977393e-02 -2.488383e-02 -7.495021e-03 -1.580037e-02 -2.095792e-02 -4.142664e-02 -4.466193e-02 -2.980665e-02 -3.189496e-02
<VARIANCE> 39
 8.530662e+01 4.831593e+01 2.959365e+01 2.766006e+01 2.746149e+01 2.261732e+01 4.908134e+01 4.840764e+01 2.690251e+01 1.925712e+01 2.016849e+01 1.653423e+01 1.443028e+01 1.740540e-01 2.923222e-01 3.922587e-01 5.078899e-01 6.447412e-01 7.795797e-01 9.050236e-01 1.000027e+00 1.044122e+00 1.001279e+00 9.510639e-01 8.853238e-01 7.806525e-01 3.381644e-02 5.528744e-02 7.769003e-02 1.050473e-01 1.366116e-01 1.682217e-01 1.914387e-01 2.103994e-01 2.182365e-01 2.093443e-01 2.010773e-01 1.868510e-01 1.661759e-01
<GCONST> 8.365037e+01
<MIXTURE> 2 5.155340e-01
<MEAN> 39
 -6.931074e+00 6.256151e+00 4.888354e+00 5.076975e+00 2.729257e+00 8.418594e-01 -7.283200e-01 1.148099e+00 -9.045668e-01 -3.829554e+00 -5.103950e+00 -6.093683e-01 -2.271787e+00 -4.240176e-01 -1.468144e-02 -1.940255e-01 1.732367e-01 3.441521e-02 2.636226e-01 8.102319e-02 6.528354e-02 1.300745e-01 1.960183e-01 1.877071e-01 7.573153e-02 1.186747e-01 2.914968e-02 -9.258871e-02 -1.714387e-03 -9.922794e-02 -1.396455e-02 -7.925435e-02 -1.529153e-02 -8.548290e-03 -1.847258e-02 -2.079010e-02 -3.450577e-03 1.566760e-02 1.840190e-03
<VARIANCE> 39
 8.727489e+01 6.797449e+01 5.638064e+01 5.613258e+01 6.168547e+01 5.870699e+01 6.844949e+01 6.364883e+01 5.847972e+01 4.894307e+01 4.369157e+01 3.794530e+01 3.692794e+01 1.446800e+00 1.910836e+00 1.568437e+00 1.770776e+00 1.810323e+00 2.152139e+00 2.243471e+00 2.094630e+00 2.038249e+00 1.837880e+00 1.800054e+00 1.579065e+00 1.236418e+00 1.834873e-01 3.015012e-01 2.608706e-01 3.032605e-01 3.127815e-01 3.866505e-01 3.939472e-01 3.748209e-01 3.652739e-01 3.434587e-01 3.329348e-01 2.928193e-01 2.336793e-01
<GCONST> 1.161899e+02
<TRANSP> 7
 0.000000e+00 1.000000e+00 0.000000e+00 0.000000e+00 0.000000e+00 0.000000e+00 0.000000e+00
 0.000000e+00 8.445947e-01 1.554053e-01 0.000000e+00 0.000000e+00 0.000000e+00 0.000000e+00
 0.000000e+00 0.000000e+00 8.389135e-01 1.610865e-01 0.000000e+00 0.000000e+00 0.000000e+00
 0.000000e+00 0.000000e+00 0.000000e+00 8.199785e-01 1.800214e-01 0.000000e+00 0.000000e+00
 0.000000e+00 0.000000e+00 0.000000e+00 0.000000e+00 8.055705e-01 1.944295e-01 0.000000e+00
 0.000000e+00 0.000000e+00 0.000000e+00 0.000000e+00 0.000000e+00 8.626199e-01 1.373802e-01
 0.000000e+00 0.000000e+00 0.000000e+00 0.000000e+00 0.000000e+00 0.000000e+00 0.000000e+00
<ENDHMM>
~o
<STREAMINFO> 1 39
<VECSIZE> 39<NULLD><MFCC_D_A><DIAGC>
~h "uu"
<BEGINHMM>
<NUMSTATES> 7
<STATE> 2
<NUMMIXES> 2
<MIXTURE> 1 6.239023e-01
<MEAN> 39
 4.762688e+00 3.359607e+00 9.966475e+00 -8.496907e-01 2.857718e+00 -6.430022e+00 -5.174025e+00 -7.457027e-01 -1.365425e+00 -8.878886e+00 -8.729545e+00 -2.949183e+00 -6.122791e+00 5.178766e-01 4.020033e-01 2.917990e-01 -4.610558e-01 -6.370530e-01 -1.297277e+00 -9.826449e-01 5.122914e-01 2.057753e-01 -2.958391e-01 -4.802190e-01 -8.022646e-02 -2.566693e-01 -2.774610e-01 -1.864875e-01 -3.535976e-02 -1.823953e-03 2.024202e-02 1.416297e-01 2.710982e-01 1.023560e-01 1.209933e-01 1.168754e-01 1.484183e-01 2.701585e-02 6.703455e-03
<VARIANCE> 39
 3.747141e+01 7.321070e+01 4.643191e+01 8.229140e+01 1.612831e+02 1.073988e+02 6.735740e+01 6.084584e+01 1.119805e+02 7.534873e+01 5.215832e+01 4.654895e+01 4.362115e+01 7.173569e-01 1.211384e+00 1.504832e+00 1.636563e+00 1.937990e+00 3.134703e+00 3.537772e+00 2.934987e+00 3.106580e+00 2.369387e+00 2.162521e+00 1.750657e+00 1.476398e+00 1.266526e-01 2.374423e-01 2.336673e-01 2.607982e-01 3.024906e-01 4.182163e-01 3.854440e-01 3.651240e-01 3.796415e-01 3.310388e-01 3.201044e-01 2.728875e-01 2.108927e-01
<GCONST> 1.187549e+02
<MIXTURE> 2 3.760978e-01
<MEAN> 39
 -4.273869e+00 -1.259858e+00 7.380228e+00 -1.625936e+00 3.057462e+00 -1.785534e+00 3.048695e+00 -1.198020e+00 -6.649574e-02 -4.835526e+00 -2.984193e+00 -2.976402e-01 -3.888368e+00 1.475549e+00 7.051247e-01 7.232401e-01 -5.150917e-02 -7.230932e-02 -6.491474e-01 -7.201879e-01 -1.805036e-01 -6.291269e-01 -7.432248e-01 -7.294980e-01 -4.070750e-01 -5.158760e-01 1.600567e-01 2.350213e-01 8.257917e-02 1.860472e-02 -1.954512e-01 -3.880059e-01 -3.820263e-01 1.059322e-01 1.043743e-02 -1.172001e-01 -1.505836e-01 -2.158451e-02 -4.873189e-02
<VARIANCE> 39
 8.548340e+01 1.269517e+02 4.845435e+01 8.803277e+01 1.605639e+02 8.611279e+01 5.222775e+01 6.239847e+01 5.251637e+01 4.414941e+01 3.766904e+01 3.444132e+01 3.210819e+01 2.840957e+00 7.988449e+00 3.226438e+00 4.926028e+00 4.736801e+00 5.682340e+00 4.415771e+00 3.493606e+00 3.573750e+00 3.315725e+00 3.462397e+00 2.455356e+00 2.105673e+00 3.438839e-01 1.151672e+00 5.263211e-01 6.894930e-01 7.335531e-01 8.677678e-01 6.527778e-01 6.929355e-01 5.903484e-01 5.108417e-01 5.023833e-01 3.997178e-01 3.537887e-01
<GCONST> 1.355830e+02
<STATE> 3
<NUMMIXES> 2
<MIXTURE> 1 5.896845e-01
<MEAN> 39
 1.410851e+01 -1.577859e+00 1.238959e+01 4.473835e+00 -2.070098e+01 -2.523041e+00 -9.960522e+00 -6.492908e+00 3.479685e+00 -1.441430e+01 -8.427461e+00 -1.840521e+00 -1.470828e+01 -1.361549e-02 3.394120e-03 -4.410736e-02 -1.738771e-01 -9.599705e-02 -6.460837e-02 -7.570432e-02 7.759936e-02 7.775146e-02 -1.113476e-01 -1.292896e-01 -1.008831e-01 -1.127585e-01 -1.862668e-03 -2.093826e-02 -5.036857e-02 3.031109e-03 6.194261e-02 7.273296e-02 3.556696e-02 -2.090555e-02 -1.558360e-02 -3.275725e-03 -3.632428e-02 1.195074e-03 4.165982e-02
<VARIANCE> 39
 3.929458e+00 4.729608e+01 2.861582e+01 3.369498e+01 4.944585e+01 7.223860e+01 4.739566e+01 4.162814e+01 7.556028e+01 6.978223e+01 3.928153e+01 4.335543e+01 4.108921e+01 1.390171e-01 4.471526e-01 4.522871e-01 5.465828e-01 8.972123e-01 9.462408e-01 7.257807e-01 7.862956e-01 9.168977e-01 9.611412e-01 8.813927e-01 7.200976e-01 7.411827e-01 2.389587e-02 4.469521e-02 5.057506e-02 7.653365e-02 1.188838e-01 1.105028e-01 1.026504e-01 1.120424e-01 1.377169e-01 1.280698e-01 1.056976e-01 9.762269e-02 1.035965e-01
<GCONST> 8.141444e+01
<MIXTURE> 2 4.103156e-01
<MEAN> 39
 3.576922e+00 4.073127e+00 1.046667e+01 -6.789694e+00 5.594022e+00 -1.288926e+01 -4.036142e+00 4.000439e+00 -5.762954e+00 -1.159878e+01 -1.079421e+01 -6.611389e+00 -5.299889e+00 -1.376629e-02 4.405015e-01 5.416592e-01 -2.639595e-01 -8.322027e-01 -7.189268e-01 -5.110784e-02 4.202234e-01 4.159944e-01 2.678697e-01 -1.753556e-01 -3.666386e-01 -4.263296e-01 -5.251430e-02 -2.421646e-02 -2.372212e-02 9.312370e-02 7.309391e-02 1.425917e-01 4.414898e-02 -1.573052e-01 -6.948116e-03 8.950321e-02 1.197323e-01 4.970495e-02 -4.304966e-03
<VARIANCE> 39
 1.015412e+01 4.273915e+01 5.093876e+01 5.286506e+01 7.796297e+01 7.884223e+01 6.575805e+01 5.602496e+01 1.501781e+02 7.750039e+01 5.873085e+01 4.954015e+01 3.759209e+01 1.208441e-01 4.646922e-01 6.050623e-01 8.216911e-01 1.031358e+00 1.320806e+00 1.699217e+00 1.600858e+00 1.523836e+00 1.470546e+00 1.420634e+00 1.265808e+00 9.686736e-01 2.361990e-02 5.771003e-02 9.105572e-02 1.105596e-01 1.415886e-01 2.161386e-01 2.453654e-01 2.308216e-01 2.505956e-01 2.279490e-01 2.099499e-01 1.851027e-01 1.533112e-01
<GCONST> 9.710209e+01
<STATE> 4
<NUMMIXES> 2
<MIXTURE> 1 5.665988e-01
<MEAN> 39
 3.821514e+00 7.254362e+00 1.781908e+01 -3.063064e+00 1.326068e+00 -8.694977e+00 -1.128590e+01 6.387779e-01 8.626943e+00 -3.051839e+00 -1.212439e+01 -1.156548e+00 -4.836919e+00 -4.352784e-03 1.379643e-02 2.564797e-03 -2.204046e-02 -7.306205e-02 -8.429877e-03 -7.107506e-02 -7.160462e-02 2.031945e-02 2.971664e-02 -7.335778e-02 -4.299458e-02 -1.330341e-02 -3.737941e-03 -1.024290e-02 -6.321127e-02 -4.944847e-03 4.024848e-02 6.447158e-02 6.766247e-02 1.408236e-02 -5.525615e-02 -2.400028e-02 8.164183e-03 -3.207099e-02 4.688165e-03
<VARIANCE> 39
 1.061700e+01 3.246000e+01 5.974220e+01 5.629907e+01 6.168826e+01 7.272170e+01 6.770020e+01 5.768040e+01 4.431007e+01 4.472839e+01 4.701826e+01 4.368103e+01 3.191365e+01 8.427990e-02 3.000329e-01 5.100651e-01 6.073104e-01 7.031012e-01 9.652460e-01 9.713991e-01 1.020299e+00 1.022159e+00 9.406219e-01 9.587485e-01 9.014099e-01 6.619840e-01 1.241924e-02 3.400300e-02 6.797033e-02 8.797664e-02 1.068068e-01 1.451094e-01 1.555933e-01 1.652665e-01 1.736371e-01 1.583028e-01 1.490737e-01 1.347427e-01 1.111675e-01
<GCONST> 8.474240e+01
<MIXTURE> 2 4.334011e-01
<MEAN> 39
 3.167866e+00 9.785287e+00 1.015721e+01 -1.126460e+01 -1.722803e+00 -2.314090e+01 -2.866014e+00 2.988645e+00 -1.257189e+01 -1.059196e+01 -8.080223e+00 -1.134586e+01 -1.309345e+01 -3.083741e-02 -3.272692e-02 -7.965064e-02 -1.481605e-01 -3.861562e-02 -1.373337e-03 8.863221e-04 1.868999e-02 -7.847838e-02 -1.271299e-01 -1.509936e-01 -7.997945e-02 -7.696240e-02 2.445563e-03 -3.155375e-02 -4.496285e-02 1.969696e-02 5.441263e-02 8.198876e-02 8.278470e-03 -1.894769e-02 -7.840006e-03 -4.695274e-02 -3.333806e-02 3.981774e-02 6.458335e-02
<VARIANCE> 39
 5.315660e+00 3.426040e+01 2.038534e+01 3.630614e+01 3.740158e+01 4.321970e+01 4.220889e+01 4.777325e+01 3.740923e+01 6.335217e+01 4.306703e+01 4.340738e+01 4.843743e+01 6.627245e-02 3.302242e-01 3.574037e-01 4.860166e-01 6.125762e-01 7.172378e-01 7.481684e-01 9.198426e-01 8.672596e-01 1.041075e+00 8.651085e-01 8.226215e-01 8.630548e-01 9.753287e-03 3.193334e-02 4.821209e-02 7.355566e-02 8.457156e-02 1.072942e-01 1.135506e-01 1.351915e-01 1.306799e-01 1.277171e-01 1.218774e-01 1.199830e-01 1.098237e-01
<GCONST> 7.718999e+01
<STATE> 5
<NUMMIXES> 2
<MIXTURE> 1 4.492476e-01
<MEAN> 39
 3.697824e+00 6.697178e+00 1.227506e+01 -4.212204e+00 2.939108e+00 -7.095387e+00 -1.092483e+01 1.496930e+00 8.063828e+00 -3.067988e+00 -1.454774e+01 -4.938552e+00 -5.230669e+00 -2.492283e-02 2.023823e-02 -8.114917e-01 -1.057304e-01 3.544868e-01 1.071530e+00 8.846804e-01 1.099073e-01 -6.166635e-01 -4.275741e-01 -2.752837e-03 -2.394991e-01 1.237538e-01 -5.316772e-02 3.941963e-02 -6.677896e-02 1.040337e-01 3.948904e-02 1.270741e-01 2.308296e-01 2.833365e-02 -1.922485e-01 -1.046246e-01 1.411501e-01 1.324292e-01 8.945812e-02
<VARIANCE> 39
 1.490723e+01 3.577527e+01 7.825585e+01 5.590694e+01 8.011845e+01 7.813520e+01 7.636606e+01 6.699943e+01 5.009834e+01 4.570959e+01 6.714358e+01 5.657373e+01 3.599549e+01 2.710082e-01 7.113722e-01 1.129502e+00 1.541611e+00 1.438022e+00 2.237528e+00 2.538170e+00 2.247528e+00 2.267924e+00 2.205624e+00 2.300712e+00 1.881677e+00 1.478522e+00 3.799670e-02 9.098929e-02 1.607598e-01 1.985433e-01 2.330658e-01 2.852973e-01 3.920037e-01 3.674897e-01 3.520045e-01 3.083843e-01 3.614103e-01 2.965321e-01 2.336821e-01
<GCONST> 1.088012e+02
<MIXTURE> 2 5.507524e-01
<MEAN> 39
 5.189650e+00 3.137437e+00 5.483751e+00 -9.065461e+00 -1.175091e+00 -1.140791e+01 -3.963571e+00 -1.512119e-01 -1.127705e+01 -1.769322e+01 -1.284435e+01 -8.463250e+00 -9.700038e+00 -2.242308e-02 -2.440120e-01 -5.291054e-01 5.960558e-01 9.570168e-01 1.217073e+00 1.752277e-01 -6.780251e-01 -2.880258e-01 -1.267019e-01 1.284094e-01 6.617387e-01 6.315903e-01 -4.470473e-02 5.515545e-02 6.134870e-02 1.937663e-01 5.084764e-02 1.118429e-01 2.294300e-02 -1.012529e-01 1.524914e-01 2.779601e-01 1.622639e-01 7.313953e-02 -1.372395e-02
<VARIANCE> 39
 3.385643e+01 6.754109e+01 3.753764e+01 8.160790e+01 1.422982e+02 1.339793e+02 5.529479e+01 7.828806e+01 1.041365e+02 6.426543e+01 4.907829e+01 5.741777e+01 5.534424e+01 2.473351e-01 8.098748e-01 8.906112e-01 1.492520e+00 1.786793e+00 2.226060e+00 2.670027e+00 2.530343e+00 2.594384e+00 2.759570e+00 2.063800e+00 1.984471e+00 1.648098e+00 3.696227e-02 1.102472e-01 1.213525e-01 2.002300e-01 2.416540e-01 3.262853e-01 3.683701e-01 3.598790e-01 3.397099e-01 3.529282e-01 3.079494e-01 3.087958e-01 2.559225e-01
<GCONST> 1.126618e+02
<STATE> 6
<NUMMIXES> 2
<MIXTURE> 1 3.336447e-01
<MEAN> 39
 -9.032552e+00 7.859348e+00 5.998817e+00 4.685452e+00 1.945514e+00 9.695826e-01 5.020747e-01 7.892083e-01 2.288512e+00 -7.252776e-01 -3.693005e+00 -3.320200e-01 -2.342739e+00 -4.834816e-01 -2.569619e-01 -2.967101e-01 1.024850e-01 2.107468e-01 2.183865e-01 2.643364e-01 1.539131e-01 6.953866e-02 1.702500e-01 1.885021e-01 1.162691e-01 1.727834e-01 3.802918e-02 -5.592726e-02 2.596269e-02 -7.456607e-02 -3.012821e-02 -2.661312e-02 -1.887167e-02 7.900213e-04 -9.306239e-03 -4.491262e-02 -3.862422e-02 -6.095282e-04 -1.633810e-02
<VARIANCE> 39
 5.785881e+01 5.690823e+01 4.308660e+01 3.069456e+01 4.806724e+01 3.576227e+01 3.658179e+01 3.772001e+01 2.765096e+01 2.423670e+01 2.693318e+01 2.766319e+01 2.267715e+01 4.342249e-01 5.435207e-01 7.213443e-01 8.937288e-01 1.036844e+00 1.145301e+00 1.240302e+00 1.288428e+00 1.362448e+00 1.300842e+00 1.243437e+00 1.147385e+00 9.570150e-01 4.857602e-02 9.693091e-02 1.257078e-01 1.624708e-01 1.846839e-01 2.158145e-01 2.256471e-01 2.413838e-01 2.587188e-01 2.554371e-01 2.443677e-01 2.205090e-01 1.897412e-01
<GCONST> 9.484522e+01
<MIXTURE> 2 6.663553e-01
<MEAN> 39
 7.643177e-01 4.610255e+00 7.394271e+00 1.505167e-01 2.588100e+00 -1.115434e+00 -1.786500e+00 -1.034752e+00 -1.917429e+00 -8.821699e+00 -9.102629e+00 -2.133532e+00 -4.905705e+00 -6.302442e-01 5.566692e-03 -1.472972e-01 8.451077e-01 3.472631e-01 5.579513e-01 4.588863e-01 -1.305027e-01 1.503315e-02 4.359575e-01 5.204399e-01 2.649245e-01 2.215536e-01 -4.092908e-02 -6.872264e-02 8.011530e-02 -4.555279e-02 -6.620751e-02 -2.074098e-01 -1.604893e-01 1.738854e-02 4.165924e-02 -9.243312e-03 -4.766884e-02 -5.993183e-02 -4.732810e-02
<VARIANCE> 39
 7.374677e+01 9.284338e+01 7.415062e+01 8.187218e+01 1.266273e+02 1.009127e+02 7.973807e+01 8.922762e+01 8.822715e+01 7.098651e+01 5.404081e+01 4.690011e+01 3.960770e+01 1.255021e+00 3.444686e+00 2.502940e+00 3.110205e+00 2.997415e+00 4.028310e+00 4.277299e+00 3.466066e+00 3.408916e+00 3.224806e+00 2.941561e+00 2.456679e+00 1.900401e+00 1.741913e-01 5.383819e-01 4.364849e-01 4.961283e-01 5.026493e-01 6.329032e-01 7.078478e-01 6.012480e-01 5.570063e-01 5.332340e-01 5.025693e-01 4.119001e-01 3.335300e-01
<GCONST> 1.317420e+02
<TRANSP> 7
 0.000000e+00 1.000000e+00 0.000000e+00 0.000000e+00 0.000000e+00 0.000000e+00 0.000000e+00
 0.000000e+00 7.952836e-01 2.047165e-01 0.000000e+00 0.000000e+00 0.000000e+00 0.000000e+00
 0.000000e+00 0.000000e+00 8.589000e-01 1.411000e-01 0.000000e+00 0.000000e+00 0.000000e+00
 0.000000e+00 0.000000e+00 0.000000e+00 9.207683e-01 7.923172e-02 0.000000e+00 0.000000e+00
 0.000000e+00 0.000000e+00 0.000000e+00 0.000000e+00 8.311433e-01 1.688568e-01 0.000000e+00
 0.000000e+00 0.000000e+00 0.000000e+00 0.000000e+00 0.000000e+00 8.752977e-01 1.247023e-01
 0.000000e+00 0.000000e+00 0.000000e+00 0.000000e+00 0.000000e+00 0.000000e+00 0.000000e+00
<ENDHMM>
~o
<STREAMINFO> 1 39
<VECSIZE> 39<NULLD><MFCC_D_A><DIAGC>
~h "w"
<BEGINHMM>
<NUMSTATES> 5
<STATE> 2
<NUMMIXES> 2
<MIXTURE> 1 7.987176e-01
<MEAN> 39
 1.991958e+00 5.993949e+00 6.477673e+00 -1.859498e+00 4.682791e+00 -6.796997e+00 -8.903955e-01 3.432464e+00 2.579700e+00 -6.040391e+00 -7.613636e+00 -3.078363e+00 -4.700527e+00 -1.072371e-01 9.528832e-02 1.908196e-01 6.630118e-03 1.248206e-02 -4.202372e-02 1.897448e-02 -3.774876e-02 1.045583e-01 3.123877e-02 -2.315393e-02 -3.517005e-02 -1.936012e-02 4.519450e-02 -1.079662e-01 -4.133128e-02 -4.194830e-02 -1.584998e-02 -7.264464e-02 -7.764304e-02 -4.194392e-02 -5.853439e-02 -5.891277e-02 -1.348093e-02 1.963772e-02 3.955389e-02
<VARIANCE> 39
 3.242825e+01 3.218336e+01 5.178431e+01 5.462794e+01 7.659408e+01 7.101535e+01 5.678662e+01 5.093831e+01 7.378634e+01 3.927736e+01 3.393487e+01 3.209665e+01 2.501095e+01 3.333724e-01 6.364010e-01 6.326796e-01 7.375380e-01 8.524271e-01 1.263573e+00 1.135684e+00 1.034333e+00 1.079872e+00 9.940182e-01 9.372379e-01 8.059812e-01 7.043267e-01 4.356911e-02 7.012317e-02 9.699509e-02 1.101911e-01 1.313183e-01 1.873331e-01 1.830813e-01 1.725823e-01 1.796140e-01 1.700957e-01 1.628265e-01 1.415469e-01 1.204122e-01
<GCONST> 9.182880e+01
<MIXTURE> 2 2.012824e-01
<MEAN> 39
 1.378911e+01 -5.882964e+00 5.711132e+00 9.465131e+00 -1.243303e+01 8.746708e+00 5.601330e-01 -7.174479e+00 2.589908e+00 -1.117520e+01 -1.118331e+01 1.178023e-01 -6.158607e+00 -1.288440e-01 1.712742e-02 2.953843e-01 2.247112e-02 -1.709286e-01 2.319557e-01 7.940844e-02 2.872613e-02 2.858532e-01 -3.339471e-02 -1.537790e-01 2.861512e-02 -6.112367e-02 4.143821e-02 -1.702908e-01 -5.036233e-02 -1.903104e-02 -4.757323e-02 -1.118162e-01 -1.095709e-01 -5.744234e-02 -1.100288e-01 -7.373928e-02 7.590093e-02 2.229727e-02 -1.457045e-03
<VARIANCE> 39
 5.693203e+00 3.076212e+01 1.764848e+01 2.169621e+01 3.926045e+01 3.001332e+01 2.751151e+01 3.213239e+01 3.717189e+01 2.692718e+01 1.927668e+01 1.926764e+01 1.896693e+01 1.228157e-01 5.694669e-01 4.044106e-01 4.887558e-01 7.384183e-01 9.813445e-01 7.732689e-01 8.090994e-01 9.743630e-01 8.385676e-01 6.937302e-01 6.511840e-01 6.163760e-01 1.787036e-02 5.931752e-02 6.642151e-02 7.853088e-02 1.136717e-01 1.498673e-01 1.329894e-01 1.448491e-01 1.629503e-01 1.434017e-01 1.325567e-01 1.232411e-01 1.184856e-01
<GCONST> 7.573148e+01
<STATE> 3
<NUMMIXES> 2
<MIXTURE> 1 7.750928e-01
<MEAN> 39
 -4.173482e+00 5.037107e+00 6.521776e+00 6.808286e-01 8.928716e+00 -3.633140e+00 2.800310e+00 4.631208e-01 -4.699170e-01 -5.479694e+00 -5.078700e+00 -3.042471e+00 -3.094891e+00 5.041924e-01 -3.285659e-01 -4.118376e-02 -1.530383e-01 9.364491e-03 -4.896262e-01 -3.780042e-01 -2.627189e-01 -2.313637e-01 -2.946119e-01 -1.447646e-01 -8.196415e-02 2.644635e-02 1.414021e-01 -1.075895e-01 -1.100134e-01 -1.538949e-02 -6.299346e-02 -1.492383e-01 -1.490164e-01 1.199363e-02 -4.895393e-02 -3.985308e-02 8.945921e-03 4.466074e-02 1.013369e-02
<VARIANCE> 39
 6.510471e+01 6.284699e+01 4.268846e+01 6.606485e+01 8.079882e+01 7.640765e+01 5.469632e+01 6.407645e+01 6.152333e+01 4.492556e+01 3.420848e+01 3.258094e+01 2.898432e+01 2.547780e+00 2.573228e+00 2.006421e+00 2.142827e+00 2.521831e+00 3.168890e+00 2.740843e+00 2.593204e+00 2.364835e+00 2.090689e+00 1.924780e+00 1.644532e+00 1.427812e+00 3.049076e-01 3.621845e-01 3.093582e-01 3.176063e-01 3.817028e-01 4.421006e-01 4.095497e-01 4.244825e-01 3.862350e-01 3.611081e-01 3.308599e-01 2.909814e-01 2.440842e-01
<GCONST> 1.198476e+02
<MIXTURE> 2 2.249072e-01
<MEAN> 39
 1.229526e+01 -8.397002e+00 8.782824e+00 9.786828e+00 -1.259869e+01 9.720659e+00 -2.308793e+00 -7.944890e+00 4.711794e+00 -1.170270e+01 -9.912220e+00 1.310707e+00 -8.517731e+00 3.858522e-01 -7.465496e-01 -2.745040e-01 -8.628081e-02 -4.619798e-01 -6.338443e-01 -4.529445e-01 -2.037509e-01 -3.138613e-01 -3.233378e-01 1.083037e-01 7.208961e-03 -4.250133e-02 5.755890e-02 -8.827299e-03 -1.497162e-01 -4.229938e-02 4.812847e-03 -2.483839e-01 -4.944572e-02 5.689128e-02 -1.327537e-01 1.729488e-02 9.826127e-02 -2.806732e-02 4.909991e-02
<VARIANCE> 39
 1.905067e+01 7.887674e+01 3.491452e+01 4.524624e+01 5.771058e+01 7.154121e+01 4.427628e+01 4.455894e+01 5.832297e+01 3.777296e+01 2.850811e+01 2.878697e+01 2.519964e+01 6.668934e-01 3.263066e+00 1.526070e+00 1.655466e+00 1.998277e+00 4.110181e+00 1.653270e+00 1.927021e+00 2.210592e+00 1.388634e+00 1.291826e+00 1.565707e+00 1.279830e+00 8.754140e-02 5.248417e-01 2.116472e-01 2.248594e-01 2.963492e-01 5.620109e-01 2.591363e-01 3.202189e-01 3.372795e-01 2.331462e-01 2.158337e-01 2.592688e-01 2.018647e-01
<GCONST> 1.095130e+02
<STATE> 4
<NUMMIXES> 2
<MIXTURE> 1 1.946194e-01
<MEAN> 39
 1.646124e+01 -1.410528e+01 1.493680e+00 4.312708e+00 -1.954171e+01 3.003703e+00 -1.878139e+00 -7.710574e+00 -1.826667e+00 -1.571410e+01 -8.545006e+00 2.099893e+00 -5.130858e+00 1.684813e-01 -7.706630e-01 -2.338487e-01 -1.330817e-01 -1.213491e-01 -9.777572e-02 -5.297359e-01 -4.875783e-01 -1.668808e-01 1.211031e-01 7.393361e-01 4.950106e-01 -1.604632e-02 -6.505431e-02 1.173083e-02 6.722793e-02 7.543135e-02 1.056229e-01 1.094384e-01 -3.474840e-02 -6.694953e-02 1.061977e-01 1.195991e-01 1.142930e-04 -2.762636e-02 -8.032854e-02
<VARIANCE> 39
 5.369974e+00 3.185164e+01 1.782059e+01 3.604712e+01 5.022229e+01 4.090770e+01 4.589460e+01 5.194016e+01 3.508992e+01 3.698656e+01 2.528192e+01 2.421239e+01 3.299072e+01 3.008058e-01 6.494645e-01 4.247296e-01 6.108164e-01 1.042066e+00 1.240084e+00 8.853139e-01 9.638953e-01 8.845211e-01 8.735095e-01 7.312922e-01 7.631121e-01 7.747313e-01 5.095384e-02 8.316127e-02 5.174059e-02 6.952724e-02 1.385082e-01 1.795577e-01 9.863754e-02 1.104934e-01 1.342597e-01 1.208955e-01 9.924661e-02 1.022710e-01 1.018669e-01
<GCONST> 8.148960e+01
<MIXTURE> 2 8.053805e-01
<MEAN> 39
 4.396381e+00 1.225600e+00 2.856014e+00 -3.792759e+00 2.820585e+00 -1.272653e+01 -5.322117e+00 3.167176e+00 1.268687e+00 -9.455642e+00 -9.210048e+00 -2.233500e+00 -3.346316e+00 2.876414e-01 -6.308609e-01 -4.433730e-01 -3.226090e-01 -4.286184e-02 -4.574343e-01 -3.204456e-01 -7.299151e-02 -2.599525e-01 -2.823628e-01 1.391866e-01 3.561109e-01 3.454685e-01 -6.750561e-02 -1.162746e-02 1.237477e-02 2.870091e-02 6.504096e-02 1.144096e-01 8.128327e-02 -4.027168e-02 -3.122595e-02 5.562960e-02 8.806919e-02 2.472930e-02 -1.062904e-03
<VARIANCE> 39
 1.944702e+01 3.587886e+01 6.082645e+01 6.991737e+01 1.219374e+02 9.673206e+01 7.836974e+01 8.052516e+01 1.322540e+02 4.981785e+01 5.105848e+01 4.343625e+01 3.786251e+01 5.541355e-01 8.844272e-01 9.491485e-01 1.150905e+00 1.747212e+00 2.550538e+00 2.121800e+00 1.824782e+00 1.929237e+00 1.677768e+00 1.545791e+00 1.383319e+00 1.135155e+00 7.163376e-02 9.474637e-02 1.252491e-01 1.464095e-01 1.873189e-01 2.904336e-01 2.673640e-01 2.545501e-01 2.607322e-01 2.278862e-01 2.170942e-01 1.927576e-01 1.573824e-01
<GCONST> 1.066855e+02
<TRANSP> 5
 0.000000e+00 1.000000e+00 0.000000e+00 0.000000e+00 0.000000e+00
 0.000000e+00 8.028211e-01 1.971789e-01 0.000000e+00 0.000000e+00
 0.000000e+00 0.000000e+00 7.450444e-01 2.549556e-01 0.000000e+00
 0.000000e+00 0.000000e+00 0.000000e+00 7.210643e-01 2.789357e-01
 0.000000e+00 0.000000e+00 0.000000e+00 0.000000e+00 0.000000e+00
<ENDHMM>
~o
<STREAMINFO> 1 39
<VECSIZE> 39<NULLD><MFCC_D_A><DIAGC>
~h "y"
<BEGINHMM>
<NUMSTATES> 5
<STATE> 2
<NUMMIXES> 2
<MIXTURE> 1 6.133313e-01
<MEAN> 39
 -2.308406e+00 -4.584239e+00 1.111768e+01 8.869114e+00 1.576329e+01 -9.398155e+00 -8.008067e+00 -3.117624e+00 -4.223686e+00 -6.911678e+00 -3.391389e+00 -2.517147e+00 -5.197411e+00 1.546320e-01 -6.440208e-02 3.045837e-02 1.544583e-01 1.335256e-01 -2.027172e-01 -3.568246e-01 -6.612948e-02 -8.922394e-02 -1.042521e-01 -3.523714e-02 -7.985779e-02 -7.679191e-02 -2.932292e-03 1.140568e-02 -6.157020e-02 -7.051881e-02 -4.148034e-02 1.935650e-02 3.050711e-02 -1.737864e-03 8.469784e-03 1.685262e-02 2.669646e-02 2.736861e-02 1.883205e-02
<VARIANCE> 39
 5.005266e+01 5.651410e+01 9.461588e+01 8.048438e+01 1.335511e+02 1.323892e+02 8.911904e+01 8.111054e+01 5.627110e+01 6.071637e+01 5.233852e+01 4.952425e+01 3.685054e+01 1.255621e+00 1.490612e+00 1.787753e+00 1.760870e+00 1.781252e+00 2.345890e+00 2.525993e+00 2.046912e+00 1.848821e+00 1.872533e+00 1.544133e+00 1.383757e+00 1.164086e+00 1.321307e-01 1.974121e-01 2.100339e-01 2.301527e-01 2.485082e-01 3.130434e-01 3.472858e-01 3.073834e-01 2.851095e-01 2.872767e-01 2.453697e-01 2.144517e-01 1.839702e-01
<GCONST> 1.152250e+02
<MIXTURE> 2 3.866687e-01
<MEAN> 39
 1.077002e+01 -1.956420e+01 1.628934e+01 2.477308e+01 -1.067274e+01 -2.976494e-01 -1.631964e+01 -1.125875e+01 8.065402e+00 -1.447605e+01 -1.309809e+01 -1.712498e+00 -8.394070e+00 6.742813e-02 -9.836404e-02 -1.169972e-01 -9.043243e-02 -7.185069e-02 -4.700645e-02 -1.383417e-01 -1.586409e-01 -4.520181e-02 8.582173e-02 1.406730e-01 1.323300e-02 -1.787742e-02 1.718775e-02 -1.453367e-03 -6.490878e-02 -5.673794e-02 8.897717e-03 2.129654e-02 3.349083e-04 -4.583070e-02 -3.346105e-02 4.537795e-02 5.137637e-02 4.648509e-03 -1.070770e-02
<VARIANCE> 39
 4.835891e+00 1.564970e+01 1.978276e+01 2.057377e+01 2.182557e+01 2.436750e+01 2.886898e+01 3.342552e+01 2.415036e+01 3.267395e+01 2.042847e+01 2.264841e+01 1.821476e+01 1.990445e-01 2.737281e-01 3.442593e-01 4.312418e-01 5.640050e-01 5.272828e-01 3.877100e-01 4.964686e-01 5.398856e-01 5.405872e-01 4.196366e-01 3.762387e-01 3.816764e-01 2.946622e-02 3.539984e-02 2.297077e-02 5.282143e-02 8.965132e-02 8.030171e-02 5.395827e-02 6.092423e-02 8.503931e-02 7.202144e-02 5.072999e-02 5.755227e-02 6.090007e-02
<GCONST> 6.119115e+01
<STATE> 3
<NUMMIXES> 2
<MIXTURE> 1 8.477001e-01
<MEAN> 39
 -1.012294e+00 -6.274860e+00 1.037686e+01 7.751307e+00 1.483078e+01 -1.648605e+01 -1.325510e+01 -3.972084e+00 -5.121222e+00 -9.874983e+00 -6.118720e+00 -4.788482e+00 -7.123522e+00 4.858403e-02 -2.196268e-02 -1.337432e-01 -1.382343e-01 -1.827447e-02 -1.417629e-02 -7.339971e-02 -1.131009e-01 -2.305193e-02 6.508264e-02 1.021518e-01 3.569922e-02 2.939087e-02 2.057326e-02 1.232066e-02 -5.657165e-02 -5.466250e-02 -1.175195e-02 2.842792e-02 2.234836e-02 -3.495242e-02 -1.711928e-02 2.548829e-02 2.947848e-02 1.522277e-02 7.697402e-03
<VARIANCE> 39
 1.013086e+01 2.519898e+01 6.006997e+01 7.009358e+01 1.060004e+02 1.444524e+02 4.955552e+01 6.576736e+01 5.432152e+01 7.359424e+01 4.532539e+01 5.424982e+01 3.392097e+01 7.917105e-02 1.544151e-01 4.635922e-01 5.625804e-01 4.243361e-01 5.225101e-01 6.153414e-01 6.885580e-01 6.266710e-01 7.437251e-01 6.381837e-01 5.114569e-01 4.428957e-01 8.482186e-03 1.984520e-02 3.562281e-02 5.174813e-02 6.293889e-02 7.723178e-02 9.164763e-02 9.319132e-02 9.736781e-02 9.965115e-02 8.996496e-02 8.060908e-02 6.843064e-02
<GCONST> 7.478587e+01
<MIXTURE> 2 1.522999e-01
<MEAN> 39
 1.122514e+01 -1.821457e+01 8.097351e+00 1.563552e+01 -9.221150e+00 -3.324693e-01 -1.541777e+01 -1.485233e+01 3.640754e+00 -9.070597e+00 -7.429791e+00 -1.554816e+00 -9.485032e+00 1.054543e-01 1.845544e-01 -4.622880e-01 -5.457512e-01 -1.134138e-01 1.518607e-01 2.386420e-01 -9.928080e-02 -2.519111e-01 2.070821e-01 4.050405e-01 2.815213e-01 8.299591e-02 -2.408683e-02 3.984087e-02 4.154367e-03 -4.511591e-02 -2.143888e-02 1.833430e-02 1.225440e-01 9.319348e-02 -1.508661e-02 -3.712323e-02 -2.794247e-02 2.699457e-02 4.392227e-02
<VARIANCE> 39
 3.565611e+01 6.938580e+01 3.629381e+01 6.484262e+01 1.220384e+02 7.207516e+01 6.563177e+01 5.309036e+01 4.197061e+01 5.159448e+01 4.605800e+01 3.523686e+01 3.629476e+01 5.579562e-01 8.684492e-01 8.744765e-01 1.231378e+00 1.225103e+00 1.395006e+00 1.527804e+00 1.254223e+00 1.273755e+00 1.362590e+00 1.215657e+00 9.711121e-01 9.201766e-01 7.379886e-02 1.161208e-01 8.277985e-02 1.104394e-01 1.839773e-01 2.040990e-01 1.723254e-01 1.731062e-01 1.991193e-01 1.854791e-01 1.485102e-01 1.426759e-01 1.482531e-01
<GCONST> 9.901598e+01
<STATE> 4
<NUMMIXES> 2
<MIXTURE> 1 8.027629e-01
<MEAN> 39
 1.289513e+00 -6.221870e+00 4.242971e+00 3.016023e+00 1.613615e+01 -1.171657e+01 -1.257789e+01 -6.756271e+00 -5.952001e+00 -6.915644e+00 -1.480095e+00 -3.119086e-01 -4.216987e+00 1.994523e-01 2.038026e-01 -5.634429e-01 -7.741763e-01 -4.987913e-01 1.648759e-01 5.243162e-01 8.890467e-02 -9.171314e-02 1.058456e-01 2.262089e-01 3.595200e-01 2.955791e-01 -1.042272e-02 2.715698e-02 3.067890e-02 1.765272e-02 -4.376391e-02 3.405811e-02 9.741144e-02 1.022522e-01 4.693104e-02 -3.902924e-02 -6.204730e-02 -8.120153e-03 -2.203606e-03
<VARIANCE> 39
 1.543829e+01 3.044994e+01 5.761320e+01 7.233492e+01 1.086406e+02 1.252150e+02 5.898610e+01 7.234385e+01 4.932032e+01 6.346940e+01 5.479552e+01 6.366541e+01 4.712332e+01 2.310227e-01 5.383487e-01 8.093863e-01 1.143275e+00 1.188421e+00 1.417387e+00 1.594681e+00 1.732608e+00 1.580790e+00 1.649362e+00 1.482396e+00 1.220962e+00 1.104640e+00 2.691032e-02 6.783244e-02 9.121351e-02 1.264381e-01 1.580149e-01 1.968948e-01 2.244713e-01 2.415991e-01 2.303529e-01 2.360888e-01 2.040480e-01 1.874115e-01 1.538517e-01
<GCONST> 9.992728e+01
<MIXTURE> 2 1.972371e-01
<MEAN> 39
 1.387165e+01 -1.670247e+01 1.266161e+01 1.576248e+01 -1.153514e+01 -5.778885e+00 -1.939994e+01 -7.112694e+00 1.100973e+00 -2.136398e+01 -5.727324e+00 -1.510022e+00 -1.535162e+01 7.867756e-02 3.106927e-02 -2.179507e-01 -2.270302e-01 -2.512862e-02 8.891691e-02 6.232560e-02 -8.276612e-02 -9.918517e-02 9.684563e-02 1.735037e-01 8.576907e-02 -8.545742e-03 6.789477e-03 1.940672e-02 -3.063483e-02 -4.114077e-02 7.794187e-03 5.736089e-02 4.901700e-02 -8.327333e-03 -1.511931e-02 2.495053e-02 1.157886e-02 2.133804e-04 -5.552930e-04
<VARIANCE> 39
 9.359714e+00 1.991857e+01 4.405804e+01 5.262608e+01 3.356018e+01 3.824351e+01 3.334818e+01 4.123293e+01 2.910109e+01 7.282864e+01 4.878345e+01 2.418429e+01 2.481315e+01 3.776092e-01 5.471804e-01 6.694994e-01 8.168774e-01 7.260966e-01 9.270895e-01 8.498899e-01 5.719833e-01 7.703868e-01 9.480683e-01 7.314610e-01 4.790990e-01 5.047452e-01 6.415616e-02 9.384398e-02 6.424739e-02 7.544947e-02 1.188044e-01 1.416856e-01 1.124822e-01 8.329971e-02 1.183750e-01 1.228171e-01 8.291908e-02 7.406373e-02 8.252198e-02
<GCONST> 8.062209e+01
<TRANSP> 5
 0.000000e+00 1.000000e+00 0.000000e+00 0.000000e+00 0.000000e+00
 0.000000e+00 7.816239e-01 2.183760e-01 0.000000e+00 0.000000e+00
 0.000000e+00 0.000000e+00 8.649362e-01 1.350638e-01 0.000000e+00
 0.000000e+00 0.000000e+00 0.000000e+00 8.194346e-01 1.805654e-01
 0.000000e+00 0.000000e+00 0.000000e+00 0.000000e+00 0.000000e+00
<ENDHMM>
~o
<STREAMINFO> 1 39
<VECSIZE> 39<NULLD><MFCC_D_A><DIAGC>
~h "z"
<BEGINHMM>
<NUMSTATES> 5
<STATE> 2
<NUMMIXES> 2
<MIXTURE> 1 5.390899e-01
<MEAN> 39
 -8.927572e+00 -1.655627e+00 2.465126e+01 -1.059451e+01 1.959505e+01 -1.141023e+00 4.166790e+00 -9.849583e+00 -5.041904e+00 -7.838060e+00 -3.385255e+00 -2.576934e+00 -1.842604e+00 -2.121503e+00 3.752636e-01 1.843938e+00 -8.806815e-01 2.902041e-01 7.717245e-01 8.211508e-01 1.783182e-01 6.244653e-01 3.765956e-01 4.812220e-01 -1.920286e-01 2.241069e-01 1.258557e-01 -1.102005e-01 -4.339898e-01 3.144662e-01 -5.878097e-03 -1.910162e-01 -1.487445e-01 2.986628e-01 5.314440e-04 -2.231639e-02 1.539114e-01 1.073802e-01 -1.055555e-01
<VARIANCE> 39
 2.250146e+01 3.961152e+01 3.730954e+01 6.716590e+01 5.429071e+01 7.379981e+01 9.216040e+01 6.056909e+01 3.559595e+01 3.254708e+01 2.673162e+01 2.478441e+01 2.647566e+01 1.301591e+00 1.100900e+00 1.838144e+00 1.813436e+00 2.044886e+00 1.794671e+00 1.793198e+00 1.966141e+00 2.064132e+00 1.697608e+00 1.642858e+00 1.381511e+00 1.040558e+00 1.058283e-01 1.467268e-01 2.159100e-01 2.371324e-01 2.482245e-01 3.052190e-01 3.088249e-01 3.019618e-01 2.931729e-01 3.238649e-01 3.133753e-01 2.672859e-01 1.912964e-01
<GCONST> 1.077059e+02
<MIXTURE> 2 4.609102e-01
<MEAN> 39
 2.131881e+00 -4.091248e+00 1.039102e+01 -4.361916e+00 1.618171e+01 -9.305649e+00 -8.330879e-01 -5.331741e+00 -6.924067e+00 -9.015696e+00 -1.928277e+00 2.000642e-01 -3.198244e+00 -9.902689e-01 3.240987e-01 1.593672e+00 -6.121914e-01 2.547171e-01 1.338437e+00 6.775810e-01 -8.212346e-01 -1.138588e-01 -5.509533e-02 -3.272724e-01 -3.388629e-01 2.303332e-01 -3.335612e-01 2.059505e-02 3.163781e-01 -2.043021e-01 -1.452275e-02 8.909913e-02 1.159306e-01 2.583272e-02 1.579833e-01 1.030148e-01 8.258770e-03 -5.233222e-02 7.888979e-02
<VARIANCE> 39
 2.302140e+01 3.906536e+01 6.044322e+01 6.517175e+01 7.278001e+01 9.339597e+01 9.381213e+01 7.487397e+01 7.258064e+01 6.084424e+01 4.334065e+01 3.875650e+01 4.196025e+01 1.480227e+00 1.033990e+00 2.413465e+00 1.506230e+00 2.094826e+00 2.631064e+00 2.704782e+00 1.805400e+00 2.056296e+00 2.310281e+00 1.851445e+00 1.529307e+00 1.249196e+00 1.255789e-01 1.240795e-01 2.065368e-01 1.914335e-01 2.245868e-01 3.018039e-01 2.700584e-01 2.590303e-01 2.997634e-01 3.087113e-01 2.768159e-01 2.081734e-01 1.833615e-01
<GCONST> 1.121519e+02
<STATE> 3
<NUMMIXES> 2
<MIXTURE> 1 5.598496e-01
<MEAN> 39
 -1.848320e+01 -5.775042e+00 3.109237e+01 -8.191649e+00 1.589784e+01 6.816070e+00 1.235986e+01 -4.443941e+00 -2.432583e+00 -4.774042e+00 4.350462e-01 -1.953780e+00 -1.129965e+00 -9.088182e-01 -4.079465e-01 1.092133e-01 1.958814e-02 -4.799489e-02 1.554929e-01 2.532028e-01 2.110032e-01 3.180794e-01 4.317602e-01 4.862533e-01 2.473290e-01 2.559584e-02 1.786329e-01 -5.866774e-02 -1.756625e-01 -1.932411e-03 2.941047e-02 -1.027651e-01 -7.678197e-02 -6.640401e-02 2.407943e-02 1.262867e-02 -3.465000e-02 -2.332905e-02 1.027465e-02
<VARIANCE> 39
 2.574668e+01 2.375285e+01 2.171848e+01 3.316225e+01 4.576192e+01 5.290707e+01 4.335737e+01 4.329164e+01 2.820494e+01 2.351995e+01 2.394534e+01 1.854671e+01 1.202538e+01 6.619219e-01 4.280712e-01 6.257103e-01 6.719022e-01 7.682621e-01 8.565978e-01 9.187981e-01 1.156699e+00 1.037919e+00 1.040209e+00 1.013879e+00 8.432182e-01 6.722108e-01 4.434707e-02 5.183128e-02 1.033715e-01 1.178171e-01 1.452036e-01 1.615201e-01 1.669566e-01 1.962615e-01 1.887165e-01 1.871352e-01 1.850921e-01 1.647854e-01 1.380183e-01
<GCONST> 8.565185e+01
<MIXTURE> 2 4.401504e-01
<MEAN> 39
 -1.841714e+01 2.596035e+00 2.501496e+01 -1.275869e+01 2.624217e+01 -1.120361e+00 1.296760e+00 -6.315625e+00 -1.119072e+00 -6.943930e+00 -1.202404e+00 -3.791531e+00 -1.805297e+00 -9.569336e-01 -6.060006e-01 -3.444090e-01 1.087151e-02 6.297769e-02 2.966060e-01 3.616555e-01 6.610696e-01 6.874753e-01 1.793136e-01 1.909510e-02 -2.739996e-01 -5.332054e-02 2.405417e-01 -1.295179e-01 -2.050142e-01 -4.281110e-02 -2.345788e-01 -1.498508e-01 -1.018207e-01 -2.023607e-01 -1.244857e-01 -9.951559e-03 -3.201131e-02 8.983344e-02 1.315833e-02
<VARIANCE> 39
 1.689928e+01 1.847853e+01 2.000466e+01 3.714222e+01 4.182048e+01 6.278592e+01 3.642871e+01 4.516869e+01 2.637182e+01 3.158890e+01 1.750183e+01 1.842689e+01 1.601822e+01 9.364992e-01 6.371070e-01 1.043149e+00 1.084357e+00 1.313843e+00 1.269745e+00 1.455699e+00 1.693198e+00 1.409318e+00 1.177447e+00 1.115568e+00 9.655463e-01 8.870695e-01 5.940401e-02 8.438151e-02 1.479740e-01 1.828556e-01 1.928869e-01 2.167236e-01 2.595851e-01 2.767829e-01 2.719425e-01 2.421030e-01 2.313215e-01 1.910392e-01 1.672150e-01
<GCONST> 9.372543e+01
<STATE> 4
<NUMMIXES> 2
<MIXTURE> 1 5.049636e-01
<MEAN> 39
 -2.355884e+01 -8.824445e+00 2.307486e+01 -1.303684e+01 1.610581e+01 1.484787e+00 7.339163e+00 -4.992721e+00 9.263896e-01 -1.936997e+00 2.987766e+00 -1.207018e+00 2.443658e-01 5.343913e-01 -3.984361e-01 -6.487166e-01 -8.174723e-02 -3.578504e-01 -4.024816e-01 -1.992221e-01 -5.827110e-01 -5.643440e-02 3.452697e-02 9.043501e-02 1.168424e-01 2.038719e-01 4.565057e-01 2.115878e-01 -1.727126e-02 2.005471e-01 4.266532e-02 -1.838948e-02 -6.190528e-02 -1.162095e-01 -1.857900e-01 -1.915583e-01 -1.749138e-01 -4.143088e-02 -2.250198e-02
<VARIANCE> 39
 2.846021e+01 4.268058e+01 6.834901e+01 4.925886e+01 6.129305e+01 5.894767e+01 8.062167e+01 3.833918e+01 3.236430e+01 2.843988e+01 2.662869e+01 2.139186e+01 1.555304e+01 1.681326e+00 7.866152e-01 1.056975e+00 1.469634e+00 1.434706e+00 1.414104e+00 1.504177e+00 1.705967e+00 1.536880e+00 1.528798e+00 1.378949e+00 1.174184e+00 9.828086e-01 1.173032e-01 1.127387e-01 2.080075e-01 2.067524e-01 2.515099e-01 2.653250e-01 2.835548e-01 3.164275e-01 3.104947e-01 2.838049e-01 2.514344e-01 2.218066e-01 1.922758e-01
<GCONST> 1.031779e+02
<MIXTURE> 2 4.950365e-01
<MEAN> 39
 -9.864877e+00 -4.091880e+00 1.878163e+01 -7.093465e+00 1.587574e+01 -1.308838e+00 4.461235e+00 -6.335513e+00 -2.748482e+00 -5.624568e+00 -9.254656e-01 -1.023431e+00 -1.038070e+00 1.957182e+00 3.816161e-01 -1.184381e+00 8.560657e-01 -3.961812e-01 -5.392466e-01 -8.208867e-01 9.776998e-02 -5.931669e-01 -3.676675e-01 -3.588605e-01 2.168240e-01 -1.652982e-01 -3.134300e-02 -6.788544e-02 -1.447807e-01 -1.675620e-02 -7.493818e-03 -1.418621e-01 -5.978137e-02 1.940090e-01 1.630411e-02 3.447248e-02 7.984941e-02 6.398750e-02 -5.127962e-02
<VARIANCE> 39
 6.912843e+01 6.358500e+01 6.736912e+01 8.209014e+01 6.683329e+01 7.318974e+01 8.585719e+01 8.629828e+01 4.583240e+01 5.105610e+01 3.480470e+01 3.223140e+01 2.585526e+01 3.054360e+00 2.429903e+00 3.188124e+00 2.240997e+00 2.825211e+00 3.553311e+00 3.233501e+00 3.656547e+00 3.209763e+00 2.811360e+00 2.099130e+00 1.920749e+00 1.434111e+00 3.234074e-01 3.267632e-01 4.444118e-01 3.540240e-01 3.768195e-01 4.632737e-01 5.186566e-01 5.557170e-01 4.630866e-01 4.275510e-01 3.419479e-01 3.256933e-01 2.528766e-01
<GCONST> 1.245489e+02
<TRANSP> 5
 0.000000e+00 1.000000e+00 0.000000e+00 0.000000e+00 0.000000e+00
 0.000000e+00 8.571914e-01 1.428086e-01 0.000000e+00 0.000000e+00
 0.000000e+00 0.000000e+00 8.630787e-01 1.369214e-01 0.000000e+00
 0.000000e+00 0.000000e+00 0.000000e+00 8.849665e-01 1.150335e-01
 0.000000e+00 0.000000e+00 0.000000e+00 0.000000e+00 0.000000e+00
<ENDHMM>
~o
<STREAMINFO> 1 39
<VECSIZE> 39<NULLD><MFCC_D_A><DIAGC>
~h "zh"
<BEGINHMM>
<NUMSTATES> 5
<STATE> 2
<NUMMIXES> 2
<MIXTURE> 1 7.341353e-01
<MEAN> 39
 4.887143e+00 2.139380e+00 -7.914712e+00 -5.783082e+00 2.140955e+01 -2.044691e+00 -1.384266e+01 1.859153e+00 -6.047198e+00 -1.386634e+01 -9.618414e+00 4.461095e+00 -1.018632e+00 -7.591853e-02 -1.968097e-01 1.053757e-01 3.576001e-01 2.364531e-01 3.664770e-02 4.155239e-02 -1.189187e-02 -2.856652e-01 -4.295570e-02 -9.306613e-02 4.098156e-02 6.505080e-02 -1.934859e-02 -4.874938e-02 7.272756e-02 6.250372e-02 -9.894514e-02 -6.073312e-02 9.122343e-03 -1.496598e-02 7.297342e-02 6.592902e-02 3.998383e-03 -1.069868e-02 -1.708803e-02
<VARIANCE> 39
 5.327863e+00 2.437896e+01 2.749015e+01 6.706593e+01 8.274664e+01 8.653304e+01 4.366957e+01 6.283707e+01 5.651939e+01 4.305286e+01 5.824671e+01 3.972174e+01 2.849816e+01 9.216410e-02 4.600426e-01 5.674955e-01 8.865093e-01 1.178694e+00 1.407540e+00 1.488677e+00 1.279991e+00 1.449126e+00 1.417415e+00 1.171068e+00 1.110323e+00 8.257396e-01 1.327293e-02 4.125857e-02 6.449544e-02 9.685961e-02 1.356318e-01 1.672463e-01 2.057487e-01 1.906716e-01 1.924750e-01 2.124456e-01 1.726134e-01 1.635137e-01 1.220780e-01
<GCONST> 8.936711e+01
<MIXTURE> 2 2.658647e-01
<MEAN> 39
 1.705545e+01 -1.458343e+01 -4.788292e+00 7.942083e+00 -1.522440e+00 7.465273e+00 -1.619540e+01 -1.863953e+01 -6.279111e-01 -9.858485e+00 -5.456576e+00 1.869879e+00 -7.184996e+00 -7.937652e-02 3.050948e-02 8.776379e-02 5.580111e-01 4.838177e-01 -2.062776e-01 -4.611925e-01 -2.893597e-01 3.589621e-02 1.545559e-01 -2.393416e-01 -2.842374e-01 -4.845247e-02 -1.721848e-02 -3.386461e-02 4.816813e-02 -6.884669e-03 -1.261253e-01 -5.601386e-02 9.131192e-02 1.219351e-01 3.747341e-02 -4.624905e-02 -3.342948e-02 7.993671e-03 1.586362e-02
<VARIANCE> 39
 3.767361e+00 2.563394e+01 1.379857e+01 4.714874e+01 3.926851e+01 5.162164e+01 4.244207e+01 3.663451e+01 3.536260e+01 4.631195e+01 3.062489e+01 2.600926e+01 2.514284e+01 2.280836e-01 5.158670e-01 3.140047e-01 6.176766e-01 9.787139e-01 9.803835e-01 9.113042e-01 8.707858e-01 8.124372e-01 8.960512e-01 8.740664e-01 6.494099e-01 6.525871e-01 3.427848e-02 4.644200e-02 4.006559e-02 6.081952e-02 1.115437e-01 1.184049e-01 1.008259e-01 9.838729e-02 1.141438e-01 1.153525e-01 8.597761e-02 9.175646e-02 9.417637e-02
<GCONST> 7.669657e+01
<STATE> 3
<NUMMIXES> 2
<MIXTURE> 1 6.106323e-01
<MEAN> 39
 2.627383e+00 -3.328188e-02 -3.748343e+00 -1.371225e+00 1.632261e+01 -1.977286e+01 -1.080423e+01 -8.847823e+00 -1.209621e+01 -8.395319e+00 -5.147882e+00 -5.741951e+00 -8.959232e+00 -1.459129e-01 -1.294249e-01 4.672643e-01 3.664239e-01 -1.694360e-01 1.802493e-01 -1.003142e-02 -1.883102e-01 5.977697e-02 -1.565655e-02 -1.373658e-01 -8.617408e-02 1.324750e-02 -1.273065e-02 -4.933981e-03 3.844075e-02 -2.333957e-02 -6.124602e-02 1.773652e-02 3.496638e-02 6.087421e-02 2.355525e-02 -4.996859e-02 1.102557e-02 1.143766e-02 -1.201167e-02
<VARIANCE> 39
 7.131498e+00 1.916384e+01 4.037601e+01 7.967744e+01 6.378892e+01 1.449772e+02 3.574291e+01 5.395429e+01 4.574075e+01 5.020807e+01 4.716576e+01 5.353550e+01 3.928781e+01 1.118058e-01 4.548897e-01 7.267480e-01 1.158176e+00 1.221921e+00 1.723668e+00 1.205333e+00 1.317295e+00 1.376193e+00 1.355264e+00 1.221624e+00 1.012632e+00 8.331975e-01 1.563603e-02 5.010351e-02 8.745769e-02 1.103259e-01 1.634265e-01 2.083151e-01 1.797457e-01 1.963928e-01 2.082642e-01 2.101845e-01 1.808329e-01 1.630495e-01 1.305491e-01
<GCONST> 9.211616e+01
<MIXTURE> 2 3.893676e-01
<MEAN> 39
 1.521276e+01 -1.631444e+01 -1.398729e+00 1.952012e+01 2.553832e+00 -1.463702e-01 -1.789284e+01 -1.531498e+01 -7.928579e-02 -9.814435e+00 -8.666288e+00 -2.097403e+00 -7.915416e+00 -7.482442e-02 -1.203628e-01 2.307948e-01 1.614284e-01 -2.785576e-01 -1.037199e-01 3.798297e-02 -2.072998e-02 2.614075e-02 -3.835056e-02 -5.141103e-02 1.471500e-02 -1.942600e-02 7.141334e-03 -4.574780e-02 7.316360e-02 -5.840259e-02 -1.682438e-01 5.507292e-02 3.209918e-02 -1.862527e-02 1.543135e-02 -3.376555e-02 6.787502e-02 5.094212e-02 -5.402673e-02
<VARIANCE> 39
 4.437923e+00 1.452506e+01 1.613049e+01 4.929388e+01 3.077318e+01 4.847517e+01 2.567467e+01 2.472705e+01 2.883343e+01 2.902913e+01 2.266002e+01 2.111799e+01 2.139143e+01 2.433688e-01 4.292646e-01 5.229492e-01 7.927471e-01 1.200769e+00 1.270838e+00 8.146505e-01 7.039821e-01 1.001648e+00 8.437114e-01 8.832946e-01 6.889045e-01 7.244457e-01 4.282600e-02 5.212272e-02 5.096160e-02 7.037621e-02 1.458704e-01 1.439337e-01 1.062883e-01 1.082821e-01 1.495958e-01 1.366394e-01 1.131081e-01 1.041868e-01 1.066806e-01
<GCONST> 7.735377e+01
<STATE> 4
<NUMMIXES> 2
<MIXTURE> 1 6.181160e-01
<MEAN> 39
 4.163145e-01 -7.192243e-01 1.504933e+00 4.080386e+00 8.689758e+00 -2.209710e+00 -8.551415e+00 -5.963501e+00 -4.990359e+00 -7.665479e+00 -7.719171e+00 -3.700639e-01 -4.416567e+00 -5.004721e-01 8.228012e-02 4.125083e-01 3.336501e-01 -4.232062e-01 1.546061e-01 1.812693e-01 1.156408e-01 3.353596e-01 3.076648e-01 1.183567e-01 9.636662e-02 5.616627e-02 7.812032e-03 -1.976481e-04 -6.546331e-02 -4.698921e-02 4.629535e-02 -7.337303e-02 -6.780560e-02 4.221534e-02 -4.110806e-04 -5.018643e-02 2.655437e-02 1.620116e-02 -1.886141e-02
<VARIANCE> 39
 5.969765e+01 7.513320e+01 7.961944e+01 8.886404e+01 1.472384e+02 1.228504e+02 6.202723e+01 9.767989e+01 6.551953e+01 5.888768e+01 5.247345e+01 5.046167e+01 4.808280e+01 7.615209e-01 1.943767e+00 2.622942e+00 2.115026e+00 2.391328e+00 3.290546e+00 2.733212e+00 2.209290e+00 2.233430e+00 2.359130e+00 1.924357e+00 1.725360e+00 1.455066e+00 1.112114e-01 2.630519e-01 3.476148e-01 3.057158e-01 3.833373e-01 4.236111e-01 4.397745e-01 3.825040e-01 3.714489e-01 3.848571e-01 3.318847e-01 2.920331e-01 2.517471e-01
<GCONST> 1.216462e+02
<MIXTURE> 2 3.818840e-01
<MEAN> 39
 1.454805e+01 -1.801426e+01 -2.108787e+00 1.011535e+01 -7.594178e+00 3.176183e-01 -1.959707e+01 -1.953342e+01 -2.170406e-01 -1.120571e+01 -9.015535e+00 -2.189662e+00 -1.201738e+01 -9.438436e-02 -1.543282e-01 4.287990e-01 -4.449908e-02 -6.148209e-01 7.542168e-02 9.355174e-02 -1.624886e-02 1.702230e-01 -6.967185e-02 2.701740e-02 3.613418e-02 -1.818081e-01 -2.961453e-02 5.936748e-02 6.366682e-03 -2.475489e-02 4.327833e-02 2.974837e-02 7.509571e-02 4.805370e-02 -1.046405e-02 9.826705e-03 -3.432530e-02 -7.452467e-03 5.790827e-02
<VARIANCE> 39
 6.915932e+00 3.737545e+01 3.321973e+01 5.975489e+01 4.787768e+01 7.523119e+01 5.254977e+01 3.795994e+01 3.174619e+01 3.666025e+01 4.753823e+01 3.732748e+01 3.254433e+01 2.902481e-01 7.258742e-01 6.450955e-01 7.441884e-01 1.452460e+00 1.261768e+00 1.085591e+00 9.283151e-01 9.895251e-01 9.418508e-01 9.069142e-01 8.140970e-01 8.135214e-01 4.795389e-02 8.040007e-02 6.187719e-02 7.966037e-02 1.709505e-01 1.552675e-01 1.344010e-01 1.322209e-01 1.388990e-01 1.488116e-01 1.188462e-01 1.172127e-01 1.229012e-01
<GCONST> 8.759919e+01
<TRANSP> 5
 0.000000e+00 1.000000e+00 0.000000e+00 0.000000e+00 0.000000e+00
 0.000000e+00 8.399430e-01 1.600570e-01 0.000000e+00 0.000000e+00
 0.000000e+00 0.000000e+00 7.968834e-01 2.031166e-01 0.000000e+00
 0.000000e+00 0.000000e+00 0.000000e+00 7.760527e-01 2.239473e-01
 0.000000e+00 0.000000e+00 0.000000e+00 0.000000e+00 0.000000e+00
<ENDHMM>
