~o
<STREAMINFO> 1 39
<VECSIZE> 39<NULLD><MFCC_D_A><DIAGC>
~h "kh"
<BEGINHMM>
<NUMSTATES> 5
<STATE> 2
<NUMMIXES> 2
<MIXTURE> 1 4.230597e-01
<MEAN> 39
 -9.768888e+00 8.231947e+00 3.957747e+00 3.395489e+00 4.549700e+00 -3.590443e+00 2.165569e+00 -2.168592e-01 1.973650e+00 -9.896510e-01 -2.868546e+00 8.843656e-01 -3.858999e+00 -5.947025e-01 -2.352229e-02 -5.395262e-02 1.310360e-01 1.563096e-01 3.215905e-01 2.103919e-01 -7.312240e-03 2.032452e-01 1.730127e-01 -1.222745e-02 1.429563e-01 1.523486e-01 1.679448e-02 -1.472217e-01 4.371897e-02 -9.136492e-02 5.160680e-02 2.224091e-02 4.262184e-02 2.946235e-02 -8.137890e-02 -1.021280e-02 7.184295e-02 -3.852105e-02 1.519349e-02
<VARIANCE> 39
 5.404128e+01 4.494806e+01 3.596176e+01 5.257806e+01 5.713919e+01 8.164199e+01 4.924776e+01 4.284559e+01 3.816787e+01 3.330965e+01 3.642626e+01 3.750080e+01 3.482688e+01 3.042853e-01 5.930216e-01 7.173772e-01 9.381679e-01 1.070026e+00 1.166367e+00 1.244164e+00 1.382040e+00 1.458223e+00 1.267062e+00 1.312173e+00 1.179211e+00 1.028103e+00 4.940700e-02 1.549190e-01 1.421588e-01 1.923475e-01 2.031849e-01 2.469673e-01 2.433661e-01 2.716425e-01 2.916843e-01 2.606503e-01 2.661824e-01 2.424861e-01 2.084585e-01
<GCONST> 9.970544e+01
<MIXTURE> 2 5.769403e-01
<MEAN> 39
 -5.887882e+00 3.250324e+00 8.020040e+00 2.212474e+00 9.688855e+00 -5.233762e+00 -5.223609e-01 -1.774406e+00 -1.545048e+00 -3.224751e+00 -1.678731e+00 -1.277915e+00 -4.007307e+00 -9.235646e-01 2.269177e-01 -2.897109e-01 4.610164e-02 -1.672824e-01 5.870015e-01 4.888469e-01 -2.759875e-01 2.716637e-01 3.494815e-01 -4.853543e-03 1.413927e-01 1.527594e-01 1.367801e-02 -2.279089e-01 -1.390801e-01 -2.083076e-01 1.288443e-02 -1.043056e-01 1.083208e-01 1.297475e-02 1.561422e-02 -4.531718e-02 4.168750e-02 2.136371e-02 2.720286e-02
<VARIANCE> 39
 4.969200e+01 6.937912e+01 6.054622e+01 8.884654e+01 1.250655e+02 8.514791e+01 8.039082e+01 6.166173e+01 5.519420e+01 4.834463e+01 5.236820e+01 4.413068e+01 4.221642e+01 1.127161e+00 2.679407e+00 2.666263e+00 2.643291e+00 2.927025e+00 3.127334e+00 3.656608e+00 2.904965e+00 2.963666e+00 2.767128e+00 2.344274e+00 2.071927e+00 1.703942e+00 1.995469e-01 6.237921e-01 4.855023e-01 6.064800e-01 5.487732e-01 5.863210e-01 7.433108e-01 5.646443e-01 5.550066e-01 5.556245e-01 4.801678e-01 4.018170e-01 3.436741e-01
<GCONST> 1.282267e+02
<STATE> 3
<NUMMIXES> 2
<MIXTURE> 1 4.455453e-01
<MEAN> 39
 -1.317605e+01 3.882361e+00 5.321622e+00 3.623747e+00 8.793180e+00 -1.291281e+00 3.267688e+00 -1.362469e+00 1.648077e+00 -8.582280e-01 -1.864529e+00 4.647807e-01 -2.664546e+00 -4.771755e-03 -3.075683e+00 -1.336667e+00 -2.356671e+00 -3.177380e-01 -2.151989e-01 1.246417e+00 1.437314e-01 -3.787163e-01 -1.999082e-01 8.755332e-01 -1.258564e-01 5.129982e-01 4.526431e-01 -9.124501e-01 -3.935037e-01 -8.984156e-01 -3.238991e-01 -2.937258e-01 4.283249e-02 -7.532015e-02 -3.063441e-01 -1.745412e-01 2.642115e-01 -1.136794e-01 1.614294e-01
<VARIANCE> 39
 3.199711e+01 6.722755e+01 2.955313e+01 5.927147e+01 6.957617e+01 5.665085e+01 5.291276e+01 5.367527e+01 3.724757e+01 3.548510e+01 3.396881e+01 3.098239e+01 2.759877e+01 2.645555e+00 8.897854e+00 3.919803e+00 7.917122e+00 5.782217e+00 6.378231e+00 5.639779e+00 4.213850e+00 4.136934e+00 3.839652e+00 3.516490e+00 2.904813e+00 2.649400e+00 2.873935e-01 1.091321e+00 4.595255e-01 7.347119e-01 6.604601e-01 6.917469e-01 6.764961e-01 6.314117e-01 6.009286e-01 5.582500e-01 5.285838e-01 4.492599e-01 3.958955e-01
<GCONST> 1.326108e+02
<MIXTURE> 2 5.544547e-01
<MEAN> 39
 -9.875643e+00 -9.579840e+00 -1.895453e+00 -1.172780e+01 6.309956e+00 -4.886848e+00 7.732522e+00 -2.489227e+00 -3.120092e+00 -3.066066e+00 2.817509e+00 -1.387596e+00 2.207927e-01 4.337703e-01 -1.508847e+00 -3.097773e-01 -2.333249e+00 -5.640061e-01 -9.292451e-01 6.001058e-01 -4.771994e-01 -5.178612e-01 -3.859257e-01 7.589447e-01 -8.458286e-03 7.680891e-01 -1.481422e-01 1.095766e+00 7.980937e-01 9.934727e-01 1.305019e-01 6.355710e-02 -3.370485e-01 -2.047444e-02 2.623320e-01 8.518744e-02 -2.809181e-01 1.986976e-01 -1.013798e-01
<VARIANCE> 39
 1.934589e+01 5.034544e+01 3.138940e+01 7.312037e+01 9.110607e+01 7.549409e+01 6.064223e+01 6.652992e+01 4.286586e+01 4.129430e+01 3.224558e+01 2.751458e+01 2.503037e+01 1.898775e+00 8.393780e+00 4.185419e+00 6.824279e+00 3.787186e+00 4.465665e+00 4.062477e+00 3.153435e+00 3.363587e+00 3.133117e+00 3.206020e+00 2.541750e+00 2.128332e+00 3.181033e-01 9.860200e-01 4.831620e-01 7.704432e-01 7.478332e-01 8.760400e-01 7.501451e-01 6.707082e-01 6.006582e-01 5.943370e-01 5.130328e-01 4.505476e-01 4.118083e-01
<GCONST> 1.309908e+02
<STATE> 4
<NUMMIXES> 2
<MIXTURE> 1 2.058754e-01
<MEAN> 39
 -7.156575e-01 -1.199405e+01 8.485677e+00 9.827793e-01 1.285349e+00 -3.529404e+00 -4.767426e-02 -3.318770e+00 1.383598e+00 -7.825639e+00 -2.649397e+00 7.777704e-02 -5.622746e+00 1.229051e+00 8.442466e-01 3.075346e-01 3.260706e-01 -8.259695e-03 -6.955355e-01 -1.045782e+00 -4.627546e-01 -6.667130e-01 -7.349786e-01 -4.529803e-01 -5.735409e-01 -7.293829e-01 -6.637061e-02 -2.219809e-02 -2.371570e-01 -2.411323e-01 -1.388292e-01 -1.813804e-01 -1.083733e-01 -5.004456e-02 -5.733339e-02 8.186464e-02 1.420638e-01 8.558651e-02 1.616993e-01
<VARIANCE> 39
 6.903452e+01 1.401521e+02 5.653945e+01 1.024917e+02 2.465361e+02 2.053333e+02 1.120152e+02 5.458001e+01 6.994012e+01 5.878836e+01 3.572093e+01 5.216540e+01 3.670771e+01 1.853795e+00 3.884613e+00 2.607924e+00 3.057558e+00 3.359008e+00 3.947813e+00 3.338486e+00 2.926894e+00 2.674093e+00 2.880939e+00 2.529303e+00 2.319451e+00 2.190147e+00 2.606906e-01 6.643287e-01 3.997480e-01 4.490288e-01 5.668873e-01 6.200265e-01 5.775850e-01 4.652441e-01 4.477540e-01 4.547015e-01 3.853995e-01 3.487256e-01 3.040237e-01
<GCONST> 1.314142e+02
<MIXTURE> 2 7.941245e-01
<MEAN> 39
 -1.030038e+01 -9.842304e+00 3.707329e+00 -1.100818e+01 6.206442e+00 -7.419498e+00 8.094017e+00 -1.665107e+00 -2.913967e-02 -2.665607e+00 2.854585e+00 1.481180e+00 2.070530e+00 2.120614e-01 -3.185820e-02 3.215178e-01 4.636323e-01 1.419438e-01 1.954353e-02 -1.133696e-01 2.780222e-01 3.156354e-01 1.023762e-01 -1.394591e-01 1.838547e-01 -1.063517e-01 1.020231e-01 7.859468e-02 -1.712584e-02 1.190494e-01 7.600075e-02 3.973212e-02 -4.046439e-02 4.474286e-02 -1.217540e-02 -4.030709e-02 -8.200394e-02 -7.476479e-02 -1.163139e-01
<VARIANCE> 39
 3.035231e+01 4.240799e+01 4.038033e+01 7.142523e+01 7.058284e+01 6.322416e+01 6.972108e+01 5.621615e+01 5.251225e+01 3.646241e+01 3.552462e+01 2.830829e+01 2.060321e+01 8.701440e-01 1.518244e+00 1.693011e+00 1.665948e+00 1.893705e+00 1.865221e+00 1.956583e+00 2.124851e+00 1.904000e+00 1.815202e+00 1.636326e+00 1.536414e+00 1.474591e+00 1.235611e-01 2.679777e-01 2.672487e-01 2.971031e-01 3.373638e-01 3.488348e-01 3.746314e-01 3.798904e-01 3.686730e-01 3.541473e-01 3.140939e-01 2.874023e-01 2.573476e-01
<GCONST> 1.117017e+02
<TRANSP> 5
 0.000000e+00 1.000000e+00 0.000000e+00 0.000000e+00 0.000000e+00
 0.000000e+00 8.594821e-01 1.405179e-01 0.000000e+00 0.000000e+00
 0.000000e+00 0.000000e+00 8.177164e-01 1.822836e-01 0.000000e+00
 0.000000e+00 0.000000e+00 0.000000e+00 9.214607e-01 7.853923e-02
 0.000000e+00 0.000000e+00 0.000000e+00 0.000000e+00 0.000000e+00
<ENDHMM>
