~o
<STREAMINFO> 1 39
<VECSIZE> 39<NULLD><MFCC_D_A><DIAGC>
~h "nn"
<BEGINHMM>
<NUMSTATES> 5
<STATE> 2
<NUMMIXES> 2
<MIXTURE> 1 4.107218e-01
<MEAN> 39
 4.385409e+00 2.182720e+00 4.403735e+00 2.321899e-02 7.865315e+00 -1.302095e+01 -7.732693e+00 -6.449234e+00 -1.187763e+01 -1.069178e+01 -1.543093e+00 -9.181737e+00 -1.564691e+01 9.790409e-02 9.833937e-01 9.224721e-01 7.102072e-01 -1.408005e-01 1.438348e+00 -7.836173e-01 -2.509091e-01 3.305131e-01 -6.153232e-01 -6.267027e-01 -6.518946e-01 -2.152184e-01 -6.076534e-02 -9.393156e-02 -1.342361e-01 -1.470630e-01 -9.832608e-03 -2.745572e-01 3.008547e-02 7.380378e-02 8.570573e-02 6.244637e-02 3.634412e-02 4.645574e-02 4.736094e-02
<VARIANCE> 39
 2.025904e+01 3.707197e+01 3.720787e+01 3.723419e+01 5.098726e+01 7.881161e+01 4.385236e+01 3.317773e+01 3.599455e+01 4.606524e+01 4.991078e+01 3.565866e+01 2.773284e+01 3.484360e-01 8.943216e-01 1.468686e+00 1.829021e+00 1.615401e+00 3.716346e+00 1.891611e+00 2.277257e+00 2.262091e+00 2.200117e+00 2.151503e+00 1.484226e+00 1.725182e+00 4.548072e-02 1.475024e-01 2.460613e-01 2.541615e-01 2.427105e-01 7.651378e-01 3.500141e-01 3.152545e-01 3.518551e-01 3.991556e-01 3.946095e-01 2.409179e-01 2.407316e-01
<GCONST> 1.083159e+02
<MIXTURE> 2 5.892782e-01
<MEAN> 39
 1.287606e+01 -3.927557e+00 1.135009e+01 8.072590e+00 -3.351629e+00 4.708465e+00 -1.604293e+01 -1.428784e+01 -7.346981e+00 -1.885250e+01 -8.221067e+00 -1.196880e+01 -1.632450e+01 -1.004699e-01 2.425894e-01 1.569510e-01 2.511702e-02 5.286655e-02 1.119879e-01 6.930666e-02 2.211593e-02 1.574280e-01 4.672923e-02 -2.275150e-01 1.376125e-03 2.078030e-01 1.888178e-02 -7.509433e-02 -4.072846e-02 1.798423e-03 -8.581293e-02 -6.937509e-03 9.326038e-02 7.192548e-02 5.198463e-02 4.212586e-02 5.635859e-02 9.858311e-02 -6.401900e-03
<VARIANCE> 39
 4.797262e+00 1.570724e+01 1.463155e+01 1.846591e+01 2.193924e+01 2.351669e+01 1.854239e+01 2.604901e+01 2.360864e+01 3.766826e+01 5.190974e+01 2.459714e+01 3.174435e+01 1.829621e-01 6.043262e-01 4.074461e-01 5.303366e-01 5.837616e-01 6.955034e-01 7.786270e-01 6.430801e-01 7.877739e-01 7.910619e-01 7.912941e-01 6.814168e-01 6.192631e-01 3.603362e-02 1.173537e-01 8.619042e-02 1.034240e-01 1.161730e-01 1.522151e-01 1.364076e-01 1.271841e-01 1.519932e-01 1.545813e-01 1.522017e-01 1.156944e-01 1.189992e-01
<GCONST> 7.633339e+01
<STATE> 3
<NUMMIXES> 2
<MIXTURE> 1 3.212584e-01
<MEAN> 39
 8.235277e+00 -4.449848e+00 1.113267e+01 9.525926e+00 -5.754965e+00 7.793997e+00 -9.680770e+00 -9.476789e+00 -1.742215e+00 -1.489309e+01 -5.723916e+00 -4.042285e+00 -1.210997e+01 -6.930118e-01 2.664815e-02 2.480014e-02 -1.310701e-02 -1.998294e-01 3.831712e-01 5.851453e-01 4.007754e-01 5.893770e-01 3.631389e-01 -3.126882e-02 5.181712e-01 3.692157e-01 -3.945926e-02 -3.610919e-02 -4.205880e-02 -2.099510e-02 2.504321e-02 -2.689121e-02 5.264520e-03 3.337106e-02 1.440398e-03 3.889703e-02 4.140095e-02 -1.910875e-02 -2.976285e-03
<VARIANCE> 39
 4.997294e+01 5.356218e+01 3.774347e+01 3.134758e+01 3.697148e+01 4.817309e+01 3.864941e+01 4.196497e+01 4.323074e+01 4.573221e+01 4.394971e+01 4.182460e+01 3.028045e+01 9.471989e-01 2.893756e+00 1.824315e+00 1.676298e+00 2.090056e+00 2.276241e+00 1.792044e+00 2.053608e+00 2.339672e+00 2.163941e+00 1.999550e+00 1.877784e+00 1.523682e+00 1.230501e-01 5.137640e-01 3.079665e-01 2.913468e-01 3.776677e-01 4.167333e-01 3.263465e-01 3.641003e-01 4.289507e-01 3.865193e-01 3.406911e-01 3.292984e-01 2.749895e-01
<GCONST> 1.139661e+02
<MIXTURE> 2 6.787416e-01
<MEAN> 39
 3.358802e+00 7.013754e+00 8.167849e+00 2.159389e-01 6.751740e+00 -1.096778e+01 -1.151248e+01 -5.550204e+00 -9.815330e+00 -1.372539e+01 -6.102776e+00 -1.384935e+01 -1.705315e+01 -6.766830e-02 1.918782e-01 7.699937e-02 4.428291e-02 -3.169515e-02 2.322474e-02 -7.069797e-02 1.657707e-02 1.674288e-01 -6.368770e-02 -1.327675e-01 -6.767855e-03 -9.617919e-03 -2.258530e-02 -8.743462e-03 -3.651672e-02 -1.620773e-02 1.338664e-02 -4.575175e-03 1.083361e-01 -3.702973e-02 -2.939417e-02 2.660061e-02 -1.694250e-03 9.772901e-02 5.509450e-02
<VARIANCE> 39
 2.741932e+00 1.584864e+01 1.712275e+01 2.225842e+01 3.040821e+01 2.368983e+01 3.469450e+01 3.332986e+01 3.449118e+01 3.315914e+01 4.643596e+01 3.336937e+01 2.880879e+01 4.737330e-02 2.555139e-01 2.699696e-01 3.595260e-01 4.323221e-01 4.380755e-01 6.214060e-01 5.899742e-01 6.491419e-01 6.442834e-01 6.281615e-01 6.584191e-01 4.605040e-01 9.708170e-03 4.383009e-02 5.472513e-02 7.534491e-02 8.346536e-02 9.969745e-02 1.257964e-01 1.125605e-01 1.228357e-01 1.266683e-01 1.205817e-01 1.091314e-01 9.097002e-02
<GCONST> 6.763869e+01
<STATE> 4
<NUMMIXES> 2
<MIXTURE> 1 5.154878e-01
<MEAN> 39
 -6.984150e+00 6.497149e+00 6.556408e+00 2.647050e+00 6.021156e+00 -5.873864e+00 -1.361306e+00 -7.526800e+00 -3.775169e+00 -6.785738e+00 -5.693692e+00 -2.751030e+00 -9.611351e+00 -9.040274e-01 -3.326591e-01 -1.716799e-01 -1.586365e-01 -9.176439e-02 3.127397e-01 7.716445e-01 2.176497e-01 5.474209e-01 6.525938e-01 5.266290e-02 5.398946e-01 5.589067e-01 8.274421e-02 -8.866035e-02 -1.309850e-02 -2.906528e-02 -4.261348e-03 -1.601345e-02 -1.024702e-01 4.755658e-02 -3.257538e-02 -6.807803e-02 2.888732e-02 -9.656408e-02 -8.930541e-02
<VARIANCE> 39
 7.205599e+01 7.084997e+01 5.287708e+01 4.099516e+01 3.997215e+01 6.016319e+01 4.140744e+01 3.627940e+01 3.861131e+01 4.113729e+01 4.098186e+01 3.140716e+01 3.220674e+01 1.957626e+00 3.316642e+00 2.544277e+00 2.091575e+00 2.098167e+00 2.397489e+00 2.534554e+00 2.614350e+00 2.349195e+00 2.183203e+00 2.569537e+00 2.002293e+00 1.918661e+00 2.626947e-01 5.752350e-01 4.561187e-01 3.742287e-01 3.641244e-01 4.316036e-01 4.475195e-01 4.657089e-01 4.576414e-01 3.911522e-01 4.720145e-01 3.649854e-01 3.260893e-01
<GCONST> 1.202969e+02
<MIXTURE> 2 4.845122e-01
<MEAN> 39
 1.659384e+00 9.240129e+00 7.288688e+00 2.641127e-01 6.026529e+00 -9.464291e+00 -8.659068e+00 -6.494979e+00 -8.943406e+00 -1.522228e+01 -8.928991e+00 -1.143449e+01 -1.558264e+01 -5.473866e-01 4.762795e-01 -4.508128e-03 1.541771e-01 -4.179639e-02 3.215981e-01 8.753899e-01 -7.701734e-02 4.575265e-01 2.716886e-01 -3.221199e-01 6.866720e-01 4.835405e-01 -1.626220e-01 -1.393127e-01 -1.650401e-02 6.292183e-02 1.800558e-02 1.081662e-02 1.873835e-01 -4.572488e-02 4.971559e-02 1.987943e-01 8.805820e-02 1.425598e-01 1.391056e-01
<VARIANCE> 39
 1.036366e+01 2.090035e+01 1.978998e+01 2.598951e+01 3.278316e+01 2.668572e+01 4.384817e+01 4.107153e+01 3.191705e+01 3.727773e+01 5.542978e+01 3.070818e+01 3.467432e+01 4.385858e-01 9.653773e-01 8.621993e-01 1.048848e+00 1.157606e+00 1.169671e+00 1.780369e+00 1.753468e+00 1.560519e+00 2.109513e+00 1.887841e+00 1.563949e+00 1.269742e+00 5.518827e-02 2.206673e-01 1.538677e-01 1.916827e-01 2.447756e-01 2.424617e-01 3.459028e-01 3.213557e-01 2.623889e-01 3.164133e-01 3.435085e-01 2.559257e-01 2.319945e-01
<GCONST> 9.929592e+01
<TRANSP> 5
 0.000000e+00 1.000000e+00 0.000000e+00 0.000000e+00 0.000000e+00
 0.000000e+00 8.388911e-01 1.611088e-01 0.000000e+00 0.000000e+00
 0.000000e+00 0.000000e+00 8.840160e-01 1.159841e-01 0.000000e+00
 0.000000e+00 0.000000e+00 0.000000e+00 8.636546e-01 1.363454e-01
 0.000000e+00 0.000000e+00 0.000000e+00 0.000000e+00 0.000000e+00
<ENDHMM>
