~o
<STREAMINFO> 1 39
<VECSIZE> 39<NULLD><MFCC_D_A><DIAGC>
~h "ou"
<BEGINHMM>
<NUMSTATES> 7
<STATE> 2
<NUMMIXES> 2
<MIXTURE> 1 0.000000e+00
<MEAN> 39
 2.950430e-05 -1.596659e-05 2.567470e-05 -3.993511e-06 -5.960464e-07 1.929002e-07 -1.204014e-05 8.247793e-06 -1.933426e-06 2.965331e-06 -1.872890e-06 -3.390014e-05 -2.196059e-06 2.152519e-07 -1.188600e-07 -1.470326e-07 2.579764e-07 1.881272e-07 -7.177005e-08 7.529743e-07 5.150214e-07 -5.541369e-08 5.667098e-07 8.731149e-08 2.587331e-08 -1.939479e-07 -6.008020e-02 6.977572e-03 -1.033811e-02 -1.313004e-03 -2.156086e-03 -2.000537e-03 2.022802e-04 5.487027e-04 1.507605e-03 -2.313650e-03 -2.747252e-04 -8.833668e-04 -1.887041e-04
<VARIANCE> 39
 0.000000e+00 0.000000e+00 0.000000e+00 1.138542e-07 1.933426e-06 0.000000e+00 0.000000e+00 4.717149e-07 0.000000e+00 0.000000e+00 0.000000e+00 0.000000e+00 1.194421e-07 0.000000e+00 5.235279e-10 2.760316e-10 0.000000e+00 0.000000e+00 3.660716e-11 1.359149e-08 8.079951e-09 2.454215e-11 0.000000e+00 0.000000e+00 1.390887e-11 0.000000e+00 5.130608e-02 3.996924e-03 4.374815e-03 3.314181e-03 3.503656e-03 3.531398e-03 3.649473e-03 3.541191e-03 3.137489e-03 2.687086e-03 2.360017e-03 1.943796e-03 1.500225e-03
<GCONST> -1.500000e+11
<MIXTURE> 2 1.000000e+00
<MEAN> 39
 -2.109566e+00 -2.413673e+00 4.441372e+00 -5.033609e+00 4.064599e+00 -9.041075e+00 2.120723e+00 1.666117e+00 -1.544265e+00 -5.734269e+00 -1.795594e+00 1.798271e+00 -1.507233e+00 8.018343e-01 -4.207370e-02 -5.034280e-01 -3.660480e-01 -6.864195e-01 -1.055450e+00 -4.266699e-02 6.248215e-01 5.848245e-02 -1.964456e-01 -1.164211e-01 1.088953e-01 2.474803e-03 -4.922288e-02 -3.357781e-02 -1.797564e-02 3.256966e-02 -1.520504e-02 -8.456312e-03 1.929860e-02 5.125577e-02 5.103907e-02 4.064816e-02 1.765215e-04 -3.467243e-02 -5.333835e-03
<VARIANCE> 39
 9.429701e+01 8.186190e+01 6.436120e+01 8.225718e+01 1.169081e+02 1.271517e+02 7.649299e+01 8.636314e+01 8.378101e+01 6.195742e+01 4.175195e+01 3.660329e+01 3.581296e+01 3.612437e+00 3.069255e+00 2.806201e+00 3.606408e+00 3.157744e+00 4.535131e+00 4.197118e+00 3.657338e+00 3.708790e+00 3.017883e+00 2.483088e+00 2.077839e+00 1.774188e+00 4.398997e-01 5.100543e-01 4.769849e-01 5.938483e-01 5.008246e-01 6.689500e-01 6.159760e-01 6.096433e-01 5.536917e-01 5.147039e-01 4.222462e-01 3.637438e-01 3.066834e-01
<GCONST> 1.326735e+02
<STATE> 3
<NUMMIXES> 2
<MIXTURE> 1 0.000000e+00
<MEAN> 39
 0.000000e+00 0.000000e+00 0.000000e+00 0.000000e+00 0.000000e+00 0.000000e+00 0.000000e+00 0.000000e+00 0.000000e+00 0.000000e+00 0.000000e+00 0.000000e+00 0.000000e+00 6.126449e-30 -5.464483e-30 2.270194e-30 -1.821515e-31 4.406674e-31 -1.213802e-30 9.256382e-31 -1.708705e-31 6.429896e-32 -4.287194e-31 4.667875e-31 -1.477681e-31 3.115776e-33 -5.948948e-02 7.116884e-03 -1.043719e-02 -1.810754e-03 -2.071288e-03 -1.224210e-03 1.069486e-03 9.119928e-04 2.393554e-03 -1.654138e-03 -8.557731e-05 -5.460818e-04 -2.131514e-04
<VARIANCE> 39
 0.000000e+00 0.000000e+00 0.000000e+00 0.000000e+00 0.000000e+00 0.000000e+00 0.000000e+00 0.000000e+00 0.000000e+00 0.000000e+00 0.000000e+00 0.000000e+00 0.000000e+00 7.215268e-30 5.740278e-30 9.907425e-31 6.378229e-33 3.732989e-32 2.832244e-31 1.647090e-31 5.612664e-33 7.947721e-34 3.533306e-32 4.188642e-32 4.197554e-33 1.866239e-36 5.242730e-02 4.308010e-03 4.828463e-03 3.723914e-03 3.905280e-03 3.459802e-03 3.704401e-03 3.736516e-03 3.287535e-03 2.844681e-03 2.523395e-03 2.245883e-03 1.678810e-03
<GCONST> -1.300000e+11
<MIXTURE> 2 1.000000e+00
<MEAN> 39
 -1.280701e+01 4.756906e+00 -1.927220e+00 -2.579999e+00 2.951190e+00 -2.003875e+00 8.622402e+00 4.263934e+00 4.434746e+00 4.959923e-01 -1.072480e+00 4.889691e+00 -1.153323e+00 -1.600183e-01 7.478337e-03 3.922622e-02 6.875449e-03 -5.208397e-02 -2.989497e-02 3.400084e-03 3.242648e-02 1.519353e-01 1.107193e-01 -1.990739e-02 -1.751671e-02 2.711753e-02 4.324902e-03 -2.065639e-03 1.914201e-02 4.784775e-03 1.012947e-02 9.411772e-04 -1.197449e-02 -6.379053e-03 -5.135654e-03 -4.098499e-03 4.932901e-04 -6.281308e-03 -4.936156e-03
<VARIANCE> 39
 5.539112e+01 3.240533e+01 3.966918e+01 4.824503e+01 4.199891e+01 5.603036e+01 4.780831e+01 3.574446e+01 4.262104e+01 3.383352e+01 2.347317e+01 3.151471e+01 2.050611e+01 6.263108e-01 7.141330e-01 1.389064e+00 1.635720e+00 1.554670e+00 1.409392e+00 1.374572e+00 1.677071e+00 1.696028e+00 1.552155e+00 1.373117e+00 1.287466e+00 1.060388e+00 9.312864e-02 1.168115e-01 2.497515e-01 2.827002e-01 2.713852e-01 2.726054e-01 2.721325e-01 3.190309e-01 3.248306e-01 3.092300e-01 2.834457e-01 2.686509e-01 2.229054e-01
<GCONST> 1.034731e+02
<STATE> 4
<NUMMIXES> 2
<MIXTURE> 1 1.000000e+00
<MEAN> 39
 -7.194802e-01 5.320293e-02 2.894306e-01 -7.845845e-01 1.667134e-01 -1.911846e+00 5.171649e-01 9.148747e-01 3.823113e-01 -6.341949e-01 -3.872614e-01 3.816344e-01 -1.825590e-01 -2.320622e-02 5.043196e-03 -7.395993e-03 -3.253867e-03 -5.298958e-02 -6.297351e-02 1.352207e-02 7.500052e-02 7.792939e-02 2.633213e-02 -1.214396e-02 -8.041868e-03 -9.303389e-05 -6.416770e-02 1.885094e-02 1.160079e-02 -3.176087e-03 5.024109e-03 -7.209181e-03 8.951697e-03 1.600079e-02 1.620876e-02 -1.627114e-03 2.880093e-03 2.897914e-03 -5.609239e-03
<VARIANCE> 39
 3.181061e+01 1.020486e+01 7.216634e+00 1.398009e+01 1.776587e+01 4.583976e+01 1.373211e+01 1.366090e+01 1.756725e+01 1.404817e+01 6.582854e+00 6.266281e+00 5.626930e+00 5.682507e-01 1.234935e-01 1.633751e-01 1.760816e-01 2.687257e-01 2.788240e-01 2.903918e-01 2.877964e-01 2.852548e-01 2.306682e-01 2.107959e-01 1.855881e-01 1.517542e-01 1.132361e-01 2.964850e-02 3.381490e-02 3.826502e-02 4.918020e-02 6.329954e-02 4.894837e-02 5.998548e-02 5.010733e-02 4.484934e-02 3.793598e-02 3.488406e-02 2.798649e-02
<GCONST> 4.558894e+01
<MIXTURE> 2 0.000000e+00
<MEAN> 39
 1.208484e-05 -8.553267e-06 -2.384186e-07 -1.952052e-06 -1.340359e-05 -3.114343e-05 -5.429611e-07 -6.236136e-06 2.693385e-06 -4.857779e-06 -7.867813e-06 4.526228e-07 9.596348e-06 -5.797483e-08 -3.934838e-07 1.234002e-08 -5.355105e-09 2.961606e-07 -4.060566e-07 -2.242159e-07 7.650815e-07 -7.157214e-07 2.267188e-08 -1.420267e-08 1.264270e-07 -1.518056e-07 -1.733069e-02 2.135032e-03 -2.558388e-03 2.833310e-04 -6.236576e-04 -1.803544e-04 -3.749149e-05 -4.109075e-04 1.268192e-04 -8.433932e-04 1.034832e-04 -7.428668e-04 1.402625e-04
<VARIANCE> 39
 3.943220e-06 1.306646e-06 2.658926e-07 0.000000e+00 4.642643e-06 1.331419e-05 0.000000e+00 0.000000e+00 0.000000e+00 4.651025e-06 1.906883e-06 0.000000e+00 0.000000e+00 0.000000e+00 0.000000e+00 0.000000e+00 0.000000e+00 2.783054e-10 4.038156e-10 0.000000e+00 1.731314e-08 0.000000e+00 3.075229e-11 7.235030e-10 0.000000e+00 6.684786e-10 1.100459e-02 5.213512e-04 5.872871e-04 3.387984e-04 4.089739e-04 3.906928e-04 4.339819e-04 3.915064e-04 3.306664e-04 3.511715e-04 2.671561e-04 2.600339e-04 1.677476e-04
<GCONST> -1.300000e+11
<STATE> 5
<NUMMIXES> 2
<MIXTURE> 1 6.279457e-01
<MEAN> 39
 -1.134325e+01 3.925147e+00 2.332419e+00 -2.234094e+00 -5.082996e-01 -7.141212e+00 3.777564e+00 8.448711e+00 6.523410e+00 1.584993e+00 -4.054926e-01 3.016639e+00 -7.225316e-01 1.197955e+00 -1.812970e-01 1.818994e-01 -1.855244e-01 -6.100588e-01 -1.593457e+00 -1.702073e-01 6.973662e-01 4.162713e-02 -3.503134e-01 -1.198100e-01 -1.429032e-01 -1.772631e-01 2.974551e-01 -1.157566e-01 -3.429294e-02 -8.952612e-03 -6.894421e-02 -1.799686e-01 -4.978814e-03 2.731452e-02 -2.497179e-02 -3.855965e-02 -8.081556e-03 -3.869404e-02 1.678658e-02
<VARIANCE> 39
 6.731393e+01 3.261472e+01 3.262733e+01 4.575409e+01 6.598118e+01 1.149892e+02 6.130729e+01 6.109669e+01 4.224984e+01 3.736356e+01 2.650904e+01 2.392607e+01 2.091173e+01 6.634047e+00 2.361763e+00 2.411406e+00 3.064639e+00 5.377823e+00 6.997009e+00 3.692349e+00 3.925517e+00 3.358174e+00 3.059058e+00 2.218752e+00 1.939181e+00 1.615929e+00 7.014008e-01 4.122256e-01 4.631999e-01 5.488634e-01 8.104723e-01 1.039569e+00 6.170359e-01 7.092707e-01 5.744712e-01 5.579061e-01 4.256217e-01 3.612047e-01 3.158655e-01
<GCONST> 1.282504e+02
<MIXTURE> 2 3.720543e-01
<MEAN> 39
 7.334477e+00 -1.906986e+00 2.310461e+00 -3.856545e+00 -3.947105e+00 -2.525011e+01 -3.802516e-01 1.285570e+01 6.425344e+00 -3.758724e+00 -2.443129e+00 1.058940e+00 -1.043297e+00 8.011569e-01 -6.798778e-01 -2.932922e-01 -1.357029e-01 -1.296787e-01 -7.198817e-01 1.138178e-02 5.934145e-04 3.545350e-01 -1.168128e-01 -1.205692e-01 -1.388896e-01 1.944677e-01 -4.165767e-01 1.221675e-01 2.933679e-02 -2.498106e-02 2.125103e-01 3.759916e-01 6.656029e-03 -1.587244e-01 -7.446830e-03 -4.415393e-03 -8.854903e-03 4.969811e-02 -1.384890e-02
<VARIANCE> 39
 1.448723e+01 3.257531e+01 3.748643e+01 3.081356e+01 1.230102e+02 7.251581e+01 1.536699e+02 5.099353e+01 8.625795e+01 3.628775e+01 2.573932e+01 2.268064e+01 2.436339e+01 1.323717e+00 1.449650e+00 1.093754e+00 1.122637e+00 1.703207e+00 2.215564e+00 2.585702e+00 1.640262e+00 2.229677e+00 1.444500e+00 1.141696e+00 1.064054e+00 8.397502e-01 2.521241e-01 2.295647e-01 2.072805e-01 2.230140e-01 3.521387e-01 3.809316e-01 4.380833e-01 3.015585e-01 3.196183e-01 2.612436e-01 2.100222e-01 2.037364e-01 1.490314e-01
<GCONST> 1.078849e+02
<STATE> 6
<NUMMIXES> 2
<MIXTURE> 1 3.303734e-01
<MEAN> 39
 5.415169e+00 2.105001e+00 8.286717e+00 -6.781950e+00 -8.577926e-01 -1.254419e+01 -1.649989e+00 1.208340e+00 9.645579e-01 -7.114693e+00 -6.873232e+00 -1.654133e+00 -3.871116e+00 -2.851391e-01 3.130485e-01 6.052674e-02 2.815401e-01 4.954672e-01 9.175517e-01 1.049259e-01 -3.888978e-01 -1.480689e-01 1.405251e-01 -1.270562e-03 -1.086269e-02 2.120528e-02 -3.672368e-02 -2.195066e-02 -1.909135e-02 2.803851e-02 -7.964722e-03 1.874656e-02 3.934168e-03 2.252965e-02 2.355867e-02 1.675401e-02 8.226101e-03 4.230997e-03 1.670455e-02
<VARIANCE> 39
 3.891982e+01 7.730728e+01 8.255802e+01 8.064613e+01 1.305227e+02 1.286988e+02 6.922740e+01 7.507511e+01 1.480531e+02 7.129701e+01 5.800704e+01 5.402071e+01 4.836290e+01 7.266253e-01 1.603099e+00 1.564424e+00 2.075258e+00 2.120817e+00 3.529207e+00 2.809938e+00 2.678776e+00 2.492136e+00 2.212294e+00 2.099703e+00 1.925633e+00 1.442251e+00 9.360091e-02 2.035649e-01 2.363898e-01 2.910679e-01 3.036974e-01 5.074446e-01 4.358215e-01 4.069343e-01 3.906559e-01 3.719486e-01 3.426550e-01 3.045939e-01 2.422782e-01
<GCONST> 1.209570e+02
<MIXTURE> 2 6.696266e-01
<MEAN> 39
 8.810984e+00 -3.566041e+00 6.217023e-01 -7.260309e+00 -4.461994e+00 -2.485660e+01 2.432517e+00 9.325836e+00 1.235634e+00 -7.774257e+00 -3.069009e+00 -3.168888e-02 -3.020636e+00 -3.273367e-02 4.029116e-02 -3.859648e-02 -1.400290e-01 3.972071e-01 2.248058e-01 -5.231507e-02 -2.534755e-01 -2.483289e-01 -9.225403e-02 2.048376e-03 1.380528e-02 -6.198340e-03 -1.778702e-02 3.932827e-02 1.004815e-02 -6.330296e-04 7.541443e-02 7.819501e-02 -1.600245e-02 -7.203474e-02 -5.974763e-02 1.717827e-02 1.298147e-02 8.088445e-03 -6.416142e-03
<VARIANCE> 39
 8.803520e+00 3.534943e+01 4.147694e+01 4.379413e+01 1.019291e+02 4.979808e+01 1.382900e+02 5.018952e+01 1.425190e+02 4.362959e+01 2.884781e+01 3.640536e+01 5.056278e+01 1.045018e-01 4.192748e-01 4.532607e-01 5.845540e-01 1.074193e+00 9.599702e-01 1.090158e+00 1.052506e+00 1.115235e+00 8.992944e-01 8.216611e-01 6.843343e-01 6.692764e-01 1.718481e-02 5.066930e-02 6.037806e-02 8.477132e-02 1.009075e-01 1.276130e-01 1.459071e-01 1.342569e-01 1.376681e-01 1.342044e-01 1.249247e-01 1.065229e-01 9.409270e-02
<GCONST> 8.537233e+01
<TRANSP> 7
 0.000000e+00 1.000000e+00 0.000000e+00 0.000000e+00 0.000000e+00 0.000000e+00 0.000000e+00
 0.000000e+00 7.990998e-01 2.009002e-01 0.000000e+00 0.000000e+00 0.000000e+00 0.000000e+00
 0.000000e+00 0.000000e+00 9.136109e-01 8.638918e-02 0.000000e+00 0.000000e+00 0.000000e+00
 0.000000e+00 0.000000e+00 0.000000e+00 8.074576e-01 1.925425e-01 0.000000e+00 0.000000e+00
 0.000000e+00 0.000000e+00 0.000000e+00 0.000000e+00 9.052695e-01 9.473053e-02 0.000000e+00
 0.000000e+00 0.000000e+00 0.000000e+00 0.000000e+00 0.000000e+00 9.455795e-01 5.442048e-02
 0.000000e+00 0.000000e+00 0.000000e+00 0.000000e+00 0.000000e+00 0.000000e+00 0.000000e+00
<ENDHMM>
