~o
<STREAMINFO> 1 39
<VECSIZE> 39<NULLD><MFCC_D_A><DIAGC>
~h "SIL"
<BEGINHMM>
<NUMSTATES> 5
<STATE> 2
<NUMMIXES> 2
<MIXTURE> 1 6.343535e-01
<MEAN> 39
 -9.558927e+00 -2.955737e+00 -2.506285e+00 4.132630e+00 -4.022208e-01 3.377083e+00 4.130420e+00 3.240064e-02 1.627516e+00 6.109094e-01 -1.318923e-01 4.498853e+00 -8.942712e-01 -6.928948e-02 3.829870e-02 -6.734582e-04 6.790166e-03 1.340300e-02 1.375837e-02 2.232590e-02 1.784532e-02 1.971374e-02 1.640245e-02 -5.062588e-03 -1.623879e-03 2.044486e-02 -2.696889e-03 4.180977e-03 1.697672e-02 -6.120666e-03 -4.228717e-03 6.320278e-04 -1.656370e-03 -2.444819e-03 6.286830e-03 -8.582719e-03 -1.216181e-02 -5.073556e-03 -4.548995e-03
<VARIANCE> 39
 4.186462e+01 7.402940e+01 3.099679e+01 3.340697e+01 4.645889e+01 4.345008e+01 2.968412e+01 3.228226e+01 3.052909e+01 2.290461e+01 1.840874e+01 1.938979e+01 2.506889e+01 1.440693e-01 3.649671e-01 4.392949e-01 5.817301e-01 7.149680e-01 8.990549e-01 1.019488e+00 1.134216e+00 1.207672e+00 1.148922e+00 1.105158e+00 1.056239e+00 9.328530e-01 2.465242e-02 5.432563e-02 8.521398e-02 1.176557e-01 1.502030e-01 1.916525e-01 2.139053e-01 2.402989e-01 2.571377e-01 2.458468e-01 2.369102e-01 2.262610e-01 2.008634e-01
<GCONST> 8.756295e+01
<MIXTURE> 2 3.656465e-01
<MEAN> 39
 -1.142323e+01 1.189757e+00 -1.150043e+00 2.073591e+00 1.984568e+00 1.458758e+00 4.666055e+00 1.247311e+00 2.303590e+00 6.847165e-01 -4.941858e-01 4.576219e+00 -1.241537e+00 -2.383977e-01 3.311241e-02 -1.279305e-02 2.437228e-02 2.793390e-02 1.407799e-01 9.608070e-02 8.677866e-02 1.114440e-01 1.082627e-01 3.608481e-02 3.226501e-02 6.382274e-02 1.940947e-02 3.630415e-03 8.181022e-03 2.361297e-02 2.753633e-02 -1.779759e-02 -3.005121e-02 -1.506858e-02 -2.992165e-02 -1.730591e-02 -1.236073e-02 -2.410082e-02 -2.872620e-03
<VARIANCE> 39
 4.480489e+01 6.668343e+01 4.001367e+01 5.130425e+01 5.788618e+01 6.144305e+01 5.531167e+01 4.810794e+01 4.128096e+01 3.064755e+01 2.747056e+01 2.852841e+01 3.160432e+01 1.514161e+00 2.485977e+00 2.332164e+00 2.129232e+00 2.084023e+00 2.247124e+00 2.255863e+00 2.281002e+00 2.357451e+00 2.077529e+00 1.851172e+00 1.746888e+00 1.433622e+00 2.191909e-01 3.888186e-01 4.058700e-01 3.762366e-01 3.878883e-01 4.263409e-01 4.298833e-01 4.452224e-01 4.540788e-01 4.104838e-01 3.682645e-01 3.519675e-01 2.906989e-01
<GCONST> 1.171093e+02
<STATE> 3
<NUMMIXES> 2
<MIXTURE> 1 6.952365e-01
<MEAN> 39
 -4.614826e-36 4.088473e-39 7.546833e-41 -2.003180e-38 -1.016468e-37 1.405099e-39 -7.973388e-43 7.664946e-39 -1.286953e-38 1.415171e-41 6.993320e-41 6.165994e-41 1.993908e-41 5.552645e-41 1.641061e-40 1.461414e-41 6.268008e-42 1.373272e-43 -2.054304e-42 1.018744e-41 -2.522337e-44 -2.642154e-39 1.558244e-42 1.841306e-42 3.833953e-42 -1.401298e-45 -1.041492e-02 1.165869e-03 -4.681267e-04 1.067939e-03 -3.674125e-04 -4.449329e-04 -4.800549e-04 -8.346118e-04 -4.919678e-04 -6.385805e-04 -4.974747e-04 3.757836e-04 -7.628010e-04
<VARIANCE> 39
 1.000000e-02 1.000000e-02 1.000000e-02 1.000000e-02 1.000000e-02 1.000000e-02 1.000000e-02 1.000000e-02 1.000000e-02 1.000000e-02 1.000000e-02 1.000000e-02 1.000000e-02 1.000000e-02 1.000000e-02 1.000000e-02 1.000000e-02 1.000000e-02 1.000000e-02 1.000000e-02 1.000000e-02 1.000000e-02 1.000000e-02 1.000000e-02 1.000000e-02 1.000000e-02 1.000000e-02 1.000000e-02 1.000000e-02 1.000000e-02 1.000000e-02 1.000000e-02 1.000000e-02 1.000000e-02 1.000000e-02 1.000000e-02 1.000000e-02 1.000000e-02 1.000000e-02
<GCONST> -1.079245e+02
<MIXTURE> 2 3.047635e-01
<MEAN> 39
 -3.073403e+01 1.425273e+01 -6.347635e+00 2.336389e+00 -7.483404e-01 1.066642e+01 -1.116233e+01 5.172227e+00 2.572465e-01 4.570226e-01 -1.853601e+00 4.806254e-01 3.082728e+00 -1.703352e-02 1.551152e-02 3.685159e-02 3.168634e-02 1.600667e-02 2.196852e-03 1.066339e-02 1.046215e-02 6.194680e-03 -2.002487e-03 -2.168891e-02 -2.960364e-02 -1.420306e-02 6.402527e-02 -2.888847e-02 1.946194e-02 2.577228e-02 -3.223030e-03 -2.393205e-02 1.966219e-02 7.751088e-04 -1.281637e-02 -3.375708e-03 5.767592e-03 -3.608371e-03 -2.195551e-02
<VARIANCE> 39
 7.722108e+01 3.633752e+01 1.621295e+01 8.805264e+00 1.116743e+01 2.184221e+01 5.614600e+01 9.989722e+00 7.891666e+00 5.587424e+00 5.826734e+00 7.160335e+00 7.011834e+00 2.358004e-01 2.073665e-01 2.922952e-01 2.998027e-01 3.982294e-01 4.320155e-01 5.057585e-01 5.343324e-01 5.329021e-01 5.498871e-01 5.658979e-01 5.152957e-01 4.229449e-01 9.825453e-02 6.422583e-02 7.037972e-02 7.732156e-02 9.463117e-02 1.049519e-01 1.273331e-01 1.155301e-01 1.163909e-01 1.174336e-01 1.189772e-01 1.076718e-01 9.144803e-02
<GCONST> 6.387524e+01
<STATE> 4
<NUMMIXES> 2
<MIXTURE> 1 5.103472e-01
<MEAN> 39
 -1.256804e+01 6.479373e+00 2.038786e+00 8.567524e+00 2.427899e+00 5.176943e+00 4.114543e-01 4.024741e+00 1.021508e+00 1.262775e+00 -1.256009e+00 9.477930e-01 3.137723e-02 -8.586787e-02 3.690922e-02 2.457621e-01 1.594240e-01 1.689443e-01 5.045222e-02 3.103973e-02 6.963865e-02 1.091670e-01 7.266748e-02 3.943156e-02 6.249414e-03 -1.648775e-02 1.051229e-02 -3.655927e-02 1.203187e-02 -3.837839e-02 1.769672e-03 -1.438639e-02 9.163395e-03 8.845959e-03 -7.347676e-03 -3.171584e-02 -5.209196e-03 1.373672e-02 -1.236865e-02
<VARIANCE> 39
 7.612381e+01 6.791934e+01 3.206618e+01 5.097443e+01 4.710615e+01 4.857334e+01 4.886001e+01 4.522910e+01 3.813118e+01 2.496777e+01 2.466132e+01 2.227277e+01 1.953887e+01 6.615518e-01 8.886616e-01 9.175950e-01 1.017072e+00 1.108420e+00 1.194592e+00 1.274129e+00 1.362965e+00 1.347271e+00 1.241394e+00 1.154082e+00 1.094268e+00 9.258087e-01 1.785030e-01 2.040161e-01 1.926394e-01 2.249779e-01 2.455316e-01 2.707347e-01 2.889727e-01 3.002017e-01 2.985176e-01 2.784478e-01 2.593574e-01 2.391664e-01 2.035334e-01
<GCONST> 1.016392e+02
<MIXTURE> 2 4.896528e-01
<MEAN> 39
 -1.020193e+01 3.199551e+00 2.373005e+00 5.452412e+00 2.385052e+00 2.486034e+00 1.580645e+00 3.328131e+00 1.332066e+00 -7.191740e-01 -2.476467e+00 1.183569e+00 -1.171889e+00 1.273982e+00 -3.833585e-01 4.658445e-01 1.614458e-01 4.792918e-02 -5.415885e-01 -1.025224e-01 -1.463170e-02 -2.565329e-01 -5.430909e-01 -4.399176e-01 -3.804746e-01 -3.820809e-01 6.029564e-02 -8.747855e-02 5.094163e-03 -3.020878e-02 5.573182e-03 -8.083791e-02 -5.798243e-02 -1.463480e-02 1.865065e-03 -3.867018e-02 -9.503978e-03 -1.724554e-02 6.533443e-03
<VARIANCE> 39
 9.643607e+01 9.792954e+01 6.559746e+01 7.856171e+01 8.060581e+01 7.181393e+01 7.312693e+01 5.997856e+01 4.726611e+01 4.559750e+01 3.356037e+01 3.527980e+01 2.955104e+01 5.178400e+00 5.150322e+00 3.770604e+00 3.737880e+00 3.884596e+00 3.836053e+00 4.076818e+00 3.454412e+00 3.297246e+00 2.993804e+00 2.481349e+00 2.278534e+00 1.766467e+00 7.921278e-01 8.026540e-01 6.029379e-01 5.582282e-01 6.184182e-01 6.333398e-01 6.467891e-01 5.800772e-01 5.622950e-01 5.424428e-01 4.485731e-01 3.958752e-01 3.163141e-01
<GCONST> 1.329065e+02
<TRANSP> 5
 0.000000e+00 1.000000e+00 0.000000e+00 0.000000e+00 0.000000e+00
 0.000000e+00 9.535479e-01 4.645211e-02 0.000000e+00 0.000000e+00
 0.000000e+00 0.000000e+00 9.280416e-01 7.195845e-02 0.000000e+00
 0.000000e+00 0.000000e+00 0.000000e+00 9.013939e-01 9.860606e-02
 0.000000e+00 0.000000e+00 0.000000e+00 0.000000e+00 0.000000e+00
<ENDHMM>
